#version: 0.2
Ġ Ġ
ĠĠ ĠĠ
ĠĠ Ġ
ĠĠĠĠ ĠĠĠ
> <
i n
o r
s e
a t
o n
e r
e n
Ġ t
Ġ =
r e
) <
s t
d e
>< /
a r
a l
ĠĠĠĠ ĠĠĠĠĠĠĠ
r o
i m
l e
a n
: <
u t
c h
i on
i t
l f
a s
se lf
g e
Ġ p
Ġ f
l o
a m
, <
e d
Ġ "
c t
ĠĠĠĠ ĠĠĠĠ
Ġ m
h e
Ġ re
c e
Ġ c
or t
Ġ n
Ġ in
Ġ i
in g
im p
Ġ s
Ġ self
imp ort
a d
e x
o de
Ġ d
u r
ro m
en t
Ġ o
p e
i g
) :<
i z
Ġt he
de f
p t
at a
u m
Ġ a
Ġ b
u n
e s
i d
a ge
r a
Ġ #
ode l
e t
" "
d i
p ut
u e
f rom
Ġ import
l i
Ġ w
at e
c k
Ġ (
se r
ur n
Ġt o
or ch
. <
l a
u l
st r
t o
e m
se t
Ġi f
Ġre t
Ġf or
s s
ex t
ĠĠĠĠ ĠĠĠĠĠĠĠĠĠĠĠ
en s
ar g
an d
Ġ as
iz e
on e
ge t
Ġret urn
_ _
o t
in t
e l
c on
> #
i l
at h
Ġ def
or m
c o
Ġ -
p o
Ġ N
h t
v al
r an
i c
( )<
Ġt orch
Ġ T
arg s
at ion
am e
] <
i s
p ar
Ġ 1
u p
s ize
d ata
( "
Ġc on
Ġi s
v er
o l
q u
y pe
= =
l en
( )
Ġ A
Ġ '
( <
m odel
# #
Ġ g
f ig
Ġ lo
t ext
ens or
Ġ" ""
ĠN one
Ġ *
" <
- -
Ġ [
Ġ C
er s
ĠĠĠĠĠĠĠĠ ĠĠĠĠĠĠĠĠ
v i
i le
e st
ig ht
p ath
" )<
k e
Ġ {
Ġo f
e p
o d
s h
as k
Ġ L
at ch
it h
as s
ul t
o m
Ġ 0
t h
c l
" ,
a p
ut put
f orm
Ġ +
Ġ h
ra in
p le
ct ion
at t
a b
v e
Ġ S
p y
Ġ and
n ame
Ġ st
d er
Ġ= =
p ro
Ġ 2
r i
Ġ e
Ġn ot
a x
Ġd ata
f f
in e
em b
p l
Ġ ex
d ing
ser t
to k
pt ion
Ġ x
Ġ P
al l
u s
Ġm odel
re s
Ġp ar
t ype
Ġn um
Ġd i
en d
Ġ )<
. .
ran s
Ġ l
am ple
in it
r ue
" :
Ġ""" <
ke y
al le
Ġas sert
Ġ de
q ue
ch e
Ġ r
la y
[ "
) .
Ġ- >
Ġ str
en se
Ġ F
c or
Ġ D
n um
im age
) )<
cl ass
Ġ get
Ġ R
" ]
Ġ <
i st
p re
Ġw ith
w a
emb ed
Ġ I
e g
a pe
li st
alle l
di ct
Ġt h
c al
p er
d im
g g
ce ss
r or
== ==
Ġ O
Ġre s
o w
r int
e w
t rain
im e
u se
Ġ _
con fig
a se
0 0
que st
Ġ or
ic ense
## ##
o s
ab le
iz er
Ġ se
g r
rans form
di r
al se
ar d
el se
a in
t ensor
in put
Ġ else
u le
il s
" ,<
b ut
lo ad
r on
ct or
de x
t er
g th
wa it
ĠĠĠĠĠĠĠĠ ĠĠĠĠĠĠĠĠĠĠĠ
Ġ M
' ,
f ile
len gth
Ġp age
str i
. _
ĠL icense
] ,
e ight
a ck
vi ce
i f
en ce
m ask
t orch
par am
lo ck
he ad
( '
sh ape
o ut
Ġn p
an ce
co m
T rue
par allel
de d
d a
data set
ap p
Ġin put
Ġ args
y n
od ule
Ġ /
o c
rom pt
Ġto k
ad d
-- --
o utput
Ġf rom
u b
che ck
Ġp ro
Ġs h
Ġa wait
) ,
Ġo utput
Ġ an
= "
la b
p on
Ġp rint
po int
m et
Ġ val
i al
Ġ __
en er
lo at
w or
es s
Ġ B
"" "<
it ion
C on
embed ding
eg at
w ard
ran k
b atch
) ,<
li c
Ġ un
yn c
a g
id d
m ent
Ġp re
s on
Ġo s
Ġ U
tok en
u re
Ġt est
ent ion
id s
Ġ j
l ine
i se
idd en
pon se
Ġin t
egat ron
ut ils
O N
p s
ro up
Ġb e
m ax
um ent
Ġ E
i x
a y
j e
o ol
st ate
ar t
Ġ en
at or
Ġ on
ce s
Ġcon fig
Ġ use
Ġ len
stri but
lay er
[ '
r ror
Ġ 3
Ġ y
an g
ep s
__ (
) :
a ve
Ġ W
} <
Ġ v
qu er
Ġf ile
el s
h od
l l
c ode
Ġ ro
pro cess
ess age
Ġ ch
Ġ G
f t
o ur
st at
a ult
co der
gg er
I N
E rror
n n
O R
n orm
ar get
Ġ >
stribut ed
an n
() .
re d
in f
app end
Ġc om
Ġpar am
quer y
Ġ image
lo g
Ġd im
gr ad
a i
f or
Ġcon text
.. .
( ):<
t est
con t
ser ver
Ġn n
ption al
T I
Ġdata set
l y
' )<
pl it
Ġ V
ht t
w eight
tok ens
s w
Ġt ensor
po s
o py
p a
s ample
" )
Ġ k
un ction
c u
qu i
cor e
i pe
in d
lo b
' ]
Ġ att
Ġ it
e val
Ġm ax
an t
p en
u ser
[ :
Ġm egatron
st ance
pe c
r ight
F alse
ĠT he
r y
it y
b u
o k
r g
w args
N one
Ġt rain
s c
Ġ :
ran ge
con text
check point
ransform er
lo w
un t
Ġtok en
in dex
a c
un k
Ġ `
r it
/ /
b er
je ct
ro w
Ġ ra
im g
0 2
==== ====
T ensor
o b
ce pt
: //
ion s
E N
p u
cu da
Ġs up
b o
o u
ch ed
er n
it s
pe ct
id x
ur l
val ue
i as
ar y
d s
Ġa p
pt im
' :
Ġb atch
a v
de vice
lo ss
ro p
D I
># <
f loat
Ġw h
met hod
#### ####
k wargs
Ġt ext
Ġ* *
cal e
] )<
ut e
Ġlo g
m o
Ġt ype
ra y
e at
i ct
Ġp o
a st
j o
á ´
Ġ list
ation s
Ġ @
Ġb y
S E
ĠF alse
Ġth is
Ġ key
p rompt
o ft
Ġun der
gg ing
Ġ .
ĠR et
o ul
i r
m l
Ġ set
or e
re t
p h
b ack
] .
ar ray
Ġcon t
Ġst ate
oul d
lob al
t ime
Ġ %
Ġs ample
un d
Ġ 4
us ion
ĠO ptional
er ror
qu ence
Ġ[ ]<
Ġ all
. """<
D ata
ipe line
M odel
i v
re ate
e an
f a
Ġ( <
se s
i ve
our ce
p ort
ow n
i es
Ġres ult
E R
inf o
g roup
b lock
it em
' <
Ġres ponse
Ġm ask
and om
ĠA rg
z er
Ġde vice
Ġc l
or y
Ġg r
i p
arg ument
Ġm et
n ing
ĠĠĠĠĠĠĠĠ ĠĠĠĠĠĠĠĠĠĠĠĠĠĠĠ
in al
ĠT rue
Ġ al
param s
f g
( [
Ġre qui
form at
up le
Con fig
embedding s
ff usion
= '
Ġra ise
j son
Ġlo ad
E S
l d
vi ew
at ed
a ch
P T
Ġth at
] ,<
S t
u st
ĠĠĠĠĠĠĠĠĠĠĠĠĠĠĠĠ ĠĠĠĠĠĠĠĠĠĠĠĠĠĠĠĠ
Ġex cept
ĠI n
Ġt ime
un c
li b
m at
ĠU n
Ġh idden
res ult
Ġlo ss
Ġo ut
ur r
Ġdef ault
sw er
la st
1 6
per t
il d
stat es
Ġ H
TI ON
Ġ+ =
Ġsup er
Ġo b
s plit
---- ----
i o
Ġp rompt
Ġw or
ro po
Ġb u
ropo ut
f ix
wor k
3 2
lab le
Ġre quest
Ġp ath
ĠArg s
m odule
jo in
I n
n p
Ġ range
am es
R E
ch ann
A S
y s
Ġlo gger
ctor y
ul er
c li
h idden
ar ded
ent s
Ġ htt
st art
Ġin dex
il l
Ġg ener
o p
b ase
opy right
" ]<
row ser
Ġin it
u es
lo c
R A
st ep
Ġi d
p ing
* *
m in
urn s
Ġ{ <
ĠC opyright
Ġas ync
u al
l at
e c
qu at
n t
M odule
Ġt arget
L I
Ġa re
1 2
cont ent
in stance
ind ow
Ġ server
Ġp er
re ct
le ct
[: ,
gr am
p age
Ġval ue
ptim izer
o ad
head s
a ct
Ġn ame
co l
co unt
Ġnum py
m a
r ame
n e
ĠL ist
a che
Ġfor ward
is ion
ig n
lay ers
Ġj son
sc ri
d f
Ġ q
re quest
Ġp os
Ġ \
P ar
m age
ff er
A T
as ync
m essage
u age
f eat
ang uage
Ġd type
s um
ĠA n
Ġw eight
D E
t al
n ew
w w
di ces
v ed
d type
ĠRet urns
ce ption
Ġdi stributed
... ,
et ers
t e
ver s
Ġp y
> @
Ġb ool
Ġm essage
la ce
ched uler
re e
di stributed
Ġs ize
ĠE x
it er
er ence
Ġm ay
Data set
Ġgr ad
Ġ 5
li f
pl y
ult i
Ġ at
le v
att ention
chann els
h is
Ġt y
se q
A R
Ġs pec
se d
o ver
t em
re ad
r ic
n d
( (
} ")<
po ch
Ġdi ct
Ġp ad
Ġb lock
l er
Ġ[ "
pro b
b ias
t arget
ĠC on
g ener
se ed
Ġc ol
Ġatt ention
st eps
val id
o ck
Ġa g
Ġf unction
Ġtoken izer
i el
Ġg roup
ĠS e
ine ar
oc ab
t on
u ate
Ġe lif
() )<
im est
urr ent
Ġty ping
Ġn e
v ar
ch unk
Ġ K
m ean
p ad
Ġ2 02
ir st
ction s
f il
t a
train ing
s ave
Ġf loat
iz ed
ver t
w ith
ĠĠĠĠ Ġ
m ap
vi de
u res
t ra
Ġa c
Ġw e
train ed
lab els
Ġt ry
; <
Ġtok ens
] :<
p rint
A G
en v
le ment
com m
Ġ{ }
t ransformer
" :<
p lace
al ue
am b
Ġr un
ht ml
S T
F I
i ss
Ġa x
g o
ut ion
r un
Ġ imp
pos ition
Ġ query
m ain
Ġs ub
Ġ ...
f unc
Ġ add
rit e
ext ra
c at
Ġap p
I T
ad ata
o le
U T
ĠAn y
Ġr ight
Ġ img
en coder
Ġ he
ri x
if ic
Ġt ransform
res ponse
Ġst ep
er e
Ġy ou
s ub
t t
u c
b y
ut o
ar ch
g pt
le s
Ġro t
g lobal
o i
Ġsh ape
P I
t ask
Ġo pen
er ver
ĠP age
Ġcl ass
par se
token izer
Ġis instance
Ġn o
quest ion
amb da
d ate
) )
Ġlo gging
Ġh as
t he
c fg
att n
n g
Ġn orm
Ġn ew
A L
Ġst art
t ransform
po se
s cale
iz ation
Ġe val
ro t
E M
ĠT his
l p
(). __
o und
t rans
vers ion
o us
ro ss
l u
6 4
> )<
Ġm at
po st
ĠA ll
Ġrequi red
cor es
ĠD ict
ĠS t
__ ()<
p atch
lo gger
eval uate
ĠĠĠĠ ĠĠ
Ġpar ser
Ġc opy
f unction
> )
Ġ z
Ġ up
Ġ layer
put e
] )
lo cal
n o
em ory
. ")<
am pl
Ġval id
Ġs oft
Ġnum ber
[ ...,
sh ould
att r
a k
ap i
"] )<
oad er
Ġc ode
on g
Ġ rank
' ,<
Ġt ask
sample s
v id
i de
= -
m s
quat ern
ser ved
Ġ !
l r
Ġright s
Ġc o
q d
' )
V I
pa ce
am a
iel d
n et
Ġpar t
" {
Ġ }<
ĠV alue
int er
e f
lab el
lic y
Ġ error
Ġpar allel
id th
Ġre served
in s
em pt
ĠD ata
at es
Ġ/ /
[ -
cl s
b le
wa re
or g
and le
to ol
Ġ! =
Ġ\ <
Ġ[ <
ial ize
H O
a u
ai lable
E x
Ġch unk
s pec
Ġb ase
Ġ user
re g
IN G
o ff
th er
c all
ĠP ath
T ype
ĠS erver
an ge
bo x
zer o
th on
str u
model s
======== ========
` `
d oc
im it
R es
( -
um n
Ġr andom
s oft
Ġd oc
c lo
ig inal
weight s
Ġ le
Ġto p
own load
qd m
h o
Ġ checkpoint
scri ption
Ġp ass
v ent
P ro
d ropout
wor ld
s q
Ġ Y
ĠValue Error
Ġto tal
lic ense
Ġb ias
pre ss
ar k
Ġ length
re ctory
an swer
######## ########
ro ute
f erence
t r
= {
as ses
wor d
P OR
l in
con d
Ġuse d
con v
Ġhtt ps
) .<
L E
ul l
A TION
Ġmet hod
et er
pl ate
" .
m b
zer os
ĠĠĠĠĠĠĠĠĠĠĠĠĠĠĠĠ ĠĠĠĠĠĠĠĠ
Ġe ach
ĠUn ion
f n
en ame
Ġs ys
u d
C EN
u de
Ġd o
n ode
ut il
def ault
00 0
a re
1 0
u ce
Ġse quence
Ġin ter
L inear
Ġs ave
Ġpro cess
Ġ{ "
Ġs cale
od y
key s
Ġid x
> >
a ke
L M
y st
se nt
Ġw ill
R e
pre fix
d rop
f o
in dices
Ġm in
pre trained
empt y
se quence
ra ph
CEN SE
Ġ us
ol d
Ġtrain ing
Ġpos ition
go to
e poch
ct x
' s
Ġcom p
z e
Ġt ra
Ġ" /
log its
S e
Ġ la
ig h
ay er
L O
re am
le ss
cor d
et a
Ġ )
Ġt qdm
Ġ embedding
ra p
Ġto ol
n er
Ġc reate
A I
w e
ut h
Ġg lobal
ex pert
ic ro
() ,
Ġlog its
en c
norm al
D ict
ĠS h
Ġparam s
' .
is ode
par t
ke ep
Ġax is
et un
feat ures
o g
Ġ head
Ġin s
a f
Ġs plit
ur ation
Ġd is
lev el
vide o
w rite
ar ning
RA N
D i
s ole
Ġ end
ers ion
Ġl anguage
o pen
int s
vi ron
r t
Ġw rit
c pu
r andom
t es
om ain
ist s
c ur
m iss
em a
m p
set s
t imest
DI A
dataset s
s cores
ath er
Ġatt n
t ain
Ġb rowser
N orm
Ġc or
A M
Ġm ath
Ġbu ild
w indow
VI DIA
yst em
val ues
Ġa ct
AG E
ex p
} "<
Ġs c
Ġ check
for ward
_ (
l m
Ġc fg
Ġsoft ware
m ode
Ġ ]<
ing le
result s
Ġspec ific
c reate
item s
b in
g ment
st er
p ipeline
Ġ ad
ist er
Ġon ly
I S
i ch
ĠC OR
load er
Ġhtt p
Par am
b s
pt h
pa che
Ġit er
n ot
Ġm odule
Ġn ode
ith er
Ġsh ould
ĠA pache
= [
it le
Ġf il
Ġo ptimizer
Ġc an
Ġb ut
block s
ac y
v ision
lo t
ĠN VIDIA
Ġ |
ĠV ersion
Ġt em
' :<
ĠO R
and ler
pect ed
Ġ last
o f
ro und
k v
ax is
ag ent
mb ed
to p
Ġ> >>
ĠEx ception
Ġ }
i an
li ed
lo s
ĠCOR POR
str ing
num py
ĠCORPOR ATION
ate g
back end
C H
r c
ok en
\ \
ĠC ON
Ġwor k
F a
b ar
la g
a ction
U L
he ck
ww w
Ġ= >
all y
s ource
Ġl imit
Ġ ):<
ol ution
ab s
ri but
Ġe ither
ĠI mage
ĠI f
bu ffer
i ent
ep isode
ĠO F
ĠA N
loc ator
> """<
Ġc a
re q
ĠSe e
cl asses
Ġm o
at ure
co ding
d d
Ġc urrent
Ġstr ing
' ]<
re place
ss ion
ens ion
Ġl ine
ĠY ou
Ġ Q
ri e
"] ,<
vid er
Ġm ean
t ils
di st
ĠN ot
Ġpo st
at al
P ipeline
Ġimage s
Ġf irst
ent ype
R O
ob ject
oi ce
ric s
s m
y le
Ġweight s
am p
Ġ quatern
i ed
al c
fa ctor
f rame
m ark
Ġapp lic
Ġins pect
Ġ 8
d b
ra w
stri p
Ġob tain
Ġval ues
P U
ro ot
image s
Ġv ar
di v
Ġ url
ĠI S
IN D
P RE
ption s
Ġen um
Ġwh ich
st ant
Ġm atch
Ġ{ }<
Ġrequi res
t ing
Ġw indow
sh ot
av ailable
() ,<
m an
er ge
Ġt im
re ed
Ġex press
embed s
ĠW AR
de c
Ġan swer
w right
Ġl ambda
lay wright
Ġ extra
di ffusion
Ġgener ate
soft max
Ġ embeddings
L o
u ous
htt ps
t able
ve ctor
ĠAN Y
Ġ labels
v ocab
Ġf a
ith ub
-------- --------
Ġpad ding
Ġ one
Ġb ack
ĠT uple
f p
ex ample
c a
Ġm pu
I mage
li ent
TION S
Ġmodel s
ĠWAR RAN
p i
clo se
L icense
] ]
Ġf eat
FI X
Ġlo cal
. __
Ġ ..
Ġwrit ing
ile d
Ġl at
ern el
ĠW IT
TI ES
Ġper miss
Ġtransform ers
u ff
ot h
ĠWARRAN TIES
n ames
process ing
Ġhe lp
x t
g ithub
s ign
co py
Ġh ave
param eters
ll m
m atch
Ġcont ent
LI CENSE
P E
um m
use d
") ;<
M ix
ĠĠĠĠĠĠĠĠĠĠĠĠĠĠĠĠ ĠĠĠĠĠĠĠĠĠĠĠ
g ine
Ġasync io
Ġpy test
Ġm ain
li ance
"" "
Ġapplic able
Ġ argument
Ġo ver
ĠK IND
HO UT
Ġus ing
ĠWIT HOUT
Ġcom m
license s
5 6
Ġpermiss ions
Ġ arg
Ġla w
c ache
al lable
Ġinput s
Ġag reed
Ġcomp liance
Ġimp lied
Ġg over
ap ache
ĠLicense d
ĠB AS
Ġparam eters
DI TIONS
module s
tem plate
ĠCON DITIONS
Ġgover ning
ĠBAS IS
se lect
Ġf ol
Ġm ust
ĠR e
ĠUn less
Ġlimit ations
b i
PRE FIX
N et
iv en
point s
ĠT ransformer
atal oader
ro l
( __
T rain
li ke
Ġdoc ument
Ġm ulti
line ar
b ool
ple t
Ġdi rectory
ĠM odel
mo ve
cli ent
s p
s pace
Ġb et
Ġfor mat
trans pose
A tt
Ġ1 2
" ).
num ber
A N
ä ¸
Ġre ad
k ip
on es
02 4
C h
Ġsup port
L ist
Ġ keep
type s
pro j
u gging
de scription
ĉ ĉ
Ġs cal
st ack
re qui
ri pt
ĠU tils
L U
m ot
Ġ J
Ġen coder
code d
ck et
T O
le an
iv ation
" ):<
F or
pre d
Ġsample s
bu g
se arch
Ġin dices
ig uous
r and
Ġm ock
app ing
O DE
Ġwor ld
Ġrequest s
Mix in
} .
ĠG PT
backend s
w idth
S cheduler
Ġf in
er ate
stat us
E n
po licy
f r
} \
it e
L ayer
DI R
] [
Ġf ound
Ġg pt
q a
it ies
ĠT ensor
que e
Ġmat rix
2 0
s cal
up date
quee ze
" ),<
( *
or s
Ġt uple
Ġ 6
en der
Ġex ample
b e
le ase
Ġs ource
Ġdi ffusion
ret ro
Ġresult s
Ġa v
mat rix
ent ial
' '
P re
t xt
ĠB ase
ph a
re shape
Ġin to
but ton
fil ter
s queeze
Ġit em
E D
ĠD ef
input s
Ġcor rect
ret urn
per ature
g ent
ve c
Ġcon v
e ad
nd array
T oken
b ody
ar r
ang les
ck pt
Ġsh arded
I L
at io
as h
met a
fil ename
igh b
en ch
Ġor iginal
ob s
F A
att er
file s
lin es
mbed ding
Ġp ipeline
Ġg iven
Ġv ocab
reg ister
iz es
r ate
ut f
fa ce
> """
Ġa ction
ĠP y
in ue
le ction
if t
Ġenum erate
i ble
par ser
c urrent
Ġm ode
Ġo ther
re ss
Ġin stance
Ġof f
C K
ul ate
ĠT ool
UL T
o ptimizer
gener ate
ampl ing
C T
di s
Con text
ang le
B ase
ag er
ml p
A n
Ġ ent
ex ists
l att
ar m
uc cess
a ded
Ġd rop
ĠC om
O utput
Ġc all
Ġkey s
group s
cli ck
la x
i e
er t
cont iguous
comm on
m emory
tensor s
latt en
Ġn on
Ġ" <
" ))<
c ent
alle d
Ġne ed
at ing
u ct
Ġwh en
ast er
9 9
f low
Ġfor m
Ġag ent
Ġc alc
} )<
ampl er
Di ffusion
ss ian
Ġro ute
ateg y
Ġ1 00
Ġ> =
Ġfol low
re f
l anguage
met adata
Ġpre fix
Ġt r
S I
s core
st d
de bug
Ġex ist
Ġvar i
1 4
Ġch ann
htt p
function al
B lock
Ġse q
á´ ĩ
tok entype
ex ec
co s
is h
us al
ag ic
om e
u ation
de coder
_ {
i ck
w h
ĠA uto
ag ster
c um
Ġan g
ed it
Ġ1 0
d omain
Ġm ake
ĠD i
FA ULT
P AGE
a pt
Ġex p
= (
EM PT
Ġarg parse
Ġan y
Con v
sq rt
EMPT Y
g ather
n ow
v is
Ġt e
Ġ( `
ï ¼
(" --
Ġex pert
Ġ zero
Ġdi ff
ll ama
message s
) ))<
for e
prob s
A rg
t itle
ĠC heck
en gine
stat ic
Ġdataset s
Ġob ject
ĠSh arded
f ul
__ (<
sh arded
ed i
ĠA PI
ĠB rowser
Ġen v
Ġcl s
etun e
( {
p lot
Ġ embed
ĠF or
Ġ< =
Ġnorm al
s ync
Ġt rans
"] ,
0 1
l t
p ed
). __
D O
Ġs av
class method
com p
St ate
d ition
Ġro ot
au ssian
E T
e y
Ġst at
Ġex ec
re sh
ig ma
Ġstr ide
Ġmessage s
f irst
if y
w o
Ġ eps
st ra
Ġap i
ð Ŀ
en viron
Ġs ame
by tes
5 5
ra g
la p
Ġrot ation
com pute
t im
ap ply
m ul
m ulti
il ity
work ers
ĠP ro
init ial
"] .
ĠRet ro
Ġinit ial
o ptim
le ctor
pro vider
ĠP ar
v a
Ġ $
le d
Ġ" "<
s cheduler
ĠC h
Ġcont ain
} ,
ĠĠĠĠĠĠĠĠĠĠĠĠĠĠĠĠ ĠĠĠĠĠĠ
3 4
Ġs o
qu al
Ġdi st
Token izer
Ġp laywright
vi ded
static method
1 00
h andle
Ġd ropout
ist ory
oi ces
w rap
Ġ202 4
Pro cess
u id
ĠData set
los ses
C ON
M A
Ġf rame
scri pt
< /
P O
re p
de code
) ]<
l ambda
r ad
ĠT est
ĠP IL
. ,
ver y
ĠC allable
sw ers
Ġt imest
cor rect
N AM
Ġ á´
an k
ise s
Ġimp lement
ce ler
Ġl r
red uce
bo ok
' t
ent ity
Ġ ctx
ol ver
T he
Ġ question
Ġre g
to tal
back ward
Ġ202 3
L oader
g n
n ext
(" /
o pt
} /
qu ant
B u
Ġ 7
ol der
var i
Ġp atch
h andler
Ġin st
bu ild
Ġwh ile
var s
"] ["
r ng
Ġa b
ust om
Ġse ed
unt ime
as set
ument s
as on
Ġd at
ĠW e
Ġmet adata
py thon
G ener
c ross
batch es
ĠDef ault
l ama
Ġ ),<
Ġ utils
Ġex c
gr id
transform ers
I m
o x
it ude
Ġre cord
(' --
col umn
ODE L
) ):<
R et
Ġcon sole
Ġfile s
inf erence
c am
d own
g raph
en code
Ġt ransformer
Ġo ptional
timest eps
t uple
or der
ched ule
AT A
Ġt able
Ġm emory
di o
ĠS et
m m
m ath
0 4
Ġcon vert
or age
Ġd ownload
and b
per m
fr ames
c ast
al f
'] )<
p ass
ch at
U n
Ġm agic
Ġe poch
Ġro w
w ise
r atio
Ġn ext
p p
ut ure
Ġdo es
le te
con ne
dec ay
c ision
Ġ vector
Ġoutput s
gram s
5 0
E Y
O T
d ownload
path s
Ġk ernel
re ak
. "<
ĠA tt
ĠG ener
A D
Ġdim ension
v ents
ç ļ
ch oice
ver age
able d
je ction
user s
Ġquatern ion
çļ Ħ
a uto
e vent
v el
init ialize
Ġca ption
i que
le g
Ġh andle
uff le
Ġfollow ing
Ġ label
1 1
E X
Ġs um
sw ith
in o
ort ed
Ġcom pute
Ġcont inue
d ataloader
p ack
Ġw idth
l ation
ro py
D e
re cord
Ġpro vided
a red
} ,<
) ).
in v
ĠG et
R L
w d
g t
Ġap ply
stra ct
K EY
imp le
ĠC reate
Ġex pected
Ġal low
M ODEL
s in
li p
Ġ- -
lev ant
ema il
> _
g pu
l ta
p or
Ġs q
um ber
un squeeze
E mbedding
de t
Ġf inal
cor er
ĠG PU
P ath
f ull
ro le
att ern
Ġde coder
tool s
d um
f ter
Ġs core
pro pert
Ġpath lib
Par allel
] ["
f lag
pre sent
f in
Ġs ystem
ri es
Ġz ip
) [
Ġse ssion
low er
ho st
ver se
" \
le m
ri er
St r
st age
qu ential
pro d
ri eval
Ġen coding
Ġmet rics
A B
s im
Ġ layers
ar ange
Ġpro b
T o
f c
ct ed
"] [
'] .
ĠT ask
form s
ms g
mask ed
i er
ĠR es
if ied
lo gging
ul ar
ob j
Ġwh ere
Ġpo ints
Ġ" __
Ġs in
et ime
cur acy
NAM E
f req
u g
cl ude
ribut e
H ead
Ġ video
ple ment
Ġor der
6 8
Ġt wo
Ġs ingle
f latten
Ġm an
di ction
feat ure
K EN
2 2
g round
Ġp ipe
Ġe lement
Att ention
d o
ed ge
Ġm erge
Ġst eps
av g
Ġhe ight
G PT
ic s
dir name
Ġra w
st op
Ġargument s
T est
on ly
m ult
s ys
we en
Ġbut ton
F orm
et ch
ting s
+ +
C om
Ġde scription
stru ction
c ase
(" \
apt er
T ext
or a
st yle
imp l
ĠT O
num el
col or
expert s
Ġiter ation
TO KEN
Y PE
b it
un ch
Ġse nt
s v
cli p
Ġ202 2
off sets
ck er
Ġ} ,<
S h
A PI
arm up
l ong
pad ding
CH E
c ript
st ream
ser v
Ġpre d
epoch s
part ition
n on
or d
Ġt re
le ar
ĠP re
pl an
umm y
1 5
y z
Ġj o
af et
age s
ĠĠĠĠĠĠĠĠĠĠĠĠĠĠĠĠĠĠĠĠĠĠĠĠĠĠĠĠĠĠĠĠ ĠĠĠĠĠĠĠĠ
f inal
Ġre d
FI G
P o
Ġc lient
Ġs rc
[: -
chann el
3 0
8 4
Ġb reak
ĠE n
viron ment
di rect
o ption
un ct
ai r
Ġbet ween
M egatron
k pt
s rc
or iginal
Ġf p
Ġ" \
Ġd agster
ic al
py test
Ġse lect
: \
m edi
Ġi gn
Ġup date
leg acy
m icro
__ ":<
Ġtensor s
ĠH ugging
Ġob s
tr uth
Ġ1 6
Ġtest s
e ff
ho ok
Ġfil ter
i str
Ġ{ '
ĠM egatron
Param eter
man ual
t ag
u ch
perm ute
le ctions
Ġ( "
(" .
od al
ces sed
Ġ` ``
mo e
Ġbase d
Re quest
Ġtem perature
W OR
b ench
de pth
re ward
ro ad
Ġc ur
Ġpo int
b rowser
am ed
Ġtype s
det ach
c v
Ġ ge
he ight
ac c
: %
c ut
Ġ[ '
Ġpart ial
off set
T S
Ġ version
Ġf ind
ra ises
Ġas sign
Ġst ream
ool s
Ġ array
m d
Ġl in
Ġal pha
b one
l ate
s ingle
he ther
Ġk wargs
etun ing
se nd
ĠL o
wor ds
ta ils
s izes
ent ropy
Ġwor d
F loat
S et
ĠC LI
Con t
gener ator
Ex ception
resh old
( _
B AL
T ransformer
o se
Ġc lean
pe ed
par ent
Ġget attr
head ers
loc ation
chunk s
Res ponse
tr f
ud ent
r ary
Ġt mp
Ġf lag
Ġ" .
ur ing
################ ################
: .
di f
ction ary
pro ject
ĠI m
propert y
] ):<
ch ain
pa re
cat en
stru ct
Ġre present
T H
ut or
Ġp ack
CON FIG
se gment
Ġb ody
Ġ( ...,
ï¼ Į
M E
b lob
f er
un ter
th rop
Ġst d
Im plement
R I
im um
Ġin ference
ribut es
Ġtim ers
throp ic
F ore
M ask
Ġs cheduler
Ġa fter
Ġth an
Ġtask s
Fa ce
T ER
l ass
Ġs k
quest ions
met rics
ber t
LO BAL
Ġf ield
json l
AT E
mot ion
ighb or
er a
re move
id ual
rit er
Lo gger
Layer Norm
m aster
t ree
pe at
Ġ1 024
rot ation
Ġang le
y m
É ª
ĠD E
iter ation
e ded
Ġc kpt
Ġ' {
mask s
** /
ĠTO DO
) }
Ġ X
Ġa verage
con stant
Ġch ange
position s
ĠPar am
road cast
L P
s df
t en
Ġg t
Ġfil ename
Ġ ext
Ġ' .
prompt s
Ġfa iled
t mp
quer ies
Ġgrad ient
Ġblock s
Ġign ore
s ystem
Ġ &
Ġc re
ĠL I
ple te
Ġpar se
Ġbu cket
act ivation
ĠHugging Face
en e
de st
Ġp lt
Ġcon dition
Ġbe fore
Ġ: ,
Ġbu ffer
Ġcol lections
Ġscal ed
w er
Ġin fo
tokentype s
j ust
Ġret rie
vi ous
P RO
s up
se lector
Ġde c
ĠSharded Tensor
j ang
ed Error
di ff
ĠT ype
Ġquatern ions
p ri
Ġ episode
in st
__ )<
ĠD e
8 0
D P
` <
d p
Ġth en
ai ss
sq l
jang o
P L
ĠR ot
Ġpro d
Ġit s
Ġprompt s
Ġvalid ation
st ore
Ġm ore
Ġn et
Ġo ptim
data class
plet ion
C E
Ġp ick
Ġs kip
form ation
Ġde pth
Ġconfig uration
our ces
ĠNot Implement
Ġdiff users
ro ll
Ġc los
mo ck
ĠIn c
led ge
ĠNotImplement edError
c i
ad apter
Ġ_ ,
iel ds
iss ing
global s
enc y
Ġfeat ure
h ar
Ġ 9
Ġ emb
C O
as sed
Ġi ds
Ġs cores
se ssion
Ġpre dict
' ):<
al og
Ġd uring
ĠL ayer
ĠO pen
ann ot
Ġ license
Ġposition s
ĠNot e
A SE
D ropout
n ess
ar s
Ġw as
po p
po ol
res ource
={ "
F ile
O b
p ng
Ġ quat
Ġ[ `
process or
bar rier
Ġtre etune
F unction
h alf
Ġf ull
Ġs ign
Ġen vironment
f ill
Ġ u
at ive
er y
di stance
dim s
Ġextra ct
% %
3 6
q kv
t rue
Ġt er
ri ces
je ctor
lib rary
'' '<
Process or
C ol
p lay
Ġc ase
load s
Par ser
Ġsoft max
afet y
f ra
f older
i k
ort cut
Ġcol umn
Ġsav ed
celer ate
caten ate
ut er
ĠĠĠĠĠĠĠĠ ĠĠĠĠ
ol ve
Ġy our
read y
Ġhas attr
Ġdat etime
> }<
i re
or k
he l
Ġc ustom
Ex ec
o ptions
Ġ' <
Ġcol or
Ġhead ers
h f
É ´
lo aded
Ġ" ,
que ue
Ġr ad
ĠI D
Ġac ross
Ġmat rices
ĠQ u
example s
Ġsupport ed
unct ools
de lete
Ġb in
co pe
py torch
output s
ann er
Ġindex ed
ĠCon vert
are a
Ġmulti ple
D ATA
ched ul
á´ ı
DE FAULT
Ġco unt
Fa ctory
b l
Ġt ree
Ġre ference
Ġs uc
ex pected
Ġl lm
ĠIn it
ma ke
Ġeval uation
N ot
eg er
Ġpre trained
a it
m it
Ġ ver
an swers
Ġre move
di ctions
sh ift
================ ================
Ġoff set
O P
Ġ æ
Ġt itle
al id
Ġf unctools
Ġd omain
la va
c ret
Ġf ew
Ġm icro
um an
ist ant
Ġse arch
ffer ent
ific ation
A gent
G et
f ind
g ress
m erge
ex it
um e
ĠT e
Ġh o
ab ility
min i
as ic
Ġdata classes
bu cket
tem p
h istory
p end
ar ge
Ġa u
ĠCon fig
Ġact ivation
o id
an s
Ġn ames
ĠA dd
we b
ĠTransformer Config
Ġs orted
ent ry
ĠS ample
Ġex pect
Ġpy thon
ĠData Loader
K ey
a ctions
p df
} )
Ġw rite
egat ive
Param s
( **
` ,
f ew
in ner
time out
Ġgener ated
Ġav ailable
I M
] ))<
p g
ar x
Ġw andb
ĠC ol
Ġh ere
Ġdi ctionary
able s
requi red
w arning
Ġ Z
am l
Ġdi r
inter val
Float Tensor
i b
Ġre place
Ġ\ \
ugging face
Ob ject
0 5
h at
Ġspec ified
timest amp
al y
ens ure
con sole
Ġcom put
grad s
ĠSt ep
Ġchunk s
open ai
C heck
Ġt f
jo int
Ġchann el
i li
Ġm apping
Ġset up
fa ctory
arx iv
Ġp d
ĠT rain
je ctory
Ġparam eter
lu sh
requi res
: ]<
M S
T his
Ġo pt
now ledge
0 3
f ree
con vert
Ġ' ''
cl one
C LI
Ġc urr
di rectory
ens ions
ĠC or
Ġex ists
Ġ3 2
Ġf ree
ĠA gent
checkpoint ing
Ġ{} '.
Ġsc ript
Ġkeep dim
Arg uments
' ],
e ed
Ġc os
Ġc rop
if ier
Ġen coded
Ġrun ning
istr y
R eg
c lean
w armup
Ġ vi
ro y
Ġp ool
est ed
pre v
met ric
Ġ` `
start swith
2 5
C a
] ).
a ut
h ash
Ġc ache
Ġs uccess
bu f
Ġno ise
Ġte am
ar range
Ġm lp
li ce
Ġdi stance
Ġse gment
Ġsh uffle
Ġj np
SE T
Se quential
U M
b eta
Ġm ap
Ġre f
Ġin formation
Ġs igma
Ġo per
ĠN umber
ke le
tra cker
Ġfeat ures
b ot
Ġ" --
Ġre al
Ġo ld
Ġtime out
Ġ{} ".
Res ource
exp and
1 7
L e
c urr
i ents
} '
le ft
Ġs ampling
Ġr ender
á´ Ľ
ĠSe quence
fo o
# <
U SE
ĠL LM
ition al
Ġy ield
test s
Ġmean s
i form
k s
n eg
Ġ å
as sert
ext end
sh ared
ment s
ret rie
Ġgroup s
doc s
Ġchann els
p ipe
} {
~ ~
st om
un et
Ġdata class
Ġl m
cu stom
** **
ĠPy thon
kele ton
> ):<
F O
k ernel
n one
str ategy
ĠE rror
Ġinit ialize
patch es
Ġtra j
icro soft
Ġcalc ulate
Ê Ģ
Ġf ix
ed ir
ĠĠĠĠĠĠĠĠĠĠĠĠĠĠĠĠ ĠĠĠĠĠĠĠĠĠĠĠĠĠĠĠ
length s
ĠLI CENSE
T ime
_ ,
e lement
i a
Ġwith out
argument s
Ġbu il
lat ive
comp ile
c y
} :
Ġn eg
Ġd one
ĠU p
Ġlat ent
cent er
" [
able Diffusion
ĠW h
our se
umm ary
p ers
s o
s igma
Ġ 64
ĠA d
token ize
mo v
/ {
V alue
ro uter
Ġs m
Ġe vent
ĠO utput
ĠTe am
Ġs chedule
Ġd own
lic ate
tra j
af ter
ĠDefault s
2 56
Ġ ar
Ġ util
Ġst op
ĠM icrosoft
Ġpro ject
F rame
M essage
Q u
U N
Ġ edit
In valid
En coder
scal ing
usal LM
Ġsent ence
> __
s set
Ġd en
Ġthe m
Ġb s
Ġw arning
ument Parser
ma k
Ġconv ention
CHE CK
- <
t f
Ġc am
Ġa ff
stat s
Ġal ready
U D
m egatron
re ason
it ive
Ġin di
Ġs ure
Ġw rap
Ġl inear
stribut ion
ock et
Ġtool s
Gener ator
stract method
Ġclos d
9 6
P AT
Ġ heads
al pha
Ġn grams
Ġb eta
dest roy
1 8
f lat
z y
Ġp assed
Ġs im
il ar
Ġcon ne
ĠL oad
inf os
checkpoint s
Ġgr id
ĠDE FAULT
ent er
quatern ion
R un
Ġlo aded
ĠF lax
I G
S pec
a vi
h ub
s d
Ġ queries
Ġc alled
pro gram
us age
Ġpro gram
Ġgener ator
Ġfin etuning
medi ate
Ġpick le
' ))<
L oad
P A
} ",
Ġt p
re set
serv ation
ĠIm port
1 3
n own
Ġ view
at er
ch oices
Ġstat us
W ith
s g
s uccess
ess ion
ĠIn dex
Ġ5 12
vis ible
Ca usalLM
on s
Ġd ataloader
Ġ* <
ĠM ulti
out e
sm all
For CausalLM
fin ish
d one
se en
Ġt ak
con catenate
ĠT ext
Ġ1 000
Ġstr ict
EN T
bo ard
ast ype
ĠEx ample
iter al
man ager
por ation
ĠCor poration
edir s
F ield
m apping
x yz
Ġch oices
ĠĠĠĠĠĠĠĠĠĠĠĠĠĠĠĠĠĠĠĠĠĠĠĠ ĠĠ
Ġtr unc
({ "
: ",
I d
n gram
ĠĠĠĠĠĠĠĠ Ġ
work space
Ġq kv
iter ator
Ġrot ary
' ).
f uture
h ot
k l
en coding
sh ow
Ġr ate
Ġrot ations
Ġvalid ate
doc ument
object s
G LOBAL
t p
al ys
Ġc ast
to list
set up
get env
Ġg round
bo se
Ġtarget s
Ġback ward
rand n
ino v
alys is
c ing
Ġre p
ĠM o
Ġbe en
lat itude
Ġbet as
Bu ild
z ip
Ġ level
en um
th reshold
Ġimplement ation
Ġinst all
1 024
7 8
: ]
A d
I D
b f
d ot
e ct
Ġf lush
Ġin clude
Ġst yle
Ġmethod s
s n
s ampling
v it
Ġm y
Ġlo c
Ġst ates
ĠI ter
ag en
Ġcomm and
Train ed
1 9
b ins
l ight
Ġf req
Ġm ult
li sm
Ġdi fferent
ĠI N
param eter
de lta
al len
Ġm issing
Ġtorch vision
stri de
Ġj ust
n s
o ptional
en able
le t
id get
text s
Ġr ng
Ġsh ift
Ġpre vious
EN D
transform s
ble m
call back
Ġdis able
dum ps
P P
S ampler
d at
ge lu
ĠP er
0 6
Ġre set
iz ers
Ġg lob
Ġdata base
alle lism
com plete
Ġch ar
Ġne eded
Ġopen ai
Pre processing
Ġlin es
h er
in sert
un it
un ic
() )
pre dict
bu il
Ġrank s
au dio
Lo ss
2 4
M an
i us
s ide
Ġre arrange
Ġn ow
Ġs p
Ġtransform s
5 12
p attern
æ ķ
re peat
Ġc lo
Ġs df
Ġthe ir
con ds
ri de
.. /
tem perature
7 7
Ġ ensure
de g
Ġf unc
ue st
Ġh y
Ġst age
Ġtok entype
work er
Ġpath s
Ġgener ation
normal ize
ĠBrowser Context
: :
] ):
Ġc lip
to col
Ġas set
Ġh andler
res olution
url s
In put
---------------- ----------------
or ig
Ġmerge d
r ender
Ġ ).
Ġ empty
ex ception
sc atter
Ġmask ed
Res ult
WOR K
S erver
` .<
b ers
s chedul
Ġ like
re en
an h
ge st
Ġ2 00
sent ence
sup port
mak edirs
Preprocessing Config
) ),
C A
Z E
el l
pro jection
Ġ2 55
ĠM LP
ob ot
á´ Ģ
In dex
ca ption
Ġreg ister
B ASE
â Ķ
Ġ library
Ġt rue
le ep
Ġre levant
Ġse cond
Ġpre cision
av ed
ign ore
comm and
ĠĠĠĠĠĠĠĠĠĠĠĠĠĠĠĠĠĠĠĠĠĠĠĠ ĠĠĠĠĠ
allen ge
2 00
Ġ' '
Ġj ax
idx s
Ġload er
Ġper form
tra ce
node s
Ġcontain ing
" }
T RA
b its
s kip
re direct
im odal
Ġc over
Ġth read
Ġen c
Ġ12 8
Ġexec ution
D F
T orch
T uple
j it
{ }
Ġ ],<
Ġs ome
co ok
Ġcon s
ph er
clo ud
> ]<
å ı
re al
Ġd jango
Ġret rieval
Ġfor ce
(" #
om et
Ġ2 0
all back
12 3
C L
L D
l ens
Ġg o
res pon
rot ary
conne ction
S C
t ri
v ant
Ê Ł
al t
get item
ĠM eta
log s
loc ity
Ġtem p
UD A
ed uce
Ġre ward
ĠA p
ĠĠĠĠĠĠĠĠĠĠĠĠĠĠĠĠ Ġ
Ġde l
grad ient
mot e
uid ance
l st
ul ation
get Logger
Ġlo op
ĠG aussian
prob lem
Train er
ful ly
ĠRot ation
N o
` ):<
` ):
Ġ" _
Ġd f
ĠT YPE
per im
ES S
ne ed
ole d
plet ed
c sv
ar n
Ġin ner
ex pect
Ġlo s
om ent
ĠF ile
ĠR oute
Ġeval uate
CHECK ING
N ode
j ob
Ġ et
ch ange
Ġi o
Ġb oth
li ck
il on
est er
ff ers
ĠP o
Ġl ight
yn am
Ġpro vide
Ġgrad ients
Ġad just
Ġang les
B O
E vent
se ction
Ġcon stant
ĠU se
Sh arded
Po licy
Man ager
æķ °
! ]
U RL
Ġ quant
Ġt k
re levant
al low
le ms
Ġd s
Ġas s
ran t
(" **/
ĠIn put
ĠCon v
Ġsav ing
Ġlicense d
4 8
U ser
V ar
f used
t s
t ers
u lf
en ded
Ġw ant
Ġ( (
ĠĠĠĠĠĠĠĠĠĠĠĠĠĠĠĠ ĠĠĠĠĠ
"] :<
Ġan swers
cont rol
ac count
sum m
lu g
cam era
Ġlos ses
" ),
H E
T h
c re
w s
x ic
co ll
Ġh istory
Ġde lta
Ġwith in
Ġun ique
ac curacy
Ġmask s
Ġfunction s
ĠCom pute
ĠDi ffusion
hel lo
ĠCol umn
C lient
O pen
p c
å Ī
st able
cl u
ĠR ep
"] )
ĠO llama
no ise
spec ial
" }<
> {
O ptimizer
P UT
s leep
Ġp ort
Ġf used
Ġg raph
Ġse nd
lat ent
={ <
Ġtra ck
M Scheduler
S S
e very
j pg
o ps
æ ľ
Ġp l
ĠĠĠĠĠĠĠĠ ĠĠĠĠĠ
ran ch
(" <
() [
eg ab
Ġun et
Ġtimest eps
ĠOpen AI
G B
Ġo ption
ĠP lat
pre c
Ġsh util
I O
L LM
P LE
\ <
lo op
Ġad ded
Ġnormal ize
dum p
S ON
V ER
] ]<
h params
Ġo ptions
Ġa bs
un ique
ot ion
ĠO r
lic a
======== ====
Ġhas h
off load
Ġlength s
Ġla unch
Ġmo dif
Ġpredict ed
Ġwarning s
4 2
C lass
r im
s ing
z en
en abled
as sets
Ġc v
Ġreturn s
Ġstr uct
Ġro le
Ġcor respon
Ġred uce
ĠLayer Norm
ĠImport Error
uest ion
F ound
f ulf
p ix
s ampler
s corer
Ġt ag
Ġin f
ex ist
ur er
li sh
Ġh f
eg a
ry pt
request s
PAT H
] .<
_ <
t ry
(' .
Ġpro vider
ator s
ou g
Ġsub process
POR T
top k
Ġexample s
auto grad
Str ategy
D is
T rans
_ )<
c lock
f id
l ora
ĠĠĠĠĠĠĠĠ ĠĠ
ĠB u
") ).
Ġby tes
AS S
Ġcomm on
ĠAuto Tokenizer
vari ance
* ,
P lease
n Mask
v en
Ġpar allelism
eps peed
Ġch at
task s
Exec ution
e et
m em
é Ģ
Ġm sg
il ter
shape s
cept ed
mo oth
Ġpo p
In ter
gener ation
valid ation
pad ded
uth or
Ġtem plate
ĠAuto Model
Ġsq l
fra c
ĠInit ialize
Ġfew shot
F T
O ptional
c rop
e qual
g ster
h ave
} ')<
re size
de v
Ġn ested
ve locity
(' /
da gster
lic ation
Ġpre v
'] ,<
Ġload ing
ach er
Ġle arning
ĠĠĠĠĠĠĠĠĠĠĠĠĠĠĠĠĠĠĠĠĠĠĠĠ ĠĠĠĠ
Ġus age
ighb ors
nMask Type
4 5
æ ĺ
il ities
Ġde tails
ĉĉ ĉĉ
For ward
ili ates
Ġaff iliates
V A
k nowledge
ä »
at ial
Ġex it
IN FO
Ġbatch es
ĠCon t
Ġact ual
exec ute
Arg umentParser
tim ers
pass word
plan ation
ynam ic
S H
c le
å Ĳ
Ġ" ")<
eg in
Ġra g
rand int
Cont ent
ĠParam eters
Ġprod uct
] :
c alled
di sc
train er
check er
Ġpro bs
ac cum
Ġcl asses
col lection
Ġ'' '<
' {
g u
p air
s imple
on d
ro zen
Ġc ore
ay load
Ġap pro
Ġpad ded
AL L
0 7
M et
R N
V i
f ields
h as
h ome
m y
o v
se g
en coded
al ize
ĠL iteral
row s
Ġcont rol
sub ject
cond ition
perim ent
M PT
N UM
T P
T Y
f lax
f etch
l ash
re lu
Ġp rag
ex cept
and ard
Ġde sc
ĠR un
pre dictions
ĠI t
cal c
Ġres idual
ter min
Ġsh ard
Ġconfig ure
Ġatt r
rg b
back bone
Ġdefault s
Ġle t
Ġent ry
Ġprag ma
d up
y aml
re po
Ġs ummary
ext r
Ġlo w
ep copy
Ġch oice
Ġatt ribute
ĠĠĠĠĠĠĠĠĠĠĠĠĠĠĠĠĠĠĠĠĠĠĠĠĠĠĠĠĠĠĠĠ ĠĠ
ST R
EX T
Ġjo ints
Ġ``` <
8 9
T em
k dir
s chedule
ã Ģ
in ator
an el
Ġm u
Ġre ason
Ġin d
un iform
co ur
ĠN OT
Ġcon d
ĠA l
ap er
ab stractmethod
Ġex ception
list dir
lap sed
Ġsm all
F F
L AG
V alid
] ['
e ctor
f name
u ally
st orage
Ġthe y
ol ute
len ded
Ġth ere
ĠU Net
Ġpo licy
uff ix
Ch at
SI ZE
PO ST
flag s
Str ing
H el
] ],
b et
v q
ch ron
Ġb roadcast
Ġ( {
ĠT h
Ġh igh
Ġun it
Ġpo ss
Ġmet ric
mat mul
Diffusion Pipeline
Ġab out
fulf ill
E L
R OR
T ES
] ]:<
b n
g en
t ure
x x
å Ĭ
on t
Ġp ers
Ġm egab
ĠL lama
da pt
yn chron
ĠK ey
untime Error
ox el
) ;<
M L
m t
} "
â Ģ
Ġret ro
Ġ1 5
og le
rt ual
Ġfa ctor
Megatron Module
summ ary
d ense
u int
im agen
Ġre port
Ġc ross
co st
Ġdi rect
end swith
head er
Con dition
ĠE mbedding
jo ints
([ <
RE D
Ġac curacy
env s
episode s
Ġmo e
Ġlat ents
initial ized
A dd
T YPE
c ap
m ega
s l
Ġ ct
Ġ edge
Ġp lot
Ġ" {
Ġo p
ĠN orm
ĠT o
ĠL inear
Ġh and
Ġse e
ĠM odule
Ġ: ]<
Ġset tings
inal g
Ġtim es
plot lib
F OR
O r
Q A
] +
l im
l ator
o unt
t k
w andb
| >
at ic
arg v
() ))<
Ġg ather
Ġ* =
est im
sh uffle
Ġen gine
Ġrequi re
In it
Ġne ighbor
An swer
initial ization
ug h
ose n
constant s
3 84
B y
H T
e vents
m el
n x
q pos
ä º
or ds
ge x
es h
Ġ# #
di alog
Ġ( '
Ġ' __
Ġh params
Ġe vents
act ive
Ġac count
ĠSt ableDiffusion
bin ary
oth er
An y
State Dict
Ġdec ay
Ġvi a
N ame
h uggingface
l ing
de tails
an thropic
Ġin v
ĠN o
Ġ[ -
att ing
ri ch
Ġnode s
wrap per
MA X
Ret ro
Ġlight rag
` ]
c ed
l imit
Ġf ast
out er
last ic
run ner
uc ed
af e
Ġdocument s
tim es
ĠCh at
ĠGener ate
oment um
1 000
g or
h uman
or iz
Ġp p
abs path
PA RA
9 5
> [
E LU
S ource
b os
u ction
Ġ" [
Ġd on
Ġb ins
up per
ĠR a
pre diction
ub lic
Ġpre diction
ret rieval
lect urer
ĠAtt ention
inst all
Ġfreq s
gor ith
P ool
e ft
s olution
{ "
Ġm m
ul ator
el y
ĠA sset
Ġ' \
ĠS ession
Ġe qual
Ġl ong
Ġpro cessed
Ġpre processing
code s
Ġal so
lat ents
Ġup d
Ġwork er
celer ator
3 5
Y ou
] ),
_ [
å ¤
Ġ è
in valid
Ġf etch
lo y
he x
Ġreturn ed
th read
Ġ2 56
ĠD DP
ĠW hether
ng ine
ĠPy Torch
ðĿ Ĺ
Ġcre ated
ĠBu ild
] (
s ig
ut ton
ĠĠĠĠĠĠĠĠĠĠĠĠĠĠĠĠ ĠĠ
Ġpro blem
á´ ľ
fa iled
mean s
ide o
Ġtra jectory
Ġcall s
bl ue
Ġver bose
Ġcorrespon ding
) ),<
f usion
m pu
Ġ am
Ġb o
ass istant
th is
Ġdi v
layer norm
IN E
Ġmax imum
Ġ% .
rol Net
Ġscal ing
Ġoff sets
Ġvari ance
. ')<
O UT
am ond
po lation
ĠS plit
lock s
IN T
index ed
}/ {
PRO MPT
2 7
k it
p il
ro ugh
ot e
ĠS ave
ĠS core
---- --
Ġan s
user name
iv ations
Ġ5 00
SI ON
Ġexist ing
L EN
T EM
c c
i py
ç Ķ
ê ľ
Ġ[ ],
ĠĠĠĠĠĠĠĠĠĠĠĠĠĠĠĠ ĠĠĠĠ
ple x
ĠM ock
ĠU RL
ces ses
'] ['
tra ct
stru ctor
Ġover lap
wh ere
Time out
ĠAp ply
ĠPlat forms
b ank
m kdir
s k
ä ½
ic ient
cl amp
Ġst ory
ĠD oc
ĠR untimeError
'] :<
St ream
lat form
Ġdocument ation
ib ility
retrie ver
E val
L ong
N umber
g s
s olver
â ķ
Ġ rich
Ġre size
Ġd ot
ra st
ĠT oken
om ic
Ġdi stribution
Ġdim ensions
ob servation
ph as
ER S
feat s
ĠRe quest
Ġselect ed
WORK ING
Ġ ep
Ġ arch
in k
ed Dataset
Ġa ctions
Ġa uto
Ġb ert
Ġ' -
ri ver
ĠR em
ĠB y
12 8
normal izer
Ġwork flow
ĠDi stributed
. ",<
3 7
B U
G roup
S c
V ision
l inalg
z z
er as
Ġre lative
Ġc pu
Ġs olver
pa int
av ig
Ġob j
Ġac celerate
part s
Ġmo v
alc ulate
Ġav g
oriz on
B utton
T ool
W ork
r u
} _
æ į
Ġ= ================================
ro gram
ch ema
Ġd b
ist ic
Ġuse s
Ġal ong
Dataset Config
ie ce
Not Found
Ġsuccess fully
Execution Context
ĠAutoModel ForCausalLM
) ")<
) }")<
P rompt
U P
W E
b float
h i
re ference
Ġp lace
Ġf ill
Ġa ut
et r
Ġw ait
to xic
Ġe ff
wa ys
stri ct
Ġ: ]
St ep
LO G
ench mark
wh en
AB LE
ilar ity
D B
Ġ ),
Ġp attern
ce ll
set tings
ĠO n
Ġres olution
EN AI
ER ROR
ne ighbor
Ġmodule s
sm pl
En v
CLI P
2 1
S ub
_ .
Ġ email
in struction
Ġt en
ut ed
Ġs w
rom ise
Ġas sum
__ <
ĠP lease
if act
Ġdefault dict
Ġ5 0
enc ies
be fore
++ ++
%% %%
" })<
2 8
4 7
G ET
d it
i um
n egative
w riter
se c
ar ding
ge mini
Ġf r
Ġb est
arg in
par ate
load ers
ER T
extra ct
Scheduler Mixin
Ġtimest ep
Long Tensor
C UDA
a e
å ħ
Ġ questions
Ġp s
Ġp t
Ġp aper
Ġf ig
la unch
(" %
ab ilities
Ġe very
00 00
ix ed
Ġv is
IN DE
St orage
Ġwor ds
op ied
reg ion
Ġle ft
sign al
Hel lo
INDE X
0 8
7 68
= ""
a ff
m on
Ġi p
Ġs l
Ġs corer
Ġb one
Ġg en
ĠW ork
Ġk l
ac ity
12 34
Ġgrad s
comm it
Ġsub ject
Ġcomp at
multi ple
ummy Object
r sp
é Ĺ
Ġh s
cont inue
St art
Ġdis play
tes IO
coll ate
Ġmegab locks
I C
O p
S plit
[ [
\ .
e ar
l s
s lice
Ġm aster
em ent
par ents
ĠĠĠĠĠĠĠĠĠĠĠĠĠĠĠĠ ĠĠĠĠĠĠĠĠĠĠĠĠĠĠĠĠĠĠĠ
ĠD P
Ġun wrap
Ġen able
local host
Ġvari able
Ġ7 68
bench mark
G rad
M eta
c md
m u
al ong
ch rom
Ġs izes
Ġb ar
Ġdef in
len d
Ġex ce
Ġpar ent
Ġpar sed
Ġj ob
Ġcom bin
right ness
Module List
Ġmulti processing
Ġfin ish
Ġcontain s
aly ze
W AR
f ast
f ield
h ing
r l
Ġd t
Ġimport lib
Ġw hether
__ ':<
ter m
ter n
ance l
fix ture
over lap
Ġle ast
reward s
Trained Model
deg ree
C ode
H andler
y per
or ed
de te
Ġ" ",
Ġm ark
Ġin sert
Ġ# <
co unter
(" {
qu are
cor ds
Ġatt ributes
Ġ% (
iv es
ĠH T
the ta
Ġinter cepted
ĠPro cess
vant ages
9 8
i ces
s i
Ġc u
and as
sh ortcut
ĠP rompt
Ġde pend
Ġch ain
pa ces
ĠCon sole
stant i
Ġitem s
Ġinitial ization
ik token
ĠQu ery
Ġau dio
Ġconne ction
IG H
E mbed
I f
b ind
c an
n an
s afety
u sh
st udent
im ic
Ġf latten
Ġin clu
ex c
Ġo ur
co eff
ĠT ime
ĠT able
com pletion
Ġpro gress
ĠB ert
art ifact
ta il
Ġsc ene
Ġav oid
conne ct
Ġjo int
Ġter ms
enum s
support ed
d river
Ê ľ
å Ľ
Ġlo wer
ist ics
Ġan not
RA G
Ġmat plotlib
quatern ions
Ġpart s
Fa iled
Ġurl lib
Un ion
unic ation
Ġlet ter
" },<
5 7
5 00
? <
D Condition
I ter
L LE
b t
æ ĸ
se m
ut able
ch ar
Ġf name
Ġre search
la in
Ġst udent
pro cessed
Ġse conds
meta class
std out
Le vel
extr as
= ["
c r
i ce
m od
} ",<
re port
Ġp air
Ġre q
Ġpar ents
ĠF unction
ĠF ield
Ġtext s
Ġal ign
Ġwe b
ĠSh ape
sp an
Ġvector s
Ġepisode s
NotFound Error
d ra
l on
se p
lo ps
Ġc ap
Ġs uch
Ġd inov
der ed
pl ates
Ġnum bers
Ġde code
ĠD o
config uration
Ġpro jection
ition s
log in
ant ic
bo ve
mo id
lev els
function s
part ial
ĠJ SON
Ġobject s
Ġallow ed
Ġtak es
. *
4 3
= <
> ")<
R GB
ĠĠĠĠĠĠĠĠ ĠĠĠĠĠĠ
Ġin her
iz ing
># !
ff n
pre cision
ag n
Ġ> >
Ġ: -
ac celerate
ĠRet urn
Ġset attr
Ġcol lect
Re ad
Re LU
Ġinst ead
cour se
TEM PL
= _
> -
B atch
D ummyObject
g lob
i od
r id
æ Ī
in to
se n
am ma
ul ary
ĠA sync
Ġst andard
TI ME
`` `
cum prod
rep r
ĠID s
finish ed
gorith m
dered Dict
2 02
C AL
L ow
d ig
r untime
er obot
Ġt iktoken
re ply
ch em
ĠC lient
Ġl ang
Ġl erobot
dir s
bo und
Ġhead er
exec ution
ino ps
lear n
Ġnet work
Ġho st
ater mark
agn itude
, )<
- >
A l
F ilter
M O
T E
Ġ qu
Ġs d
di c
Ġst ore
ag raph
cont ain
Ġk v
á´ ħ
fa il
vert ices
ĠSt r
Ġco unter
stru ctions
Ġwrit er
Ġmatch es
Ġab c
schedul ers
PARA LLE
âķ Ĳ
L L
M o
U tils
n amed
at uration
re ction
model ing
ab c
ĠF a
check box
Ġv ision
ĠArg uments
12 4
ca use
select ed
ðĿ Ĵ
ĠCLI P
Ġtmp dir
merge d
Qu ery
C o
M ulti
N O
S ize
e os
p us
Ġ arr
in ation
re mote
it ers
Ġf eet
Ġb ox
() ).
att ed
ĠGPT Model
Ġvari ables
IGH TS
N OR
[ <
] ],<
s age
u cli
é ¢
de an
Ġre call
Ġc od
Ġn egative
ap shot
Ġh alf
Ġpo se
Ġpo oled
Ġno qa
Ġsc ipy
Ġexp r
Ġbin ary
ĠWh en
dat as
Ġchar act
ucli dean
2 3
D S
E ngine
l ated
s keleton
t anh
à ¸
å º
on ce
he lp
ĠL ight
om imic
us r
Ġde lete
ist ent
ĠM ake
pen alt
ern al
iv ed
ock er
Ġsequence s
pi ck
arr as
Ġent ries
Ġrad ian
Ġindi cat
oug ht
Ġind ent
DCondition Model
âķĲ âķĲ
E lement
V AL
n dim
n grams
p r
p laywright
Ê ı
Ġp andas
Ġ" )<
Ġc enter
ur u
ur bo
Ġo ps
Ġa bove
Ġg u
ri a
Ġe inops
res net
Ġl lama
Ġr atio
per cent
ĠM et
pon ent
bu ffers
net work
ateg ory
vis ual
late st
Ġrepresent ation
ci i
Ġar ound
Ġtokentype s
5 8
D ING
ce il
ser ial
Ġr and
Ġor ig
Ġint eger
Ġbe cause
ĠE val
ĠIn t
base name
run e
Ġco st
ĠĠĠĠĠĠĠĠĠĠĠĠĠĠĠĠĠĠĠĠĠĠĠĠ Ġ
Ġprocess or
Ġwork space
Ġfol der
filter ed
pool er
( ["
Q uestion
U p
m e
t ic
è ¯
er r
Ġf ake
and id
(" ()
Ġg uidance
ĠB lock
ind s
Ġtrain er
cret e
LAG S
Ġdirect ly
: ,
: ],
E num
O G
S oft
f allback
h s
h older
i ps
k nown
p id
x y
Ġp ri
Ġf aiss
Ġ" **/
Ġm a
Ġs cope
vi rtual
att ributes
init e
cor ator
pre ds
cess ary
app lication
ok up
error s
ins pect
Ġcheckpoint s
ĠModel Type
ĠRetro PreprocessingConfig
Ġsign al
~~ ~~
ãĢ Ĥ
Ġradian s
2 6
A ll
c lear
or ies
er o
as cii
Ġm e
Ġm otion
Ġg pu
Ġh n
Ġdi alog
config ure
Ġsh ow
ag ing
eps ilon
tem plates
lin k
Ġprob ability
IM AGE
ĠOr deredDict
Ġcod ing
) ]
D oc
I I
b al
k y
or n
Ġm em
Ġsh ort
ject ed
ĠRet rie
Ġpy torch
Ġmessage box
prob lems
Se quence
ĠMegatron Module
OP ENAI
USE R
Ġpop up
ĠNOT E
4 0
= ['
P S
w b
w rit
al loc
ut ions
Ġin struction
Ġb enchmark
arg max
il y
ol ved
Ġg aussian
Ġ[ [
ĠC ustom
ĠL a
ĠD agster
ĠD ATA
if rame
oc us
ub le
lic it
pa st
qui red
Ġlog s
Ġlog uru
mo use
PI L
sn r
bet as
ĠRa ises
çĶ ¨
* ",
B ert
F uture
N N
N ING
R andom
_ ):<
} $
ç »
an alysis
Ġm on
to wer
Ġde epcopy
train able
ĠU ser
ĠV alid
Data Parallel
)) ))<
Ġsplit s
miss ing
Train ing
Ġother wise
Ġtrans cript
ĠConfig Mixin
> "<
b x
e ach
w in
w idget
è §
Ġ li
se lection
Ġ" -
ĠL e
Ġst orage
der r
lay book
Ġid ent
Ġper m
bi encoder
ĠCheck point
Head er
ĠCLI PT
reason ing
ĠPer form
fid ence
PARALLE L
é¢ ĺ
" >
3 1
Q U
R ank
W e
c nt
l n
p kl
r nn
s aved
t ab
it ch
Ġin p
Ġ1 1
att ribute
pl anner
end point
Ġde scri
Ġth rough
param etr
Ġpre sent
pos itive
eval s
base d
ne ighbors
sp atial
Bu il
ĠAtt nMaskType
jector ies
ĠIndex edDataset
Ġclo se
CA CHE
C allable
O S
W hat
b roadcast
h igh
l ask
m c
p isode
t b
t qdm
on al
en gth
al phas
po w
ĠN ew
up load
() ):<
Ġg old
ĠC o
ĠĠĠĠĠĠĠĠĠĠĠĠĠĠĠĠ ĠĠĠĠĠĠĠĠĠĠĠĠĠĠĠĠĠĠĠĠĠĠĠ
Ġh ow
pl at
pl us
Ġl arge
lay out
Ġse en
rank s
idd le
... ")<
gener al
') [
HO ST
ĠSharded StateDict
Ġcomput ation
Ġcos ine
ĠUp date
Ġthread ing
Ġet c
============ <
STR ING
>#! /
. )<
A dapt
` .
b ranch
g aussian
s a
Ġs ync
Ġs olution
id ent
ĠT em
ĠC alculate
Ġe ven
ĠI d
dim ension
Ġsh ortcut
Con f
av ing
Ġiter tools
Bu ffer
prod uct
Ġpack age
segment s
Ġrep lica
A c
A CK
o ve
s li
in p
in verse
Ġp latform
Ġf ields
lo ut
un ds
es c
ĠB e
ĠE uler
ac ross
back ground
ĠĠĠĠĠĠĠĠĠĠĠĠĠĠĠĠĠĠĠĠĠĠĠĠĠĠĠĠĠĠĠĠ ĠĠĠĠĠĠ
16 384
Ġuser name
Ġinter mediate
edi a
Ġstat s
Loader Mixin
Ġrad ius
Ġho ok
aly zer
Ġbuil ding
ĠMo E
Ġhash lib
ĠLlama Factory
3 8
S cal
U B
U R
k h
l ang
p ip
in u
at i
er c
re compute
Ġre lease
Ġ- --------
Ġh uggingface
ab el
alle t
ĠI M
ĠM ask
Ġpre process
Ġpre dictions
inf er
ir d
trans cript
cur s
dd p
Ġwrap per
exception s
Open AI
Ġstruct ure
LEN G
Ġfr ames
7 0
A Y
_ ()<
e od
f s
o o
s pect
s orted
s cope
å Ń
Ġc ourse
ad ded
par ator
data base
() ]<
ĠL og
Ġde te
ĠR educe
IN TER
Ġcont rast
Ġ4 0
call s
Ġtra ce
window s
ca usal
Ġneed le
vari ant
Form atter
ord in
ĠIter ator
Ġconstant s
Vi ew
) "<
A nd
I tem
O ptions
S df
V E
b asic
h avi
en g
Ġp c
Ġc lick
ur al
Ġthe se
di amond
ul lable
po ses
ĠL anguage
cor ding
ĠD is
Ġres net
ĠG lobal
á´ Ħ
ust er
async io
Ġfunction al
fil ters
FI LE
sub modules
press ion
Ġdis c
Ġover ride
Ġprob abilities
smpl lib
Ġbar rier
) (
D ef
P iece
W h
h a
m esh
r m
re cv
Ġn gram
Ġin verse
Ġ( [
Ġ- =
Ġ' --
## #<
ĠD ownload
Ġsample d
fa ct
target s
Ġag ain
reg istry
Ġglobal s
Ġtim ing
dis patch
Ġnormal ization
va e
Ġá´ Ľ
Ġelement s
################################ ################
buil der
Tem plate
FOR M
si red
Ġcu da
penalt y
LENG TH
7 5
U RE
e uler
l lava
n avig
p k
w n
en ames
ro q
un ing
Ġ- --------------------------------
Ġcon n
ĠC PU
Ġ{ :.
Ġl lava
ĠD ropout
da y
Con ne
Ġbe low
pu sh
fa ke
Ġid entity
conv ention
Ġvari ant
Ġsin ce
ĠĠĠĠĠĠĠĠĠĠĠĠĠĠĠĠĠĠĠĠĠĠĠĠĠĠĠĠĠĠĠĠĠĠĠĠĠĠĠĠ ĠĠ
ĠLo ss
ĠAgent P
Ġoper ation
VER SION
pix el
- {
3 9
F E
T EXT
W riter
] }
f ound
n py
ð Ł
re lative
ch ild
ent ries
Ġb egin
() }<
Ġex planation
ĠD B
ĠR andom
ĠM essage
eight s
Ġen code
Ġ3 0
ĠV Q
group ed
In t
vers ation
tra jectory
Ġapp lied
scal ed
Ġ[` ~
cook ie
RN G
ĠHT TP
parametr ize
7 9
: ")<
T ra
e lem
g reen
y ped
æ ŀ
Ġre po
Ġn ull
Ġd ynamic
Ġw armup
Ġw ell
Ġ1 3
Ġst ack
Ġ2 5
class ification
pre process
Ġbe ing
Ġch allenge
") [
'] [
eval uation
au x
are st
Ġte acher
Ġinitial ized
tag s
Ġcam era
æĺ ¯
' .<
, )
h and
Ġ queue
en ding
ro ps
Ġre direct
la ude
con f
il ation
Ġde st
ter adata
Ġ/ =
Ġro und
ĠG LOBAL
Ġcom pleted
Ġtrain able
count s
ĠEx tract
extra ctor
vid ia
Ġpass word
=[ <
ä¸ ª
ĠBrowser Type
ĠFor ward
rad ius
Ġman ager
Ġu uid
clean ed
Low dim
ĠId entity
A X
F rom
U S
re c
al ign
Ġf lops
am ps
Ġs afety
pe g
om atic
ĠS ub
ĠS df
pro c
all reduce
eg ment
red ential
port ion
Ġal ways
vers ions
ĠCon text
Ġne cessary
shot s
99 9
multi ply
Ġrepresent ing
Ġretrie ve
**** ****
ĠPo licy
bt n
4 00
: -
: `
D ep
M IN
M LP
b omimic
j np
} .")<
Ġt s
Ġm od
id er
ot al
co ords
ĠN e
Ġ' _
Ġ2 04
ff t
Ġde prec
OR S
Ġcontext lib
Ġset ting
run ning
Se q
Ġad ding
ä¸ Ģ
Ġtimest amp
Ġdat as
predict ed
TRA IN
cook ies
BO X
exist ing
mega Conf
plat form
! ")<
C re
F AI
b stract
o ot
u uid
u dio
Ġre peat
Ġc are
pe t
Ġret ry
tok s
Ġde epspeed
oc ation
gener ations
comm end
Ġca usal
Ġback ground
scal es
Ret urn
Ġaverage d
hel per
web kit
Reg ion
êľ ±
Ġinher its
TEMPL ATE
ĠAgentP rune
M ET
N E
P ES
W ord
b a
m q
p x
r en
r al
s ure
s parse
® é¢ĺ
å ®
å ¼
æ ł
in sum
Ġt ri
ar ies
Ġs n
Ġd st
li er
and box
ĠN ode
ol low
pro gress
Ġth reshold
head ing
oc ent
add r
ĠB atch
Ġsub set
inter le
Pro tocol
normal ized
abs olute
Ġexec ute
script s
Ġfix ed
Ġden om
Ġass istant
BU G
éĹ ®é¢ĺ
' ),
2 9
L R
a uth
m er
t ed
å ĩ
it es
ad am
ul ative
po late
is file
Ġcon st
ĠC lass
sh are
ĠS cheduler
Ġe uler
Ġex act
ĠP laywright
ĠO ptimizer
oc i
pon ents
In fo
with out
Ġapp end
rot ations
vid ual
spec s
ud ge
rap per
Pipeline Output
scal er
Ġconvert ed
Ġrow s
ĠRes ponse
Ad am
ĠLa zy
redential s
' ),<
- %
> ""
N D
T ransform
a ctor
b rid
c ss
i ally
p anel
s ources
ç Ń
Ġ= ========
Ġp k
Ġp m
Ġp ix
Ġp ast
Ġf f
ce ived
Ġc ould
Ġn ullable
Ġs imple
ex port
Ġb ound
es ume
ĠT HE
sh ard
ri b
ĠP os
pre pare
(' \
ĠĠĠĠĠĠĠĠĠĠĠĠĠĠĠĠĠĠĠĠĠĠĠĠĠĠĠĠĠĠĠĠ ĠĠĠĠĠĠĠĠĠĠĠĠĠĠĠ
ma il
Ġspec ial
Ġac cess
Ġrot s
AM PLE
Ġstring s
plet ions
ĠTask State
micro batches
utor esume
Ġden o
Ġcombin ed
Ġindicat ing
Ġdescri b
Adapt er
9 0
B C
R educe
f ire
s r
s ite
z arr
an cing
Ġf n
Ġc sv
Ġin valid
Ġs r
Ġb ot
ue ue
__ )
ĠA c
ĠC ross
ĠS imple
Ġtest ing
ĠE mbed
Ġy aml
IN ST
St at
util ities
ca ched
Ġ.. .<
ĠRe set
Base Model
tim ing
column s
ĠGener ator
por al
serv ations
Init ialize
ati os
6 0
> =
A C
G ather
G PU
L og
P y
b box
d inov
g old
m omentum
Ġm el
Ġm ak
Ġd ummy
pt ure
um p
Ġ' ,
Ġh i
Ġde coded
Ġde sired
ĠF aiss
ĠF eed
ĠR eg
gg reg
Ġsh are
Ġpre pare
ĠV i
ern els
Ġkey word
ĠIn ter
ĠH ow
gener ated
tra cing
Ġpart ition
Ch unk
Ġsupport s
AB C
partition ed
need le
Work space
ĠLight RAG
yped Dict
L S
M ock
R ES
] *
b ine
h n
h y
m ory
p ayload
s ort
è ¿
Ġre main
Ġs ampler
Ġdef ine
ol lama
ĠL L
Ġde dup
---- <
Con vert
ise d
Ġch osen
log ps
ole an
locator s
requi re
Ġexp and
Ġflag s
Ġcondition s
pipe lines
pers on
Ġutil ities
ĠIter able
Ġposs ible
Retro PreprocessingConfig
TIME OUT
Soft max
ocent ric
' \
? ",
K L
e ck
n b
t re
se cond
Ġt ake
Ġf ps
Ġm p
he s
Ġre cv
Ġc annot
ser ve
__ .__
dict s
ow er
Ġse m
ĠM ax
oc ast
Ġen abled
Ġcom pletion
pen ding
row th
AT T
AR T
valid ate
Ġadd itional
ĠSt ate
vid ence
Norm al
RO OT
cos ine
De coder
Ġhy dra
âĶ Ģ
accum ulation
Ġunit test
WE IGHTS
Ġ204 8
, ),
A pp
C TION
W S
d ummy
g an
m ed
m id
r b
s ame
Ġ velocity
re gex
an e
Ġs y
Ġd ate
Ġ1 7
Ġ1 9
vi sed
Ġl ora
config s
Ġse parate
(' -
ĠE num
Ġal gorithm
Ġgener ating
Ġ{} ,
Ġup load
lin ing
Se lect
Ġ$ \\
Ġdownload ing
ug gest
Col umn
ĠAd am
æį ®
æĸ ĩ
P ASS
S ample
a a
l ue
m is
m om
p loy
è ®
st ar
st it
ar i
ch allenge
Ġp il
Ġf lax
Ġi ss
Ġd raw
Ġb anner
par agraph
ĠA SC
res ume
ĠF used
Ġv llm
code book
pa c
ĠIn ference
RE CT
act ivations
Ġcode s
Ġco ok
Ġpart ic
mb ol
timest ep
Ch ar
Ġinst alled
Parallel Region
Ġpipe lines
ĠEn coder
ĠLo cal
Ġtak en
sentence s
stanti ate
egment ation
oci ated
% (
S Y
W ER
f aiss
j av
l int
l arge
p lain
se quential
Ġp h
Ġa z
Ġnum er
ĠB lended
for ce
sc r
Ġwh at
tra ck
fo x
Se lection
CH AN
Ġpadding s
ĠDef ine
lt k
vari able
Ġdoes n
Ġcre ating
pri ate
Ġrand n
ĠASC II
G RE
R untime
V ector
[ ~
] ),<
u an
u ator
Ġ âĶ
in uous
se e
at ern
Ġf id
Ġs pace
Ġs ym
Ġs olve
ig g
un finished
Ġ- ----------------
ĠT arget
() ])<
ĠA pp
Ġ[ {"
ĠC ourse
ĠS T
Ġst ar
end of
Ġstr ategy
ĠO ther
Ġos p
red uced
ĠV it
ĠV ocab
Ġk now
Ġtoken ize
view er
Ġ} """<
ĠModel Config
ĠCom put
Ġform atted
Ġtr im
Ġman y
sup er
Ġprovide s
ĠDiffusion Pipeline
sig moid
) ])<
. \
L INE
a w
e ch
f ut
f ps
f lash
g re
j ax
v oxel
y es
} '<
} _{
in ria
er ial
as array
Ġp e
Ġb i
Ġb rightness
str on
ĠN et
Ġg re
ĠC opied
Ġx s
res olve
pre vious
com put
ĠG roup
Ġtrain ed
index es
St ableDiffusion
ĠĠĠĠĠĠĠĠĠĠĠĠĠĠĠĠĠĠĠĠĠĠĠĠĠĠĠĠĠĠĠĠ ĠĠĠĠ
Ġq k
new axis
Ġadd ress
oth ers
ä¸ Ń
Ġá´ Ģ
Ġ-- >
flatten ed
segment ation
Ġretrie ver
Col ors
few shot
ĠUp load
Trained Tokenizer
thread s
Ġpartic ular
endof text
: {
A sset
M M
V ideo
W w
W rapper
c ot
j s
m ix
t il
Ġ ema
İ ¨
er un
re ens
de mo
de pend
ut es
Ġf uture
Ġm agnitude
Ġc nt
Ġs aturation
to m
co uple
ran ular
ĠA I
ĠA BC
ensor s
Ġ[ (
ĠR o
pre view
00 1
Ġan alysis
Ġcom plete
context s
Ġlist s
Ġcont ents
ĠK arras
Ġ{} :
LE D
Re quired
RAN K
Ġmo ve
Ġ6 0
Ġinstance s
Ġnormal ized
Ġchange s
retrie ved
PP ING
Ġappro priate
pick le
Scal er
ranular ity
) /
) }"<
8 8
> '''<
A uto
I F
R ender
S egmentation
d uration
i ers
s uffix
v ing
re lease
ar p
Ġre compute
Ġc ent
Ġs uffix
__ .
co gn
Ġcon f
## #
Ġg ot
Ġ* ,<
ri ption
Ġde tail
ase s
com pletions
unt ie
Ġ` (
ames pace
act ual
Ġac c
match ing
Check point
orig in
schedul ing
Ġreason ing
TES T
Ġcompat ibility
yper Params
ĠASCII Colors
couple d
C ross
S up
S cale
] [-
e lapsed
r ray
de sc
Ġ" $
Ġ" ":<
Ġs mooth
pe ft
un ding
__ ).
ĠT ra
ation Error
sh arding
Ġh ue
Ġ2 01
Ġe lapsed
Ġdi vide
key words
ĠF in
Ġse lection
out Error
add ress
check ed
ĠB asic
ai ve
ipe s
á´ į
Ġ4 2
io us
RE T
Ġper forms
Ġcol ors
Ġtop k
Ġad apt
Ġurl parse
AN S
ä¸ º
ĠPro gram
sim ilarity
Cont rolNet
Ġretrie ved
Load ing
let ter
("**/ *",
sem ester
) ",
* ]
. '<
M UL
N amed
S M
d t
i or
i ded
} ".
è ¡
se conds
re search
im ation
ge ocentric
un cond
ser vice
to uch
Ġlo ck
Ġh orizon
Ġnum el
ĠR ef
Ġpre train
Ġj it
stribut e
Ġch ild
our s
ac celerator
Data Frame
ĠĠĠĠĠĠĠĠĠĠĠĠĠĠĠĠĠĠĠĠĠĠĠĠĠĠĠĠĠĠĠĠ ĠĠĠĠĠ
Ġq s
Ġpy lint
Ġprocess ing
Ġposition al
Ġiter ations
wh ite
MA PPING
ĠType Var
Ġcolumn s
Ġsentence s
real path
Met adata
Ġupd ated
WAR NING
Ġinclu ding
Query Param
Ġgaussian s
Conne ction
ĠOther wise
2 024
A pi
G LU
M ode
a gram
b old
f it
g ame
i pher
ç º
Ġ ])<
in place
it or
Ġf lat
Ġre lated
Ġc y
Ġn amed
Ġd id
data path
() ),
Ġ' '<
sh ort
Ġex pi
res idual
Ġl on
ase d
view port
Ġsub mit
ho od
gment ation
Ġback end
Ġtrans fer
rep lay
Ġbuil t
avi ate
Ġmult imodal
ynchron ous
paint ing
Ġunwrap ped
chrom ium
) \
4 04
6 6
B ED
E P
M ENT
S ave
V e
c ard
n ers
r atios
s y
s mooth
t an
v es
Ð °
å °
Ġc allable
ort h
Ġs ig
ic ode
Ġ' %
text area
emb er
key A
Ġres p
com pleted
Ġpro j
Ġpro cesses
Ġan thropic
Ġint ent
Ġv oxel
mage Processor
ĠSe ction
vide os
EM M
LO W
Ġmo st
Ġlat s
Ġcomm unication
face book
Ġent ire
Ġneed s
cum sum
Ġimplement s
Ġcase s
Ġver ify
Run ner
Server Config
omet hing
TY PES
ĠNorm alize
plex ity
) ')<
A v
D ec
E nd
I LI
R ef
b est
e ef
h am
p ot
er f
de epspeed
an y
as cript
Ġp lease
Ġre verse
ad min
Ġd uration
um ulative
di sp
Ġret ain
con cept
ĠT rans
ĠT RA
(" -
pro p
Ġex periment
Ġr mat
cor ners
Ġ< /
ĠG o
ret ry
ĠEx ec
Ġ... ')<
IT E
EM BED
qd rant
ĠĠĠĠĠĠĠĠĠĠĠĠĠĠĠĠĠĠĠĠĠĠĠĠ ĠĠĠĠĠĠ
Ġwork ing
mot ions
NAM ES
pack ages
eff ect
DATA SET
Id entity
åı ĸ
Ġass ociated
ĠRem ove
Batch Norm
P ass
] ])<
c rops
d ers
j or
l ers
p ublic
x l
æ ¡
al go
Ġf alse
Ġin fer
Ġd p
Ġd ilation
ur able
th row
py plot
res ources
Ġde termin
Ġth ree
ĠM emory
Ġint eg
Ġbe havi
ĠG ELU
OR Y
log y
cont rib
ry an
ac cept
device s
ir cle
RE G
Ġsub modules
fo v
ĠTransformer Block
Ġ100 00
100 00
Ġimplement ed
quant ize
vari ables
ĠWe b
Ġman age
pop up
Ġtemp file
ĠOn ly
NOR E
åº ¦
ĠFeed Forward
Ġdedup ed
disp lay
ĠTRA IN
. '''<
B E
G ELU
S O
S peed
W rite
b ryan
g ra
g ranularity
h old
Ġ ~
Ġ ._
er es
Ġt ait
Ġ" @
Ġm ul
Ġre mote
Ġin cre
Ġo c
ig r
Ġ# ################
Ġw ould
la ck
ol utions
sh a
Ġh q
ĠS oft
ĠS ingle
res sed
ĠI F
Ġse lector
In version
ST EM
encoder KL
tt ers
`` `<
Ġfa ils
ä¸ į
Ret urns
fra ction
ĠQu atern
ĠExample s
aff ine
Ġexce ed
Buil der
* .
F unc
G aussian
c p
d rant
s uch
w arn
É ¢
Ê Ļ
æ Ń
on nx
le x
ch dir
Ġp ip
Ġp db
Ġ" #
ra ble
Ġw ere
to do
Ġfor ms
con struct
co ver
ep Speed
ĠF ore
class ifier
Ġres ources
art ic
") [-
Ġbu ffers
DE BUG
uto ff
inter mediate
match es
Ġread er
Ġvocab ulary
({ '
Im g
pack age
medi a
Ġext ended
Ġsign ature
Exec utor
ĠOllama ServerConfig
Ġtag s
ru pt
Read er
chem y
andid ates
erc ial
7 6
C lick
M ESS
P laybook
e lems
e lastic
p ay
} '.
æ Ĺ
al chemy
Ġs ocket
ex periment
con structor
po oled
ĠT ransform
pro jector
us ing
ĠF ind
pre comp
Ġv ae
ann el
Ġsuper class
Ġob servation
Ġgener al
Ġgener ic
te acher
') ;<
DO C
environ ment
ĠPar allel
ĠĠĠĠĠĠĠĠĠĠĠĠĠĠĠĠĠĠĠĠĠĠĠĠĠĠĠĠĠĠĠĠĠĠĠĠĠĠĠĠ ĠĠĠĠĠ
eff icient
Ġge lu
Mask ed
Ġdistance s
Ġthem es
Ġloc ation
pher ical
control net
Ġcontrol net
TES TS
scr atch
( ?
) *
/ <
8 6
: ])<
> ",
E VA
L anguage
L lama
O C
] }<
s il
w ik
z one
ä ¿
é ĩ
Ġt xt
de s
ut ation
as y
Ġf lask
Ġm ight
Ġc lear
Ġs li
Ġs lice
Ġs afe
Ġs andbox
id ing
ra ft
Ġ( *,
Ġto po
__ }
Ġ1 4
Ġg ym
att empt
Ġe od
ĠP ipeline
Ġdi visible
embed der
######## ####
Ġmet a
=' ',
ES T
view less
split ext
fix ed
Ġrequest ed
Ġspec ify
)) ]<
Ġinter face
Ġins ide
Ġfil ters
Ġ} )<
Ġmatch ing
ckpt s
Ġcall back
ĠGPU s
propert ies
freq s
Ġlin k
dif ied
chedul ers
Reg istry
Ġtrunc ated
Ġmodif y
ĠDistributed DataParallel
Sub modules
="" )<
fut ures
ĠNet work
EMBED DING
( ""
3 3
A bstract
D rop
L d
M ax
M AN
i i
l an
m argin
n q
p po
ç ®
Ġ ^
Ġ lib
at rix
Ġt anh
al yz
an ced
he st
ul ated
up d
Ġcon current
Ġ' /
Ġlo ok
Ġ""" ()
Ġ[ ],<
Ġst k
Ġ2 4
ĠF orm
(' _
ub lish
Ġdim s
jo co
RE SET
ĠSe lf
comm ercial
extra ction
Ġtransform ation
Ġup per
Ġerror s
Ġdis abled
Ġextra cted
Ch oice
ĠBase Image
dis abled
Ġform atting
Parallel Linear
ĠConfig uration
mov ement
rim ary
éĢ ģ
By tesIO
Ġfast api
Ġdepend encies
Ġtrace back
> ```<
P os
S ystem
S DF
T ask
c wd
e uclidean
p al
de lay
le arning
ut ing
ch osen
am s
Ġs he
Ġw in
Ġ- *
ĠT er
== <
ĠC O
Ġst or
Ġst able
Ġst ill
ĠM an
oc ap
token ized
Ġon ce
fa ces
Ġresponse s
Ġal tern
([ [
Ġper cent
Ġpy rogram
Ġco ordin
Ġtra jectories
Ġiter ator
ĠJ son
CK ER
dis k
Ret rie
case s
ĠInit ial
ĠZ h
"[ !]
Ġtk inter
æľ ī
Dis crete
ĠCont rolNet
dig its
ĠStr ing
Ġcharact ers
navig ation
ĠGLOBAL S
fire fox
stron omic
ANS WER
ĠQuatern ions
/ ",
B ox
E VAL
F in
G raph
M ult
Q L
` ].
e a
h ard
l ins
m map
s pl
Ĵ Į
se parator
ad vantages
Ġd er
ext Model
ver bose
Ġres ume
ron g
(' <
Ġan alyze
ĠV ideo
sc roll
ml u
ret ries
Ġcont act
Ġpos itive
Ġgroup ed
Ġ... '.
Ex pected
Ġtra cker
ateg ies
Ġcurrent ly
ĉĉ ĉ
CT ED
click ed
exec utable
domain s
Ġeps ilon
rep lica
cam eras
down sample
Ġallow s
ĠPre TrainedModel
Ġred uction
Ġoper ations
Ġperform ance
rim inator
Ġsql alchemy
------ <
Sc atter
çŃ Ķ
ĠSoft ware
. ",
C annot
F LAGS
M issing
] [:
a wait
f y
f ont
f ollow
v h
in clude
ch ars
Ġp ublic
lo ud
Ġs sim
ex e
rom e
pe ction
ig lu
att ach
ine se
ĠP ad
). """<
Ġse ction
oc ator
ial og
Ġun iform
ag ents
") ),<
ry lib
ac cess
á´ ĺ
St yle
AS K
Ġcol lection
Ġstart ing
Ġz arr
inter polation
ins ky
LO CAL
Ġact ive
factor s
Ġfin etune
Ġent ity
Ġpatch es
Ġab stractmethod
afet ensors
acc ard
Ġpack aging
Ġau x
Check er
Ġfree ze
pattern s
CL ASS
Sharded Tensor
Sharded Strategy
disc ret
Ġ================================= ============<
Ġaut omatic
Êľ á´ĩ
writ ing
kh rylib
Ġ--------- -<
Word Piece
ites pace
ILI TY
spl atting
. "
C li
D Model
E nt
G EN
H F
N ODE
b ig
b eg
f i
s ome
s lug
t y
t urn
t len
v llm
x ml
Ġ ,
Ġ cell
in ed
on em
re cords
im al
Ġp ur
Ġf act
Ġb l
Ġw d
and insky
Ġ' ',
ĠC all
th ought
ĠP eft
Ġdi rection
Ġr untime
Ġ< <
ĠO megaConf
Ġse g
(' >
Ġap ex
DI MScheduler
mo ved
over ride
Ġac cum
ST ATE
go al
go ogle
PI mageProcessor
Ġinter n
Ġinter val
Ġdis k
Ġreg istry
padding s
Ġarray s
Ġext ension
Ġprod uce
Ġter m
ĠTrain ing
sn apshot
Ġpers on
202 3
Stat us
require ments
Normal izer
lins pace
tlen eck
! <
( \
> ')<
C all
C HO
D D
F irst
M IT
W H
_ %
c ancel
c redentials
f user
f eed
s chema
Ġ html
at an
Ġf mt
Ġre gex
Ġb f
la zy
set Level
ĠL OG
ass ign
ĠP rint
ĠF rozen
num bers
ist rable
Ġsh ared
ag onal
ĠU sage
Ġk nowledge
Config uration
Ġq a
Ġcol late
Ġno ins
Ex tra
exp r
mode s
Att n
Att nMaskType
04 47
EX AMPLE
por ary
Head Attention
mult imodal
Po int
diff users
bl ank
dup licate
ĠDDP MScheduler
%%%% %%%%
ĠGlobal s
Ġ([ `
ĠBlended Megatron
MUL TI
Ġnoins pection
) [...,
. ,<
. '.
2 30
: ].
C OR
E dit
G O
O n
g amma
m ine
r s
} }
å ĴĮ
in em
im er
ge mm
Ġp ush
Ġf ont
Ġ" ".
Ġm id
Ġc p
Ġc umulative
ex planation
pt s
Ġb its
id entity
ra ps
to d
po sed
form ers
Ġe lem
ĠP ool
ĠP RO
Ġpro pert
token ization
Ġy et
Ġ4 00
page s
col s
Ġmay be
Ġclass ification
default s
Ġinter section
Se lector
ĠImage Net
ĠQ uestion
stack s
Ġnon local
MA P
Un expected
ĠStep Error
Ġwrap ped
Ġsim ilar
ĠFile NotFoundError
bos ity
ĠBy tesIO
ĠFa ce
ĠBe aut
pet ition
İ¨ éĢģ
Ġoc cur
MESS AGE
! "<
. /
G E
K V
S P
c atch
c ategory
s afe
w atch
æ Ŀ
Ġ ]
in cr
ro sa
lo okup
Ġ" ../
Ġn ltk
Ġin place
Ġs imp
Ġs sl
Ġd w
el low
end s
Ġres olve
ĠM C
Ġan other
ĠB ERT
ĠG rad
IN PUT
Ġtensor ized
pect ive
iv ely
AR GET
AG ER
Ġclass ifier
Ġle arn
tr unc
yst eres
Att ribute
Pre TrainedModel
quant ization
conne cted
Éª É´
find all
ÊĢ á´ĩ
dat etime
TRA CKER
vant age
æĺ Ł
Ġappro x
++++ ++++
Ġagain st
MAN AGER
WH ITE
ysteres is
A sync
C ould
D ate
H yperParams
L ay
P age
S ession
a il
h w
n th
s paces
t urbo
y ellow
or ge
Ġt urn
re call
re commend
de ep
Ġp in
Ġre st
Ġn x
Ġs we
Ġo mega
con cat
Ġcon structor
Ġh ist
Ġnot e
pl ug
ist ep
per iod
', '
Ġpre vent
Ġro bomimic
log probs
") )
Ġ4 8
ĠArg umentParser
St ore
split s
read lines
ĠSt able
atal oad
PE CTED
ĠRe ad
ress ive
agic Mock
MODEL S
Ġcolor ama
á´ı á´ľ
Ġref resh
element s
Ġindi vidual
pair s
Ġsubject s
Ġdefin ed
ãĢĤ <
0447 15
: ',
A ction
A PP
D et
G RO
J o
O f
P ER
U RN
a utoresume
g ym
h u
n ested
s ym
st ub
st derr
Ġs quare
def ics
Ġb ranch
Ġw idget
Ġ{ :
Ġh app
Ġr ule
per form
ĠM IT
ĠE X
ĠG EMM
ann y
Ġatt empt
Ġlog var
In ference
Ġne ighbors
Ġac cording
trans lation
lin ks
LO AD
Ġact ivations
Ġback bone
scal ar
ĠAuto encoderKL
comp at
Ġcontain er
PO INT
Gener ate
fin etune
AB ILITY
22 4
Request Exception
ĠTrain er
free ze
Ġhy per
omet ry
contain er
ĠCheckpoint ing
åĩ º
stit ial
GRE EN
B ACK
C rop
D ir
G R
H ER
L abel
M emory
T arget
] ")<
b ad
b il
d jango
f rozen
i ou
m pt
s ocket
u x
{ <
ç Ĳ
Ġ estim
se cret
en o
re l
re qu
ro ck
Ġf lash
Ġm omentum
Ġc ard
Ġs yn
Ġs paces
Ġd ue
Ġb lend
Ġ( -
(" _
Ġh ad
ĠS top
emb ers
Ġex port
all close
us oid
Ġde cision
os p
if iers
stribut ions
Ġv q
Ġk nn
ĠThe se
ok ens
unk nown
Ġcont iguous
ual Inversion
12 7
iter ations
Ġco v
doc string
Ġcheck s
Ġlocal s
Ġ12 3
Ġte ch
Ġexpert s
optim izers
ĠAtt ributes
Ġoptim ization
Ġclo ud
Ġcons ist
æķ° æį®
Ġrequire ments
åĽ ŀ
ĠCLIPT extModel
Ġdenom inator
ualInversion LoaderMixin
$ $
) `
) ],
2 55
A UT
B UT
P er
R ep
S HO
T able
b eat
e ver
f path
g it
g uidance
n ull
å Ĩ
Ġ ],
Ġn s
Ġn one
imp lement
ent ic
Ġa w
ext ension
po wer
Ġ1 8
ĠS kip
ĠF irst
"] ),<
grad io
join path
AT CH
ĠAn swer
Ġgrad io
ST ER
sub process
trans ition
Se e
Ġca pture
Ġscal es
Ġstat istics
qual ity
Un known
Form at
Ġcondition ing
Ġmult ip
lug in
calc ulator
ĠIM AGE
Ġbehavi or
) $
) ":
- \
I Z
N EL
Q ueue
R ow
T ypedDict
b lend
v ic
w en
w allet
¦ ģ
ro les
Ġp ot
Ġp rimary
Ġm ot
un bind
ext ended
il la
ĠA uth
Ġg amma
ĠL i
om og
ĠS p
init ion
ĠR ET
Ġres ource
00 8
ĠM AX
ĠM agicMock
com ment
point er
met as
lic ated
ĠW indow
np z
Ġindex es
te ch
prob as
Ġhe l
Ġco ords
inter section
cur ity
Ġca ptions
Un supported
do uble
edge s
Text Dataset
ĠEn sure
LD ER
Ġpl an
gu ess
cap acity
Ġannot ations
Ġlang chain
ĠInt eger
è§ Ĵ
sli ces
ataload ers
C reate
E pisode
H andle
a ched
b egin
d st
d ocker
e vidence
n v
s pherical
t d
t ar
t wo
w i
z h
å ľ
è ¾
de coded
Ġp eft
Ġf lip
am ing
Ġm ix
Ġm map
Ġc ert
Ġb asic
li es
Ġ( )
ss l
arg er
ĠA s
ĠC UDA
Ġl ons
ĠI CT
00 5
sample d
unt il
method s
ph ers
Ġindex map
** *
trans fer
ble u
doc uments
Pro gram
gment s
Ġfa il
description s
Ġfin ally
ite ct
ï¼ ļ
ĠSharded Object
Po st
Ġstream ing
roll er
Value With
19 2
Ġabs olute
human ml
ĠTime outError
âķĲâķĲ âķĲâķĲ
bal ancing
Ġfunctional ity
hold ers
ç® Ĺ
Ġoccur red
ValueWith Rank
A rray
C ESS
D M
G HT
N amespace
c laude
d antic
h ist
t ick
w atermark
å ¹
ç ī
in es
re st
Ġf hs
Ġre cords
ing s
Ġs an
Ġa st
di gest
ser ies
str ategies
get cwd
(" ,
qu iz
## <
cl us
key word
Ġde t
Ġde lay
wa y
Ġse p
lic ies
Ġconfig s
ĠV ision
sc ene
sum ed
DE F
ĠK e
Ġac celerator
ĠSt ore
ak y
Pro jection
Ġad vantages
not diamond
Ġtim m
table s
List ener
En ter
Ġconv olution
Ġprefix es
á´ĩ ÊĢ
ðĿ ĳ
ðĿ ļ
Ġepoch s
De code
Transformer Block
parameter ized
åĪ Ĩ
Ġattr s
æŀ ľ
tre etune
Char Field
SY STEM
jav ascript
facebook research
GEN ER
tod os
usoid al
/ ")<
P C
P H
S core
S afety
V ersion
c pp
d raw
f mt
h ore
m peg
s ol
s quare
¡ ç®Ĺ
è ¦ģ
Ġ im
in i
er ialize
de epcopy
de corator
ro ve
an alyze
ch uan
Ġp snr
Ġf fn
Ġm argin
Ġn b
Ġs keleton
Ġa uthor
Ġb al
un route
set default
ĠA ct
Ġg buf
Ġh uman
ĠS olver
ĠS keleton
ĠP ipes
"] ]<
ener g
Ġpre ds
Ġpre training
ĠE ach
Ġtensor flow
") ))<
cu d
Ġwh ite
Ġwh itespace
ĠIn valid
Ġgener ations
Module Spec
Ġper iod
Ġq vel
ĠEx it
ta k
ST ART
sub set
trans lator
inter face
ins ics
au g
Di rectory
not e
Ġfa ce
Ġlat er
Ġscal er
}. "<
ighb ours
Ġtr ust
ĠSet up
Com pletion
ĠType Error
aut ocast
cy an
Ġcons ider
Ġmodif ied
Ġ"[ !]
Ġam ount
pus ht
We b
Ġautomatic ally
bil inear
Safety Checker
) }<
4 4
8 5
B o
B rowser
O F
T otal
U sing
] "
a h
c cl
m ips
n ll
v as
w t
w ner
x label
z A
ç Ľ
ro pe
Ġf an
Ġf eed
ed rock
Ġm odal
Ġre prod
Ġc ipher
Ġn d
from array
Ġw ay
ul ly
__ ))<
__ )),
Ġg c
Ġg ive
ĠL lava
Ġh op
ĠS pec
pro cesses
Ġl ate
init ions
Ġde term
ĠF I
ĠF rom
ĠM ult
com pare
ĠB ack
ĠW rite
ĠW ord
pos it
iv ity
RE AD
lect ure
col lect
ĠAn thropic
DE D
Ġrun s
sub mit
Ex ample
normal ization
level name
Di stributed
Ġca ched
Ġcorrect ly
Ġá´ Ħ
bit mq
acc s
ĠCLI PImageProcessor
ĠRot ary
Ġscript s
HE AD
Ġhand ling
------ -<
Ġma int
Wh en
################################################ ####
Ġinteg ers
ĠTer adata
Discrete Scheduler
Ġintern al
A P
A Z
C ustom
M atrix
O ver
U t
Z ero
a z
c er
e insum
f ocus
g rowth
o up
p assed
t uning
å ¾
st ars
ge d
ct ime
Ġm d
he el
Ġs lug
Ġthe ta
Ġas ynchronous
con n
con fidence
># ################################
qu ared
Ġh ard
Ġh ref
ĠF P
ĠR E
ĠO ver
ĠU SE
ly ing
SE S
ĠĠĠĠĠĠĠĠĠĠĠĠĠĠĠĠĠĠĠĠĠĠĠĠĠĠĠĠĠĠĠĠ ĠĠĠĠĠĠĠĠĠĠĠĠĠĠĠĠĠĠ
ma jor
attention s
rot s
clo sed
Ġle g
bs ocket
Ġfil enames
Ġbet ter
Ġclient ai
Ġ". /
ĠShardedTensor Factory
expand user
buil t
buil ding
tri angles
ĠAsset Key
Ġdot s
sen der
alloc ate
Dep end
igg er
reens hot
Sup er
AZ URE
" .<
' %
7 2
A uthor
B e
B OT
C ourse
C allback
D o
D agster
D DP
E qual
L ATION
S chedulers
^ \
f lip
h op
i LU
s uggest
ä ¹
è ½
Ġt tk
Ġ= ================
re con
de ploy
am ount
Ġm q
ce ive
Ġs ort
ad lr
Ġo llama
pt r
li hood
int eg
is ing
Ġcon versation
Ġ' ')<
ab a
ĠS corer
ĠF loat
ĠF AI
ĠF ilter
Ġth ose
ps ample
ĠW eights
Ġro l
Ġk ernels
[: :-
ob servations
ĠArg us
LI D
read er
AG ES
place holder
Ġchunk ed
Ġapplic ation
rol lout
Ch ange
ĠBase Lowdim
Ġcall ing
Diffusion Schedulers
Arg s
({ <
Ġtrans ition
inv ocation
fin etuning
Com pose
ĠĠĠĠĠĠĠĠĠĠĠĠĠĠĠĠĠĠĠĠĠĠĠĠĠĠĠĠĠĠĠĠĠĠĠĠĠĠĠĠ ĠĠĠĠ
Ġge o
RI BUT
bucket s
ĠMulti HeadAttention
Ġsp an
Ġsp atial
SC RI
Ġreward s
Ġadjust ed
('. /
ä» ¥
Ġpri or
eng lish
pac ity
Ġexpi re
ĠGo ogle
Lay out
clus ive
Ġdeterm ine
> â
C ase
G S
O ps
S V
S er
c is
c raft
d w
f d
g lu
h ip
k p
o to
t i
t ension
{ {
¦ Ĥ
å Į
en es
re ctor
re mat
ch ans
as is
Ġp ol
Ġm om
pe ech
Ġb w
Ġb z
un ity
di lation
Ġw s
get Header
il ine
ĠN O
() ")<
ĠA lib
ĠL ora
key B
wa ve
eg ressive
Ġse n
if ul
com ponents
Ġj seq
Ġon es
log var
Ġ: ].
Ġpo ster
ĠIn struction
ffer ence
ĠSt art
ĠSt yle
inter polate
Ġdoc string
Ġle ss
Ġle tters
ho to
Ġinter polation
Ġdis cret
AM A
Ġsc an
ca ptions
Train Data
AN D
be ams
ref er
exec utor
Ġexec uted
ĠRes ult
(". /
Set tings
utor egressive
ĠParam eter
Ġ\\ <
Ġchannel map
Ġmy json
Ġasset dir
oug h
ĠAsset ExecutionContext
êľ °
ĠDoc string
Ġcompat ible
Iter ation
Level Dataset
ĠRetrie ve
Int eger
Cre ated
Ġbi encoder
ham mer
plug in
çĲ Ĩ
ĠRET URN
posit ory
ĠAlib aba
* ",<
5 4
9 4
A RE
C ODE
E E
M ap
S uccess
T op
[ (
[ /
a verage
c ert
c andidates
d ret
h orizon
j udge
o st
p Named
x s
Ġ ))<
Ġ imagen
en u
Ġt w
re sent
ar ize
it ting
Ġp ut
Ġp ayload
Ġin qui
Ġs ources
ent ially
def ined
Ġa io
"" ",<
Ġw av
ext ensions
il ing
ĠA udio
om ial
ĠS E
ĠS H
Ġst ored
pro file
Ġe os
cont act
bo unding
Ġby te
ore set
work flow
In stance
Ġac cept
response s
ĠSt udent
fn s
timest amps
agent a
Net work
dis pose
Ġtr uth
Ġexp licit
gather ed
Ġembed der
wrap ped
Ġreg ular
Ġencoding s
plan es
Ġge orge
ĠDe epSpeed
CO L
ĠZ ero
Ġcomput ed
aut oreset
Ġbuil der
ĠAd just
Ġloc ator
ä» ¶
Met ric
âĢ Ļ
Ġè ®
zz z
Ġexce eded
Bert Model
ĠTem pNamed
TRAIN ED
Ġsn apshot
Ġpix el
CHAN NEL
Ġexceed s
Ġaltern ate
On ly
energ y
cud nn
tak is
Ġlate st
dret takis
Ġinqui ries
ĠTempNamed Dir
! !
/ %
F inal
L ength
P Y
P ad
] **
] ])
a o
a int
b c
m mlu
o per
p cfg
s lo
æ ī
Ġ artifact
se ud
Ġp anel
Ġ" ",<
Ġre ply
Ġc ot
ent ence
ig hest
Ġa uth
ra ction
and bytes
ĠT r
Ġcon cept
() ;<
sh op
cl uster
Ġh er
ĠS cal
Ġde cor
ĠR O
Ġsh s
}< /
Ġcom ment
for k
ĠV ari
ber ta
oul der
Ġal loc
start ed
Ġpy dantic
trained Config
AG STER
Ġrun ner
Ġquery set
trans itions
VI CE
Ġdoc s
ĠSh ould
Ġfeat s
kip edia
dis able
Base d
flow er
ĠCh annel
To TextDataset
Ġckpt s
ili ary
ĠTh ere
ĠModule Spec
Ġmm cv
Ġbo ok
Ġinclu ded
Ġpair s
Doc string
ĠSdf Cli
ĠPos ition
hy brid
ĠLL a
challenge s
Ġadapt ed
rector ies
slo th
) -
) ",<
2 20
A CT
B ERT
L imit
L AY
L ocator
P ix
S imple
S oup
S iLU
d c
d om
g b
o hot
q l
r strip
} ]
in stantiate
on ical
re ch
im ate
Ġp ower
Ġre moved
Ġin correct
Ġs umm
Ġd ay
Ġb it
Ġ( :
set attr
one y
get her
ot es
int eger
co v
ĠC l
ĠC an
th ing
ab ort
ri st
Ġe ar
Ġdata paths
ĠP atch
ĠP AI
Ġde mo
Ġde bug
ĠF OR
ĠF ast
num er
load ing
Ġpro tocol
ĠE pisode
nn ot
") ]<
ph onem
Model ParallelRegion
view point
attr s
spec ific
ema ils
Ġad apter
oken izer
20 48
An alyzer
multi choice
pack ed
Ġapply ing
ĠEn v
istr al
WOR D
ĠLo RA
Ġpack ed
tmp dir
dest ination
Ġconne ct
redirect s
Class ification
rypt o
Trans lator
ãĢ ģ
Valid ation
Ġarch itect
Grad Scaler
dete cted
Ġcharact er
ĠCo unter
Sdf Translator
Ġ--------------------------------- ----------------
Asset ExecutionContext
wik i
ĠSelf Attention
Ġstor ing
discret e
ĠBeaut iful
Ġrol lout
SCRI PT
ĠBeautiful Soup
3 00
4 1
7 3
9 1
C am
O wner
T ree
X L
b da
f alse
l b
u ations
} %
ç ¬
ç ½
è µ
Ġ Ð
st ock
as ctime
Ġf map
lo or
Ġre curs
Ġc opied
Ġi ou
Ġs a
Ġs ol
Ġa y
Ġb x
Ġ( _
par dir
() """<
ĠA ss
Ġg ra
"< |
th ink
Ġe lastic
Ġget Logger
ĠR MS
"] ]
wa v
Ġth ink
Ġres ample
Ġse c
ard own
pon ential
IN O
ai chuan
TI C
ĠV ector
pa use
Ġ: :
img s
mo st
eat ure
own er
RA PH
lat ex
Ġ5 02
seq s
tt p
)) [
Ġco eff
') [-
ble ms
Ġiter able
Image Processor
sign ature
bi ased
ĠBase Model
asset dir
AD ATA
Ġsq rt
mult ip
truth s
Ġge mini
Cont rol
Ġsk learn
ci phers
Ġæ ľ
ib ly
need les
Th read
Ġinf inite
äº İ
Ġassum e
Ġsl iding
.* ?
Ġ:- )')<
Ġgu ess
ĠMet hod
ĠMet ric
Ġorig in
~~~~ ~~~~
INTER PO
Ġ40 96
Ġdest ination
arp ness
sil u
ĠZh ou
rech et
' ")<
' ;<
/ "<
0 9
8 7
B ack
B ench
P lugin
R outer
W indow
X T
a uthor
c s
c nn
e e
f w
f ea
m um
m odal
o ke
p romise
r erun
s ph
z on
å ¿
æ ®
Ġ vec
Ġ very
se parate
al g
ch ast
Ġp r
Ġm it
Ġm uch
ur ations
pe ated
set Header
po licies
ĠN ow
up licated
ype s
() }
() }"<
ĠA CT
ĠA dapt
ĠC ode
ĠL ow
", )<
form atter
ab stract
ĠS ec
Ġdi agonal
Ġl arger
ĠF LAGS
Ġth ird
tensor board
mask ing
ĠE nt
__( **
ĠG roq
OR T
ann ing
ĠThe y
sc ape
range s
Data Source
ta ched
AG EN
ST M
stru cted
ĠSh ortcut
Ġend point
ĠTransformer Layer
rep licate
To Tensor
case d
micro batch
Request Error
RI GHT
Ġenvironment s
Ġvi rtual
ĠText ualInversionLoaderMixin
Ad min
dot s
Ġds py
ynchron ize
Ġedge s
OUT PUT
dig it
Up date
ident ifiers
fs dp
æł ĩ
comput ed
ĠKarras DiffusionSchedulers
çº ¬
GRO UP
A ct
I P
I o
J SON
L ER
M ean
M ark
M apping
W eights
_ "
e ce
h it
h ance
m se
m ixed
s at
s yn
Ġ em
at map
Ġt gt
re write
al e
lf w
Ġm se
Ġc r
Ġc ategory
rom a
Ġto o
Ġas sets
__ __
co p
is ions
ver sed
ver bosity
Ġg lfw
Ġh ighest
ab out
ve lo
ĠP DF
Ġth resh
Ġres cale
tensor ized
Ġpro blems
ĠV er
Ġk nown
ac ies
bo lic
DI S
mo dif
SE C
port ions
ach es
ĠĠĠĠĠĠĠĠĠĠĠĠĠĠĠĠĠĠĠĠĠĠĠĠĠĠĠĠĠĠĠĠ ĠĠĠĠĠĠĠĠĠĠĠĠĠĠĠĠĠ
ĠH el
Ġjson ify
over flow
Ġdict s
Ġag ents
uc ing
local s
ĠData Source
Ġbase line
Pro vide
cur acies
Ġcheck ing
Ġwindow s
reed y
ĠJ o
Pre TrainedTokenizer
Base Output
ðĿ ĺ
ĠRes Net
Ġfilter ed
pri or
Ġnet hook
Ġter adata
ĠConvert s
pipe lining
pers istent
ĠAd ded
IG NORE
Ġtrunc ation
let ed
Ġshift ed
Ġregister ed
Var i
account s
gu ided
Vi T
ĠWork flow
æĪ Ĳ
ĠClient AI
Ġ"**/ *",<
ĠCLIPT okenizer
ĠState Dict
REG I
feed forward
230 9
è¾ ĵ
Ġposter ior
INTERPO LATION
æ® µ
chast ic
F lax
H ub
L ES
N S
R ot
S cope
S ocket
` ")<
c ircle
f bx
h ue
p ids
s afetensors
æ ģ
Ġ ed
Ġ vertices
Ġ layout
ch oo
Ġf ine
Ġm ixed
Ġre fer
Ġre mov
Ġre petition
Ġs pa
Ġs pect
ad vantage
ur i
Ġw atermark
__ ,
int ent
Ġ- ------<
ĠT P
(" [
ĠA M
ĠS end
Ġx yz
ĠP ass
cor r
Ġpre vents
stat istics
á´ ł
ret urns
block ing
Ġjson l
AT ES
ler obot
map hore
comm unication
Ġsub problem
ĠSt ream
box es
Ġcomp ile
Ġsc atter
Ġhttp x
ateg ories
Ġvar s
Ġhelp ful
ĠBase Output
SI G
Ġnormal izer
ĠTest Server
EX PECTED
mult iline
TOKEN IZ
Sh ot
ĠMegatron Dataset
depth s
Ġ'. /
Ġbucket s
Ġoptim izers
Ġclos ure
warning s
dot env
BO S
allow ed
Ġbroadcast ing
åĬ ł
ĠLinear Normalizer
Ġhand les
Stream Response
ĠToken izer
sec ure
Embed der
MO D
contain s
ĠCLIP Vision
Doc ument
esc ape
dispatch er
child ren
Ġiss ues
Cross Attention
Av ailable
Ġlib rosa
inem atic
requ ency
çī ĩ
ĠFAI SS
choo ser
ĠTestServer Request
( ()
* :
. {
5 9
6 3
> \
F N
R aw
U net
U sage
V ec
` ]):<
c utoff
g buf
l ons
n ed
v anced
Ò ĵ
Ġ zeros
į åĬ
ľ âĶĢ
in jected
al th
ro bot
it les
ge o
Ġf o
import s
ode tic
di stribution
Ġw rong
Ġto xic
Ġto gether
ul ating
co very
ver ify
ap ed
ĠS o
ĠS ystem
Ġst derr
Ġ2 3
ri p
Ġdi vision
Ġde g
ĠD DIMScheduler
pre processing
Ġun biased
red it
query Selector
sc reen
low dim
Ġlog in
Model Arguments
Ġmask ing
Ġal go
ach ing
ĠĠĠĠĠĠĠĠĠĠĠĠĠĠĠĠĠĠĠĠĠĠĠĠĠĠĠĠĠĠĠĠ Ġ
lib s
Ġq drant
Ġweight ed
read able
IT EM
rot mat
Pro blem
Ġ8 0
Ġcomm it
Ġtimest amps
Ġá´ ı
De vice
Ġman ually
partition s
WOR LD
etuning Arguments
Ġclean ed
ĠIm plement
riter ion
Ġrad ii
Ġcomput ing
Ġsim ilarity
Run ning
../ ..
omet ric
ĠPo st
ĠRep licate
ĠRep resent
accum ulate
Ġmov es
pr ime
serial ization
ddp m
Def ault
interle aved
mis c
Ġcook ies
è¡ Į
Ġhorizon tal
ĠRef erence
OC AB
implement ation
multip lier
' re
2 000
A s
A VE
D ialog
N on
O ption
O llama
R T
T RAN
V is
V ocab
W hether
a N
j obs
m ag
m iddle
å ¯
Ġ es
Ł ¥
in uation
re view
re ssion
re ceived
de l
de tail
an illa
Ġp ublish
Ġf it
Ġ" ").
ct rl
Ġm edia
Ġre c
Ġc at
Ġ# ####################################################
di stributions
ate Limit
Ġ- ----<
ĠT H
Ġcon catenate
Ġcon fidence
Ġg ives
Ġh ar
ĠS up
emb d
Ġdi stribute
ĠD rop
cal lable
Ġres pon
Ġ_ ("
Ġun til
Ġj pos
OR CH
sw e
pos ite
qui val
EN S
ĠĠĠĠĠĠĠĠĠĠĠĠĠĠĠĠĠĠĠĠĠĠĠĠĠĠĠĠĠĠĠĠ ĠĠĠĠĠĠĠĠĠĠĠ
Ġper plexity
te am
ĠSe arch
Ġac cessed
Ġ... ")<
Ġadd s
ĠSt at
sequence s
Se arch
enc ed
Ġwork ers
RO M
]] ):
En coding
(* _
Ġte ardown
download s
non toxic
chain ed
inst agram
roll ing
annot ators
Ġindi c
Ġtrunc ate
latitude s
Ġinclude s
mem mory
Ġposs ibly
ĠEmbedding s
ĠNorm al
Or iginal
Ġlong er
loy d
Ġbo olean
Ġeff ect
Ġjob lib
help ers
Êı á´ıá´ľ
ĠValid ate
åŃ Ĺ
Ġnumer ical
Ġtrim med
Ve Scheduler
Retrie ver
Mult istep
Ġarchitect ure
ç½ ®
) ;
) ',
C S
C Y
C AM
D own
E CT
G D
O M
T LS
W ARE
d dim
f wd
h ysteresis
r d
w heel
å ·
Ġ ...,
Ġ embeds
Ġ lecturer
Ġ levels
Ġt emb
st em
ar c
Ġp wn
Ġd ense
Ġw raps
con versation
ĠN aN
ĠT op
is dir
Ġcon cat
ĠS O
Ġ2 1
Ġe qu
ĠP romise
Ġr en
ĠD raw
"] ))<
ron t
add Event
Ġpro c
Ġpro per
ON E
Ġ3 6
ĠG e
bu gging
ir m
Model Mixin
ach ine
ĠH ttp
ne arest
Ġne arest
Ġstart up
Ġpass ing
Pro d
exp i
req s
linear ity
Ġread ing
Ġinitial izer
Ġso up
Process ing
CON TEXT
ĠGener ic
Ġæ İ¨éĢģ
Ġmapping s
Ġsegment s
pipe s
}: {
show error
åĪ °
Ġsmall er
Valid ate
Or m
1234 1234
Ġdefin es
Ġfinish ed
Mo E
basic Config
Ġchallenge s
hand lers
Ġmak ing
Ġsym py
super vised
igr ations
Gaussian Model
ĠControlNet Model
Ġturn ed
Ġmot ions
Ġmodal ity
integ r
wave form
addEvent Listener
" /
) ],<
) [:,
. ):<
5 1
6 9
C LO
G ING
O FF
P ri
S ummary
V OCAB
W arning
] /
c les
i ence
p ic
s ft
z s
Ġ ÊĻ
İ ·
Ġt urbo
Ġp id
Ġf ov
Ġ" %
Ġm is
Ġm embers
ad a
Ġd ataloaders
ig Integer
Ġto do
Ġret ries
get attr
Ġreturn ing
int ents
con st
co ord
ĠA fter
ĠC re
ers pective
ĠS c
sert ion
us ic
Ġr gb
"] ),
our ses
cont rast
prompt ed
Ġunder lying
Data Loader
Ġindex ing
tem poral
ĠCon stant
sub plot
PI PE
AL LED
Ġmat erialize
={ "<|
miss ion
bin ed
lot ter
Ġhelp ers
select ive
ĠModel s
fr am
Ġent ities
SI ST
ĠPro gress
ĠPar se
ĠAtt n
Com put
ĠĠĠĠĠĠĠĠĠĠĠĠĠĠĠĠĠĠĠĠĠĠĠĠĠĠĠĠĠĠĠĠĠĠĠĠĠĠĠĠ Ġ
WOR DS
ĠParam s
PRO CESS
Key board
ĠCol lect
Ġsuccess ful
Ġedit ed
"} ]<
Ġquant ization
Inter rupt
FT WARE
ĉĉĉĉ ĉĉĉĉ
ĠAl so
Ġassum es
Ġvis ible
Ġmark er
andid ate
Ġmon itor
esc ription
FORM ERS
Ġdeprec ate
MET HO
ĠVi ew
Ġgre ater
depend encies
MAPPING S
smooth ing
æĹ ¶
éĩ ı
("" )<
Drop down
vic orn
Ġaio http
ĠSdfCli Resource
ateLimit Error
: ])
> '<
A ss
I ST
P latform
W idget
[ _
] ))
f eet
g sm
h df
k nn
m agnitude
o V
q vel
y ear
or ld
on ion
Ġt an
al ore
Ġp bar
Ġp iece
Ġre shape
Ġc md
Ġc ancel
ort ho
Ġn aive
Ġd Ld
Ġa ctor
Ġa utoregressive
Ġb vh
Ġ( *
ul ates
int ernal
># ################
Ġcon struct
ol ding
ĠA nnot
Ġ' )<
Ġ[ ])<
Ġ+ <
ĠS in
Ġdata path
ff ff
ĠP M
ĠP ack
ĠD own
ĠI P
lock wise
Ġsh arding
=" {
Ġro om
Ġcom ponents
test ing
cont ents
rit ic
Ġra ster
ds d
DI M
Ġpo ses
ph oto
item ap
ES TION
ĠĠĠĠĠĠĠĠĠĠĠĠĠĠĠĠĠĠĠĠĠĠĠĠĠĠĠĠĠĠĠĠ ĠĠĠĠĠĠĠĠĠĠĠĠĠĠĠĠĠĠĠĠĠĠĠĠĠĠ
ĠUn i
RE M
ne e
fil enames
Ġ... ]<
Ġcode book
Ex tension
ĠImage Ops
pi ece
names pace
Ġcomm ons
Pre train
wh ich
Ġdiff s
stra int
ĠCh inese
Ġreg ion
ĠGener al
inv oke
ĠRes idual
Transformer Config
inst alled
CO M
USE D
avi er
jit ter
Sharded StateDict
Ġtrack ing
ĠOr iginal
calc ulate
ĠTh read
ĠKey board
Ġip db
can vas
ĠDownload Source
Ġdescrib ing
Ġcoordin ates
ĠFrozen Dict
Ġomega conf
Ġrule s
Episode Generator
Ġleg acy
Ġ##################################################### ###<
Multistep Scheduler
. ".
3 36
4 03
= \\
? \
A U
A nn
C ES
C loud
E vents
J O
M otion
S im
U E
V Q
c ite
c ription
d ent
m as
o pacity
p d
p and
r n
s ock
t ax
w arm
y label
} -
} }<
Ð ¸
é Ŀ
Ġ utf
in x
at ype
Ġt g
it ized
as ure
Ġre peated
ing ular
Ġa stronomic
ra se
ra ise
Ġw ave
str ft
em ester
ens ive
ĠN vidia
ver ter
qu es
Ġ""" )<
ĠS cale
Ġst ability
pro vided
Ġe insum
pl t
init y
ĠR AG
gg le
com press
Ġan tic
son g
token izers
ĠE vent
Ġch o
ĠG ot
Ġcom ponent
ind x
ry ption
Ġ` __
DI CT
SE P
Ġkey points
Ġkey words
Ġresult ing
([ ])<
mat s
min imum
ne ar
Ġq len
ĠK andinsky
Ġadd ition
Ġshape s
post process
Ġlayer norm
no logy
Ġcheckpoint ing
Pro vider
={ '
Di amond
bs z
UL AR
ĠAN D
copy sign
Ġover all
Ġ12 34
Ch ild
button s
Ġexec utor
ĠRes ize
non zero
(". ")[
send line
Ġpack ages
Ġcondition al
Ġretrie ving
ĠDe pth
ĠRot ations
á´ı É´
assert True
Ġsm pl
Qu ant
á´Ģ É´
Ġ15 36
å¤ §
ĠRem ote
Ġplace holder
Multi ple
Ġdete cted
Ġá´Ľ Êľá´ĩ
ĠHTTP Exception
Ġdeno ised
Reduce Op
bbox es
ĠVi T
Ġcook ie
Selection Config
Ġcent ral
elastic search
ĠCheckpointing Exception
mpt y
Decode Error
è¾ĵ åĩº
ITEM S
strft ime
" ></
" ):
) +
) }.
* ")<
: "<
> ðŁ
A CE
C ASE
L iteral
O D
P art
R ew
S D
T ip
U AL
b ones
b mm
b lended
c riminator
d ino
f lush
g ames
h over
i kipedia
m ing
m unk
n lp
r ule
v ate
v ity
à ¹
å Ŀ
é ľ
Ġ vert
Ġ err
Ġ artic
at ural
Ġp unct
Ġf c
am ily
ct an
Ġm t
Ġs peed
Ġd dp
Ġd ns
um ing
Ġb ad
ra gent
di fferent
li ct
Ġto t
em ini
set Timeout
ext ernal
># ##
co in
ĠN ame
ĠT orch
(" >
ĠA D
ĠA G
ĠA verage
ĠL R
Ġh our
Ġst ages
Ġnot diamond
ĠP O
ĠP art
ĠP attern
end or
key board
Ġde que
Ġde leted
Ġstr ip
ĠD on
ĠD eter
class ify
Ġ_ :
ĠM ODEL
com es
Ġj wt
Ġro bot
ĠG iven
Ġ` {
Ġcont ribut
Data Set
Config Mixin
ĠIn st
chunk ed
save fig
Ġwe ak
env stacks
)) )
Ġinter le
Ġwrit ten
AM PL
Ġact ually
Ġvar ious
pi red
AN T
ĠGPT DataSet
Ġfollow ed
optim ization
ĠCh unk
sin cos
Ġcur s
Mask Softmax
ledge hammer
================================ ============
ĠMo dified
78 84
ÊŁ á´ĩ
Ġpl anner
pix els
ĠCont ent
termin ation
Ġhigh er
EL LOW
âĢ Ķ
lim iter
|> "})<
HT ML
ĠChat Message
Ġarch ive
Ġeff icient
Ġfig ure
ear ly
pid ump
alloc ated
Ġpresent ation
ĠDB Dataset
ĠNe ural
FAI L
Ġsem ester
Ġgre at
Scale MaskSoftmax
æ¡ £
Ġpercent age
ĠAuth ors
DEF INE
Depend ency
è½ ¬
Ġè® ¡ç®Ĺ
Ġear ly
cop ies
Ġantic lockwise
ĠGPTDataSet V
' d
' ):
+ ",
, -
, ),<
, )).
1 14
5 3
= (<
> \\
C AT
D ense
L i
M N
R ON
S ay
U Net
] `
b reak
b rightness
b lack
b bitmq
b asis
r as
u ite
v stack
} -{
å į
è ĩ
or qa
re jected
de termin
de coupled
ar ctan
al i
Ġp df
Ġp hoto
Ġf bx
Ġre vision
Ġre cover
Ġs x
Ġd ocker
di ag
Ġimport s
la ced
Ġas k
ĠT ak
is m
up licate
Ġcon version
qu et
fig size
Ġ{ {<
ĠL M
ĠS ampling
ĠD ynamic
ĠR ole
Ġres ized
Ġ_ ]
Ġse cret
ĠM ain
ĠM apping
ĠB ot
ĠU sed
ĠU sing
ay stack
ll ms
ĠG RAPH
ft fy
nn x
ĠV al
Ġ: ],
SE D
ĠOptional Dependency
ĠH O
Ġob servations
12 0
Ġsub folder
IT H
') ")<
inter faces
drop down
Ġ) [
Ġ} }<
Ġwork s
ĠBase d
ĠBase Exception
ĠCom p
á´ĩ á´ħ
Ġá´ ĺ
ĠGener ation
present ation
ĠIm agen
TH ER
Ġext ernal
Ġdepth s
Col lator
Ġcount s
Not Available
aut y
Ġrep r
Ġcons istent
CL S
Ġabs l
åĲ į
Pool Executor
Ġsw iglu
ĠQuery Param
Iter ator
æĪ ·
ĠLe arning
QU ESTION
Ġclick ed
Ġbegin ning
ä¸Ģ ä¸ª
å¼ ı
INST ALLED
Ġsy mbol
ĠâĶ ľâĶĢ
ĠComput es
Ð° Ñ
Img Pipeline
ĠTransform ers
ĠBlendedMegatron DatasetConfig
Ġhel per
å¹ ¶
Ġnd array
Ġdecor ated
İ· åıĸ
éľ Ģ
ĠOptionalDependency NotAvailable
) ["
) [:
, ))<
- '
A fter
C alculate
D raw
F older
F LAG
I TI
J son
L ab
M AS
M AT
N e
R o
R em
S un
S cript
T uning
U se
V D
_ ,<
` ]<
d en
k ernels
n vidia
o dir
s And
y les
Ã Ĺ
å Ģ
æ ¶
in correct
se ctions
Ġt ls
st rap
ro unds
Ġp ly
Ġf la
Ġn q
Ġn feats
Ġin structions
Ġs cor
Ġs ledgehammer
ad ing
