#version: 0.2
> <
p a
pa d
Ġ Ġ
ĠĠ ĠĠ
ĠĠ Ġ
ĠĠĠĠ ĠĠĠ
i n
o r
s e
o n
a t
e r
e n
Ġ t
Ġ =
r e
) <
s t
d e
>< /
a l
ĠĠĠĠ ĠĠĠĠĠĠĠ
r o
i m
Ġ a
l e
: <
r a
u t
c h
i on
i t
l f
se lf
g e
Ġ f
l o
a r
, <
e d
Ġ "
c t
ĠĠĠĠ ĠĠĠĠ
Ġ m
h e
Ġ re
c e
Ġ c
or t
Ġ n
Ġ in
Ġ i
in g
p ort
Ġ s
Ġ self
im port
l a
s s
d i
e x
o de
u r
ro m
en t
a n
Ġ p
m e
Ġ o
p e
i g
t h
) :<
d at
i z
Ġt he
de f
Ġ b
p t
u m
u n
u e
i d
dat a
Ġ #
ode l
" "
p ut
at e
a d
f rom
l i
Ġ import
Ġ w
a s
c k
Ġ (
se r
ur n
Ġt o
t urn
or ch
. <
u l
t o
st r
se t
Ġi f
Ġf or
ex t
ĠĠĠĠ ĠĠĠĠĠĠĠĠĠĠĠ
on e
iz e
en s
ra n
Ġ e
a ge
g s
Ġ pa
ge t
Ġre turn
_ _
Ġa s
in t
m p
c on
o t
i l
Ġ def
or m
c o
Ġ -
p o
Ġ N
h t
v al
i c
( )<
> #
Ġt orch
Ġ T
Ġ d
] <
a me
at ion
s ize
Ġa n
Ġ 1
u p
i s
( "
Ġc on
Ġi s
v er
o l
q u
y pe
= =
e m
l en
e s
( )
Ġ A
Ġ '
( <
m odel
# #
e t
f ig
Ġ g
Ġ lo
t ext
ens or
Ġ" ""
ĠN one
Ġ *
" <
- -
Ġ [
m a
Ġ C
er s
ĠĠĠĠĠĠĠĠ ĠĠĠĠĠĠĠĠ
v i
v e
s h
i le
k e
pa th
ig ht
" )<
Ġ {
Ġo f
o d
Ġ L
e st
it h
as k
ul t
Ġ 0
ar gs
" ,
n ame
ut put
f orm
Ġ +
Ġ h
ra in
e p
ct ion
Ġ S
a b
a mp
p y
at t
Ġan d
Ġ st
e l
d er
p p
Ġ= =
Ġ 2
Ġ di
p ro
at ch
r i
pa r
Ġ data
ra m
Ġn ot
la ss
in e
f f
d ing
Ġ ex
ser t
to k
pt ion
Ġ x
Ġ P
al l
u s
Ġm odel
re s
t ype
Ġ )<
en d
. .
Ġn um
ran s
amp le
in it
r ue
" :
b ed
d o
Ġm a
Ġ""" <
ke y
al le
Ġas sert
q ue
ch e
Ġ de
la y
[ "
) .
Ġ- >
Ġ str
en se
Ġa r
Ġ F
c or
Ġ D
im age
) )<
c lass
Ġ get
Ġ R
" ]
w a
Ġ <
i st
Ġm e
Ġw ith
n um
Ġc o
Ġ I
p re
t er
a pe
li st
alle l
di ct
Ġt h
c al
d im
g g
ce ss
r or
== ==
Ġ O
Ġre s
r int
val ue
t rain
im e
e w
u se
st ate
Ġ _
Ġ l
con fig
a se
0 0
que st
## ##
Ġ or
ic ense
iz er
Ġ r
Ġ se
rans form
di r
ab le
al se
ar d
Ġe l
t ensor
p er
in put
o s
Ġel se
u le
il s
t a
" ,<
b ut
lo ad
r on
ct or
de x
g th
an d
wa it
ĠĠĠĠĠĠĠĠ ĠĠĠĠĠĠĠĠĠĠĠ
Ġ M
d a
' ,
f ile
len gth
Ġpa ge
str i
. _
ĠL icense
] ,
e ight
ra me
vi ce
i f
en ce
m ask
t orch
lo ck
he ad
( '
sh ape
l y
g at
Ġn p
bed ding
T rue
an ce
par allel
de d
Ġ la
data set
a pp
Ġin put
Ġar gs
y n
o ut
od ule
Ġ /
rom pt
Ġto k
-- --
o utput
Ġf rom
u b
che ck
Ġp ro
Ġs h
Ġa wait
) ,
Ġo utput
= "
Ġp rint
po int
i al
Ġ __
Ġpa r
p s
en er
lo at
w or
p on
m ent
Ġ B
"" "<
it ion
C on
Ġ ran
ra d
p i
w ard
b atch
) ,<
li c
a m
a ck
Ġ un
yn c
id d
p l
Ġp re
s on
Ġo s
tok en
Ġ U
Ġb e
u re
Ġt est
ent ion
id s
Ġ j
l ine
idd en
i se
pon se
Ġin t
ma x
gat ron
ut ils
O N
ro up
um ent
Ġ E
pa ram
j e
o ol
Ġ en
ce s
Ġcon fig
Ġ use
Ġ len
Ġ on
stri but
lay er
[ '
r ror
Ġ 3
Ġ y
at or
ar t
n n
a ve
__ (
i x
) :
Ġ W
} <
qu er
Ġf ile
Ġ v
ss age
th od
c ode
o c
Ġ ro
pro cess
Ġ ch
c u
co m
Ġ G
f t
a ult
co der
n el
gg er
I N
b le
E rror
s o
O R
n orm
ar get
Ġ >
at a
stribut ed
() .
re d
in f
app end
n g
quer y
Ġ image
ad d
Ġd im
f or
st ep
Ġcon text
r y
t e
at h
.. .
( ):<
t est
o w
ser ver
Ġn n
ption al
T I
Ġdata set
' )<
pl it
Ġ V
ht t
w eight
tok ens
s c
Ġt ensor
s ample
" )
Ġ k
s w
lo g
un ction
qu i
cor e
l l
po s
lo b
Ġ ra
con t
' ]
Ġ att
Ġ it
e val
Ġma x
u ser
[ :
ran k
an t
g rad
p en
Ġme gatron
a i
st ance
pe c
r ight
F alse
ĠT he
it y
b u
o k
b o
w args
N one
Ġt rain
Ġ :
b er
con text
check point
m o
ransform er
t ime
lo w
Ġtok en
in dex
g ument
un k
Ġ `
r it
/ /
a g
Ġe m
je ct
d s
Ġ im
ro w
i p
c a
0 2
==== ====
T ensor
ce pt
Ġs o
ĠC o
j o
ion s
do w
: //
i r
ĠR e
E N
cu da
Ġs up
o u
ch ed
it s
pe ct
id x
ur l
i as
pt im
Ġst ate
em bedding
' :
Ġb atch
de vice
lo ss
n e
D I
ro p
a v
f loat
Ġw h
># <
me thod
#### ####
k wargs
Ġt ext
Ġ* *
b el
an nel
cal e
] )<
ut e
Ġt ype
ra y
e at
Ġp o
Ġ value
p u
i ct
á ´
Ġ list
Ġ @
Ġb y
S E
or e
ĠF alse
ation s
Ġth is
Ġ key
p rompt
o b
f a
Ġun der
gg ing
Ġ .
m l
Ġ set
Ġlo g
b ack
] .
t r
re ate
ul d
Ġpa ram
un t
lob al
Ġ %
Ġs ample
Ġ 4
us ion
c l
ĠO ptional
er ror
qu ence
i ve
Ġ[ ]<
un d
Ġ all
. """<
pe line
M odel
D ata
ĠA r
Ġ( <
p h
se s
ar y
ur ce
do m
Ġres ult
E R
o uld
inf o
g roup
ma in
i v
b lock
it em
' <
a c
Ġres ponse
Ġm ask
n ing
z er
Ġde vice
m at
or y
i es
ĠĠĠĠĠĠĠĠ ĠĠĠĠĠĠĠĠĠĠĠĠĠĠĠ
in al
ĠT rue
Ġ al
param s
( [
Ġre qui
form at
up le
Con fig
f g
ff usion
= '
Ġra ise
j son
Ġlo ad
E S
d d
l d
vi ew
l er
P T
Ġth at
] ,<
u st
ĠĠĠĠĠĠĠĠĠĠĠĠĠĠĠĠ ĠĠĠĠĠĠĠĠĠĠĠĠĠĠĠĠ
p la
an g
Ġex cept
ĠI n
Ġt ime
un c
ar ray
n d
li b
Ġh idden
res ult
ĠU n
Ġlo ss
Ġo ut
ur r
Ġdef ault
sw er
Ġn ame
1 6
per t
Ġ val
il d
state s
Ġ H
TI ON
Ġ+ =
Ġsup er
Ġo b
s plit
---- ----
Ġa pp
Ġp rompt
y s
Ġw or
ro po
Ġb u
ropo ut
f ix
wor k
3 2
la ble
Ġre quest
Ġpa th
ĠAr gs
m odule
jo in
I n
Ġran ge
R E
ch annel
A S
m in
Ġlo gger
t ers
n p
ul er
ctor y
Ġco m
c li
h idden
Ġn e
ar ded
l at
Ġ htt
st art
Ġin dex
ent s
Ġg ener
pa t
py right
" ]<
dat e
row ser
Ġin it
il l
R A
i o
lo c
Ġi d
* *
Ġcon t
b ase
Ġ{ <
ĠCo pyright
n t
le ment
Ġas ync
u al
x is
qu at
M odule
Ġt arget
L I
Ġa re
1 2
turn s
ep s
cont ent
in stance
in dow
Ġ server
pa ge
ĠS e
Ġp er
re ct
le ct
[: ,
s ses
ptim izer
o ad
em bed
co l
Ġs ize
head s
st er
co unt
Ġnum py
ĠL ist
Ġfor ward
y p
is ion
ig n
lay ers
Ġj son
d f
sc ri
Ġem bedding
Ġ q
re quest
e c
at ed
Ġp os
t al
Ġ \
m age
ff er
A T
as ync
me ssage
u age
f eat
Ġd type
Ġw eight
D E
a ch
ta in
w w
S t
di ces
v ed
d type
ĠRe turns
ce ption
Ġdi stributed
... ,
ver s
rame ters
n y
Ġb ool
o p
Ġme ssage
Ġp y
Ġm o
ched uler
re e
di stributed
ĠE x
it er
et a
er ence
Ġma y
Data set
Ġ 5
li f
Ġ at
R e
re t
att ention
Ġc a
st at
channel s
h is
pa che
n ew
m b
se q
A R
Ġs pec
le t
se d
re ad
( (
} ")<
po ch
Ġdi ct
Ġ pad
Ġb lock
Ġ[ "
l ate
ext ra
b ias
t arget
ĠC on
g ener
se ed
Ġc ol
r un
yp ing
u ate
Ġatt ention
ar gument
step s
ve l
Ġa g
h o
s um
Ġf unction
Ġtoken izer
i el
Ġg roup
ine ar
oc ab
Ġe lif
o m
() )<
ng uage
er n
im est
> @
urr ent
Ġt yping
i peline
Ġr un
v ar
ch unk
Ġ K
me an
Ġ2 02
ir st
ction s
f il
train ing
s ave
Ġf loat
t ra
b s
ver t
ut o
w ith
ĠĠĠĠ Ġ
vi de
u res
im g
Ġw e
Ġa c
Ġco mp
iz ed
train ed
bel s
Ġt ry
al ue
; <
Ġtok ens
] :<
Ġt e
a ct
A G
p rint
en v
embedding s
ran ge
com m
Ġ{ }
pla ce
g o
t ransformer
" :<
te mp
ht ml
S T
F I
th er
em b
ut ion
Ġ query
Ġs ub
Ġ ...
f unc
rit e
I T
pos ition
U T
i ss
ĠA ny
ma p
a y
Ġr ight
en coder
Ġn o
Ġd o
Ġ he
ri x
if ic
Ġt ransform
res ponse
Ġst ep
Ġy ou
s ub
u c
le s
b y
er e
c at
g pt
Ġro t
g lobal
Ġsh ape
P I
Ġo pen
t ask
Ġa dd
er ver
ĠP age
Ġc lass
g ram
par se
Ġim g
token izer
Ġis instance
quest ion
ow n
Ġre t
) )
Ġlo gging
Ġh as
t he
att n
Ġn orm
Ġn ew
A L
Ġst art
t ransform
c fg
o ver
s cale
iz ation
Ġe val
ro t
E M
ĠT his
(). __
t rans
f rame
vers ion
mb da
n o
ro ss
l u
Ġim p
6 4
o us
co mp
> )<
Ġm at
l p
ĠA ll
Ġrequi red
b in
cor es
ĠD ict
m s
eval uate
__ ()<
lo gger
t t
ĠĠĠĠ ĠĠ
Ġpar ser
Ġco py
f unction
pat ch
> )
Ġ z
Ġ up
Ġ layer
put e
] )
lo cal
t on
po st
. ")<
o i
Ġso ft
Ġnum ber
[ ...,
sh ould
att r
s pa
"] )<
oad er
la st
Ġc ode
ic s
ss ion
val id
Ġran k
' ,<
n ot
a pi
Ġt ask
sample s
me ta
i de
= -
ar ch
quat ern
ser ved
Ġ !
l r
po se
Ġright s
on g
q d
' )
V I
ĠV alue
iel d
Ġpar t
S e
" {
n et
ial ize
Ġ }<
int er
lic y
Ġ error
Ġpar allel
id th
Ġre served
Ġ le
s pec
Ġ/ /
[ -
f erence
cl s
en ame
wa re
or g
and le
to ol
Ġ! =
l in
Ġ\ <
Ġ[ <
H O
ai lable
E x
Ġch unk
Ġb ase
do c
c all
Ġ user
IN G
f o
ra di
ĠP ath
bo x
ĠD ata
T ype
o ff
a u
a k
ĠS erver
zer o
th on
str u
model s
======== ========
` `
im it
( -
um n
Ġran dom
Ġd oc
so ft
ig inal
ĠS t
weight s
Ġto p
qd m
Ġf a
v id
Ġ checkpoint
s q
scri ption
P ro
n er
v ent
d ropout
wor ld
c la
Ġ Y
c lo
in d
ĠValue Error
Ġto tal
lic ense
R es
re g
Ġb ias
ar k
Ġ length
re ctory
an swer
Ġpa ss
######## ########
ro ute
= {
wor d
P OR
con d
la ma
Ġuse d
pt y
con v
Ġhtt ps
) .<
L E
ul l
A TION
Ġme thod
" .
Ġc an
zer os
Ġe ach
ĠĠĠĠĠĠĠĠĠĠĠĠĠĠĠĠ ĠĠĠĠĠĠĠĠ
ĠUn ion
s pect
c y
Ġs ys
C EN
u de
P a
n ode
ut il
def ault
00 0
1 0
u ce
Ġse quence
Ġin ter
L inear
Ġs ave
Ġpro cess
z e
Ġ{ "
Ġs cale
od y
key s
Ġid x
> >
pre fix
ra ph
dow n
L M
se nt
ro und
Ġw ill
Ġm in
in dices
pre trained
g ment
se quence
d rop
CEN SE
Ġ us
Ġg rad
Ġtrain ing
f n
Ġc reate
Ġpos ition
go to
Ġt ra
ct x
' s
ol d
Ġ" /
log its
e f
le ss
re am
ig h
ay er
L O
o und
cor d
Ġ )
Ġt qdm
ck et
Ġto ol
i ch
st em
A I
e poch
w e
ut h
Ġg lobal
ex pert
rame ter
u d
ic ro
() ,
Ġlog its
norm al
D ict
ĠS h
Ġparam s
' .
Ġa xis
is ode
par t
et un
feat ures
ran dom
Ġ head
ke ep
Ġs plit
ur ation
vide o
a f
Ġm ult
m ult
w rite
ar ning
RA N
Ġ end
so le
D i
ers ion
Ġla nguage
o pen
int s
vi ron
spa ce
Ġw rit
c pu
ist s
m iss
t imest
DI A
dataset s
s cores
u me
set s
Ġatt n
Ġb rowser
N orm
Ġc or
A M
Ġm ath
Ġbu ild
w indow
y stem
VI DIA
value s
Ġa ct
AG E
} "<
Ġ check
for ward
t es
L o
r t
c reate
Ġs c
_ (
l m
Ġc fg
Ġsoft ware
m ode
Ġ ]<
result s
Ġspec ific
item s
Ġf il
load er
pi peline
ist er
Ġon ly
I S
ĠC OR
a in
Ġhtt p
Ġit er
Ġm odule
Ġn ode
ing le
ith er
Ġsh ould
a re
ĠA pache
= [
it le
Ġo ptimizer
Ġb ut
block s
r id
v ision
lo t
ĠN VIDIA
Ġ |
F a
ĠV ersion
' :<
ĠO R
and ler
pect ed
o urce
Ġla st
k v
h er
Ġ> >>
ĠEx ception
Ġ }
Ġte mp
li ed
ĠCOR POR
str ing
num py
ĠCORPOR ATION
b ar
back end
ate g
C H
\ \
r c
ĠC ON
Ġwor k
a ction
pre ss
ok en
U L
he ck
ww w
er nel
Ġ= >
temp late
o f
all y
Ġl imit
so urce
Ġ ):<
ol ution
to p
ab s
ri but
Ġe ither
ĠI mage
ĠI f
bu ffer
ĠO F
b e
i dat
ĠA N
loc ator
Ġp i
ĠSe e
re q
gument s
cla sses
at ure
co ding
Ġc urrent
Ġstr ing
' ]<
Ġ one
re place
ens ion
Ġl ine
ĠY ou
Ġ Q
ri e
P ar
ro ot
"] ,<
vid er
Ġme an
t ils
di st
Ġpo st
le te
P ipeline
Ġimage s
Ġf irst
ent ype
ag ent
R O
ob ject
ĠN ot
y le
Ġweight s
le vel
me m
Ġ quatern
Ġgener ate
et r
d b
al c
fa ctor
m ark
Ġapp lic
m an
Ġin spect
l ing
Ġ 8
a st
ra w
Ġob tain
stri p
Ġvalue s
P U
image s
Ġv ar
Ġ extra
di v
l s
Ġ url
le an
dat al
pp ing
ĠI S
o ur
IN D
P RE
ption s
Ġen um
Ġwh ich
st ant
Ġm atch
p th
em pty
Ġ{ }<
Ġrequi res
Ġw indow
sh ot
av ailable
() ,<
er ge
Ġt im
re ed
ĠW AR
Ġan swer
if i
a xis
w right
Ġla mbda
lay wright
di ffusion
soft max
Ġembedding s
t ing
u ous
f la
Ġa d
htt ps
t able
ve ctor
ĠAN Y
e gatron
Ġla bels
v ocab
ss i
ith ub
-------- --------
Ġpad ding
Ġb ack
ĠT uple
ex ample
Ġm pu
I mage
o g
li ent
TION S
> """<
Ġmodel s
ĠWAR RAN
clo se
L icense
] ]
Ġf eat
FI X
f p
Ġlo cal
. __
Ġ ..
ar g
Ġex press
Ġwrit ing
ile d
Ġl at
Ġd own
ĠW IT
TI ES
Ġper miss
Ġtransform ers
u ff
le d
x t
li ke
ĠWARRAN TIES
Ġfor mat
process ing
Ġhe lp
g ithub
pa rameters
Ġh ave
ll m
m atch
Ġcont ent
LI CENSE
P E
Ġa ss
um m
") ;<
M ix
ĠĠĠĠĠĠĠĠĠĠĠĠĠĠĠĠ ĠĠĠĠĠĠĠĠĠĠĠ
name s
embed s
g ine
Ġasync io
Ġpy test
li ance
Ġma in
"" "
Ġapplic able
use d
Ġo ver
ĠK IND
HO UT
Ġus ing
b i
co py
ĠWIT HOUT
Ġcom m
license s
5 6
Ġpermiss ions
Ġar g
Ġla w
Ġdi s
ca che
oi ce
al lable
Ġinput s
Ġag reed
Ġcomp liance
in s
Ġimp lied
a pache
Ġpa rameters
Ġg over
ĠLicense d
ĠB AS
DI TIONS
module s
ĠCON DITIONS
Ġgover ning
ĠBAS IS
se lect
Ġf ol
Ġm ust
ĠUn less
Ġlimit ations
mo ve
PRE FIX
N et
ra g
iv en
point s
ĠT ransformer
( __
T rain
Ġdoc ument
et ro
datal oader
line ar
b ool
la bel
Ġdi rectory
re ss
ĠM odel
cli ent
em a
trans pose
di s
Ġ1 2
la bels
" ).
Ġb et
num ber
A N
ä ¸
Ġre ad
an ge
02 4
Ġsup port
L ist
Ġ keep
type s
me tr
pro j
u gging
de scription
one s
ĉ ĉ
Ġs cal
st ack
ro l
re qui
ri pt
ĠU tils
L U
m ot
Ġ J
Ġen coder
code d
T O
iv ation
" ):<
pre d
Ġsample s
se arch
Ġf in
Ġin dices
ig uous
Ġmo ck
O DE
Ġpa t
Ġwor ld
Ġrequest s
fil ename
Mix in
bu g
} .
ĠG PT
backend s
F or
w idth
ran d
S cheduler
stat us
E n
le ase
po licy
v ant
er ate
} \
or s
it e
ca y
L ayer
ra ct
DI R
A tt
] [
s cal
Ġg pt
q a
it ies
ĠT ensor
que e
Ġmat rix
2 0
h at
Ġf ound
up date
quee ze
a x
ul ate
idat ion
" ),<
Ġs k
( *
Ġf rame
Ġt uple
Ġ 6
en der
Ġex ample
g ent
Ġdi ffusion
Ġso urce
Ġresult s
ret ro
Ġa v
mat rix
Ġf la
ent ial
' '
t xt
ĠB ase
A r
ph a
re shape
Ġin to
g n
but ton
fil ter
s queeze
Ġit em
s im
E D
pro b
ĠD ef
input s
Ġcor rect
em ory
re turn
er ature
re p
ve c
Ġcon v
< /
P re
e ad
ra pp
nd array
T oken
b ody
en c
ang les
de ta
ck pt
Ġsh arded
I L
at io
en ch
Ġor iginal
F A
att er
file s
lin es
m bedding
Ġp ipeline
Ġg iven
Ġg radi
Ġv ocab
reg ister
c urrent
r ate
ut f
fa ce
in ue
Ġa ction
ĠP y
le ction
if t
Ġenum erate
Ġm etr
par ser
Ġm ode
Ġo ther
re f
Ġin stance
Ġof f
C K
ĠT ool
UL T
o ptimizer
amp ling
gener ate
C T
Con text
ag er
B ase
ml p
Ġ ent
ex ists
ang le
l att
uc cess
a ded
ar m
O utput
ed i
Ġc all
Ġkey s
group s
cli ck
Ġem bed
er t
cont iguous
comm on
tensor s
mem ory
latt en
Ġn on
" ))<
c ent
alle d
Ġne ed
eta data
u ct
Ġwh en
9 9
f low
ssi an
Ġag ent
Ġc alc
amp ler
s d
} )<
Ġ" <
Ġval id
ĠA uto
Di ffusion
Ġro ute
ateg y
s m
Ġ1 00
Ġ> =
Ġvar i
Ġfol low
a p
la nguage
Ġpre fix
meta data
S I
s core
de bug
Ġex ist
ob s
1 4
htt p
function al
B lock
Ġt r
Ġse q
á´ ĩ
tok entype
u ation
ex ec
co s
us al
is h
de coder
_ {
l lama
ck er
ag ster
c um
Ġan g
ĠD i
ed it
Ġ1 0
do main
Ġma ke
FA ULT
P AGE
= (
Ġch annel
for e
St ate
EM PT
Ġarg parse
Ġan y
Con v
sq rt
EMPT Y
n ow
v is
Ġ( `
gat her
ï ¼
Ġ zero
Ġc lo
(" --
Ġex pert
n s
Ġd rop
Ġdi ff
message s
) ))<
pro bs
t itle
ĠC heck
l t
en gine
Ġdataset s
Ġob ject
stat ic
ĠSh arded
__ (<
sh arded
Ġc ls
ĠA PI
ĠB rowser
Ġen v
etun e
( {
ĠF or
Ġ< =
Ġnorm al
s ync
Ġt rans
ex p
"] ,
0 1
). __
D O
i e
Ġs av
Ġfor m
class method
t im
w o
d ition
e y
w h
Ġst at
Ġro ot
au ssian
E T
Ġex ec
re sh
ig ma
igh b
p le
Ġstr ide
Ġmessage s
f irst
if y
Ġa pi
Ġs ame
Ġe ps
l ation
m m
p lot
ð Ŀ
en viron
by tes
5 5
o th
Ġrot ation
ĠP ro
com pute
app ly
work ers
m ul
il ity
init ial
"] .
v a
ĠR etro
o ptim
le ctor
pro vider
Ġk ernel
Ġ $
Ġ" "<
s cheduler
Ġcon tain
Ġdi st
} ,
ĠĠĠĠĠĠĠĠĠĠĠĠĠĠĠĠ ĠĠĠĠĠĠ
3 4
at ing
qu al
ip le
Token izer
f ul
Ġp laywright
vi ded
static method
1 00
h andle
Ġd ropout
ist ory
pt er
Ġ202 4
Pro cess
i ble
u id
lo sses
Ġinit ial
ĠData set
C ON
M A
scri pt
P O
de code
) ]<
la mbda
ĠT est
ĠP IL
. ,
ver y
ĠC allable
sw ers
Ġt imest
cor rect
N AM
g raph
Ġ á´
ise s
Ġimp lement
ce ler
Ġl r
red uce
bo ok
' t
ent ity
Ġ ctx
ol ver
T he
Ġ question
to tal
back ward
di o
Ġ202 3
L oader
n ext
c ision
(" /
oi ces
} /
Ġre g
qu ant
var i
B u
Ġ 7
ol der
py thon
Ġin st
ep isode
bu ild
Ġwh ile
var s
"] ["
Ġpat ch
g ic
Ġa b
ust om
r ng
Ġse ed
c ur
h andler
as set
Ġe p
Ġm etadata
as on
ĠW e
ume l
or a
G ener
c ross
it ude
batch es
ĠDef ault
Ġ ),<
Ġ utils
Ġex c
transform ers
g rid
Ġre cord
(' --
col umn
ODE L
) ):<
Ġcon sole
Ġfile s
inf erence
en code
Ġt ransformer
Ġo ptional
timest eps
t uple
or der
ched ule
AT A
c am
o pt
Ġt able
o se
Ġm emory
m ath
ver age
Pa ram
0 4
o x
Ġcon vert
c s
or age
ĠC reate
per m
and b
ca st
frame s
Ġdown load
a uto
al f
'] )<
ch at
Ġe poch
Ġma gic
Ġro w
w ise
r atio
s k
Ġn ext
ut ure
cu ra
Ġdo es
i que
w d
de cay
la p
con ne
Ġ vector
ĠA tt
Ġoutput s
5 0
E Y
h as
O T
er a
path s
re ak
. "<
C o
ĠG ener
A D
Ġdim ension
down load
v ents
ç ļ
able d
je ction
user s
Ġquatern ion
çļ Ħ
Ġa x
e vent
ĠS et
init ialize
Ġca ption
Ġh andle
uff le
Ġfollow ing
le g
Ġla bel
1 1
E X
Ġs um
ate s
sw ith
ac y
Ġcont inue
in o
Ġcom pute
Ġw idth
ri es
ro py
re cord
Ġpro vided
a red
} ,<
) ).
ort ed
ĠG et
g t
ter n
ble m
Ġapp ly
in v
K EY
st ract
Ġex pected
Ġal low
M ODEL
g round
le vant
Ġ- -
R L
g pu
l ta
Ġs q
um ber
un squeeze
E mbedding
f in
Ġf inal
cor er
ĠG PU
P ath
f ull
ro le
Ġde coder
tool s
d um
f ter
u g
Ġs core
pro pert
Ġpath lib
Par allel
] ["
i date
pre sent
Ġs ystem
) [
pa ss
Ġse ssion
low er
pa ck
st d
ver se
Ġz ip
" \
D e
S tr
ri er
st age
qu ential
pro d
ri eval
Ġen coding
Ġmetr ics
h ar
A B
A n
Ġ layers
f c
ct ed
"] [
Ġpro b
'] .
ho st
Ġs im
ĠT ask
form s
Ġex p
mask ed
li p
T o
ifi ed
U n
lo gging
Ġm an
ul ar
Ġwh ere
Ġpo ints
ob j
Ġ" __
Ġs in
NAM E
cura cy
f req
cl ude
ribut e
H ead
s in
Ġ video
ĠT e
Ġor der
6 8
Ġt wo
a range
f latten
di ction
feat ure
ms g
K EN
2 2
ed ge
Ġe lement
ĠP a
Ġpi pe
Att ention
Ġm erge
Ġs ingle
Ġst eps
av g
Ġhe ight
G PT
dir name
Ġra w
Ġar guments
T est
on ly
ĠM o
s ys
we en
Ġbut ton
F orm
et ch
ting s
+ +
an k
ad a
Ġde scription
stru ction
c ase
st yle
im pl
(" \
T ext
n umel
ĠT O
expert s
Ġiter ation
TO KEN
Y PE
b it
m edi
un ch
mp lement
Ġse nt
Ġfil ename
col or
Ġ202 2
off sets
Ġ} ,<
A PI
p lay
arm up
pad ding
CH E
c ript
st ream
Ġpre d
epoch s
part ition
n on
y z
or d
Ġt re
le ar
ĠP re
f i
ser v
umm y
1 5
g er
Ġj o
af et
l ong
ĠĠĠĠĠĠĠĠĠĠĠĠĠĠĠĠĠĠĠĠĠĠĠĠĠĠĠĠĠĠĠĠ ĠĠĠĠĠĠĠĠ
rapp er
f inal
Ġre d
FI G
Ġc lient
Ġs rc
et ime
[: -
3 0
8 4
Ġb reak
viron ment
di rect
P o
ch oice
un ct
Ġbet ween
M egatron
or iginal
Ġf p
Ġ" \
dat etime
ic al
Ġd agster
py test
Ġse lect
: \
k pt
Ġi gn
Ġup date
f er
ĠL o
cli p
leg acy
m icro
o ption
__ ":<
Ġtensor s
tr uth
ĠH ugging
Ġob s
Ġ1 6
Ġtest s
e ff
u ch
an s
ĠR es
Ġfil ter
i str
s rc
Ġ{ '
ĠM egatron
Pa rameter
man ual
perm ute
le ctions
Ġ( "
(" .
od al
ces sed
mo e
Ġ` ``
ir s
Re quest
Ġbase d
Ġtemp erature
W OR
b ench
e ssage
g ress
re ward
ro ad
Ġc ur
ng ram
Ġpo int
Ġ ge
Ġp la
b rowser
Ġtype s
deta ch
c v
he ight
Ġde ta
am ed
: %
c ut
st op
Ġ[ '
Ġpart ial
off set
T S
Ġ version
ra ises
Ġn gram
Ġst ream
ool s
Ġass ign
pa nd
Ġar ray
m d
Ġl in
Ġal pha
b one
he ther
age s
ath er
Ġk wargs
etun ing
R un
S h
s ingle
se nd
wor ds
r s
s ign
Ġc lean
ent ropy
size s
Ġwor d
F loat
Ġf ind
ck le
ĠC LI
gener ator
Ex ception
resh old
( _
B AL
T ransformer
de pth
pe ed
Ġg r
par ent
Ġget attr
head ers
tr f
loc ation
chunk s
Res ponse
ud ent
i k
Ġt mp
ra ry
Ġ" .
ur ing
Con t
ĠCo m
################ ################
: .
F ore
ction ary
pro ject
propert y
] ):<
pa re
ch ain
ĠR un
cat en
stru ct
Ġre present
S et
T H
ra p
pla n
CON FIG
se gment
ar r
Ġb ody
Ġ( ...,
Ġh o
ï¼ Į
I mplement
M E
b lob
t ree
th rop
un ter
R I
re move
im um
Ġin ference
ribut es
Ġtim ers
throp ic
M ask
Ġa fter
Ġs cheduler
Ġth an
Ġtask s
Fa ce
T ER
ur se
quest ions
ber t
let ion
LO BAL
metr ics
Ġf ield
json l
AT E
mot ion
ighb or
en e
id ual
rit er
Lo gger
Layer Norm
pe at
Ġ1 024
ma ster
rot ation
timest amp
Ġang le
É ª
ĠD E
iter ation
e ded
Ġc kpt
Ġ' {
mask s
** /
ĠTO DO
) }
Ġ X
Ġa verage
con stant
Ġch ange
position s
road cast
L P
s df
t en
Ġg t
Ġ' .
prompt s
Ġfa iled
t mp
Ġpar se
quer ies
Ġblock s
Ġgradi ent
Ġign ore
s ystem
Ġ &
ĠL I
Ġbu cket
act ivation
ĠHugging Face
a ut
de st
Ġp lt
Ġcon dition
Ġbe fore
Ġ: ,
Ġbu ffer
Ġcol lections
sq l
Ġmult i
Ġscal ed
Ġin fo
tokentype s
j ust
ed Error
di ff
Ġpa ck
vi ous
Ġret rie
we b
P RO
se lector
ĠF la
ĠSharded Tensor
j ang
ĠT ype
Ġquatern ions
w er
in st
__ )<
Ġep isode
8 0
D P
` <
Ġth en
ai ss
jang o
C a
P L
ĠR ot
Ġpro d
Ġit s
Ġval idation
Ġprompt s
st ore
Ġm ore
Ġo ptim
data class
C E
form ation
Ġconfig uration
ĠNot Implement
metr ic
Ġdiff users
al og
ro ll
mo ck
ĠIn c
led ge
ĠNotImplement edError
en cy
que ue
Ġ_ ,
iel ds
iss ing
global s
Ġfeat ure
ada pter
Ġ 9
ho ok
C O
f ra
Ġ ext
Ġi ds
Ġs cores
Ġst d
se ssion
Ġpre dict
' ):<
s sed
Ġd uring
ĠL ayer
ĠO pen
load s
ne ss
C h
a ke
Ġ license
ĠC h
Ġposition s
ĠNot e
A SE
D ropout
Ġ u
Ġw as
po ol
res ource
Ġde pth
={ "
F ile
O b
p ng
Ġ quat
at ive
po p
Ġ[ `
process or
bar rier
Ġtre etune
F unction
h alf
Ġf ull
Ġs ign
Ġen vironment
f ill
t rue
di stance
dim s
Ġextra ct
% %
3 6
q kv
he l
ri ces
je ctor
lib rary
'' '<
Process or
C ol
Ġc ase
Ġem b
Ġsoft max
Par ser
afet y
c re
f older
er y
ort cut
Ġar gument
Ġcol umn
Ġsav ed
celer ate
caten ate
Ġ datetime
ut er
ĠĠĠĠĠĠĠĠ ĠĠĠĠ
Ġc re
ol ve
ĠE n
Ġy our
read y
Ġhas attr
> }<
Ġc ustom
Ex ec
k ernel
o ptions
or k
Ġ' <
Ġhead ers
example s
h f
É ´
it ialize
lo aded
ar s
Ġ" ,
ĠI D
Ġac ross
Ġmat rices
ĠQ u
Ġsupport ed
unct ools
de lete
Ġb in
co pe
py torch
ĠM ult
output s
ac c
Ġindex ed
ĠCon vert
are a
D ATA
Ġco unt
ched ul
á´ ı
DE FAULT
doc ument
Fa ctory
s ide
Ġt ree
Ġre ference
Ġs uc
ex pected
ma ke
Ġl lm
Ġeval uation
N ot
ĠD e
Ġpre trained
Ġmult iple
a it
g radi
m it
Ġ ver
Ġre move
di ctions
an swers
sh ift
================ ================
Ġoff set
O P
Ġ æ
Ġt itle
Ġf unctools
la va
Ġdo main
Ġf ew
Ġm icro
um an
ist ant
Ġse arch
ffer ent
ific ation
A gent
G et
f ind
m erge
al y
ex it
min i
Ġs pa
as ic
Ġdata classes
bu cket
h istory
p end
Ġa u
Ġra di
ĠCon fig
Ġact ivation
o id
ar ge
ĠA dd
ĠTransformer Config
Ġs orted
ent ry
ĠA pp
ĠS ample
Ġex pect
Ġpy thon
ĠData Loader
K ey
a ctions
p g
p df
} )
Ġw rite
gat ive
Param s
( **
` ,
f ew
in ner
time out
Ġgener ated
Ġav ailable
I M
] ))<
Ġw andb
ĠC ol
Ġh ere
Ġdi ctionary
able s
requi red
c i
w arning
Ġ Z
inter val
Float Tensor
Ġre place
Ġ\ \
ugging face
Ġcalc ulate
Ob ject
0 5
Ġspec ified
ens ure
con sole
grad s
Ġcom put
Ġchunk s
ĠSt ep
open ai
ema il
C heck
x iv
Ġt f
am l
jo int
> _
i li
Ġma pping
fa ctory
Ġset up
Ġle vel
c lean
Ġp d
Ġpa rameter
ĠT rain
je ctory
let on
lu sh
requi res
: ]<
T his
c an
Ġo pt
ment s
now ledge
0 3
L e
a ss
f ree
Ġ' ''
cl one
C LI
Ġc urr
di rectory
ens ions
ĠC or
Ġex ists
Ġ3 2
M S
Ġf ree
ar xiv
con vert
ĠA gent
checkpoint ing
Ġinit ialize
Ġ{} '.
Ġsc ript
Ġkeep dim
Ar guments
' ],
b ot
Ġco s
Ġen coded
Ġrun ning
ifi er
istr y
g in
w armup
Ġ vi
ro y
Ġp ool
est ed
pre v
Ġ` `
start swith
2 5
] ).
k ed
Ġs uccess
bu f
Ġca che
Ġte am
Ġno ise
doc s
has h
Ġm lp
li ce
Ġdi stance
pro gram
Ġse gment
Ġsh uffle
Ġj np
SE T
Se quential
U M
b eta
c urr
Ġre f
Ġn et
Ġin formation
Ġs igma
Ġo per
ĠN umber
tra cker
Ġfeat ures
e ed
Ġ" --
Ġre al
Ġo ld
ition al
Ġtime out
Ġ{} ".
Res ource
1 7
m port
} '
le ft
Ġs ampling
Ġr ender
á´ Ľ
ĠSe quence
fo o
Ġsk ip
U SE
V alue
ĠL LM
Ġpro gram
Ġy ield
test s
lat ive
Ġmean s
F rame
i form
k s
Ġ å
as sert
ext end
sh ared
Ġso me
ne g
ret rie
Ġgroup s
Ġchannel s
} {
~ ~
st om
un et
ke leton
Ġdata class
Ġl m
pi pe
cu stom
** **
ĠPy thon
> ):<
F O
n one
s up
str ategy
ĠE rror
patch es
Ġtra j
icro soft
Ê Ģ
Ġf ix
ĠĠĠĠĠĠĠĠĠĠĠĠĠĠĠĠ ĠĠĠĠĠĠĠĠĠĠĠĠĠĠĠ
length s
token ize
ĠLI CENSE
# <
T ime
_ ,
e lement
ar range
Ġwith out
ta g
Ġbu il
argument s
comp ile
Ġprob ab
t ry
} :
Ġd one
Ġne g
Ġlat ent
cent er
" [
able Diffusion
ĠU p
Ġname s
umm ary
s igma
Ġ 64
Re g
/ {
d p
ro uter
Ġe vent
ĠO utput
let ed
ĠTe am
l ue
Ġs chedule
lic ate
tra j
af ter
ĠDefault s
2 56
p or
Ġ util
Ġb eta
ĠA n
ĠM icrosoft
Ġpro ject
Ġfla g
M o
M essage
Q u
U N
Ġ edit
Ġc rop
In valid
En coder
scal ing
usal LM
Ġsent ence
s set
en o
Ġt er
Ġb s
Ġw arning
ĠW h
gument Parser
Ġconv ention
CHE CK
- <
t f
Ġa ff
Ġal ready
stat s
U D
re ason
it ive
Ġin di
Ġs ure
me gatron
Ġl inear
stribut ion
Ġtool s
Ġclo sd
Gener ator
stract method
9 6
P AT
y m
Ġ heads
al pha
Ġre p
Ġdi r
mo v
Ġngram s
dest roy
1 8
f lat
z y
Ġpa ssed
il ar
Ġcon ne
Ġg rid
ma il
ĠL oad
inf os
checkpoint s
fla g
ĠDE FAULT
S o
ent er
quatern ion
y per
ex pand
Ġlo aded
ĠFla x
I G
S pec
a vi
h ub
Ġ like
Ġ queries
Ġc alled
us age
Ġgener ator
Ġpi ckle
Ġfin etuning
medi ate
' ))<
L oad
P A
} ",
Ġt p
re set
Ġc am
ĠI mport
serv ation
1 3
n own
Ġ view
at er
ch oices
Ġstat us
W ith
s uccess
ĠIn dex
Ġ5 12
vis ible
Ca usalLM
Ġ dataloader
Ġ* <
out e
bo ard
For CausalLM
sm all
fin ish
d one
Ġ let
se en
on s
Ġt ak
con catenate
ĠT ext
Ġ1 000
ma pping
Ġstr ict
EN T
ĠEx ample
iter al
man ager
ast ype
ĠCor por
ked irs
ĠCorpor ation
F ield
N ame
g en
h ot
p ers
s g
x yz
Ġch oices
ĠĠĠĠĠĠĠĠĠĠĠĠĠĠĠĠĠĠĠĠĠĠĠĠ ĠĠ
Ġtr unc
({ "
: ",
I d
ĠĠĠĠĠĠĠĠ Ġ
work space
Ġq kv
iter ator
Ġrot ary
' ).
f uture
k l
m bed
en coding
sh ow
Ġr ate
Ġval idate
Ġrot ations
object s
G LOBAL
c ing
t p
al ys
to list
set up
get env
Ġg round
Ġma p
bo se
Ġtarget s
Ġca st
Ġback ward
rand n
ino v
alys is
e ct
Ġbe en
lat itude
Ġcol or
Ġbet as
Bu ild
> """
b f
g b
en um
Ġc la
th reshold
au dio
Ġimplement ation
Ġinst all
1 024
7 8
: ]
I D
d ot
p ri
Ġf lush
Ġm y
Ġin clude
Ġst yle
Ġmethod s
s n
s ampling
v it
Ġa uto
Ġlo c
ĠI ter
Ġstate s
Ġcomm and
Train ed
1 9
pa rameter
Ġf req
li sm
Ġdi fferent
ĠI N
bin s
l ight
z ip
de lta
al len
ed Dict
Ġm issing
Ġtorch vision
stri de
Ġj ust
P P
o ptional
en able
an dom
id get
text s
Ġsh ift
Ġpre vious
EN D
transform s
call back
Ġdis able
dum ps
S ampler
ge lu
ĠP er
0 6
de c
Ġre set
iz ers
Ġg lob
Ġdata base
alle lism
Ġne eded
Ġopen ai
comp lete
Pre processing
Ġlin es
in sert
un it
un ic
() )
pre dict
bu il
Ġrank s
Lo ss
2 4
M an
Ġre arrange
Ġn ow
Ġr ng
Ġtransform s
5 12
s ing
æ ķ
re peat
ut or
Ġs df
Ġthe ir
con ds
ri de
.. /
temp erature
7 7
Ġ ensure
Ġf unc
ue st
Ġst age
pp ed
Ġtok entype
work er
Ġpath s
Ġgener ation
normal ize
ĠBrowser Context
: :
C A
] ):
to col
Ġas set
Ġh andler
res olution
url s
In put
---------------- ----------------
or ig
re en
Ġmerge d
i ce
r ender
Ġ ).
lo gs
ex ception
an h
sc atter
Ġem pty
Ġmask ed
Res ult
WOR K
A da
S erver
` .<
b ers
e le
s chedul
t s
ge st
mp l
ma kedirs
Ġst op
Ġ2 00
sent ence
Preprocessing Config
) ),
Z E
Ġg o
Ġ2 55
Ġdi sc
pro jection
ĠM LP
ca ption
á´ Ģ
ob ot
In dex
Ġreg ister
B ASE
â Ķ
Ġ library
Ġt rue
de g
le ep
Ġre levant
Ġse cond
Ġpre cision
av ed
ign ore
comm and
ĠĠĠĠĠĠĠĠĠĠĠĠĠĠĠĠĠĠĠĠĠĠĠĠ ĠĠĠĠĠ
allen ge
2 00
Ġ' '
idx s
Ġload er
Ġper form
tra ce
Ġeval uate
node s
Ġcontain ing
" }
T RA
re direct
im odal
Ġ12 8
Ġexec ution
D F
T orch
T uple
j it
{ }
Ġ ],<
Ġs m
co ok
Ġj ax
clo ud
mult i
rapp ed
> ]<
å ı
re al
Ġfor ce
Ġd jango
(" #
Ġ2 0
all back
Ġth read
12 3
Ġret rieval
> __
C L
L D
l ens
res pon
rot ary
conne ction
S C
b its
g a
t ri
Ê Ł
get item
ĠM eta
loc ity
UD A
se c
al t
ed uce
Ġre ward
ĠĠĠĠĠĠĠĠĠĠĠĠĠĠĠĠ Ġ
Ġde l
Ġen c
mot e
uid ance
gradi ent
i b
l st
en ded
di fi
ul ation
get Logger
Ġlo op
pro blem
ĠP o
ĠG aussian
Train er
Co mp
ĠRot ation
N o
` ):<
` ):
o led
Ġ" _
ĠT YPE
per im
ne ed
ES S
ar n
Ġc lip
Ġin ner
ex pect
ĠF ile
ĠR oute
Ġint e
cs v
CHECK ING
N ode
ch ange
Ġi o
Ġb oth
li ck
ran t
il on
Ġd f
ff ers
Ġl ight
yn am
Ġpro vide
jo b
Ġad just
Ġgradi ents
Ġang les
B O
E vent
T e
Ġ port
se ction
an not
Ġcon s
Ġcon stant
ĠU se
ĠIn itialize
Po licy
Sh arded
Man ager
æķ °
! ]
M ult
U RL
f used
i ent
Ġ quant
Ġt k
re levant
al low
Ġd s
(" **/
ĠIn put
ĠCon v
Ġsav ing
Ġlicense d
4 8
U ser
V ar
u lf
Ġw ant
Ġ( (
Ġan swers
Ġlo sses
ĠĠĠĠĠĠĠĠĠĠĠĠĠĠĠĠ ĠĠĠĠĠ
"] :<
ac count
sum m
ful ly
cam era
" ),
H E
T h
x ic
co ll
Ġh istory
Ġde lta
Ġwith in
Ġco ver
Ġun ique
cont rol
ac curacy
Ġmask s
Ġfunction s
Ġtemp late
ĠDi ffusion
ĠCom pute
hel lo
ĠCol umn
C lient
O pen
w s
å Ī
st able
"] )
ĠO llama
cl u
no ise
spec ial
" }<
O ptimizer
P UT
s leep
Ġf used
Ġg raph
Ġse nd
lat ent
={ <
Ġtra ck
M Scheduler
S S
e very
g ab
j pg
o ps
æ ľ
ĠĠĠĠĠĠĠĠ ĠĠĠĠĠ
ran ch
(" <
() [
ĠI t
Ġun et
Ġtimest eps
ox el
ĠOpen AI
G B
Ġo ption
ĠP lat
Ġsh util
Ġnormal ize
ĠMult i
I O
L LM
P LE
\ <
o o
lo op
et rie
el l
ĠO r
Ġad ded
dum p
S ON
V ER
] ]<
h params
r im
Ġa bs
Ġo ptions
un ique
ot ion
Ġla unch
lic a
======== ====
Ġhas h
off load
Ġlength s
Ġpredict ed
Ġwarning s
4 2
C lass
p c
z en
pa c
en abled
Ġc v
me s
as sets
Ġreturn s
Ġstr uct
Ġro le
Ġcor respon
Ġred uce
ĠLayer Norm
ĠImport Error
uest ion
f ulf
g r
l ora
s ampler
s corer
ex ist
ur er
li sh
Ġh f
pre c
Ġth ere
pi x
ry pt
request s
PAT H
] .<
_ <
(' .
Ġpro vider
Ġsub process
POR T
top k
Ġexample s
auto grad
Str ategy
D is
T rans
_ )<
c lock
f id
ĠĠĠĠĠĠĠĠ ĠĠ
ĠB u
") ).
Ġby tes
AS S
Ġcomm on
ĠAuto Tokenizer
vari ance
* ,
P lease
n Mask
Ġpar allelism
Ġch at
eps peed
ho me
Exec ution
v en
é Ģ
pad ded
Ġm sg
il ter
val idation
shape s
cept ed
gener ation
uth or
ĠAuto Model
Ġsq l
Ġfew shot
F T
F ound
O ptional
g ster
h ave
m y
w rap
} ')<
re size
de v
Ġn ested
Ġin f
ve locity
ĠR ep
da gster
(' /
lic ation
Ġpre v
nn er
'] ,<
mo oth
Ġpo p
Ġload ing
ang uage
task s
Ġle arning
ĠĠĠĠĠĠĠĠĠĠĠĠĠĠĠĠĠĠĠĠĠĠĠĠ ĠĠĠĠ
Ġus age
ighb ors
sk ip
fra c
nMask Type
4 5
æ ĺ
al ize
me ga
il ities
ach er
ĉĉ ĉĉ
For ward
Ġdeta ils
ili ates
Ġaff iliates
V A
e qual
k nowledge
ä »
Ġex it
IN FO
ou g
Ġbatch es
pat ial
Ġact ual
Ar gumentParser
exec ute
tim ers
pass word
plan ation
ynam ic
S H
t ic
å Ĳ
pa y
Ġ" ")<
rand int
ĠPa rameters
Cont ent
Ġprod uct
] :
c alled
di sc
train er
check er
Ġpro bs
ac cum
col lection
Ġcla sses
Ġ'' '<
' {
V i
on d
ro zen
Ġc ore
Ġra g
Ġpad ded
AL L
sim ple
0 7
R N
V al
f ields
en coded
Ġe t
ĠL iteral
sub ject
cond ition
perim ent
M PT
N UM
T P
T Y
f etch
r gb
re lu
ex cept
Ġp rag
Ġde sc
ĠD o
pre dictions
ter min
cal c
Ġres idual
Ġsh ard
Ġconfig ure
row s
back bone
Ġdefault s
fla x
Ġent ry
tim es
Ġprag ma
d up
i re
y aml
re po
Ġs ummary
Ġlo w
ep copy
ĠR a
Ġch oice
Ġatt ribute
ĠĠĠĠĠĠĠĠĠĠĠĠĠĠĠĠĠĠĠĠĠĠĠĠĠĠĠĠĠĠĠĠ ĠĠ
ST R
EX T
Ġjo ints
Ġ``` <
8 9
c le
f name
i ck
k dir
s chedule
ã Ģ
Ġm u
Ġre ason
Ġin d
th ing
un iform
ĠN o
ĠN OT
Ġcon d
ĠA l
ab stractmethod
Ġex ception
list dir
ĠCon t
lap sed
Ġsm all
Te mp
C hat
F F
L AG
] ['
e ctor
u ally
st orage
port ed
Ġthe y
ol ute
len ded
ĠU Net
Ġpo licy
ĠK ey
gment ation
fla gs
uff ix
SI ZE
PO ST
Str ing
H el
] ],
b et
v q
ch ron
Ġb roadcast
Ġ( {
Ġh igh
Ġun it
time Error
mat mul
Ġmetr ic
Diffusion Pipeline
Ġab out
fulf ill
E L
R OR
T ES
] ]:<
b n
x x
å Ĭ
on t
Ġp ers
ĠA da
ĠL lama
Ġme gab
yn chron
) ;<
C om
M L
c rop
e et
m t
} "
â Ģ
Ġ1 5
ag en
In ter
Ġret ro
Ġfa ctor
rt ual
og le
Megatron Module
summ ary
d ense
s v
t ure
u int
Ġc ross
co st
ĠT h
Ġdi rect
end swith
head er
Con dition
ĠE mbedding
ble ms
jo ints
([ <
RE D
Ġmo e
Ġac curacy
env s
Ġlat ents
initial ized
episode s
A dd
O r
T YPE
y d
Ġ ct
Ġ edge
Ġ" {
Ġp lot
Ġo p
ĠN orm
ĠL inear
Ġse e
ĠM odule
Ġ: ]<
Ġset tings
inal g
Ġtim es
plot lib
F OR
Q A
] +
l im
l ator
t k
w andb
| >
me ster
Ġthe m
() ))<
Ġg ather
Ġ* =
sh uffle
ĠP ar
Ġen gine
Ġrequi re
Ġne ighbor
alc ulate
arg v
initial ization
ose n
ug h
An swer
constant s
3 84
A ny
B y
H T
e vents
n x
q pos
ä º
or ds
ge x
me l
Ġ# #
Ġ( '
Ġe vents
ĠT o
Ġd eno
Ġ' __
Ġh and
Ġh params
Ġde cay
ator s
Ġac count
act ive
bin ary
ĠSt ableDiffusion
State Dict
Ġvi a
R etro
h uggingface
w rapper
an thropic
Ġ[ -
att ing
ri ch
do ut
ub lic
Ġnode s
deta ils
MA X
Ġlight rag
` ]
a ract
l imit
Ġin v
ĠC hat
out er
ment um
run ner
uc ed
last ic
Ġfa st
Ġdocument s
ĠGener ate
1 000
g or
h uman
or iz
Ġp p
af e
abs path
our ces
PA RA
9 5
E LU
S ource
b os
u ction
{ "
Ġ" [
Ġb ins
Ġd on
up per
pre diction
Ġpre diction
ip ly
lect urer
ret rieval
ĠAtt ention
inst all
Ġfreq s
gor ith
P ool
e ft
s l
s olution
Ġm m
di alog
ul ator
Ġe qual
ĠA sset
Ġ' \
Ġl ong
Ġpro cessed
Ġpre processing
code s
Ġal so
lat ents
Ġcont rol
ĠSe ssion
Ġwork er
celer ator
3 5
Y ou
] ),
_ [
o ther
å ¤
Ġ è
in valid
Ġf etch
he x
th read
Ġreturn ed
Ġ2 56
ĠD DP
ĠW hether
ng ine
ĠPy Torch
ðĿ Ĺ
Ġcre ated
ĠBu ild
] (
b lue
c ed
s ig
ra ble
ut ton
ĠĠĠĠĠĠĠĠĠĠĠĠĠĠĠĠ ĠĠ
Ġpro blem
á´ ľ
fa iled
mean s
ide o
Ġtra jectory
Ġcall s
Ġver bose
Ġcorrespon ding
) ),<
f usion
l on
th is
mp u
ĠA d
Ġdi v
layer norm
IN E
Ġmax imum
Ġ% .
Ġscal ing
rol Net
Ġoff sets
Ġvari ance
ass istant
pac ity
. ')<
> {
O UT
re ction
le x
po lation
ĠS plit
ĠR o
lock s
am ond
IN T
index ed
}/ {
PRO MPT
2 7
ro ugh
ra st
Ġre lative
ot e
Ġan s
ĠS ave
ĠS core
---- --
user name
iv ations
Ġ5 00
SI ON
Ġexist ing
L EN
T EM
f y
i py
k it
o v
r u
ç Ķ
ê ľ
se g
Ġ[ ],
ĠĠĠĠĠĠĠĠĠĠĠĠĠĠĠĠ ĠĠĠĠ
ĠU RL
ces ses
'] ['
tra ct
stru ctor
wh ere
ĠApp ly
Time out
ĠPlat forms
b ank
i ces
m kdir
ä ½
pa int
ra s
it ial
ic ient
Ġst ory
ĠD oc
'] :<
lat form
St ream
cla mp
Ġdocument ation
ĠRun timeError
retrie ver
E val
L ong
N umber
s olver
â ķ
Ġ rich
Ġre size
ĠT oken
Ġd b
Ġd ot
Ġdi stribution
Ġdim ensions
ĠRe quest
ob servation
ER S
feat s
om ic
ĠMo ck
Ġselect ed
WORK ING
Ġa ctions
ed Dataset
Ġre port
Ġb ert
em pt
Ġ' -
el s
ri ver
Ġar ch
ĠB y
pi ed
12 8
normal izer
Ġwork flow
ĠDi stributed
. ",<
3 7
B U
G roup
V ision
l inalg
z z
in k
er as
ro gram
Ġc pu
Ġs olver
ur ces
av ig
Ġob j
Ġmo v
Ġac celerate
part s
Ġav g
oriz on
B utton
T ool
W ork
} _
æ į
Ġ= ================================
im ple
Ġa da
ch ema
dat es
ĠD own
ist ic
Ġuse s
ph as
Dataset Config
Ġwe b
Not Found
Ġsuccess fully
Execution Context
ĠAutoModel ForCausalLM
) ")<
) }")<
P rompt
U P
W E
b float
p il
re ference
Ġw ait
to xic
Ġe ff
wa ys
stri ct
Ġ: ]
St ep
LO G
ench mark
wh en
AB LE
Ġpla ce
ilar ity
D B
s mpl
Ġ ),
Ġp s
set tings
ĠR em
Ġres olution
EN AI
ne ighbor
Ġpo ssi
ER ROR
pat tern
Ġmodule s
En v
Ġtimest amp
CLI P
2 1
S ub
_ .
in ed
in struction
Ġt en
ut ed
la n
rom ise
Ġe mail
__ <
ĠP lease
ĠO n
if act
ca use
Ġal ong
Ġdefault dict
Ġ5 0
be fore
enc ies
++ ++
%% %%
ib ility
" })<
2 8
4 7
G ET
d it
i um
w riter
pa n
ge mini
Ġb est
par ate
load ers
ne gative
ER T
extra ct
arg in
Scheduler Mixin
Ġtimest ep
Long Tensor
C UDA
å ħ
Ġ questions
Ġf ig
la unch
Ġp t
Ġe very
Ġpa per
(" %
00 00
ix ed
Ġv is
IN DE
Ġwor ds
St orage
Ġle ft
reg ion
sign al
Hel lo
INDE X
0 8
7 68
= ""
S c
u i
Ġs corer
dat ed
Ġb one
Ġg en
ĠW ork
ĠV al
Ġcom pat
12 34
comm it
Ġsub ject
Ġgrad s
mult iple
ummy Object
é Ĺ
pa ce
ar ding
Ġh s
ĠS o
Ġk l
cont inue
St art
tes IO
Ġdis play
rs p
coll ate
Ġmegab locks
I C
O p
S plit
[ [
\ .
e ar
s lice
Ġi p
ent r
em ent
ĠĠĠĠĠĠĠĠĠĠĠĠĠĠĠĠ ĠĠĠĠĠĠĠĠĠĠĠĠĠĠĠĠĠĠĠ
par ents
Ġex ce
Ġma ster
ĠD P
Ġen able
local host
Ġvari able
Ġ7 68
bench mark
M eta
c md
m u
s i
al ong
im ation
ch rom
Ġb ar
len d
Ġst and
Ġpar ent
Ġj ob
right ness
Ġcom bin
Module List
Ġsize s
Ġfin ish
Ġcontain s
Ġmulti processing
aly ze
D ep
W AR
f ield
r l
Ġs l
Ġimport lib
Ġw hether
__ ':<
Ġd t
ter m
ta ct
ance l
Ġpar sed
fa st
fix ture
Ġle ast
reward s
Trained Model
deg ree
C ode
H andler
a ff
or ed
de te
Ġ" ",
Ġm ark
Ġin sert
Ġ# <
as h
co unter
(" {
qu are
cor ds
Ġatt ributes
Ġ% (
iv es
ĠH T
the ta
Ġinter cepted
stant i
vant ages
ĠPro cess
Ġau dio
9 8
c c
Ġc u
to do
sh ortcut
ĠP rompt
Ġde pend
Ġch ain
ĠCon sole
Ġitem s
Ġinitial ization
ik token
ĠQu ery
Ġconne ction
IG H
E mbed
I f
m im
n an
s afety
u sh
w rapped
st udent
Ġf latten
ce ll
Ġin clu
Ġs y
ex c
co eff
ĠT ime
ĠT able
Ġpro gress
ĠB ert
comp letion
bin d
Ġsc ene
Ġav oid
conne ct
Ġjo int
Ġter ms
enum s
I t
d river
Ê ľ
å Ľ
Ġf name
Ġan not
Ġlo wer
ab ility
ri a
ist ics
RA G
Ġmat plotlib
quatern ions
Ġpart s
Fa iled
Ġurl lib
Un ion
Ġlet ter
unic ation
" },<
5 7
5 00
? <
D Condition
I ter
L LE
b t
s p
æ ĸ
st dout
ut able
Ġre search
Ġst udent
pro cessed
Ġse conds
extra s
lu g
meta class
Le vel
difi ed
= ["
S ize
a e
m od
} ",<
re port
Ġf ill
Ġre q
Ġin her
Ġo ur
ĠF unction
ĠF ield
Ġpar ents
ĠCo mp
Ġtext s
Ġal ign
spa n
ĠSh ape
Ġvector s
Ġepisode s
NotFound Error
g lob
i a
se p
lo ps
Ġs uch
Ġd inov
Ġnum bers
Ġde code
config uration
Ġpro jection
ition s
log in
ant ic
bo ve
mo id
function s
part ial
ĠJ SON
Ġobject s
Ġallow ed
Ġtak es
. *
4 3
= <
> ")<
R GB
c r
ĠĠĠĠĠĠĠĠ ĠĠĠĠĠĠ
di c
iz ing
pt ed
co urse
># !
ff n
pre cision
Ġ> >
Ġ: -
ĠRe turn
Ġset attr
ac celerate
Re ad
Re LU
Ġcol lect
Ġinst ead
TEM PL
mim ic
= _
A l
B atch
D ummyObject
i od
æ Ī
in to
se n
Ġm em
ul ary
ĠA sync
der edDict
am ma
TI ME
`` `
cum prod
ĠID s
finish ed
gorith m
2 02
C AL
L ow
p r
er obot
Ġt iktoken
ĠC lient
Ġl erobot
dir s
app ing
bo und
run time
Ġhead er
gn itude
rep ly
exec ution
ino ps
lear n
Ġho st
Ġnet work
ater mark
, )<
- >
F ilter
M O
T E
Ġc l
Ġs d
ue s
con tain
ĠS tr
Ġst ore
Ġco unter
Ġla ng
Ġk v
á´ ħ
fa il
vert ices
stru ctions
Ġwrit er
Ġmatch es
rag raph
Ġab c
ord in
schedul ers
PARA LLE
âķ Ĳ
L L
U tils
[ <
n amed
at uration
model ing
ab c
ĠF a
rame tr
check box
Ġv ision
ĠAr guments
12 4
select ed
ðĿ Ĵ
ĠCLI P
Ġtmp dir
merge d
Qu ery
A d
N O
e os
g it
re mote
it ers
Ġf eet
Ġb ox
() ).
att ed
Ġar r
ĠB e
Ġpat tern
ĠGPT Model
Ġvari ables
IGH TS
N OR
] ],<
s age
u cli
é ¢
)< /
de an
Ġre call
Ġc od
ur bo
data s
ĠC alculate
Ġh alf
Ġch aract
Ġpo se
Ġpo oled
Ġne gative
lat ed
Ġno qa
Ġsc ipy
ap shot
Ġexp r
Ġbin ary
ĠWh en
ucli dean
2 3
D S
E ngine
f r
p us
s keleton
t anh
à ¸
å º
on ce
er ical
ar ras
he lp
ĠL ight
us r
Ġde lete
ist ent
ĠM ake
pen alt
bo mimic
iv ed
ern al
Ġsequence s
rep r
Ġent ries
oug ht
Ġind ent
DCondition Model
âķĲ âķĲ
A pp
E lement
V AL
g ame
n dim
p laywright
Ê ı
Ġa round
Ġa bove
Ġ" )<
Ġc enter
ur u
Ġo ps
Ġe inops
Ġpa nd
res net
Ġl lama
Ġr atio
per cent
if rame
bu ffers
late st
net work
ateg ory
vis ual
ngram s
Ġrepresent ation
ci i
Ġtokentype s
Ġpand as
5 8
D ING
in ation
ce il
Ġco st
Ġor ig
Ġran d
Ġbe cause
ĠE val
mo use
base name
run e
ĠĠĠĠĠĠĠĠĠĠĠĠĠĠĠĠĠĠĠĠĠĠĠĠ Ġ
Ġprocess or
Ġwork space
Ġfol der
filter ed
pool er
Ġinte ger
( ["
G rad
Q uestion
è ¯
pt ure
ser ial
(" ()
Ġg uidance
ĠL a
ĠB lock
so cket
Ġtrain er
over lap
Ġfa ke
LAG S
Ġdirect ly
: ,
: ],
E num
O G
f allback
g aussian
h s
h older
k nown
p id
x y
in ds
in spect
Ġf aiss
Ġ" **/
Ġs w
Ġs cope
Ġp ri
vi rtual
att ributes
init e
cor ator
pre ds
cess ary
app lication
ok up
ip her
error s
Ġcheckpoint s
ĠModel Type
ĠRetro PreprocessingConfig
Ġsign al
Ġradi ans
~~ ~~
So ft
ãĢ Ĥ
2 6
c lear
s y
or ies
er o
Ġm otion
as cii
Ġg pu
Ġh n
Ġdi alog
config ure
Ġsh ow
ag ing
eps ilon
template s
Ġover lap
IM AGE
Ġprobab ility
ĠOr deredDict
Ġcod ing
) ]
D oc
I I
b al
k y
or n
il y
Ġcon st
ĠL e
pro blems
ĠR etrie
Ġsh ort
pl us
ject ed
Ġmessage box
Ġpy torch
Se quence
lin k
cur s
ĠMegatron Module
OP ENAI
USE R
Ġpop up
ĠNOT E
yd ra
4 0
= ['
A ll
P S
R a
h i
w b
w rit
pa st
al loc
Ġa p
ut ions
Ġin struction
me sh
Ġb enchmark
ol ved
Ġg aussian
Ġlo gs
Ġ[ [
ĠC ustom
ĠD agster
ĠD ATA
ub le
lic it
oc us
te ger
qui red
Ġlog uru
PI L
arg max
ĠRa ises
bet as
çĶ ¨
* ",
B ert
F uture
N N
N ING
R andom
_ ):<
o ok
} $
ç »
Ġa ut
Ġm on
an alysis
to wer
Ġde epcopy
train able
ĠU ser
Ġatt r
Data Parallel
)) ))<
Ġsplit s
miss ing
Train ing
Ġother wise
Ġtrans cript
ĠConfig Mixin
> "<
b x
e ach
m i
w idget
è §
se lection
im agen
Ġ" -
Ġst orage
der r
Ġde c
lay book
Ġid ent
Ġper m
Ġmo di
bi encoder
ĠCheck point
Head er
ĠCLI PT
reason ing
sn r
ĠPer form
fid ence
PARALLE L
é¢ ĺ
" >
3 1
> -
Q U
R ank
W e
c nt
l n
m on
p kl
r nn
s aved
s patial
t ab
pa rametr
it ch
lo y
Ġin p
ue ss
Ġ1 1
att ribute
end point
Ġde scri
Ġth rough
pi p
Ġpre sent
pos itive
eval s
ne ighbors
pla nner
base d
Ġclo se
Bu il
ĠAtt nMaskType
jector ies
ĠIndex edDataset
CA CHE
C allable
O S
W hat
b roadcast
h igh
l ers
p isode
t b
t qdm
w in
on al
al phas
po w
ĠN ew
up load
() ):<
Ġg old
ĠĠĠĠĠĠĠĠĠĠĠĠĠĠĠĠ ĠĠĠĠĠĠĠĠĠĠĠĠĠĠĠĠĠĠĠĠĠĠĠ
Ġh ow
lay out
Ġl arge
Ġse en
idd le
... ")<
rank s
gener al
') [
HO ST
ĠSharded StateDict
era data
Ġcomput ation
Ġcos ine
ĠUp date
Ġthread ing
============ <
Ġet c
STR ING
>#! /
. )<
T ra
` .
b ranch
s ph
pa ir
Ġs ync
Ġs olution
id ent
Ġe ven
## #
ĠI d
dim ension
Ġsh ortcut
Con f
pl at
av ing
Ġiter tools
Bu ffer
prod uct
ĠTe mp
segment s
Ġpack age
Ġrep lica
A c
A CK
h y
s li
Ġ queue
in p
in verse
er r
en gth
Ġt ag
ch ar
Ġf ields
lo ut
Ġp latform
un ds
ĠN e
ĠE uler
back ground
ac ross
ĠĠĠĠĠĠĠĠĠĠĠĠĠĠĠĠĠĠĠĠĠĠĠĠĠĠĠĠĠĠĠĠ ĠĠĠĠĠĠ
16 384
Ġuser name
Ġinter mediate
edi a
Ġstat s
Loader Mixin
ĠMo E
Ġho ok
aly zer
Ġradi us
Ġbuil ding
Ġhash lib
ĠLlama Factory
3 8
P ie
S cal
U B
U R
U p
k h
m c
m g
s a
in u
er c
en ding
re compute
Ġre lease
la ng
Ġb i
Ġw rapper
Ġ- --------
Ġh uggingface
ab el
alle t
ĠI M
ĠM ask
Ġpre process
Ġpre dictions
inf er
ir d
dd p
trans cript
call s
Ġframe s
exception s
Open AI
Ġstruct ure
LEN G
7 0
A Y
_ ()<
e od
h a
s orted
s cope
å Ń
or es
data base
ad ded
() ]<
## #<
par ator
Ġde te
ĠR educe
Ġco urse
IN TER
ca usal
Ġ4 0
mat ic
Ġcont rast
Ġtra ce
window s
Ġneed le
vari ant
Form atter
ĠIter ator
Ġconstant s
Vi ew
) "<
A nd
O ptions
S df
V E
b asic
h avi
o ve
Ġc lick
di amond
ur al
Ġthe se
ul lable
int e
po ses
ĠL anguage
cor ding
ĠD is
Ġres net
ĠG lobal
so me
á´ Ħ
ust er
async io
Ġfunction al
fil ters
FI LE
sub modules
Ġover ride
Ġprobab ilities
Temp late
smpl lib
Ġbar rier
It em
) (
D ef
p k
on ent
re cv
Ġin verse
Ġ( [
Ġ- =
Ġ' --
ĠL og
fa ct
Ġsample d
target s
Ġag ain
reg istry
Ġglobal s
Ġtim ing
dis patch
Ġnormal ization
va e
Ġá´ Ľ
Ġelement s
################################ ################
buil der
FOR M
si red
Ġcu da
penalt y
Pie ce
LENG TH
7 5
U RE
c ro
e uler
l lava
n avig
w n
ro q
an ner
Ġp c
un ing
Ġ- --------------------------------
Ġcon n
ĠC PU
Ġ{ :.
ĠD ropout
Ġl lava
da y
Con ne
Ġbe low
pu sh
fa ke
Ġid entity
conv ention
Ġvari ant
Ġsin ce
ĠĠĠĠĠĠĠĠĠĠĠĠĠĠĠĠĠĠĠĠĠĠĠĠĠĠĠĠĠĠĠĠĠĠĠĠĠĠĠĠ ĠĠ
ĠLo ss
ĠAgent P
Ġoper ation
VER SION
pix el
- {
3 9
F E
T EXT
W h
W riter
] }
b a
i os
n py
ð Ł
re lative
ch ild
ent ries
() }<
Ġex planation
ĠD B
ĠR andom
ta gs
ĠM essage
eight s
Ġbe gin
Ġen code
Ġ3 0
ĠV Q
group ed
Ġapp lied
vers ation
tra jectory
etr ic
scal ed
Ġ[` ~
cook ie
RN G
ĠHT TP
parametr ize
7 9
: ")<
a data
g reen
p ly
æ ŀ
Ġre po
Ġn ull
di a
Ġw armup
Ġw ell
Ġd ynamic
Ġ1 3
Ġh i
Ġst ack
Ġ2 5
class ification
pre process
ter adata
Ġbe ing
Ġch allenge
") [
'] [
eval uation
Ġte acher
fo und
au x
are st
Ġinitial ized
Ġcam era
ele m
æĺ ¯
Ġstand ard
' .<
, )
D o
M e
h and
v oxel
ge o
Ġre direct
port ion
con f
vi dia
Ġde st
Ġ/ =
ĠG LOBAL
Ġtrain able
count s
ĠEx tract
extra ctor
Ġcomp leted
radi us
Ġpass word
=[ <
ä¸ ª
ĠBrowser Type
ĠFor ward
Ġman ager
Ġu uid
clean ed
Low dim
ĠId entity
A X
C ho
F rom
U S
en g
al ign
Ġf lops
ar p
Ġs afety
pe g
um p
ĠS ub
ĠS df
all reduce
Ġro und
red ential
Ġal ways
Ġne cessary
vers ions
ĠCon text
mult iply
shot s
99 9
Ġrepresent ing
Ġretrie ve
**** ****
ĠPo licy
ĠDown load
bt n
4 00
: -
: `
M IN
M LP
i pe
j np
} .")<
or al
Ġt s
Ġt urn
le m
Ġm od
id er
ot al
co ords
Ġ' _
Ġ2 04
Ġdata s
ff t
Ġde prec
OR S
Ġcontext lib
Ġset ting
run ning
Se q
Ġad ding
ä¸ Ģ
predict ed
TRA IN
cook ies
BO X
exist ing
mega Conf
plat form
! ")<
F AI
R o
b stract
r m
t as
u uid
u dio
Ġ qu
st o
im p
Ġre peat
pe t
tok s
Ġde epspeed
oc ation
Re turn
Ġca usal
gener ations
Ġret ry
Ġback ground
scal es
Ġaverage d
web kit
hel per
Reg ion
êľ ±
Ġinher its
TEMPL ATE
ĠAgentP rune
M ET
N E
P ES
W ord
g ra
m q
p x
r en
s parse
® é¢ĺ
å ®
å ¼
æ ł
in sum
Ġt ri
Ġs n
li er
ĠN ode
Ġd st
ol low
pro gress
Ġth reshold
and box
head ing
ĠB atch
St at
Ġsub set
cat ing
inter le
Pro tocol
normal ized
abs olute
Ġass istant
Ġexec ute
script s
Ġfix ed
BU G
éĹ ®é¢ĺ
' ),
2 9
L R
a uth
b da
m er
s ite
t ed
å ĩ
on ents
ro x
im ate
it es
Ġm el
ad am
ul ative
Ġe uler
po late
is file
ĠC lass
sh are
ĠS cheduler
Ġex act
ĠP laywright
ĠO ptimizer
oc i
Ġapp end
In fo
let ions
with out
rot ations
spec s
vid ual
ud ge
Pipeline Output
scal er
Ġconvert ed
Ġrow s
ĠRes ponse
Ada m
lan k
ĠLa zy
redential s
' ),<
- %
> ""
N D
T ransform
a ctor
b rid
c ss
i ally
ç Ń
pa nel
in es
Ġ= ========
Ġf f
ce ived
Ġn ullable
Ġs ampler
ex port
Ġp k
Ġp m
Ġp ix
Ġb ound
Ġpa st
ĠT HE
sh ard
Ġst o
ri b
ĠP os
Ġco uld
pre pare
(' \
Ġch ar
so urces
ow er
ĠĠĠĠĠĠĠĠĠĠĠĠĠĠĠĠĠĠĠĠĠĠĠĠĠĠĠĠĠĠĠĠ ĠĠĠĠĠĠĠĠĠĠĠĠĠĠĠ
pla in
Ġspec ial
Ġac cess
Ġrot s
AM PLE
Ġstring s
Ġsim ple
ĠTask State
micro batches
Ġindi cating
Ada pter
Ġcombin ed
9 0
B C
R educe
g its
z arr
at ios
Ġc sv
an cing
Ġo c
Ġb ot
ue ue
__ )
ĠA c
ĠC ross
ĠS imple
Ġ< /
Ġtest ing
ĠE mbed
IN ST
add r
ca ched
ĠRe set
In itialize
util ities
Ġ.. .<
Base Model
tim ing
column s
ĠGener ator
fi re
serv ations
6 0
> =
A C
G PU
G ather
P y
b box
d inov
g old
Ġt a
Ġf n
Ġin valid
Ġd ummy
Ġ' ,
et er
Ġde coded
Ġde sired
ĠF aiss
ĠF eed
Ġl ora
Ġsh are
Ġpre pare
mo mentum
Ġtoken ize
ĠRe g
Ġkey word
ĠIn ter
ĠH ow
yp edDict
gener ated
tra cing
Ġpart ition
Ġass ume
Ġsupport s
AB C
partition ed
Ġge o
Ch unk
need le
Work space
entr ic
ĠLight RAG
L S
R ES
] *
h n
m ory
s ort
è ¿
re ssion
ch em
Ġre main
Ġdef ine
val idate
ol lama
ĠL L
Ġde dup
---- <
Con vert
ise d
Ġy aml
oc entric
Ġch osen
log ps
locator s
requi re
Ġfla gs
Ġcondition s
pipe lines
Ġutil ities
Mo ck
pers on
ĠIter able
pay load
Retro PreprocessingConfig
Ġpossi ble
TIME OUT
Soft max
' \
? ",
K L
c ri
e ck
g an
h ip
n b
t re
se cond
Ġt ake
Ġf ps
ar i
Ġm p
he s
Ġre cv
ser ve
__ .__
Ġh ydra
Ġex pand
pre ssion
ter ns
dict s
ĠM ax
Ġen abled
oc ast
row th
AT T
AR T
Ġcomp letion
Ġadd itional
ĠSt ate
vid ence
Ġcan not
RO OT
cos ine
De coder
âĶ Ģ
accum ulation
Ġunit test
WE IGHTS
Ġ204 8
, ),
C TION
W S
d ummy
r b
s ame
Ġ date
Ġ velocity
re c
re gex
Ġs r
Ġ1 7
Ġ1 9
vi sed
config s
ase s
Ġse parate
(' -
ĠE num
Ġal gorithm
Ġgener ating
comm end
Ġ{} ,
Ġup load
Se lect
lin ing
Ġ$ \\
Ġdownload ing
ug gest
Col umn
ĠAda m
æį ®
æĸ ĩ
P ASS
S ample
a a
g re
m is
è ®
pa ragraph
st ar
ch allenge
Ġi ss
Ġp il
Ġb anner
Ġd raw
ĠA SC
el se
res ume
ĠF used
Ġco ok
Ġse c
Ġv llm
code book
ĠIn ference
RE CT
mb ol
act ivations
Ġcode s
Ġpart ic
timest ep
Norm al
Ġfla x
Ġinst alled
Parallel Region
Ġpipe lines
ĠLo cal
ĠEn coder
Ġtak en
sentence s
stanti ate
oci ated
% (
A uto
S Y
W ER
f aiss
j av
l int
l arge
se e
se quential
er f
Ġa z
Ġp h
Ġst ar
ri ate
ĠB lended
for ce
ĠV i
sc r
rop riate
Ġwh at
tra ck
Se lection
fo x
CH AN
Ġpadding s
ĠDef ine
lt k
vari able
Ġdoes n
ĠPa ram
Ġcre ating
Ġrand n
ĠASC II
C har
G RE
V ector
[ ~
] ),<
m id
u an
u ator
y es
Ġ li
Ġ âĶ
in uous
at ern
Ġf id
Ġs olve
un finished
Ġ- ----------------
ĠT arget
() ])<
Ġ[ {"
ĠS T
end of
Ġstr ategy
Ġar t
ĠO ther
Ġos p
red uced
ĠV it
ĠV ocab
Ġk now
ĠCo urse
view er
Ġ} """<
ĠModel Config
Ġtr im
Ġform atted
Ġman y
Run time
ĠCom put
Ġspa ce
sup er
Ġprovide s
ĠDiffusion Pipeline
sig moid
) ])<
. \
L INE
e ce
f ut
f ps
s ure
w ik
} '<
} _{
in ria
er ial
Ġp e
Ġb rightness
as array
str on
ĠN et
Ġg re
Ġx s
res olve
wa xis
pre vious
com put
ĠG roup
Ġtrain ed
index es
ĠCo pied
ne waxis
ĠĠĠĠĠĠĠĠĠĠĠĠĠĠĠĠĠĠĠĠĠĠĠĠĠĠĠĠĠĠĠĠ ĠĠĠĠ
ster i
Ġq k
St ableDiffusion
Ġadd ress
level s
fla sh
ä¸ Ń
oth ers
Ġá´ Ģ
Ġ-- >
flatten ed
segment ation
Ġretrie ver
Col ors
cre te
few shot
ĠUp load
Trained Tokenizer
thread s
Ġpartic ular
endof text
: {
A sset
M M
V ideo
W w
W rapper
c ot
j s
j ax
k ing
m ix
r atios
t il
v ing
İ ¨
er un
re ens
de mo
de pend
ut es
Ġf uture
Ġc nt
Ġs aturation
to m
ran ular
Ġe ma
co uple
Ġan alysis
ĠA I
ĠA BC
ensor s
Ġ[ (
Ġex pi
Ġma gnitude
pre view
00 1
pi ckle
Ġv oxel
context s
Ġlist s
Ġapp ropriate
Ġcont ents
Ġmo ve
Re quired
ĠK arras
Ġcomp lete
Ġ{} :
LE D
RAN K
Ġ6 0
Ġinstance s
Ġnormal ized
Ġchange s
fra ction
retrie ved
PP ING
Scal er
ranular ity
) /
) }"<
8 8
I F
R ender
d uration
f e
s uffix
re te
re lease
ra ft
Ġre compute
Ġs uffix
__ .
co gn
Ġcon f
Ġg ot
Ġ* ,<
pen ding
Ġ` (
unt ie
act ual
comp letions
Se gmentation
match ing
ĠPro gram
cur ity
Check point
yper Params
orig in
schedul ing
Ġreason ing
TES T
paint ing
Ġcompat ibility
cri ption
ĠASCII Colors
couple d
C ross
S up
S cale
] [-
e lapsed
g ers
se mester
de sc
Ġ" $
Ġ" ":<
Ġin fer
pe ft
un ding
Ġe lapsed
__ ).
ĠT ra
sh arding
Ġh ue
Ġ2 01
Ġdi vide
key words
ĠF in
Ġco ordin
Ġse lection
out Error
check ed
ĠB asic
ai ve
pect ive
á´ į
Ġ4 2
RE T
io us
Ġper forms
let ter
Ġcol ors
Ġac c
Ġtop k
Ġurl parse
AN S
ä¸ º
sim ilarity
Ġdeta il
Cont rolNet
Ġretrie ved
Load ing
("**/ *",
) ",
* ]
. '<
M UL
M etadata
N amed
S M
} ".
è ¡
se conds
re search
ge ocentric
Ġn umel
Ġs mooth
un cond
ser vice
to uch
mp y
con st
Ġlo ck
Ġh orizon
Ġpre train
Ġj it
stribut e
art ifact
Ġch ild
Data Frame
ac celerator
ĠĠĠĠĠĠĠĠĠĠĠĠĠĠĠĠĠĠĠĠĠĠĠĠĠĠĠĠĠĠĠĠ ĠĠĠĠĠ
Ġq s
Ġpy lint
Ġup dated
Ġprocess ing
Ġposition al
Ġiter ations
wh ite
MA PPING
ĠWe b
ĠType Var
Ġcolumn s
Ġsentence s
real path
WAR NING
Ġinclu ding
Query Param
Ġgaussian s
Conne ction
ĠOther wise
2 024
A pi
D own
G LU
M ode
b old
d t
f it
n ers
t an
ç º
Ġ ])<
in place
it or
Ġf lat
Ġre lated
Ġc y
Ġn amed
data path
() ),
Ġ' '<
sh ort
Ġdi d
res idual
Ġl on
ase d
Ġun wrapped
add ress
ag ram
view port
ho od
Ġsub mit
Ġmult imodal
Ġback end
rep lay
Ġtrans fer
Ġbuil t
avi ate
ynchron ous
chrom ium
ipe s
) \
4 04
6 6
B ED
C re
E P
M ENT
S ave
V e
c ard
s mooth
v es
Ð °
å °
Ġc allable
ort h
Ġs ig
th row
ic ode
Ġd p
Ġd en
Ġan thropic
Ġ' %
text area
key A
Ġres p
Ġpro j
Ġpro cesses
Ġint ent
ĠG o
ph one
ĠSe ction
mage Processor
Ġmo st
vide os
EM M
comp leted
LO W
Ġlat s
Ġcomm unication
face book
Ġent ire
Ġneed s
cum sum
Ġimplement s
Run ner
Ġcase s
Ġver ify
Server Config
Mult i
TY PES
ĠNorm alize
steri or
) ')<
A v
E nd
I LI
b est
e ef
h am
de epspeed
ar ies
Ġre tain
Ġre verse
an y
Ġp lease
um ulative
ad min
as cript
Ġpa ir
con cept
ĠT rans
ĠT RA
Ġd uration
(" -
Ġex periment
cor ners
Ġr mat
ĠEx ec
ret ry
Ġ... ')<
IT E
EM BED
qd rant
ĠĠĠĠĠĠĠĠĠĠĠĠĠĠĠĠĠĠĠĠĠĠĠĠ ĠĠĠĠĠĠ
Ġwork ing
Ġass ociated
mot ions
NAM ES
pack ages
eff ect
DATA SET
Id entity
åı ĸ
ĠRem ove
Batch Norm
C reate
] ])<
j or
p ublic
u rable
æ ¡
al go
Ġf alse
Ġs p
()< /
sh a
py plot
Ġdi lation
res ources
Ġde termin
Ġth ree
ĠM e
ĠM emory
Ġbe havi
ĠG ELU
OR Y
ry an
log y
cont rib
ir cle
device s
ac cept
RE G
Ġsub modules
fo v
Ġtemp file
ĠTransformer Block
dis play
Ġ100 00
100 00
Ġimplement ed
quant ize
vari ables
Ġman age
pop up
ĠOn ly
NOR E
åº ¦
cro ps
ĠFeed Forward
Ġdedup ed
ĠTRA IN
. '''<
B E
G ELU
S O
S peed
W rite
b ig
b ryan
d ers
g ranularity
h old
t i
Ġ ~
Ġ ._
Ġt ait
Ġ" @
Ġm ul
Ġre mote
Ġin cre
la ck
ig r
Ġ# ################
Ġw ould
ol utions
Ġh q
res sed
ĠI F
Ġse lector
bo ur
mo unt
In version
min ator
Re turns
ST EM
encoder KL
`` `<
Ġfa ils
igh bour
ä¸ į
ĠQu atern
ĠExample s
oo lean
ĠSo ft
Ġexce ed
aff ine
Buil der
* .
> '''<
D ec
F unc
G aussian
I mg
c p
d rant
r ins
s r
s uch
w arn
É ¢
Ê Ļ
æ Ń
on nx
ch dir
Ġ" #
di dates
Ġp ip
Ġp db
Ġb f
Ġw ere
Ġfor ms
Ġpa y
con struct
co ver
ep Speed
us ing
ĠF ore
class ifier
Ġres ources
") [-
Ġbu ffers
DE BUG
uto ff
inter mediate
match es
Ġread er
Ġvocab ulary
({ '
pack age
medi a
Ġext ended
Ġsign ature
Exec utor
sup port
ĠOllama ServerConfig
rim in
Read er
erc ial
Ġta gs
chem y
7 6
C lick
F la
M ESS
P laybook
e lastic
x l
} '.
æ Ĺ
er ic
al chemy
ex periment
Ġthe mes
Ġe st
con structor
po oled
ĠT ransform
ĠS ingle
pro jector
ĠF ind
wa ve
pre comp
Ġv ae
te acher
Ġso cket
######## ####
Ġsuper class
Ġob servation
Ġgener al
Ġgener ic
') ;<
DO C
environ ment
ora ma
ĠĠĠĠĠĠĠĠĠĠĠĠĠĠĠĠĠĠĠĠĠĠĠĠĠĠĠĠĠĠĠĠĠĠĠĠĠĠĠĠ ĠĠĠĠĠ
eff icient
Ġge lu
Mask ed
Ġdistance s
Ġloc ation
ele ms
control net
Val idation
TES TS
ĠPar allel
Ġcontrol net
scr atch
( ?
) *
/ <
8 6
: ])<
> ",
B e
E VA
L lama
L anguage
O C
] }<
e ch
s il
x ity
z one
ä ¿
é ĩ
Ġt xt
de p
de s
ut ation
Ġm ight
Ġm eta
Ġc lear
Ġin side
Ġs li
Ġs lice
Ġs afe
Ġs andbox
ur ses
id ing
as y
Ġ( *,
Ġto po
Ġe od
__ }
Ġ1 4
Ġg ym
att empt
pp er
Ġdi visible
ĠP ipeline
ĠM an
=' ',
ES T
view less
split ext
fix ed
Ġrequest ed
embed der
Ġspec ify
)) ]<
Pa ss
Ġinter face
Ġfil ters
Ġ} )<
Ġmatch ing
Ġfla sk
ckpt s
Ġcall back
ple xity
ĠGPU s
propert ies
freq s
chedul ers
Reg istry
Ġtrunc ated
ĠDistributed DataParallel
Sub modules
="" )<
Ġmodi fy
fut ures
ĠNet work
EMBED DING
( ""
3 3
A bstract
D es
L d
M AN
M ax
m ed
m argin
n q
p po
ç ®
Ġ ^
Ġ lib
at rix
Ġt anh
al yz
he st
an ced
Ġp ublic
ul ated
Ġcon current
Ġ' /
Ġlo ok
Ġ""" ()
Ġ[ ],<
Ġst k
Ġ2 4
pro c
ĠF orm
(' _
ub lish
Ġdim s
jo co
RE SET
ĠSe lf
Ġca re
extra ction
comm ercial
Ġtransform ation
Ġup per
Ġerror s
ich oice
Ġextra cted
Ġdis abled
dis abled
ĠBase Image
Ġform atting
Parallel Linear
ĠConfig uration
sup ported
mov ement
rim ary
éĢ ģ
By tesIO
Ġfast api
Ġdepend encies
Ġtrace back
Cho ice
P os
R etrie
S ystem
S DF
T ask
c wd
e uclidean
de lay
le arning
ut ing
ch osen
Ġf o
Ġs he
di gits
Ġw in
Ġ- *
== <
ĠC O
ĠS k
Ġst able
Ġst ill
token ized
Ġon ce
fa ces
Ġresponse s
Ġal tern
([ [
Ġper cent
Ġpy rogram
Ġtra jectories
Ġiter ator
dis k
ĠJ son
CK ER
case s
ĠZ h
"[ !]
Ġtk inter
æľ ī
Dis crete
ĠCont rolNet
ĠStr ing
Ġcharact ers
matic ally
navig ation
ĠGLOBAL S
fire fox
stron omic
ANS WER
ĠQuatern ions
/ ",
B ox
E VAL
F in
G raph
Q L
` ].
h ard
m map
Ĵ Į
se parator
ex e
ad vantages
ext Model
Ġd er
Ġan alyze
Ġcon tact
ver bose
Ġres ume
ron g
(' <
ĠE ns
ĠV ideo
sc roll
ml u
Ġpos itive
ret ries
Ġgroup ed
Ġ... '.
Ex tra
Ex pected
down sample
Ġtra cker
Ġact ive
ateg ies
Ġcurrent ly
ĉĉ ĉ
rep lica
CT ED
click ed
exec utable
domain s
Ġeps ilon
cam eras
Ġallow s
ĠPre TrainedModel
Ġred uction
Ġoper ations
Ġindi c
Ġperform ance
Ġsql alchemy
------ <
Sc atter
çŃ Ķ
ĠSoft ware
rimin ator
. ",
C annot
F LAGS
M issing
] [:
a wait
f lo
f ont
f ollow
l b
s pl
v h
x ml
in clude
ch ars
lo ud
Ġs sim
rom e
pe ction
ig lu
ĠN ame
## <
att ach
ine se
ĠP ad
). """<
Ġse ction
ial og
am s
Ġun iform
token ization
oc ator
ry lib
") ),<
ag ic
ag ents
á´ ĺ
ac cess
AS K
pat terns
St yle
Ġcol lection
Ġstart ing
Ġz arr
inter polation
LO CAL
factor s
ins ky
Ġfin etune
Ġent ity
Ġpatch es
Ġab stractmethod
afet ensors
Ġlin k
Ġpack aging
acc ard
Ġau x
Check er
Ġfree ze
CL ASS
Sharded Tensor
Sharded Strategy
Ġ================================= ============<
Êľ á´ĩ
writ ing
kh rylib
Ġ--------- -<
Word Piece
ites pace
ILI TY
spl atting
. "
C li
D Model
E nt
G EN
H F
N ODE
s lug
t len
v llm
Ġ ,
Ġ cell
re cords
im al
Ġf act
th ought
Ġw d
ic ation
Ġ' ',
Ġdi rection
ĠP eft
Ġ< <
ĠO megaConf
load ing
and insky
(' >
mo ved
DI MScheduler
tr unc
Ġrun time
Ġac cum
go al
go ogle
ST ATE
PI mageProcessor
over ride
lin space
Ġinter n
Ġinter val
be g
Ġdis k
Ġreg istry
padding s
Ġarray s
Ġprod uce
Ġext ension
ĠTrain ing
sn apshot
Ġpers on
202 3
Ġap ex
Stat us
require ments
Normal izer
tlen eck
! <
( \
> [
> ')<
C all
C HO
D D
F irst
M IT
W H
_ %
b lank
c ancel
c redentials
f user
f eed
s chema
Ġ html
or ary
at an
Ġf mt
Ġre gex
Ġs an
la zy
set Level
up ported
ĠC all
ĠL OG
Ġdi ag
ĠP rint
ĠF rozen
ist rable
num bers
ly ing
Ġsh ared
ĠU sage
Ġk nowledge
Config uration
Ġq a
Ġcol late
Ġno ins
mult imodal
Lo g
mode s
Att n
Att nMaskType
exp r
04 47
EX AMPLE
Head Attention
Po int
diff users
ass ign
dup licate
ĠDDP MScheduler
%%%% %%%%
Ġdescri b
ĠGlobal s
Ġ([ `
ĠBlended Megatron
MUL TI
Ġnoins pection
) [...,
. ,<
. '.
2 30
: ].
C OR
D rop
E dit
G O
O n
g us
g amma
i pping
m ine
} }
å ĴĮ
pa irs
in em
im er
ra ps
ge mm
Ġf ont
Ġ" ".
Ġm id
Ġc p
Ġc umulative
ex planation
Ġp ur
Ġp ush
Ġb its
pt s
id entity
Ġw rapped
Ġe lem
form ers
ĠP ool
ĠP RO
Ġse g
Ġpro pert
Ġy et
Ġ4 00
page s
col s
Ġmay be
Ġclass ification
Se lector
default s
Ġinter section
ĠImage Net
ĠQ uestion
stack s
Ġnon local
MA P
Ġsim ilar
Un expected
ĠStep Error
ĠFile NotFoundError
bos ity
ĠBy tesIO
ui ded
ĠFa ce
ĠBe aut
pet ition
Ġoc cur
İ¨ éĢģ
MESS AGE
! "<
. /
G E
K V
S P
U ns
c atch
c ategory
s afe
t wo
w atch
æ Ŀ
Ġ ]
in cr
ro sa
Ġ" ../
Ġn ltk
Ġin place
Ġs sl
me try
Ġd w
Ġan other
es is
Ġg ra
el low
end s
Ġres olve
ĠB ERT
IN PUT
sc ape
Ġtensor ized
Ġapp rox
ster esis
AR GET
AG ER
Ġclass ifier
Ġle arn
vant age
Att ribute
Pre TrainedModel
quant ization
conne cted
Éª É´
find all
ÊĢ á´ĩ
TRA CKER
æĺ Ł
++++ ++++
curs ive
Ġagain st
MAN AGER
WH ITE
inem at
A sync
C ould
D ate
H yperParams
L ay
P age
h w
h ers
i pped
n th
t urbo
y ellow
or ge
re call
de t
de ep
lo okup
Ġre st
Ġn x
Ġin s
Ġs we
Ġp in
Ġo mega
con cat
Ġdef ined
Ġcon structor
Ġh ist
Ġnot e
ist ep
per iod
', '
pl ug
Ġpre vent
oc ap
Ġro bomimic
") )
log probs
ĠRe ad
Ġ4 8
ĠAr gumentParser
split s
St ore
read lines
Ġcol orama
spa ces
Se ssion
ĠSt able
Ġmult ip
PE CTED
MODEL S
á´ı á´ľ
Ġref resh
element s
Ġter m
Ġindi vidual
Ġsubject s
ãĢĤ <
agic Mock
0447 15
: ',
A ction
A PP
C our
G RO
J o
O f
P ER
U RN
g ym
i er
n ested
u x
or ing
st ub
st itial
st derr
Ġs a
Ġs quare
def ics
Ġb ranch
Ġw idget
Ġ{ :
Ġh app
Ġh yper
Ġr ule
per form
ĠM C
ĠM IT
ĠE X
com pat
ĠG EMM
Ġatt empt
Ġlog var
In ference
Ġne ighbors
Ġac cording
trans lation
lin ks
LO AD
Ġact ivations
Ġback bone
scal ar
sd p
ĠAuto encoderKL
Ġcontain er
PO INT
Gener ate
fin etune
AB ILITY
22 4
Request Exception
aut ores
ĠTrain er
free ze
contain er
ĠCheckpoint ing
åĩ º
GRE EN
autores ume
B ACK
D ir
G R
H ER
L abel
M emory
T arget
] ")<
b ad
b il
c pp
d jango
f rozen
u do
{ <
ç Ĳ
re qu
ro ck
Ġc ard
Ġn one
Ġs yn
Ġb lend
Ġ( -
ul ly
Ġd ue
(" _
Ġh ad
all close
us oid
Ġde cision
Ġco v
os p
stribut ions
Ġv q
Ġk nn
ĠThe se
ok ens
unk nown
Ġval idat
Ġcont iguous
ual Inversion
12 7
Ġmo mentum
iter ations
Ġte ch
Ġhe l
doc string
Ġcheck s
ifi ers
Ġlocal s
Ġ12 3
Ġfla sh
Ġclo ud
Ġexpert s
optim izers
ĠAtt ributes
Ġoptim ization
Ġspa ces
sec ret
Ġcons ist
æķ° æį®
Ġrequire ments
Ġdeno minator
åĽ ŀ
ĠCLIPT extModel
ualInversion LoaderMixin
$ $
) `
) ],
2 55
A UT
B UT
P er
S HO
T able
b eat
f path
g uidance
n ull
w t
z h
å Ĩ
Ġ dat
Ġ ],
re l
Ġa w
Ġn s
ext ension
Ġ1 8
ĠC a
ĠF irst
"] ),<
join path
AT CH
Ġca pture
ST ER
sub process
trans ition
trans fer
lu gin
Se e
Ġscal es
Ġgradi o
Ġstat istics
qual ity
Un known
edge s
Form at
Ġcondition ing
gradi o
ĠAn swer
calc ulator
ĠIM AGE
imp lement
Ġbehavi or
) $
) ":
- \
A t
I Z
N EL
Q ueue
R ow
T ypedDict
b lend
c er
g uess
n ed
v ic
w en
w allet
¦ ģ
re commend
ro les
Ġm ot
Ġp ot
Ġp rimary
me tas
un bind
ext ended
il ing
il la
ĠA uth
Ġg amma
ĠC an
ĠL i
init ion
do uble
ĠR ET
Ġco ords
Ġres ource
00 8
ĠM AX
ĠM agicMock
point er
lic ated
ĠW indow
com ment
te ch
ca pacity
ĠIn teger
np z
Ġindex es
oad ers
Ġca ptions
inter section
Pro gram
gment s
Ġpi ck
prob as
Text Dataset
Ġpla n
LD ER
Ġannot ations
Ġlang chain
è§ Ĵ
sli ces
ĠEns ure
Uns upported
> ```<
C rop
E pisode
H andle
d st
e vidence
n v
t d
t ar
å ľ
è ¾
pa b
de coded
Ġm ix
Ġm map
Ġc at
Ġc ert
ss l
Ġp eft
Ġb asic
li es
Ġ( )
ĠA s
ĠC UDA
do cker
ĠI CT
Ġl ons
00 5
ble u
sample d
ip hers
method s
unt il
Ġindex map
** *
Ġsc an
be gin
arg er
description s
Ġfin ally
ite ct
ï¼ ļ
ĠSharded Object
Po st
Ġstream ing
aut ore
roll er
document s
Value With
19 2
Ġabs olute
human ml
ĠTime outError
âķĲâķĲ âķĲâķĲ
bal ancing
sph erical
Ġfunctional ity
ĠLL a
hold ers
ç® Ĺ
Ġoccur red
ValueWith Rank
C ESS
D M
G HT
a ched
d antic
h an
h ist
i ed
w atermark
å ¹
ç ī
Ġa st
Ġf an
Ġf hs
Ġre cords
di gest
ser ies
str ategies
gs m
get cwd
(" ,
qu iz
el y
Ġex port
key word
que s
Ġde lay
wa y
Ġse p
pi es
lic ies
Ġconfig s
ĠV ision
sc ene
Ġatt rs
cl us
DE F
sum ed
Ġac celerator
not diamond
ak y
ĠSt ore
Pro jection
cla ude
Ġtim m
Ġad vantages
table s
List ener
En ter
Ar ray
Ġconv olution
Ġprefix es
á´ĩ ÊĢ
ðĿ ĳ
ðĿ ļ
Ġepoch s
De code
gress ive
Transformer Block
Name space
parameter ized
åĪ Ĩ
todo s
æŀ ľ
tre etune
SY STEM
jav ascript
Char Field
facebook research
GEN ER
usoid al
/ ")<
D et
P C
P H
S core
S afety
T op
V ersion
a il
d raw
f mt
m antic
m peg
s quare
¡ ç®Ĺ
è ¦ģ
in i
er ialize
de epcopy
de corator
Ġa uthor
Ġa mount
ch uan
Ġf fn
Ġm argin
Ġn b
Ġs keleton
an alyze
Ġb al
um ing
un route
set default
po wer
ĠA ct
Ġg buf
Ġh uman
ĠS olver
ĠS keleton
ĠP ipes
"] ]<
ener g
Ġun wrap
Ġpre ds
Ġpre training
ĠE ach
cu d
Ġtensor flow
") ))<
Ġwh ite
Ġwh itespace
ph ore
ĠIn valid
Ġgener ations
Module Spec
Ġper iod
Ġq vel
Ġmo dified
ĠEx it
ST ART
sub set
trans lator
not e
inter face
Ġfa ce
cy an
Di rectory
Ġlat er
Ġscal er
}. "<
Ġtr ust
ĠSet up
aut ocast
ĠType Error
Ġauto matically
Comp letion
Ġcons ider
ick s
Ġ"[ !]
pus ht
We b
ighbour s
rins ics
bil inear
Safety Checker
) }<
4 4
8 5
B rowser
O F
T otal
U sing
] "
c cl
i ou
n ll
v as
w ner
x label
y ing
z A
{ {
ç Ľ
ro pe
Ġf lip
Ġf eed
Ġm odal
Ġre prod
Ġc ipher
Ġn d
la ce
from array
__ ))<
__ )),
ĠT eradata
Ġg ive
ma z
ĠL lava
Ġh op
ĠS pec
ab a
pro cesses
init ions
Ġma int
Ġde term
ĠF I
ĠF rom
Ġl ate
ta k
ĠB ack
ĠW rite
ĠW ord
com pare
pos it
iv ity
ac cs
ĠIn itial
RE AD
lect ure
col lect
DE D
Ġca ched
Ġrun s
ĠK e
sub mit
Ex ample
normal ization
Di stributed
level name
datal oaders
Ġcorrect ly
Ġá´ Ħ
bit mq
ĠCLI PImageProcessor
ĠRot ary
Ġscript s
ĠAn thropic
Ġinte gers
HE AD
Ġhand ling
------ -<
mi ps
################################################ ####
Wh en
Discrete Scheduler
Ġintern al
clus ive
A P
A Z
C ustom
M atrix
O ver
U t
Z ero
e ver
e insum
f ocus
g rowth
h u
i ence
o st
o to
t uning
å ¾
pa ssed
st ars
ge d
ct ime
Ġm d
he el
Ġs lug
Ġp snr
Ġthe ta
Ġas ynchronous
con n
con fidence
po sed
qu ared
ma jor
Ġh ref
ĠS top
ĠF P
ĠR E
ĠO ver
ĠU SE
Ġim pro
SE S
ĠĠĠĠĠĠĠĠĠĠĠĠĠĠĠĠĠĠĠĠĠĠĠĠĠĠĠĠĠĠĠĠ ĠĠĠĠĠĠĠĠĠĠĠĠĠĠĠĠĠĠ
attention s
rot s
Ġle g
ĠSt at
clo sed
Ġbet ter
Ġfilename s
Ġclient ai
Ġ". /
ĠShardedTensor Factory
expand user
buil t
buil ding
tri angles
ĠAsset Key
Ġdot s
Dep end
sen der
alloc ate
reens hot
Sup er
AZ URE
" .<
' %
7 2
A uthor
B OT
C allback
D agster
D DP
E qual
L ATION
R ep
S chedulers
^ \
a z
f lip
i an
i LU
o unt
s ol
s uggest
ä ¹
è ½
Ġt tk
Ġ= ================
Ġa io
Ġm q
ing s
Ġs ort
Ġs patial
Ġo llama
pt r
pt ive
ad lr
li hood
is ing
Ġcon versation
Ġ' ')<
Ġg c
ke l
Ġh ard
ĠS corer
ĠF loat
ĠF AI
ĠF ilter
ĠD ep
Ġth ose
ps ample
am ount
ĠW eights
Ġro l
[: :-
ob servations
ĠAr gus
ĠIn t
LI D
Ġca p
read er
AG ES
place holder
Ġchunk ed
Ġapplic ation
rol lout
ĠBase Lowdim
Ar gs
Ġcall ing
Diffusion Schedulers
({ <
Ġtrans ition
Ġkernel s
inv ocation
fin etuning
ĠĠĠĠĠĠĠĠĠĠĠĠĠĠĠĠĠĠĠĠĠĠĠĠĠĠĠĠĠĠĠĠĠĠĠĠĠĠĠĠ ĠĠĠĠ
RI BUT
Ch ange
Ġspa n
bucket s
SC RI
Ġreward s
Comp ose
Ġadjust ed
ĠMulti HeadAttention
('. /
ä» ¥
ynchron ize
Ġpri or
eng lish
Ġexpi re
ĠGo ogle
dep loy
Lay out
Cour se
Ġdeterm ine
C ase
G S
O ps
S V
S er
c is
c raft
d w
f d
g lu
k p
t ension
¦ Ĥ
å Į
en u
en es
re st
re ctor
re mat
ch ans
ar ize
ce ive
di lation
Ġp ol
pe ech
ig ger
Ġb w
Ġb z
un ity
Ġw s
as is
get Header
il ine
ĠN O
() ")<
ĠA lib
ma gen
ĠL ora
key B
Ġse n
if ul
Ġj seq
log var
Ġ: ].
ca ptions
ĠIn struction
In teger
ffer ence
ho to
comp onents
inter polate
Ġle ss
Ġdoc string
ĠSt art
ĠSt yle
Ġfa il
Ġinter polation
AM A
be ams
Train Data
AN D
ref er
exec utor
Ġchannel map
Ġexec uted
ĠPa rameter
ĠRes ult
(". /
Set tings
Ġ\\ <
Ġlet ters
Ġmy json
Ġasset dir
Ġdisc ret
oug h
ĠAsset ExecutionContext
êľ °
ĠDoc string
Ġcompat ible
Iter ation
Level Dataset
ĠRetrie ve
Ġbi encoder
Cre ated
ham mer
plug in
çĲ Ĩ
ĠRET URN
posit ory
ĠAlib aba
* ",<
5 4
9 4
A RE
C ODE
E E
M etric
S uccess
[ (
[ /
a o
a verage
b ly
c ert
d ret
h orizon
j udge
x s
Ġ ))<
Ġt w
Ġt eradata
re sent
le v
it ting
Ġin qui
ent ially
Ġp ut
def ined
"" ",<
ext ensions
Ġe os
con tact
ĠA udio
ĠS E
ĠS H
Ġst ored
pro file
}< /
bo unding
Ġim agen
Ġso urces
Ġby te
work flow
In stance
om ial
Ġac cept
response s
ĠSt udent
fn s
Net work
dis pose
gent a
Ġembed der
Ġtr uth
gather ed
Ġreg ular
Ġencoding s
Ġexp licit
Ġge orge
plan es
timestamp s
CO L
ĠDe epSpeed
ĠZ ero
Ġcomput ed
can didates
Ġbuil der
Ġloc ator
ä» ¶
âĢ Ļ
Ġè ®
ĠAd just
zz z
Ġexce eded
Bert Model
ĠTemp Named
TRAIN ED
Ġsn apshot
Ġpix el
CHAN NEL
Ġexceed s
Ġpay load
Ġaltern ate
On ly
autore set
energ y
cud nn
Ġlate st
tak is
dret takis
Ġinqui ries
ĠTempNamed Dir
! !
/ %
F inal
L ength
P Y
P ad
] **
] ])
b ine
h op
m mlu
o per
p cfg
æ ī
pa g
Ġa uth
lo th
Ġ" ",<
Ġc ot
di rection
ent ence
ig hest
Ġb ook
ul der
Ġpa nel
Ġpa irs
ĠT r
Ġcon cept
() ;<
ĠC la
sh op
Ġh er
ĠS cal
Ġde cor
ĠR O
and bytes
Ġsh s
for k
ĠV ari
ber ta
ip edia
ĠCo mm
cl uster
Ġal loc
Ġcom ment
start ed
Ġpy dantic
Ġrun ner
trained Config
AG STER
Ġquery set
trans itions
VI CE
Ġdoc s
ĠSh ould
Ġfeat s
dis able
Base d
flow er
To TextDataset
Ġckpt s
ĠCh annel
ili ary
ĠTh ere
ĠModule Spec
Ġmm cv
Ġada pted
pan der
Ġinclu ded
Doc string
hy brid
ĠSdf Cli
ĠPos ition
challenge s
Ġart ifact
rector ies
) -
) ",<
2 20
A CT
B ERT
L imit
L AY
L ocator
P ix
S imple
S iLU
d c
f s
m ing
o hot
r strip
} ]
in stantiate
on ical
re ch
re con
ge ther
Ġre moved
Ġin correct
Ġs umm
an e
Ġp ower
Ġb it
Ġ( :
set attr
one y
Ġe ar
ot es
co v
ab ort
att ern
Ġst oring
Ġdata paths
ĠP atch
ĠP AI
Ġde mo
Ġde bug
ĠF OR
ĠF ast
Ġpro tocol
pi ck
ĠE pisode
nn ot
Ġch o
") ]<
mo m
ca p
ĠCo unter
Model ParallelRegion
view point
attr s
spec ific
mult ichoice
oken izer
Ġone s
ema ils
20 48
Ġapply ing
pack ed
An alyzer
ĠLo RA
istr al
WOR D
tmp dir
dest ination
Ġpack ed
ĠEn v
ym bo
Ġconne ct
So up
redirect s
Class ification
rypt o
Trans lator
disc rete
ãĢ ģ
Ġarch itect
Ġada pter
dete cted
Ġcharact er
Grad Scaler
Sdf Translator
inte ger
Ġ--------------------------------- ----------------
wik i
Asset ExecutionContext
ĠSelf Attention
ĠBeaut iful
Ġrol lout
SCRI PT
ĠBeautiful Soup
3 00
4 1
7 3
9 1
C am
O wner
T ree
X L
b c
c iphers
f alse
l ur
m se
u ations
} %
ç ¬
ç ½
è µ
Ġ Ð
pa use
se udo
im gs
Ġa y
ar down
Ġi ou
Ġs ol
la pping
ent ication
th ink
th ook
dat ion
Ġb x
Ġw ave
as ctime
Ġ( _
Ġe lastic
ame s
() """<
ĠA ss
Ġg uess
"< |
pro p
par dir
Ġget Logger
ĠR MS
"] ]
wa v
Ġco eff
Ġco pied
Ġth ink
Ġres ample
ĠM etric
pon ential
am ing
IN O
TI C
ĠV ector
ai chuan
Ġ: :
mo st
eat ure
lat ex
RA PH
Ġ5 02
seq s
own er
)) [
tt p
') [-
mult ip
Ġiter able
Image Processor
bi ased
Ġsk learn
ĠBase Model
asset dir
AD ATA
Ġsq rt
truth s
Ġge mini
sign ature
Ġæ ľ
need les
Th read
Ġinf inite
äº İ
Ġsl iding
.* ?
Ġ:- )')<
Ġorig in
~~~~ ~~~~
Doc ument
INTER PO
Ġ40 96
Ġdest ination
sto ck
ĠMe thod
sil u
ĠZh ou
rech et
' ")<
' ;<
/ "<
0 9
8 7
B ack
B ench
P lugin
R outer
W indow
X T
a uthor
c nn
c ies
f w
f sdp
m um
m odal
o ke
p romise
r erun
å ¿
æ ®
Ġ vec
Ġ very
se parate
at ab
al g
ch ast
Ġm it
Ġm uch
di git
ur ations
Ġp r
pe ated
set Header
po licies
ĠN ow
up licated
ype s
() }
() }"<
ĠA CT
ĠC ode
ĠL ow
", )<
form atter
ab stract
ĠF LAGS
Ġth ird
Ġl arger
tensor board
mask ing
__( **
ĠG roq
OR T
ĠThe y
Data Source
AG EN
range s
ST M
stru cted
ĠSh ortcut
Ġend point
idat or
ĠTransformer Layer
rep licate
To Tensor
case d
micro batch
Request Error
RI GHT
Ġenvironment s
Ġvi rtual
ĠText ualInversionLoaderMixin
dot s
Ġds py
Ġedge s
OUT PUT
pr ime
Ad min
ident ifiers
Up date
arp ness
æł ĩ
comput ed
ĠKarras DiffusionSchedulers
fe a
çº ¬
Ġdiag onal
GRO UP
maz on
A ct
I P
I o
J SON
L ER
M ark
M ap
M apping
W eights
_ "
c f
g uided
h it
h ance
m ixed
s at
s yn
w i
Ġt gt
re write
al e
im ator
lf w
Ġm se
Ġc ategory
port ions
la b
ur i
rom a
Ġb oolean
Ġto o
__ __
Ġas sets
is ions
ver sed
ver bosity
Ġg lfw
ve lo
Ġh our
Ġh ighest
ab out
ri st
ĠP DF
Ġth resh
Ġres cale
tensor ized
Ġpro blems
ĠE nt
ĠV er
sc reen
Ġk nown
DI S
Ġwh o
Ġpo sterior
SE C
ĠĠĠĠĠĠĠĠĠĠĠĠĠĠĠĠĠĠĠĠĠĠĠĠĠĠĠĠĠĠĠĠ ĠĠĠĠĠĠĠĠĠĠĠĠĠĠĠĠĠ
ĠH el
Ġne thook
Ġjson ify
Ġdict s
Ġag ents
uc ing
over flow
local s
Ġbase line
ĠData Source
Pro vide
Ġcheck ing
Ġwindow s
reed y
ĠJ o
Pre TrainedTokenizer
Base Output
ðĿ ĺ
cura cies
ĠRes Net
Ġfilter ed
Cont rol
ĠConvert s
pipe lining
IG NORE
pers istent
Ġtrunc ation
pri or
Ġshift ed
Ġregister ed
Var i
account s
Vi T
ĠAd ded
ru pt
ĠWork flow
æĪ Ĳ
ĠClient AI
Ġ"**/ *",<
ĠCLIPT okenizer
ĠState Dict
REG I
feed forward
230 9
è¾ ĵ
INTERPO LATION
æ® µ
chast ic
H ub
L ES
N S
R ot
S cope
` ")<
c ircle
e e
f bx
g u
h ue
k a
p ids
r al
s afetensors
s loth
æ ģ
Ġ ed
Ġ vertices
Ġ layout
pa ct
re gat
re turns
ch oo
Ġf ine
Ġm ixed
Ġre fer
Ġre mov
Ġre petition
ce l
Ġs pect
ad vantage
Ġw atermark
__ ,
int ent
Ġ- ------<
ĠT P
ĠT op
(" [
es h
ĠA M
ma ss
ma phore
ĠS end
Ġx yz
cor r
gg regat
Ġpre vents
á´ ł
ore gressive
block ing
mat s
ler obot
Ġjson l
AT ES
stat istics
Ġcomp ile
comm unication
Ġsub problem
box es
ĠSt ream
mult iline
Ġsc atter
Ġhttp x
ateg ories
Ġvar s
Ġhelp ful
ress or
ĠBase Output
SI G
Ġclo sure
Ġnormal izer
ĠTest Server
EX PECTED
ĠPa ss
TOKEN IZ
ĠMegatron Dataset
Sh ot
depth s
Ġ'. /
Ġbucket s
Ġoptim izers
warning s
So cket
dot env
sec ure
difi er
BO S
allow ed
Ġbroadcast ing
åĬ ł
ĠLinear Normalizer
Ġhand les
Stream Response
ĠToken izer
Embed der
MO D
contain s
ĠCLIP Vision
dispatch er
child ren
Ġiss ues
Cross Attention
Av ailable
Fla x
Ġlib rosa
inemat ic
requ ency
çī ĩ
ĠFAI SS
ymbo lic
choo ser
ĠTestServer Request
( ()
* :
. {
5 9
6 3
> \
> â
F N
R et
U net
U sage
V ec
` ]):<
c utoff
e o
g buf
l ons
r ing
v anced
Ò ĵ
Ġ zeros
į åĬ
ľ âĶĢ
in jected
at map
re ach
al th
ro bot
it les
Ġre cursive
import s
di stribution
ex pi
ode tic
Ġw rap
Ġw rong
Ġto do
Ġto xic
Ġto gether
ul ating
ize s
co very
ĠN a
ver ify
Ġh y
Ġh ar
ĠS ystem
Ġst derr
Ġ2 3
Ġdi vision
Ġde g
ĠD DIMScheduler
ĠI mplement
pre processing
gg reg
am bda
Ġun biased
red it
query Selector
low dim
ĠRe ference
Ġlog in
Model Arguments
Ġmask ing
Ġal go
ĠĠĠĠĠĠĠĠĠĠĠĠĠĠĠĠĠĠĠĠĠĠĠĠĠĠĠĠĠĠĠĠ Ġ
lib s
Ġq drant
Ġweight ed
read able
IT EM
rot mat
Pro blem
Ġ8 0
Ġcomm it
ap ed
Ġá´ ı
De vice
Ġsim ilarity
Ġman ually
partition s
WOR LD
etuning Arguments
Run ning
Ġclean ed
riter ion
Ġradi i
Ġcomput ing
../ ..
ĠPo st
ĠRep licate
ĠRep resent
accum ulate
Ġmov es
Ġtimestamp s
serial ization
Ra w
ddp m
Def ault
interle aved
mis c
Ġcook ies
è¡ Į
Ġhorizon tal
OC AB
implement ation
multip lier
' re
2 000
A VE
D ialog
N on
O ption
O llama
R T
T RAN
V is
V ocab
W hether
m iddle
q l
å ¯
Ł ¥
in uation
or i
er ator
re view
re ceived
de l
Ġa m
ra b
Ġf it
Ġ" ").
ct rl
Ġm edia
di stributions
an illa
Ġp ublish
Ġ# ####################################################
ate Limit
Ġ- ----<
># ################################
ĠT H
Ġcon catenate
Ġcon fidence
Ġg ives
Ġdi stribute
Ġnum erical
ĠD rop
cal lable
Ġres pon
Ġ_ ("
Ġun til
Ġj pos
so ck
OR CH
te am
sw e
qui val
ai r
jo bs
EN S
ĠĠĠĠĠĠĠĠĠĠĠĠĠĠĠĠĠĠĠĠĠĠĠĠĠĠĠĠĠĠĠĠ ĠĠĠĠĠĠĠĠĠĠĠ
ĠSe arch
Ġper plexity
Ġac cessed
Ġte ardown
emb d
Ġ... ")<
Se arch
sequence s
Ġwork ers
RO M
mem mory
Ġad ds
]] ):
En coding
(* _
enc ed
deta il
download s
non toxic
chain ed
inst agram
roll ing
Ġrep ly
Ġtrunc ate
latitude s
Ġinclude s
annot ators
Mult istep
ĠEmbedding s
Or iginal
ĠNorm al
Ġlong er
Ġeff ect
Ġpossi bly
ĠVal idate
entr al
Ġjob lib
help ers
Êı á´ıá´ľ
åŃ Ĺ
Ġtrim med
Ve Scheduler
Retrie ver
Ġarchitect ure
ç½ ®
) ;
) ',
C S
C Y
C AM
E CT
G D
O M
T LS
W ARE
a h
d dim
f wd
i ps
r d
w heel
å ·
Ġ ...,
Ġ lecturer
Ġt emb
ra ction
Ġp l
Ġp wn
Ġb o
Ġw av
Ġw ay
Ġw raps
Ġe qu
con versation
Ġdef ines
Ġd ro
Ġd ense
is dir
Ġcon cat
ĠS O
Ġ2 1
ĠP romise
Ġma king
ĠD es
ĠD raw
"] ))<
Ġr gb
ron t
Ġpro c
Ġpro per
ON E
Ġ3 6
add Event
bu gging
Ġso up
ne arest
Model Mixin
ĠH ttp
Ġne arest
ster izer
Ġstart up
Pro d
Ġpass ing
req s
linear ity
Ġread ing
Ġembed s
Process ing
Ġinitial izer
CON TEXT
ĠGener ic
Ġæ İ¨éĢģ
Ġmapping s
Ġlevel s
Ġsegment s
pipe s
}: {
Mo E
show error
åĪ °
Val idate
calc ulate
Ġsmall er
Or m
ĠVal idation
1234 1234
Ġfinish ed
Ġsy mpy
hy steresis
basic Config
inte gr
Ġchallenge s
hand lers
Ġturn ed
super vised
igr ations
Gaussian Model
wave form
ĠControlNet Model
Ġmot ions
Ġmodal ity
ĠNa N
addEvent Listener
" /
) ],<
) [:,
. ):<
5 1
6 9
C LO
G ING
O FF
P ri
S ummary
V OCAB
W arning
] /
c les
m as
s ft
z s
Ġ ÊĻ
Ġ dataloaders
İ ·
in ing
Ġt urbo
Ġf ov
Ġ" %
Ġm is
Ġm emb
Ġc ent
Ġn est
di date
Ġp id
ig Integer
get attr
Ġreturn ing
int ents
ĠA fter
ers pective
sert ion
us ic
"] ),
cont rast
ir m
prompt ed
Ġunder lying
Data Loader
Ġindex ing
ĠCon stant
ho ur
temp oral
sub plot
PI PE
Ġret ries
AL LED
Ġmat erialize
={ "<|
miss ion
lot ter
Ġhelp ers
select ive
ĠModel s
Ġent ities
SI ST
ĠPro gress
ĠAtt n
ĠĠĠĠĠĠĠĠĠĠĠĠĠĠĠĠĠĠĠĠĠĠĠĠĠĠĠĠĠĠĠĠĠĠĠĠĠĠĠĠ Ġ
WOR DS
PRO CESS
Key board
ĠCol lect
Ġsuccess ful
Ġedit ed
"} ]<
Ġquant ization
FT WARE
ĉĉĉĉ ĉĉĉĉ
ĠAl so
Com put
Inter rupt
ĠPar se
Ġvis ible
Ġmark er
Ġmon itor
FORM ERS
Ġdeprec ate
MET HO
Ġassume s
ĠVi ew
ĠParam s
Ġgre ater
depend encies
MAPPING S
smooth ing
æĹ ¶
éĩ ı
("" )<
Drop down
vic orn
Ġaio http
ĠSdfCli Resource
atab ase
ateLimit Error
Ġmemb ers
: ])
> '<
A ss
I ST
P latform
W idget
[ _
] ))
a ps
f eet
h df
k nn
m pty
o V
r n
r ic
y ear
or ld
on ion
Ġt an
al ore
Ġa ctor
ra int
Ġre shape
Ġc md
Ġc ancel
ort ho
Ġn aive
di ag
Ġp bar
Ġb vh
Ġ( *
ens ive
int ernal
># ################
Ġd Ld
Ġcon struct
ol ding
ĠA nnot
Ġ' )<
Ġ[ ])<
ma g
ma gnitude
name space
Ġ+ <
ĠS in
Ġdata path
ff ff
ĠP M
ĠP ack
ĠI P
Ġr en
lock wise
Ġsh arding
=" {
pi ece
Ġro om
test ing
cont ents
rit ic
ds d
ĠCo mb
ne e
DI M
Ġpo ses
ph oto
ES TION
ĠĠĠĠĠĠĠĠĠĠĠĠĠĠĠĠĠĠĠĠĠĠĠĠĠĠĠĠĠĠĠĠ ĠĠĠĠĠĠĠĠĠĠĠĠĠĠĠĠĠĠĠĠĠĠĠĠĠĠ
ĠIn st
ĠUn i
RE M
tain s
Ġcomp onents
Ġ... ]<
Ġcode book
Ex tension
ĠImage Ops
Ġpi ece
Ġcomm ons
filename s
Pre train
Ġdiff s
wh ich
Ġreg ion
ĠGener al
inv oke
ĠRes idual
Transformer Config
inst alled
CO M
ĠCh inese
can vas
USE D
avi er
jit ter
Sharded StateDict
Ġtrack ing
ĠOr iginal
ĠKey board
ĠTh read
Ġip db
Ġaut oregressive
ĠDownload Source
Ġcoordin ates
ĠFrozen Dict
Ġdescrib ing
Ġomega conf
Ġrule s
Episode Generator
Ġleg acy
Ġ##################################################### ###<
Multistep Scheduler
. ".
3 36
4 03
= \\
? \
A U
A s
A nn
C ES
C alculate
C loud
E vents
J O
M otion
P art
S im
U E
V Q
c ite
d ent
o pacity
p d
w arm
y label
} -
} }<
Ð ¸
é Ŀ
Ġ utf
at ype
Ġt g
Ġa stronomic
ra se
ra ise
it ed
it ized
Ġre peated
Ġc entral
ing ular
Ġs mpl
as ure
str ft
Ġe insum
ĠN vidia
Ġan tic
ver ter
Ġ""" )<
ĠS cale
Ġst ability
pro vided
init y
ĠR et
ĠR AG
wa p
gg le
ta x
pl t
son g
token izers
ĠE vent
com bin
ĠG ot
ry ption
Ġ` __
ĠRe size
ne ar
DI CT
SE P
Ġkey points
Ġkey words
Ġresult ing
ac ity
([ ])<
In t
min imum
Ġq len
Ġmo m
ĠK andinsky
bs z
Ġcomp onent
Ġshape s
Ġadd ition
no logy
Ġlayer norm
post process
Ġcheckpoint ing
Pro vider
ind x
={ '
Di amond
UL AR
ĠAN D
Ġover all
copy sign
Ġ12 34
button s
Ġexec utor
Ġsim p
non zero
(". ")[
send line
Ġcondition al
Ġpack ages
Ġretrie ving
ĠRot ations
Ch ild
á´ı É´
assert True
Qu ant
á´Ģ É´
Mult iple
Ġ15 36
Ġdeno ised
å¤ §
ĠDoc ument
Ġplace holder
ĠRem ote
Ġdete cted
Ġá´Ľ Êľá´ĩ
ĠHTTP Exception
Me an
Reduce Op
bbox es
Ġcook ie
ĠVi T
Selection Config
elastic search
compat ible
ĠCheckpointing Exception
Decode Error
ĠDep th
è¾ĵ åĩº
ITEM S
strft ime
" ></
" ):
) +
) }.
* ")<
: "<
A CE
C ASE
L iteral
O D
R ew
S D
T ip
U AL
b ones
b mm
b lended
c riminator
d ino
f lush
m unk
n lp
p ot
q vel
r ule
v ate
v ity
à ¹
å Ŀ
é ľ
Ġ vert
Ġ err
pa ssage
in x
at ural
en dation
Ġf c
Ġf map
ar di
ct an
Ġm t
Ġs peed
di fferent
Ġp unct
Ġb ad
li ct
Ġto t
set Timeout
ext ernal
co in
co mes
co pies
ĠT orch
Ġd ns
Ġd dp
(" >
em ini
ĠA D
ĠA G
ĠA verage
ĠL R
Ġst ages
Ġnot diamond
ĠP O
ĠP art
ĠP attern
end or
key board
Ġde que
Ġde leted
Ġar tic
ĠD on
ĠD eter
class ify
Ġ_ :
Ġse mester
ĠM ODEL
pi red
am ily
Ġj wt
Ġro bot
ĠG iven
Ġ` {
Data Set
Config Mixin
In it
Ġcont ribut
let te
ho ver
chunk ed
save fig
Ġwe ak
env stacks
)) )
au g
Ġinter le
Ġwrit ten
AM PL
Ġact ually
Lo ck
Ġvar ious
rag ent
AN T
ĠGPT DataSet
Ġfollow ed
optim ization
sin cos
ĠMo dified
Ġcur s
Ġpla nner
ik ipedia
Mask Softmax
ledge hammer
ĠCh unk
================================ ============
78 84
ÊŁ á´ĩ
pix els
termin ation
ĠCont ent
Ġhigh er
EL LOW
âĢ Ķ
lim iter
|> "})<
HT ML
ĠChat Message
Ġarch ive
Ġeff icient
Ġfig ure
ear ly
game s
pid ump
alloc ated
Ġpresent ation
ĠNe ural
ĠDB Dataset
FAI L
Ġgre at
Scale MaskSoftmax
æ¡ £
Ġpercent age
ĠAuth ors
DEF INE
Depend ency
è½ ¬
Ġè® ¡ç®Ĺ
Ġear ly
Ġantic lockwise
ĠGPTDataSet V
' d
' ):
+ ",
, -
, ),<
, )).
1 14
5 3
= (<
C AT
D ense
L i
M N
R ON
S ay
U Net
] `
b reak
b rightness
b lack
b asis
m ble
u ite
v stack
} -{
å į
è ĩ
Ġ ve
in di
or qa
re jected
de termin
de coupled
Ġf bx
ar ctan
ed rock
Ġre vision
Ġre cover
Ġc r
Ġs x
Ġp df
Ġp hoto
Ġimport s
po ly
ĠT ak
up licate
is m
Ġcon version
fig size
Ġg u
Ġ{ {<
ĠL M
ĠS ampling
que t
ĠD ynamic
ĠI magen
Ġres ized
Ġ_ ]
Ġor i
ta ck
ĠM ain
ĠM apping
ĠB ot
ĠU sed
ĠU sing
nn x
ĠG RAPH
ft fy
ll ms
Ġ: ],
SE D
ĠOptional Dependency
ĠH O
Ġob servations
12 0
yp ot
Ġca pab
Ġsub folder
IT H
ay stack
Ġdo cker
EM A
') ")<
inter faces
drop down
Ġ) [
Norm alize
Ġ} }<
Ġwork s
ĠBase d
ĠBase Exception
á´ĩ á´ħ
Ġá´ ĺ
ĠGener ation
present ation
TH ER
aut y
Ġext ernal
Ġdepth s
Col lator
Ġcount s
Not Available
Ġrep r
CL S
Ġcons istent
Ġabs l
åĲ į
Pool Executor
ĠRo le
ĠQuery Param
Ġsy mbol
Iter ator
æĪ ·
Ġsw iglu
ĠLe arning
Ġmodi f
QU ESTION
Ġclick ed
Ġbegin ning
ä¸Ģ ä¸ª
å¼ ı
INST ALLED
Ġsec ret
ĠâĶ ľâĶĢ
ĠComput es
Ð° Ñ
Img Pipeline
ĠTransform ers
ĠBlendedMegatron DatasetConfig
Ġhel per
å¹ ¶
Ġnd array
Ġdecor ated
İ· åıĸ
éľ Ģ
ĠOptionalDependency NotAvailable
) ["
) [:
, ))<
- '
A fter
C an
D raw
F older
F LAG
I TI
J son
L ab
M AS
