{"<s>":0,"<pad>":1,"</s>":2,"<unk>":3,"<mask>":4,"<N>":5,"!":6,"\"":7,"#":8,"$":9,"%":10,"&":11,"'":12,"(":13,")":14,"*":15,"+":16,",":17,"-":18,".":19,"/":20,"0":21,"1":22,"2":23,"3":24,"4":25,"5":26,"6":27,"7":28,"8":29,"9":30,":":31,";":32,"<":33,"=":34,">":35,"?":36,"@":37,"A":38,"B":39,"C":40,"D":41,"E":42,"F":43,"G":44,"H":45,"I":46,"J":47,"K":48,"L":49,"M":50,"N":51,"O":52,"P":53,"Q":54,"R":55,"S":56,"T":57,"U":58,"V":59,"W":60,"X":61,"Y":62,"Z":63,"[":64,"\\":65,"]":66,"^":67,"_":68,"`":69,"a":70,"b":71,"c":72,"d":73,"e":74,"f":75,"g":76,"h":77,"i":78,"j":79,"k":80,"l":81,"m":82,"n":83,"o":84,"p":85,"q":86,"r":87,"s":88,"t":89,"u":90,"v":91,"w":92,"x":93,"y":94,"z":95,"{":96,"|":97,"}":98,"~":99,"¡":100,"¢":101,"£":102,"¤":103,"¥":104,"¦":105,"§":106,"¨":107,"©":108,"ª":109,"«":110,"¬":111,"®":112,"¯":113,"°":114,"±":115,"²":116,"³":117,"´":118,"µ":119,"¶":120,"·":121,"¸":122,"¹":123,"º":124,"»":125,"¼":126,"½":127,"¾":128,"¿":129,"À":130,"Á":131,"Â":132,"Ã":133,"Ä":134,"Å":135,"Æ":136,"Ç":137,"È":138,"É":139,"Ê":140,"Ë":141,"Ì":142,"Í":143,"Î":144,"Ï":145,"Ð":146,"Ñ":147,"Ò":148,"Ó":149,"Ô":150,"Õ":151,"Ö":152,"×":153,"Ø":154,"Ù":155,"Ú":156,"Û":157,"Ü":158,"Ý":159,"Þ":160,"ß":161,"à":162,"á":163,"â":164,"ã":165,"ä":166,"å":167,"æ":168,"ç":169,"è":170,"é":171,"ê":172,"ë":173,"ì":174,"í":175,"î":176,"ï":177,"ð":178,"ñ":179,"ò":180,"ó":181,"ô":182,"õ":183,"ö":184,"÷":185,"ø":186,"ù":187,"ú":188,"û":189,"ü":190,"ý":191,"þ":192,"ÿ":193,"Ā":194,"ā":195,"Ă":196,"ă":197,"Ą":198,"ą":199,"Ć":200,"ć":201,"Ĉ":202,"ĉ":203,"Ċ":204,"ċ":205,"Č":206,"č":207,"Ď":208,"ď":209,"Đ":210,"đ":211,"Ē":212,"ē":213,"Ĕ":214,"ĕ":215,"Ė":216,"ė":217,"Ę":218,"ę":219,"Ě":220,"ě":221,"Ĝ":222,"ĝ":223,"Ğ":224,"ğ":225,"Ġ":226,"ġ":227,"Ģ":228,"ģ":229,"Ĥ":230,"ĥ":231,"Ħ":232,"ħ":233,"Ĩ":234,"ĩ":235,"Ī":236,"ī":237,"Ĭ":238,"ĭ":239,"Į":240,"į":241,"İ":242,"ı":243,"Ĳ":244,"ĳ":245,"Ĵ":246,"ĵ":247,"Ķ":248,"ķ":249,"ĸ":250,"Ĺ":251,"ĺ":252,"Ļ":253,"ļ":254,"Ľ":255,"ľ":256,"Ŀ":257,"ŀ":258,"Ł":259,"ł":260,"Ń":261,"><":262,"pa":263,"pad":264,"ĠĠ":265,"ĠĠĠĠ":266,"ĠĠĠ":267,"ĠĠĠĠĠĠĠ":268,"in":269,"or":270,"se":271,"on":272,"at":273,"er":274,"en":275,"Ġt":276,"Ġ=":277,"re":278,")<":279,"st":280,"de":281,"></":282,"al":283,"ĠĠĠĠĠĠĠĠĠĠĠ":284,"ro":285,"im":286,"Ġa":287,"le":288,":<":289,"ra":290,"ut":291,"ch":292,"it":293,"ion":294,"lf":295,"self":296,"ge":297,"Ġf":298,"lo":299,"ar":300,"ed":301,",<":302,"Ġ\"":303,"ct":304,"ĠĠĠĠĠĠĠĠ":305,"Ġm":306,"he":307,"Ġre":308,"Ġc":309,"Ġin":310,"ort":311,"Ġn":312,"ce":313,"Ġi":314,"ing":315,"port":316,"Ġs":317,"Ġself":318,"import":319,"la":320,"ss":321,"ode":322,"di":323,"ex":324,"rom":325,"ur":326,"Ġp":327,"me":328,"an":329,"ent":330,"Ġo":331,"pe":332,"ig":333,"th":334,"):<":335,"iz":336,"dat":337,"Ġthe":338,"def":339,"pt":340,"Ġb":341,"um":342,"un":343,"ue":344,"id":345,"Ġ#":346,"data":347,"odel":348,"\"\"":349,"put":350,"ate":351,"ad":352,"from":353,"Ġw":354,"Ġimport":355,"Ġ(":356,"as":357,"li":358,"ser":359,"ck":360,"Ġto":361,"orch":362,"urn":363,"turn":364,".<":365,"to":366,"str":367,"Ġif":368,"ul":369,"Ġfor":370,"ĠĠĠĠĠĠĠĠĠĠĠĠĠĠĠ":371,"one":372,"ens":373,"ize":374,"set":375,"ran":376,"ext":377,"Ġe":378,"age":379,"gs":380,"Ġpa":381,"get":382,"Ġreturn":383,"__":384,"Ġas":385,"int":386,"mp":387,"orm":388,"ot":389,"il":390,"co":391,"con":392,"Ġdef":393,"po":394,"ĠN":395,"Ġ-":396,"ht":397,"val":398,">#":399,"()<":400,"Ġtorch":401,"ic":402,"ĠT":403,"]<":404,"ame":405,"ation":406,"size":407,"up":408,"Ġan":409,"Ġd":410,"is":411,"Ġ1":412,"Ġis":413,"(\"":414,"ver":415,"ol":416,"Ġcon":417,"==":418,"qu":419,"ype":420,"len":421,"()":422,"em":423,"model":424,"ĠA":425,"es":426,"Ġg":427,"Ġ'":428,"Ġlo":429,"##":430,"fig":431,"ensor":432,"(<":433,"ĠNone":434,"et":435,"Ġ\"\"\"":436,"Ġ*":437,"\"<":438,"text":439,"ers":440,"ma":441,"ĠC":442,"Ġ[":443,"ĠĠĠĠĠĠĠĠĠĠĠĠĠĠĠĠ":444,"ve":445,"--":446,"ight":447,"sh":448,"ile":449,"vi":450,"Ġ{":451,"\")<":452,"ĠL":453,"od":454,"Ġof":455,"path":456,"ask":457,"ke":458,"ith":459,"est":460,"Ġ0":461,"form":462,"ult":463,"args":464,"\",":465,"utput":466,"ep":467,"name":468,"rain":469,"Ġ+":470,"Ġh":471,"ction":472,"amp":473,"ĠS":474,"Ġst":475,"ab":476,"der":477,"att":478,"Ġand":479,"el":480,"py":481,"Ġ==":482,"Ġ2":483,"pro":484,"Ġdi":485,"atch":486,"pp":487,"par":488,"Ġdata":489,"ram":490,"Ġnot":491,"ff":492,"ri":493,"lass":494,"ine":495,"ding":496,"Ġex":497,"tok":498,"sert":499,"ption":500,"Ġx":501,"ĠP":502,"Ġmodel":503,"all":504,"us":505,"type":506,"..":507,"rans":508,"end":509,"ample":510,"Ġnum":511,"do":512,"Ġ)<":513,"alle":514,"res":515,"init":516,"rue":517,"Ġma":518,"Ġassert":519,"Ġ\"\"\"<":520,"que":521,"\":":522,"ense":523,"bed":524,"che":525,"key":526,"Ġde":527,"lay":528,").":529,"Ġar":530,"[\"":531,"Ġ->":532,"Ġstr":533,"image":534,"cor":535,"wa":536,"Ġget":537,"ĠF":538,"class":539,"ĠR":540,"))<":541,"\"]":542,"Ġme":543,"ĠD":544,"Ġ<":545,"allel":546,"ist":547,"Ġwith":548,"pre":549,"num":550,"ape":551,"ĠI":552,"dict":553,"Ġco":554,"cal":555,"Ġth":556,"gg":557,"ter":558,"list":559,"ror":560,"cess":561,"====":562,"ĠO":563,"ew":564,"state":565,"value":566,"train":567,"dim":568,"Ġ_":569,"rint":570,"Ġres":571,"icense":572,"use":573,"config":574,"izer":575,"Ġor":576,"ransform":577,"00":578,"Ġr":579,"ase":580,"ime":581,"quest":582,"####":583,"Ġse":584,"alse":585,"ard":586,"tensor":587,"Ġl":588,"able":589,"input":590,"dir":591,"per":592,"os":593,"Ġel":594,"but":595,"Ġelse":596,"wait":597,"ule":598,"ils":599,"ta":600,"ron":601,"load":602,"Ġpage":603,"and":604,"gth":605,"ĠĠĠĠĠĠĠĠĠĠĠĠĠĠĠĠĠĠĠ":606,"ĠLicense":607,"dex":608,"ĠM":609,"\",<":610,"stri":611,"ctor":612,"length":613,"lock":614,"gat":615,"file":616,"da":617,"._":618,"eight":619,"parallel":620,"mask":621,"ly":622,"',":623,"rame":624,"torch":625,"if":626,"shape":627,"Ġla":628,"head":629,"bedding":630,"Ġinput":631,"],":632,"True":633,"ded":634,"vice":635,"dataset":636,"Ġtok":637,"Ġargs":638,"('":639,"Ġ/":640,"Ġawait":641,"nc":642,"Ġnp":643,"odule":644,"rompt":645,"app":646,"ence":647,"Ġsh":648,"output":649,"check":650,"out":651,"Ġoutput":652,"Ġpro":653,"----":654,"Ġfrom":655,"Ġprint":656,"ance":657,"Ġpar":658,"ub":659,"),":660,"Ġ__":661,"point":662,"=\"":663,"ener":664,"ps":665,"rad":666,"ial":667,"loat":668,"ĠB":669,"ition":670,"pon":671,"\"\"\"<":672,"rank":673,"ment":674,"ward":675,"ack":676,"wor":677,"lic":678,"ync":679,"Ġun":680,"batch":681,"idd":682,"Ġpre":683,"pi":684,"pl":685,"gatron":686,"line":687,"token":688,"),<":689,"ids":690,"Ġos":691,"idden":692,"ĠU":693,"Con":694,"Ġbe":695,"roup":696,"max":697,"ON":698,"am":699,"ention":700,"ure":701,"utils":702,"Ġtest":703,"ise":704,"ponse":705,"param":706,"Ġint":707,"son":708,"ument":709,"stribut":710,"ool":711,"Ġj":712,"Ġconfig":713,"Ġ3":714,"ĠE":715,"Ġon":716,"Ġuse":717,"Ġen":718,"['":719,"Ġy":720,"ces":721,"Ġfile":722,"ix":723,"__(":724,"ave":725,"rror":726,"ĠW":727,"}<":728,"Ġv":729,"layer":730,"):":731,"Ġlen":732,"art":733,"ator":734,"cu":735,"thod":736,"Ġro":737,"Ġch":738,"nn":739,"ft":740,"com":741,"gger":742,"coder":743,"process":744,"els":745,"ery":746,"ĠG":747,"je":748,"code":749,"ble":750,"oc":751,"ssage":752,"IN":753,"stributed":754,"OR":755,"Ġ>":756,"so":757,"Error":758,"ata":759,"norm":760,"red":761,"ng":762,"ault":763,"Ġimage":764,"inf":765,"step":766,"arget":767,"().":768,"append":769,"...":770,"server":771,"for":772,"ow":773,"add":774,"te":775,"TI":776,"Ġdataset":777,"():<":778,"pos":779,"ry":780,"ĠV":781,"its":782,"query":783,"ann":784,"ptional":785,"htt":786,"tokens":787,"\")":788,"sample":789,"ath":790,"weight":791,"unction":792,"Ġcontext":793,"lob":794,"sw":795,"qui":796,"Ġnn":797,"log":798,"Ġtensor":799,"range":800,"test":801,"grad":802,"core":803,"Ġmegatron":804,"cont":805,"sc":806,"user":807,"']":808,"right":809,"Ġra":810,"[:":811,"bo":812,"Ġmax":813,"bu":814,"ll":815,"False":816,"ok":817,"ant":818,"Ġatt":819,"')<":820,"Ġk":821,"ai":822,"pen":823,"Ġdim":824,"plit":825,"ransformer":826,"checkpoint":827,"None":828,"ity":829,"Ġim":830,"wargs":831,"pec":832,"eval":833,"iter":834,"ĠThe":835,"Ġtrain":836,"ber":837,"Ġtoken":838,"item":839,"unk":840,"gument":841,"row":842,"dow":843,"//":844,"Ġ`":845,"mo":846,"Ġso":847,"unt":848,"Tensor":849,"ip":850,"low":851,"index":852,"========":853,"ĠCo":854,"02":855,"ds":856,"cept":857,"Ġem":858,"://":859,"cuda":860,"EN":861,"Ġ:":862,"ca":863,"idx":864,"stance":865,"pect":866,"ou":867,"Ġstate":868,"ions":869,"ĠRe":870,"Ġsup":871,">#<":872,"':":873,"ject":874,"ched":875,"ptim":876,"url":877,"loss":878,"av":879,"method":880,"ias":881,"context":882,"ir":883,"Ġtext":884,"embedding":885,"DI":886,"Ġwh":887,"kwargs":888,"float":889,"á´":890,"Ġ**":891,"jo":892,"########":893,"eat":894,"device":895,"cale":896,"Ġby":897,"ict":898,"Ġunder":899,"Ġvalue":900,"Ġbatch":901,"ne":902,"ute":903,"ations":904,"Ġlist":905,"])<":906,"back":907,"Ġtype":908,"gging":909,"prompt":910,"SE":911,"Ġkey":912,"ore":913,"Ġpo":914,"Ġ.":915,"ray":916,"Ġthis":917,"lobal":918,"rit":919,"ml":920,"].":921,"usion":922,"pu":923,"Ġlog":924,"bs":925,"fa":926,"Ġsample":927,"Ġset":928,"peline":929,"ĠFalse":930,"Ġ4":931,"Ġ%":932,"uld":933,"error":934,"quence":935,"und":936,"Ġ@":937,"Data":938,"Model":939,"ĠOptional":940,".\"\"\"<":941,"Ġall":942,"Ġ[]<":943,"ses":944,"ive":945,"ern":946,"cl":947,"dom":948,"group":949,"tr":950,"ĠAr":951,"reate":952,"block":953,"time":954,"Ġparam":955,"ac":956,"info":957,"ary":958,"main":959,"ould":960,"Ġ(<":961,"Ġresponse":962,"rop":963,"iv":964,"zer":965,"Ġmask":966,"fg":967,"ning":968,"Ġrequi":969,"ĠĠĠĠĠĠĠĠĠĠĠĠĠĠĠĠĠĠĠĠĠĠĠ":970,"ffusion":971,"'<":972,"mat":973,"params":974,"Ġresult":975,"ER":976,"ph":977,"inal":978,"ory":979,"format":980,"ld":981,"view":982,"gent":983,"PT":984,"ES":985,"uple":986,"ĠTrue":987,"dd":988,"ler":989,"ang":990,"Ġdevice":991,"='":992,"Ġload":993,"Config":994,"([":995,"ies":996,"ĠĠĠĠĠĠĠĠĠĠĠĠĠĠĠĠĠĠĠĠĠĠĠĠĠĠĠĠĠĠĠĠ":997,"Ġloss":998,"Ġal":999,"Ġexcept":1000,"nd":1001,"unc":1002,"Ġraise":1003,"Ġhidden":1004,"pla":1005,"16":1006,"pert":1007,"Ġthat":1008,"states":1009,"TION":1010,"swer":1011,"Ġout":1012,"ĠUn":1013,"ust":1014,"Ġ+=":1015,"json":1016,"ild":1017,"--------":1018,"random":1019,"urr":1020,"Ġlogger":1021,"module":1022,"Ġval":1023,"lable":1024,"Ġprompt":1025,"ropo":1026,"array":1027,"Ġname":1028,"ropout":1029,"Ġbu":1030,"uler":1031,"chann":1032,"ĠH":1033,"Ġsuper":1034,"Ġtime":1035,"result":1036,"fix":1037,"arded":1038,"AS":1039,"lib":1040,"RE":1041,"],<":1042,"32":1043,"Ġne":1044,"ĠArgs":1045,"Ġrequest":1046,"ys":1047,"Ġpath":1048,"Ġdefault":1049,"np":1050,"join":1051,"Ġindex":1052,"split":1053,"hidden":1054,"pyright":1055,"rowser":1056,"Ġhtt":1057,"Ġwor":1058,"RA":1059,"Ġcom":1060,"Ġinit":1061,"Ġgener":1062,"indow":1063,"ters":1064,"io":1065,"Ġasync":1066,"Ġrange":1067,"ĠCopyright":1068,"ob":1069,"quat":1070,"lement":1071,"\"]<":1072,"date":1073,"Ġid":1074,"start":1075,"ill":1076,"Ġ{<":1077,"**":1078,"loc":1079,"In":1080,"col":1081,"ctory":1082,"Ġcont":1083,"ual":1084,"ated":1085,"xis":1086,"page":1087,"pat":1088,"Ġserver":1089,"content":1090,"base":1091,"LI":1092,"eps":1093,"sses":1094,"lect":1095,"instance":1096,"rect":1097,"ptimizer":1098,"Ġper":1099,"[:,":1100,"ĠSe":1101,"Ġapp":1102,"Ġare":1103,"Ġtarget":1104,"work":1105,"Ġsize":1106,"oad":1107,"urce":1108,"ĠReturn":1109,"nt":1110,"min":1111,"ision":1112,"Module":1113,"mage":1114,"ĠList":1115,"ffer":1116,"Ġpos":1117,"12":1118,"layers":1119,"async":1120,"Ġ\\":1121,"tal":1122,"Ġforward":1123,"heads":1124,"uage":1125,"yp":1126,"count":1127,"ww":1128,"request":1129,"lat":1130,"Ġweight":1131,"Ġdistributed":1132,"Ġjson":1133,"feat":1134,"ach":1135,"tain":1136,"Ġembedding":1137,"ved":1138,"ign":1139,"Ġq":1140,"ĠIn":1141,"cheduler":1142,"Ġob":1143,"St":1144,"distributed":1145,"...,":1146,"Ġnumpy":1147,"Dataset":1148,"Ġmay":1149,"dtype":1150,"ree":1151,"Ġdtype":1152,"ception":1153,"dices":1154,"pache":1155,"embed":1156,"ĠReturns":1157,"scri":1158,"Ġbool":1159,"channels":1160,"message":1161,"Ġmessage":1162,"new":1163,"DE":1164,"lif":1165,"Ġ5":1166,"stat":1167,"vers":1168,"Ġat":1169,"eta":1170,"ents":1171,"Ġpy":1172,"Ġblock":1173,"attention":1174,"ĠEx":1175,";<":1176,"AT":1177,"AR":1178,"Ġspec":1179,"Ġdict":1180,"cli":1181,"ho":1182,"let":1183,"his":1184,"rameters":1185,"seed":1186,"Re":1187,"poch":1188,"mb":1189,"ny":1190,"uate":1191,"}\")<":1192,"bias":1193,"Ġca":1194,"vel":1195,"steps":1196,"Ġ[\"":1197,"ocab":1198,"extra":1199,"Ġfunction":1200,"ipeline":1201,"Ġcol":1202,"Ġtokenizer":1203,"Ġpad":1204,"sed":1205,"nguage":1206,"ĠCon":1207,"argument":1208,"gener":1209,"img":1210,"ĠK":1211,"yping":1212,"imest":1213,"Ġ202":1214,"Ġgroup":1215,"sum":1216,"fil":1217,"om":1218,"chunk":1219,"Ġelif":1220,"target":1221,"read":1222,"((":1223,"vert":1224,"())<":1225,"var":1226,"urrent":1227,"ures":1228,"inear":1229,"late":1230,"seq":1231,"Ġtyping":1232,"Ġattention":1233,"Ġimg":1234,"uto":1235,"Ġtokens":1236,"bels":1237,"Ġac":1238,"position":1239,"trained":1240,"save":1241,"ized":1242,"transformer":1243,"training":1244,"irst":1245,"ret":1246,"Ġ{}":1247,"Ġcomp":1248,"gram":1249,"comm":1250,"Ġtry":1251,"Ġwe":1252,"vide":1253,"html":1254,"mean":1255,"embeddings":1256,"erence":1257,"go":1258,"alue":1259,"Ġte":1260,"rite":1261,"FI":1262,"op":1263,"place":1264,"ther":1265,"\":<":1266,"gre":1267,"]:<":1268,"Ġ...":1269,"Ġfloat":1270,"IT":1271,"ctions":1272,"emb":1273,"encoder":1274,"func":1275,"Ġright":1276,"act":1277,"with":1278,"Ġstep":1279,"Ġyou":1280,"iss":1281,"ific":1282,"global":1283,"Ġno":1284,"Ġtransform":1285,"temp":1286,"Ġrun":1287,"les":1288,"ĠPage":1289,"Ġrot":1290,"by":1291,"UT":1292,"Ġshape":1293,"ĠĠĠĠĠ":1294,"task":1295,"erver":1296,">@":1297,"AG":1298,"Ġquery":1299,"Ġdo":1300,"map":1301,"Ġsub":1302,"print":1303,"sub":1304,"ĠAny":1305,"gpt":1306,"Ġhe":1307,"ec":1308,"ere":1309,"own":1310,"rix":1311,"tokenizer":1312,"iel":1313,"Ġopen":1314,"cfg":1315,"Ġnew":1316,"Ġlogging":1317,"lu":1318,"Ġadd":1319,"parse":1320,"transform":1321,"Ġisinstance":1322,"Ġclass":1323,"frame":1324,"Ġit":1325,"))":1326,"Ġhas":1327,"ay":1328,"response":1329,"question":1330,"Ġnorm":1331,"Ġstart":1332,"rot":1333,"over":1334,"scale":1335,"Ġmo":1336,"ĠAll":1337,"tra":1338,"EM":1339,"Ġimp":1340,"the":1341,"post":1342,"env":1343,"cat":1344,"ST":1345,"bin":1346,"ous":1347,"evaluate":1348,"no":1349,"Ġrequired":1350,"64":1351,"AL":1352,"ross":1353,"ization":1354,"Ġeval":1355,"ĠThis":1356,"Ġparser":1357,"mbda":1358,"Ġcopy":1359,"uc":1360,">)":1361,"logger":1362,"ĠDict":1363,"Ġsoft":1364,"ton":1365,"().__":1366,"should":1367,"Ġz":1368,"function":1369,"lp":1370,"attn":1371,"PI":1372,"trans":1373,"version":1374,"oi":1375,".\")<":1376,"ics":1377,"run":1378,"tt":1379,"attr":1380,"Ġup":1381,"samples":1382,"[...,":1383,"quatern":1384,"local":1385,"ssion":1386,"Ġtask":1387,"served":1388,"Ġnumber":1389,"last":1390,"lr":1391,"Ġrank":1392,"Ġlayer":1393,"comp":1394,"ĠĠĠĠĠĠ":1395,"idth":1396,"Ġrights":1397,"valid":1398,"oader":1399,"ms":1400,"__()<":1401,"Ġmat":1402,"=-":1403,"Ġcode":1404,"cores":1405,"ide":1406,"\"])<":1407,"])":1408,"pose":1409,"bel":1410,"pute":1411,"VI":1412,"Ġret":1413,">)<":1414,"Ġreserved":1415,"Ġparallel":1416,"ution":1417,"arch":1418,"patch":1419,"licy":1420,"Ġ}<":1421,"\"{":1422,"ware":1423,"ename":1424,"',<":1425,"Ġ//":1426,"Ġerror":1427,"cls":1428,"ag":1429,"meta":1430,"Ġ\\<":1431,"andle":1432,"radi":1433,"ĠValue":1434,"org":1435,"box":1436,"Ġpart":1437,"inter":1438,"ong":1439,"HO":1440,"qd":1441,"Ġchunk":1442,"ĠServer":1443,"api":1444,"lin":1445,"')":1446,"Ġle":1447,"fo":1448,"Ġ!":1449,"au":1450,"ailable":1451,"off":1452,"zero":1453,"tool":1454,"ĠData":1455,"imit":1456,"Type":1457,"Ġuser":1458,"Se":1459,"ING":1460,"weights":1461,"spec":1462,"Ġcheckpoint":1463,"world":1464,"``":1465,"[-":1466,"Ġbase":1467,"vid":1468,"umn":1469,"soft":1470,"================":1471,"license":1472,"ĠY":1473,"ak":1474,"call":1475,"stru":1476,"ĠSt":1477,"(-":1478,"Pro":1479,"ialize":1480,"Ġrandom":1481,"Ġtotal":1482,"Ġ[<":1483,"iginal":1484,"ast":1485,"dropout":1486,"Ġ!=":1487,"doc":1488,"ark":1489,"net":1490,"ind":1491,"models":1492,"answer":1493,"Ġtop":1494,"clo":1495,"route":1496,"POR":1497,"pty":1498,"################":1499,"Ġdoc":1500,"ATION":1501,"ĠValueError":1502,"word":1503,"Ġlength":1504,"\".":1505,"qdm":1506,"CEN":1507,").<":1508,"spect":1509,"rectory":1510,"sq":1511,"reg":1512,"cla":1513,"Ġbias":1514,"ody":1515,"Ġhttps":1516,"thon":1517,"Ġeach":1518,"items":1519,">>":1520,"Ġsequence":1521,"lama":1522,"cond":1523,"Ġused":1524,"uce":1525,"ze":1526,"ctx":1527,"Ġpass":1528,"conv":1529,"down":1530,"ĠPath":1531,"CENSE":1532,"Ġsave":1533,"ield":1534,"Ġidx":1535,"vent":1536,"Ġscale":1537,"Ġgrad":1538,"goto":1539,"prefix":1540,"zeros":1541,"ĠUnion":1542,"util":1543,"pretrained":1544,"Ġposition":1545,"gment":1546,"LE":1547,"round":1548,"sequence":1549,"ull":1550,"000":1551,"yst":1552,"less":1553,"Ġinter":1554,"scription":1555,"logits":1556,"node":1557,"drop":1558,"Ġprocess":1559,"cord":1560,"Ġwill":1561,"ĠĠĠĠĠĠĠĠĠĠĠĠĠĠĠĠĠĠĠĠĠĠĠĠ":1562,"default":1563,"Linear":1564,"Ġ\"/":1565,"Ġsys":1566,"10":1567,"Ġmethod":1568,"LM":1569,"Pa":1570,"old":1571,"LO":1572,"cy":1573,"window":1574,"Ġtraining":1575,"expert":1576,"Ġ{\"":1577,"ound":1578,"normal":1579,"icro":1580,"'s":1581,"AI":1582,"Ġtool":1583,"indices":1584,"Ġglobal":1585,"Ġlogits":1586,"cket":1587,"isode":1588,"etun":1589,"ĠSh":1590,"epoch":1591,"igh":1592,"df":1593,"write":1594,"={":1595,"features":1596,"Dict":1597,"RAN":1598,"keep":1599,"raph":1600,"ersion":1601,"ayer":1602,"ich":1603,"Ġlanguage":1604,"Ġmin":1605,"Ġparams":1606,"ream":1607,"DIA":1608,"fn":1609,"uration":1610,"(),":1611,"Ġsc":1612,"Ġbrowser":1613,"ference":1614,"sole":1615,"miss":1616,"datasets":1617,"Ex":1618,"Ġ)":1619,"Ġcreate":1620,"tes":1621,"keys":1622,"af":1623,"ume":1624,"VIDIA":1625,"Ġaxis":1626,"ints":1627,"Ġhead":1628,"Ġtqdm":1629,"Ġus":1630,"forward":1631,"'.":1632,"}\"<":1633,"timest":1634,"AGE":1635,"Ġcfg":1636,"ud":1637,"Ġsoftware":1638,"rameter":1639,"Ġcor":1640,"ude":1641,"sent":1642,"arning":1643,"video":1644,"cpu":1645,"values":1646,"Ġspecific":1647,"lm":1648,"Ġmult":1649,"Ġfil":1650,"ĠCOR":1651,"IS":1652,"Ġact":1653,"ystem":1654,"pipeline":1655,"mode":1656,"open":1657,"Ġhttp":1658,"her":1659,"Ġcan":1660,"ither":1661,"ister":1662,"mult":1663,"Ġend":1664,"ĠApache":1665,"Lo":1666,"itle":1667,"blocks":1668,"Ġbuild":1669,"Ġ|":1670,"ĠNVIDIA":1671,"_(":1672,"loader":1673,"Ġiter":1674,"rt":1675,"scores":1676,"ĠVersion":1677,"vision":1678,"ĠOR":1679,"Ġ]<":1680,"Norm":1681,"results":1682,"Di":1683,"Ġonly":1684,"Ġmath":1685,"Ġ>>>":1686,"Ġattn":1687,"Ġoptimizer":1688,"Ġcheck":1689,"Ġmodule":1690,"lied":1691,"ĠCORPOR":1692,"Ġfa":1693,"ĠCORPORATION":1694,"Ġpost":1695,"ef":1696,"lot":1697,"ner":1698,"backend":1699,"\\\\":1700,"ingle":1701,"andler":1702,"rc":1703,"ĠCON":1704,"pected":1705,"AM":1706,"Ġbut":1707,"string":1708,"Fa":1709,"buffer":1710,"agent":1711,"Ġlast":1712,"riting":1713,"Ġ=>":1714,"uth":1715,"press":1716,"www":1717,"Ġlimit":1718,"Ġeither":1719,"oken":1720,"ĠImage":1721,"of":1722,"ribut":1723,"ĠOF":1724,"action":1725,"locator":1726,"create":1727,"bar":1728,"ĠAN":1729,"olution":1730,"':<":1731,"kv":1732,"numpy":1733,"ain":1734,"rid":1735,"guments":1736,"CH":1737,"we":1738,"ists":1739,"are":1740,"root":1741,"top":1742,"abs":1743,"source":1744,"tils":1745,"ĠSee":1746,"Pipeline":1747,"part":1748,"ĠYou":1749,"entype":1750,"Ġtemp":1751,"not":1752,"Ġshould":1753,"ĠException":1754,"be":1755,"classes":1756,"=[":1757,"yle":1758,"req":1759,"Ġ}":1760,"heck":1761,"vider":1762,"ally":1763,"ĠIf":1764,"ateg":1765,"Ġquatern":1766,"']<":1767,"Ġstring":1768,"Ġpi":1769,"Ġapplic":1770,"Ġimages":1771,"viron":1772,"lete":1773,"level":1774,"Ġinspect":1775,"coding":1776,"Ġweights":1777,"alc":1778,"Ġwindow":1779,"Ġline":1780,"factor":1781,"Par":1782,"spa":1783,"Ġcurrent":1784,"Ġnode":1785,"Ġobtain":1786,"template":1787,"div":1788,"sets":1789,"UL":1790,"rand":1791,"ling":1792,"mark":1793,"ĠIS":1794,"PRE":1795,"IND":1796,"Ġsplit":1797,"Ġrequires":1798,"idat":1799,"replace":1800,"\"],<":1801,"ature":1802,"datal":1803,"shot":1804,"Ġvar":1805,"RO":1806,"ĠWAR":1807,"ls":1808,"Ġgenerate":1809,"Ġextra":1810,"Ġmean":1811,"wright":1812,"strip":1813,"lean":1814,"laywright":1815,"images":1816,"axis":1817,"Ġ):<":1818,"Ġone":1819,"available":1820,"mem":1821,"vector":1822,"empty":1823,"object":1824,"Res":1825,"pth":1826,"raw":1827,"diffusion":1828,"egatron":1829,"db":1830,"Ġ{}<":1831,"Ġlabels":1832,"ĠANY":1833,"ension":1834,"etr":1835,"Ġ8":1836,"ĠQ":1837,"Ġmatch":1838,"Ġenum":1839,"----------------":1840,"Ġfirst":1841,"Ġanswer":1842,"Ġlambda":1843,"vocab":1844,"Ġvalues":1845,"Ġwhich":1846,"Image":1847,"Ġurl":1848,"Ġmpu":1849,"uous":1850,"Ġtim":1851,"ster":1852,"stant":1853,"ĠNot":1854,"TIONS":1855,"Ġad":1856,"ssi":1857,"pping":1858,"ptions":1859,"ĠWARRAN":1860,"https":1861,"FIX":1862,"softmax":1863,"License":1864,"ĠTuple":1865,"(),<":1866,"Ġwriting":1867,"Ġexpress":1868,"Ġback":1869,"Ġlocal":1870,"TIES":1871,"Ġpermiss":1872,"Ġembeddings":1873,"ĠWIT":1874,"close":1875,"ithub":1876,"ĠWARRANTIES":1877,"PU":1878,"Ġdown":1879,"Ġfeat":1880,"example":1881,"fp":1882,"Ġagre":1883,"LICENSE":1884,"Mix":1885,"\");<":1886,".__":1887,"Ġformat":1888,"fla":1889,"liance":1890,"processing":1891,"Ġapplicable":1892,"names":1893,"used":1894,"ĠKIND":1895,"HOUT":1896,"Ġasyncio":1897,"ĠWITHOUT":1898,"arg":1899,"Ġpadding":1900,"licenses":1901,"Ġpermissions":1902,"umm":1903,"Ġmodels":1904,"Ġlaw":1905,"Ġtransformers":1906,"like":1907,"match":1908,"Ġass":1909,"Ġwork":1910,"github":1911,"iled":1912,"move":1913,"Ġcompliance":1914,"bi":1915,"Ġ..":1916,"Ġimplied":1917,"apache":1918,"\"\"\"":1919,"copy":1920,"Ġgover":1921,"Ġhave":1922,"ĠLicensed":1923,"ĠBAS":1924,"DITIONS":1925,"modules":1926,"ĠCONDITIONS":1927,"Ġagreed":1928,"Ġgoverning":1929,"ĠBASIS":1930,"ĠUnless":1931,"Ġlimitations":1932,"Ġover":1933,"PREFIX":1934,"man":1935,"og":1936,"Ġinputs":1937,"llm":1938,">\"\"\"<":1939,"]]":1940,"Ġmain":1941,"56":1942,"ifi":1943,"Net":1944,"PE":1945,"oice":1946,"allable":1947,"etro":1948,"Ġdis":1949,"led":1950,"ĠTransformer":1951,"Ġhelp":1952,"dataloader":1953,"ernel":1954,"Ġtra":1955,"width":1956,"ĠModel":1957,"parameters":1958,"Ġcontent":1959,"Ġarg":1960,"linear":1961,"ting":1962,"ins":1963,"(__":1964,"xt":1965,"gine":1966,"Ġparameters":1967,"uff":1968,"Ġ12":1969,"select":1970,"transpose":1971,"ors":1972,"proj":1973,"Ġusing":1974,"ugging":1975,"Ġfol":1976,"ĠĠĠĠĠĠĠĠĠĠĠĠĠĠĠĠĠĠĠĠĠĠĠĠĠĠĠ":1977,"ender":1978,"Ġscal":1979,"label":1980,"types":1981,"ĠUtils":1982,"Ġpytest":1983,"rol":1984,"Ġmust":1985,"Ġencoder":1986,"labels":1987,"ä¸":1988,"number":1989,"Ġdirectory":1990,"Train":1991,"Ġsupport":1992,"Ġcomm":1993,"AN":1994,"ĠJ":1995,"rag":1996,"bool":1997,"ange":1998,"ript":1999,"Ġdocument":2000,"Mixin":2001,"Ġsamples":2002,"filename":2003,"TO":2004,"Ġkeep":2005,"pred":2006,"backends":2007,"Scheduler":2008,"ĠGPT":2009,"bug":2010,"Ġworld":2011,"Ġfin":2012,"ones":2013,"vant":2014,"vec":2015,"mot":2016,"\"):<":2017,"iguous":2018,"\").":2019,"cay":2020,"ivation":2021,"table":2022,"our":2023,"}\\":2024,"policy":2025,"Ġgpt":2026,"stack":2027,"LU":2028,"ĠTensor":2029,"iven":2030,"Ġpat":2031,"Ġcli":2032,"qa":2033,"ulate":2034,"quee":2035,"metr":2036,"Ġrequests":2037,"retro":2038,"queeze":2039,"ax":2040,"search":2041,"requi":2042,"Ġframe":2043,"Ġfound":2044,"encode":2045,"Ġdiffusion":2046,"points":2047,"ite":2048,"Ġsource":2049,"Ġindices":2050,"erate":2051,"button":2052,"cache":2053,"For":2054,"idation":2055,"status":2056,"scal":2057,"lease":2058,"rie":2059,"Ġresults":2060,"Ġread":2061,"024":2062,"squeeze":2063,"}.":2064,"Ġ6":2065,"ract":2066,"dis":2067,"Att":2068,"update":2069,"filter":2070,"''":2071,"rep":2072,"reshape":2073,"Ġmatrix":2074,"body":2075,"Ġinto":2076,"Layer":2077,"erge":2078,"Ġav":2079,"angles":2080,"Ġcorrect":2081,"List":2082,"Ġsharded":2083,"</":2084,"IL":2085,"ead":2086,"inputs":2087,"Ar":2088,"ckpt":2089,"(*":2090,"Pre":2091,"enc":2092,"ndarray":2093,"Ġsk":2094,"emory":2095,"Ġtuple":2096,"Ġpipeline":2097,"okenizer":2098,"atio":2099,"ench":2100,"description":2101,"01":2102,"Ġvocab":2103,"Ġgradi":2104,"ED":2105,"gn":2106,"files":2107,"hat":2108,"Ġagent":2109,"lines":2110,"erature":2111,"ĠBase":2112,"face":2113,"pha":2114,"inue":2115,"Ġoriginal":2116,"register":2117,"imp":2118,"ĠTool":2119,"ODE":2120,"matrix":2121,"angle":2122,"optimizer":2123,"Ġoff":2124,"txt":2125,"Ġother":2126,"Ġqu":2127,"ert":2128,"DIR":2129,"Ġconv":2130,"ampling":2131,"prob":2132,"Ġexample":2133,"Ġkeys":2134,"ities":2135,"Ġmode":2136,"Ġfla":2137,"arm":2138,"ĠPy":2139,"Ġenumerate":2140,"Base":2141,"current":2142,"utf":2143,"ift":2144,"mbedding":2145,"Ġnon":2146,"edi":2147,"contiguous":2148,"groups":2149,"common":2150,"rate":2151,"mlp":2152,"Ġneed":2153,"ap":2154,"ref":2155,"Ġbet":2156,"En":2157,"Ġaction":2158,"click":2159,"ssian":2160,"\"),<":2161,"aded":2162,"latt":2163,"Ġ>=":2164,"Ġsuc":2165,"dist":2166,"ĠAuto":2167,"Ġroute":2168,"Ġcalc":2169,"exists":2170,"Diffusion":2171,"CK":2172,"sd":2173,"sm":2174,"Ġmetr":2175,"cker":2176,"embeds":2177,"debug":2178,"99":2179,"ema":2180,"latten":2181,"CT":2182,"deta":2183,"atter":2184,"á´ĩ":2185,"generate":2186,"Ġcall":2187,"tokentype":2188,"Ġvari":2189,"cent":2190,"ampler":2191,"ential":2192,"score":2193,"Ġprefix":2194,"Ġwhen":2195,"Ġvalid":2196,"Ġgiven":2197,"\"))<":2198,"uct":2199,"decoder":2200,"decode":2201,"Ġ\"<":2202,"Ġang":2203,"memory":2204,"Block":2205,"domain":2206,"FA":2207,"Output":2208,"PAGE":2209,"language":2210,"ager":2211,"functional":2212,"Ġinstance":2213,"tensors":2214,"lection":2215,"Ġ(`":2216,"EMPT":2217,"SI":2218,"cum":2219,"llama":2220,"vis":2221,"Ġ100":2222,"EMPTY":2223,"now":2224,"rapp":2225,"edit":2226,"Ġchann":2227,"][":2228,"ï¼":2229,"Ġ10":2230,"Ġfollow":2231,"title":2232,"uation":2233,"Ġzero":2234,"return":2235,"Ġdiff":2236,"Ġexpert":2237,"gather":2238,"fore":2239,"Ġembed":2240,"bytes":2241,"ĠSharded":2242,"ish":2243,"sharded":2244,"ULT":2245,"ĠBrowser":2246,"http":2247,"etune":2248,"04":2249,"14":2250,"=(":2251,"Ġent":2252,"Ġmeta":2253,"parser":2254,"ĠDi":2255,"ĠDef":2256,"static":2257,"ĠFor":2258,"ĠCheck":2259,"Ġexist":2260,"space":2261,"Ġdrop":2262,"usal":2263,"Ġmake":2264,"va":2265,"Ġtr":2266,"Ġroot":2267,"State":2268,"})<":2269,"resh":2270,"Ġany":2271,"probs":2272,"Ġdatasets":2273,"dition":2274,"55":2275,"DO":2276,"Ġcls":2277,"sqrt":2278,"ategy":2279,"ns":2280,"Ġobject":2281,"aussian":2282,"ighb":2283,"Ġsav":2284,"classmethod":2285,"Ġargparse":2286,")))<":2287,"lt":2288,"ðĿ":2289,"Ġform":2290,"Ġ<=":2291,"tim":2292,"exp":2293,"Ġrotation":2294,"_{":2295,"Ġclo":2296,"Conv":2297,"Ġtrans":2298,").__":2299,"Ġnormal":2300,"({":2301,"workers":2302,"mm":2303,"oth":2304,"Ġstat":2305,"first":2306,"lation":2307,"ĠRetro":2308,"Ġstride":2309,"obs":2310,"lector":2311,"Ġsame":2312,"initial":2313,"scheduler":2314,"wo":2315,"Ġ\"\"<":2316,"provider":2317,"cos":2318,"Ġseq":2319,"ĠPro":2320,"handle":2321,"apply":2322,"Ġplaywright":2323,"ĠĠĠĠĠĠĠĠĠĠĠĠĠĠĠĠĠĠĠĠĠĠ":2324,"Ġlat":2325,"\"],":2326,"\"].":2327,"ify":2328,"mul":2329,"pter":2330,"staticmethod":2331,"plot":2332,"sync":2333,"wh":2334,"losses":2335,"Ġ2024":2336,"engine":2337,"},":2338,"Tokenizer":2339,"ĠPIL":2340,"alled":2341,"optim":2342,"ating":2343,"compute":2344,"book":2345,"ĠDataset":2346,"ie":2347,"ible":2348,"Ġá´":2349,"Process":2350,"Ġcontain":2351,"ility":2352,"Ġdropout":2353,"(\"--":2354,"reduce":2355,"FAULT":2356,"MA":2357,".,":2358,"celer":2359,"__(<":2360,"ĠAPI":2361,"ĠCallable":2362,"Ġctx":2363,"dio":2364,"Ġlr":2365,"Ġ2023":2366,"swers":2367,"uid":2368,"Ġtimest":2369,"very":2370,"backward":2371,"igma":2372,"olver":2373,"correct":2374,"Ġ$":2375,"Ġmessages":2376,"100":2377,"episode":2378,"istory":2379,"iple":2380,"vars":2381,"Ġimplement":2382,"oices":2383,"gic":2384,"ustom":2385,"'t":2386,"vided":2387,"Ġseed":2388,"ĠTest":2389,"Ġenv":2390,"Ġapi":2391,"Ġep":2392,"ises":2393,"Ġinitial":2394,"Bu":2395,"flow":2396,"rng":2397,"untime":2398,"umel":2399,"ason":2400,"(\"/":2401,"Ġexec":2402,"\"][\"":2403,"amer":2404,"Ġpatch":2405,"PO":2406,"next":2407,"total":2408,"yn":2409,"Ġinst":2410,"Ġexc":2411,"batches":2412,"Ġvector":2413,"Ġrecord":2414,"CON":2415,"ET":2416,"Ġitem":2417,"Ġquestion":2418,"environ":2419,"metadata":2420,"Ġ7":2421,"Ġconsole":2422,"transformers":2423,"Ġtransformer":2424,"entity":2425,"Ġwhile":2426,"script":2427,"handler":2428,"order":2429,"Ġfiles":2430,"Param":2431,"timesteps":2432,"lambda":2433,"cision":2434,"column":2435,"messages":2436,"client":2437,"frames":2438,"Ġdownload":2439,"cross":2440,"ose":2441,"('--":2442,"build":2443,"Ġmemory":2444,"cur":2445,"opt":2446,"Ġreg":2447,"verage":2448,"Ġmagic":2449,"Ġoptional":2450,"perm":2451,"Loader":2452,"vari":2453,"uture":2454,"andb":2455,"cura":2456,"cast":2457,"color":2458,"graph":2459,"decay":2460,"auto":2461,"inference":2462,"orage":2463,"Ġeps":2464,"ratio":2465,"22":2466,"ful":2467,"ique":2468,"Ġepoch":2469,")]<":2470,"ĠCreate":2471,"Ġquaternion":2472,"}/":2473,"paths":2474,"has":2475,"Ġax":2476,"initialize":2477,"jection":2478,")):<":2479,"çļ":2480,"alf":2481,"chat":2482,"Ġoutputs":2483,"users":2484,"çļĦ":2485,"OT":2486,"ĠAtt":2487,"download":2488,"Gener":2489,"Ġab":2490,"leg":2491,"Ġnext":2492,"older":2493,"acy":2494,"wise":2495,"Ġconvert":2496,"Ġlabel":2497,"ey":2498,"ov":2499,"Ġwidth":2500,"Ġrow":2501,"math":2502,"lap":2503,"qual":2504,"Ġutils":2505,"record":2506,"Ġhandle":2507,"python":2508,"abled":2509,"Ġcontinue":2510,"Ġcaption":2511,"Ġmetadata":2512,"grid":2513,"ĠDefault":2514,"ĠWe":2515,"ared":2516,"tuple":2517,"blem":2518,"ropy":2519,"EX":2520,"ox":2521,"riter":2522,"'])<":2523,"Ġapply":2524,"The":2525,"gt":2526,"sk":2527,"Ġkernel":2528,"Ġ),<":2529,"levant":2530,"ĠGet":2531,"unsqueeze":2532,"Ġfollowing":2533,"11":2534,"Co":2535,"NAM":2536,"ĠSet":2537,"corer":2538,"Ġdist":2539,"Ġdoes":2540,")).":2541,"34":2542,"ries":2543,"orted":2544,"reak":2545,"Ġsystem":2546,"Ġdimension":2547,"itude":2548,"Ġfinal":2549,"\"\\":2550,"fin":2551,"ug":2552,"Ġ--":2553,"rier":2554,"Parallel":2555,"stage":2556,"prod":2557,"event":2558,"har":2559,"lta":2560,"ground":2561,"Ġdecoder":2562,"ĠGener":2563,"Ġmetrics":2564,"De":2565,"Ġsum":2566,"Ġsession":2567,"Ġprovided":2568,"RL":2569,"fter":2570,"Ġlayers":2571,".\"<":2572,"wd":2573,"ĠTask":2574,"Ġexpected":2575,"Ġcompute":2576,"imple":2577,"ODEL":2578,"cs":2579,"std":2580,"stract":2581,"Ġscore":2582,"Ġexp":2583,"ĠGPU":2584,"full":2585,"'].":2586,"50":2587,"umber":2588,"swith":2589,"][\"":2590,"forms":2591,"propert":2592,"lower":2593,"Ġallow":2594,"Ġzip":2595,"dum":2596,"\"][":2597,"curacy":2598,"chedule":2599,"ribute":2600,"68":2601,"Embedding":2602,"Head":2603,"So":2604,"present":2605,")[":2606,"vents":2607,"ates":2608,"tools":2609,"idate":2610,"Path":2611,"fc":2612,"pass":2613,"diction":2614,"ĠTe":2615,"Ġwhere":2616,"KEN":2617,"msg":2618,"uffle":2619,"Str":2620,"Ġtable":2621,"Ġ\"__":2622,"ular":2623,"obj":2624,"To":2625,"Ġsteps":2626,"Ġheight":2627,"GPT":2628,"Ġelement":2629,"},<":2630,"Ġvideo":2631,"style":2632,"(\"\\":2633,"pack":2634,"only":2635,"role":2636,"Ġsin":2637,"exec":2638,"Ġarguments":2639,"Ġencoding":2640,"avg":2641,"Ġbutton":2642,"++":2643,"freq":2644,"EY":2645,"Ġpathlib":2646,"20":2647,"AB":2648,"Form":2649,"impl":2650,"cted":2651,"Ġsingle":2652,"masked":2653,"coded":2654,"experts":2655,"Ġpipe":2656,"AD":2657,"numel":2658,"logging":2659,"mplement":2660,"conne":2661,"Ġorder":2662,"ĠTO":2663,"Ġpoints":2664,"offsets":2665,"ora":2666,"TOKEN":2667,"ASE":2668,"verse":2669,"Ġtwo":2670,"Ġsq":2671,"dirname":2672,"Ġman":2673,"ada":2674,"Ġfilename":2675,"flatten":2676,"Ġtre":2677,"sin":2678,"yz":2679,"Context":2680,"gress":2681,"Ġiteration":2682,"armup":2683,"ĠPre":2684,"Ġprob":2685,"medi":2686,"epochs":2687,"An":2688,"Ġpred":2689,"Ġraw":2690,"ified":2691,"bit":2692,"padding":2693,"struction":2694,"Test":2695,"Ġ2022":2696,"ummy":2697,"cript":2698,"non":2699,"height":2700,"Ġjo":2701,"feature":2702,"Attention":2703,"arange":2704,"fi":2705,"ĠMo":2706,"afet":2707,"MODEL":2708,"Ġincl":2709,"Ġsrc":2710,"long":2711,"play":2712,"ĠĠĠĠĠĠĠĠĠĠĠĠĠĠĠĠĠĠĠĠĠĠĠĠĠĠĠĠĠĠĠĠĠĠĠĠĠĠĠĠ":2713,"host":2714,"Megatron":2715,"Ġfp":2716,"channel":2717,"Ġ\"\\":2718,"quential":2719,"choice":2720,"legacy":2721,"KEY":2722,"Un":2723,"[:-":2724,"ĠHugging":2725,"84":2726,"Ġred":2727,"Ġselect":2728,"direct":2729,"Ġobs":2730,"unch":2731,"etch":2732,"CHE":2733,"Text":2734,"YPE":2735,"kpt":2736,"src":2737,"Ġbreak":2738,"ĠMegatron":2739,"Ġfilter":2740,"30":2741,"fer":2742,"micro":2743,"Ġ{'":2744,"clip":2745,"manual":2746,"15":2747,"Ġ```":2748,"moe":2749,"gpu":2750,"sys":2751,"unct":2752,"cessed":2753,"(\".":2754,"ngram":2755,"Ġ16":2756,"permute":2757,"Po":2758,"browser":2759,"lear":2760,"peed":2761,"__\":<":2762,"tern":2763,"reshold":2764,"istr":2765,":%":2766,"bench":2767,"option":2768,"original":2769,"Ġ(\"":2770,"Ġupdate":2771,"TS":2772,"case":2773,"eff":2774,"Ġngram":2775,"Ġtests":2776,"Ġassign":2777,"cv":2778,"eg":2779,"serv":2780,"detach":2781,"bone":2782,"etuning":2783,"cut":2784,"pand":2785,":\\":2786,"Ġ['":2787,"Ġlin":2788,"Ġtypes":2789,"rs":2790,"entropy":2791,"Ġdescription":2792,"Ġmock":2793,"BAL":2794,"stop":2795,"Ġcur":2796,"Ġclean":2797,"etime":2798,"ather":2799,"trf":2800,"FIG":2801,"Ġbased":2802,"udent":2803,"(_":2804,"Float":2805,"Transformer":2806,"Ġdat":2807,"inv":2808,"ans":2809,"Ġgetattr":2810,"ĠRes":2811,"generator":2812,"Ġpartial":2813,"offset":2814,"################################":2815,"single":2816,"reward":2817,"depth":2818,"Ġign":2819,"ĠInc":2820,"Ġword":2821,"Ġtemperature":2822,"Ġpla":2823,"ank":2824,"Ġdeta":2825,":.":2826,"send":2827,"raises":2828,"ages":2829,"ĠPa":2830,"stream":2831,"ools":2832,"Exception":2833,"Sh":2834,"sign":2835,"Ġbody":2836,"Ġ(...,":2837,"plan":2838,"chunks":2839,"positions":2840,"Implement":2841,"Ġstream":2842,"parent":2843,"Ġ},<":2844,"amera":2845,"segment":2846,"uring":2847,"unter":2848,"adcast":2849,"headers":2850,"Ġchange":2851,"Parameter":2852,"Ġtimers":2853,"ï¼Į":2854,"NAME":2855,"sim":2856,"remove":2857,"Ġscheduler":2858,"Ġgr":2859,"Request":2860,"Face":2861,"tree":2862,"rary":2863,"arr":2864,"urse":2865,"Ġtasks":2866,"LOBAL":2867,"ributes":2868,"Mask":2869,"Ġversion":2870,"ord":2871,"Cont":2872,"jsonl":2873,"motion":2874,"metrics":2875,"ene":2876,"hether":2877,"amed":2878,"Ġtensors":2879,"property":2880,"Fore":2881,"uch":2882,"Ġ1024":2883,"words":2884,"Ġalpha":2885,"rotation":2886,"Ġangle":2887,"TH":2888,"final":2889,"ik":2890,"Éª":2891,"Ġ\".":2892,"irs":2893,"ighbor":2894,"WOR":2895,"]):<":2896,"Ġfind":2897,"masks":2898,"bert":2899,"roadcast":2900,"Ġkwargs":2901,"ME":2902,"iteration":2903,"Logger":2904,"ĠTODO":2905,"ĠLo":2906,"ctionary":2907,"truth":2908,"**/":2909,"Ġ&":2910,"Ġafter":2911,"lections":2912,"Ġrepresent":2913,"pytest":2914,"Ġblocks":2915,"Ġscaled":2916,"md":2917,"pare":2918,"Ġaverage":2919,"Ġckpt":2920,"idual":2921,"ĠLI":2922,"Ġthan":2923,"struct":2924,"Response":2925,"ĠHuggingFace":2926,")}":2927,"API":2928,"master":2929,"prompts":2930,"eries":2931,"Ġ:,":2932,"caten":2933,"tokentypes":2934,"Ġtmp":2935,"odal":2936,"Ġfailed":2937,"Ġgradient":2938,"selector":2939,"Ġinference":2940,"Ġcondition":2941,"Ġbuffer":2942,"letion":2943,"ĠShardedTensor":2944,"jang":2945,"Ġfield":2946,"Ġ'{":2947,"vious":2948,"Ġarray":2949,"questions":2950,"Ġquaternions":2951,"tings":2952,"LP":2953,"RI":2954,"blob":2955,"eded":2956,"imum":2957,"web":2958,"DP":2959,"dest":2960,"ĠFla":2961,"Ġbefore":2962,"Ġbucket":2963,"rapper":2964,"Ġepisode":2965,"jango":2966,"wer":2967,"edError":2968,"Ġplt":2969,"sizes":2970,"Ġsent":2971,"ten":2972,"inst":2973,"chain":2974,"Ġparse":2975,"activation":2976,"ĠType":2977,"ĠNotImplement":2978,"ledge":2979,"Ġdiffusers":2980,"aut":2981,"ĠX":2982,"Ġinfo":2983,"Ġoptim":2984,"dataclass":2985,"__)<":2986,"ĠRot":2987,"ĠCom":2988,"Ġvalidation":2989,"Ġprompts":2990,"timestamp":2991,"ĠNotImplementedError":2992,"`<":2993,"just":2994,"CONFIG":2995,"adapter":2996,"Ġgt":2997,"location":2998,"hook":2999,"rap":3000,"ĠCLI":3001,"queue":3002,"Ġmulti":3003,"randn":3004,"PL":3005,"pri":3006,"Ġids":3007,"ATE":3008,"Set":3009,"ency":3010,"peat":3011,"constant":3012,"Ġthen":3013,"globals":3014,"Col":3015,"Ġho":3016,"Ġstd":3017,"ments":3018,"PRO":3019,"fra":3020,"Ġconfiguration":3021,"aiss":3022,"LayerNorm":3023,"ops":3024,"system":3025,"Ġquat":3026,"Ġlicense":3027,"Ġ[`":3028,"barrier":3029,"Ġfeature":3030,"Ġtreetune":3031,"05":3032,"Ġmerge":3033,"pool":3034,"Ġduring":3035,"issing":3036,"store":3037,"rices":3038,"processor":3039,"Ġpositions":3040,"%%":3041,"Ġits":3042,"hel":3043,"Ġcustom":3044,"ckle":3045,"Ġdepth":3046,"Ġextract":3047,"Ġignore":3048,"Function":3049,"ake":3050,"Ġsoftmax":3051,"afety":3052,"Ca":3053,"qkv":3054,"ortcut":3055,"lient":3056,"pop":3057,"OP":3058,"alog":3059,"diff":3060,"loads":3061,"png":3062,"Ġ9":3063,"Ġext":3064,"Ġpredict":3065,"ness":3066,"ĠConvert":3067,"celerate":3068,"36":3069,"Ġprod":3070,"Ġmatrices":3071,"'):<":3072,"ssed":3073,"É´":3074,"session":3075,"Ġfull":3076,"edge":3077,"Ġmore":3078,"ĠOpen":3079,"ĠNote":3080,"Processor":3081,">}<":3082,"hf":3083,"mit":3084,"true":3085,"Ġu":3086,"ĠDE":3087,"Ġ_,":3088,"library":3089,"Ġindexed":3090,"Ġcolumn":3091,"area":3092,"'''<":3093,"CO":3094,"options":3095,"delete":3096,"chedul":3097,"á´ı":3098,"acc":3099,"Ġcollections":3100,"Ġhasattr":3101,"Factory":3102,"examples":3103,"Ġtree":3104,"annot":3105,"ready":3106,"Ġsaved":3107,"80":3108,"Dropout":3109,"Ob":3110,"find":3111,"gelu":3112,"Ġcre":3113,"Ġcase":3114,"Ġbin":3115,"Ġ'.":3116,"Ġllm":3117,"ĠMult":3118,"Ġpretrained":3119,"ĠQu":3120,"Ġclient":3121,"Me":3122,"gradi":3123,"uter":3124,"dictions":3125,"expected":3126,"olve":3127,"Ġacross":3128,"sql":3129,"tmp":3130,"Ġtitle":3131,"lava":3132,"half":3133,"side":3134,"Ġæ":3135,"Ġfew":3136,"Ġ\",":3137,"Ġmicro":3138,"Ġemb":3139,"Parser":3140,"loaded":3141,"ĠĠĠĠĠĠĠĠĠĠĠĠ":3142,"Ġremove":3143,"Ġsign":3144,"Ġsupported":3145,"Agent":3146,"ĠLayer":3147,"Ġyour":3148,"Ch":3149,"Ġau":3150,"Ġpack":3151,"ĠID":3152,"unctools":3153,"CE":3154,"ars":3155,"answers":3156,"ĠDe":3157,"================================":3158,"ĠTransformerConfig":3159,"ĠSample":3160,"Ġargument":3161,"ween":3162,"metric":3163,"Ġoffset":3164,"ait":3165,"ĠAdd":3166,"Ġradi":3167,"TER":3168,"`,":3169,"few":3170,"oid":3171,"pg":3172,"Ġap":3173,"Ġdataclasses":3174,"Ġkeepdim":3175,"File":3176,"ĠZ":3177,"Ġexpect":3178,"gative":3179,"catenate":3180,"pdf":3181,"itialize":3182,"Ġfunctools":3183,"Ġwrite":3184,"istant":3185,"Ġevaluation":3186,"IM":3187,"ili":3188,"roll":3189,"cope":3190,"ical":3191,"Ġpoint":3192,"fferent":3193,"Ġ\\\\":3194,"ification":3195,"Ġdomain":3196,"Ġwas":3197,"make":3198,"outputs":3199,"Ġchunks":3200,"ĠStep":3201,"Ġactivation":3202,"Params":3203,"FloatTensor":3204,"Get":3205,"})":3206,"uman":3207,"ables":3208,"grads":3209,"Ġheaders":3210,"Ġmultiple":3211,"uggingface":3212,"email":3213,"Ġdatetime":3214,"folder":3215,"aly":3216,"Ġsorted":3217,"ensure":3218,"ĠCol":3219,"shift":3220,"Ġcount":3221,"joint":3222,"fill":3223,"ui":3224,"warning":3225,"Ġwandb":3226,"Ġmapping":3227,"Ġsearch":3228,"ields":3229,"Ġchannel":3230,"history":3231,"exit":3232,"Ġgenerated":3233,"DEFAULT":3234,"nowledge":3235,"ci":3236,"Ġreplace":3237,"Ġscores":3238,"Ġopt":3239,"quant":3240,"leton":3241,"ĠDataLoader":3242,"Ġcalculate":3243,">_":3244,"clean":3245,"free":3246,"clone":3247,"Ġretrie":3248,"pend":3249,"xiv":3250,"ĠAgent":3251,"ĠCor":3252,"Ġdictionary":3253,"lush":3254,"DAT":3255,"Ġver":3256,"ĠApp":3257,"Ġ'''":3258,"bucket":3259,"checkpointing":3260,"ĠConfig":3261,"Arguments":3262,"ative":3263,"roy":3264,"arge":3265,"program":3266,"Ġrender":3267,"factory":3268,"Ġinitialize":3269,"Ġlevel":3270,"Ġscript":3271,"MS":3272,"pan":3273,"ested":3274,"Ġhere":3275,"prev":3276,"Ġcomput":3277,"Ġ{}'.":3278,"requires":3279,"Ġavailable":3280,"Object":3281,"CLI":3282,"cre":3283,"warmup":3284,"console":3285,"buf":3286,"Ġteam":3287,"03":3288,"ass":3289,"ress":3290,"ĠTrain":3291,"Ġ'<":3292,"Ġjnp":3293,"Ġsetup":3294,"partition":3295,"istry":3296,"beta":3297,"Ġvi":3298,"arxiv":3299,"timeout":3300,"tracker":3301,"document":3302,"Ġmlp":3303,"ĠCh":3304,"actions":3305,"Ġ32":3306,"á´Ľ":3307,"Ġ{}\".":3308,"Ġbetween":3309,"]).":3310,"Ġsampling":3311,"ĠĠĠĠĠĠĠĠĠĠĠĠĠĠĠĠĠĠĠĠĠĠĠĠĠĠĠĠĠĠĠ":3312,"Ġtimeout":3313,"Ġspecified":3314,"Ġrunning":3315,"Ġsuccess":3316,"hash":3317,"(**":3318,"element":3319,"left":3320,"Ġreal":3321,"shared":3322,"Ġfeatures":3323,":]<":3324,"iform":3325,"~~":3326,"Ġå":3327,"Ġview":3328,"inner":3329,"Ġref":3330,"entry":3331,"convert":3332,"ĠLLM":3333,"keleton":3334,"Ġlm":3335,"****":3336,"}{":3337,"directory":3338,"Ġpython":3339,"patches":3340,"interval":3341,"icrosoft":3342,"Ġskip":3343,"'],":3344,"Frame":3345,"This":3346,"curr":3347,"ÊĢ":3348,"Ġprogram":3349,"Ġencoded":3350,"ĠLICENSE":3351,"Le":3352,"Ġshuffle":3353,"foo":3354,"ĠPython":3355,"FO":3356,"]))<":3357,"gin":3358,"Ġold":3359,"Ġdone":3360,"Ġdataclass":3361,"imeout":3362,"Ġsegment":3363,"ĠUp":3364,"ĠError":3365,"Ġsome":3366,"arguments":3367,"Ġlatent":3368,"\"[":3369,"merge":3370,"stom":3371,"ableDiffusion":3372,"tag":3373,"custom":3374,"Ġcache":3375,"vironment":3376,"ked":3377,"Ġfree":3378,"extend":3379,"Ġparameter":3380,"itional":3381,"Ġneg":3382,"required":3383,"Not":3384,"bot":3385,"}'":3386,"router":3387,"ĠNumber":3388,"tokenize":3389,"Ġbuil":3390,"Ġmeans":3391,"ĠTeam":3392,"Value":3393,"eed":3394,"mport":3395,"Ġfix":3396,"Ġwithout":3397,"openai":3398,"none":3399,"sup":3400,"}:":3401,"Ġutil":3402,"ĠMicrosoft":3403,"licate":3404,"Qu":3405,"_,":3406,"dp":3407,"por":3408,"Ġcrop":3409,"formation":3410,"Ġnoise":3411,"UM":3412,"Ġbs":3413,"docs":3414,"256":3415,"Ġcurr":3416,"96":3417,"megatron":3418,"Ġoper":3419,"Ġnames":3420,"lative":3421,"stats":3422,"Ġconvention":3423,"Ġclosd":3424,"destroy":3425,"18":3426,"Check":3427,"zy":3428,"reason":3429,"Ġaff":3430,"Ġsigma":3431,"Ġpool":3432,"asic":3433,"pytorch":3434,"Ġdir":3435,"ĠOutput":3436,"dims":3437,"mov":3438,"ummary":3439,"scaling":3440,"Ġchannels":3441,"Ġngrams":3442,"USE":3443,"flat":3444,"eno":3445,"mail":3446,"infos":3447,"checkpoints":3448,"Ġ``":3449,"Ġtools":3450,"Ġindi":3451,"Ġbeta":3452,"startswith":3453,"quaternion":3454,"Ġrep":3455,"Ġsure":3456,"lice":3457,"Ġalready":3458,"Encoder":3459,"ĠFlax":3460,"77":3461,"UD":3462,"hub":3463,"Ġedit":3464,"Ġpd":3465,"board":3466,"={\"":3467,"after":3468,"flag":3469,"Ġfinetuning":3470,"Ġflag":3471,"Ġtp":3472,"Ġwarning":3473,"ability":3474,"rieval":3475,"gumentParser":3476,"ĠIndex":3477,"leted":3478,"Ġgroups":3479,"Generator":3480,"stractmethod":3481,"kernel":3482,"expand":3483,"threshold":3484,"strategy":3485,"Ġpassed":3486,"neg":3487,"Invalid":3488,"Reg":3489,"center":3490,"25":3491,"IG":3492,"}\",":3493,"Ġter":3494,"ensions":3495,"ĠLoad":3496,"ĠWh":3497,"Ġgenerator":3498,"visible":3499,"ĠText":3500,"Ġlinear":3501,"oute":3502,"aml":3503,"ĠSequence":3504,"Ġ64":3505,"Ġdataloader":3506,"seen":3507,"choices":3508,"enter":3509,"Ġstrict":3510,"astype":3511,"small":3512,"usalLM":3513,"mediate":3514,"ĠCorpor":3515,"ĠCorporation":3516,"done":3517,"gb":3518,"sg":3519,"xyz":3520,"Ġlet":3521,"Ġinformation":3522,"Ġschedule":3523,"Ġloaded":3524,"uccess":3525,"ifier":3526,":\",":3527,"UN":3528,"mapping":3529,"Ġchoices":3530,"Ġcolor":3531,"future":3532,"encoding":3533,"itive":3534,"Ġrotations":3535,"GLOBAL":3536,"Load":3537,"Name":3538,"dot":3539,"hot":3540,"sigma":3541,"inov":3542,"reset":3543,"alpha":3544,"Ġgrid":3545,"Ġtargets":3546,"Ġqueries":3547,"Ġstatus":3548,"ĠDefaults":3549,"Ġlike":3550,"ork":3551,"alys":3552,"lex":3553,"ĠEn":3554,"Ġyield":3555,"tests":3556,"Ġbetas":3557,"CHECK":3558,"alysis":3559,">):<":3560,"nown":3561,"Ġtak":3562,"Ġstyle":3563,"ĠImport":3564,"latitude":3565,"audio":3566,"Ġbackward":3567,"Build":3568,"#<":3569,"cing":3570,"yper":3571,"show":3572,"lengths":3573,"iterator":3574,"callback":3575,"Ġinstall":3576,"setup":3577,"project":3578,"Sequential":3579,"ĠĠĠĠĠĠĠĠĠĠĠĠĠĠĠĠĠĠĠĠĠĠĠĠĠĠ":3580,"Ġtrunc":3581,"finish":3582,"light":3583,"Ġflush":3584,"lism":3585,"Ġrate":3586,"Ġstates":3587,"Ġqkv":3588,"Ġ512":3589,"bins":3590,"Trained":3591,"13":3592,"vit":3593,"ym":3594,"pace":3595,"enum":3596,"allen":3597,"Ġ\"--":3598,"unet":3599,"Ġevent":3600,"Ġrotary":3601,"({\"":3602,"CausalLM":3603,"With":3604,"kl":3605,"optional":3606,"render":3607,"andom":3608,"Ġ1000":3609,"ForCausalLM":3610,"Sampler":3611,"pers":3612,"sampling":3613,"ts":3614,"delta":3615,"Ġ''":3616,"Ġpickle":3617,"Ġdisable":3618,"Ġground":3619,"Ġ*<":3620,"allelism":3621,"Ġprevious":3622,"Preprocessing":3623,"kedirs":3624,"try":3625,"Ġcla":3626,"Ġglob":3627,"Ġloc":3628,"Ġranks":3629,"78":3630,">\"\"\"":3631,"dec":3632,"Ġfreq":3633,"assert":3634,"tolist":3635,"Ġtorchvision":3636,"Ġmap":3637,"Ġcos":3638,"Ġrng":3639,"stride":3640,"Ġshift":3641,"iteral":3642,"transforms":3643,"Ġimplementation":3644,"ect":3645,"ks":3646,"lue":3647,"unit":3648,"Ġdifferent":3649,"ĠIN":3650,"jector":3651,"mock":3652,"Ġtransforms":3653,"Ġopenai":3654,"dumps":3655,"Ġinclude":3656,"Ġlines":3657,"æķ":3658,"ilar":3659,"texts":3660,"Ġstage":3661,"Ġtokentype":3662,"END":3663,"Ġvalidate":3664,"ĠBrowserContext":3665,"512":3666,"tp":3667,"Ġensure":3668,"enable":3669,"repeat":3670,"edDict":3671,"Ġmissing":3672,"Ġnet":3673,"izers":3674,"unic":3675,"tocol":3676,"Ġ255":3677,"resolution":3678,"Ġempty":3679,"urls":3680,"Ġpaths":3681,"compile":3682,"--------------------------------":3683,"servation":3684,"CA":3685,"âĶ":3686,"Ġge":3687,"parameter":3688,"utor":3689,"concatenate":3690,"Ġjust":3691,"Ġneeded":3692,"normalize":3693,":]":3694,"PP":3695,"PAT":3696,"Ġhandler":3697,"ĠMeta":3698,"worker":3699,"ĠExample":3700,"/{":3701,"19":3702,"Man":3703,"schedul":3704,"logs":3705,"mpl":3706,"Ġconne":3707,"Ġ200":3708,"Ġproject":3709,"pipe":3710,"temperature":3711,"Loss":3712,"PreprocessingConfig":3713,"Ada":3714,"Meta":3715,"Ġcalled":3716,"Ġnow":3717,"projection":3718,"Ġbeen":3719,"buil":3720,"á´Ģ":3721,"obot":3722,"Ġregister":3723,"'))<":3724,"bits":3725,"zip":3726,"Ġauto":3727,"Ġreset":3728,"Ġio":3729,"exception":3730,"())":3731,"ffers":3732,"bose":3733,"allenge":3734,"17":3735,"LD":3736,"ZE":3737,"bf":3738,"Ġrelevant":3739,"ENT":3740,"idxs":3741,"objects":3742,"ĠDEFAULT":3743,"Spec":3744,"TRA":3745,"bers":3746,"ater":3747,"Ġstop":3748,"ĠPer":3749,"aved":3750,"Ġevaluate":3751,"Ġcommon":3752,"06":3753,"Server":3754,"redirect":3755,"deg":3756,"imodal":3757,"cook":3758,"pped":3759,"Ġjax":3760,"Ġgeneration":3761,"24":3762,"Torch":3763,"åı":3764,"Ġtheir":3765,"Ġdjango":3766,"Ġperform":3767,"1024":3768,"Key":3769,"`]":3770,"lens":3771,"sing":3772,"ont":3773,"real":3774,"leep":3775,"Ġforce":3776,"(\"#":3777,"../":3778,"scatter":3779,"Input":3780,"complete":3781,"Ġcontaining":3782,"CL":3783,"`.<":3784,"mbed":3785,"ÊŁ":3786,"Ġlight":3787,"Ġmasked":3788,"UDA":3789,"Ġlibrary":3790,"Ġfunc":3791,"anh":3792,"allback":3793,"ĠMLP":3794,"Ġloader":3795,"Ġcast":3796,"trace":3797,"ĠĠĠĠĠĠĠĠĠĠĠĠĠĠĠĠĠĠĠĠĠĠĠĠĠĠĠĠĠ":3798,"Ġmethods":3799,"manager":3800,"gradient":3801,")),":3802,"fid":3803,"{}":3804,"lem":3805,"getitem":3806,"conds":3807,"problem":3808,"ĠIter":3809,"caption":3810,"ignore":3811,"Ġsentence":3812,"ĠRotation":3813,"`):<":3814,"Ġtk":3815,"educe":3816,"Ġenc":3817,"need":3818,"Index":3819,"123":3820,"-<":3821,"can":3822,"expect":3823,"ulation":3824,"getLogger":3825,"ride":3826,"ĠRoute":3827,"locity":3828,"rapped":3829,"').":3830,"rant":3831,"Ġloop":3832,"makedirs":3833,"Ġ20":3834,"Ġdisc":3835,"respon":3836,"ĠFile":3837,"ĠĠĠĠĠĠĠĠĠĠĠĠĠĠĠĠĠĠĠĠĠĠĠĠĠĠĠĠĠĠĠĠĠĠĠĠĠĠĠĠĠĠĠĠĠĠĠĠ":3838,"Ġ128":3839,"Ġgradients":3840,"Ġangles":3841,"PA":3842,"Run":3843,"sec":3844,"getenv":3845,"predict":3846,"Ġthread":3847,"ĠGaussian":3848,"retrie":3849,"Ġcommand":3850,"Comp":3851,"Sharded":3852,"!]":3853,");<":3854,"ID":3855,"SC":3856,"`):":3857,"fused":3858,"lst":3859,"relevant":3860,"gest":3861,"Ġreward":3862,"Ġreference":3863,"Ġps":3864,"Ġgo":3865,"plits":3866,"stribution":3867,"ĠInput":3868,"Ġclip":3869,"Ġlicensed":3870,"æķ°":3871,"camera":3872,"ient":3873,"ulf":3874,"Ġtrue":3875,"ĠĠĠĠĠĠĠĠĠ":3876,"Ġsm":3877,"difi":3878,"Ġboth":3879,"Ġlosses":3880,"Ġdel":3881,"Ġprecision":3882,"Ġinteg":3883,"Result":3884,"Ġsaving":3885,"Message":3886,"HE":3887,"Tuple":3888,"ib":3889,"ice":3890,"xic":3891,"Ġheads":3892,"insert":3893,"ended":3894,"alt":3895,"lip":3896,"(\"**/":3897,"Ġcover":3898,"pix":3899,"Ġenvironment":3900,"Ġmasks":3901,"Ġadjust":3902,"ĠDiffusion":3903,"WORK":3904,"hello":3905,"ĠColumn":3906,"200":3907,"Mult":3908,"uest":3909,"coll":3910,"ĠPo":3911,"ĠOllama":3912,"ĠUse":3913,"accuracy":3914,"command":3915,"uidance":3916,"::":3917,">__":3918,"Optimizer":3919,"Ġ).":3920,"pac":3921,"allow":3922,"Ġfused":3923,"meg":3924,"Ġanswers":3925,"\"]:<":3926,"latent":3927,"Ġquant":3928,"Policy":3929,">]<":3930,"BO":3931,"MScheduler":3932,"every":3933,"tri":3934,"Ġmy":3935,"ranch":3936,"(\"<":3937,"Ġwithin":3938,"Ġprovide":3939,"control":3940,"account":3941,"special":3942,"Ġtrack":3943,"Manager":3944,"URL":3945,"jpg":3946,"Ġsim":3947,"Ġcons":3948,"Ġconstant":3949,"ĠPlat":3950,"Ġunique":3951,"rotary":3952,"åĪ":3953,"Ġfast":3954,"Ġoption":3955,"Ġwant":3956,"ĠInitialize":3957,"Ġhash":3958,"cloud":3959,"nodes":3960,"fully":3961,"GB":3962,"Mo":3963,"SON":3964,"\\<":3965,"hparams":3966,"sleep":3967,"orig":3968,"arn":3969,"otion":3970,"Ġhistory":3971,"Ġdatabase":3972,"ĠOr":3973,"lica":3974,"============":3975,"offload":3976,"Ġtimesteps":3977,"Ġexecution":3978,"Ġpredicted":3979,"PLE":3980,"stable":3981,"Ġ((":3982,"Ġdf":3983,"Ġlengths":3984,"ĠMulti":3985,"IO":3986,"Id":3987,"Node":3988,"cam":3989,"fulf":3990,"scorer":3991,"zen":3992,"urer":3993,"mes":3994,"unique":3995,"Ġhf":3996,"ell":3997,"\"])":3998,"Ġrole":3999,"rypt":4000,"No":4001,"Ġoptions":4002,"ĠTYPE":4003,"Ġdelta":4004,"prec":4005,"Ġsend":4006,"Ġsecond":4007,"Ġchat":4008,"ESS":4009,"noise":4010,"42":4011,"Open":4012,"User":4013,"_<":4014,"_)<":4015,"clock":4016,"Ġstruct":4017,"ĠIt":4018,"Ġthere":4019,"Ġlaunch":4020,"\")).":4021,"mooth":4022,"Ġadded":4023,"autograd":4024,"CHECKING":4025,"*,":4026,"SS":4027,"]]<":4028,"ha":4029,"nMask":4030,"Ġ],<":4031,"section":4032,"Ġ\"_":4033,"idget":4034,"()[":4035,"Ġgraph":4036,"Ġparallelism":4037,"epspeed":4038,"mote":4039,"ĠAutoTokenizer":4040,"VER":4041,"æľ":4042,"loop":4043,"Ġmsg":4044,"Ġreturns":4045,"Ġexists":4046,"shapes":4047,"cepted":4048,"requests":4049,"Strategy":4050,"Ġfewshot":4051,"FT":4052,"have":4053,"oo":4054,"change":4055,"ĠĠĠĠĠĠĠĠĠĠĠĠĠ":4056,"Ġnested":4057,"Ġprovider":4058,"Ġprev":4059,"nner":4060,"Ġbytes":4061,"Ġpop":4062,"anguage":4063,"Ġloading":4064,"summ":4065,"Ġcorrespon":4066,"randint":4067,"Ġexamples":4068,"ighbors":4069,"Ġnormalize":4070,"ĠOpenAI":4071,"Ġwarnings":4072,"nMaskType":4073,"45":4074,"rim":4075,"éĢ":4076,"Ġport":4077,"enabled":4078,"Ġinf":4079,"exist":4080,"ilter":4081,"ĠRep":4082,"ĠBu":4083,"Ġbatches":4084,"acher":4085,"ĠAutoModel":4086,"ynam":4087,"iliates":4088,"Ġaffiliates":4089,"fy":4090,"knowledge":4091,"ä»":4092,"æĺ":4093,"resize":4094,"Ġfunctions":4095,"topk":4096,"timers":4097,"skip":4098,"planation":4099,"SH":4100,"VA":4101,"bet":4102,"pc":4103,"rgb":4104,"tic":4105,"}\"":4106,"åĲ":4107,"alize":4108,"ĠAn":4109,"home":4110,"multi":4111,"Trainer":4112,"variance":4113,"dump":4114,"Ġreduce":4115,"ĠImportError":4116,"jit":4117,"velocity":4118,"Ġshutil":4119,"checker":4120,"INFO":4121,"accum":4122,"frac":4123,"\"),":4124,"Dis":4125,"FF":4126,"LLM":4127,"Please":4128,"Ġ\"\")<":4129,"Ġcore":4130,"validation":4131,"ĠĠĠĠĠĠĠĠĠĠĠĠĠĠĠĠĠĠĠĠĠ":4132,"Ġexit":4133,"calc":4134,"Ġrag":4135,"Ġlearning":4136,"ĠĠĠĠĠĠĠĠĠĠĠĠĠĠĠĠĠĠĠĠĠĠĠĠĠĠĠĠ":4137,"Ġtemplate":4138,"ĠCompute":4139,"equal":4140,"ven":4141,"pay":4142,"rozen":4143,"Ġcv":4144,"tasks":4145,"89":4146,"Class":4147,"PUT":4148,"ger":4149,"oled":4150,"sampler":4151,"Ġprag":4152,"Ġet":4153,"predictions":4154,"Ġshard":4155,"Ġprobs":4156,"Ġconfigure":4157,"backbone":4158,"ASS":4159,"Ġdefaults":4160,"flax":4161,"Ġpragma":4162,"\"}":4163,"MPT":4164,"RN":4165,"]):":4166,"dup":4167,"ĠCont":4168,"subject":4169,"condition":4170,"Ġjoints":4171,"Ġ```<":4172,"Ġ'''<":4173,"uestion":4174,"Th":4175,"Ve":4176,"fname":4177,"kdir":4178,"arrange":4179,"ĠĠĠĠĠĠĠĠĠĠ":4180,"Ġmu":4181,"Ġreason":4182,"perim":4183,"Ġattribute":4184,"ĠConv":4185,"Content":4186,"TP":4187,"TY":4188,"Val":4189,"relu":4190,"ĠNOT":4191,"lended":4192,"epcopy":4193,"Ġdesc":4194,"ĠDo":4195,"ĠUNet":4196,"ArgumentParser":4197,"Ġproduct":4198,"Ġappro":4199,"Ġclasses":4200,"'{":4201,"Te":4202,"ire":4203,"simple":4204,"vq":4205,"Ġbroadcast":4206,"Ġlow":4207,"Ġ*=":4208,"listdir":4209,"Ġresidual":4210,"rows":4211,"Ġpolicy":4212,"ĠĠĠĠĠĠĠĠĠĠĠĠĠĠĠĠĠĠĠĠĠĠĠĠĠĠĠĠĠĠĠĠĠĠ":4213,"generation":4214,"Forward":4215,"DiffusionPipeline":4216,"EXT":4217,"password":4218,"connection":4219,"Ġsql":4220,"Ġdetails":4221,"mega":4222,"fulfill":4223,"Event":4224,"]['":4225,"bn":4226,"gen":4227,"gab":4228,"ick":4229,"padded":4230,"Ġmegab":4231,"termin":4232,"'],<":4233,"Return":4234,"PORT":4235,"SIZE":4236,"times":4237,"oxel":4238,"Ġmerged":4239,"Ġsmall":4240,"TES":4241,"].<":4242,"crop":4243,"eet":4244,"ru":4245,"xx":4246,"repo":4247,"distance":4248,"Ġpers":4249,"Ġ15":4250,"ĠAda":4251,"abstractmethod":4252,"trainer":4253,"lication":4254,"STR":4255,"Ġretro":4256,"Ġactual":4257,"rtual":4258,"initialized":4259,"MegatronModule":4260,"Ġlightrag":4261,"Found":4262,"Hel":4263,"]:":4264,"}')<":4265,"åĬ":4266,"thing":4267,"Condition":4268,"blems":4269,"joints":4270,"Ġneighbor":4271,"Ġaccuracy":4272,"Ġmoe":4273,"gmentation":4274,"alculate":4275,"episodes":4276,"BASE":4277,"Chat":4278,"Field":4279,"NUM":4280,"ws":4281,"wrap":4282,"yd":4283,"âĢ":4284,"Ġct":4285,"chron":4286,"Ġsummary":4287,"Ġplot":4288,"ĠMe":4289,"matmul":4290,"patial":4291,"Ġfactor":4292,"uffix":4293,"encoded":4294,"untimeError":4295,"ĠLayerNorm":4296,"384":4297,"lim":4298,"success":4299,"mester":4300,"Ġ({":4301,"Ġgather":4302,"Ġhand":4303,"Ġhigh":4304,"jectory":4305,"initialization":4306,"ynchron":4307,"String":4308,"\"}<":4309,"07":4310,"ROR":4311,"qpos":4312,"sl":4313,"tk":4314,"ually":4315,"wandb":4316,"gex":4317,"Ġ\"{":4318,"ported":4319,"disc":4320,"mel":4321,"ilon":4322,"ilities":4323,"Ġdeno":4324,"Ġhparams":4325,"Ġdecay":4326,"Ġchoice":4327,"Ġ:]<":4328,"Ġpadded":4329,"Ġsubprocess":4330,"ĠStableDiffusion":4331,"uthor":4332,"Ġnodes":4333,"StateDict":4334,"osen":4335,"ugh":4336,"Add":4337,"Optional":4338,"Retro":4339,"]+":4340,"fetch":4341,"ãĢ":4342,"ords":4343,"Ġabs":4344,"dialog":4345,"uniform":4346,"Ġexception":4347,"ĠEmbedding":4348,"ators":4349,"Inter":4350,"ĠKey":4351,"runner":4352,"ynamic":4353,"EL":4354,"]]:<":4355,"ices":4356,"mt":4357,"storage":4358,"Ġ##":4359,"olute":4360,"()))<":4361,"ĠAl":4362,"ĠModule":4363,"mentum":4364,"Ġrequire":4365,"RED":4366,"collection":4367,"active":4368,"uced":4369,"lastic":4370,"Any":4371,"]],":4372,"dense":4373,"huggingface":4374,"uint":4375,"oriz":4376,"Ġind":4377,"Ġpp":4378,"Ġthey":4379,"ĠLiteral":4380,"ĠSo":4381,"atting":4382,"rich":4383,"outer":4384,"Ġengine":4385,"Ġaccount":4386,"binary":4387,"MAX":4388,"POST":4389,"ĠGenerate":4390,"aract":4391,"äº":4392,"Ġ\"[":4393,"Ġcross":4394,"Ġbins":4395,"prediction":4396,"Ġcontrol":4397,"lecturer":4398,"Answer":4399,"Ġvia":4400,"PARA":4401,"By":4402,"Pool":4403,"QA":4404,"bos":4405,"limit":4406,"|>":4407,"Ġmm":4408,"ulator":4409,"ĠNorm":4410,"upper":4411,"endswith":4412,"Ġprocessed":4413,"Ġpreprocessing":4414,"SET":4415,"inalg":4416,"ĠSession":4417,"ALL":4418,"abspath":4419,"Ġworker":4420,"install":4421,"95":4422,"TYPE":4423,"Vi":4424,"Var":4425,"_.":4426,"human":4427,"å¤":4428,"Ġthem":4429,"ĠTh":4430,"ĠRa":4431,"ĠDDP":4432,"header":4433,"Ġprediction":4434,"ðĿĹ":4435,"celerator":4436,"Source":4437,"eft":4438,"gor":4439,"other":4440,"uction":4441,"ĠNo":4442,"Ġdon":4443,"Ġdirect":4444,"ĠPar":4445,"('.":4446,"á´ľ":4447,"ideo":4448,"ĠPyTorch":4449,"plotlib":4450,"PATH":4451,"Com":4452,"ELU":4453,"](":4454,"fusion":4455,"Ġè":4456,"Ġreturned":4457,"mpu":4458,"cost":4459,"Ġcond":4460,"ĠLinear":4461,"Ġdiv":4462,"ĠRun":4463,"Ġproblem":4464,"iply":4465,"indexed":4466,"ENAI":4467,"Ġ%.":4468,"rolNet":4469,"Ġoffsets":4470,"Ġcreated":4471,"pacity":4472,"summary":4473,"gorith":4474,"35":4475,"FOR":4476,"yaml":4477,"polation":4478,"Ġsee":4479,"locks":4480,"Ġunet":4481,"([<":4482,"sentence":4483,"Ġscaling":4484,"lapsed":4485,"ĠBuild":4486,"1000":4487,">{":4488,"HT":4489,"_[":4490,"rast":4491,"this":4492,"ĠTo":4493,"Ġans":4494,"ĠLlama":4495,"ĠSave":4496,"ĠScore":4497,"Ġunit":4498,"ivations":4499,"afe":4500,"Ġvariance":4501,"Ġentry":4502,"PROMPT":4503,"Ġfreqs":4504,"Timeout":4505,"kit":4506,"çĶ":4507,"êľ":4508,"invalid":4509,"rough":4510,"Ġsy":4511,"except":4512,"Ġequal":4513,"ĠAd":4514,"username":4515,"Ġ:]":4516,"oug":4517,"assistant":4518,"ĠPlatforms":4519,")),<":4520,"27":4521,"bank":4522,"ipy":4523,"my":4524,"mkdir":4525,"sig":4526,"paint":4527,"thread":4528,"icient":4529,"Ġdot":4530,"Ġ'__":4531,"ĠRuntimeError":4532,"ngine":4533,"latform":4534,"Ġmov":4535,"constants":4536,"ĠApply":4537,"WORKING":4538,"Ġcorresponding":4539,"Eval":4540,"solution":4541,"solver":4542,"âķ":4543,"ras":4544,"Ġrelative":4545,"lish":4546,"Ġ'\\":4547,"ĠRo":4548,"ĠWhether":4549,"ERS":4550,"Ġalso":4551,"tract":4552,"structor":4553,"argv":4554,"Ġexisting":4555,"Ġabout":4556,"csv":4557,"Client":4558,"You":4559,"edDataset":4560,"Ġbert":4561,"river":4562,"Ġarch":4563,"('/":4564,"pied":4565,"ĠURL":4566,"feats":4567,"normalizer":4568,"Ġcalls":4569,"ĠAttention":4570,"Vision":4571,"zz":4572,"Ġrich":4573,"rogram":4574,"utton":4575,"itial":4576,"Ġsolver":4577,"Ġ('":4578,"Ġ256":4579,"layernorm":4580,"codes":4581,"']:<":4582,"avig":4583,"Ġsettings":4584,"Ġobj":4585,"={<":4586,"Ġdocumentation":4587,"Ġavg":4588,"SION":4589,"Ġvectors":4590,"}/{":4591,"DATA":4592,"Temp":4593,"orizon":4594,"37":4595,"TEM":4596,"sv":4597,"ink":4598,"dev":4599,"empt":4600,"istic":4601,"0000":4602,"Ġmaximum":4603,"ĠRequest":4604,"phas":4605,"DatasetConfig":4606,"Ġaccelerate":4607,"ogle":4608,"048":4609,"Ġselected":4610,"Group":4611,"Sc":4612,"UP":4613,"ä½":4614,"æį":4615,"Ġinv":4616,"toxic":4617,"Ġeff":4618,"ĠDown":4619,"INT":4620,"128":4621,"Step":4622,"Stream":4623,"Storage":4624,"Ġweb":4625,"Ġtimes":4626,"Ġworkflow":4627,"enchmark":4628,"ĠAutoModelForCausalLM":4629,"periment":4630,"Number":4631,"smpl":4632,"ote":4633,"Ġ'-":4634,"usage":4635,"Ġresolution":4636,"strict":4637,"cesses":4638,"']['":4639,"LOG":4640,"when":4641,"CLIP":4642,"Ġsuccessfully":4643,"fields":4644,"pil":4645,"Ġ),":4646,"Ġfetch":4647,"Ġreport":4648,"romise":4649,"Ġevents":4650,"Ġemail":4651,"Ġ[-":4652,"Ġ[],":4653,"neighbor":4654,"Ġmodules":4655,"before":4656,"Ġdocuments":4657,"++++":4658,"%%%%":4659,")\")<":4660,"=\"\"":4661,"BU":4662,"ced":4663,"ium":4664,"rm":4665,"Ġedge":4666,"Ġ=================================":4667,"Ġrearrange":4668,"ement":4669,"ĠOn":4670,"loaders":4671,"ĠBy":4672,"Ġuses":4673,"argin":4674,"SchedulerMixin":4675,"ĠDistributed":4676,"Ġplace":4677,"21":4678,"CUDA":4679,"Ġag":4680,"Ġfig":4681,"hex":4682,"ĠSplit":4683,"parate":4684,"INDE":4685,"cause":4686,"ERROR":4687,"extract":4688,"parts":4689,"flags":4690,"INDEX":4691,")}\")<":4692,"08":4693,"768":4694,"Long":4695,"Tool":4696,"linalg":4697,"uted":4698,"Ġresize":4699,"Ġcl":4700,"Ġsl":4701,"Ġscorer":4702,"Ġbone":4703,"INE":4704,"negative":4705,"ERT":4706,"observation":4707,"pattern":4708,"Ġ50":4709,"commit":4710,"Ġsubject":4711,"Ġgrads":4712,"Ġtimestep":4713,"Ġtimestamp":4714,"ummyObject":4715,"OUT":4716,"WE":4717,"bfloat":4718,"éĹ":4719,"Ġcpu":4720,"Ġdb":4721,"Ġhs":4722,"ways":4723,"ĠVal":4724,"Ġpossi":4725,"Ġdefaultdict":4726,"Ġ768":4727,"rsp":4728,"signal":4729,"ibility":4730,"Ġmegablocks":4731,"48":4732,"Button":4733,"ML":4734,"mod":4735,"schedule":4736,"}_":4737,"Ġten":4738,"Ġip":4739,"Ġwait":4740,"(\"%":4741,"lend":4742,"Ġgen":4743,"ĠĠĠĠĠĠĠĠĠĠĠĠĠĠĠĠĠ":4744,"parents":4745,"Ġexce":4746,"Ġmaster":4747,"ĠDP":4748,"Ġvis":4749,"Ġkl":4750,"failed":4751,"Ġusage":4752,"encies":4753,"ĠMock":4754,"Ġverbose":4755,"collate":4756,"Hello":4757,"mu":4758,"ric":4759,"åħ":4760,"rection":4761,"arding":4762,"ixed":4763,"continue":4764,"rightness":4765,"Ġleft":4766,"tesIO":4767,"ilarity":4768,"degree":4769,"blue":4770,"events":4771,"ored":4772,"along":4773,"imation":4774,"urces":4775,"Ġds":4776,"Ġparent":4777,"fast":4778,"Ġalong":4779,"RAG":4780,"Ġcombin":4781,"Start":4782,"Ġleast":4783,"Ġmetric":4784,"rewards":4785,"alyze":4786,"IC":4787,"WAR":4788,"]),":4789,"Ġop":4790,"dated":4791,"Ġbar":4792,"ash":4793,"dout":4794,"cords":4795,"ĠRet":4796,"term":4797,"tact":4798,"Ġattributes":4799,"Ġdimensions":4800,"Ġcompat":4801,"vertices":4802,"clamp":4803,"Ġintercepted":4804,"Ġfinish":4805,"vantages":4806,"ĠProcess":4807,"Ġlatents":4808,"Ġmultiprocessing":4809,"Ġaudio":4810,"TrainedModel":4811,".')<":4812,"dit":4813,"sy":4814,"reen":4815,"dete":4816,"Ġmark":4817,"Ġinner":4818,"todo":4819,"__<":4820,"counter":4821,"shortcut":4822,"ĠPlease":4823,"Ġprogress":4824,"multiple":4825,"Ġvariable":4826,"Ġcontains":4827,"iktoken":4828,".\",<":4829,"47":4830,"If":4831,"LEN":4832,"rl":4833,"safety":4834,"tf":4835,"wrapped":4836,"student":4837,"Ġada":4838,"Ġ\"\",":4839,"(\"{":4840,"ĠChat":4841,"Ġstory":4842,"ĠBert":4843,"ĠWork":4844,"Ġ%(":4845,"ives":4846,"Ġscene":4847,"where":4848,"Ġjoint":4849,"benchmark":4850,"ĠParameters":4851,"enums":4852,"LongTensor":4853,"98":4854,"LAG":4855,"Prompt":4856,"cc":4857,"driver":4858,"ia":4859,"nan":4860,"Êľ":4861,"ined":4862,"incl":4863,"instruction":4864,"imic":4865,"rable":4866,"Ġfname":4867,"Ġcu":4868,"Ġpt":4869,"Ġevery":4870,"Ġannot":4871,"ria":4872,"ĠRem":4873,"ĠDoc":4874,"istics":4875,"ĠConsole":4876,"quaternions":4877,"Ġparts":4878,"Failed":4879,"IGH":4880,"Ġterms":4881,"Ġletter":4882,"57":4883,"Dep":4884,"DCondition":4885,"LLE":4886,"[[":4887,"{\"":4888,"æĸ":4889,"Ġflatten":4890,"Ġresearch":4891,"dates":4892,"Ġlower":4893,"shuffle":4894,"Ġstudent":4895,"processed":4896,"Ġwords":4897,"Ġ500":4898,"metaclass":4899,"region":4900,"Ġdisplay":4901,"ĠJSON":4902,"Ġavoid":4903,"Ġinitialization":4904,"NotFound":4905,"unication":4906,"DB":4907,"Trans":4908,"ae":4909,"called":4910,"lora":4911,"Ġinher":4912,"Ġwhether":4913,"coeff":4914,"Ġparents":4915,"Ġ>>":4916,"extras":4917,"ĠShape":4918,"Ġepisodes":4919,"ĠQuery":4920,"\"})<":4921,"28":4922,"Handler":4923,"field":4924,"ture":4925,"ush":4926,"åĽ":4927,"Ġtf":4928,"lops":4929,"Ġreq":4930,"Ġsuch":4931,"launch":4932,"exc":4933,"Ġbest":4934,"Ġdinov":4935,"Ġnumbers":4936,"login":4937,"bove":4938,"lug":4939,"functions":4940,"Ġinclu":4941,".*":4942,"Split":4943,"mimic":4944,"into":4945,"Ġfill":4946,"course":4947,"ffn":4948,"Ġsetattr":4949,"Ġcollect":4950,"stanti":4951,"Ġobjects":4952,"Ġallowed":4953,"Level":4954,"=_":4955,">\")<":4956,"?<":4957,"DummyObject":4958,"Size":4959,"pr":4960,"si":4961,"Ġquestions":4962,"sen":4963,"sep":4964,"aturation":4965,"Ġmem":4966,"pted":4967,"ulary":4968,"Ġpaper":4969,"ĠLight":4970,"deredDict":4971,"Ġdepend":4972,"Ġlong":4973,"Ġchain":4974,"buffers":4975,"ĠComp":4976,"Ġ:-":4977,"accelerate":4978,"ĠHT":4979,"Ġsizes":4980,"localhost":4981,"```":4982,"Ġurllib":4983,"cumprod":4984,"Ġinstead":4985,"Ġtakes":4986,"43":4987,"Low":4988,"RGB":4989,"Sub":4990,"cr":4991,"ear":4992,"glob":4993,"runtime":4994,"erobot":4995,"Ġtiktoken":4996,"ĠTable":4997,"Ġstand":4998,"Ġdecode":4999,"Ġseconds":5000,"Ġlerobot":5001,"dirs":5002,"Ġprojection":5003,"amma":5004,"theta":5005,"gnitude":5006,"atermark":5007,"=<":5008,"CAL":5009,"Filter":5010,"MO":5011,"Ġsd":5012,"izing":5013,"ues":5014,"ĠClient":5015,"ĠCalculate":5016,"Ġcounter":5017,"checkbox":5018,"Ġparsed":5019,"bound":5020,"á´ħ":5021,"envs":5022,"bind":5023,"reply":5024,"OPENAI":5025,"Query":5026,"schedulers":5027,"dified":5028,"PARALLE":5029,"âķĲ":5030,"Batch":5031,"Utils":5032,"nap":5033,"writer":5034,"lan":5035,"settings":5036,"ĠPrompt":5037,"ĠFunction":5038,"Ġenable":5039,"Ġvision":5040,"124":5041,"completion":5042,"Ġmatplotlib":5043,"structions":5044,"Ġheader":5045,"partial":5046,"ðĿĴ":5047,"execute":5048,"Ġprobab":5049,"gorithm":5050,"Ad":5051,"Iter":5052,"æĪ":5053,"report":5054,"iters":5055,"Ġfeet":5056,"Ġbox":5057,"__':<":5058,"atted":5059,"moid":5060,"mouse":5061,"Ġtexts":5062,"fail":5063,"ĠArguments":5064,"ReLU":5065,"ĠGPTModel":5066,"Ġvariables":5067,"Ġtmpdir":5068,"ĠIDs":5069,"TEMPL":5070,"IGHTS":5071,",)<":5072,"Code":5073,"wrapper":5074,"é¢":5075,"datas":5076,"ĠAsync":5077,"istent":5078,"TIME":5079,"Ġpose":5080,"Ġnegative":5081,"Exec":5082,"Ġexpr":5083,"napshot":5084,"Al":5085,"NO":5086,"bt":5087,"fr":5088,"git":5089,"skeleton":5090,"xy":5091,"à¸":5092,"Ġinsert":5093,"dic":5094,"serial":5095,"ĠĠĠĠĠĠĠĠĠĠĠĠĠĠĠĠĠĠĠĠĠĠĠĠĠĠĠĠĠĠĠĠĠĠĠ":5096,"Ġstore":5097,"Ġdelete":5098,"ĠFa":5099,"precision":5100,"configuration":5101,"Ġratio":5102,"ifact":5103,"ancel":5104,"bomimic":5105,"penalt":5106,"Ġsequences":5107,"Ġscipy":5108,"repr":5109,"visual":5110,"Ġentries":5111,"DConditionModel":5112,"âķĲâķĲ":5113,"!/":5114,"->":5115,"58":5116,"500":5117,"Element":5118,"Embed":5119,"NOR":5120,"[<":5121,"eos":5122,"game":5123,"named":5124,"playwright":5125,"}\",<":5126,"Êı":5127,"åº":5128,"Ġabove":5129,"itch":5130,"arras":5131,"uru":5132,"Ġops":5133,"Ġwriter":5134,"Ġein":5135,"Ġdt":5136,"modeling":5137,"Ġhalf":5138,"usr":5139,"resnet":5140,"iframe":5141,"Ġcharact":5142,"Ġpooled":5143,"means":5144,"span":5145,"Ġmatches":5146,"ngrams":5147,"finished":5148,"Ġtokentypes":5149,"II":5150,"Ġcenter":5151,"urbo":5152,"contain":5153,"ĠMake":5154,"basename":5155,"latents":5156,"rune":5157,"filtered":5158,"Ġabc":5159,"pooler":5160,"Ġbinary":5161,"Grad":5162,"lated":5163,"pus":5164,"tanh":5165,"è¯":5166,"Ġitems":5167,"Ġ\")<":5168,"Ġcod":5169,"(\"()":5170,"Ġdialog":5171,"percent":5172,"socket":5173,"Ġnoqa":5174,"overlap":5175,"selected":5176,"ameras":5177,"cii":5178,"31":5179,"DS":5180,"DING":5181,"Op":5182,"TE":5183,"]],<":5184,"gaussian":5185,"hs":5186,"pid":5187,"Ġ\"**/":5188,"Ġsw":5189,"()).":5190,"virtual":5191,"attributes":5192,"Ġdistance":5193,"preds":5194,"okup":5195,"ipher":5196,"ernal":5197,"latest":5198,"Ġcheckpoints":5199,"ĠModelType":5200,"ĠRetroPreprocessingConfig":5201,"ABLE":5202,"ĠCLIP":5203,"Ġradians":5204,"~~~~":5205,"Ġinteger":5206,"\"},<":5207,"26":5208,"Engine":5209,"fallback":5210,"ook":5211,"Ġaround":5212,"Ġmotion":5213,"Ġrecall":5214,"Ġ#<":5215,"inite":5216,"Ġarr":5217,"cessary":5218,"Ġshow":5219,"ĠBe":5220,"Ġbecause":5221,"background":5222,"ModuleList":5223,"Ġprocessor":5224,"ategory":5225,"Ġoverlap":5226,"Ġpattern":5227,"details":5228,"IMAGE":5229,"ĠWhen":5230,"Ġconnection":5231,"ĠOrderedDict":5232,"202":5233,":],":5234,"App":5235,"clear":5236,"slice":5237,"inds":5238,"ero":5239,"Ġactions":5240,"Ġour":5241,"Ġimportlib":5242,"ascii":5243,"problems":5244,"Ġdistribution":5245,"------":5246,"antic":5247,"jected":5248,"Ġmessagebox":5249,"ĠĠĠĠĠĠĠĠĠĠĠĠĠĠĠĠĠĠĠĠĠĠĠĠĠ":5250,"Soft":5251,"connect":5252,"ĠMegatronModule":5253,"Ġpopup":5254,"ĠNOTE":5255,"ydra":5256,"Ġindent":5257,"NotFoundError":5258,"All":5259,"GET":5260,"PS":5261,"ky":5262,"ndim":5263,"chrom":5264,"Ġbenchmark":5265,"ily":5266,"Ġconst":5267,"ĠLa":5268,"licit":5269,"plus":5270,"teger":5271,"Ġloguru":5272,"ived":5273,"Ġpytorch":5274,"PIL":5275,"aging":5276,"Union":5277,"learn":5278,"betas":5279,"ãĢĤ":5280,"çĶ¨":5281,"Bert":5282,"Future":5283,"\\.":5284,"_):<":5285,"bal":5286,"cmd":5287,"alloc":5288,"Ġcam":5289,"Ġsplits":5290,"analysis":5291,"tower":5292,"Ġgaussian":5293,"Ġdeepcopy":5294,"trainable":5295,"Ġorig":5296,"ocus":5297,"quired":5298,"Ġattr":5299,"transition":5300,"link":5301,"Ġtranscript":5302,"ĠConfigMixin":5303,"Ġcoding":5304,"40":5305,"Enum":5306,"Random":5307,"URE":5308,"aff":5309,"bx":5310,"cle":5311,"each":5312,"}$":5313,"ories":5314,")</":5315,"help":5316,"Ġspa":5317,"pture":5318,"Ġlogs":5319,"laybook":5320,"apping":5321,"uble":5322,"anner":5323,"Ġkv":5324,"Ġfake":5325,"argmax":5326,"biencoder":5327,"ĠCheckpoint":5328,"ĠCLIPT":5329,"Ġsignal":5330,"reasoning":5331,"Ġdirectly":5332,"PARALLEL":5333,"é¢ĺ":5334,"\">":5335,">-":5336,">\"<":5337,"OG":5338,"cnt":5339,"ç»":5340,"Ġinstruction":5341,"uess":5342,"Ġ11":5343,"Ġgold":5344,"ĠCustom":5345,"derr":5346,"attribute":5347,"ublic":5348,"ĠBlock":5349,"pip":5350,"ĠUser":5351,"positive":5352,"evals":5353,"neighbors":5354,"planner":5355,"based":5356,"Ġperm":5357,"Ġfolder":5358,"ragraph":5359,"Ġotherwise":5360,"ĠAttnMaskType":5361,"Header":5362,"merged":5363,"ĠIndexedDataset":5364,"CACHE":5365,"ĠPerform":5366,"*\",":5367,":,":5368,"=[\"":5369,"LL":5370,"broadcast":5371,"hi":5372,"pisode":5373,"tab":5374,"è§":5375,"alphas":5376,"loy":5377,"Ġinp":5378,"Ġscope":5379,"ĠNew":5380,"upload":5381,"Ġstorage":5382,"parator":5383,"Ġthrough":5384,"Ġseen":5385,"rametr":5386,"ranks":5387,"omic":5388,"ĠShardedStateDict":5389,"Ġcomputation":5390,"Ġthreading":5391,"============<":5392,"Ġetc":5393,"Callable":5394,"Up":5395,"`.":5396,"branch":5397,"known":5398,"rnn":5399,"saved":5400,"tqdm":5401,"widget":5402,"inspect":5403,"onal":5404,"remote":5405,"stdout":5406,"Ġsolution":5407,"Ġeven":5408,"Ġpand":5409,">#!/":5410,"()):<":5411,"Ġguidance":5412,"ĠĠĠĠĠĠĠĠĠĠĠĠĠĠĠĠĠĠĠĠ":5413,"Ġshortcut":5414,"ĠEval":5415,"aving":5416,"general":5417,"Training":5418,"Env":5419,"Buffer":5420,"product":5421,"segments":5422,"Ġrepresentation":5423,"Ġreplica":5424,"STRING":5425,"ĠRaises":5426,"Ġpandas":5427,")]":5428,"23":5429,"OS":5430,"We":5431,"lers":5432,"mg":5433,"mi":5434,"nx":5435,"sp":5436,"Ġqueue":5437,"orn":5438,"char":5439,"lout":5440,"Ġ\"-":5441,"Ġplatform":5442,"pow":5443,"plat":5444,"Conf":5445,"ĠEuler":5446,"DataParallel":5447,"across":5448,"16384":5449,"Ġmodi":5450,"edia":5451,"LoaderMixin":5452,"alyzer":5453,"ĠUpdate":5454,"Ġbuilding":5455,"Ġhashlib":5456,"ĠLlamaFactory":5457,"NING":5458,"Pie":5459,"UB":5460,"UR":5461,"kh":5462,"mc":5463,"sa":5464,"sli":5465,"wb":5466,"win":5467,"inp":5468,"inu":5469,"ination":5470,"inverse":5471,"erc":5472,"err":5473,"recompute":5474,"mesh":5475,"ident":5476,"Ġ-=":5477,"Ġhuggingface":5478,"allet":5479,"ĠDAT":5480,"ĠIM":5481,"application":5482,"Ġpreprocess":5483,"Ġpredictions":5484,"infer":5485,"ddp":5486,"traj":5487,"transcript":5488,"Ġprobability":5489,"Ġhook":5490,"exceptions":5491,"Ac":5492,"Scal":5493,"VAL":5494,"eod":5495,"holder":5496,"pair":5497,"selection":5498,"once":5499,"ength":5500,"Ġfaiss":5501,"Ġcamera":5502,"Ġbi":5503,"unds":5504,"###":5505,"abel":5506,"Ġdec":5507,"Ġdescri":5508,"Ġcourse":5509,"Ġllama":5510,"ĠMask":5511,"Ġ40":5512,"ĠĠĠĠĠĠĠĠĠĠĠĠĠĠĠĠĠĠĠĠĠĠĠĠĠĠĠĠĠĠĠĠĠĠĠĠĠĠ":5513,"Ġident":5514,"Ġcontrast":5515,"Ġusername":5516,"Sequence":5517,"Ġintermediate":5518,"windows":5519,"missing":5520,"Ġneedle":5521,"curs":5522,"ĠMoE":5523,"Ġeinops":5524,".)<":5525,"38":5526,"AY":5527,"ACK":5528,"It":5529,"Question":5530,"ln":5531,"ove":5532,"ores":5533,"eri":5534,"ality":5535,"Ġfields":5536,"lang":5537,"ider":5538,"ullable":5539,"ĠLanguage":5540,"Ġhow":5541,"layout":5542,"corator":5543,"Ġresnet":5544,"á´Ħ":5545,"Ġalign":5546,"filters":5547,"submodules":5548,"Ġitertools":5549,"Ġclose":5550,"Buil":5551,"ĠTemp":5552,"Ġradius":5553,"USER":5554,"smpllib":5555,"Ġbarrier":5556,")\"<":5557,"70":5558,"Options":5559,"VE":5560,"What":5561,"_()<":5562,"high":5563,"pk":5564,"pkl":5565,"åŃ":5566,"parametr":5567,"ending":5568,"recv":5569,"Ġrelease":5570,"Ġinverse":5571,"ural":5572,"Ġ([":5573,"###<":5574,"ĠĠĠĠĠĠĠĠĠĠĠĠĠĠĠĠĠĠĠĠĠĠĠĠĠĠĠĠĠĠĠĠĠĠĠĠĠĠĠ":5575,"ĠReduce":5576,"Ġlang":5577,"iddle":5578,"Ġpresent":5579,"push":5580,"fixture":5581,"targets":5582,"')[":5583,"templates":5584,"Ġtiming":5585,"Ġtrace":5586,"dispatch":5587,"vae":5588,"Ġstats":5589,"Ġá´Ľ":5590,"################################################":5591,"Ġnetwork":5592,"pixel":5593,"Ġstructure":5594,"havi":5595,"penalty":5596,"Piece":5597,"QU":5598,"euler":5599,"llava":5600,"navig":5601,"sorted":5602,"spatial":5603,"roq":5604,"Ġmod":5605,"ceil":5606,"Ġpc":5607,"uning":5608,"added":5609,"cked":5610,"setdir":5611,"Ġ{:.":5612,"ĠLe":5613,"ĠStr":5614,"ĠRandom":5615,"ĠDB":5616,"ĠId":5617,"Ġllava":5618,"Ġshort":5619,"errors":5620,"asyncio":5621,"registry":5622,"convention":5623,"Ġglobals":5624,"Formatter":5625,"ĠAgentP":5626,"Adapter":5627,"OpenAI":5628,"sired":5629,"ĠHTTP":5630,"FE":5631,"ios":5632,"wn":5633,"Ġvec":5634,"utable":5635,"child":5636,"Ġpm":5637,"entries":5638,"poses":5639,"Ġ---------------------------------":5640,"ĠToken":5641,"Ġ13":5642,"olved":5643,"Ġ'--":5644,"ĠCPU":5645,"ĠLog":5646,"Ġexplanation":5647,"ĠDropout":5648,"eights":5649,"Ġbelow":5650,"Ġbegin":5651,"ĠGlobal":5652,"ĠVQ":5653,"causal":5654,"grouped":5655,"Ġapplied":5656,"Read":5657,"FILE":5658,"))))<":5659,"Ġpartition":5660,"etric":5661,"scaled":5662,"Ġvariant":5663,"Ġ[`~":5664,"cookie":5665,"RNG":5666,"View":5667,"Ġcuda":5668,"79":5669,"tb":5670,"ðŁ":5671,"Ġtag":5672,"dia":5673,"Ġpri":5674,"Ġdynamic":5675,"()]<":5676,"Ġhi":5677,"abc":5678,"Ġ25":5679,"Ġdete":5680,"classification":5681,"ĠDis":5682,"day":5683,"Ġchallenge":5684,"evaluation":5685,"Ġteacher":5686,"green":5687,"aux":5688,"Ġoverride":5689,"ĠForward":5690,"Ġelements":5691,"ĠĠĠĠĠĠĠĠĠĠĠĠĠĠĠĠĠĠĠĠĠĠĠĠĠĠĠĠĠĠĠĠĠĠĠĠĠĠĠĠĠĠ":5692,")(":5693,"squ":5694,"onent":5695,"rops":5696,"Ġredirect":5697,"portion":5698,"()}<":5699,"vidia":5700,"dimension":5701,"Ġ/=":5702,"ĠGLOBAL":5703,"INTER":5704,"\")[":5705,"'][":5706,"Ġsampled":5707,"radius":5708,"found":5709,"Ġframes":5710,"ĠBrowserType":5711,"ĠLoss":5712,"cleaned":5713,"fidence":5714,"Ġconstants":5715,"VERSION":5716,"æĺ¯":5717,"LENG":5718,"Lowdim":5719,":\")<":5720,"TEXT":5721,"Writer":5722,"}.\")<":5723,"æŀ":5724,"Ġfid":5725,"Ġflops":5726,"ĠĠĠĠĠĠĠĠĠĠĠĠĠĠ":5727,"Ġsafety":5728,"ump":5729,"Ġwarmup":5730,"ĠĠĠĠĠĠĠĠĠĠĠĠĠĠĠĠĠĠ":5731,"allreduce":5732,"cording":5733,"Ġbeing":5734,"Ġjob":5735,"...\")<":5736,"Ġalways":5737,"retrieval":5738,"Ġretrieval":5739,"shots":5740,"********":5741,"ĠPolicy":5742,"ĠDownload":5743,"'.<":5744,"39":5745,"AX":5746,"And":5747,"Cho":5748,"DF":5749,"elem":5750,"hand":5751,"jnp":5752,"mon":5753,"eng":5754,"Ġrepo":5755,"peg":5756,"Ġthese":5757,"Ġwell":5758,"coords":5759,"Ġstack":5760,"Ġdatas":5761,"fft":5762,"Ġencode":5763,"Ġtrainable":5764,"Ġnecessary":5765,"versions":5766,"ĠExtract":5767,"extractor":5768,"Ġimgui":5769,"running":5770,"Seq":5771,"Ġnormalization":5772,"Ġinitialized":5773,"Ġsince":5774,"Ġhost":5775,"DATASE":5776,"TRAIN":5777,"cookies":5778,"BOX":5779,"megaConf":5780,"Ġagain":5781,"ĠRetrie":5782,"ĠLightRAG":5783,"Ġstandard":5784,"-{":5785,"MLP":5786,"]}":5787,"ele":5788,"scope":5789,"tas":5790,"udio":5791,"pet":5792,"isfile":5793,"ĠSub":5794,"toks":5795,"Ġdeprec":5796,"Ġdeepspeed":5797,"Ġlarge":5798,"some":5799,"Ġidentity":5800,"generations":5801,"multiply":5802,"AMPLE":5803,"Ġadding":5804,"Ġtraj":5805,"ä¸Ģ":5806,"999":5807,"Ġmanager":5808,"Ġrepresenting":5809,"Ġaveraged":5810,"webkit":5811,"helper":5812,"Ġuuid":5813,"Region":5814,"builder":5815,"êľ±":5816,"ought":5817,"Ġinherits":5818,"platform":5819,"ĠAgentPrune":5820,"LENGTH":5821,"400":5822,"From":5823,"NE":5824,"brid":5825,"gra":5826,"mq":5827,"ren":5828,"ral":5829,"®é¢ĺ":5830,"å¼":5831,"geo":5832,"ĠNe":5833,"andbox":5834,"heading":5835,"ĠBatch":5836,"Ġround":5837,"ocent":5838,"ird":5839,"Ġsetting":5840,"matic":5841,"epsilon":5842,"Ġsubset":5843,"interle":5844,"calls":5845,"Protocol":5846,"Ġbackground":5847,"ä¸ª":5848,"FORM":5849,"éĹ®é¢ĺ":5850,"Ġprobabilities":5851,"ĠLazy":5852,"parametrize":5853,"75":5854,"Ro":5855,"Wh":5856,"Word":5857,"site":5858,"uuid":5859,"sto":5860,"ites":5861,"Ġpix":5862,"Ġwrapper":5863,"ulative":5864,"Ġeuler":5865,"ollow":5866,"Ġ'_":5867,"share":5868,"ĠScheduler":5869,"progress":5870,"Ġexact":5871,"ĠPlaywright":5872,"endpoint":5873,"Ġdest":5874,"preprocess":5875,"Ġthreshold":5876,"Ġ30":5877,"Info":5878,"ĠContext":5879,"rotations":5880,"normalized":5881,"udge":5882,"PipelineOutput":5883,"scaler":5884,"Ġrows":5885,"retriever":5886,"existing":5887,"lank":5888,"ially":5889,"å®":5890,"çŃ":5891,"Ġts":5892,"Ġtri":5893,"Ġ=========":5894,"hes":5895,"Ġnullable":5896,"Ġsampler":5897,"integ":5898,"otal":5899,"ĠTHE":5900,"Ġdst":5901,"shard":5902,"Ġsto":5903,"Ġchar":5904,"ORS":5905,"ower":5906,"counts":5907,"Ġspecial":5908,"Ġrots":5909,"cating":5910,"vidual":5911,"Ġstrings":5912,"ĠTaskState":5913,"microbatches":5914,"Ġpackage":5915,"Ġfixed":5916,"Ġoperation":5917,"Ġcombined":5918,":`":5919,"=['":5920,">\"\"":5921,"Do":5922,"LR":5923,"Reduce":5924,"Tra":5925,"aa":5926,"px":5927,"rat":5928,"sparse":5929,"ybrid":5930,"zarr":5931,"åĩ":5932,"æł":5933,"seg":5934,"Ġturn":5935,"ceived":5936,"ancing":5937,"ueue":5938,"__)":5939,"polate":5940,"Ġ[[":5941,"ĠPos":5942,"ĠField":5943,"Ġ</":5944,"ĠOptimizer":5945,"addr":5946,"Ġkeyword":5947,"plain":5948,"without":5949,"HOST":5950,"utilities":5951,"timing":5952,"fire":5953,"BUG":5954,"29":5955,"FAI":5956,"Gather":5957,"MIN":5958,"Or":5959,"RES":5960,"US":5961,"bda":5962,"dinov":5963,"gold":5964,"ines":5965,"arp":5966,"Ġmel":5967,"Ġinvalid":5968,"export":5969,"Ġoc":5970,"lier":5971,"conf":5972,"ĠAc":5973,"ĠASC":5974,"ĠClass":5975,"Ġshare":5976,"Ġtesting":5977,"oci":5978,"momentum":5979,"versation":5980,"Ġcompleted":5981,"tracing":5982,"Ġretry":5983,"require":5984,"Chunk":5985,"Ġindicating":5986,"âĶĢ":5987,"needle":5988,"TEMPLATE":5989,"ĠIdentity":5990,"'),<":5991,",)":5992,"60":5993,">=":5994,"]*":5995,"bbox":5996,"faiss":5997,"font":5998,"mory":5999,"sort":6000,"Ġfps":6001,"Ġbound":6002,"Ġpast":6003,"ollama":6004,"Ġdedup":6005,"Ġcould":6006,"ised":6007,"logps":6008,"Ġtrainer":6009,"ĠReset":6010,"ernels":6011,"ĠInter":6012,"letions":6013,"Ġcausal":6014,"generated":6015,"locators":6016,"Ġassume":6017,"Ġsupports":6018,"Ġconditions":6019,"Ġutilities":6020,"person":6021,"pipelines":6022,"RetroPreprocessingConfig":6023,"ocentric":6024,"ĠASCII":6025,"'),":6026,"-%":6027,"?\",":6028,"KL":6029,"Token":6030,"aw":6031,"bstract":6032,"cri":6033,"eck":6034,"hip":6035,"mer":6036,"onents":6037,"relative":6038,"chem":6039,"ari":6040,"Ġmp":6041,"Ġrecv":6042,"adam":6043,"assets":6044,"__.__":6045,"Ġdummy":6046,"Ġ19":6047,"Ġhydra":6048,"Ġ2048":6049,"Ġexpand":6050,"Ġdesired":6051,"pression":6052,"prepare":6053,"tags":6054,"Ġchosen":6055,"rowth":6056,"ATT":6057,"Ġcolors":6058,"Ġaccess":6059,"vidence":6060,"absolute":6061,"Ġassistant":6062,"variant":6063,"Decoder":6064,"servations":6065,"panel":6066,"accumulation":6067,"Vector":6068,"ĠMessage":6069,"WEIGHTS":6070,"btn":6071,"ND":6072,"dummy":6073,"fps":6074,"gan":6075,"gits":6076,"Ġvelocity":6077,"second":6078,"regex":6079,"Ġsr":6080,"Ġsimple":6081,"vised":6082,"ĠLL":6083,"Ġhn":6084,"ĠFaiss":6085,"ases":6086,"ĠReg":6087,"Ġgenerating":6088,"Ġappend":6089,"mini":6090,"Ġupload":6091,"lining":6092,"Select":6093,"Ġ$\\\\":6094,"Ġdownloading":6095,"ABC":6096,"Colors":6097,"æĸĩ":6098,"Softmax":6099,":-":6100,"BC":6101,"CTION":6102,"Transform":6103,"Work":6104,"iod":6105,"mis":6106,"è¿":6107,"ĠâĶ":6108,"inator":6109,"Ġtake":6110,"challenge":6111,"Ġnull":6112,"Ġpk":6113,"Ġbanner":6114,"serve":6115,"ĠNode":6116,"ĠFused":6117,"Ġcook":6118,"Ġsec":6119,"Ġseparate":6120,"ĠMax":6121,"codebook":6122,"sources":6123,"Ġtokenize":6124,"viewer":6125,"ĠĠĠĠĠĠĠĠĠĠĠĠĠĠĠĠĠĠĠĠĠĠĠĠĠĠĠĠĠĠĠĠĠĠĠĠĠĠĠĠĠĠĠĠĠĠĠ":6126,"uster":6127,"ĠHow":6128,"RECT":6129,"ĠInference":6130,"mbol":6131,"Ġ{},":6132,"commend":6133,"activations":6134,"ROOT":6135,"Ġflax":6136,"uggest":6137,"ParallelRegion":6138,"Ġpipelines":6139,"ĠEncoder":6140,"payload":6141,"Ġperson":6142,"ĠAdam":6143,"æį®":6144,"([\"":6145,"90":6146,"Auto":6147,"Doc":6148,"Render":6149,"hn":6150,"ted":6151,"Ġrandn":6152,"sequential":6153,"Ġcannot":6154,"Ġsaturation":6155,"Ġph":6156,"Ġdraw":6157,"eter":6158,"ĠSimple":6159,"Ġnumer":6160,"Ġdecoded":6161,"ĠFeed":6162,"dicts":6163,"configs":6164,"ĠBlended":6165,"scr":6166,"fox":6167,"Ġpassword":6168,"CHAN":6169,"=[<":6170,"Ġpaddings":6171,"columns":6172,"ĠParam":6173,"ĠIterable":6174,"ĠIterator":6175,"Template":6176,"stantiate":6177,"ĠDATA":6178,"ĠASCIIColors":6179,"%(":6180,"Char":6181,"GRE":6182,"Runtime":6183,"Sample":6184,"[~":6185,"ource":6186,"see":6187,"atern":6188,"Ġsolve":6189,"Ġpil":6190,"unfinished":6191,"database":6192,"Ġ-----------------":6193,"ĠTarget":6194,"()])<":6195,"ĠCross":6196,"endof":6197,"('-":6198,"Ġosp":6199,"Conne":6200,"ĠEnum":6201,"Ġenabled":6202,"ĠGroup":6203,"reduced":6204,"ĠVit":6205,"ĠVocab":6206,"Ġknow":6207,"ĠCourse":6208,"Ġalgorithm":6209,"Ġcontents":6210,"trajectory":6211,"Ġcodes":6212,"network":6213,"timestep":6214,"Normal":6215,"Ġ}\"\"\"<":6216,"ĠModelConfig":6217,"Ġformatted":6218,"Ġdoesn":6219,"Ġcreating":6220,"Adam":6221,"ĠDiffusionPipeline":6222,"Ġpossible":6223,"TIMEOUT":6224,"LINE":6225,"WER":6226,"fut":6227,"large":6228,"voxel":6229,"inria":6230,"rec":6231,"Ġaut":6232,"Ġiss":6233,"Ġbrightness":6234,"stron":6235,"validate":6236,"Ġstar":6237,"Ġxs":6238,"waxis":6239,"previous":6240,"('\\":6241,"Ġvllm":6242,"ocast":6243,"INST":6244,"ĠCopied":6245,"newaxis":6246,"Initialize":6247,"Ġqk":6248,"StableDiffusion":6249,"Ġcompletion":6250,"Ġadditional":6251,"levels":6252,"Ġ...<":6253,"ä¸Ń":6254,"BaseModel":6255,"Ġnormalized":6256,"others":6257,"Ġá´Ģ":6258,"flattened":6259,"ĠResponse":6260,"segmentation":6261,"fewshot":6262,"Ġretrieve":6263,"ĠUpload":6264,"TrainedTokenizer":6265,"QueryParam":6266,"ociated":6267,"endoftext":6268,".\\":6269,"FLAG":6270,"MM":6271,"Py":6272,"SY":6273,"Time":6274,"Video":6275,"Ww":6276,"ein":6277,"lint":6278,"mid":6279,"nb":6280,"ply":6281,"rb":6282,"same":6283,"uan":6284,"uator":6285,"è®":6286,"erf":6287,"reens":6288,"demo":6289,"Ġfuture":6290,"Ġsmooth":6291,"asarray":6292,"ranular":6293,"couple":6294,"Ġgpu":6295,"Ġ[(":6296,"Ġexpi":6297,"resume":6298,"Ġmagnitude":6299,"preview":6300,"Convert":6301,"comput":6302,"force":6303,"ĠVi":6304,"aive":6305,"indexes":6306,"pective":6307,"contexts":6308,"Ġlists":6309,"ypedDict":6310,"ART":6311,"Required":6312,"Ġ{}:":6313,"variable":6314,"fraction":6315,"Ġtaken":6316,"predicted":6317,"retrieved":6318,"ratios":6319,"ranularity":6320,",),":6321,"88":6322,"IF":6323,"PES":6324,"auth":6325,"duration":6326,"ece":6327,"fe":6328,"jav":6329,"king":6330,"mix":6331,"yes":6332,"}_{":6333,"İ¨":6334,"erun":6335,"Ġta":6336,"star":6337,"align":6338,"raft":6339,"Ġremain":6340,"Ġrecompute":6341,"cogn":6342,"ĠNet":6343,"Ġanalysis":6344,"Ġgot":6345,"Ġhue":6346,"Ġcost":6347,"terns":6348,"ĠOther":6349,"Ġprepare":6350,"Ġtrained":6351,"Ġ`(":6352,"untie":6353,"ĠĠĠĠĠĠĠĠĠĠĠĠĠĠĠĠĠĠĠĠĠĠĠĠĠĠĠĠĠĠĠĠĠĠĠĠ":6354,"Stat":6355,"ĠKarras":6356,"actual":6357,"Ġaddress":6358,"Segmentation":6359,"ĠState":6360,"arest":6361,"scales":6362,"white":6363,"Ġinstalled":6364,"curity":6365,"Ġchanges":6366,"priate":6367,"yperParams":6368,"scheduling":6369,"Ġprovides":6370,"Ġreasoning":6371,"painting":6372,"threads":6373,"Scaler":6374,"cription":6375,"coupled":6376,"76":6377,"LS":6378,"MET":6379,"Scale":6380,"ba":6381,"js":6382,"jax":6383,"tre":6384,"}'<":6385,"paragraph":6386,"semester":6387,"eres":6388,"rete":6389,"utes":6390,"Ġ\"$":6391,"Ġinfer":6392,"Ġ',":6393,"Ġ[{\"":6394,"sharding":6395,"Ġdivide":6396,"keywords":6397,"Ġcontextlib":6398,"á´į":6399,"ious":6400,"letter":6401,"Ġiterations":6402,"Ġurlparse":6403,"ANS":6404,"Ġ60":6405,"ControlNet":6406,"imeoutError":6407,"Checkpoint":6408,"Ġgeo":6409,"PPING":6410,"(\"**/*\",":6411,"TEST":6412,"sigmoid":6413,"Item":6414,"!\")<":6415,")\",":6416,"*]":6417,"MUL":6418,"Named":6419,"sure":6420,"til":6421,"è¡":6422,"ĉĉ":6423,"Ġdate":6424,"inuous":6425,"ervised":6426,"research":6427,"release":6428,"imate":6429,"utions":6430,"geocentric":6431,"Ġcnt":6432,"Ġnumel":6433,"Ġspace":6434,"Ġsuffix":6435,"unding":6436,"service":6437,"Ġconf":6438,"Ġconn":6439,"Ġhorizon":6440,"Ġ201":6441,"ĠFin":6442,"checked":6443,"Ġpretrain":6444,"Ġchild":6445,"pending":6446,"Ġ42":6447,"accelerator":6448,"viewport":6449,"ĠĠĠĠĠĠĠĠĠĠĠĠĠĠĠĠĠĠĠĠĠĠĠĠĠĠĠĠĠĠĠĠĠĠĠĠĠ":6450,"Ġperforms":6451,"Ġqs":6452,"Ġacc":6453,"Ġcomplete":6454,"Ġmove":6455,"Ġpartic":6456,"Ġtopk":6457,"Ġprocessing":6458,"matching":6459,"ä¸º":6460,"Ġtrim":6461,"Ġexecute":6462,"Ġmany":6463,"Ġdetail":6464,"Ġretrieved":6465,"realpath":6466,"Ġgaussians":6467,")/":6468,")}\"<":6469,".'<":6470,"AC":6471,"Fla":6472,"GPU":6473,"GLU":6474,"Save":6475,"Wrapper":6476,"agram":6477,"bold":6478,"basic":6479,"suffix":6480,"tan":6481,"ving":6482,"}\".":6483,"çº":6484,"inplace":6485,"itor":6486,"Ġ\"\":<":6487,"Ġcent":6488,"orth":6489,"peft":6490,"uncond":6491,"datapath":6492,"mpy":6493,"const":6494,"Ġ17":6495,"ĠAI":6496,"ensors":6497,"residual":6498,"001":6499,"Ġunwrapped":6500,"ĠEmbed":6501,"Ġwhat":6502,"hood":6503,"Ġsubmit":6504,"Ġupdated":6505,"completions":6506,"RANK":6507,"Ġmultimodal":6508,"Ġbackend":6509,"replay":6510,"Ġinstances":6511,"ltk":6512,"Ġtransfer":6513,"Ġconverted":6514,"ĠWeb":6515,"Column":6516,"Ġappropriate":6517,"WARNING":6518,"chromium":6519,":{":6520,"Down":6521,"Mode":6522,"PASS":6523,"actor":6524,"ector":6525,"gr":6526,"ners":6527,"smooth":6528,"wik":6529,"Ð°":6530,"Ġfont":6531,"Ġsig":6532,"Ġpe":6533,"throw":6534,"__.":6535,"ĠABC":6536,"Ġ'%":6537,"textarea":6538,"else":6539,"keyA":6540,"configure":6541,"Ġprocesses":6542,"ĠBasic":6543,"Ġvoxel":6544,"fake":6545,"phone":6546,"Ġbuffers":6547,"RET":6548,"ĠSection":6549,"mageProcessor":6550,"EMM":6551,"flash":6552,"Ġcommunication":6553,"facebook":6554,"cumsum":6555,"MAPPING":6556,"Ġimplements":6557,"Ġ-->":6558,"ĠTypeVar":6559,"lexity":6560,"ServerConfig":6561,"ĠNormalize":6562,"ĠRemove":6563,"Ġincluding":6564,"'\\":6565,"Av":6566,"Cli":6567,"ILI":6568,"Rank":6569,"Sup":6570,"]),<":6571,"cot":6572,"card":6573,"eef":6574,"ham":6575,"npy":6576,"Ġ])<":6577,"deepspeed":6578,"Ġflat":6579,"Ġretain":6580,"Ġbot":6581,"umulative":6582,"ascript":6583,"tom":6584,"__).":6585,"concept":6586,"icode":6587,"ĠTRA":6588,"corners":6589,"Ġrmat":6590,"Ġproj":6591,"Ġuniform":6592,"redential":6593,"DataFrame":6594,"Ġpylint":6595,"completed":6596,"qdrant":6597,"Ġpositional":6598,"LED":6599,"motions":6600,"Ġneeds":6601,"ĠGenerator":6602,"Ġcolumns":6603,"åıĸ":6604,"Runner":6605,"Ġunittest":6606,"Ġcompatibility":6607,"BatchNorm":6608,"DATASET":6609,"ĠOtherwise":6610,"Ġparticular":6611,"BED":6612,"EP":6613,"End":6614,"Func":6615,"SM":6616,"fit":6617,"jor":6618,"sage":6619,"å°":6620,"æ¡":6621,"oral":6622,"algo":6623,"Ġfalse":6624,"Ġmon":6625,"Ġcsv":6626,"Ġplease":6627,"Ġema":6628,"Ġelapsed":6629,"ĠTrans":6630,"Ġdp":6631,"Ġdilation":6632,"resolve":6633,"Ġthree":6634,"ased":6635,"ĠGELU":6636,"address":6637,"ryan":6638,"accept":6639,"Ġsubmodules":6640,"fov":6641,"Ġtempfile":6642,"display":6643,"Ġflags":6644,"variables":6645,"NAMES":6646,"popup":6647,"quantize":6648,"Ġverify":6649,"crete":6650,"Ġbuilt":6651,"Multi":6652,"Identity":6653,"TYPES":6654,"ĠSoft":6655,"NORE":6656,"åº¦":6657,"Ġdeduped":6658,"ĠTRAIN":6659,"redentials":6660,")\\":6661,".'''<":6662,"Api":6663,"BE":6664,"Cre":6665,"Cross":6666,"SO":6667,"Speed":6668,"bryan":6669,"granularity":6670,"Ġli":6671,"Ġ._":6672,"Ġtait":6673,"des":6674,"depend":6675,"aries":6676,"Ġ\"@":6677,"Ġmul":6678,"Ġrepeat":6679,"Ġrelated":6680,"Ġpip":6681,"igr":6682,"Ġduration":6683,"Ġ''<":6684,"sha":6685,"Ġhq":6686,"rib":6687,"Ġdetermin":6688,"ĠIF":6689,"Ġbehavi":6690,"stribute":6691,"ORY":6692,"bour":6693,"Inversion":6694,"minator":6695,"ĠExec":6696,"Ġ...')<":6697,"encoderKL":6698,"EMBED":6699,"```<":6700,"LOW":6701,"ighbour":6702,"Ġworking":6703,"Ġentire":6704,"ĠProgram":6705,"Ġimplemented":6706,"scripts":6707,"packages":6708,"Ġmanage":6709,"ĠQuatern":6710,"Loading":6711,"ynchronous":6712,"ĠOnly":6713,"Ġexceed":6714,"affine":6715,")])<":6716,"404":6717,"66":6718,"Dec":6719,"Gaussian":6720,"Img":6721,"drant":6722,"rins":6723,"sr":6724,"such":6725,"É¢":6726,"ÊĻ":6727,"onnx":6728,"desc":6729,"Ġ\"#":6730,"Ġcallable":6731,"Ġincre":6732,"any":6733,"Ġthemes":6734,"admin":6735,"Ġforms":6736,"construct":6737,"olutions":6738,"()),":6739,"epSpeed":6740,"Ġdid":6741,"Ġexperiment":6742,"Ġart":6743,"Ġresp":6744,"Ġselection":6745,"Ġselector":6746,"DEBUG":6747,"utoff":6748,"STEM":6749,"Ġassociated":6750,"ĠTransformerBlock":6751,"ä¸į":6752,"Ġvocabulary":6753,"ĠDefine":6754,"({'":6755,"execution":6756,"effect":6757,"Ġextended":6758,"Ġcases":6759,"support":6760,"ĠOllamaServerConfig":6761,"=\"\")<":6762,"ercial":6763,"chemy":6764,"Playbook":6765,"big":6766,"ders":6767,"elastic":6768,"ti":6769,"xl":6770,"æĹ":6771,"æŃ":6772,"separator":6773,"alchemy":6774,"Ġwould":6775,"Ġest":6776,"cover":6777,"constructor":6778,"ĠTransform":6779,"Ġden":6780,"(\"-":6781,"short":6782,"projector":6783,"using":6784,"wave":6785,"ĠFore":6786,"precomp":6787,"Ġlora":6788,"Ġvae":6789,"teacher":6790,"mount":6791,"Ġsocket":6792,"############":6793,"Ġsuperclass":6794,"');<":6795,"Ġfails":6796,"ĠĠĠĠĠĠĠĠĠĠĠĠĠĠĠĠĠĠĠĠĠĠĠĠĠĠĠĠĠĠĠĠĠĠĠĠĠĠĠĠĠĠĠĠĠ":6797,"efficient":6798,"Masked":6799,"ĠComput":6800,"controlnet":6801,"TESTS":6802,"Ġcontrolnet":6803,"Executor":6804,"elems":6805,"scratch":6806,"(?":6807,"*.":6808,":])<":6809,">\",":6810,"EVA":6811,"Language":6812,"MESS":6813,"plexity":6814,"ves":6815,"Ġ~":6816,"Ġaz":6817,"Ġclear":6818,"Ġinside":6819,"Ġslice":6820,"Ġsandbox":6821,"lack":6822,"urses":6823,"iding":6824,"Ġ(*,":6825,"ulated":6826,"Ġeod":6827,"__}":6828,"()</":6829,"ĠTra":6830,"Ġdivisible":6831,"pper":6832,"ĠMemory":6833,"devices":6834,"viewless":6835,"Ġrequested":6836,"Ġgeneric":6837,"ITE":6838,"track":6839,"intermediate":6840,"Selection":6841,"Ġfilters":6842,"ckpts":6843,"Ġcallback":6844,"Ġ10000":6845,"ĠGPUs":6846,"chedulers":6847,"Ġtruncated":6848,"Ġsentences":6849,"Ġtkinter":6850,"Returns":6851,"Submodules":6852,"futures":6853,"ĠNetwork":6854,")')<":6855,"33":6856,"Des":6857,"GELU":6858,"MAN":6859,"Max":6860,"Write":6861,"margin":6862,"nq":6863,"ppo":6864,"ä¿":6865,"Ġ^":6866,"Ġlib":6867,"atrix":6868,"dep":6869,"alyz":6870,"utation":6871,"Ġmight":6872,"Ġcy":6873,"Ġ#################":6874,"Ġ14":6875,"Ġconcurrent":6876,"Ġ\"\"\"()":6877,"Ġstk":6878,"pyplot":6879,"Ġ24":6880,"ĠForm":6881,"\")[-":6882,"joco":6883,"='',":6884,"fixed":6885,"RESET":6886,"Ġcare":6887,"commercial":6888,"videos":6889,"Ġtransformation":6890,"))]<":6891,"ichoice":6892,"Ġmatching":6893,"Ġdisabled":6894,"ĠBaseImage":6895,"DOC":6896,"ParallelLinear":6897,"similarity":6898,"movement":6899,"Metadata":6900,"éĢģ":6901,"ĠParallel":6902,"Builder":6903,"Ġtraceback":6904,"Choice":6905,"petition":6906,"ĠFeedForward":6907,"(\"\"":6908,"/<":6909,">'''<":6910,"Ld":6911,"Loc":6912,"MENT":6913,"NN":6914,"OC":6915,"Task":6916,"cp":6917,"crops":6918,"warn":6919,"}'.":6920,"ç®":6921,"ino":6922,"seconds":6923,"chosen":6924,"Ġremote":6925,"digits":6926,"Ġwin":6927,"Ġdefine":6928,"Ġlook":6929,"Ġstill":6930,"attempt":6931,"inese":6932,"ĠPipeline":6933,"Ġcoord":6934,"ĠMan":6935,"Ġyaml":6936,"artifact":6937,"Ġdims":6938,"cached":6939,"Ġpyrogram":6940,"Ġupper":6941,"Pass":6942,"matches":6943,"Ġtracker":6944,"ĠJson":6945,"Ġreader":6946,"disk":6947,"disabled":6948,"CKER":6949,"0447":6950,"media":6951,"ĠZh":6952,"ĠConfiguration":6953,"\"[!]":6954,"Registry":6955,"Ġcosine":6956,"Ġfastapi":6957,"rimary":6958,"ĠControlNet":6959,"Validation":6960,"BytesIO":6961,"Ġmodify":6962,"navigation":6963,"ĠGLOBALS":6964,"firefox":6965,"stronomic":6966,"ANSWER":6967,"EMBEDDING":6968,"ĠQuaternions":6969,"86":6970,"Pos":6971,"Ret":6972,"SHO":6973,"][-":6974,"`].":6975,"cameras":6976,"elapsed":6977,"hard":6978,"med":6979,"nr":6980,"éĩ":6981,"Ġfn":6982,"Ġreverse":6983,"Ġshe":6984,"Ġsli":6985,"anced":6986,"advantages":6987,"Ġwere":6988,"extModel":6989,"Ġanalyze":6990,"Ġcontact":6991,"ĠST":6992,"proc":6993,"Ġstrategy":6994,"('<":6995,"ĠGo":6996,"ĠVideo":6997,"scroll":6998,"mlu":6999,"extraction":7000,"Ġgrouped":7001,"Ġ...'.":7002,"downsample":7003,"Expected":7004,"Ġactive":7005,"ategies":7006,"Ġcurrently":7007,"Ġdisk":7008,"replica":7009,"domains":7010,"Ġformatting":7011,"cosine":7012,"10000":7013,"EXAMPLE":7014,"Ġallows":7015,"freqs":7016,"orama":7017,"Ġreduction":7018,"supported":7019,"Ġindic":7020,"Ġperformance":7021,"Ġsqlalchemy":7022,"Ġcharacters":7023,"çŃĶ":7024,"requirements":7025,"Ġtags":7026,"ĠSoftware":7027,"/\",":7028,"Abstract":7029,"Create":7030,"Cannot":7031,"Fin":7032,"Missing":7033,"]}<":7034,"]])<":7035,"flo":7036,"follow":7037,"hold":7038,"lb":7039,"sil":7040,"spl":7041,"vh":7042,"writing":7043,"Ġssim":7044,"rome":7045,"iglu":7046,"Ġpay":7047,"Ġpair":7048,"##<":7049,"Ġ[],<":7050,"Ġ<<":7051,"Ġresume":7052,"Ġsection":7053,"rong":7054,"('_":7055,"ams":7056,"Ġjit":7057,"rylib":7058,"annel":7059,"á´ĺ":7060,"faces":7061,"ASK":7062,"splitext":7063,"Ġgeneral":7064,"Ġpercent":7065,"ĠSelf":7066,"Style":7067,"Ġspecify":7068,"Ġzarr":7069,"interpolation":7070,"LOCAL":7071,"factors":7072,"Ġtrajectory":7073,"insky":7074,"Ġfinetune":7075,"Ġpatches":7076,"ĠPreTrainedModel":7077,"Ġlink":7078,"accard":7079,"Ġaux":7080,"Ġfreeze":7081,"Ġoperations":7082,"Ġlocation":7083,"ShardedTensor":7084,"ShardedStrategy":7085,"sentences":7086,"Scatter":7087,"Ġ=============================================<":7088,"Êľá´ĩ":7089,"Ġdependencies":7090,"khrylib":7091,"cursive":7092,"erior":7093,"WordPiece":7094,"itespace":7095,"ILITY":7096,"splatting":7097,")*":7098,"DModel":7099,"GEN":7100,"Llama":7101,"cwd":7102,"snapshot":7103,"tlen":7104,"vllm":7105,"zone":7106,"Ġgelu":7107,"ĴĮ":7108,"Ġtxt":7109,"records":7110,"Ġsync":7111,"thought":7112,"Ġwd":7113,"verbose":7114,"ĠCO":7115,"classifier":7116,"ĠOmegaConf":7117,"Ġruntime":7118,"andinsky":7119,"('>":7120,"tokenization":7121,"DIMScheduler":7122,"EST":7123,"([[":7124,"Ġpositive":7125,"goal":7126,"STATE":7127,"PImageProcessor":7128,"Ġerrors":7129,"Ġiterator":7130,"Ġregistry":7131,"properties":7132,"paddings":7133,"ĠLocal":7134,"Ġproduce":7135,"Ġapex":7136,"Checker":7137,"CLASS":7138,"oolean":7139,"riminator":7140,"ĠDistributedDataParallel":7141,"tleneck":7142,"(\\":7143,".\",":7144,"CHO":7145,"First":7146,"HF":7147,"MIT":7148,"System":7149,"][:":7150,"await":7151,"blank":7152,"css":7153,"fuser":7154,"feed":7155,"mmap":7156,"nv":7157,"Ġ,":7158,"Ġhtml":7159,"erial":7160,"enet":7161,"uting":7162,"chdir":7163,"chars":7164,"Ġregex":7165,"Ġnamed":7166,"Ġsan":7167,"Ġsafe":7168,"lazy":7169,"Ġbf":7170,"ĠName":7171,"Ġgre":7172,"Ġ'/":7173,"ĠLOG":7174,"attach":7175,"ellow":7176,"Ġdiag":7177,"Ġdirection":7178,"ĠPad":7179,").\"\"\"<":7180,"ĠFind":7181,"ĠFrozen":7182,"istrable":7183,"numbers":7184,"ialog":7185,"ĠEns":7186,"logy":7187,"Ġknowledge":7188,"Configuration":7189,"Ġqa":7190,"Ġinterface":7191,"modes":7192,"Ġextracted":7193,"Attn":7194,"AttnMaskType":7195,"expr":7196,"Ġabstractmethod":7197,"HeadAttention":7198,"Ġarrays":7199,"diffusers":7200,"Ġpackaging":7201,"jectories":7202,"duplicate":7203,"ĠDDPMScheduler":7204,"%%%%%%%%":7205,"Ġ([`":7206,"ĠGlobals":7207,"ĠBlendedMegatron":7208,"Normalizer":7209,"MULTI":7210,")[...,":7211,".,<":7212,".'.":7213,"230":7214,":].":7215,"Be":7216,"COR":7217,"DD":7218,"gus":7219,"slug":7220,"yellow":7221,"}}":7222,"past":7223,"orary":7224,"Ġtanh":7225,"gemm":7226,"Ġff":7227,"Ġ\"\".":7228,"Ġcp":7229,"Ġcumulative":7230,"explanation":7231,"Ġpush":7232,"pts":7233,"Ġbits":7234,"asy":7235,"Ġtopo":7236,"Ġelem":7237,"formers":7238,"ĠPrint":7239,"ĠPeft":7240,"Ġonce":7241,"pages":7242,"patterns":7243,"Ġstarting":7244,"Selector":7245,"Ġintern":7246,"multimodal":7247,"Log":7248,"ĠImageNet":7249,"stacks":7250,"Ġtransition":7251,"MAP":7252,"Unexpected":7253,"ĠStepError":7254,"uided":7255,"elements":7256,"ĠFace":7257,"ĠBeaut":7258,"Ġdescrib":7259,"İ¨éĢģ":7260,"Drop":7261,"Ent":7262,"Edit":7263,"GE":7264,"NODE":7265,"On":7266,"SP":7267,"_%":7268,"catch":7269,"ech":7270,"gamma":7271,"two":7272,"watch":7273,"xml":7274,"æĿ":7275,"inem":7276,"incr":7277,"delay":7278,"rosa":7279,"Ġmid":7280,"hest":7281,"Ġinplace":7282,"pection":7283,"identity":7284,"Ġ-*":7285,"upported":7286,"Ġanother":7287,"Ġdw":7288,"Ġgra":7289,"Ġstable":7290,"ĠPRO":7291,"ressed":7292,"Ġresolve":7293,"loading":7294,"ĠBERT":7295,"Ġyet":7296,"Ġtensorized":7297,"scape":7298,"moved":7299,"Ġ400":7300,"trunc":7301,"embedder":7302,"Ġcollate":7303,"AGER":7304,"Ġclassification":7305,"linspace":7306,"ysteres":7307,"Ġintersection":7308,"beg":7309,"Ġ})<":7310,"ĠQuestion":7311,"PECT":7312,"vantage":7313,"Attribute":7314,"PreTrainedModel":7315,"clicked":7316,"connected":7317,"afetensors":7318,"ÉªÉ´":7319,"findall":7320,"Ġsignature":7321,"quantization":7322,"ĠTraining":7323,"ÊĢá´ĩ":7324,"TRACKER":7325,"æĺŁ":7326,"Discrete":7327,"bosity":7328,"++++++++":7329,"ĠBytesIO":7330,"include":7331,"2023":7332,"Ġoccur":7333,"MESSAGE":7334,"MANAGER":7335,"inemat":7336,"ysteresis":7337,"!<":7338,".\"":7339,">')<":7340,"AZ":7341,"Call":7342,"Graph":7343,"HyperParams":7344,"Label":7345,"Page":7346,"Uns":7347,"]\")<":7348,"category":7349,"dt":7350,"hw":7351,"hers":7352,"nth":7353,"safe":7354,"åĴĮ":7355,"orge":7356,"oring":7357,"atan":7358,"det":7359,"Ġfmt":7360,"lookup":7361,"Ġrest":7362,"Ġswe":7363,"Ġssl":7364,"didates":7365,"Ġomega":7366,"setLevel":7367,"Ġ---------":7368,"ication":7369,"==<":7370,"queries":7371,"Ġ'',":7372,"ends":7373,"istep":7374,"plug":7375,"Ġrobomimic":7376,"ocap":7377,"logprobs":7378,"Ġ48":7379,"ĠArgumentParser":7380,"Ġresponses":7381,"Ġobservation":7382,"Session":7383,"ĠStable":7384,"Ġnonlocal":7385,"á´ıá´ľ":7386,"assign":7387,"ĠFileNotFoundError":7388,"æľī":7389,"Ġapprox":7390,"Ġsubjects":7391,"ãĢĤ<":7392,"Connection":7393,"PECTED":7394,"AZURE":7395,":',":7396,"Async":7397,"Could":7398,"Cour":7399,"GRO":7400,"Jo":7401,"KV":7402,"mine":7403,"nested":7404,"ux":7405,"stub":7406,"stitial":7407,"stderr":7408,"Ġfo":7409,"Ġsp":7410,"Ġpur":7411,"Ġpdb":7412,"defics":7413,"Ġbranch":7414,"Ġ{:":7415,"Ġhist":7416,"ĠSk":7417,"Ġrule":7418,"perform":7419,"ĠMC":7420,"lying":7421,"Ġshared":7422,"Ġprevent":7423,"ĠEX":7424,"ĠGEMM":7425,"anny":7426,"\")),<":7427,"Ġlogvar":7428,"Ġneighbors":7429,"1234":7430,"Ġaccum":7431,"Ġnoins":7432,"Ġmost":7433,"translation":7434,"links":7435,"specs":7436,"Ġmultip":7437,"Ġactivations":7438,"Ġbackbone":7439,"ources":7440,"Ġclick":7441,"ĠAutoencoderKL":7442,"sdp":7443,"224":7444,"finetune":7445,"package":7446,"ABILITY":7447,"autores":7448,"freeze":7449,"ĠTrainer":7450,"Ġrefresh":7451,"Ġindividual":7452,"ĠCheckpointing":7453,"åĩº":7454,"GREEN":7455,"Ġnoinspection":7456,"autoresume":7457,"Dir":7458,"EVAL":7459,"WH":7460,"best":7461,"django":7462,"splits":7463,"{<":7464,"çĲ":7465,"Ġ]":7466,"requ":7467,"deep":7468,"Ġ\"../":7469,"Ġcard":7470,"Ġins":7471,"Ġnone":7472,"datetime":7473,"Ġblend":7474,"Ġwidget":7475,"Ġ(-":7476,"Ġconstructor":7477,"Ġgym":7478,"Ġhapp":7479,"Ġhyper":7480,"allclose":7481,"Ġdecision":7482,"Ġcov":7483,"osp":7484,"ĠMIT":7485,"tokenized":7486,"Ġvq":7487,"INPUT":7488,"okens":7489,"Ġknn":7490,"iterations":7491,"cols":7492,"ualInversion":7493,"Ġcolorama":7494,"Ġtech":7495,"Ġmomentum":7496,"docstring":7497,"defaults":7498,"begin":7499,"Ġlocals":7500,"Ġ123":7501,"scalar":7502,"Ġexperts":7503,"POINT":7504,"Generate":7505,"MODELS":7506,"RequestException":7507,"Ġoptimization":7508,"Ġextension":7509,"æķ°æį®":7510,"Ġdenominator":7511,"Ġrequirements":7512,"åĽŀ":7513,"ĠCLIPTextModel":7514,"matically":7515,"ualInversionLoaderMixin":7516,"$$":7517,")`":7518,"201":7519,"255":7520,"Action":7521,"BUT":7522,"Date":7523,"URN":7524,"beat":7525,"blend":7526,"cpp":7527,"fpath":7528,"frozen":7529,"gym":7530,"guidance":7531,"ipped":7532,"turbo":7533,"zh":7534,"Ġaw":7535,"Ġmix":7536,"Ġnltk":7537,"ings":7538,"Ġsqu":7539,"Ġpin":7540,"Ġwrapped":7541,"Ġdefined":7542,"Ġlock":7543,"ĠLi":7544,"Ġpropert":7545,"ĠWindow":7546,"compat":7547,"Ġattempt":7548,"ritten":7549,"clude":7550,"Inference":7551,"ATCH":7552,"retry":7553,"lugin":7554,"agents":7555,"Ġscales":7556,"Ġgradio":7557,"Ġstatistics":7558,"Ġcontainer":7559,"Format":7560,"gradio":7561,"calculator":7562,"ĠIMAGE":7563,"Ġbehavior":7564,"044715":7565,")\":":7566,")],":7567,"AUT":7568,"APP":7569,"BACK":7570,"Clo":7571,"Def":7572,"GO":7573,"GR":7574,"HER":7575,"Queue":7576,"Target":7577,"bil":7578,"cancel":7579,"guess":7580,"wallet":7581,"Ġ],":7582,"rel":7583,"ression":7584,"recommend":7585,"roles":7586,"Ġmot":7587,"metas":7588,"extended":7589,"vals":7590,"(\"_":7591,"Ġgamma":7592,"Ġhad":7593,"Ġnote":7594,"\"]),<":7595,"istency":7596,"Ġcoords":7597,"pointer":7598,"licated":7599,"comment":7600,"ĠThese":7601,"unknown":7602,"capacity":7603,"access":7604,"Ġvalidat":7605,"npz":7606,"Ġindexes":7607,"oaders":7608,"127":7609,"ĠInteger":7610,"Ġmaybe":7611,"readlines":7612,"retries":7613,"Ġlearn":7614,"See":7615,"gments":7616,"ĠĠĠĠĠĠĠĠĠĠĠĠĠĠĠĠĠĠĠĠĠĠĠĠĠĠĠĠĠĠ":7617,"Ġchecks":7618,"probas":7619,"ĠAttributes":7620,"gressive":7621,"TextDataset":7622,"Ġplan":7623,"Ġterm":7624,"LDER":7625,"Ġannotations":7626,"WHITE":7627,")$":7628,">[":7629,">```<":7630,"Equal":7631,"Episode":7632,"IZ":7633,"TypedDict":7634,"bad":7635,"dst":7636,"evidence":7637,"åĨ":7638,"åľ":7639,"imer":7640,"imal":7641,"Ġmmap":7642,"Ġcert":7643,"ssl":7644,"Ġprimary":7645,"Ġ()":7646,"ĠTimeoutError":7647,"ĠAuth":7648,"ĠCall":7649,"ĠCUDA":7650,"docker":7651,"ĠFirst":7652,"ĠICT":7653,"005":7654,"008":7655,"ĠMAX":7656,"bleu":7657,"tech":7658,"contrib":7659,"iphers":7660,"Ġindexmap":7661,"***":7662,"Ġfunctionality":7663,"Ġcollection":7664,"ĠKe":7665,"Ġaccording":7666,"google":7667,"transfer":7668,"ĠStore":7669,"arger":7670,"ifiers":7671,"itect":7672,"descriptions":7673,"ï¼ļ":7674,"ĠShardedObject":7675,"optimizers":7676,"Ġepsilon":7677,"Post":7678,"Point":7679,"Ġconditioning":7680,"roller":7681,"ValueWith":7682,"humanml":7683,"âķĲâķĲâķĲâķĲ":7684,"balancing":7685,"Ġspaces":7686,"slices":7687,"Ġagainst":7688,"ĠLLa":7689,"ç®Ĺ":7690,"Unsupported":7691,"ValueWithRank":7692,"./":7693,"DM":7694,"Memory":7695,"PH":7696,"QL":7697,"ached":7698,"hist":7699,"tar":7700,"vic":7701,"watermark":7702,"å¹":7703,"è¾":7704,"rest":7705,"Ġast":7706,"Ġfhs":7707,"Ġrecords":7708,"Ġns":7709,"Ġsa":7710,"digest":7711,"Ġpot":7712,"strategies":7713,"getcwd":7714,"iling":7715,"Ġdue":7716,"Ġ18":7717,"(\",":7718,"quiz":7719,"Ġ*,<":7720,"ely":7721,"double":7722,"ques":7723,"keyword":7724,"Ġdelay":7725,"ĠRET":7726,"ĠBack":7727,"licies":7728,"pies":7729,"pickle":7730,"stributions":7731,"Ġconfigs":7732,"ĠVision":7733,"\"))":7734,"\")))<":7735,"scene":7736,"Ġattrs":7737,"until":7738,"sumed":7739,"Ġaccelerator":7740,"override":7741,"aky":7742,"Program":7743,"Projection":7744,"Ġtimm":7745,"Ġadvantages":7746,"Listener":7747,"Array":7748,"implement":7749,"Ġflash":7750,"á´ĩÊĢ":7751,"Ġprefixes":7752,"ðĿĳ":7753,"ðĿļ":7754,"Decode":7755,"autore":7756,"parameterized":7757,"ĠExamples":7758,"192":7759,"origin":7760,"todos":7761,"container":7762,"-------<":7763,"è§Ĵ":7764,"CharField":7765,"javascript":7766,"treetune":7767,"facebookresearch":7768,"GENER":7769,"Ġinternal":7770,"Ġoccurred":7771,"Crop":7772,"Det":7773,"GHT":7774,"Lay":7775,"Safety":7776,"ail":7777,"draw":7778,"ipping":7779,"mantic":7780,"mpeg":7781,"udo":7782,"wen":7783,"¡ç®Ĺ":7784,"pab":7785,"reference":7786,"Ġauthor":7787,"learning":7788,"chuan":7789,"Ġffn":7790,"Ġmargin":7791,"Ġskeleton":7792,"Ġpeft":7793,"analyze":7794,"Ġbal":7795,"uming":7796,"unroute":7797,"fromarray":7798,"ully":7799,"power":7800,"ĠAct":7801,"Ġgbuf":7802,"Ġhuman":7803,"ĠSolver":7804,"ĠSkeleton":7805,"ĠPool":7806,"usoid":7807,"way":7808,"\"]]<":7809,"energ":7810,"Ġunwrap":7811,"Ġpreds":7812,"Ġpretraining":7813,"sampled":7814,"ĠRead":7815,"Ġwhite":7816,"Ġwhitespace":7817,"ivity":7818,"Ġgenerations":7819,"Ġcontiguous":7820,"ModuleSpec":7821,"Ġqvel":7822,"ĠExit":7823,"interface":7824,"cyan":7825,"Ġface":7826,"note":7827,"Ġscaler":7828,"Ġconvolution":7829,"Ġbetter":7830,"decoded":7831,"Ġentity":7832,"Ġepochs":7833,"ĠSetup":7834,"autocast":7835,"Namespace":7836,"secret":7837,"Completion":7838,"åĪĨ":7839,"Ġhandling":7840,"Ġ\"[!]":7841,"pusht":7842,"Web":7843,"æŀľ":7844,"SYSTEM":7845,"ighbours":7846,"rinsics":7847,"ĠEnsure":7848,"bilinear":7849,"SafetyChecker":7850,"!\"<":7851,"44":7852,"85":7853,"Browser":7854,"NEL":7855,"OF":7856,"Score":7857,"]\"":7858,"iou":7859,"nll":7860,"vas":7861,"wt":7862,"ying":7863,"zA":7864,"Ġamount":7865,"Ġfan":7866,"heel":7867,"Ġreprod":7868,"Ġcipher":7869,"series":7870,"__)),":7871,"illa":7872,"();<":7873,"Ġgive":7874,"ĠCa":7875,"ĠLlava":7876,"Ġhop":7877,"ĠSingle":7878,"usive":7879,"Ġthose":7880,"tak":7881,"ĠWrite":7882,"ĠWord":7883,"cud":7884,"compare":7885,"methods":7886,"accs":7887,"READ":7888,"lecture":7889,"ĠInvalid":7890,"subset":7891,"submit":7892,"normalization":7893,"Distributed":7894,"dataloaders":7895,"Ġfinally":7896,"Ġflask":7897,"Ġá´Ħ":7898,"bitmq":7899,"TransformerBlock":7900,"ĠTypeError":7901,"ĠCLIPImageProcessor":7902,"Ġscripts":7903,"HEAD":7904,"Ġabsolute":7905,"mips":7906,"####################################################":7907,"DiscreteScheduler":7908,")}<":7909,"-\\":7910,"AP":7911,"BOT":7912,"Handle":7913,"Matrix":7914,"PER":7915,"Top":7916,"Using":7917,"Zero":7918,"cer":7919,"ever":7920,"focus":7921,"growth":7922,"tuning":7923,"wner":7924,"xlabel":7925,"{{":7926,"¦ģ":7927,"çĽ":7928,"stars":7929,"deepcopy":7930,"Ġflip":7931,"Ġnb":7932,"Ġsimp":7933,"Ġslug":7934,"Ġasynchronous":7935,"coord":7936,"major":7937,"Ġhref":7938,"ĠStop":7939,"aba":7940,"Ġdeterm":7941,"ĠFP":7942,"ĠFrom":7943,"ĠOver":7944,"Ġsep":7945,"ncode":7946,"fact":7947,"collect":7948,"ĠInitial":7949,"DED":7950,"Ġcapture":7951,"rots":7952,"Ġmodified":7953,"START":7954,"Ġleg":7955,"LOAD":7956,"Example":7957,"Ġapplication":7958,"levelname":7959,"}.\"<":7960,"Enter":7961,"Ġlater":7962,"Ġfilenames":7963,"(\"./":7964,"odality":7965,"ĠShardedTensorFactory":7966,"edges":7967,"Ġclientai":7968,"expanduser":7969,"building":7970,"ĠĠĠĠĠĠĠĠĠĠĠĠĠĠĠĠĠĠĠĠĠĠĠĠĠĠĠĠĠĠĠĠĠĠĠĠĠĠĠĠĠĠĠĠĠĠĠĠĠĠ":7971,"Ġpsnr":7972,"triangles":7973,"icks":7974,"Ġdots":7975,"sender":7976,"allocate":7977,"reenshot":7978,"Status":7979,"'%":7980,"Custom":7981,"Callback":7982,"DDP":7983,"LATION":7984,"Per":7985,"SV":7986,"Schedulers":7987,"Table":7988,"Version":7989,"flip":7990,"fmt":7991,"horizon":7992,"ier":7993,"ience":7994,"ount":7995,"sol":7996,"sph":7997,"suggest":7998,"urable":7999,"å¾":8000,"çī":8001,"è½":8002,"Ġttk":8003,"recall":8004,"Ġaio":8005,"Ġfeed":8006,"ctime":8007,"Ġmq":8008,"Ġspan":8009,"lace":8010,"Ġollama":8011,"ptr":8012,"Ġbook":8013,"unity":8014,"adlr":8015,"lihood":8016,"extension":8017,"__))<":8018,"concat":8019,"Ġder":8020,"ising":8021,"kel":8022,"ĠScorer":8023,"Ġmaint":8024,"ĠFI":8025,"ĠFloat":8026,"ĠDep":8027,"Ġseg":8028,"Ġlate":8029,"amount":8030,"ĠEach":8031,"ĠWeights":8032,"Ġrol":8033,"screen":8034,"Ġimpro":8035,"SES":8036,"ĠArgus":8037,"workspace":8038,"Store":8039,"hop":8040,"Ġhel":8041,"ĠStart":8042,"Ġscan":8043,"Extra":8044,"rollout":8045,"Ġcorrectly":8046,"ĠBaseLowdim":8047,"DiffusionSchedulers":8048,"Ġcalling":8049,"finetuning":8050,"Ġstreaming":8051,"RIBUT":8052,"buckets":8053,"built":8054,"Ġrewards":8055,"Ġintegers":8056,"Ġconsider":8057,"ĠMultiHeadAttention":8058,"ä»¥":8059,"ynchronize":8060,"Depend":8061,"Ġexpire":8062,"deploy":8063,"Course":8064,"72":8065,"94":8066,"Ops":8067,"^\\":8068,"craft":8069,"dw":8070,"glu":8071,"kp":8072,"nel":8073,"public":8074,"ä¹":8075,"pairs":8076,"enu":8077,"enes":8078,"rector":8079,"remat":8080,"rope":8081,"chans":8082,"ceive":8083,"Ġsort":8084,"dilation":8085,"metry":8086,"Ġbw":8087,"Ġbz":8088,"unbind":8089,"Ġws":8090,"asis":8091,"getHeader":8092,"Ġassetdir":8093,"ĠNO":8094,"()\")<":8095,"ĠAlib":8096,"Ġgc":8097,"Ġhard":8098,"Ġstored":8099,"keyB":8100,"ĠRE":8101,"iful":8102,"ĠUSE":8103,"Ġjseq":8104,"logvar":8105,"Ġkernels":8106,"Ġ:].":8107,"REG":8108,"observations":8109,"Integer":8110,"fference":8111,"ĠInstruction":8112,"hoto":8113,"placeholder":8114,"intersection":8115,"Ġless":8116,"Ġinterpolation":8117,"Directory":8118,"beams":8119,"TrainData":8120,"AND":8121,"refer":8122,"Ġcloud":8123,"Unknown":8124,"ĠResult":8125,"ĠRotary":8126,"Ġ\\\\<":8127,"Ġchannelmap":8128,"Ġretriever":8129,"Ġadjusted":8130,"Ġmyjson":8131,"ĠAnswer":8132,"êľ°":8133,"Ġcompatible":8134,"ĠDocstring":8135,"LevelDataset":8136,"Iteration":8137,"Ġbiencoder":8138,"ĠString":8139,"Reader":8140,"english":8141,"When":8142,"Ġpixel":8143,"hammer":8144,"plugin":8145,"çĲĨ":8146,"usoidal":8147,"Ġdetermine":8148,"ĠAlibaba":8149,")\",<":8150,"*\",<":8151,"/%":8152,"2024":8153,"ARE":8154,"Author":8155,"CODE":8156,"EE":8157,"Metric":8158,"Total":8159,"Ut":8160,"bly":8161,"cert":8162,"credentials":8163,"dret":8164,"fd":8165,"hybrid":8166,"judge":8167,"oto":8168,"tension":8169,"xs":8170,"¦Ĥ":8171,"è¦ģ":8172,"Ġvertices":8173,"raps":8174,"itting":8175,"Ġmd":8176,"Ġinqui":8177,"Ġsnapshot":8178,"Ġput":8179,"entially":8180,"\"\"\",<":8181,"touch":8182,"setdefault":8183,"Ġeos":8184,"iline":8185,"contact":8186,"ĠAudio":8187,"ĠSH":8188,"Ġexport":8189,"ĠFilter":8190,"}</":8191,"ranges":8192,"[::-":8193,"bounding":8194,"job":8195,"Ġbyte":8196,"phore":8197,"genta":8198,"omial":8199,"Ġaccept":8200,"Ġrunner":8201,"AGES":8202,"ĠStyle":8203,"ĠStudent":8204,"Ġdocstring":8205,"disable":8206,"dispose":8207,"gathered":8208,"Ġembedder":8209,"Ġregular":8210,"Ġexplicit":8211,"executor":8212,"Ġencodings":8213,"ĠĠĠĠĠĠĠĠĠĠĠĠĠĠĠĠĠĠĠĠĠĠĠĠĠĠĠĠĠĠĠĠĠĠĠĠĠĠĠĠĠĠĠĠ":8214,"planes":8215,"ĠDeepSpeed":8216,"ĠZero":8217,"Ġcomputed":8218,"documents":8219,"Ġletters":8220,"Ġlocator":8221,"Ġgeorge":8222,"Compose":8223,"ä»¶":8224,"âĢĻ":8225,"Ġè®":8226,"zzz":8227,"Ġexceeded":8228,"BertModel":8229,"ĠTempNamed":8230,"TRAINED":8231,"CHANNEL":8232,"Created":8233,"Ġexceeds":8234,"holders":8235,"energy":8236,"takis":8237,"drettakis":8238,"Ġinquiries":8239,"ĠTempNamedDir":8240,"!!":8241,"54":8242,"[/":8243,"]**":8244,"ah":8245,"ao":8246,"average":8247,"cis":8248,"ian":8249,"lator":8250,"mmlu":8251,"pcfg":8252,"åĮ":8253,"resent":8254,"loth":8255,"Ġcat":8256,"Ġcot":8257,"Ġnd":8258,"lies":8259,"ulder":8260,"ĠTr":8261,"Ġconcept":8262,"ĠLora":8263,"ĠScal":8264,"Ġstoring":8265,"ĠRO":8266,"andbytes":8267,"Ġshs":8268,"fork":8269,"ĠVari":8270,"berta":8271,"ipedia":8272,"Ġalloc":8273,"Ġcomment":8274,"LID":8275,"Ġcap":8276,"trainedConfig":8277,"Ġqueryset":8278,"interpolate":8279,"Network":8280,"Based":8281,"Ġtruth":8282,"ToTextDataset":8283,"Ġckpts":8284,"Change":8285,"iliary":8286,"pander":8287,"ĠChannel":8288,"Ġbuilder":8289,"ĠModuleSpec":8290,"Ġmmcv":8291,"Ġadapted":8292,"transitions":8293,"challenges":8294,"Docstring":8295,"einsum":8296,"ĠGoogle":8297,"Only":8298,"ĠRETURN":8299,"autoreset":8300,"cudnn":8301,"rectories":8302,"ACT":8303,"Box":8304,"Case":8305,"IP":8306,"Limit":8307,"Length":8308,"LAY":8309,"Over":8310,"PC":8311,"Rep":8312,"Row":8313,"[(":8314,"bine":8315,"hu":8316,"ohot":8317,"rstrip":8318,"td":8319,"æī":8320,"Ġ))<":8321,"pag":8322,"instantiate":8323,"onical":8324,"Ġrepetition":8325,"Ġremoved":8326,"exe":8327,"Ġpower":8328,"ighest":8329,"Ġbasic":8330,"oney":8331,"Ġpairs":8332,"Ġpanel":8333,"cov":8334,"pooled":8335,"ĠTime":8336,"Ġconversation":8337,"ĠCan":8338,"Ġher":8339,"ĠSpec":8340,"abort":8341,"attern":8342,"Ġdatapaths":8343,"ĠPatch":8344,"ĠPAI":8345,"Ġdecor":8346,"ĠFOR":8347,"ĠFAI":8348,"numer":8349,"Ġprotocol":8350,"pick":8351,"ĠEpisode":8352,"mom":8353,"ĠCounter":8354,"ModelParallelRegion":8355,"viewpoint":8356,"attrs":8357,"VICE":8358,"specific":8359,"multichoice":8360,"Ġpick":8361,"Ġfeats":8362,"emails":8363,"Ġtrust":8364,"Ġexecuted":8365,"Ġapplying":8366,"Soup":8367,"Analyzer":8368,"ĠParameter":8369,"ymbo":8370,"SCRI":8371,"rypto":8372,"Classification":8373,"discrete":8374,"ĠThere":8375,"Ġarchitect":8376,"detected":8377,"Ġadapter":8378,"GradScaler":8379,"Update":8380,"Ġ4096":8381,"ĠRetrieve":8382,"ĠPosition":8383,"Locator":8384,"ĠBeautiful":8385,"Ġlatest":8386,"Ġrollout":8387,"ĠBeautifulSoup":8388,"2048":8389,"73":8390,"GS":8391,"Owner":8392,"Pad":8393,"Simple":8394,"Success":8395,"Tree":8396,"XL":8397,"]])":8398,"bc":8399,"ciphers":8400,"hue":8401,"lur":8402,"mse":8403,"ssert":8404,"ç¬":8405,"èµ":8406,"ĠÐ":8407,"pause":8408,"imgs":8409,"Ġay":8410,"gether":8411,"arize":8412,"Ġ\"\",<":8413,"Ġiou":8414,"Ġsol":8415,"Ġspatial":8416,"experiment":8417,"ane":8418,"think":8419,"thook":8420,"Ġbx":8421,"Ġwave":8422,"Ġ(_":8423,"assetdir":8424,"setattr":8425,"Ġelastic":8426,"ames":8427,"()\"\"\"<":8428,"ĠAss":8429,"Ġguess":8430,"\"<|":8431,"ĠCla":8432,"processes":8433,"pardir":8434,"Ġdemo":8435,"Ġdebug":8436,"wav":8437,"ĠgetLogger":8438,"Ġcopied":8439,"Ġthink":8440,"Ġresample":8441,"ĠMetric":8442,"Ġcho":8443,"INO":8444,"aichuan":8445,"ĠComm":8446,"Ġ::":8447,"eature":8448,"RAPH":8449,"Ġ502":8450,"Ġcaptions":8451,"Ġruns":8452,"owner":8453,"Ġclassifier":8454,"Ġdocs":8455,"Ġiterable":8456,"AMA":8457,"ImageProcessor":8458,"Ġchanged":8459,"COL":8460,"tmpdir":8461,"Ġæľ":8462,"redirects":8463,"needles":8464,"Ġsimilar":8465,"Mock":8466,"Thread":8467,"ĠMethod":8468,"äºİ":8469,"ĠAdjust":8470,"Ġsliding":8471,"Ġincluded":8472,"Ġ:-)')<":8473,"Ġcharacter":8474,"~~~~~~~~":8475,"INTERPO":8476,"stock":8477,"ĠZhou":8478,"silu":8479,"'\")<":8480,"';<":8481,")-":8482,"/\"<":8483,"/\")<":8484,"41":8485,"87":8486,"91":8487,"Ann":8488,"Back":8489,"Bench":8490,"BERT":8491,"Final":8492,"Pix":8493,"Plugin":8494,"Router":8495,"XT":8496,"avi":8497,"cf":8498,"cnn":8499,"cies":8500,"fw":8501,"fsdp":8502,"ming":8503,"ost":8504,"promise":8505,"rerun":8506,"}%":8507,"æ®":8508,"Ġvery":8509,"passed":8510,"separate":8511,"alg":8512,"chast":8513,"ardown":8514,"Ġmit":8515,"Ġincorrect":8516,"Ġsumm":8517,"Ġpr":8518,"Ġpub":8519,"Ġpublic":8520,"Ġbit":8521,"asctime":8522,"setHeader":8523,"conn":8524,"posed":8525,"policies":8526,"uplicated":8527,"versed":8528,"ypes":8529,"()}":8530,"()}\"<":8531,"ĠLow":8532,"\",)<":8533,"prop":8534,"ĠFast":8535,"ĠRMS":8536,"\"]]":8537,"Ġsen":8538,"tensorboard":8539,"masking":8540,"','":8541,"__(**":8542,"ĠGroq":8543,"ORT":8544,"Ġknown":8545,"ĠThey":8546,"most":8547,"DataSource":8548,"ARGET":8549,"AGEN":8550,"))[":8551,"responses":8552,"components":8553,"')[-":8554,"ĠShortcut":8555,"Ġones":8556,"replicate":8557,"microbatch":8558,"cased":8559,"RequestError":8560,"truths":8561,"RIGHT":8562,"timestamps":8563,"Ġvirtual":8564,"ĠTextualInversionLoaderMixin":8565,"dots":8566,"dotenv":8567,"Ġautomatically":8568,"Ġinfinite":8569,"ĠAdded":8570,"ough":8571,".*?":8572,"prime":8573,"Admin":8574,"identifiers":8575,"æłĩ":8576,"arpness":8577,"fea":8578,"ĠKarrasDiffusionSchedulers":8579,"çº¬":8580,"ĠSelfAttention":8581,"Ġdiagonal":8582,"GROUP":8583,"09":8584,"300":8585,"Io":8586,"LER":8587,"Mark":8588,"Map":8589,"PY":8590,"WS":8591,"Weights":8592,"_\"":8593,"dc":8594,"false":8595,"guided":8596,"hit":8597,"oper":8598,"sat":8599,"wi":8600,"å¿":8601,"ľâĶĢ":8602,"Ġtgt":8603,"recon":8604,"rewrite":8605,"ale":8606,"lfw":8607,"Ġmse":8608,"Ġmuch":8609,"portions":8610,"uri":8611,"dation":8612,"Ġtheta":8613,"____":8614,"ĠTop":8615,"oly":8616,"ĠACT":8617,"Ġglfw":8618,"maz":8619,"about":8620,"profile":8621,"rist":8622,"ĠPDF":8623,"ĠFLAG":8624,"Ġthresh":8625,"Ġrescale":8626,"tensorized":8627,"Ġlarger":8628,"Ġproblems":8629,"----<":8630,"ponential":8631,"aming":8632,"TIC":8633,"\")]<":8634,"Ġsources":8635,"Ġnethook":8636,"Ġjsonify":8637,"Ġdicts":8638,"Ġcached":8639,"overflow":8640,"locals":8641,"ĠDataSource":8642,"Ġbaseline":8643,"multip":8644,"Ġfail":8645,"Ġwindows":8646,"ĠTransformerLayer":8647,"PreTrainedTokenizer":8648,"ĠBaseModel":8649,"BaseOutput":8650,"ðĿĺ":8651,"({<":8652,"curacies":8653,"executable":8654,"Ġfiltered":8655,"ĠResNet":8656,"Control":8657,"ĠConverts":8658,"IGNORE":8659,"persistent":8660,"Ġshifted":8661,"pipelining":8662,"Ġregistered":8663,"ĠĠĠĠĠĠĠĠĠĠĠĠĠĠĠĠĠĠĠĠĠĠĠĠĠĠĠĠĠĠĠĠĠĠĠĠĠĠĠĠĠĠĠĠĠĠĠĠĠ":8664,"accounts":8665,"Ġsimilarity":8666,"ViT":8667,"Ġedges":8668,"ĠWorkflow":8669,"ĠClientAI":8670,"æĪĲ":8671,"Ġ\"**/*\",<":8672,"Ġorigin":8673,"ĠCLIPTokenizer":8674,"Ġ-------------------------------------------------":8675,"square":8676,"computed":8677,"ĠStateDict":8678,"feedforward":8679,"2309":8680,"è¾ĵ":8681,"Layout":8682,"INTERPOLATION":8683,"æ®µ":8684,"chastic":8685,"Hub":8686,"NS":8687,"Scope":8688,"`\")<":8689,"ee":8690,"fbx":8691,"hance":8692,"pids":8693,"sloth":8694,"}]":8695,"æģ":8696,"ç½":8697,"pact":8698,"Ġtw":8699,"Ġ=================":8700,"Ġauth":8701,"chema":8702,"choo":8703,"Ġfine":8704,"Ġrefer":8705,"Ġremov":8706,"cel":8707,"Ġspect":8708,"digit":8709,"urations":8710,"entication":8711,"peech":8712,"defined":8713,"advantage":8714,"Ġwatermark":8715,"libs":8716,"Ġtoo":8717,"otes":8718,"confidence":8719,"ĠNow":8720,"ĠTokenizer":8721,"isions":8722,"(\"[":8723,"verbosity":8724,"ĠAM":8725,"esh":8726,"mass":8727,"ĠCode":8728,"Ġhour":8729,"Ġhighest":8730,"ĠSE":8731,"ĠSend":8732,"Ġdivision":8733,"Ġxyz":8734,"corr":8735,"Ġprevents":8736,"ĠVector":8737,"á´ł":8738,"oregressive":8739,"blocking":8740,"mats":8741,"lerobot":8742,"Ġoutline":8743,"ĠHel":8744,"colors":8745,"Ġjsonl":8746,"statistics":8747,"attentions":8748,"Ġsubproblem":8749,"boxes":8750,"Ġchunked":8751,"structed":8752,"ĠStream":8753,"Provide":8754,"aster":8755,"closed":8756,"ĠShould":8757,"Ġscatter":8758,"Ġchecking":8759,"ategories":8760,"Ġvars":8761,"biased":8762,"ĠJo":8763,"Args":8764,"Ġsklearn":8765,"ĠBaseOutput":8766,"returns":8767,"Ġclosure":8768,"ĠTestServer":8769,"environment":8770,"EXPECTED":8771,"Socket":8772,"ToTensor":8773,"TOKENIZ":8774,"ĠMegatronDataset":8775,"istral":8776,"depths":8777,"secure":8778,"difier":8779,"pixels":8780,"allowed":8781,"BOS":8782,"Ġbroadcasting":8783,"åĬł":8784,"Ġhandles":8785,"ĠLinearNormalizer":8786,"StreamResponse":8787,"MOD":8788,"Ġdistances":8789,"ĠCLIPVision":8790,"dispatcher":8791,"children":8792,"FLAGS":8793,"Flax":8794,"Available":8795,"Ġlibrosa":8796,"Ġpayload":8797,"inematic":8798,"requency":8799,"çīĩ":8800,"ymbolic":8801,"SCRIPT":8802,"chooser":8803,"ĠTestServerRequest":8804,"(()":8805,"*:":8806,"59":8807,"63":8808,">\\":8809,">â":8810,"At":8811,"JSON":8812,"Raw":8813,"`]):<":8814,"cutoff":8815,"gbuf":8816,"ned":8817,"nip":8818,"vanced":8819,"Òĵ":8820,"Ġzeros":8821,"injected":8822,"ons":8823,"atmap":8824,"reach":8825,"decorator":8826,"robot":8827,"lev":8828,"rab":8829,"itles":8830,"Ġft":8831,"Ġrecursive":8832,"Ġcategory":8833,"odetic":8834,"expi":8835,"entence":8836,"Ġboolean":8837,"Ġwrong":8838,"Ġ(:":8839,"Ġtoxic":8840,"extensions":8841,"Ġear":8842,"covery":8843,"ĠNa":8844,"ĠTP":8845,"verify":8846,"Ġhar":8847,"ĠDDIMScheduler":8848,"ĠIP":8849,"ĠImplement":8850,"Ġcoeff":8851,"redit":8852,"posit":8853,"ĠVer":8854,"querySelector":8855,"lowdim":8856,"DIS":8857,"Ġwho":8858,"ModelArguments":8859,"Ġalgo":8860,"latex":8861,"Ġqdrant":8862,"ATES":8863,"Ġfunctional":8864,"readable":8865,"communication":8866,"ITEM":8867,"rotmat":8868,"ĠStat":8869,"Problem":8870,"multiline":8871,"Ġcommit":8872,"SIG":8873,"Ġá´ı":8874,"riterion":8875,"Ġsqrt":8876,"etuningArguments":8877,"Ġcleaned":8878,"signature":8879,"Ġ\"./":8880,"WORLD":8881,"installed":8882,"Ġoptimizers":8883,"Ġradii":8884,"ĠPost":8885,"ĠReplicate":8886,"ĠRepresent":8887,"accumulate":8888,"Ġmoves":8889,"Ġtimestamps":8890,"serialization":8891,"contains":8892,"ddpm":8893,"interleaved":8894,"misc":8895,"Ġcookies":8896,"Ġissues":8897,"è¡Į":8898,"Ġhorizontal":8899,"OCAB":8900,"implementation":8901,"AVE":8902,"CESS":8903,"FN":8904,"Non":8905,"Option":8906,"Ollama":8907,"RT":8908,"Rot":8909,"TRAN":8910,"Usage":8911,"Vis":8912,"Vocab":8913,"dantic":8914,"gm":8915,"ka":8916,"mixed":8917,"null":8918,"ql":8919,"wheel":8920,"å¯":8921,"įåĬ":8922,"inuation":8923,"ori":8924,"seudo":8925,"ongest":8926,"received":8927,"del":8928,"Ġam":8929,"Ġfit":8930,"ctrl":8931,"Ġmixed":8932,"Ġmedia":8933,"imports":8934,"Ġ#####################################################":8935,"ateLimit":8936,"Ġtodo":8937,"Ġtogether":8938,"izes":8939,"internal":8940,">#################################":8941,"Ġconcatenate":8942,"Ġgives":8943,"ĠSystem":8944,"Ġstderr":8945,"Ġdistribute":8946,"ĠDraw":8947,"preprocessing":8948,"Ġ_(\"":8949,"Ġrgb":8950,"period":8951,"Ġproper":8952,"ONE":8953,"Ġjpos":8954,"ORCH":8955,"sock":8956,"team":8957,"swe":8958,"ENS":8959,"SEC":8960,"Ġlogin":8961,"Ġperplexity":8962,"Ġweighted":8963,"Ġ...\")<":8964,"sequences":8965,"fns":8966,"memmory":8967,"Ġworkers":8968,"enced":8969,"Encoding":8970,"detail":8971,"Ġnormalizer":8972,"downloads":8973,"Ġmanually":8974,"nontoxic":8975,"cases":8976,"destination":8977,"Ġbuckets":8978,"instagram":8979,"annotators":8980,"rolling":8981,"warnings":8982,"Ġreply":8983,"Ġdiscret":8984,"Multistep":8985,"VeScheduler":8986,"ãĢģ":8987,"Ġeffect":8988,"ĠValidate":8989,"Ġpossibly":8990,"Êıá´ıá´ľ":8991,"åŃĹ":8992,"iddleware":8993,"Ġjoblib":8994,"Ġdestination":8995,"Original":8996,"Ġnumerical":8997,"wiki":8998,"SHOT":8999,"Ġarchitecture":9000,"ç½®":9001,"'re":9002,");":9003,"Act":9004,"CS":9005,"CAM":9006,"GD":9007,"Of":9008,"Orm":9009,"TLS":9010,"Window":9011,"WARE":9012,"ddim":9013,"fwd":9014,"hysteresis":9015,"ips":9016,"safetensors":9017,"å·":9018,"Ġvert":9019,"Ġlecturer":9020,"Ġtan":9021,"Ġtemb":9022,"imag":9023,"Ġ\"\").":9024,"Ġmis":9025,"Ġmodality":9026,"Ġpwn":9027,"igger":9028,"Ġwav":9029,"Ġequ":9030,"Ġdense":9031,"Ġ'')<":9032,"erspective":9033,"maphore":9034,"formatter":9035,"namespace":9036,"ĠSO":9037,"Ġ23":9038,"ĠPromise":9039,"ĠDes":9040,"callable":9041,"Ġren":9042,"Ġproc":9043,"addEvent":9044,"Ġsoup":9045,"ModelMixin":9046,"ĠĠĠĠĠĠĠĠĠĠĠĠĠĠĠĠĠĠĠĠĠĠĠĠĠĠĠĠĠĠĠĠĠ":9047,"Ġindexing":9048,"started":9049,"ĠSearch":9050,"workflow":9051,"Ġaccessed":9052,"Ġteardown":9053,"Ġstartup":9054,"Ġscreen":9055,"Ġhttpx":9056,"reqs":9057,"spaces":9058,"linearity":9059,"(*_":9060,"Processing":9061,"Ġinitializer":9062,"Device":9063,"packed":9064,"chained":9065,"Ġæİ¨éĢģ":9066,"Ġmappings":9067,"supervised":9068,"latitudes":9069,"showerror":9070,"Ġtruncate":9071,"Ġincludes":9072,"../..":9073,"Running":9074,"åĪ°":9075,"Ġlonger":9076,"helpers":9077,"Ġchallenges":9078,"Ġturned":9079,"basicConfig":9080,"igrations":9081,"GaussianModel":9082,"waveform":9083,"ĠControlNetModel":9084,"Ġmotions":9085,"multiplier":9086,"ĠNaN":9087,"addEventListener":9088,"\".<":9089,".{":9090,"69":9091,"CLO":9092,"Dialog":9093,"GING":9094,"OFF":9095,"Summary":9096,"VOCAB":9097,"]/":9098,"author":9099,"cles":9100,"iLU":9101,"mas":9102,"ring":9103,"sft":9104,"zs":9105,"Ġve":9106,"ĠÊĻ":9107,"Ġdataloaders":9108,"İ·":9109,"Ł¥":9110,"atab":9111,"Ġturbo":9112,"review":9113,"ropped":9114,"raction":9115,"Ġfact":9116,"Ġfov":9117,"Ġ\"%":9118,"Ġmemb":9119,"didate":9120,"distributions":9121,"Ġpid":9122,"igInteger":9123,"Ġbo":9124,"Ġway":9125,"ulating":9126,"getattr":9127,"Ġreturning":9128,"Ġdefines":9129,"ĠTH":9130,"ĠAfter":9131,"mag":9132,"abstract":9133,"usic":9134,"Ġmaking":9135,"keyboard":9136,"ĠDrop":9137,"Ġrespon":9138,"psample":9139,"Ġunbiased":9140,"ambda":9141,"contrast":9142,"bugging":9143,"irm":9144,"prompted":9145,"Instance":9146,"contents":9147,"Ġperiod":9148,"hover":9149,"ĠConstant":9150,"nology":9151,"ALLED":9152,"Ġpassing":9153,"={\"<|":9154,"mission":9155,"lotter":9156,"idator":9157,"ROM":9158,"Ġadds":9159,"selective":9160,"ĠProgress":9161,"ĠAttn":9162,"Shot":9163,"WORDS":9164,"prior":9165,"ĠCollect":9166,"Ġlevels":9167,"Ġsuccessful":9168,"Ġsegments":9169,"}:{":9170,"Ġedited":9171,"Keyboard":9172,"FTWARE":9173,"calculate":9174,"Validate":9175,"ĠEmbeddings":9176,"ĠParse":9177,"Comput":9178,"Ġsympy":9179,"ĠValidation":9180,"Ġvisible":9181,"Ġfinished":9182,"Ġmarker":9183,"Embedder":9184,"Ġdeprecate":9185,"FORMERS":9186,"integr":9187,"Ġassumes":9188,"ĠParams":9189,"METHO":9190,"Ġtrimmed":9191,"smoothing":9192,"Ġmonitor":9193,"æĹ¶":9194,"éĩı":9195,"Dropdown":9196,"Default":9197,"Ġaiohttp":9198,"ĠFAISS":9199,"pository":9200,"ateLimitError":9201,"Ġmembers":9202,"\"/":9203,")[:,":9204,".):<":9205,"2000":9206,":])":9207,">'<":9208,"Mapping":9209,"Platform":9210,"Whether":9211,"[_":9212,"agg":9213,"feet":9214,"hdf":9215,"knn":9216,"mpty":9217,"oV":9218,"rn":9219,"speed":9220,"Ġgs":9221,"Ġ...,":9222,"Ġlayout":9223,"ining":9224,"onion":9225,"stem":9226,"alore":9227,"imator":9228,"raint":9229,"Ġreshape":9230,"ortho":9231,"Ġnaive":9232,"diag":9233,"distribution":9234,"Ġbvh":9235,"ensive":9236,"ĠdLd":9237,"olding":9238,"Ġconfidence":9239,"Ġ')<":9240,"magnitude":9241,"Ġ[])<":9242,"Ġ21":9243,"Ġdatapath":9244,"ffff":9245,"ĠPM":9246,"lockwise":9247,"Ġsharding":9248,"Ġuntil":9249,"piece":9250,"Ġ36":9251,"Ġroom":9252,"Ġraster":9253,"ĠComb":9254,"dsd":9255,"cap":9256,"captions":9257,"ĠReference":9258,"DIM":9259,"nee":9260,"Ġposes":9261,"ritic":9262,"photo":9263,"ESTION":9264,"ĠUni":9265,"REM":9266,"Ġcomponents":9267,"embd":9268,"PIPE":9269,"Ġcodebook":9270,"Ġretries":9271,"Prod":9272,"Extension":9273,"Ġposterior":9274,"ĠImageOps":9275,"Ġ80":9276,"Ġoverla":9277,"filenames":9278,"Pretrain":9279,"Ġdiffs":9280,"CONTEXT":9281,"ĠĠĠĠĠĠĠĠĠĠĠĠĠĠĠĠĠĠĠĠĠĠĠĠĠĠĠĠĠĠĠĠĠĠĠĠĠĠĠĠĠ":9282,"TransformerConfig":9283,"ĠPass":9284,"Ġpacked":9285,"ĠChinese":9286,"USED":9287,"ĠEnv":9288,"Ġtruncation":9289,"Ġconnect":9290,"Ġcommons":9291,"candidates":9292,"canvas":9293,"ShardedStateDict":9294,"MoE":9295,"Ġsmaller":9296,"ĠKeyboard":9297,"Ġipdb":9298,"Ġlangchain":9299,"ĠDownloadSource":9300,"handlers":9301,"Ġautoregressive":9302,"(\"\")<":9303,"Ġgreater":9304,"ĠFrozenDict":9305,"Ġdescribing":9306,"Ġomegaconf":9307,"Ġrules":9308,"EpisodeGenerator":9309,"Ġlegacy":9310,"avier":9311,"Ġ########################################################<":9312,"MultistepScheduler":9313,")],<":9314,"336":9315,"403":9316,"51":9317,"=\\\\":9318,"AU":9319,"CES":9320,"Events":9321,"IST":9322,"JO":9323,"Li":9324,"Motion":9325,"UE":9326,"VQ":9327,"aps":9328,"bg":9329,"cite":9330,"opacity":9331,"}-":9332,"}}<":9333,"Ð¸":9334,"éĿ":9335,"inates":9336,"atype":9337,"alth":9338,"Ġastronomic":9339,"rase":9340,"Ġmom":9341,"Ġnest":9342,"Ġsmpl":9343,"lab":9344,"direction":9345,"anilla":9346,"than":9347,"asure":9348,"ĠNvidia":9349,"Ġantic":9350,"verter":9351,"ĠAnn":9352,"Ġ\"\"\")<":9353,"ĠSc":9354,"Ġstability":9355,"provided":9356,"inity":9357,"Ġdeg":9358,"wap":9359,"ĠRAG":9360,"ggle":9361,"=\"{":9362,"tokenizers":9363,"song":9364,"combin":9365,"ĠGot":9366,"ryption":9367,"quival":9368,"air":9369,"Ġ`__":9370,"ĠResize":9371,"DICT":9372,"SEP":9373,"Ġkeypoints":9374,"Ġkeywords":9375,"bsz":9376,"DataLoader":9377,"cluster":9378,"Ġresulting":9379,"ĠĠĠĠĠĠĠĠĠĠĠĠĠĠĠĠĠĠĠĠĠĠĠĠĠĠĠĠĠĠĠĠĠĠĠĠĠĠĠĠĠĠĠ":9380,"nthe":9381,"Ġqlen":9382,"ĠKandinsky":9383,"Ġ{})<":9384,"Ġcomponent":9385,"subplot":9386,")))":9387,"postprocess":9388,"ttp":9389,"Search":9390,"Provider":9391,"indx":9392,"ĠAND":9393,"ULAR":9394,"copysign":9395,"Ġhelpful":9396,"ĠModels":9397,"Ġ1234":9398,"tables":9399,"Ġreading":9400,"Ġexecutor":9401,"nonzero":9402,"(\".\")[":9403,"sendline":9404,"WORD":9405,"ĠRotations":9406,"PROCESS":9407,"á´ıÉ´":9408,"Mean":9409,"Child":9410,"Quant":9411,"assertTrue":9412,"á´ĢÉ´":9413,"Ġquantization":9414,"Ġtracking":9415,"ĠOriginal":9416,"rupt":9417,"Ġ1536":9418,"Ġdenoised":9419,"Vari":9420,"å¤§":9421,"Ġá´ĽÊľá´ĩ":9422,"ĠHTTPException":9423,"integer":9424,"ReduceOp":9425,"bboxes":9426,"ĠâĶľâĶĢ":9427,"Ġcookie":9428,"ĠViT":9429,"Ġcentral":9430,"MAPPINGS":9431,"CrossAttention":9432,"dependencies":9433,"Ġartifact":9434,"elasticsearch":9435,"SelectionConfig":9436,"ĠCheckpointingException":9437,"vicorn":9438,"DecodeError":9439,"ĠDepth":9440,"è¾ĵåĩº":9441,"ITEMS":9442,"\"></":9443,")',":9444,"*\")<":9445,"?\\":9446,"Ass":9447,"ACE":9448,"CY":9449,"Calculate":9450,"MAS":9451,"OD":9452,"Pri":9453,"Rew":9454,"Tip":9455,"UAL":9456,"Vec":9457,"bones":9458,"blended":9459,"black":9460,"criminator":9461,"dino":9462,"munk":9463,"qvel":9464,"rule":9465,"vity":9466,"warm":9467,"ylabel":9468,"à¹":9469,"åĿ":9470,"Ġerr":9471,"ince":9472,"atural":9473,"endation":9474,"ragent":9475,"Ġfc":9476,"ardi":9477,"ctan":9478,"Ġmt":9479,"Ġcmd":9480,"Ġnc":9481,"ingular":9482,"different":9483,"Ġpl":9484,"Ġpunct":9485,"Ġbad":9486,"asset":9487,"Ġtot":9488,"strft":9489,"setTimeout":9490,"__,":9491,"coin":9492,"copies":9493,"ĠTorch":9494,"Ġdns":9495,"isdir":9496,"(\">":9497,"Ġconcat":9498,"ĠAG":9499,"ĠAverage":9500,"ĠLR":9501,"Ġ+<":9502,"ĠScale":9503,"Ġstages":9504,"ĠPO":9505,"ĠPattern":9506,"endor":9507,"resources":9508,"Ġdeque":9509,"Ġartic":9510,"\"]))<":9511,"Ġresource":9512,"Ġsemester":9513,"ront":9514,"ĠMain":9515,"pired":9516,"amily":9517,"Ġjwt":9518,"Ġenviron":9519,"Ġrobot":9520,"ĠGiven":9521,"testing":9522,"DataSet":9523,"ConfigMixin":9524,"Ġnearest":9525,"Init":9526,"tains":9527,"hour":9528,"lette":9529,"Ġ...]<":9530,"Ġshapes":9531,"envstacks":9532,"aug":9533,"Ġcheckpointing":9534,"Ġinterle":9535,"={'":9536,"Lock":9537,"AMPL":9538,"Ġpiece":9539,"Ġvarious":9540,"Ġoverall":9541,"Ġhelpers":9542,"Ġtrajectories":9543,"ĠGPTDataSet":9544,"aped":9545,"optimization":9546,"sincos":9547,"ĠModified":9548,"Ġplanner":9549,"MaskSoftmax":9550,"ikipedia":9551,"Ġconditional":9552,"ledgehammer":9553,"============================================":9554,"Ġretrieving":9555,"Ġcomputing":9556,"ĠChunk":9557,"ÊŁá´ĩ":9558,"Multiple":9559,"limiter":9560,"Ġhigher":9561,"|>\"})<":9562,"ĠThread":9563,"Ġarchive":9564,"Ġefficient":9565,"Ġfigure":9566,"OUTPUT":9567,"ĠQueryParam":9568,"games":9569,"pidump":9570,"allocated":9571,"Ġpresentation":9572,"ĠDBDataset":9573,"ĠNeural":9574,"FAIL":9575,"ĠView":9576,"ScaleMaskSoftmax":9577,"æ¡£":9578,"compatible":9579,"ĠAuthors":9580,"è½¬":9581,"Ġè®¡ç®Ĺ":9582,"mazon":9583,"Ġanticlockwise":9584,"strftime":9585,"ĠGPTDataSetV":9586,"\"):":9587,")}.":9588,"+\",":9589,",),<":9590,",)).":9591,".\".":9592,"114":9593,"Literal":9594,"MN":9595,"Ne":9596,"OM":9597,"SiLU":9598,"UNet":9599,"]`":9600,"]))":9601,"brightness":9602,"basis":9603,"flush":9604,"mble":9605,"}-{":9606,"èĩ":9607,"éľ":9608,"indi":9609,"orqa":9610,"rejected":9611,"determin":9612,"decoupled":9613,"ropping":9614,"ited":9615,"Ġfbx":9616,"arctan":9617,"Ġrevision":9618,"Ġrecover":9619,"Ġcancel":9620,"Ġnx":9621,"Ġsx":9622,"Ġspeed":9623,"Ġpdf":9624,"Ġphoto":9625,"Ġbg":9626,"Ġwrap":9627,"Ġimports":9628,"comes":9629,"poly":9630,"ĠTak":9631,"ism":9632,"figsize":9633,"Ġ{{<":9634,"ĠPart":9635,"Ġdeleted":9636,"ĠDon":9637,"Ġthird":9638,"Ġ_:":9639,"Ġ_]":9640,"Ġresized":9641,"tax":9642,"tack":9643,"ĠUsed":9644,"ĠEvent":9645,"nnx":9646,"ftfy":9647,"ĠGRAPH":9648,"Ġunderlying":9649,"SED":9650,"ĠOptionalDepend":9651,"ĠĠĠĠĠĠĠĠĠĠĠĠĠĠĠĠĠĠĠĠĠĠĠĠĠĠĠĠĠĠĠĠĠĠĠĠĠĠĠĠĠĠĠĠĠĠĠĠĠĠĠĠĠĠĠĠĠĠ":9652,"ypot":9653,"ĠInst":9654,"ITH":9655,"Ġdocker":9656,"Ġsubfolder":9657,"Ġaddition":9658,"Ġlayernorm":9659,"compress":9660,"interfaces":9661,"dropdown":9662,"]]):":9663,"ANT":9664,"ĠBased":9665,"á´ĩá´ħ":9666,"Ġfollowed":9667,"Ġá´ĺ":9668,"ĠGeneric":9669,"THER":9670,"auty":9671,"encyNot":9672,"Collator":9673,"Ġdepths":9674,"Ġpackages":9675,"CLS":9676,"Ġconsistent":9677,"åĲį":9678,"ĠContent":9679,"termination":9680,"ĠAlso":9681,"PoolExecutor":9682,"Ġsymbol":9683,"ĠRole":9684,"Ġplaceholder":9685,"ĠChatMessage":9686,"æĪ·":9687,"Ġswiglu":9688,"QUESTION":9689,"ĠLearning":9690,"Ġbeginning":9691,"Ġprior":9692,"å¼ı":9693,"Workspace":9694,"Ġsecret":9695,"INSTALLED":9696,"Ð°Ñ":9697,"Click":9698,"ImgPipeline":9699,"ĠTransformers":9700,"Ġpercentage":9701,"ĠBlendedMegatronDatasetConfig":9702,"å¹¶":9703,"Ġndarray":9704,"Ġdecorated":9705,"İ·åıĸ":9706,"ĠOptionalDependencyNot":9707,"ĠOptionalDependencyNotAvailable":9708,"'d":9709,"'):":9710,")[\"":9711,",))<":9712,"-'":9713,"After":9714,"Draw":9715,"Folder":9716,"MAT":9717,"Sim":9718,"Sun":9719,"Tuning":9720,"_,<":9721,"`]<":9722,"kernels":9723,"nvidia":9724,"odir":9725,"pot":9726,"sAnd":9727,"ÃĹ":9728,"åĢ":9729,"åį":9730,"æ¶":9731,"Ġutf":9732,"orld":9733,"Ġtls":9734,"regat":9735,"rounds":9736,"ionError":9737,"ged":9738,"Ġcr":9739,"Ġinstructions":9740,"Ġnq":9741,"Ġnfeats":9742,"Ġsledgehammer":9743,"expose":9744,"Ġply":9745,"Ġwraps":9746,"ulid":9747,"__))))<":9748,"Ġasset":9749,"conversation":9750,"ĠTE":9751,"uplicate":9752,"Ġddp":9753,"Ġconstruct":9754,"Ġconsumed":9755,"quote":9756,"ĠAR":9757,"Ġgu":9758,"ĠPlaybook":9759,"classify":9760,"Ġsha":9761,"Ġprepend":9762,"ĠUsing":9763,"TIM":9764,"near":9765,"Ġmasking":9766,"ĠĠĠĠĠĠĠĠĠĠĠĠĠĠĠĠĠĠĠĠĠĠĠĠĠĠĠĠĠĠĠĠĠĠĠĠĠĠĠĠĠĠĠĠĠĠĠĠĠĠĠĠĠĠĠ":9767,"ASH":9768,"Inpainting":9769,"Ġcontribut":9770,"minimum":9771,"aching":9772,"ĠInsert":9773,"Ġpydantic":9774,"savefig":9775,"Ġcompile":9776,"STM":9777,"binding":9778,"ucing":9779,"Ġupd":9780,"')\")<":9781,"LMHead":9782,"Ġ)[":9783,"Normalize":9784,"raws":9785,"Ġoverflow":9786,"ĠGPTToTextDataset":9787,"ĠBaseException":9788,"ltas":9789,"Ġstrides":9790,"Ġá´į":9791,"yntax":9792,"ĠAttribute":9793,"ĠGeneral":9794,"presentation":9795,"ĠPreTrainedTokenizer":9796,"medium":9797,"Ġdatatype":9798,"ĠResidual":9799,"Ġignored":9800,"finalize":9801,"hooks":9802,"ĠDecoder":9803,"super":9804,"Ġrepr":9805,"strides":9806,"CAUSE":9807,"Ġquantized":9808,"SSL":9809,"Ġgraphs":9810,"Ġinfos":9811,"âĢĶ":9812,"Interrupt":9813,"ELLOW":9814,"ĠNormal":9815,"ĠRoPE":9816,"VisionTransformer":9817,"ä½¿":9818,"Ġeffort":9819,"[[],":9820,"early":9821,"Allocation":9822,"çĶ¨æĪ·":9823,"è§£":9824,"slides":9825,"Ġprice":9826,"Ġdetected":9827,"ä¸Ģä¸ª":9828,"ĠPositional":9829,"NDMScheduler":9830,"Selected":9831,"æĸĩæ¡£":9832,"Ġphone":9833,"ControlNetPipeline":9834,"#############<":9835,"ĠFormat":9836,"CORRECT":9837,"ĠSkip":9838,"Ġhappens":9839,"Cloud":9840,"ĠKeep":9841,"GENERATE":9842,"ĠVariable":9843,"ssertionError":9844,"æģ¯":9845,"ĠKeyboardInterrupt":9846,"ĠAnnot":9847,"éľĢ":9848,"deterministic":9849,"sAndEvents":9850,")^":9851,"*(":9852,"46":9853,"Bo":9854,"JE":9855,"MEM":9856,"Make":9857,"Pay":9858,"Ra":9859,"SD":9860,"Ser":9861,"SING":9862,"Use":9863,"Warning":9864,"bmm":9865,"bash":9866,"cipher":9867,"han":9868,"nav":9869,"naive":9870,"pjoin":9871,"qid":9872,"year":9873,"Ðµ":9874,"Ġed":9875,"pal":9876,"sections":9877,"reject":9878,"stan":9879,"deco":9880,"itized":9881,"arrow":9882,"Ġreject":9883,"Ġrewriting":9884,"Ġsdd":9885,"dick":9886,"exchange":9887,"peated":9888,"Ġwallet":9889,"Ġwritten":9890,"Ġ(*":9891,"Ġaspect":9892,"courses":9893,"ĠTimest":9894,"upsample":9895,"isnan":9896,"(\"{}":9897,"may":9898,"ĠCore":9899,"Ġ[]).":9900,"former":9901,"ĠSP":9902,"ĠSup":9903,"ĠSampling":9904,"ĠSampler":9905,"protocol":9906,"parsing":9907,"ĠPack":9908,"ĠPerspective":9909,"Ġdecoding":9910,"Ġdecoupled":9911,"[\"_":9912,"ĠFrame":9913,"ĠDeter":9914,"ĠDINO":9915,"Ġcovariance":9916,"Ġcourses":9917,"ĠOUT":9918,"ĠOTHER":9919,"Ġori":9920,"Ġsepar":9921,"filepath":9922,"Ġunexpected":9923,"Ġjudge":9924,"ĠWeight":9925,"cuum":9926,"Ġrouter":9927,"reduction":9928,"']}\\":9929,"llms":9930,"mog":9931,"ĠCopy":9932,"Ġlogit":9933,"ivative":9934,"Ġoutside":9935,"------------<":9936,"Ġcombine":9937,"Inf":9938,"Ġcontinuous":9939,"working":9940,"120":9941,"Ġobservations":9942,"ATURE":9943,"ARCH":9944,"Ġcapab":9945,"ĠConstruct":9946,"reader":9947,"Ġweak":9948,"grees":9949,"Ġnothing":9950,"compression":9951,"augment":9952,"AIL":9953,"Ġactually":9954,"Ġposted":9955,"Ġ}}<":9956,"Ġ}\"\"\",<":9957,"member":9958,"Ġformated":9959,"Ġworks":9960,"ä¸Ĭ":9961,"TODO":9962,"Ġagents":9963,"SIST":9964,"editor":9965,"ished":9966,"Generated":9967,"fiber":9968,"KEYWORDS":9969,"TransformerLayer":9970,"generators":9971,"ĠMultimodal":9972,"Ġcounts":9973,"ĠTrainData":9974,"Ġviewer":9975,"Ġoperator":9976,"7884":9977,"assertEqual":9978,"Ġjustify":9979,"needs":9980,"Ġthreads":9981,"ĠPlatform":9982,"éĢī":9983,"ĠReplace":9984,"SHandle":9985,"Ġmujoco":9986,"toxicity":9987,"symbol":9988,"Ġmodif":9989,"ĠTokenize":9990,"Ġpixels":9991,"hipu":9992,"ĠSimpleNamespace":9993,"Ġbottom":9994,"Ġshell":9995,"åĽŀçŃĶ":9996,"Ġproperty":9997,"numeric":9998,"èµ¤":9999}