{
  "version": "1.0",
  "truncation": {
    "direction": "Right",
    "max_length": 256,
    "strategy": "LongestFirst",
    "stride": 0
  },
  "padding": {
    "strategy": {
      "Fixed": 256
    },
    "direction": "Right",
    "pad_to_multiple_of": null,
    "pad_id": 0,
    "pad_type_id": 0,
    "pad_token": "[PAD]"
  },
  "added_tokens": [
    {
      "id": 0,
      "content": "<s>",
      "single_word": false,
      "lstrip": false,
      "rstrip": false,
      "normalized": false,
      "special": true
    },
    {
      "id": 1,
      "content": "</s>",
      "single_word": false,
      "lstrip": false,
      "rstrip": false,
      "normalized": false,
      "special": true
    },
    {
      "id": 2,
      "content": "[PAD]",
      "single_word": false,
      "lstrip": false,
      "rstrip": false,
      "normalized": false,
      "special": true
    },
    {
      "id": 3,
      "content": "[UNK]",
      "single_word": false,
      "lstrip": false,
      "rstrip": false,
      "normalized": false,
      "special": true
    }
  ],
  "normalizer": null,
  "pre_tokenizer": {
    "type": "ByteLevel",
    "add_prefix_space": true,
    "trim_offsets": true,
    "use_regex": true
  },
  "post_processor": {
    "type": "TemplateProcessing",
    "single": [
      {
        "SpecialToken": {
          "id": "<s>",
          "type_id": 0
        }
      },
      {
        "Sequence": {
          "id": "A",
          "type_id": 0
        }
      },
      {
        "SpecialToken": {
          "id": "</s>",
          "type_id": 0
        }
      }
    ],
    "pair": [
      {
        "Sequence": {
          "id": "A",
          "type_id": 0
        }
      },
      {
        "Sequence": {
          "id": "B",
          "type_id": 1
        }
      }
    ],
    "special_tokens": {
      "</s>": {
        "id": "</s>",
        "ids": [
          1
        ],
        "tokens": [
          "</s>"
        ]
      },
      "<s>": {
        "id": "<s>",
        "ids": [
          0
        ],
        "tokens": [
          "<s>"
        ]
      }
    }
  },
  "decoder": null,
  "model": {
    "type": "BPE",
    "dropout": null,
    "unk_token": null,
    "continuing_subword_prefix": null,
    "end_of_word_suffix": null,
    "fuse_unk": false,
    "byte_fallback": false,
    "ignore_merges": false,
    "vocab": {
      "<s>": 0,
      "</s>": 1,
      "[PAD]": 2,
      "[UNK]": 3,
      "!": 4,
      "\"": 5,
      "#": 6,
      "$": 7,
      "%": 8,
      "&": 9,
      "'": 10,
      "(": 11,
      ")": 12,
      "*": 13,
      "+": 14,
      ",": 15,
      "-": 16,
      ".": 17,
      "/": 18,
      "0": 19,
      "1": 20,
      "2": 21,
      "3": 22,
      "4": 23,
      "5": 24,
      "6": 25,
      "7": 26,
      "8": 27,
      "9": 28,
      ":": 29,
      ";": 30,
      "<": 31,
      "=": 32,
      ">": 33,
      "?": 34,
      "@": 35,
      "A": 36,
      "B": 37,
      "C": 38,
      "D": 39,
      "E": 40,
      "F": 41,
      "G": 42,
      "H": 43,
      "I": 44,
      "J": 45,
      "K": 46,
      "L": 47,
      "M": 48,
      "N": 49,
      "O": 50,
      "P": 51,
      "Q": 52,
      "R": 53,
      "S": 54,
      "T": 55,
      "U": 56,
      "V": 57,
      "W": 58,
      "X": 59,
      "Y": 60,
      "Z": 61,
      "[": 62,
      "\\": 63,
      "]": 64,
      "^": 65,
      "_": 66,
      "`": 67,
      "a": 68,
      "b": 69,
      "c": 70,
      "d": 71,
      "e": 72,
      "f": 73,
      "g": 74,
      "h": 75,
      "i": 76,
      "j": 77,
      "k": 78,
      "l": 79,
      "m": 80,
      "n": 81,
      "o": 82,
      "p": 83,
      "q": 84,
      "r": 85,
      "s": 86,
      "t": 87,
      "u": 88,
      "v": 89,
      "w": 90,
      "x": 91,
      "y": 92,
      "z": 93,
      "{": 94,
      "|": 95,
      "}": 96,
      "~": 97,
      "¡": 98,
      "¢": 99,
      "£": 100,
      "¤": 101,
      "¥": 102,
      "¦": 103,
      "§": 104,
      "¨": 105,
      "©": 106,
      "ª": 107,
      "«": 108,
      "¬": 109,
      "®": 110,
      "¯": 111,
      "°": 112,
      "±": 113,
      "²": 114,
      "³": 115,
      "´": 116,
      "µ": 117,
      "¶": 118,
      "·": 119,
      "¸": 120,
      "¹": 121,
      "º": 122,
      "»": 123,
      "¼": 124,
      "½": 125,
      "¾": 126,
      "¿": 127,
      "Â": 128,
      "Ã": 129,
      "Ä": 130,
      "Å": 131,
      "È": 132,
      "Î": 133,
      "Ï": 134,
      "Ð": 135,
      "Ñ": 136,
      "à": 137,
      "â": 138,
      "ã": 139,
      "ä": 140,
      "å": 141,
      "æ": 142,
      "ç": 143,
      "è": 144,
      "é": 145,
      "ê": 146,
      "ë": 147,
      "ì": 148,
      "í": 149,
      "ï": 150,
      "ă": 151,
      "ĉ": 152,
      "Ċ": 153,
      "Č": 154,
      "ě": 155,
      "ĝ": 156,
      "ğ": 157,
      "Ġ": 158,
      "Ģ": 159,
      "ģ": 160,
      "Ĥ": 161,
      "ĥ": 162,
      "Ħ": 163,
      "ħ": 164,
      "Ĩ": 165,
      "ĩ": 166,
      "Ī": 167,
      "ī": 168,
      "Ĭ": 169,
      "ĭ": 170,
      "Į": 171,
      "į": 172,
      "İ": 173,
      "ı": 174,
      "Ĳ": 175,
      "ĳ": 176,
      "Ĵ": 177,
      "ĵ": 178,
      "Ķ": 179,
      "ķ": 180,
      "ĸ": 181,
      "Ĺ": 182,
      "ĺ": 183,
      "Ļ": 184,
      "ļ": 185,
      "Ľ": 186,
      "ľ": 187,
      "Ŀ": 188,
      "ŀ": 189,
      "Ł": 190,
      "ł": 191,
      "Ń": 192,
      "ĠĠ": 193,
      "ĠĠĠĠ": 194,
      "ĠĠĠ": 195,
      "se": 196,
      "Ġ<": 197,
      "ĠĠĠĠĠĠĠ": 198,
      "re": 199,
      "in": 200,
      "on": 201,
      "te": 202,
      "or": 203,
      "st": 204,
      "de": 205,
      "Ġ=": 206,
      "Ġ</": 207,
      "th": 208,
      "ĠĠĠĠĠĠĠĠ": 209,
      "sel": 210,
      "self": 211,
      "le": 212,
      "Ġi": 213,
      "Ġa": 214,
      "me": 215,
      "ti": 216,
      "er": 217,
      "Ġf": 218,
      "al": 219,
      "Ġc": 220,
      "--": 221,
      "ar": 222,
      "en": 223,
      "ro": 224,
      "Ġself": 225,
      "mp": 226,
      "an": 227,
      "at": 228,
      "Ġre": 229,
      "):": 230,
      "Ġ#": 231,
      "\"\"": 232,
      "ĠĠĠĠĠĠĠĠĠĠĠ": 233,
      "Ġth": 234,
      "Ġ'": 235,
      "ur": 236,
      "as": 237,
      "Ġp": 238,
      "ge": 239,
      "Ġde": 240,
      "ce": 241,
      "tion": 242,
      "Ġs": 243,
      "Ġt": 244,
      "Ġdef": 245,
      "##": 246,
      "ser": 247,
      "li": 248,
      "ing": 249,
      "ue": 250,
      "Ġthe": 251,
      "ort": 252,
      "Ġn": 253,
      "Ġo": 254,
      "ame": 255,
      "Ġin": 256,
      "ct": 257,
      "ate": 258,
      "lo": 259,
      "Ġd": 260,
      "----": 261,
      "Ġe": 262,
      "Ġimp": 263,
      "un": 264,
      "Ġimport": 265,
      "',": 266,
      "()": 267,
      "fi": 268,
      "ri": 269,
      "co": 270,
      "Ġb": 271,
      "ch": 272,
      "Ġm": 273,
      "Ġw": 274,
      "__": 275,
      "pe": 276,
      "urn": 277,
      "ĠĠĠĠĠĠĠĠĠĠĠĠĠĠĠĠ": 278,
      "turn": 279,
      "si": 280,
      "\"\"\"": 281,
      "ut": 282,
      "nt": 283,
      "rom": 284,
      "ck": 285,
      "ra": 286,
      "is": 287,
      "ul": 288,
      "ter": 289,
      "get": 290,
      "Ġfrom": 291,
      "id": 292,
      "Ġif": 293,
      "('": 294,
      "Ġ\"\"\"": 295,
      "name": 296,
      "Ġreturn": 297,
      "Ġ\"": 298,
      "it": 299,
      "ad": 300,
      "Ġfor": 301,
      "ĠT": 302,
      "Ġto": 303,
      "el": 304,
      "test": 305,
      "ot": 306,
      "')": 307,
      "ass": 308,
      "pa": 309,
      "one": 310,
      "sert": 311,
      "Ġ(": 312,
      "val": 313,
      "ver": 314,
      "la": 315,
      "ed": 316,
      "Ġis": 317,
      "up": 318,
      "ode": 319,
      "ma": 320,
      "####": 321,
      "qu": 322,
      "Ġan": 323,
      "ss": 324,
      "Ġh": 325,
      "il": 326,
      "ata": 327,
      "set": 328,
      "con": 329,
      "ke": 330,
      "ect": 331,
      "ĠĠĠĠĠĠĠĠĠĠĠĠĠĠĠ": 332,
      "di": 333,
      "ol": 334,
      "lass": 335,
      "ty": 336,
      "es": 337,
      "der": 338,
      "--------": 339,
      "Ġex": 340,
      "None": 341,
      "vi": 342,
      "Ġst": 343,
      "ult": 344,
      "pp": 345,
      "od": 346,
      "gs": 347,
      "ation": 348,
      "Ġof": 349,
      "ent": 350,
      "Ġas": 351,
      "op": 352,
      "sion": 353,
      "==": 354,
      "))": 355,
      "ĠA": 356,
      "bj": 357,
      "Ġ[": 358,
      "ĠS": 359,
      "ex": 360,
      "ction": 361,
      "ĠC": 362,
      "ta": 363,
      "ment": 364,
      "Ġu": 365,
      "res": 366,
      "Ġcon": 367,
      "':": 368,
      "ble": 369,
      "._": 370,
      "ith": 371,
      "ase": 372,
      "and": 373,
      "age": 374,
      "ĠI": 375,
      "ile": 376,
      "ror": 377,
      "']": 378,
      "assert": 379,
      "ic": 380,
      "he": 381,
      "Ġtest": 382,
      "et": 383,
      "ĠL": 384,
      "ls": 385,
      "value": 386,
      "ve": 387,
      "Ġ1": 388,
      "ted": 389,
      "rue": 390,
      "Ġand": 391,
      "Ġnot": 392,
      "um": 393,
      "que": 394,
      "Ġg": 395,
      "Ġclass": 396,
      "to": 397,
      "),": 398,
      "key": 399,
      "bject": 400,
      "int": 401,
      "time": 402,
      "path": 403,
      "['": 404,
      "Ġ%": 405,
      "\",": 406,
      "ĠF": 407,
      "am": 408,
      "xt": 409,
      "bu": 410,
      "ht": 411,
      "Ġ_": 412,
      "Ġres": 413,
      "ĠĊ": 414,
      "Ġ*": 415,
      "(\"": 416,
      "file": 417,
      "for": 418,
      "all": 419,
      "00": 420,
      "ption": 421,
      "us": 422,
      "ĠNone": 423,
      "ew": 424,
      "ense": 425,
      "Re": 426,
      "Ġ{": 427,
      "ĠP": 428,
      "type": 429,
      "eld": 430,
      "args": 431,
      "tr": 432,
      "par": 433,
      "qual": 434,
      "Ġco": 435,
      "Ġ2": 436,
      "pro": 437,
      "Ġdi": 438,
      "Ġor": 439,
      "lin": 440,
      "quest": 441,
      "Ġbe": 442,
      "ow": 443,
      "ub": 444,
      "Ġ0": 445,
      "Ġlo": 446,
      "Ġr": 447,
      "Ġ+": 448,
      "ĠM": 449,
      "ON": 450,
      "end": 451,
      "pt": 452,
      "Ġ-": 453,
      "est": 454,
      "list": 455,
      "rror": 456,
      "Ġ__": 457,
      "ance": 458,
      "Ġ==": 459,
      "Error": 460,
      "########": 461,
      "text": 462,
      "\")": 463,
      "ĠD": 464,
      "Ġ:": 465,
      "che": 466,
      "per": 467,
      "Ġwith": 468,
      "Ġfile": 469,
      "ang": 470,
      "app": 471,
      "ig": 472,
      "ĠĠĠĠĠ": 473,
      "fa": 474,
      "Ġname": 475,
      "data": 476,
      "Ġme": 477,
      "fo": 478,
      "alse": 479,
      "Ġun": 480,
      "po": 481,
      "ack": 482,
      "Equal": 483,
      "icense": 484,
      "red": 485,
      "our": 486,
      "Ġma": 487,
      "able": 488,
      "Ġpro": 489,
      "str": 490,
      "reate": 491,
      "fig": 492,
      "tem": 493,
      "mo": 494,
      "oc": 495,
      "ise": 496,
      "url": 497,
      "iz": 498,
      "sh": 499,
      "='": 500,
      "assertEqual": 501,
      "out": 502,
      "ys": 503,
      "put": 504,
      "len": 505,
      "----------------": 506,
      "Ġ@": 507,
      "ĠO": 508,
      "mm": 509,
      "ry": 510,
      "mple": 511,
      "form": 512,
      "====": 513,
      "Ġset": 514,
      "Ġget": 515,
      "pec": 516,
      "ĠLicense": 517,
      "lic": 518,
      "pon": 519,
      "Ġassert": 520,
      "ĠB": 521,
      "TI": 522,
      "Ġy": 523,
      "ure": 524,
      "ype": 525,
      "Ġdata": 526,
      "ield": 527,
      "stance": 528,
      "code": 529,
      "py": 530,
      "Ġse": 531,
      "ule": 532,
      "art": 533,
      "ho": 534,
      "ource": 535,
      "ĠE": 536,
      "Ġvalue": 537,
      "tri": 538,
      "add": 539,
      "uth": 540,
      "ponse": 541,
      "wor": 542,
      "ER": 543,
      "Ġon": 544,
      "__(": 545,
      "object": 546,
      "ly": 547,
      "lient": 548,
      "date": 549,
      "ff": 550,
      "Ġthis": 551,
      "ger": 552,
      "pi": 553,
      "ctor": 554,
      "late": 555,
      "tp": 556,
      "ĠN": 557,
      "atch": 558,
      "IN": 559,
      "True": 560,
      "Ġel": 561,
      "user": 562,
      "])": 563,
      "sc": 564,
      "Ġar": 565,
      "ist": 566,
      "odel": 567,
      "ĠĠĠĠĠĠĠĠĠĠĠĠĠĠĠĠĠĠĠ": 568,
      "Ġelse": 569,
      "Ġexce": 570,
      "ĠW": 571,
      ").": 572,
      "Test": 573,
      "cess": 574,
      "Ġx": 575,
      "ock": 576,
      "kw": 577,
      "ES": 578,
      "ting": 579,
      "Ġos": 580,
      "Ġra": 581,
      "Ġthat": 582,
      "ĠU": 583,
      "Ġuse": 584,
      "thod": 585,
      "ĠThe": 586,
      "ange": 587,
      "temp": 588,
      "rint": 589,
      "Ġal": 590,
      "jang": 591,
      "Ġpar": 592,
      "init": 593,
      "line": 594,
      "Ġstr": 595,
      "pre": 596,
      "ssage": 597,
      "..": 598,
      "],": 599,
      "jo": 600,
      "In": 601,
      "jango": 602,
      "dex": 603,
      "ument": 604,
      "ten": 605,
      "bo": 606,
      "Ġpa": 607,
      "rent": 608,
      "lu": 609,
      "gin": 610,
      "EN": 611,
      "ind": 612,
      "unt": 613,
      "ader": 614,
      "ou": 615,
      "Ġv": 616,
      "ĠTrue": 617,
      "Ġby": 618,
      "ml": 619,
      "error": 620,
      "version": 621,
      "ne": 622,
      "om": 623,
      "Ġĉ": 624,
      "Ġat": 625,
      "ĠĠĠĠĠĠĠĠĠĠĠĠĠĠĠĠĠĠĠĠĠĠĠĠ": 626,
      "ĠR": 627,
      "ca": 628,
      "ĠG": 629,
      "():": 630,
      "Ġexcept": 631,
      "low": 632,
      "kwargs": 633,
      "read": 634,
      "``": 635,
      "ator": 636,
      "ph": 637,
      "Ġwh": 638,
      "Ġ)": 639,
      "col": 640,
      "ok": 641,
      "dd": 642,
      "min": 643,
      "//": 644,
      "Con": 645,
      "Ġraise": 646,
      "andle": 647,
      "Ġresult": 648,
      "ip": 649,
      "Ġit": 650,
      "odule": 651,
      "ild": 652,
      "dir": 653,
      "Ġen": 654,
      "ask": 655,
      "son": 656,
      "class": 657,
      "Ġkey": 658,
      "**": 659,
      "Ġlog": 660,
      "param": 661,
      "tent": 662,
      "Ġapp": 663,
      "roup": 664,
      "vent": 665,
      "tain": 666,
      ">>": 667,
      "lib": 668,
      "ĠV": 669,
      "Ġl": 670,
      "port": 671,
      "ans": 672,
      "valid": 673,
      "cal": 674,
      "vice": 675,
      "thon": 676,
      "ber": 677,
      "ore": 678,
      "ec": 679,
      "01": 680,
      "Ġch": 681,
      "ĠFalse": 682,
      "AS": 683,
      "ĠRe": 684,
      "result": 685,
      "ary": 686,
      "Ġla": 687,
      "Ġprint": 688,
      "\":": 689,
      "mmand": 690,
      "uti": 691,
      "unction": 692,
      "Ġtry": 693,
      "mage": 694,
      "odels": 695,
      "################": 696,
      "request": 697,
      "wa": 698,
      "Ġ**": 699,
      "os": 700,
      "ĠH": 701,
      "ext": 702,
      "Ġuser": 703,
      "base": 704,
      "Ġpy": 705,
      "Ġlist": 706,
      "view": 707,
      "Ġtime": 708,
      "ac": 709,
      "qui": 710,
      "log": 711,
      "ill": 712,
      "Ġ3": 713,
      "ther": 714,
      "Ġrequest": 715,
      "OR": 716,
      "ght": 717,
      "Ġout": 718,
      "ds": 719,
      "ery": 720,
      "atus": 721,
      "opy": 722,
      ".__": 723,
      "=\"": 724,
      "ute": 725,
      "://": 726,
      "AT": 727,
      "template": 728,
      "TION": 729,
      "instance": 730,
      "stri": 731,
      "ĠĠĠĠĠĠĠĠĠĠĠĠĠĠĠĠĠĠĠĠĠĠĠĠĠĠĠĠĠĠĠĠ": 732,
      "ir": 733,
      "db": 734,
      "Ġare": 735,
      "Ġ''": 736,
      "ener": 737,
      "ses": 738,
      "Ġso": 739,
      "ust": 740,
      "ft": 741,
      "back": 742,
      "pen": 743,
      "load": 744,
      "ample": 745,
      "tic": 746,
      "Ġsys": 747,
      "fault": 748,
      "ST": 749,
      "config": 750,
      "Ġpass": 751,
      "IC": 752,
      "Ġunder": 753,
      "create": 754,
      "json": 755,
      "og": 756,
      "LE": 757,
      "Ġobject": 758,
      "False": 759,
      "Ġlen": 760,
      "ception": 761,
      "den": 762,
      "Ġwe": 763,
      "append": 764,
      "ave": 765,
      "AR": 766,
      "rite": 767,
      "Ġ}": 768,
      "Ġdjango": 769,
      "scri": 770,
      "ze": 771,
      "und": 772,
      "ctory": 773,
      "ded": 774,
      "update": 775,
      "ab": 776,
      "server": 777,
      "format": 778,
      "DI": 779,
      "ize": 780,
      "ren": 781,
      "ms": 782,
      "Ġsh": 783,
      "tive": 784,
      "uld": 785,
      "main": 786,
      "Ex": 787,
      "Ġro": 788,
      "com": 789,
      "join": 790,
      "field": 791,
      "ces": 792,
      "pla": 793,
      "tes": 794,
      "client": 795,
      "Ġht": 796,
      "own": 797,
      "Ġno": 798,
      "ken": 799,
      "ault": 800,
      "tribu": 801,
      "Ġhe": 802,
      "no": 803,
      "========": 804,
      "ject": 805,
      "count": 806,
      "tings": 807,
      "peci": 808,
      "his": 809,
      "ters": 810,
      "())": 811,
      "tions": 812,
      "Ġpath": 813,
      "Ġdefault": 814,
      "right": 815,
      "UT": 816,
      "info": 817,
      "Ġ('": 818,
      "da": 819,
      "auth": 820,
      "Ġcomp": 821,
      "ning": 822,
      "dict": 823,
      "orm": 824,
      "ww": 825,
      "query": 826,
      "Ġurl": 827,
      "fe": 828,
      "attr": 829,
      "ts": 830,
      "work": 831,
      "'),": 832,
      "SE": 833,
      "ag": 834,
      "IT": 835,
      "fic": 836,
      "lement": 837,
      "ĠIn": 838,
      "comp": 839,
      "ĠĠĠĠĠĠ": 840,
      "Ġsup": 841,
      "sed": 842,
      "Ġtype": 843,
      "([": 844,
      "Pro": 845,
      "Ġ[]": 846,
      "Ġcol": 847,
      "ies": 848,
      "Ġwill": 849,
      "Ġpre": 850,
      "size": 851,
      "cor": 852,
      "Ġper": 853,
      "ĠIf": 854,
      "AN": 855,
      "Ġresponse": 856,
      "Field": 857,
      "andler": 858,
      "im": 859,
      "ost": 860,
      "ree": 861,
      "tern": 862,
      "ray": 863,
      "return": 864,
      "ard": 865,
      "ated": 866,
      "with": 867,
      "cur": 868,
      "umn": 869,
      "default": 870,
      "mis": 871,
      "ĠThis": 872,
      "umber": 873,
      "Ġli": 874,
      "tial": 875,
      "Ġnp": 876,
      "Co": 877,
      "Ġcan": 878,
      "RE": 879,
      "ocument": 880,
      "Ġhas": 881,
      "Ġdo": 882,
      "Ġnew": 883,
      "start": 884,
      "Ġconfig": 885,
      "Ġall": 886,
      "index": 887,
      "nd": 888,
      "nection": 889,
      "ron": 890,
      "iv": 891,
      "mit": 892,
      "utils": 893,
      "heck": 894,
      ".\"\"\"": 895,
      "word": 896,
      "mb": 897,
      "Ġ['": 898,
      "Ġcreate": 899,
      "--------------------------------": 900,
      "du": 901,
      "Ġform": 902,
      "Ġmay": 903,
      "Ġk": 904,
      "string": 905,
      "Ġ{}": 906,
      "(),": 907,
      "unc": 908,
      "ĠTest": 909,
      "Ġfield": 910,
      "tra": 911,
      "ations": 912,
      "lock": 913,
      "arget": 914,
      "Ġ'''": 915,
      "Ġ###": 916,
      "ee": 917,
      "http": 918,
      "sions": 919,
      "item": 920,
      "Ġhttp": 921,
      "Ġadd": 922,
      "Ġ4": 923,
      "ume": 924,
      "node": 925,
      "sub": 926,
      "Ġspeci": 927,
      "Case": 928,
      "Ġmethod": 929,
      "ix": 930,
      "Ġ.": 931,
      "method": 932,
      "stribu": 933,
      "Ġ{'": 934,
      "reg": 935,
      "Ġsub": 936,
      "led": 937,
      "response": 938,
      "St": 939,
      "ll": 940,
      "gn": 941,
      "sp": 942,
      "sing": 943,
      "if": 944,
      "ress": 945,
      "fix": 946,
      "arg": 947,
      "ory": 948,
      "Ġstring": 949,
      "api": 950,
      "run": 951,
      "ĠK": 952,
      "Ġbu": 953,
      "ware": 954,
      "by": 955,
      "'],": 956,
      "ite": 957,
      "pected": 958,
      "Ġoption": 959,
      "ial": 960,
      "TIONS": 961,
      "html": 962,
      "write": 963,
      "ging": 964,
      "Type": 965,
      "status": 966,
      "Ġdistribu": 967,
      "arch": 968,
      "service": 969,
      "bel": 970,
      "alue": 971,
      "Ġyou": 972,
      "Ġfa": 973,
      "tle": 974,
      "*-": 975,
      "ity": 976,
      "ari": 977,
      "Ġ`": 978,
      "ME": 979,
      "Ġcur": 980,
      "group": 981,
      "message": 982,
      "mail": 983,
      "lete": 984,
      "hould": 985,
      "Ġ``": 986,
      "Ġ-*-": 987,
      "man": 988,
      "gra": 989,
      "AL": 990,
      "sha": 991,
      "Res": 992,
      "Ġfunction": 993,
      "Ġnode": 994,
      "Ġac": 995,
      "obj": 996,
      "org": 997,
      "Ġwor": 998,
      "Ġarg": 999,
      "Name": 1000,
      "perty": 1001,
      "Ġrun": 1002,
      "mport": 1003,
      "tribute": 1004,
      "pace": 1005,
      "from": 1006,
      "models": 1007,
      "Ġ>>": 1008,
      "foo": 1009,
      "quired": 1010,
      "gth": 1011,
      "ID": 1012,
      "~~": 1013,
      "Ġ..": 1014,
      "ĠĠĠĠĠĠĠĠĠĠĠĠĠĠĠĠĠĠĠĠĠĠĠ": 1015,
      "Ġdate": 1016,
      "ant": 1017,
      "Ġversion": 1018,
      "state": 1019,
      "Ġmodule": 1020,
      "IS": 1021,
      "RO": 1022,
      "De": 1023,
      "Ġargs": 1024,
      "fil": 1025,
      "va": 1026,
      "ers": 1027,
      "aders": 1028,
      "the": 1029,
      "vel": 1030,
      "Ġshould": 1031,
      "link": 1032,
      "ign": 1033,
      "10": 1034,
      "md": 1035,
      "title": 1036,
      "host": 1037,
      "lit": 1038,
      "TestCase": 1039,
      "rame": 1040,
      "ager": 1041,
      "Ġ####": 1042,
      "().": 1043,
      "pache": 1044,
      "parse": 1045,
      "context": 1046,
      "Ġdistributed": 1047,
      "nel": 1048,
      "objects": 1049,
      "Ġmessage": 1050,
      "ĠEx": 1051,
      "clu": 1052,
      "'])": 1053,
      "ull": 1054,
      "Ġinstance": 1055,
      "do": 1056,
      "ash": 1057,
      "sta": 1058,
      "table": 1059,
      "rect": 1060,
      "bs": 1061,
      "Ġoutput": 1062,
      "rans": 1063,
      "Ġerror": 1064,
      "Ġ\\": 1065,
      "Ġline": 1066,
      "ay": 1067,
      "max": 1068,
      "call": 1069,
      "clo": 1070,
      "scription": 1071,
      "ich": 1072,
      "Ġle": 1073,
      "map": 1074,
      "Ġcopy": 1075,
      "Ġbase": 1076,
      "].": 1077,
      "lif": 1078,
      "ding": 1079,
      "Ġ>": 1080,
      "utf": 1081,
      "ey": 1082,
      "loat": 1083,
      "not": 1084,
      "Ġ>>>": 1085,
      "Ġpo": 1086,
      "model": 1087,
      "angu": 1088,
      "core": 1089,
      "anguage": 1090,
      "Ġ+=": 1091,
      "MP": 1092,
      "Ġmock": 1093,
      "su": 1094,
      "'s": 1095,
      "ight": 1096,
      "lugin": 1097,
      "ody": 1098,
      "DE": 1099,
      "'))": 1100,
      "license": 1101,
      "tring": 1102,
      "ĠCon": 1103,
      "ine": 1104,
      "[\"": 1105,
      "Ġmodel": 1106,
      "ally": 1107,
      "Ġused": 1108,
      "Ġisinstance": 1109,
      "Ġitem": 1110,
      "ps": 1111,
      "Data": 1112,
      "we": 1113,
      "'t": 1114,
      "use": 1115,
      "Ġsuper": 1116,
      "12": 1117,
      "lob": 1118,
      "ream": 1119,
      "Ġca": 1120,
      "check": 1121,
      "row": 1122,
      "Ġ5": 1123,
      "pr": 1124,
      "module": 1125,
      "Ġcode": 1126,
      "ved": 1127,
      "dis": 1128,
      "Ġz": 1129,
      "bin": 1130,
      "ulti": 1131,
      "Ser": 1132,
      "Ġelif": 1133,
      "ound": 1134,
      "ĠY": 1135,
      "Ġmodels": 1136,
      "Ġint": 1137,
      "net": 1138,
      "ime": 1139,
      "token": 1140,
      "Ġne": 1141,
      "Ġsu": 1142,
      "ittest": 1143,
      "content": 1144,
      "ump": 1145,
      "Ġstart": 1146,
      "Model": 1147,
      "Ġgo": 1148,
      "cl": 1149,
      "process": 1150,
      "bug": 1151,
      "my": 1152,
      "names": 1153,
      "Ġother": 1154,
      "ises": 1155,
      "ols": 1156,
      "ner": 1157,
      "Ġag": 1158,
      "yn": 1159,
      "Ġdb": 1160,
      "rectory": 1161,
      "Ġcheck": 1162,
      "Me": 1163,
      "Ġclient": 1164,
      "oo": 1165,
      "Ġwhich": 1166,
      "})": 1167,
      "\"]": 1168,
      "action": 1169,
      "cre": 1170,
      "andom": 1171,
      "Ġindex": 1172,
      "be": 1173,
      "'.": 1174,
      "HO": 1175,
      "image": 1176,
      "icode": 1177,
      "lean": 1178,
      "Ġ/": 1179,
      "new": 1180,
      "sg": 1181,
      "array": 1182,
      "Ġdis": 1183,
      "ark": 1184,
      "point": 1185,
      "ors": 1186,
      "men": 1187,
      "Ġj": 1188,
      "ĠUn": 1189,
      "ref": 1190,
      "ĠSee": 1191,
      "move": 1192,
      "Ġĉĉ": 1193,
      "uple": 1194,
      "ĠCopy": 1195,
      "sign": 1196,
      "Ch": 1197,
      "elp": 1198,
      "bar": 1199,
      "File": 1200,
      "Ġlogging": 1201,
      "pack": 1202,
      "ĠDe": 1203,
      "Ġcontext": 1204,
      "ual": 1205,
      "Ġcontain": 1206,
      "Ġcall": 1207,
      "Ġauth": 1208,
      "Fa": 1209,
      "Ġdict": 1210,
      "ome": 1211,
      "ED": 1212,
      "cs": 1213,
      "ap": 1214,
      "Ġtext": 1215,
      "trans": 1216,
      "Base": 1217,
      "AC": 1218,
      "ĠCopyright": 1219,
      "doc": 1220,
      "types": 1221,
      "Ġopen": 1222,
      "ĠIS": 1223,
      "PI": 1224,
      "ler": 1225,
      "Ġevent": 1226,
      ":`": 1227,
      "Ġ201": 1228,
      "lable": 1229,
      "func": 1230,
      "lication": 1231,
      "Ġdocument": 1232,
      "Ġsource": 1233,
      "filter": 1234,
      "sys": 1235,
      "RL": 1236,
      "ci": 1237,
      "mock": 1238,
      "ĠĠĠĠĠĠĠĠĠ": 1239,
      "ftware": 1240,
      "Ġexpected": 1241,
      "ĠPy": 1242,
      "ĠX": 1243,
      "ties": 1244,
      "Ġid": 1245,
      "source": 1246,
      "Ġvalues": 1247,
      "((": 1248,
      "Set": 1249,
      "split": 1250,
      "ĠReturn": 1251,
      "Ġwork": 1252,
      "settings": 1253,
      "tro": 1254,
      "open": 1255,
      "orted": 1256,
      "Ġ!": 1257,
      "Up": 1258,
      "comm": 1259,
      "'):": 1260,
      "www": 1261,
      "ĠOR": 1262,
      "command": 1263,
      "Ġ]": 1264,
      "Ġstate": 1265,
      "Ġad": 1266,
      "ĠAN": 1267,
      "ax": 1268,
      "ong": 1269,
      "patch": 1270,
      "play": 1271,
      "ments": 1272,
      "Ġrequired": 1273,
      "Ġcurrent": 1274,
      "Ġ|": 1275,
      "ion": 1276,
      "Ġwhen": 1277,
      "Ġimage": 1278,
      "ach": 1279,
      "Ġhave": 1280,
      "ersion": 1281,
      "its": 1282,
      "iven": 1283,
      "fied": 1284,
      "HE": 1285,
      "lection": 1286,
      "################################": 1287,
      "Ġone": 1288,
      "Ġcal": 1289,
      "Ġany": 1290,
      "viron": 1291,
      "Ġend": 1292,
      "ENT": 1293,
      "conn": 1294,
      "output": 1295,
      "Ġ!=": 1296,
      "Ġgener": 1297,
      "Ġfiles": 1298,
      "lay": 1299,
      "sent": 1300,
      "ĠJ": 1301,
      "Ġreg": 1302,
      "queue": 1303,
      "indow": 1304,
      "Ġtra": 1305,
      "less": 1306,
      "itial": 1307,
      "als": 1308,
      "project": 1309,
      "event": 1310,
      "Exception": 1311,
      "delete": 1312,
      "TP": 1313,
      "ĠCON": 1314,
      "env": 1315,
      "uture": 1316,
      "tity": 1317,
      "uto": 1318,
      "uration": 1319,
      "params": 1320,
      "Ġjson": 1321,
      "ML": 1322,
      "equal": 1323,
      "Ġcommand": 1324,
      "assertTrue": 1325,
      "ep": 1326,
      "Ġcontent": 1327,
      "ak": 1328,
      "Di": 1329,
      "Ġobj": 1330,
      "Ġrange": 1331,
      "fields": 1332,
      "ister": 1333,
      "cls": 1334,
      "[:": 1335,
      "Form": 1336,
      "ched": 1337,
      "trol": 1338,
      "Par": 1339,
      "Ġdatetime": 1340,
      "SI": 1341,
      "trib": 1342,
      "Ġsettings": 1343,
      "tail": 1344,
      "options": 1345,
      "ither": 1346,
      "Ġmax": 1347,
      "label": 1348,
      "plo": 1349,
      "32": 1350,
      "****": 1351,
      "missions": 1352,
      "GE": 1353,
      "ĠOF": 1354,
      "def": 1355,
      "Ġformat": 1356,
      "Ġserver": 1357,
      "Ġlimit": 1358,
      "place": 1359,
      "},": 1360,
      "cache": 1361,
      "Vi": 1362,
      "arning": 1363,
      "List": 1364,
      "tin": 1365,
      "Ġpage": 1366,
      "clude": 1367,
      "length": 1368,
      "uct": 1369,
      "ql": 1370,
      "Ġtemplate": 1371,
      "Ġspecific": 1372,
      "Ġquery": 1373,
      "Un": 1374,
      "ICEN": 1375,
      "Ġvalid": 1376,
      "lines": 1377,
      "inter": 1378,
      "page": 1379,
      "filename": 1380,
      "ICENSE": 1381,
      "umpy": 1382,
      "Ġnumber": 1383,
      "values": 1384,
      "ameters": 1385,
      "Ġup": 1386,
      "pass": 1387,
      "================": 1388,
      "ĠMO": 1389,
      "ration": 1390,
      "idget": 1391,
      "Ġparam": 1392,
      "cri": 1393,
      "Ġpython": 1394,
      "loc": 1395,
      "Ġwri": 1396,
      "Ġlanguage": 1397,
      "sor": 1398,
      "ocket": 1399,
      "Ġoptions": 1400,
      "lat": 1401,
      "serial": 1402,
      "rc": 1403,
      "alueError": 1404,
      "FI": 1405,
      "store": 1406,
      "chema": 1407,
      "Ġgiven": 1408,
      "Ġman": 1409,
      "property": 1410,
      "Ra": 1411,
      "Ġbo": 1412,
      "Ġeither": 1413,
      "RAN": 1414,
      "function": 1415,
      "Ġnames": 1416,
      "Ġver": 1417,
      "mbda": 1418,
      "ICA": 1419,
      "Ġ--": 1420,
      "uid": 1421,
      "ariable": 1422,
      "emp": 1423,
      "django": 1424,
      "::": 1425,
      "Ġob": 1426,
      "face": 1427,
      "attern": 1428,
      "ĠYou": 1429,
      "job": 1430,
      "ĠQ": 1431,
      "lan": 1432,
      "stra": 1433,
      "TTP": 1434,
      "Ġmatch": 1435,
      "python": 1436,
      "Ġcl": 1437,
      "input": 1438,
      "Key": 1439,
      "ists": 1440,
      "adata": 1441,
      "DIF": 1442,
      "Ġcod": 1443,
      "post": 1444,
      "Ġutf": 1445,
      "Ġonly": 1446,
      "Ġread": 1447,
      "Ġkwargs": 1448,
      "tocol": 1449,
      "task": 1450,
      "ures": 1451,
      "Ġargument": 1452,
      "ld": 1453,
      "Ġcoding": 1454,
      "lied": 1455,
      "xy": 1456,
      "UL": 1457,
      "Ġview": 1458,
      "exec": 1459,
      "Not": 1460,
      "Ġmake": 1461,
      "annel": 1462,
      "\".": 1463,
      "session": 1464,
      "ud": 1465,
      "En": 1466,
      "Ġcls": 1467,
      "close": 1468,
      "ICATIONS": 1469,
      "range": 1470,
      "Ġtoken": 1471,
      "shape": 1472,
      "resource": 1473,
      "Ġ10": 1474,
      "unk": 1475,
      "ĠMODIF": 1476,
      "ustom": 1477,
      "64": 1478,
      "tag": 1479,
      "(*": 1480,
      "ĠMODIFICATIONS": 1481,
      "future": 1482,
      "pri": 1483,
      "Ġsoftware": 1484,
      "Ġbut": 1485,
      "ĠCo": 1486,
      "util": 1487,
      "AD": 1488,
      "Ġtrans": 1489,
      "String": 1490,
      "feren": 1491,
      "root": 1492,
      "{'": 1493,
      "local": 1494,
      "0000": 1495,
      "Ġmsg": 1496,
      "coding": 1497,
      "Ġinput": 1498,
      "debug": 1499,
      "ature": 1500,
      "keys": 1501,
      "ĠPro": 1502,
      "Ġback": 1503,
      "LO": 1504,
      "Ġtw": 1505,
      "build": 1506,
      "ilter": 1507,
      "Ġtarget": 1508,
      "ĠWAR": 1509,
      "ĠANY": 1510,
      "import": 1511,
      "river": 1512,
      "items": 1513,
      "idth": 1514,
      "View": 1515,
      "exception": 1516,
      "Ġdirectory": 1517,
      "ccess": 1518,
      "admin": 1519,
      "conf": 1520,
      "ell": 1521,
      "ĠĠĠĠĊ": 1522,
      "Id": 1523,
      "sition": 1524,
      "target": 1525,
      "OT": 1526,
      "irst": 1527,
      "PE": 1528,
      "lease": 1529,
      "column": 1530,
      "Ġupdate": 1531,
      "teger": 1532,
      "Get": 1533,
      "ats": 1534,
      "IND": 1535,
      "err": 1536,
      "ran": 1537,
      "lation": 1538,
      "Ġaction": 1539,
      "ĠWARRAN": 1540,
      "yle": 1541,
      "User": 1542,
      "MA": 1543,
      "fy": 1544,
      "ING": 1545,
      "match": 1546,
      "Request": 1547,
      "df": 1548,
      "msg": 1549,
      "ateg": 1550,
      "onent": 1551,
      "AB": 1552,
      "files": 1553,
      "11": 1554,
      "ake": 1555,
      "ns": 1556,
      "gine": 1557,
      "ffer": 1558,
      "var": 1559,
      "cy": 1560,
      "Ġprovi": 1561,
      "201": 1562,
      "ĠVersion": 1563,
      "entry": 1564,
      "licenses": 1565,
      "TIES": 1566,
      "Ġdoes": 1567,
      "ĠReturns": 1568,
      "print": 1569,
      "Ġtable": 1570,
      "Ġgroup": 1571,
      "Ġhost": 1572,
      "Ġproject": 1573,
      "ain": 1574,
      "Ġusing": 1575,
      "Ġvi": 1576,
      "orage": 1577,
      "dent": 1578,
      "np": 1579,
      "dition": 1580,
      "press": 1581,
      "ĠWIT": 1582,
      "Ġinter": 1583,
      "Ġpermissions": 1584,
      "Raises": 1585,
      "ĠPython": 1586,
      "fter": 1587,
      "raph": 1588,
      "Ġmust": 1589,
      "('/": 1590,
      "change": 1591,
      "raw": 1592,
      "NA": 1593,
      "Ġ'%": 1594,
      "num": 1595,
      "select": 1596,
      "Ġexception": 1597,
      "Ġsize": 1598,
      "Ġtask": 1599,
      "save": 1600,
      "pk": 1601,
      "Ar": 1602,
      "Ġpack": 1603,
      "cord": 1604,
      "pect": 1605,
      "copy": 1606,
      "ates": 1607,
      "tadata": 1608,
      "ste": 1609,
      "imple": 1610,
      "ĠApache": 1611,
      "ĠĠĠĠĠĠĠĠĠĠĠĠĠĠĠĠĠĠĠĠĠĠĠĠĠ": 1612,
      "ĠWARRANTIES": 1613,
      "iter": 1614,
      "ify": 1615,
      "Ġ'/": 1616,
      "Col": 1617,
      "Se": 1618,
      "has": 1619,
      "izer": 1620,
      "Handler": 1621,
      "find": 1622,
      "Ġ200": 1623,
      "top": 1624,
      "Ġparser": 1625,
      "Ġmo": 1626,
      "To": 1627,
      "Ġrow": 1628,
      "uri": 1629,
      "Ġq": 1630,
      "Ġsetup": 1631,
      "ous": 1632,
      "CE": 1633,
      "fir": 1634,
      "tiv": 1635,
      "Ġuti": 1636,
      "handler": 1637,
      "assertRaises": 1638,
      "level": 1639,
      ")),": 1640,
      "Ġhelp": 1641,
      "Ġ6": 1642,
      "RI": 1643,
      "OST": 1644,
      "tools": 1645,
      "Ġnumpy": 1646,
      "Ġobtain": 1647,
      "Ġstatus": 1648,
      "HOUT": 1649,
      "inal": 1650,
      "License": 1651,
      "verse": 1652,
      "').": 1653,
      "ĠWITHOUT": 1654,
      "ized": 1655,
      "here": 1656,
      "Ġapplic": 1657,
      ")))": 1658,
      "ization": 1659,
      "Ġhere": 1660,
      "=[": 1661,
      "Ġyield": 1662,
      "Ġinto": 1663,
      "ĠBAS": 1664,
      "CO": 1665,
      "Log": 1666,
      "Time": 1667,
      "ker": 1668,
      "ped": 1669,
      "Ġmin": 1670,
      "Ġwriting": 1671,
      "asses": 1672,
      "''": 1673,
      "contrib": 1674,
      "vai": 1675,
      "Ġparams": 1676,
      "mber": 1677,
      "Ġinst": 1678,
      "fore": 1679,
      "Ġconnection": 1680,
      "ĠLicensed": 1681,
      "mation": 1682,
      "email": 1683,
      "xml": 1684,
      "nder": 1685,
      "usr": 1686,
      "apache": 1687,
      "tests": 1688,
      "ĠĠĠĠĠĠĠĠĠĠĠĠĠĠĠĠĠĠĠĠĠĠĠĠĠĠĠ": 1689,
      "Ġfilename": 1690,
      "current": 1691,
      "Ġfirst": 1692,
      "older": 1693,
      "Ġover": 1694,
      "manager": 1695,
      "LICENSE": 1696,
      "Ġexp": 1697,
      "sit": 1698,
      "site": 1699,
      "ote": 1700,
      "order": 1701,
      "Man": 1702,
      "sa": 1703,
      "Ġgover": 1704,
      "ĠKIND": 1705,
      "ath": 1706,
      "Ġimplied": 1707,
      "~~~~": 1708,
      "rap": 1709,
      "bi": 1710,
      "mission": 1711,
      "Return": 1712,
      "body": 1713,
      "EST": 1714,
      "quen": 1715,
      "uster": 1716,
      "ick": 1717,
      "000": 1718,
      "connection": 1719,
      "pub": 1720,
      "reed": 1721,
      "DO": 1722,
      "try": 1723,
      "25": 1724,
      "Ġunittest": 1725,
      "Po": 1726,
      "liance": 1727,
      "Ġport": 1728,
      "mon": 1729,
      "Ġdoc": 1730,
      "lear": 1731,
      "cript": 1732,
      "(_": 1733,
      "headers": 1734,
      "ha": 1735,
      "other": 1736,
      "child": 1737,
      "\");": 1738,
      "Ġtuple": 1739,
      "exten": 1740,
      "Ġlib": 1741,
      "parent": 1742,
      "old": 1743,
      "iled": 1744,
      "tributes": 1745,
      "inx": 1746,
      "Ġcompliance": 1747,
      "IO": 1748,
      "ogle": 1749,
      "kip": 1750,
      "Ġapplicable": 1751,
      "Ġexpress": 1752,
      "ĠCONDI": 1753,
      "ĠAr": 1754,
      "atri": 1755,
      "domain": 1756,
      "cmd": 1757,
      "\"),": 1758,
      "ĠCONDITIONS": 1759,
      "Ġgoverning": 1760,
      "Ġlimitations": 1761,
      "ĠBASIS": 1762,
      "etwork": 1763,
      "Ġresource": 1764,
      "Ġparent": 1765,
      "mt": 1766,
      "box": 1767,
      "author": 1768,
      "US": 1769,
      "rid": 1770,
      "connect": 1771,
      "Ġtrue": 1772,
      "dout": 1773,
      "ĉĉ": 1774,
      "olume": 1775,
      "prefix": 1776,
      "Ġlaw": 1777,
      "ĠUnless": 1778,
      "ĠValueError": 1779,
      "option": 1780,
      "ating": 1781,
      "Ġagreed": 1782,
      "last": 1783,
      "ast": 1784,
      "Ġsome": 1785,
      "of": 1786,
      "show": 1787,
      "alt": 1788,
      "fail": 1789,
      "99": 1790,
      "TY": 1791,
      "Ġchange": 1792,
      "password": 1793,
      "float": 1794,
      "ternal": 1795,
      "Ġprocess": 1796,
      "phinx": 1797,
      "rate": 1798,
      "search": 1799,
      "Client": 1800,
      "Lo": 1801,
      "Ġneed": 1802,
      "Ġfields": 1803,
      "plugin": 1804,
      "pos": 1805,
      "Ġmore": 1806,
      "ush": 1807,
      "ĠBE": 1808,
      "ive": 1809,
      "parser": 1810,
      "Ġeach": 1811,
      "let": 1812,
      "username": 1813,
      "Config": 1814,
      "Ġcolumn": 1815,
      "Ġexec": 1816,
      "mented": 1817,
      "register": 1818,
      "gener": 1819,
      ")]": 1820,
      "vailable": 1821,
      "Ġheaders": 1822,
      "Ġcase": 1823,
      "Value": 1824,
      "Ġunicode": 1825,
      "Response": 1826,
      "block": 1827,
      "Ġret": 1828,
      "OG": 1829,
      "</": 1830,
      ").__": 1831,
      "ug": 1832,
      "Ġwhile": 1833,
      "ĠĉĊ": 1834,
      "ĠUser": 1835,
      "stack": 1836,
      "are": 1837,
      "spec": 1838,
      "Ġses": 1839,
      "Object": 1840,
      "frame": 1841,
      "package": 1842,
      "cted": 1843,
      "Ġlabel": 1844,
      "Ġ#!": 1845,
      "UM": 1846,
      "Ġload": 1847,
      "Ġ...": 1848,
      "script": 1849,
      "UN": 1850,
      "04": 1851,
      "Ġdescription": 1852,
      "so": 1853,
      "thing": 1854,
      "stamp": 1855,
      "pper": 1856,
      "atrix": 1857,
      "next": 1858,
      "sup": 1859,
      "ĠIN": 1860,
      "ference": 1861,
      "Ġlogger": 1862,
      "CT": 1863,
      "fla": 1864,
      "ormal": 1865,
      "ĠAdd": 1866,
      "ATE": 1867,
      "Ġelement": 1868,
      "make": 1869,
      "example": 1870,
      "Ġresults": 1871,
      "itor": 1872,
      "ĠĠĠĠĠĠĠĠĠĠ": 1873,
      "ants": 1874,
      "Ġservice": 1875,
      "CON": 1876,
      "olute": 1877,
      "ĠMe": 1878,
      "static": 1879,
      "stream": 1880,
      "ĠImport": 1881,
      "IL": 1882,
      "flow": 1883,
      "rt": 1884,
      "pop": 1885,
      "elper": 1886,
      "ollow": 1887,
      "Ġcor": 1888,
      "Ġpri": 1889,
      "send": 1890,
      "mark": 1891,
      "lt": 1892,
      "][": 1893,
      "abs": 1894,
      "Ġ8": 1895,
      "fier": 1896,
      "mary": 1897,
      "space": 1898,
      "ync": 1899,
      "datetime": 1900,
      "number": 1901,
      "vo": 1902,
      "Ġoper": 1903,
      "ameter": 1904,
      "denti": 1905,
      "Ġsession": 1906,
      "vert": 1907,
      "Ġmode": 1908,
      "mote": 1909,
      "LI": 1910,
      "duct": 1911,
      "Add": 1912,
      "Command": 1913,
      "formation": 1914,
      "les": 1915,
      "mode": 1916,
      "Ġfe": 1917,
      "Ġ#!/": 1918,
      "Ġmain": 1919,
      "ĠĠĠĠĠĠĠĠĠĠĠĠĠĠĠĠĠĠĠĠĠ": 1920,
      "environ": 1921,
      "Ġorder": 1922,
      "Ġbody": 1923,
      "Ġsa": 1924,
      "ctionary": 1925,
      "Ġ::": 1926,
      "vision": 1927,
      "description": 1928,
      "Ġexten": 1929,
      "ĠException": 1930,
      "fer": 1931,
      "sum": 1932,
      "assertEquals": 1933,
      "ĠPar": 1934,
      "lect": 1935,
      "Ġtitle": 1936,
      "Ġ'.": 1937,
      "cket": 1938,
      "off": 1939,
      "address": 1940,
      "now": 1941,
      "Mock": 1942,
      "Node": 1943,
      "strip": 1944,
      "FA": 1945,
      "down": 1946,
      "ution": 1947,
      "ĠSt": 1948,
      "(__": 1949,
      "exp": 1950,
      "ĠFor": 1951,
      "Factory": 1952,
      "cer": 1953,
      "random": 1954,
      "lobal": 1955,
      "remove": 1956,
      "ression": 1957,
      "unittest": 1958,
      "Ġconn": 1959,
      "Ġobjects": 1960,
      "ĠTHE": 1961,
      "Ġlocal": 1962,
      "Ġwas": 1963,
      "Ġabs": 1964,
      "ice": 1965,
      "Auth": 1966,
      "Ġfloat": 1967,
      "lity": 1968,
      "Ġbuild": 1969,
      "Ġpackage": 1970,
      "Ġgetattr": 1971,
      "Ġapi": 1972,
      "sible": 1973,
      "aster": 1974,
      "Ġsign": 1975,
      "Ġsy": 1976,
      "Ġfound": 1977,
      "Ġallow": 1978,
      "TML": 1979,
      "alid": 1980,
      "ultip": 1981,
      "ie": 1982,
      "go": 1983,
      "meta": 1984,
      "perties": 1985,
      "Ġlink": 1986,
      "Ġtop": 1987,
      "Ġthread": 1988,
      "Ġsha": 1989,
      "ASE": 1990,
      "swith": 1991,
      "chedule": 1992,
      "20": 1993,
      "NAME": 1994,
      "Ġroot": 1995,
      "case": 1996,
      "network": 1997,
      "CH": 1998,
      "Ġthen": 1999,
      "cho": 2000,
      "Ġval": 2001,
      "ĠNot": 2002,
      "contain": 2003,
      "gen": 2004,
      "rary": 2005,
      "URL": 2006,
      "licy": 2007,
      "igh": 2008,
      "INE": 2009,
      "lish": 2010,
      "Ġab": 2011,
      "Is": 2012,
      "No": 2013,
      "Ġlast": 2014,
      "lug": 2015,
      "Ġtests": 2016,
      "ators": 2017,
      "cept": 2018,
      "Ġextra": 2019,
      "Ġattr": 2020,
      "nown": 2021,
      "ative": 2022,
      "VER": 2023,
      "argument": 2024,
      "At": 2025,
      "Ġcount": 2026,
      "attribute": 2027,
      "direct": 2028,
      "Ġtag": 2029,
      "present": 2030,
      "urls": 2031,
      "isted": 2032,
      "etch": 2033,
      "ui": 2034,
      "Ġsame": 2035,
      "entic": 2036,
      "KE": 2037,
      "Class": 2038,
      "Dict": 2039,
      "can": 2040,
      "ixin": 2041,
      "34": 2042,
      "element": 2043,
      "Ġpart": 2044,
      "Ġ(\"": 2045,
      "bose": 2046,
      "ĠBase": 2047,
      "_(": 2048,
      "200": 2049,
      "Ġpos": 2050,
      "Ġsee": 2051,
      "tific": 2052,
      "Ġnum": 2053,
      "App": 2054,
      "lso": 2055,
      "ton": 2056,
      "EX": 2057,
      "inst": 2058,
      "ids": 2059,
      "asic": 2060,
      "tails": 2061,
      "Ġparse": 2062,
      "ont": 2063,
      "ĠsetUp": 2064,
      "graph": 2065,
      "Ġdiff": 2066,
      "ĠCreate": 2067,
      "Message": 2068,
      "reak": 2069,
      "Ġdel": 2070,
      "Ġresp": 2071,
      "ĠURL": 2072,
      "Comp": 2073,
      "ĠNO": 2074,
      "Ġcomm": 2075,
      "Ġdefin": 2076,
      "served": 2077,
      "mod": 2078,
      "ĠĠĠĠĠĠĠĠĠĠĠĠĠ": 2079,
      "Ġexample": 2080,
      "exists": 2081,
      "called": 2082,
      "book": 2083,
      ".\"": 2084,
      "ready": 2085,
      "Ġafter": 2086,
      "OP": 2087,
      "16": 2088,
      "Ad": 2089,
      "abled": 2090,
      "ĠĠĠĠĠĠĠĠĠĠĠĠĠĠĠĠĠĠĠĠĠĠĠĠĠĠĠĠĠ": 2091,
      "Ġfla": 2092,
      "hash": 2093,
      "AY": 2094,
      "fg": 2095,
      "----------------------------------------": 2096,
      "quire": 2097,
      "{}": 2098,
      "io": 2099,
      "Resource": 2100,
      "first": 2101,
      "Ġhandler": 2102,
      "Ġchild": 2103,
      "common": 2104,
      "Ġclo": 2105,
      "ĠAPI": 2106,
      "lask": 2107,
      "ULT": 2108,
      "Ġed": 2109,
      "dle": 2110,
      "Ġax": 2111,
      "ĠĠĠĠĠĠĠĠĠĠĠĠĠĠĠĠĠ": 2112,
      "ĠĠĠĠĠĠĠĠĠĠĠĠ": 2113,
      "cond": 2114,
      "Text": 2115,
      "Ġhandle": 2116,
      "Bu": 2117,
      "Ġ'__": 2118,
      "derr": 2119,
      "lated": 2120,
      "okup": 2121,
      "dic": 2122,
      "des": 2123,
      "TH": 2124,
      "replace": 2125,
      "war": 2126,
      "tinue": 2127,
      "Ġpassword": 2128,
      "Ġfind": 2129,
      "color": 2130,
      "Ġinfo": 2131,
      "Ġlambda": 2132,
      "ĠAll": 2133,
      "sample": 2134,
      "stop": 2135,
      "Ġcom": 2136,
      "ĠWe": 2137,
      "ĠĠĠĠĠĠĠĠĠĠĠĠĠĠĠĠĠĠĠĠ": 2138,
      "Ġarray": 2139,
      "iddle": 2140,
      "ful": 2141,
      "Ġtemp": 2142,
      "Ġte": 2143,
      "Ġrandom": 2144,
      "Ġsp": 2145,
      "MPL": 2146,
      "width": 2147,
      "ategory": 2148,
      "fs": 2149,
      "Ġsw": 2150,
      "ique": 2151,
      "Ġspecified": 2152,
      "troller": 2153,
      "ATION": 2154,
      "req": 2155,
      "Ġcache": 2156,
      "Ġcmd": 2157,
      "Ġfunc": 2158,
      "---": 2159,
      "[-": 2160,
      "lative": 2161,
      "Ġyour": 2162,
      "errors": 2163,
      "OC": 2164,
      "Ġ[\"": 2165,
      "rule": 2166,
      "ĠString": 2167,
      "ĠSE": 2168,
      "__)": 2169,
      "50": 2170,
      "ĠĠĠĠĠĠĠĠĠĠĠĠĠĠĠĠĠĠĠĠĠĠĠĠĠĠ": 2171,
      "cp": 2172,
      "ĠĠĠĠĠĠĠĠĠĠĠĠĠĠĠĠĠĠ": 2173,
      "mpty": 2174,
      "ish": 2175,
      "Ġ\"%": 2176,
      "ĠĠĠĠĠĠĠĠĠĠĠĠĠĠ": 2177,
      "forms": 2178,
      "ĠĠĠĠĠĠĠĠĠĠĠĠĠĠĠĠĠĠĠĠĠĠĠĠĠĠĠĠ": 2179,
      "ĠGet": 2180,
      "Ġ\"\"": 2181,
      "Qu": 2182,
      "Ġconfiguration": 2183,
      "fin": 2184,
      "Ġbuil": 2185,
      "ported": 2186,
      "Manager": 2187,
      "system": 2188,
      "Ġfilter": 2189,
      "comple": 2190,
      "'].": 2191,
      "del": 2192,
      "Char": 2193,
      "pc": 2194,
      "Ca": 2195,
      "engine": 2196,
      "av": 2197,
      "Ġvariable": 2198,
      "Ġarguments": 2199,
      "zer": 2200,
      "encode": 2201,
      "header": 2202,
      "plot": 2203,
      "Path": 2204,
      "ttp": 2205,
      "cale": 2206,
      "({": 2207,
      "extra": 2208,
      "Ġqu": 2209,
      "dered": 2210,
      "very": 2211,
      "cope": 2212,
      "Ġinformation": 2213,
      "Ġinitial": 2214,
      "sten": 2215,
      "Ġcreated": 2216,
      ".')": 2217,
      "Ġhtml": 2218,
      "compile": 2219,
      "Create": 2220,
      "'}": 2221,
      "Ġfollow": 2222,
      "100": 2223,
      "Py": 2224,
      "struct": 2225,
      "ĠAn": 2226,
      "actor": 2227,
      "QL": 2228,
      "Ġimplement": 2229,
      "Ġright": 2230,
      "AP": 2231,
      "Ġ9": 2232,
      "ĠSet": 2233,
      "ummy": 2234,
      "Ġrender": 2235,
      "Ġfail": 2236,
      "ob": 2237,
      "resh": 2238,
      "rapper": 2239,
      "pattern": 2240,
      "HTTP": 2241,
      "timeout": 2242,
      "Ġact": 2243,
      "ĠFOR": 2244,
      "txt": 2245,
      "ings": 2246,
      "termin": 2247,
      "driver": 2248,
      "ĠTO": 2249,
      "PER": 2250,
      "Ġattribute": 2251,
      "gex": 2252,
      "cli": 2253,
      "ord": 2254,
      "logger": 2255,
      "Ġblock": 2256,
      "istr": 2257,
      "Ġpoint": 2258,
      "********": 2259,
      "Imple": 2260,
      "handle": 2261,
      "Ġdatabase": 2262,
      "Ġ7": 2263,
      "ĠDE": 2264,
      "expected": 2265,
      "Ġorig": 2266,
      "ĠData": 2267,
      "Ġop": 2268,
      "Ġchar": 2269,
      "atures": 2270,
      "backend": 2271,
      "ditional": 2272,
      "The": 2273,
      "Server": 2274,
      "sets": 2275,
      "dential": 2276,
      "penden": 2277,
      "classmethod": 2278,
      "quence": 2279,
      "style": 2280,
      "Ġcollection": 2281,
      "Ġits": 2282,
      "Ġabsolute": 2283,
      "callback": 2284,
      "ould": 2285,
      "ĠEX": 2286,
      "\"))": 2287,
      "execute": 2288,
      "Ġnon": 2289,
      "']['": 2290,
      "ide": 2291,
      "ng": 2292,
      "ĠImportError": 2293,
      "Ġcontinue": 2294,
      "ultiple": 2295,
      "dump": 2296,
      "ib": 2297,
      "wh": 2298,
      "Run": 2299,
      "Item": 2300,
      "Ġdest": 2301,
      "FAULT": 2302,
      "tree": 2303,
      ".\")": 2304,
      "Ġnext": 2305,
      "ĠĠĠĠĠĠĠĠĊ": 2306,
      "ONE": 2307,
      "dia": 2308,
      "lower": 2309,
      "Ġfin": 2310,
      "Ġexist": 2311,
      "ESS": 2312,
      "repo": 2313,
      "sy": 2314,
      "Ġtimeout": 2315,
      "ular": 2316,
      "Event": 2317,
      "Service": 2318,
      "Ġauthor": 2319,
      "Ġiter": 2320,
      "ĠFI": 2321,
      "heet": 2322,
      "iddleware": 2323,
      "Ġdir": 2324,
      "tera": 2325,
      "uuid": 2326,
      "TER": 2327,
      "application": 2328,
      "ĠKey": 2329,
      "Ġloc": 2330,
      "ĠHTML": 2331,
      "git": 2332,
      "setup": 2333,
      "vider": 2334,
      "Ġreturns": 2335,
      "Ġalso": 2336,
      "------------------------------------------------------------------------": 2337,
      "Ġwrite": 2338,
      "igration": 2339,
      "assi": 2340,
      "Ġshow": 2341,
      "login": 2342,
      "latform": 2343,
      "Ġpost": 2344,
      "Ġauto": 2345,
      "zone": 2346,
      "metadata": 2347,
      "shared": 2348,
      "sen": 2349,
      "Ġcustom": 2350,
      "sca": 2351,
      "exit": 2352,
      "Mixin": 2353,
      "Ġhasattr": 2354,
      "Ġavailable": 2355,
      "Ġheader": 2356,
      "round": 2357,
      "Ġthere": 2358,
      "ector": 2359,
      "GIN": 2360,
      "Ġcre": 2361,
      "unicode": 2362,
      "SON": 2363,
      "Ġpub": 2364,
      "Ġoff": 2365,
      "results": 2366,
      "SION": 2367,
      "Ġinclude": 2368,
      "ĠHTTP": 2369,
      "lot": 2370,
      "sume": 2371,
      "repr": 2372,
      "Ġprefix": 2373,
      "Ġhash": 2374,
      "Tests": 2375,
      "SS": 2376,
      "DB": 2377,
      "ĠAUT": 2378,
      "24": 2379,
      "__,": 2380,
      "act": 2381,
      "conds": 2382,
      "ĠĠĠĠĠĠĠĠĠĠĠĠĠĠĠĠĠĠĠĠĠĠ": 2383,
      "\\\\": 2384,
      "ves": 2385,
      "cen": 2386,
      "GET": 2387,
      "fake": 2388,
      "ĠType": 2389,
      "aml": 2390,
      "tw": 2391,
      "ink": 2392,
      "true": 2393,
      "over": 2394,
      "schema": 2395,
      "side": 2396,
      "Connection": 2397,
      "ear": 2398,
      "Ġentry": 2399,
      "mory": 2400,
      "Ġserial": 2401,
      "Ġframe": 2402,
      "Ġopt": 2403,
      "stdout": 2404,
      "Ġjob": 2405,
      "lambda": 2406,
      "dirname": 2407,
      "argv": 2408,
      "web": 2409,
      "Ġsupport": 2410,
      "UR": 2411,
      "Ġstream": 2412,
      "ello": 2413,
      "char": 2414,
      "ship": 2415,
      "location": 2416,
      "tmp": 2417,
      "Ġ12": 2418,
      "Ġold": 2419,
      "ĠAt": 2420,
      "ingle": 2421,
      "Ġencoding": 2422,
      "Implemented": 2423,
      "pping": 2424,
      "Ġ{\"": 2425,
      "Al": 2426,
      "thread": 2427,
      "Ġerr": 2428,
      "document": 2429,
      "olver": 2430,
      "arnings": 2431,
      "AG": 2432,
      "Ġcalled": 2433,
      "active": 2434,
      "ptions": 2435,
      "ĠCol": 2436,
      "users": 2437,
      "Parser": 2438,
      "Ġdocumentation": 2439,
      "Ġsocket": 2440,
      "Logger": 2441,
      "]))": 2442,
      "channel": 2443,
      "Ġparameters": 2444,
      "Ġkeys": 2445,
      "Ġdictionary": 2446,
      "insert": 2447,
      "imal": 2448,
      "Ġlength": 2449,
      "ĠList": 2450,
      "cret": 2451,
      "only": 2452,
      "kernel": 2453,
      "ĠGener": 2454,
      "rop": 2455,
      "ĠĠĠĠĠĠĠĠĠĠĠĠĠĠĠĠĠĠĠĠĠĠĠĠĠĠĠĠĠĠĠ": 2456,
      "Ġwhere": 2457,
      "lice": 2458,
      "assed": 2459,
      "Ġta": 2460,
      "gest": 2461,
      "=['": 2462,
      "QU": 2463,
      "LINE": 2464,
      "ĠInc": 2465,
      "LY": 2466,
      "ba": 2467,
      "commit": 2468,
      "ven": 2469,
      "factory": 2470,
      "CharField": 2471,
      "Ġbefore": 2472,
      "Ġcallback": 2473,
      "Ġemail": 2474,
      "ik": 2475,
      "Ġlike": 2476,
      ".,": 2477,
      "liter": 2478,
      "Ġaddress": 2479,
      "Ġrequests": 2480,
      "ĠĠĠĠĠĠĠĠĠĠĠĠĠĠĠĠĠĠĠĠĠĠĠĠĠĠĠĠĠĠ": 2481,
      "startswith": 2482,
      "Group": 2483,
      "Trans": 2484,
      "ceiv": 2485,
      "ride": 2486,
      ")):": 2487,
      "02": 2488,
      "Ġ#################################": 2489,
      "Ġ>=": 2490,
      "Ġnetwork": 2491,
      "ĠTH": 2492,
      "coder": 2493,
      "tags": 2494,
      "Ġaccess": 2495,
      "(['": 2496,
      "Ġpla": 2497,
      "Ġbreak": 2498,
      "day": 2499,
      "Ġitems": 2500,
      "Ġsta": 2501,
      "={": 2502,
      "ploy": 2503,
      "ĠCh": 2504,
      "views": 2505,
      "dices": 2506,
      "State": 2507,
      "Ġenv": 2508,
      "TYPE": 2509,
      "ĠIt": 2510,
      "=(": 2511,
      "imp": 2512,
      "board": 2513,
      "API": 2514,
      "Ġplugin": 2515,
      "Ġlevel": 2516,
      "anel": 2517,
      "Ġmethods": 2518,
      "ĠEn": 2519,
      "]:": 2520,
      "Ġscript": 2521,
      "Ġsearch": 2522,
      "`.": 2523,
      "Admin": 2524,
      "Ac": 2525,
      "ook": 2526,
      "Ġutils": 2527,
      "yload": 2528,
      "Ġthan": 2529,
      "BU": 2530,
      "ĠRes": 2531,
      "istry": 2532,
      "ĠEN": 2533,
      "tuple": 2534,
      "Ġass": 2535,
      "PAT": 2536,
      "Ġtwo": 2537,
      "Ġtypes": 2538,
      "Ġsix": 2539,
      "Call": 2540,
      "Ġpattern": 2541,
      "tx": 2542,
      "ason": 2543,
      "ĠNo": 2544,
      "Ġcolor": 2545,
      "access": 2546,
      "ĠSer": 2547,
      "stract": 2548,
      "zy": 2549,
      "exc": 2550,
      "assertFalse": 2551,
      "src": 2552,
      "DIR": 2553,
      "','": 2554,
      "ranch": 2555,
      "https": 2556,
      "bytes": 2557,
      "clean": 2558,
      "aded": 2559,
      "Ġfull": 2560,
      "sw": 2561,
      "decode": 2562,
      "emplate": 2563,
      "Ġlines": 2564,
      "tach": 2565,
      "raises": 2566,
      "exceptions": 2567,
      "33": 2568,
      "TR": 2569,
      "rs": 2570,
      "rec": 2571,
      "ĠIMP": 2572,
      "Ġnow": 2573,
      "CL": 2574,
      "Ġerrors": 2575,
      "Ġbeen": 2576,
      "ORT": 2577,
      "=%": 2578,
      "Ġ$": 2579,
      "MO": 2580,
      "Ġqueue": 2581,
      "diff": 2582,
      "Instance": 2583,
      "OK": 2584,
      "\",\"": 2585,
      "pha": 2586,
      "ipe": 2587,
      "Ġ'--": 2588,
      "tot": 2589,
      "Ġ'_": 2590,
      "Ġ--------": 2591,
      "wd": 2592,
      "ĠNotImplemented": 2593,
      "Ġsend": 2594,
      "Ġapplication": 2595,
      "SD": 2596,
      "Ġlicense": 2597,
      "PO": 2598,
      "lank": 2599,
      "gr": 2600,
      "render": 2601,
      "KEY": 2602,
      "ATED": 2603,
      "Ġref": 2604,
      "Ġ'-": 2605,
      "Ġsystem": 2606,
      "delta": 2607,
      "ices": 2608,
      "Ġrepresent": 2609,
      "sure": 2610,
      "stats": 2611,
      "56": 2612,
      "Ġcomple": 2613,
      "gram": 2614,
      "profile": 2615,
      "/%": 2616,
      "xture": 2617,
      "ights": 2618,
      "TE": 2619,
      "tep": 2620,
      "Ġreq": 2621,
      "Per": 2622,
      "member": 2623,
      "Ġmap": 2624,
      "stru": 2625,
      "18": 2626,
      "oly": 2627,
      ":%": 2628,
      "quires": 2629,
      "ffix": 2630,
      "Frame": 2631,
      "Ġtree": 2632,
      "Element": 2633,
      "Ġmark": 2634,
      "ured": 2635,
      "peri": 2636,
      "({'": 2637,
      "Ġ&": 2638,
      "'^": 2639,
      "dev": 2640,
      "ĠApp": 2641,
      "tered": 2642,
      "groups": 2643,
      "velo": 2644,
      "Ġweb": 2645,
      "Out": 2646,
      "Ġadmin": 2647,
      "Ġdomain": 2648,
      "used": 2649,
      "ugh": 2650,
      "bind": 2651,
      "Th": 2652,
      "Ġwithout": 2653,
      "train": 2654,
      "device": 2655,
      "EL": 2656,
      "nodes": 2657,
      "Content": 2658,
      "Index": 2659,
      "storage": 2660,
      "Cache": 2661,
      "tex": 2662,
      "alled": 2663,
      "unter": 2664,
      "(?": 2665,
      "loads": 2666,
      "ling": 2667,
      "Ġfoo": 2668,
      "30": 2669,
      "UP": 2670,
      "pool": 2671,
      "Ġempty": 2672,
      "ĠTHIS": 2673,
      "ĠNOTI": 2674,
      "ĠON": 2675,
      "Ġrepo": 2676,
      "Query": 2677,
      "socket": 2678,
      "ged": 2679,
      "Ġ},": 2680,
      "fn": 2681,
      "Ġdetails": 2682,
      "OF": 2683,
      "ĠExample": 2684,
      "lue": 2685,
      "Ġreturned": 2686,
      "limit": 2687,
      "Ġrule": 2688,
      "ret": 2689,
      "ceived": 2690,
      "full": 2691,
      "widget": 2692,
      "Ġdelete": 2693,
      "(**": 2694,
      "ystem": 2695,
      "Check": 2696,
      "leep": 2697,
      "oper": 2698,
      "literals": 2699,
      "ĠArgs": 2700,
      "Date": 2701,
      "auto": 2702,
      "Result": 2703,
      "wner": 2704,
      "window": 2705,
      "Ġexc": 2706,
      "From": 2707,
      "ĠNOTICE": 2708,
      "Task": 2709,
      "IP": 2710,
      "words": 2711,
      "Ġpassed": 2712,
      "Ġeq": 2713,
      "ĠSe": 2714,
      "dentials": 2715,
      "iff": 2716,
      "For": 2717,
      "15": 2718,
      "assertIs": 2719,
      "offset": 2720,
      "Ġrelative": 2721,
      "volume": 2722,
      "ĠTODO": 2723,
      "vironment": 2724,
      "Action": 2725,
      "sql": 2726,
      "Ġbin": 2727,
      "classes": 2728,
      "With": 2729,
      "__':": 2730,
      "mer": 2731,
      "account": 2732,
      "Ġge": 2733,
      "tom": 2734,
      "ait": 2735,
      "Ġpatch": 2736,
      "PRO": 2737,
      "Ġtwisted": 2738,
      "Ġusername": 2739,
      "validate": 2740,
      "Ġim": 2741,
      "sage": 2742,
      "Ġ##": 2743,
      "ible": 2744,
      "addr": 2745,
      "istory": 2746,
      "cluster": 2747,
      "ries": 2748,
      "messages": 2749,
      "By": 2750,
      "wise": 2751,
      "Ġalready": 2752,
      "Ġsimple": 2753,
      "Reg": 2754,
      "Ġremove": 2755,
      "Ġ100": 2756,
      "ano": 2757,
      "Pre": 2758,
      "ince": 2759,
      "rough": 2760,
      "Ġreverse": 2761,
      "required": 2762,
      "ithub": 2763,
      "ected": 2764,
      "series": 2765,
      "Ġ'\\": 2766,
      "Ġstyle": 2767,
      "ulate": 2768,
      "dentity": 2769,
      "oolean": 2770,
      "comment": 2771,
      "Ġgraph": 2772,
      "shot": 2773,
      "Ġattributes": 2774,
      "bility": 2775,
      "ĠIF": 2776,
      "non": 2777,
      "uter": 2778,
      "sm": 2779,
      "tim": 2780,
      "like": 2781,
      "vate": 2782,
      "Ġmy": 2783,
      "Ġsql": 2784,
      "Context": 2785,
      "itch": 2786,
      "================================": 2787,
      "Ġsingle": 2788,
      "ĠFILE": 2789,
      "Ġprovided": 2790,
      "sitory": 2791,
      "Ġchannel": 2792,
      "rag": 2793,
      "+)": 2794,
      "bot": 2795,
      "ĠEND": 2796,
      "layer": 2797,
      "reen": 2798,
      "cause": 2799,
      "Ġjust": 2800,
      "Ġsel": 2801,
      "ĠNotImplementedError": 2802,
      "Ġ})": 2803,
      "simple": 2804,
      "Ġsample": 2805,
      "ĠAuth": 2806,
      "oken": 2807,
      "ĠCheck": 2808,
      ":]": 2809,
      "prec": 2810,
      "route": 2811,
      "POST": 2812,
      "55": 2813,
      "ĠDefault": 2814,
      "ges": 2815,
      "Ġdon": 2816,
      "Ġdiffe": 2817,
      "Ġlay": 2818,
      "empty": 2819,
      "buffer": 2820,
      "Ġstruct": 2821,
      "help": 2822,
      "14": 2823,
      "container": 2824,
      "olve": 2825,
      "idx": 2826,
      "ati": 2827,
      "annot": 2828,
      "PATH": 2829,
      "sis": 2830,
      "okie": 2831,
      "encoding": 2832,
      "proxy": 2833,
      "latex": 2834,
      "ĠSo": 2835,
      "rand": 2836,
      "Ġdown": 2837,
      "ward": 2838,
      "buil": 2839,
      "Ġmetadata": 2840,
      "utton": 2841,
      "sue": 2842,
      "Ġ<=": 2843,
      "dentifier": 2844,
      "mi": 2845,
      "Ġip": 2846,
      "Valid": 2847,
      "Ġurllib": 2848,
      "\"],": 2849,
      "cent": 2850,
      "orig": 2851,
      "sv": 2852,
      "cry": 2853,
      "ET": 2854,
      "dest": 2855,
      "Ġshape": 2856,
      "children": 2857,
      "ENER": 2858,
      "initial": 2859,
      "tal": 2860,
      "left": 2861,
      "']:": 2862,
      "sq": 2863,
      "orter": 2864,
      "oreign": 2865,
      "pend": 2866,
      "80": 2867,
      "Ġgenerated": 2868,
      "={'": 2869,
      "...": 2870,
      "zip": 2871,
      "collection": 2872,
      "ĠZ": 2873,
      "til": 2874,
      "ceback": 2875,
      "Down": 2876,
      "oci": 2877,
      "Or": 2878,
      "\"):": 2879,
      "ession": 2880,
      "Ġsure": 2881,
      "Gener": 2882,
      "greg": 2883,
      "UMENT": 2884,
      "cloud": 2885,
      "Ġmeta": 2886,
      "\"])": 2887,
      "modules": 2888,
      "utable": 2889,
      "Image": 2890,
      "Ġcho": 2891,
      "stderr": 2892,
      "ali": 2893,
      "ail": 2894,
      "FOR": 2895,
      "He": 2896,
      "Ġverbose": 2897,
      "ĠFile": 2898,
      "bit": 2899,
      "Dis": 2900,
      "tric": 2901,
      "stead": 2902,
      "Ġmapp": 2903,
      "Ġbytes": 2904,
      "Ġwindow": 2905,
      "dified": 2906,
      "imum": 2907,
      "edi": 2908,
      "ĠPer": 2909,
      "Ġfake": 2910,
      "sole": 2911,
      "Ġfollowing": 2912,
      "Ġdf": 2913,
      "Ġparameter": 2914,
      "ctions": 2915,
      "Table": 2916,
      "Ġbet": 2917,
      "getLogger": 2918,
      "invalid": 2919,
      "wrap": 2920,
      "opts": 2921,
      "any": 2922,
      "Ġglobal": 2923,
      "ĉĊ": 2924,
      "ĠMock": 2925,
      "const": 2926,
      "Code": 2927,
      "Ġpaths": 2928,
      "aly": 2929,
      "And": 2930,
      "Ġraw": 2931,
      "Ġdtype": 2932,
      "riter": 2933,
      "chemy": 2934,
      "Sta": 2935,
      "points": 2936,
      "Ġali": 2937,
      "skip": 2938,
      "Ġxml": 2939,
      "Ġ'',": 2940,
      "ĠID": 2941,
      "rations": 2942,
      "eff": 2943,
      "ics": 2944,
      "SER": 2945,
      "slug": 2946,
      "Ġfunctions": 2947,
      "Ġrecord": 2948,
      "Ġoptional": 2949,
      "angible": 2950,
      "19": 2951,
      "component": 2952,
      "Ġinterface": 2953,
      "Ġ%(": 2954,
      "Sub": 2955,
      "Ġlong": 2956,
      "sumer": 2957,
      "wait": 2958,
      "-------": 2959,
      "dist": 2960,
      "Lay": 2961,
      "LEASE": 2962,
      "Ġwidget": 2963,
      "straint": 2964,
      "]['": 2965,
      "curity": 2966,
      "keep": 2967,
      "success": 2968,
      "sort": 2969,
      "ux": 2970,
      "pl": 2971,
      "part": 2972,
      "ĠRun": 2973,
      "ical": 2974,
      "ĠDOC": 2975,
      ")[": 2976,
      "Ġselect": 2977,
      "Ġproperty": 2978,
      "directory": 2979,
      "sheet": 2980,
      "div": 2981,
      "ABLE": 2982,
      "axis": 2983,
      "Ġsubprocess": 2984,
      "testing": 2985,
      "Info": 2986,
      "]),": 2987,
      "Ġthey": 2988,
      "ric": 2989,
      "Ġcontaining": 2990,
      "OL": 2991,
      "AMPL": 2992,
      "Ġtri": 2993,
      "Ġthem": 2994,
      "Do": 2995,
      "Ġclean": 2996,
      "ĠBEGIN": 2997,
      "XX": 2998,
      "some": 2999,
      "nap": 3000,
      "total": 3001,
      "most": 3002,
      "position": 3003,
      "Invalid": 3004,
      "AMPLES": 3005,
      "Loc": 3006,
      "Ġplt": 3007,
      "Column": 3008,
      "03": 3009,
      "Integer": 3010,
      "andard": 3011,
      "ĠComp": 3012,
      "rf": 3013,
      "Ġforms": 3014,
      "Ġbar": 3015,
      "vor": 3016,
      "ĉĉĊ": 3017,
      "sphinx": 3018,
      "Ġsorted": 3019,
      "issing": 3020,
      "Filter": 3021,
      "ROPER": 3022,
      "Ġdisplay": 3023,
      "release": 3024,
      "MS": 3025,
      "ueue": 3026,
      "attrs": 3027,
      "resp": 3028,
      "ĠSEE": 3029,
      "Ġstatic": 3030,
      "ĠDOCUMENT": 3031,
      "Le": 3032,
      "Ġinclu": 3033,
      "ĠRE": 3034,
      "fetch": 3035,
      "speci": 3036,
      "defin": 3037,
      "ntax": 3038,
      "ENERATED": 3039,
      "Property": 3040,
      "Ġcorrect": 3041,
      "Ġswg": 3042,
      "Sh": 3043,
      "ctx": 3044,
      "Ġzip": 3045,
      "ĠDONE": 3046,
      "Ġmon": 3047,
      "ĠMAY": 3048,
      "stf": 3049,
      "Ġswgpy": 3050,
      "13": 3051,
      "~~~~~~~~": 3052,
      "Bo": 3053,
      "Ġsalt": 3054,
      "ĠOpen": 3055,
      "ĠEXAMPLES": 3056,
      "Ġgenerate": 3057,
      "Su": 3058,
      "Ġmessages": 3059,
      "events": 3060,
      "An": 3061,
      "ĠPLEASE": 3062,
      "ift": 3063,
      "loop": 3064,
      "Format": 3065,
      "As": 3066,
      "ĠDOCUMENTATION": 3067,
      "cies": 3068,
      "Ġconst": 3069,
      "ĠONLINE": 3070,
      "step": 3071,
      "OGENERATED": 3072,
      "ĠAUTOGENERATED": 3073,
      "allow": 3074,
      "Ġbecause": 3075,
      "22": 3076,
      "Ġfil": 3077,
      "ĠLOST": 3078,
      "ĠIMPROPER": 3079,
      "wn": 3080,
      "stfName": 3081,
      "ĠIMPROPERLY": 3082,
      "ctories": 3083,
      "ĠHttp": 3084,
      "WAR": 3085,
      "Ġstop": 3086,
      "Inter": 3087,
      "ition": 3088,
      "Ġsave": 3089,
      "Ġthese": 3090,
      "irs": 3091,
      "Ġcomponent": 3092,
      "Ġ#################################################################": 3093,
      "lector": 3094,
      "ĠNote": 3095,
      "ĠName": 3096,
      "Ġwant": 3097,
      "Ġĉĉĉ": 3098,
      "ween": 3099,
      "Ġ#------------------------------------------------------------------------": 3100,
      "Ġvar": 3101,
      "Ġnodes": 3102,
      "(-": 3103,
      "Ġsum": 3104,
      "abspath": 3105,
      "Ġtotal": 3106,
      "once": 3107,
      "ticle": 3108,
      "rep": 3109,
      "opt": 3110,
      "hook": 3111,
      "timestamp": 3112,
      "Ġdire": 3113,
      "display": 3114,
      "Version": 3115,
      "dumps": 3116,
      "ACK": 3117,
      "Ġbackend": 3118,
      "Ġexists": 3119,
      "ja": 3120,
      "Ġdist": 3121,
      "vious": 3122,
      "dtype": 3123,
      "record": 3124,
      "Ġdebug": 3125,
      "ntry": 3126,
      "Contain": 3127,
      "ĠAd": 3128,
      "cheduler": 3129,
      "lush": 3130,
      "Ġlook": 3131,
      "role": 3132,
      "Serial": 3133,
      "Number": 3134,
      "gor": 3135,
      "Ġinstall": 3136,
      "ily": 3137,
      "Ġinstead": 3138,
      "Ġpk": 3139,
      "protocol": 3140,
      "js": 3141,
      "Ġ',": 3142,
      "\">": 3143,
      "Ġchunk": 3144,
      "Found": 3145,
      "secret": 3146,
      "'})": 3147,
      "Des": 3148,
      "known": 3149,
      "Ġ\"/": 3150,
      "Process": 3151,
      "public": 3152,
      "OS": 3153,
      "cle": 3154,
      "unit": 3155,
      "ĠDjango": 3156,
      "Ġbool": 3157,
      "Ġinteger": 3158,
      "win": 3159,
      "folder": 3160,
      "pu": 3161,
      "ĠLOG": 3162,
      "gument": 3163,
      ".*": 3164,
      "This": 3165,
      "$',": 3166,
      "Ġpick": 3167,
      "Ġter": 3168,
      "Ġ'<": 3169,
      "cheme": 3170,
      "ĠGo": 3171,
      "Ġdoesn": 3172,
      "cat": 3173,
      "properties": 3174,
      "serv": 3175,
      "install": 3176,
      "github": 3177,
      "vm": 3178,
      "alog": 3179,
      "Ġregister": 3180,
      "gger": 3181,
      "Ġph": 3182,
      "ĠAs": 3183,
      "database": 3184,
      "Ġ),": 3185,
      "ĠParameters": 3186,
      "ĠOr": 3187,
      "light": 3188,
      "ĠAttribute": 3189,
      "BUG": 3190,
      "ĠTh": 3191,
      "ĠTypeError": 3192,
      "Str": 3193,
      "ways": 3194,
      "ower": 3195,
      "Attribute": 3196,
      "helper": 3197,
      "Ġabout": 3198,
      "gorith": 3199,
      "Ġwarnings": 3200,
      "short": 3201,
      "dot": 3202,
      "DS": 3203,
      "resses": 3204,
      "aa": 3205,
      "FF": 3206,
      "Function": 3207,
      "ValueError": 3208,
      "oto": 3209,
      "policy": 3210,
      "rest": 3211,
      "rows": 3212,
      "'''": 3213,
      "compute": 3214,
      "language": 3215,
      "ĠDocument": 3216,
      "oreignKey": 3217,
      "Ġtags": 3218,
      "ins": 3219,
      "Ġusers": 3220,
      "filters": 3221,
      "Ġpages": 3222,
      "]]": 3223,
      "lex": 3224,
      "normal": 3225,
      "Ġstrings": 3226,
      "cc": 3227,
      "hether": 3228,
      "gnore": 3229,
      "tivity": 3230,
      "mbol": 3231,
      "apps": 3232,
      "see": 3233,
      "Ġtmp": 3234,
      "Ġconf": 3235,
      "abc": 3236,
      "Ġcontainer": 3237,
      "ZE": 3238,
      "clear": 3239,
      "css": 3240,
      "Ġadded": 3241,
      "Ġsite": 3242,
      "dim": 3243,
      "Ġclasses": 3244,
      "Ġnormal": 3245,
      "Line": 3246,
      "ĠMeta": 3247,
      "leted": 3248,
      "ĠConfig": 3249,
      "AGE": 3250,
      "Ġtheme": 3251,
      "ĠJSON": 3252,
      "NO": 3253,
      "Ġdevice": 3254,
      "ports": 3255,
      "ĠĠĠĠĠĠĠĠĠĠĠĠĠĠĠĠĠĠĠĠĠĠĠĠĠĠĠĠĠĠĠĠĠ": 3256,
      "ĠNOT": 3257,
      "idden": 3258,
      "NS": 3259,
      "extend": 3260,
      "ork": 3261,
      "expr": 3262,
      "FILE": 3263,
      "Ġdefined": 3264,
      "Ġspace": 3265,
      "should": 3266,
      "Ġflask": 3267,
      "entication": 3268,
      "Fe": 3269,
      "Ġexpect": 3270,
      "ench": 3271,
      "tify": 3272,
      "cla": 3273,
      "Ġextension": 3274,
      "Ġsection": 3275,
      "uff": 3276,
      "Ġwidth": 3277,
      "head": 3278,
      "[:,": 3279,
      "multi": 3280,
      "created": 3281,
      "tact": 3282,
      "Protocol": 3283,
      "provider": 3284,
      "xx": 3285,
      "TO": 3286,
      "ĠTo": 3287,
      "track": 3288,
      "columns": 3289,
      "tc": 3290,
      "Ġ#:": 3291,
      "'][": 3292,
      "section": 3293,
      "loader": 3294,
      "ĠĠĠĠĠĠĠĠĠĠĠĠĠĠĠĠĠĠĠĠĠĠĠĠĠĠĠĠĠĠĠĠĠĠĠ": 3295,
      "FO": 3296,
      "Ġoffset": 3297,
      "Ġthrough": 3298,
      "Fla": 3299,
      "Ġredirect": 3300,
      "Ġunique": 3301,
      "eq": 3302,
      "ero": 3303,
      "ination": 3304,
      "All": 3305,
      "product": 3306,
      "Ġsort": 3307,
      "igrations": 3308,
      "Ġprotocol": 3309,
      "mk": 3310,
      "USER": 3311,
      "ĠLICENSE": 3312,
      "tist": 3313,
      "AM": 3314,
      "}.": 3315,
      "Ġactual": 3316,
      "logging": 3317,
      "Widget": 3318,
      "eval": 3319,
      "()[": 3320,
      "Ġstore": 3321,
      "Ġbeing": 3322,
      "tems": 3323,
      "Ġ):": 3324,
      "chunk": 3325,
      "Ġremote": 3326,
      "resources": 3327,
      "ROR": 3328,
      "images": 3329,
      "VAL": 3330,
      "Ġ\".": 3331,
      "Ġsrc": 3332,
      "ĠWh": 3333,
      "Ġour": 3334,
      ".'": 3335,
      "=_": 3336,
      "Ġdifferent": 3337,
      "napshot": 3338,
      "Ġvalidate": 3339,
      "Method": 3340,
      "sted": 3341,
      "%(": 3342,
      "ado": 3343,
      "tification": 3344,
      "Ġoriginal": 3345,
      "Input": 3346,
      "Ġinit": 3347,
      "Plugin": 3348,
      "\").": 3349,
      "78": 3350,
      "Ġ----------": 3351,
      "yp": 3352,
      "Ġutil": 3353,
      "lem": 3354,
      "assertIn": 3355,
      "entries": 3356,
      "Ġcluster": 3357,
      "sitive": 3358,
      "Tra": 3359,
      "spa": 3360,
      "Size": 3361,
      "agent": 3362,
      "labels": 3363,
      "Ġlocation": 3364,
      "abel": 3365,
      "Ġxrange": 3366,
      "cursor": 3367,
      "TEST": 3368,
      "entity": 3369,
      "ĠColumn": 3370,
      "Ġcollections": 3371,
      "pid": 3372,
      "real": 3373,
      "Ġ[(": 3374,
      "ĠStringIO": 3375,
      "Status": 3376,
      "tenant": 3377,
      "Ed": 3378,
      "theme": 3379,
      "flags": 3380,
      "Ġfi": 3381,
      "Ġsuccess": 3382,
      "paths": 3383,
      "ASS": 3384,
      "ĠST": 3385,
      "ITY": 3386,
      "Ġtimestamp": 3387,
      "Ġcli": 3388,
      "cast": 3389,
      "Ġ20": 3390,
      "pendencies": 3391,
      "fd": 3392,
      "Ġhttps": 3393,
      "fit": 3394,
      "attributes": 3395,
      "Ġsm": 3396,
      "Ġplace": 3397,
      "safe": 3398,
      "Ġschema": 3399,
      "way": 3400,
      "edit": 3401,
      "Ġenume": 3402,
      "ection": 3403,
      "ĠIP": 3404,
      "sig": 3405,
      "Ġevery": 3406,
      "Ġcontains": 3407,
      "Ġ16": 3408,
      "'},": 3409,
      "Ġ\"\\": 3410,
      "Ġnamed": 3411,
      "DEFAULT": 3412,
      "Ġcursor": 3413,
      "Ġcolumns": 3414,
      "docs": 3415,
      "ĠValid": 3416,
      "scope": 3417,
      "CRE": 3418,
      "ross": 3419,
      "ĠRequest": 3420,
      "ALL": 3421,
      "packages": 3422,
      "lite": 3423,
      "void": 3424,
      "Callback": 3425,
      "Ġ'{": 3426,
      "eg": 3427,
      "mask": 3428,
      "reset": 3429,
      "uch": 3430,
      "Ġgen": 3431,
      "wards": 3432,
      ")])": 3433,
      "ĠĠĠĠĠĠĠĠĠĠĠĠĠĠĠĠĠĠĠĠĠĠĠĠĠĠĠĠĠĠĠĠĠĠ": 3434,
      "TIC": 3435,
      "_,": 3436,
      "Ġposition": 3437,
      "sleep": 3438,
      "Ġtake": 3439,
      "Returns": 3440,
      "med": 3441,
      "Ġbetween": 3442,
      "Ġskip": 3443,
      "WOR": 3444,
      "Ġsecond": 3445,
      "Ġcore": 3446,
      "rel": 3447,
      "Ġevents": 3448,
      "-----": 3449,
      "ĠSphinx": 3450,
      "Ġpytest": 3451,
      "Ġti": 3452,
      "rer": 3453,
      "namespace": 3454,
      "Ġmod": 3455,
      "utron": 3456,
      "batch": 3457,
      "linen": 3458,
      "plugins": 3459,
      "END": 3460,
      "Ġsupported": 3461,
      "Ġnamespace": 3462,
      "gate": 3463,
      "Ġvari": 3464,
      "Ġfn": 3465,
      "Ġtheano": 3466,
      "ose": 3467,
      "Ġreplace": 3468,
      "RES": 3469,
      "sity": 3470,
      "Ġgra": 3471,
      "Ġstdout": 3472,
      "__.": 3473,
      "actions": 3474,
      "Ġbased": 3475,
      "variable": 3476,
      "cr": 3477,
      "gh": 3478,
      "Ġ[])": 3479,
      "CP": 3480,
      "GI": 3481,
      "oauth": 3482,
      "height": 3483,
      "Ġstep": 3484,
      "std": 3485,
      "/'": 3486,
      "Ġaut": 3487,
      "Ġlibrary": 3488,
      "ĠLo": 3489,
      "tool": 3490,
      "returns": 3491,
      "sl": 3492,
      "Ġdecor": 3493,
      "Ġrunning": 3494,
      "matrix": 3495,
      "-%": 3496,
      "End": 3497,
      "ĠBSD": 3498,
      "Python": 3499,
      "Ġpossible": 3500,
      "ferred": 3501,
      "master": 3502,
      "manage": 3503,
      "Ver": 3504,
      "null": 3505,
      "pth": 3506,
      "orn": 3507,
      "gress": 3508,
      "dap": 3509,
      "decor": 3510,
      "long": 3511,
      "cfg": 3512,
      "trics": 3513,
      "``.": 3514,
      "dar": 3515,
      "Ġctx": 3516,
      "buf": 3517,
      "desc": 3518,
      "ĠPo": 3519,
      "}'.": 3520,
      "rtype": 3521,
      "Ġaccount": 3522,
      "verage": 3523,
      "gments": 3524,
      "Ġhow": 3525,
      "('\\": 3526,
      "SET": 3527,
      "Token": 3528,
      "bucket": 3529,
      "tk": 3530,
      "Ġfinally": 3531,
      "ATA": 3532,
      "related": 3533,
      "Ġstats": 3534,
      "jobs": 3535,
      "Ġcomment": 3536,
      "PORT": 3537,
      "Ġconvert": 3538,
      "ient": 3539,
      "wer": 3540,
      "titem": 3541,
      "Ġexceptions": 3542,
      "Ġ2015": 3543,
      "Ġtrain": 3544,
      "umb": 3545,
      "fication": 3546,
      "Module": 3547,
      "On": 3548,
      "Ġfalse": 3549,
      "moved": 3550,
      "img": 3551,
      "/',": 3552,
      "Ġentity": 3553,
      "()))": 3554,
      "olution": 3555,
      "Back": 3556,
      "IG": 3557,
      "tod": 3558,
      "ished": 3559,
      "PL": 3560,
      "ĠGroup": 3561,
      "Ġstack": 3562,
      "Ġprob": 3563,
      "Ġaxis": 3564,
      "Ġlinks": 3565,
      "Ġparsed": 3566,
      "Open": 3567,
      "utor": 3568,
      ")'": 3569,
      "STR": 3570,
      "pol": 3571,
      "42": 3572,
      "Ġenumerate": 3573,
      "Ġmultiple": 3574,
      "region": 3575,
      "Ġ\"__": 3576,
      "bad": 3577,
      "ĠMy": 3578,
      "('%": 3579,
      "cords": 3580,
      "Page": 3581,
      "ested": 3582,
      "mean": 3583,
      "Ġappro": 3584,
      "home": 3585,
      "hex": 3586,
      "Ġtesting": 3587,
      "sgi": 3588,
      "features": 3589,
      "17": 3590,
      "Ġdefaults": 3591,
      "Tree": 3592,
      "sive": 3593,
      "detail": 3594,
      "SC": 3595,
      "Ro": 3596,
      "ITE": 3597,
      "remote": 3598,
      "alchemy": 3599,
      "Ġprofile": 3600,
      "Ġ2014": 3601,
      "fmt": 3602,
      "ritems": 3603,
      "05": 3604,
      "ĠImage": 3605,
      "EXT": 3606,
      "redirect": 3607,
      "Ġtemplates": 3608,
      "Ġattrs": 3609,
      "UB": 3610,
      "ĠKeyError": 3611,
      "ationError": 3612,
      "score": 3613,
      "ferences": 3614,
      "rl": 3615,
      "Ġdocuments": 3616,
      "Window": 3617,
      "Ġmanager": 3618,
      ">'": 3619,
      "Ġnull": 3620,
      "basic": 3621,
      "publish": 3622,
      "Ġnova": 3623,
      "ws": 3624,
      "fixture": 3625,
      "staticmethod": 3626,
      "Int": 3627,
      "Ġcer": 3628,
      "Ġkeep": 3629,
      "Ġgoogle": 3630,
      "One": 3631,
      "ĠGoogle": 3632,
      "ram": 3633,
      "Output": 3634,
      "Ġmatrix": 3635,
      "Ġforce": 3636,
      "ĠCommand": 3637,
      "ĠSoftware": 3638,
      "Address": 3639,
      "gettext": 3640,
      "agic": 3641,
      "generate": 3642,
      "sec": 3643,
      "TIN": 3644,
      "Ġleft": 3645,
      "hello": 3646,
      "force": 3647,
      "MM": 3648,
      "listen": 3649,
      "Ġmember": 3650,
      "card": 3651,
      "ority": 3652,
      "Ġgit": 3653,
      "lookup": 3654,
      "ĠModel": 3655,
      "mar": 3656,
      "Ġfailed": 3657,
      "SIZE": 3658,
      "Ġrights": 3659,
      "Ġcharac": 3660,
      "lime": 3661,
      "ĠAl": 3662,
      "controller": 3663,
      "Serializer": 3664,
      "Session": 3665,
      "raise": 3666,
      "rowser": 3667,
      "reverse": 3668,
      "proto": 3669,
      "tore": 3670,
      "Ġwx": 3671,
      "Ġextensions": 3672,
      "ĠTestCase": 3673,
      "localhost": 3674,
      "Ġwait": 3675,
      "ude": 3676,
      "SH": 3677,
      "custom": 3678,
      "60": 3679,
      "Ġhigh": 3680,
      "ĠUse": 3681,
      "Ġrelease": 3682,
      "IM": 3683,
      "interface": 3684,
      "vs": 3685,
      "Ġcontents": 3686,
      "Ġpool": 3687,
      "pages": 3688,
      "`,": 3689,
      "licit": 3690,
      "af": 3691,
      "indices": 3692,
      "changed": 3693,
      "Ġagain": 3694,
      "Ġclose": 3695,
      "Ġdriver": 3696,
      "patterns": 3697,
      "scale": 3698,
      "stat": 3699,
      "lineno": 3700,
      "Ġcfg": 3701,
      "ynam": 3702,
      "Ġvolume": 3703,
      "Stream": 3704,
      "Ġdt": 3705,
      "verify": 3706,
      "her": 3707,
      "none": 3708,
      "arDown": 3709,
      "Ġsplit": 3710,
      "duce": 3711,
      "mac": 3712,
      "Ġreal": 3713,
      "Ġjoin": 3714,
      "parts": 3715,
      "year": 3716,
      "seq": 3717,
      "404": 3718,
      "enabled": 3719,
      "Point": 3720,
      "Ġignore": 3721,
      "ored": 3722,
      "ually": 3723,
      "Ġ->": 3724,
      "eve": 3725,
      "nected": 3726,
      "signal": 3727,
      "Ġmodi": 3728,
      "permission": 3729,
      "Ġproperties": 3730,
      "gment": 3731,
      "lab": 3732,
      "Ġexecute": 3733,
      "lities": 3734,
      "vis": 3735,
      ")\"": 3736,
      "Ġassoci": 3737,
      "44": 3738,
      "platform": 3739,
      "Ġmodules": 3740,
      "Ġencode": 3741,
      "signed": 3742,
      "Ġcommon": 3743,
      "ForeignKey": 3744,
      "TIME": 3745,
      "havi": 3746,
      "PC": 3747,
      "VE": 3748,
      "Ġsignal": 3749,
      "parameters": 3750,
      "Template": 3751,
      "Ġmulti": 3752,
      "Ġpermission": 3753,
      "Ġreserved": 3754,
      "dt": 3755,
      "('.": 3756,
      "gorithm": 3757,
      "()),": 3758,
      "contents": 3759,
      "Ġstri": 3760,
      "Ġimplementation": 3761,
      "Ġinvalid": 3762,
      "EC": 3763,
      "pose": 3764,
      "Ġflags": 3765,
      "undle": 3766,
      "'re": 3767,
      "Ġcommands": 3768,
      "salt": 3769,
      "Oper": 3770,
      "Ġrest": 3771,
      "Clo": 3772,
      "pendent": 3773,
      "Tag": 3774,
      "serve": 3775,
      "ĠAttributeError": 3776,
      "verbose": 3777,
      "agicMock": 3778,
      "86": 3779,
      "ERROR": 3780,
      "ongo": 3781,
      "nored": 3782,
      "Ġrelated": 3783,
      "tab": 3784,
      "VERSION": 3785,
      "cing": 3786,
      "ĠTime": 3787,
      "Ġvariables": 3788,
      "Ġretri": 3789,
      "Ġparts": 3790,
      "google": 3791,
      "ĠMake": 3792,
      "1234": 3793,
      "include": 3794,
      "Ġtheir": 3795,
      "Ġbatch": 3796,
      "Ġcallable": 3797,
      "Ġlock": 3798,
      "ĠDi": 3799,
      "structor": 3800,
      "pendency": 3801,
      "Ġ],": 3802,
      "bool": 3803,
      "Migration": 3804,
      "Update": 3805,
      "cb": 3806,
      "seconds": 3807,
      "Ġplot": 3808,
      "Ġwhether": 3809,
      "rpc": 3810,
      "ordin": 3811,
      "ĠDEFAULT": 3812,
      "ĠSQL": 3813,
      "Ġ#########################################################################": 3814,
      "Ġreference": 3815,
      ");": 3816,
      "____": 3817,
      "ĠSub": 3818,
      "')),": 3819,
      "Ġsent": 3820,
      "unch": 3821,
      "Ġblank": 3822,
      "Options": 3823,
      "Ġenvironment": 3824,
      "anti": 3825,
      "(\"%": 3826,
      "pg": 3827,
      "eds": 3828,
      "ground": 3829,
      "samples": 3830,
      "Ġuuid": 3831,
      "pipe": 3832,
      "Ġconnect": 3833,
      "ĠOn": 3834,
      "Ġseconds": 3835,
      "report": 3836,
      "suite": 3837,
      "ĠĠĠĠĠĠĠĠĠĠĠĠĠĠĠĠĠĠĠĠĠĠĠĠĠĠĠĠĠĠĠĠĠĠĠĠ": 3838,
      "Ġthreading": 3839,
      "Ġsince": 3840,
      "__()": 3841,
      "defaults": 3842,
      "Option": 3843,
      "Ġnet": 3844,
      "Ġwhat": 3845,
      "gf": 3846,
      "Graph": 3847,
      "faces": 3848,
      "grid": 3849,
      "udi": 3850,
      "09": 3851,
      "Ġwrap": 3852,
      "ĠOS": 3853,
      "Ġshort": 3854,
      "ouble": 3855,
      "Ġsequence": 3856,
      "NotFound": 3857,
      "ometry": 3858,
      "Ġdirect": 3859,
      "pick": 3860,
      "respon": 3861,
      "****************": 3862,
      "regex": 3863,
      "Ġlogin": 3864,
      "Ġproduct": 3865,
      "matic": 3866,
      "Source": 3867,
      "deo": 3868,
      "oriz": 3869,
      "cols": 3870,
      "Ġanother": 3871,
      "Ġ2013": 3872,
      "Ġverify": 3873,
      "Ġ'')": 3874,
      "Ġsuch": 3875,
      "nu": 3876,
      "owner": 3877,
      "zeros": 3878,
      "Ġlate": 3879,
      "csv": 3880,
      "rot": 3881,
      "tasks": 3882,
      "Ġfactory": 3883,
      "Ġchanges": 3884,
      "periment": 3885,
      "numpy": 3886,
      "Ġdisable": 3887,
      "Ġtempfile": 3888,
      "Ġctypes": 3889,
      "ixed": 3890,
      "ancel": 3891,
      "ignore": 3892,
      "Ġsetting": 3893,
      "WS": 3894,
      "category": 3895,
      "ving": 3896,
      "23": 3897,
      "Ġmaster": 3898,
      "Ġwho": 3899,
      "ĠQt": 3900,
      "XML": 3901,
      "PS": 3902,
      "Ġoperation": 3903,
      "precated": 3904,
      "UE": 3905,
      "Ġmath": 3906,
      "Ġ])": 3907,
      "ĠOptions": 3908,
      "('-": 3909,
      "flush": 3910,
      "Middleware": 3911,
      "Ġinstances": 3912,
      "false": 3913,
      "enter": 3914,
      "Ġglob": 3915,
      "ĠBu": 3916,
      "media": 3917,
      "bove": 3918,
      "ĠRa": 3919,
      "ĠNode": 3920,
      "Ġdivision": 3921,
      "Queue": 3922,
      "sk": 3923,
      "Ġdataset": 3924,
      ":`.": 3925,
      "Ġsen": 3926,
      "pare": 3927,
      "ĠOption": 3928,
      "tz": 3929,
      "Ġcopyright": 3930,
      "Ġsk": 3931,
      "Ġpipe": 3932,
      "tables": 3933,
      "mount": 3934,
      "Child": 3935,
      "Ġpayload": 3936,
      "Ġcommit": 3937,
      "expi": 3938,
      "xtures": 3939,
      "Ġexisting": 3940,
      "SQL": 3941,
      "Ġunit": 3942,
      "255": 3943,
      "tensor": 3944,
      "scribe": 3945,
      "Ġcompute": 3946,
      "ĠQu": 3947,
      "Map": 3948,
      "ROM": 3949,
      "Pa": 3950,
      "uring": 3951,
      "Ġupdated": 3952,
      "endpoint": 3953,
      "loaded": 3954,
      "Ġloop": 3955,
      "Ġrole": 3956,
      "Ġpresent": 3957,
      "ied": 3958,
      "Ġmanual": 3959,
      "security": 3960,
      "fiers": 3961,
      "setUp": 3962,
      "88": 3963,
      "pb": 3964,
      "dient": 3965,
      "Ġins": 3966,
      "alias": 3967,
      "ases": 3968,
      "WARE": 3969,
      "Ġreport": 3970,
      "vars": 3971,
      "medi": 3972,
      "lim": 3973,
      "Count": 3974,
      "'\\": 3975,
      "Ġreason": 3976,
      "pytest": 3977,
      "AND": 3978,
      "dataset": 3979,
      "Ġmer": 3980,
      "Ġproxy": 3981,
      "cell": 3982,
      "binary": 3983,
      ",)": 3984,
      "Ġsim": 3985,
      "mpy": 3986,
      "Ġren": 3987,
      "bed": 3988,
      "Ġdefer": 3989,
      "boot": 3990,
      "Stack": 3991,
      "Ġendpoint": 3992,
      "links": 3993,
      "require": 3994,
      "payload": 3995,
      "Ġfilters": 3996,
      "vari": 3997,
      "chine": 3998,
      "Ġboth": 3999,
      "Ġuri": 4000,
      "ories": 4001,
      "extension": 4002,
      "Ġshutil": 4003,
      "math": 4004,
      "ĠSimple": 4005,
      "warning": 4006,
      "six": 4007,
      "iver": 4008,
      "chain": 4009,
      "System": 4010,
      "ssl": 4011,
      "DF": 4012,
      "Ġusage": 4013,
      "mpt": 4014,
      "ANG": 4015,
      "commands": 4016,
      "Failed": 4017,
      "Ġtuples": 4018,
      "ĠPRO": 4019,
      "ustome": 4020,
      "ence": 4021,
      "lazy": 4022,
      "Ġvia": 4023,
      "Ġmapping": 4024,
      "reference": 4025,
      "Http": 4026,
      "Ġio": 4027,
      "Ġkw": 4028,
      "Ġrequire": 4029,
      "Ġstorage": 4030,
      "dat": 4031,
      "dire": 4032,
      "Ġcategory": 4033,
      "Ġidx": 4034,
      "Ġstderr": 4035,
      "Exec": 4036,
      "lint": 4037,
      "Ġeval": 4038,
      "Ġword": 4039,
      "complete": 4040,
      "upload": 4041,
      "OUT": 4042,
      "Ġway": 4043,
      "deploy": 4044,
      "Ġrv": 4045,
      "ORS": 4046,
      "arge": 4047,
      "ĠDo": 4048,
      "Ġĉĉĉĉ": 4049,
      "GL": 4050,
      "Ġfeature": 4051,
      "ynamic": 4052,
      "control": 4053,
      "Ġrows": 4054,
      "Ġside": 4055,
      "Ġheight": 4056,
      "choices": 4057,
      "ĠHttpResponse": 4058,
      "(\"/": 4059,
      "Read": 4060,
      "fname": 4061,
      "translation": 4062,
      "Ġ--------------------------------": 4063,
      "Ġbuiltin": 4064,
      "Ġwould": 4065,
      "Layer": 4066,
      "iteritems": 4067,
      "transport": 4068,
      "Ġrep": 4069,
      "Ġprimary": 4070,
      "Thread": 4071,
      "blem": 4072,
      "ternet": 4073,
      "Ġsuite": 4074,
      "Ġalpha": 4075,
      "TING": 4076,
      "virt": 4077,
      "velop": 4078,
      "Default": 4079,
      "ĠĠĠĠĠĠĠĠĠĠĠĠĠĠĠĠĠĠĠĠĠĠĠĠĠĠĠĠĠĠĠĠĠĠĠĠĠĠĠ": 4080,
      "We": 4081,
      "dispatch": 4082,
      "Ġig": 4083,
      "rr": 4084,
      "istration": 4085,
      "Ġexit": 4086,
      "Ġwrapper": 4087,
      "Ġsig": 4088,
      "tition": 4089,
      "Fail": 4090,
      "registry": 4091,
      "Ġcontrol": 4092,
      "AUT": 4093,
      "hape": 4094,
      "ĠBy": 4095,
      "Ġbinary": 4096,
      "after": 4097,
      "LOC": 4098,
      "ier": 4099,
      "topic": 4100,
      "hs": 4101,
      "ĠAuthor": 4102,
      "uted": 4103,
      "yaml": 4104,
      "__\":": 4105,
      "Ġlabels": 4106,
      "istered": 4107,
      "timeError": 4108,
      "fact": 4109,
      "history": 4110,
      "Ġcould": 4111,
      "wik": 4112,
      "}}": 4113,
      "Len": 4114,
      "Ġtool": 4115,
      "rb": 4116,
      "middleware": 4117,
      "unct": 4118,
      "Ġneeds": 4119,
      "Ġreactor": 4120,
      "services": 4121,
      "Ġbuffer": 4122,
      "ĠAND": 4123,
      "Ġ[],": 4124,
      "Ġ_('": 4125,
      "ĠEvent": 4126,
      "ĠUp": 4127,
      "ĠTests": 4128,
      "cd": 4129,
      "inf": 4130,
      "Ġmissing": 4131,
      "ural": 4132,
      "Ġ_(\"": 4133,
      "learn": 4134,
      "Ġuses": 4135,
      "aries": 4136,
      "isten": 4137,
      ">\\": 4138,
      "Ġconver": 4139,
      "Ġ%}": 4140,
      "global": 4141,
      "Mo": 4142,
      "Storage": 4143,
      "coun": 4144,
      "Meta": 4145,
      "TypeError": 4146,
      "Ġopts": 4147,
      "Ġcompile": 4148,
      "123": 4149,
      "Search": 4150,
      "ga": 4151,
      "Ġ\"<": 4152,
      "Ġpublic": 4153,
      "ĠĠĠĠĠĠĠĠĠĠĠĠĠĠĠĠĠĠĠĠĠĠĠĠĠĠĠĠĠĠĠĠĠĠĠĠĠĠ": 4154,
      "Ġedit": 4155,
      "Ġ((": 4156,
      "ffic": 4157,
      "FORM": 4158,
      "ctype": 4159,
      "sock": 4160,
      "uce": 4161,
      "Start": 4162,
      "tical": 4163,
      "interval": 4164,
      "tives": 4165,
      "Ġlookup": 4166,
      "Ġappend": 4167,
      "requests": 4168,
      "arted": 4169,
      "ĠSh": 4170,
      "Ġpatterns": 4171,
      "ĠClient": 4172,
      "handlers": 4173,
      "utes": 4174,
      "runner": 4175,
      "Ġext": 4176,
      "ĠĠĠĠĠĠĠĠĠĠĠĠĠĠĠĠĠĠĠĠĠĠĠĠĠĠĠĠĠĠĠĠĠĠĠĠĠ": 4177,
      "66": 4178,
      "Ġmat": 4179,
      "irc": 4180,
      "suffix": 4181,
      "Ġrepr": 4182,
      "Ġallowed": 4183,
      "Ġtrack": 4184,
      "weight": 4185,
      "}\".": 4186,
      "ia": 4187,
      "Ġetc": 4188,
      "ĠWhen": 4189,
      "unds": 4190,
      "Ġcalls": 4191,
      "Ġviews": 4192,
      "Entry": 4193,
      "Ġlisten": 4194,
      "esca": 4195,
      "Ġadditional": 4196,
      "Ġkeyword": 4197,
      "Proxy": 4198,
      "Ġelements": 4199,
      "Ġplatform": 4200,
      "servers": 4201,
      "Argument": 4202,
      "super": 4203,
      "Ġregion": 4204,
      "utc": 4205,
      "this": 4206,
      "gregate": 4207,
      "transform": 4208,
      "Ġexpression": 4209,
      "edge": 4210,
      "templates": 4211,
      "')(": 4212,
      "hostname": 4213,
      "serialize": 4214,
      "Be": 4215,
      "DU": 4216,
      "basename": 4217,
      "Ġtraceback": 4218,
      "Ġtr": 4219,
      "ks": 4220,
      "ĠTra": 4221,
      "memory": 4222,
      "prot": 4223,
      "Ġbranch": 4224,
      "Ġcop": 4225,
      "ECT": 4226,
      "note": 4227,
      "Ġperform": 4228,
      "Ġbind": 4229,
      "Ġcalc": 4230,
      "Ġscope": 4231,
      "Unless": 4232,
      "ditions": 4233,
      "ĠReserved": 4234,
      "Network": 4235,
      "ustomer": 4236,
      "roll": 4237,
      "Cl": 4238,
      "cel": 4239,
      "Ġ{})": 4240,
      "If": 4241,
      "eeded": 4242,
      "75": 4243,
      "Ġspec": 4244,
      "lip": 4245,
      "Ġindic": 4246,
      "Ġwithin": 4247,
      "ERS": 4248,
      "warn": 4249,
      "Dec": 4250,
      "######": 4251,
      "Ġabove": 4252,
      "cimal": 4253,
      "icro": 4254,
      "Ġensure": 4255,
      "Ġprevious": 4256,
      "Ġowner": 4257,
      "ĠIO": 4258,
      "ools": 4259,
      "Ġalways": 4260,
      "branch": 4261,
      "png": 4262,
      "__.__": 4263,
      "month": 4264,
      "()]": 4265,
      "support": 4266,
      "usage": 4267,
      "Ġsuffix": 4268,
      "DEBUG": 4269,
      "Ġotherwise": 4270,
      "ites": 4271,
      "Ġprogram": 4272,
      "rules": 4273,
      "Ġ11": 4274,
      "Port": 4275,
      "lack": 4276,
      "identity": 4277,
      "uplic": 4278,
      "LS": 4279,
      "MIN": 4280,
      "eries": 4281,
      "byte": 4282,
      "Ġfolder": 4283,
      "unique": 4284,
      "ĠLa": 4285,
      "ĠWindow": 4286,
      "ĠtearDown": 4287,
      "available": 4288,
      "------": 4289,
      "Ġkind": 4290,
      "Application": 4291,
      "Ġflag": 4292,
      "Ġimg": 4293,
      "CS": 4294,
      "Pack": 4295,
      "ftime": 4296,
      "yper": 4297,
      "Exten": 4298,
      "Ġsubject": 4299,
      "Ġhead": 4300,
      "Of": 4301,
      "Change": 4302,
      "UD": 4303,
      "LECT": 4304,
      "cii": 4305,
      "perly": 4306,
      "ĠIndex": 4307,
      "menu": 4308,
      "dash": 4309,
      "ĠRights": 4310,
      "PAR": 4311,
      "Ġpublish": 4312,
      "anization": 4313,
      "missing": 4314,
      "Bar": 4315,
      "']),": 4316,
      "edirect": 4317,
      "FIG": 4318,
      "click": 4319,
      "done": 4320,
      "mapping": 4321,
      "Ġspecify": 4322,
      "Loader": 4323,
      "velopment": 4324,
      "mox": 4325,
      "Ġshown": 4326,
      "private": 4327,
      "Store": 4328,
      "meth": 4329,
      "ĠLog": 4330,
      "Link": 4331,
      "prop": 4332,
      "36": 4333,
      "Ġsq": 4334,
      "Ġenti": 4335,
      "Schema": 4336,
      "Ġqueryset": 4337,
      "question": 4338,
      "updated": 4339,
      "pair": 4340,
      "az": 4341,
      "attach": 4342,
      "Ġdesc": 4343,
      "Te": 4344,
      "today": 4345,
      "Ġpickle": 4346,
      "metric": 4347,
      "second": 4348,
      "na": 4349,
      "']))": 4350,
      "Ġpoints": 4351,
      "resolver": 4352,
      "Ġsepar": 4353,
      "ACE": 4354,
      "Ġrequires": 4355,
      "mbed": 4356,
      "ĠVer": 4357,
      "two": 4358,
      "Ġ15": 4359,
      "ĠObject": 4360,
      "ones": 4361,
      "alk": 4362,
      "derer": 4363,
      "Exist": 4364,
      "ĠDis": 4365,
      "PUT": 4366,
      "upper": 4367,
      "stub": 4368,
      "Account": 4369,
      "feed": 4370,
      "``,": 4371,
      "components": 4372,
      "where": 4373,
      "Ġdone": 4374,
      "poch": 4375,
      "cover": 4376,
      "Ġtokens": 4377,
      "mag": 4378,
      "baz": 4379,
      "Ġpop": 4380,
      "amily": 4381,
      "Ġreceived": 4382,
      "appen": 4383,
      "40": 4384,
      "flag": 4385,
      "worker": 4386,
      "Ġcannot": 4387,
      "tten": 4388,
      "Ġitera": 4389,
      "Ġhelper": 4390,
      "plan": 4391,
      "Ag": 4392,
      "ons": 4393,
      "Ġshell": 4394,
      "elements": 4395,
      "wsgi": 4396,
      "ĠTemplate": 4397,
      "cm": 4398,
      "vas": 4399,
      "Load": 4400,
      "reshold": 4401,
      "Ġpackages": 4402,
      "uting": 4403,
      "Ġbot": 4404,
      "push": 4405,
      "backends": 4406,
      "Owner": 4407,
      "Ġissue": 4408,
      "Ġsqlalchemy": 4409,
      "Ġbuilder": 4410,
      "Ġmp": 4411,
      "READ": 4412,
      "Ġactive": 4413,
      "assertNot": 4414,
      "Ġclear": 4415,
      "xtra": 4416,
      "dependent": 4417,
      "gt": 4418,
      "rence": 4419,
      "ROOT": 4420,
      "Ġ32": 4421,
      "lash": 4422,
      "atible": 4423,
      "ssh": 4424,
      "HER": 4425,
      "ĠError": 4426,
      "ĠText": 4427,
      "Ġfp": 4428,
      "Ġfont": 4429,
      "calls": 4430,
      "Ġimages": 4431,
      "omment": 4432,
      "quested": 4433,
      "Host": 4434,
      "tl": 4435,
      "Ġexpi": 4436,
      "Ġwin": 4437,
      "INT": 4438,
      "Array": 4439,
      "ĠForm": 4440,
      "gramm": 4441,
      "seed": 4442,
      "Ġsympy": 4443,
      "leg": 4444,
      "MENT": 4445,
      "Ġraised": 4446,
      "before": 4447,
      "PRE": 4448,
      "Cannot": 4449,
      "LL": 4450,
      "Ġexpr": 4451,
      "quote": 4452,
      "MAX": 4453,
      "Ġassociated": 4454,
      "ational": 4455,
      "roy": 4456,
      "requires": 4457,
      ")*": 4458,
      "Ġignored": 4459,
      "Color": 4460,
      "Ġsouth": 4461,
      "Ġ\"--": 4462,
      "sync": 4463,
      "Gui": 4464,
      "issue": 4465,
      "Dir": 4466,
      "Ġreset": 4467,
      "Ġstandard": 4468,
      "button": 4469,
      "Box": 4470,
      "ĠLoc": 4471,
      "77": 4472,
      "Ġaddresses": 4473,
      "ĠGeneral": 4474,
      "blob": 4475,
      "Flag": 4476,
      "activ": 4477,
      "MET": 4478,
      "ring": 4479,
      "Ren": 4480,
      "SA": 4481,
      "tice": 4482,
      "Ġmask": 4483,
      "Ġlet": 4484,
      "crement": 4485,
      ":`~": 4486,
      "Ġmean": 4487,
      "ĠBe": 4488,
      "endswith": 4489,
      "Ġprovider": 4490,
      "Ġcorrespon": 4491,
      "Ġoperator": 4492,
      "Ġmatches": 4493,
      "extensions": 4494,
      "Ġ))": 4495,
      "LED": 4496,
      "><": 4497,
      "spe": 4498,
      "Ġneeded": 4499,
      "ops": 4500,
      "free": 4501,
      "writer": 4502,
      "ĠTrans": 4503,
      "ĠDate": 4504,
      "Ġoc": 4505,
      "HOST": 4506,
      "instances": 4507,
      "holder": 4508,
      "itter": 4509,
      "Ġindent": 4510,
      "appengine": 4511,
      "assword": 4512,
      "('--": 4513,
      "SL": 4514,
      "pted": 4515,
      "slice": 4516,
      "THER": 4517,
      "ceive": 4518,
      "BO": 4519,
      "Does": 4520,
      "DateTime": 4521,
      "Ġeven": 4522,
      "arn": 4523,
      "hosts": 4524,
      "AUTH": 4525,
      "cut": 4526,
      "ĠFROM": 4527,
      "cesses": 4528,
      "kit": 4529,
      "STAT": 4530,
      "REQU": 4531,
      "raft": 4532,
      "cached": 4533,
      "Buffer": 4534,
      "convert": 4535,
      "glob": 4536,
      "Ġinstalled": 4537,
      "orary": 4538,
      "SSL": 4539,
      "ILITY": 4540,
      "states": 4541,
      "Qt": 4542,
      "fill": 4543,
      "shell": 4544,
      "bstract": 4545,
      "ĠInvalid": 4546,
      "Ġterms": 4547,
      "flat": 4548,
      "2015": 4549,
      "pending": 4550,
      "Ġ'*": 4551,
      ".%": 4552,
      "exist": 4553,
      "HT": 4554,
      "Ġspa": 4555,
      "gb": 4556,
      "Ġ1000": 4557,
      "escape": 4558,
      "(\\": 4559,
      "Ġ\"-": 4560,
      "cos": 4561,
      "GR": 4562,
      "added": 4563,
      "enchmark": 4564,
      "21": 4565,
      "INFO": 4566,
      "Ġpolicy": 4567,
      "Cur": 4568,
      "Ġput": 4569,
      "named": 4570,
      "Ġorm": 4571,
      "_.": 4572,
      "/')": 4573,
      "term": 4574,
      "effect": 4575,
      "Ġexclude": 4576,
      "Ġ30": 4577,
      "ifest": 4578,
      "Ġoverride": 4579,
      "Cre": 4580,
      ",))": 4581,
      "izers": 4582,
      "Ġpd": 4583,
      ":\\": 4584,
      "pto": 4585,
      "ornado": 4586,
      "Ġmany": 4587,
      "relation": 4588,
      "alpha": 4589,
      "Ġcredentials": 4590,
      "Ġsetattr": 4591,
      "LOG": 4592,
      "Ġfig": 4593,
      "Ġnote": 4594,
      "(%": 4595,
      "unic": 4596,
      "()):": 4597,
      "Ġ-------": 4598,
      "JSON": 4599,
      "font": 4600,
      "times": 4601,
      "Ġmenu": 4602,
      "feature": 4603,
      "lueprint": 4604,
      "layout": 4605,
      "ae": 4606,
      "Ġap": 4607,
      "andas": 4608,
      "ĠTw": 4609,
      ".',": 4610,
      "ars": 4611,
      "Ġhand": 4612,
      "bound": 4613,
      "Ġoperations": 4614,
      "moves": 4615,
      "ressed": 4616,
      "Ġinterval": 4617,
      "bl": 4618,
      "Ġ------------------------------------------------------------------------": 4619,
      "Ġbad": 4620,
      "pkg": 4621,
      "supported": 4622,
      "br": 4623,
      "mem": 4624,
      "voke": 4625,
      "Ġmigrations": 4626,
      "/{": 4627,
      "single": 4628,
      "Ġupload": 4629,
      "Ġtransaction": 4630,
      "inline": 4631,
      "ĠReg": 4632,
      "apply": 4633,
      "Ġbyte": 4634,
      "rong": 4635,
      "ĠCO": 4636,
      "builder": 4637,
      "indent": 4638,
      "days": 4639,
      "getattr": 4640,
      "Ġchildren": 4641,
      "setdefault": 4642,
      "Warning": 4643,
      "override": 4644,
      "ane": 4645,
      "PY": 4646,
      "Ġurlparse": 4647,
      "Controller": 4648,
      "download": 4649,
      "Ġcell": 4650,
      "Met": 4651,
      "Ġ2012": 4652,
      "dirs": 4653,
      "Ġslug": 4654,
      "Ġcontrib": 4655,
      "modified": 4656,
      "Ġlayer": 4657,
      "CC": 4658,
      "Ġfetch": 4659,
      "permissions": 4660,
      "trace": 4661,
      "Ġcomplete": 4662,
      "New": 4663,
      "Ġdirectly": 4664,
      "disk": 4665,
      "unknown": 4666,
      "Ġequal": 4667,
      "Ref": 4668,
      "....": 4669,
      "DataCache": 4670,
      "panel": 4671,
      "Delete": 4672,
      "counter": 4673,
      "inja": 4674,
      "mat": 4675,
      "Ġdeploy": 4676,
      "Ġaccept": 4677,
      "Args": 4678,
      "Ġsci": 4679,
      "Ġonce": 4680,
      "Ġfinal": 4681,
      "arguments": 4682,
      "switch": 4683,
      "rst": 4684,
      "ending": 4685,
      "alle": 4686,
      "Ġmanage": 4687,
      "Ġstatement": 4688,
      "Ġbuf": 4689,
      "Ġfeatures": 4690,
      "ascii": 4691,
      "drop": 4692,
      "Ġflow": 4693,
      "Ġremoved": 4694,
      "Ġpe": 4695,
      "cert": 4696,
      "almost": 4697,
      "Match": 4698,
      "Ġgot": 4699,
      "relative": 4700,
      "Ġnose": 4701,
      "ĠLanguage": 4702,
      "dummy": 4703,
      ")).": 4704,
      "ĠAc": 4705,
      "WORD": 4706,
      "rove": 4707,
      "scal": 4708,
      "Ġbucket": 4709,
      "correct": 4710,
      "Profile": 4711,
      ",'": 4712,
      "sorted": 4713,
      "gpu": 4714,
      "defined": 4715,
      "Ġmost": 4716,
      "configuration": 4717,
      "bal": 4718,
      "FIX": 4719,
      "ĠSta": 4720,
      "Ġ\",": 4721,
      "cessed": 4722,
      "ANT": 4723,
      ".)": 4724,
      "tificate": 4725,
      "OFT": 4726,
      "ĠSystem": 4727,
      "ness": 4728,
      "subject": 4729,
      "Ġgroups": 4730,
      "cookie": 4731,
      "compat": 4732,
      "(\"\"\"": 4733,
      "Ġpylint": 4734,
      "Ġchanged": 4735,
      "zero": 4736,
      "06": 4737,
      "Ġchoices": 4738,
      "ulation": 4739,
      "using": 4740,
      "Multi": 4741,
      "Ġinternal": 4742,
      "35": 4743,
      "Level": 4744,
      "consumer": 4745,
      "failure": 4746,
      "My": 4747,
      "UID": 4748,
      "Ġdimen": 4749,
      "Simple": 4750,
      "lap": 4751,
      "Ġapply": 4752,
      "Ġbehavi": 4753,
      "isinstance": 4754,
      "sertion": 4755,
      "Panel": 4756,
      "digest": 4757,
      "NotExist": 4758,
      "Ġworks": 4759,
      "Ġdependencies": 4760,
      "Ġdetermin": 4761,
      "ĠThey": 4762,
      "Listen": 4763,
      "Ġbit": 4764,
      "Ġexternal": 4765,
      "ĠXML": 4766,
      "Suite": 4767,
      "Ġbasic": 4768,
      "Top": 4769,
      "Ġprovides": 4770,
      "calc": 4771,
      "[:-": 4772,
      "Ge": 4773,
      "Runner": 4774,
      "Ġdecode": 4775,
      "Ġsetuptools": 4776,
      "ĠContent": 4777,
      "chron": 4778,
      "StringIO": 4779,
      "Document": 4780,
      "ony": 4781,
      "Build": 4782,
      "MPLATE": 4783,
      "CONT": 4784,
      "reduce": 4785,
      "ĠOut": 4786,
      "Ġstat": 4787,
      "rev": 4788,
      "Ġworld": 4789,
      "Ġstored": 4790,
      "perm": 4791,
      "Ġsubclass": 4792,
      "ĠField": 4793,
      "Variable": 4794,
      "gl": 4795,
      "Ġraises": 4796,
      "Ġfree": 4797,
      "arm": 4798,
      "FL": 4799,
      "choice": 4800,
      "Ġ\"{": 4801,
      "bb": 4802,
      "Ġcy": 4803,
      "tyle": 4804,
      "library": 4805,
      "tokens": 4806,
      "Ġpkg": 4807,
      "Ġconsi": 4808,
      "defer": 4809,
      "ĠDB": 4810,
      "iod": 4811,
      "scheme": 4812,
      "uda": 4813,
      "stone": 4814,
      "1000": 4815,
      "nn": 4816,
      "Ġidenti": 4817,
      "Ġcases": 4818,
      "ernel": 4819,
      "Ġargparse": 4820,
      "aris": 4821,
      "proc": 4822,
      "127": 4823,
      "Ġinspect": 4824,
      "sd": 4825,
      "ĠHe": 4826,
      "ĠProject": 4827,
      "PT": 4828,
      "Foo": 4829,
      "37": 4830,
      "')]": 4831,
      "Pool": 4832,
      "sep": 4833,
      "reader": 4834,
      "ĠResource": 4835,
      "OFTWARE": 4836,
      "eek": 4837,
      "deredDict": 4838,
      "Rel": 4839,
      "kind": 4840,
      "cription": 4841,
      "gg": 4842,
      "Ġuntil": 4843,
      "Ġscale": 4844,
      "Post": 4845,
      "JECT": 4846,
      "abi": 4847,
      "DoesNotExist": 4848,
      "Ġinv": 4849,
      "../": 4850,
      "Ġ{},": 4851,
      "DR": 4852,
      "\"}": 4853,
      "Ġoauth": 4854,
      "cf": 4855,
      "ĠWindows": 4856,
      "Pri": 4857,
      "Ġchain": 4858,
      "just": 4859,
      "internet": 4860,
      "istri": 4861,
      "Ġengine": 4862,
      "ario": 4863,
      "Boolean": 4864,
      "Block": 4865,
      "DATA": 4866,
      "Ġown": 4867,
      "ough": 4868,
      "Ġhook": 4869,
      "Ġselected": 4870,
      "contains": 4871,
      "copyright": 4872,
      "WN": 4873,
      "Ġtasks": 4874,
      "Range": 4875,
      "ĠBo": 4876,
      "ublic": 4877,
      "Target": 4878,
      "rv": 4879,
      "visit": 4880,
      "ĠFound": 4881,
      "Ġcomb": 4882,
      "ĠResponse": 4883,
      "ixel": 4884,
      "ords": 4885,
      "Ġfd": 4886,
      "ater": 4887,
      "team": 4888,
      "router": 4889,
      "Struct": 4890,
      "Backend": 4891,
      "queryset": 4892,
      "Buil": 4893,
      "Ġincluded": 4894,
      "ĠMessage": 4895,
      "unctools": 4896,
      "Redirect": 4897,
      "tio": 4898,
      "ĠClo": 4899,
      "ĠThere": 4900,
      "Ġregex": 4901,
      "umeric": 4902,
      "Failure": 4903,
      "ĠRuntimeError": 4904,
      "retry": 4905,
      "Ġreview": 4906,
      "Ġstd": 4907,
      "ĠElement": 4908,
      "methods": 4909,
      "priate": 4910,
      "Writer": 4911,
      "Ġdecorator": 4912,
      "zz": 4913,
      "iti": 4914,
      "AME": 4915,
      "Ġrepository": 4916,
      "strap": 4917,
      "specific": 4918,
      "Bad": 4919,
      "ĠLI": 4920,
      "ĠDec": 4921,
      "Ġmemory": 4922,
      "Ġfeed": 4923,
      "Ġugettext": 4924,
      "CONF": 4925,
      "Ġdirectories": 4926,
      "inel": 4927,
      "LEN": 4928,
      "Ġ//": 4929,
      "uses": 4930,
      "Ġbuilt": 4931,
      "Select": 4932,
      "td": 4933,
      "Ġtab": 4934,
      "found": 4935,
      "watch": 4936,
      "]*": 4937,
      "ara": 4938,
      ":'": 4939,
      "Ġ_,": 4940,
      "Sy": 4941,
      "Ġautomatic": 4942,
      "AX": 4943,
      "teration": 4944,
      "lendar": 4945,
      "ited": 4946,
      "review": 4947,
      "Ġmd": 4948,
      "ĠMo": 4949,
      "256": 4950,
      "Interface": 4951,
      "delay": 4952,
      "builtin": 4953,
      "ABILITY": 4954,
      "plotlib": 4955,
      "Ġgl": 4956,
      "Component": 4957,
      "Ġworker": 4958,
      "CONFIG": 4959,
      "TRI": 4960,
      "Ġseq": 4961,
      "nova": 4962,
      "nan": 4963,
      "ĠĠĠĠĠĠĠĠĠĠĠĠĠĠĠĠĠĠĠĠĠĠĠĠĠĠĠĠĠĠĠĠĠĠĠĠĠĠĠĠ": 4964,
      "ĠInitial": 4965,
      "comments": 4966,
      ")/": 4967,
      "Ġentries": 4968,
      "environment": 4969,
      "ĠMigration": 4970,
      "ĠUSE": 4971,
      "Ġattemp": 4972,
      "cwd": 4973,
      "ards": 4974,
      "ĠInt": 4975,
      "'\"": 4976,
      "tty": 4977,
      "Ġshared": 4978,
      "Ġrelation": 4979,
      "scen": 4980,
      "LETE": 4981,
      "Sign": 4982,
      "]])": 4983,
      "26": 4984,
      "Wrapper": 4985,
      "exclude": 4986,
      "getitem": 4987,
      "Ġinte": 4988,
      "setting": 4989,
      "acy": 4990,
      "Ġappropriate": 4991,
      "29": 4992,
      "schedule": 4993,
      "norm": 4994,
      "crypt": 4995,
      "versions": 4996,
      "Ġdatastore": 4997,
      "Spec": 4998,
      "Ġqs": 4999,
      "wrapper": 5000,
      "Length": 5001,
      "ĠSOFTWARE": 5002,
      "qa": 5003,
      "amo": 5004,
      "Ġbutton": 5005,
      "ORY": 5006,
      "Ġ60": 5007,
      "when": 5008,
      "ĠCustom": 5009,
      "ĠUpdate": 5010,
      "Comm": 5011,
      "Mode": 5012,
      "Ġtoo": 5013,
      "Ġ(%": 5014,
      "Parse": 5015,
      "Ġprovide": 5016,
      "ĠServer": 5017,
      "fp": 5018,
      "processor": 5019,
      "power": 5020,
      "Ġ,": 5021,
      "Ġts": 5022,
      "ula": 5023,
      "Ġ[[": 5024,
      "Ġdownload": 5025,
      "running": 5026,
      "Ġdst": 5027,
      "ocker": 5028,
      "failUnless": 5029,
      "URE": 5030,
      "Ġtimes": 5031,
      "Ġtables": 5032,
      "Ġwere": 5033,
      "ĠDummy": 5034,
      "istribu": 5035,
      "Ġflat": 5036,
      "authentic": 5037,
      "Ġenable": 5038,
      "factor": 5039,
      "ULL": 5040,
      "Ġmail": 5041,
      "cessary": 5042,
      "pher": 5043,
      "ctive": 5044,
      "ullable": 5045,
      "expect": 5046,
      "figs": 5047,
      "Ġgenerator": 5048,
      "Ġidentifier": 5049,
      "ĠĠĠĠĠĠĠĠĠĠĠĠĠĠĠĠĠĠĠĠĠĠĠĠĠĠĠĠĠĠĠĠĠĠĠĠĠĠĠĠĠ": 5050,
      "ysql": 5051,
      "ynchron": 5052,
      "optional": 5053,
      "ope": 5054,
      "Ġ-=": 5055,
      "ĠVi": 5056,
      "refresh": 5057,
      "metrics": 5058,
      "ĠFake": 5059,
      "Label": 5060,
      "Ġappen": 5061,
      "/$',": 5062,
      "redis": 5063,
      "Ġalias": 5064,
      "zen": 5065,
      "ird": 5066,
      "stant": 5067,
      "Ġtimedelta": 5068,
      "lations": 5069,
      "generator": 5070,
      "integer": 5071,
      "([\"": 5072,
      "MODE": 5073,
      "cpu": 5074,
      "pient": 5075,
      "Ġfailure": 5076,
      "details": 5077,
      "]).": 5078,
      "HTML": 5079,
      "distribu": 5080,
      "Driver": 5081,
      "identifier": 5082,
      "':'": 5083,
      "84": 5084,
      "ĠRed": 5085,
      "27": 5086,
      "===": 5087,
      "gramming": 5088,
      "Ġuseful": 5089,
      "ĠThese": 5090,
      "Hello": 5091,
      "Ġdat": 5092,
      "Ġsafe": 5093,
      "inder": 5094,
      "divid": 5095,
      "Many": 5096,
      "management": 5097,
      "ACT": 5098,
      "ĠTe": 5099,
      "Ġrunner": 5100,
      "Button": 5101,
      "Ġscipy": 5102,
      "Ġvector": 5103,
      "Collection": 5104,
      "lent": 5105,
      "IntegerField": 5106,
      "Ġversions": 5107,
      "NING": 5108,
      "Ġeditor": 5109,
      "_%": 5110,
      "gres": 5111,
      "else": 5112,
      "ube": 5113,
      "Ġresources": 5114,
      "HERE": 5115,
      "validation": 5116,
      "asure": 5117,
      "lots": 5118,
      "Ġbound": 5119,
      "Ġoccur": 5120,
      "assertIsInstance": 5121,
      "\"'": 5122,
      "absolute": 5123,
      "',)": 5124,
      "Header": 5125,
      ".\\": 5126,
      "console": 5127,
      "ĠAUTH": 5128,
      "aut": 5129,
      "editor": 5130,
      "Access": 5131,
      "DER": 5132,
      "mitted": 5133,
      "ava": 5134,
      "creen": 5135,
      "ĠBuild": 5136,
      "Provider": 5137,
      "VENT": 5138,
      "Ġsc": 5139,
      "player": 5140,
      "helpers": 5141,
      "arr": 5142,
      "internal": 5143,
      "vec": 5144,
      "expand": 5145,
      "Ġincluding": 5146,
      "_)": 5147,
      "Ġvisit": 5148,
      "tangible": 5149,
      "ĠĠĠĠĠĠĠĠĠĠĠĠĠĠĠĠĠĠĠĠĠĠĠĠĠĠĠĠĠĠĠĠĠĠĠĠĠĠĠĠĠĠĠ": 5150,
      "requen": 5151,
      "ĠTangible": 5152,
      "ĠMagicMock": 5153,
      "outer": 5154,
      "Settings": 5155,
      "statement": 5156,
      "CTION": 5157,
      "Ġmodify": 5158,
      "riend": 5159,
      "Ġitertools": 5160,
      "abstract": 5161,
      "utors": 5162,
      "Ġarch": 5163,
      "Param": 5164,
      "IME": 5165,
      "cision": 5166,
      "Ġok": 5167,
      "ked": 5168,
      "ĠRo": 5169,
      "allclose": 5170,
      "Ġ50": 5171,
      "cipient": 5172,
      "Core": 5173,
      "Ġyaml": 5174,
      "Api": 5175,
      "cording": 5176,
      "(\"\\": 5177,
      "Ġdistribution": 5178,
      "'%": 5179,
      "Ġextract": 5180,
      "uest": 5181,
      "Ġinsert": 5182,
      "Mapp": 5183,
      "Ġenviron": 5184,
      "Ġspecial": 5185,
      "Ġrepresentation": 5186,
      "Lib": 5187,
      "Helper": 5188,
      "orator": 5189,
      "paper": 5190,
      "Ġneutron": 5191,
      "openstack": 5192,
      "Ġchart": 5193,
      "revision": 5194,
      "wx": 5195,
      "Ġest": 5196,
      "ffect": 5197,
      "transaction": 5198,
      "game": 5199,
      "ĠMan": 5200,
      "hn": 5201,
      "andid": 5202,
      "manual": 5203,
      "ĠTable": 5204,
      "Ġsock": 5205,
      "ire": 5206,
      "ality": 5207,
      "COL": 5208,
      "39": 5209,
      "Ġagent": 5210,
      "Ġscen": 5211,
      "Ġsecret": 5212,
      "firm": 5213,
      "Ġwell": 5214,
      "='',": 5215,
      "beta": 5216,
      "Ġoptim": 5217,
      "></": 5218,
      "async": 5219,
      "Ġsources": 5220,
      "dst": 5221,
      "ulk": 5222,
      "Ġlayout": 5223,
      "em": 5224,
      "external": 5225,
      "ĠWork": 5226,
      "Ġclassi": 5227,
      "original": 5228,
      "=-": 5229,
      "Job": 5230,
      "cores": 5231,
      "ever": 5232,
      "Ġmeans": 5233,
      ")',": 5234,
      "Ġrules": 5235,
      "ines": 5236,
      "ĠTEST": 5237,
      "Exp": 5238,
      "Ġnoqa": 5239,
      "raps": 5240,
      "Ġbegin": 5241,
      "Ġnumbers": 5242,
      "ĠQuery": 5243,
      "mq": 5244,
      "ka": 5245,
      "ĠTask": 5246,
      "ĠMIT": 5247,
      "Ġfit": 5248,
      "Ġassign": 5249,
      "Ġloaded": 5250,
      "Project": 5251,
      "Encoder": 5252,
      "inc": 5253,
      "documents": 5254,
      "snapshot": 5255,
      "/\"": 5256,
      "Var": 5257,
      "Can": 5258,
      "uint": 5259,
      "FORMAT": 5260,
      "come": 5261,
      "Ġboolean": 5262,
      ")(": 5263,
      "2014": 5264,
      "OM": 5265,
      "bits": 5266,
      "generic": 5267,
      "dividual": 5268,
      "08": 5269,
      "Ġtransform": 5270,
      "ilar": 5271,
      "ev": 5272,
      "fies": 5273,
      "Ġaddr": 5274,
      "inputs": 5275,
      "Record": 5276,
      "Ġbox": 5277,
      "configure": 5278,
      "workflow": 5279,
      "lert": 5280,
      "fficient": 5281,
      "Ġimports": 5282,
      ">\"": 5283,
      "ĠWS": 5284,
      "Ġ42": 5285,
      "members": 5286,
      "blank": 5287,
      "INTER": 5288,
      "Ġvarious": 5289,
      "hq": 5290,
      "('_": 5291,
      "Ġmetric": 5292,
      "Ġsender": 5293,
      "Ġsets": 5294,
      "Ġdump": 5295,
      "Ġduring": 5296,
      "ĠNumber": 5297,
      "Ġknow": 5298,
      "sistent": 5299,
      "reason": 5300,
      "IF": 5301,
      "ategy": 5302,
      "NOT": 5303,
      "tifact": 5304,
      "\\'": 5305,
      "sender": 5306,
      "dr": 5307,
      "okies": 5308,
      "ĠRead": 5309,
      "vals": 5310,
      "////": 5311,
      "credentials": 5312,
      "deleted": 5313,
      "MAP": 5314,
      "Auto": 5315,
      "locale": 5316,
      "cred": 5317,
      "asy": 5318,
      "SELECT": 5319,
      "BASE": 5320,
      "hour": 5321,
      "Ġconditions": 5322,
      "repository": 5323,
      "constants": 5324,
      "utation": 5325,
      "]):": 5326,
      "avi": 5327,
      "otes": 5328,
      "inger": 5329,
      "Ġstill": 5330,
      "plain": 5331,
      "sn": 5332,
      "ĠFlask": 5333,
      "sian": 5334,
      "summary": 5335,
      "Work": 5336,
      "draw": 5337,
      "high": 5338,
      "framework": 5339,
      "Ġtermin": 5340,
      "Ġur": 5341,
      "Control": 5342,
      "veloper": 5343,
      "icon": 5344,
      "Ġbelow": 5345,
      "closed": 5346,
      "LOW": 5347,
      "Ġhttplib": 5348,
      "Ġpixel": 5349,
      "(('": 5350,
      "peat": 5351,
      "28": 5352,
      "Ġcurrently": 5353,
      "lang": 5354,
      "subprocess": 5355,
      "Ġ2011": 5356,
      "projects": 5357,
      "period": 5358,
      "scape": 5359,
      "rup": 5360,
      "center": 5361,
      "Ġcached": 5362,
      "Ġzero": 5363,
      "Ġserializer": 5364,
      "Ġthose": 5365,
      "TeX": 5366,
      "Ġfuture": 5367,
      "rift": 5368,
      "iso": 5369,
      "extract": 5370,
      "ĠPY": 5371,
      "ified": 5372,
      "Ġrevision": 5373,
      "merge": 5374,
      "]+)": 5375,
      "Ġproto": 5376,
      "gmail": 5377,
      "Ġ).": 5378,
      "sequence": 5379,
      "rays": 5380,
      "mbols": 5381,
      "Author": 5382,
      "Ġgrid": 5383,
      "Ġloader": 5384,
      "ART": 5385,
      "dns": 5386,
      "Ġfname": 5387,
      "ĠPost": 5388,
      "atibility": 5389,
      "Ġiterable": 5390,
      "Ġsomething": 5391,
      "oll": 5392,
      "Ġcloud": 5393,
      "ĠIOError": 5394,
      "ipping": 5395,
      "STATUS": 5396,
      "flavor": 5397,
      "uman": 5398,
      "angle": 5399,
      "iform": 5400,
      "sim": 5401,
      "Ġdisk": 5402,
      "ĠPre": 5403,
      "Ġslice": 5404,
      "Ġauthentication": 5405,
      "final": 5406,
      "Ġdispatch": 5407,
      "primary": 5408,
      "Sp": 5409,
      "boo": 5410,
      "RECT": 5411,
      "Ġalgorithm": 5412,
      "Ġactions": 5413,
      "ĠExamples": 5414,
      "Ġ------------------------------------------------": 5415,
      "Formatter": 5416,
      "arison": 5417,
      ".\",": 5418,
      "Ġmerge": 5419,
      "Ġyet": 5420,
      "fixtures": 5421,
      "([[": 5422,
      "PR": 5423,
      "]+": 5424,
      "ĠModule": 5425,
      "operator": 5426,
      "199": 5427,
      "Cho": 5428,
      "Ġdeleted": 5429,
      "Ġdeprecated": 5430,
      "ĠWeb": 5431,
      "Ġimple": 5432,
      "allback": 5433,
      "scriptor": 5434,
      "grade": 5435,
      "Ġinputs": 5436,
      "ategories": 5437,
      "Ġ\"\"\")": 5438,
      "failed": 5439,
      "vance": 5440,
      "ĠInteger": 5441,
      "Op": 5442,
      "Ġsublime": 5443,
      "dapter": 5444,
      "ders": 5445,
      "[:]": 5446,
      "Ġast": 5447,
      "ATAB": 5448,
      "ModelAdmin": 5449,
      "qs": 5450,
      "soft": 5451,
      "roid": 5452,
      "edges": 5453,
      "connected": 5454,
      "adding": 5455,
      "Ġdot": 5456,
      "uation": 5457,
      "Ġcharacters": 5458,
      "Sec": 5459,
      "pture": 5460,
      "rp": 5461,
      "ĠService": 5462,
      "Ġmedia": 5463,
      "Ġ[('": 5464,
      "Ġcorresponding": 5465,
      "DATE": 5466,
      "rm": 5467,
      "warnings": 5468,
      "Ġsupp": 5469,
      "layers": 5470,
      "sqrt": 5471,
      "Ġnotice": 5472,
      "SM": 5473,
      "__),": 5474,
      "PIPE": 5475,
      "ceiver": 5476,
      "Device": 5477,
      "ank": 5478,
      "ĠVER": 5479,
      "00000000": 5480,
      "CRET": 5481,
      "Ġdelta": 5482,
      "sid": 5483,
      "Parameter": 5484,
      "BUT": 5485,
      "Ġvm": 5486,
      "Initial": 5487,
      "Transport": 5488,
      "oid": 5489,
      "udio": 5490,
      "Ġtopic": 5491,
      "ĠLaTeX": 5492,
      "You": 5493,
      "Ġvalidation": 5494,
      "vector": 5495,
      "getvalue": 5496,
      "Ġdefine": 5497,
      "Ġperson": 5498,
      "ĠOutput": 5499,
      "tect": 5500,
      "Password": 5501,
      "export": 5502,
      "Ġautomatically": 5503,
      "Ġ13": 5504,
      "Ġ['_": 5505,
      "processing": 5506,
      "changes": 5507,
      "Ġsuccessful": 5508,
      "machine": 5509,
      "Jo": 5510,
      "So": 5511,
      "Ġpartic": 5512,
      "siz": 5513,
      "rappe": 5514,
      "OPY": 5515,
      "45": 5516,
      "Ġcv": 5517,
      "ĠCode": 5518,
      "Doc": 5519,
      "Ġconstants": 5520,
      "condition": 5521,
      "ĠCOPY": 5522,
      "ĠOther": 5523,
      "Ġwords": 5524,
      "such": 5525,
      "Ġstructure": 5526,
      "Builder": 5527,
      "multiple": 5528,
      "etc": 5529,
      "bob": 5530,
      "HEAD": 5531,
      ">',": 5532,
      "spi": 5533,
      "Ġfix": 5534,
      "Ġorg": 5535,
      "Container": 5536,
      "Ġtakes": 5537,
      "lon": 5538,
      "Ġzone": 5539,
      "ĠAS": 5540,
      "herit": 5541,
      "ĠConnection": 5542,
      "mas": 5543,
      "PES": 5544,
      "ĠOrderedDict": 5545,
      "IR": 5546,
      "Ġoslo": 5547,
      "Ġagainst": 5548,
      "formed": 5549,
      "Ġmaximum": 5550,
      "uplicate": 5551,
      "Layout": 5552,
      "span": 5553,
      "Ġscheduler": 5554,
      "Ġus": 5555,
      "Ġrepresenting": 5556,
      "gative": 5557,
      "Ġconstraint": 5558,
      "Ġworksheet": 5559,
      "Ġhashlib": 5560,
      "07": 5561,
      "Ġdocs": 5562,
      "ĠNe": 5563,
      "('/')": 5564,
      "MD": 5565,
      "NUM": 5566,
      "poly": 5567,
      "ĠCa": 5568,
      "pn": 5569,
      "sparse": 5570,
      "}'": 5571,
      "ĠCre": 5572,
      "Deferred": 5573,
      "leting": 5574,
      "Ġcounter": 5575,
      "Location": 5576,
      "mediate": 5577,
      "Ġscore": 5578,
      "Ġenabled": 5579,
      "lists": 5580,
      "izes": 5581,
      "Ġ?": 5582,
      "Ġpl": 5583,
      "sired": 5584,
      "Ġfunctools": 5585,
      "ĠAR": 5586,
      "enable": 5587,
      "decorators": 5588,
      "Ġlocale": 5589,
      "ĠFunction": 5590,
      "DES": 5591,
      "Ġdefinition": 5592,
      "logs": 5593,
      "Exit": 5594,
      "uate": 5595,
      "Ġicon": 5596,
      "Received": 5597,
      "amount": 5598,
      "Ġrec": 5599,
      "Ġbehavior": 5600,
      "Ġ')": 5601,
      "Ġsym": 5602,
      "Ġmatplotlib": 5603,
      "Fake": 5604,
      "Ġdistutils": 5605,
      "Feed": 5606,
      "Ġcsv": 5607,
      "rozen": 5608,
      "clar": 5609,
      "Ġmatching": 5610,
      "alg": 5611,
      "wiki": 5612,
      "Ġsecurity": 5613,
      "selected": 5614,
      "Ġallows": 5615,
      "Ġblob": 5616,
      "Ġnecessary": 5617,
      "arange": 5618,
      "Ġtran": 5619,
      "Ġdestination": 5620,
      "Ġfill": 5621,
      "recv": 5622,
      "road": 5623,
      "ICE": 5624,
      "many": 5625,
      "targets": 5626,
      "Ġseries": 5627,
      "Cal": 5628,
      "hone": 5629,
      "Ġids": 5630,
      "Ġpush": 5631,
      "ĠXXX": 5632,
      "Ġindependent": 5633,
      "Ġlower": 5634,
      "REQUEST": 5635,
      "Ġpandas": 5636,
      "ĠFa": 5637,
      "Ġtoday": 5638,
      "gits": 5639,
      "enu": 5640,
      "contact": 5641,
      "ĠView": 5642,
      "Ġdummy": 5643,
      "MAIL": 5644,
      "__))": 5645,
      "timer": 5646,
      "inary": 5647,
      "Ġrequested": 5648,
      "mapper": 5649,
      "Ġfilenames": 5650,
      "__(*": 5651,
      "Policy": 5652,
      "gration": 5653,
      "Ġ14": 5654,
      "quick": 5655,
      "orizon": 5656,
      "AA": 5657,
      "ARY": 5658,
      "sym": 5659,
      "tils": 5660,
      "roles": 5661,
      "Ġdraw": 5662,
      "complex": 5663,
      "tend": 5664,
      "ĠDocumentation": 5665,
      "colors": 5666,
      "strings": 5667,
      "Ġleast": 5668,
      "Ġrecur": 5669,
      "Ġdescri": 5670,
      "resolve": 5671,
      "Ġconsole": 5672,
      "ĠLoad": 5673,
      "mu": 5674,
      "Ġ[-": 5675,
      "Ġlater": 5676,
      "ducer": 5677,
      "Listener": 5678,
      "utdown": 5679,
      "59": 5680,
      "depth": 5681,
      "ĠĠĠĠĠĠĠĠĠĠĠĠĠĠĠĠĠĠĠĠĠĠĠĠĠĠĠĠĠĠĠĠĠĠĠĠĠĠĠĠĠĠ": 5682,
      "MIT": 5683,
      "tries": 5684,
      "Sup": 5685,
      "Ġmight": 5686,
      "cipe": 5687,
      "atom": 5688,
      "Ġmove": 5689,
      "ips": 5690,
      "Reader": 5691,
      ":-": 5692,
      "Temp": 5693,
      "Ġimplemented": 5694,
      "wall": 5695,
      "pipeline": 5696,
      "ptr": 5697,
      "Ġpypy": 5698,
      "76": 5699,
      "Ġedge": 5700,
      "timezone": 5701,
      "31": 5702,
      "world": 5703,
      ")],": 5704,
      "Ġisn": 5705,
      "mble": 5706,
      "Ġpid": 5707,
      "ĠNetwork": 5708,
      "ota": 5709,
      "astype": 5710,
      "Ġrendered": 5711,
      "500": 5712,
      "Ġscheme": 5713,
      "COMM": 5714,
      "Extension": 5715,
      "rive": 5716,
      "mous": 5717,
      "ĠSy": 5718,
      "OUR": 5719,
      "duration": 5720,
      "Ġindividual": 5721,
      "asset": 5722,
      "pred": 5723,
      "wri": 5724,
      "Ġprop": 5725,
      "teractive": 5726,
      "jor": 5727,
      "bosity": 5728,
      "fun": 5729,
      "parsed": 5730,
      "Ġbits": 5731,
      "person": 5732,
      "Ġlists": 5733,
      "Ġmem": 5734,
      "Ġprev": 5735,
      "Ġorigin": 5736,
      "Handle": 5737,
      "cancel": 5738,
      "tick": 5739,
      "Ġmaps": 5740,
      "FIL": 5741,
      "=\"\"": 5742,
      "Ġ'#": 5743,
      "Script": 5744,
      "parameter": 5745,
      "USE": 5746,
      "epcopy": 5747,
      "Ġbest": 5748,
      "ĠFoundation": 5749,
      "ĠLine": 5750,
      "Ġrel": 5751,
      "analy": 5752,
      "Ġpr": 5753,
      "Ġwrapped": 5754,
      "Style": 5755,
      "Ġcs": 5756,
      "letter": 5757,
      "Ġcontroller": 5758,
      "rency": 5759,
      "subnet": 5760,
      "allowed": 5761,
      "addCallback": 5762,
      "Programming": 5763,
      "ragment": 5764,
      "lies": 5765,
      "MAIN": 5766,
      "Ġimplements": 5767,
      "cce": 5768,
      "ically": 5769,
      "steps": 5770,
      "Ġsignature": 5771,
      "Ġev": 5772,
      "ĠImp": 5773,
      "vely": 5774,
      "execution": 5775,
      "Mon": 5776,
      "Ġamount": 5777,
      "Ġavoid": 5778,
      "dashboard": 5779,
      "ĠGe": 5780,
      "Ġexecution": 5781,
      "tended": 5782,
      "nail": 5783,
      "400": 5784,
      "GB": 5785,
      "Ġlin": 5786,
      "Rule": 5787,
      "BACK": 5788,
      "Flow": 5789,
      "more": 5790,
      "backup": 5791,
      "counts": 5792,
      "fixed": 5793,
      "Ġcomponents": 5794,
      "cost": 5795,
      "Email": 5796,
      "Ġyear": 5797,
      "Ġprivate": 5798,
      "ĠWSGI": 5799,
      "elem": 5800,
      "Ġpi": 5801,
      "Ġwarning": 5802,
      "Ġassume": 5803,
      "sqlite": 5804,
      "assign": 5805,
      "Ġregistered": 5806,
      "Ġday": 5807,
      "ĠMulti": 5808,
      "Ġdecimal": 5809,
      "aste": 5810,
      "Ġtimezone": 5811,
      "2013": 5812,
      "etri": 5813,
      "Ġperiod": 5814,
      "2016": 5815,
      "Ġexplicit": 5816,
      "ialog": 5817,
      "expression": 5818,
      "IE": 5819,
      "Lock": 5820,
      "{{": 5821,
      "amera": 5822,
      "Ġcoordin": 5823,
      "structure": 5824,
      "Ġcalling": 5825,
      "__['": 5826,
      "GER": 5827,
      "Ġkernel": 5828,
      "MES": 5829,
      "pus": 5830,
      "Ġnullable": 5831,
      "Ġns": 5832,
      "Ġhome": 5833,
      "constraint": 5834,
      "Ġconnections": 5835,
      "Web": 5836,
      "chart": 5837,
      "Ġcookie": 5838,
      "Ġmetrics": 5839,
      "Ġ25": 5840,
      "Ġplan": 5841,
      "Ġactually": 5842,
      "ĠAdditional": 5843,
      "Ġexact": 5844,
      "live": 5845,
      "dicate": 5846,
      "ĠOTHER": 5847,
      "90": 5848,
      "_):": 5849,
      "Ġconsumer": 5850,
      "codes": 5851,
      "Ġhostname": 5852,
      "scripts": 5853,
      "begin": 5854,
      "Ġplay": 5855,
      "listener": 5856,
      "Ġstuff": 5857,
      "Ġrouter": 5858,
      "Ġwriter": 5859,
      "tit": 5860,
      "/(?": 5861,
      ",),": 5862,
      "ĠCal": 5863,
      "Ġmime": 5864,
      "amma": 5865,
      "Ġbasestring": 5866,
      "Ġtx": 5867,
      "ighb": 5868,
      "Ġlarge": 5869,
      "Import": 5870,
      "Ġmade": 5871,
      ":])": 5872,
      "ele": 5873,
      "operation": 5874,
      "signature": 5875,
      "Database": 5876,
      "equals": 5877,
      "tile": 5878,
      "Dictionary": 5879,
      "radi": 5880,
      "Pick": 5881,
      "records": 5882,
      "covery": 5883,
      "Ġpair": 5884,
      "DIS": 5885,
      "compatible": 5886,
      "5678": 5887,
      "Ġcross": 5888,
      "rees": 5889,
      "poll": 5890,
      "Ġmonth": 5891,
      "Ġitself": 5892,
      "accept": 5893,
      "Ġentities": 5894,
      "Ġlow": 5895,
      "alth": 5896,
      "Ġdid": 5897,
      "Ġhistory": 5898,
      "forum": 5899,
      "reshape": 5900,
      "ORE": 5901,
      "itions": 5902,
      "Ġcat": 5903,
      "Ġrdf": 5904,
      "serializer": 5905,
      "screen": 5906,
      "Ġclick": 5907,
      "Ġidentity": 5908,
      "ĠSome": 5909,
      "prepare": 5910,
      "refs": 5911,
      "Ġmodified": 5912,
      "hi": 5913,
      "ouse": 5914,
      "Ġ''.": 5915,
      "geo": 5916,
      "Generate": 5917,
      "logy": 5918,
      "requency": 5919,
      "URI": 5920,
      "Ġ2010": 5921,
      "fire": 5922,
      "px": 5923,
      "ĠArgument": 5924,
      "without": 5925,
      "AndReturn": 5926,
      "ĠHow": 5927,
      "ĠValidationError": 5928,
      "migrations": 5929,
      "pet": 5930,
      "monitor": 5931,
      "Ġattach": 5932,
      "runtime": 5933,
      "Ġannot": 5934,
      "grad": 5935,
      "ĠPAR": 5936,
      "cleaned": 5937,
      "Ġ<<": 5938,
      "tected": 5939,
      "PASS": 5940,
      "Ġindices": 5941,
      "ĠOne": 5942,
      "Ġpartial": 5943,
      "Ġtransport": 5944,
      "gz": 5945,
      "lopen": 5946,
      "ĠSH": 5947,
      "calar": 5948,
      "aging": 5949,
      "ĠInstance": 5950,
      "Channel": 5951,
      "authors": 5952,
      "ays": 5953,
      "Ġvim": 5954,
      "GHT": 5955,
      "Ġnorm": 5956,
      "Ġlon": 5957,
      "/<": 5958,
      "blog": 5959,
      "green": 5960,
      "alloc": 5961,
      "Write": 5962,
      "rable": 5963,
      "igrate": 5964,
      "Ġretry": 5965,
      "[^": 5966,
      "nect": 5967,
      "ulated": 5968,
      "Sequence": 5969,
      "chan": 5970,
      "FIEL": 5971,
      "ĠĠĊ": 5972,
      "ĠPermission": 5973,
      "break": 5974,
      "rea": 5975,
      "ĠQueue": 5976,
      "Ġtornado": 5977,
      "UNT": 5978,
      "ĠOnly": 5979,
      "Url": 5980,
      "STRING": 5981,
      "resolvers": 5982,
      "omial": 5983,
      "Ġurls": 5984,
      "TYPES": 5985,
      "sitions": 5986,
      "ĠNOTE": 5987,
      "Ġhandlers": 5988,
      "Ġ\"_": 5989,
      "latest": 5990,
      "++": 5991,
      "uit": 5992,
      "ĠFe": 5993,
      "lyph": 5994,
      "gation": 5995,
      "bile": 5996,
      "big": 5997,
      "Ġrecords": 5998,
      "Ġknown": 5999,
      "Ġregistry": 6000,
      "ĠDEBUG": 6001,
      "Ġwritten": 6002,
      "Timeout": 6003,
      "Ġroute": 6004,
      "89": 6005,
      "Ġweight": 6006,
      "Ġ}}": 6007,
      "Ġgood": 6008,
      "mc": 6009,
      "twisted": 6010,
      "reater": 6011,
      "Ġsupports": 6012,
      "Row": 6013,
      "*.": 6014,
      "subscription": 6015,
      "maining": 6016,
      "Ġaround": 6017,
      "Ġwatch": 6018,
      "Engine": 6019,
      "Local": 6020,
      "Role": 6021,
      "mysql": 6022,
      "Wor": 6023,
      "Ġanaly": 6024,
      "tifications": 6025,
      "Ġcla": 6026,
      "origin": 6027,
      "vides": 6028,
      "lencode": 6029,
      "arb": 6030,
      "Ġpipeline": 6031,
      "_:": 6032,
      "Imp": 6033,
      "distance": 6034,
      "logo": 6035,
      "CI": 6036,
      "Ġ=================================": 6037,
      "Reference": 6038,
      "SIG": 6039,
      "OB": 6040,
      "Ġteam": 6041,
      "Ġappe": 6042,
      "iling": 6043,
      "ĠVERSION": 6044,
      "dl": 6045,
      "Tool": 6046,
      "enerated": 6047,
      "Generator": 6048,
      "Ġelem": 6049,
      ">`": 6050,
      "Ġauthentic": 6051,
      "sources": 6052,
      "city": 6053,
      "ket": 6054,
      "SERVER": 6055,
      "Types": 6056,
      "Ġsleep": 6057,
      "Ġsymbol": 6058,
      "Configuration": 6059,
      "ĠIs": 6060,
      "Ġworking": 6061,
      "unpack": 6062,
      "umbnail": 6063,
      "CLASS": 6064,
      "uess": 6065,
      "Ġcreating": 6066,
      "Ġ###############################################################################": 6067,
      "reactor": 6068,
      "ivar": 6069,
      "49": 6070,
      "gp": 6071,
      "Ġcoun": 6072,
      "archive": 6073,
      "ĠLe": 6074,
      ":',": 6075,
      "ĠMatrix": 6076,
      "trigger": 6077,
      "linear": 6078,
      "based": 6079,
      "tistics": 6080,
      "dc": 6081,
      "Ġpur": 6082,
      "Ġ19": 6083,
      "Ġoverwrite": 6084,
      "agraph": 6085,
      "1111": 6086,
      "Ġcorrectly": 6087,
      "nx": 6088,
      "Ġabstract": 6089,
      "servation": 6090,
      "hidden": 6091,
      "separ": 6092,
      "Regex": 6093,
      "price": 6094,
      "Ġ()": 6095,
      "ĠĠĠĠĠĠĠĠĠĠĠĠĠĠĠĠĠĠĠĠĠĠĠĠĠĠĠĠĠĠĠĠĠĠĠĠĠĠĠĠĠĠĠĠ": 6096,
      "Ġbackwards": 6097,
      "Ġdrop": 6098,
      "APP": 6099,
      "ĠNew": 6100,
      "fc": 6101,
      "inte": 6102,
      "Files": 6103,
      "variables": 6104,
      "bra": 6105,
      "jax": 6106,
      "ĠOSError": 6107,
      "AGS": 6108,
      "PREFIX": 6109,
      "ĠNS": 6110,
      "ardown": 6111,
      "Socket": 6112,
      "eded": 6113,
      "ĠClass": 6114,
      "lict": 6115,
      "ĠAD": 6116,
      "same": 6117,
      "Ġtz": 6118,
      "stdin": 6119,
      "isdir": 6120,
      "ĠSpeci": 6121,
      "Ġupdates": 6122,
      "Ġservices": 6123,
      "Package": 6124,
      "Ġds": 6125,
      "ĠSession": 6126,
      "SV": 6127,
      "âĶ": 6128,
      "DIA": 6129,
      ")')": 6130,
      "double": 6131,
      "mime": 6132,
      "Ġfinished": 6133,
      "follow": 6134,
      "CRI": 6135,
      "processors": 6136,
      "ĠAdding": 6137,
      "Ġaff": 6138,
      "Ġdev": 6139,
      "dependency": 6140,
      "Ġinitialize": 6141,
      "Ġsamples": 6142,
      "Ġderi": 6143,
      "ĠGraph": 6144,
      "lsx": 6145,
      "dx": 6146,
      "Ġcondition": 6147,
      "Ġproblem": 6148,
      "Ġconstructor": 6149,
      "ĠRaises": 6150,
      "85": 6151,
      "Ġep": 6152,
      "reply": 6153,
      "timedelta": 6154,
      "Ġsaved": 6155,
      "isfile": 6156,
      "lave": 6157,
      "Unknown": 6158,
      "executable": 6159,
      "ĠSup": 6160,
      "Ġcopied": 6161,
      "Ġdistance": 6162,
      "Ġurlpatterns": 6163,
      "Ġencoded": 6164,
      "Fi": 6165,
      "ral": 6166,
      "quiva": 6167,
      "CA": 6168,
      "ĠItem": 6169,
      "ĠURI": 6170,
      "freq": 6171,
      "conv": 6172,
      "olved": 6173,
      "Ġcharacter": 6174,
      "')))": 6175,
      "ginator": 6176,
      "seek": 6177,
      "TINGS": 6178,
      "VID": 6179,
      "browser": 6180,
      "ĠOAuth": 6181,
      "Ġmapper": 6182,
      "Ġsyntax": 6183,
      "Ġswitch": 6184,
      "')[": 6185,
      "atar": 6186,
      "tract": 6187,
      "Ġopenstack": 6188,
      "ĠProcess": 6189,
      "dimen": 6190,
      "Could": 6191,
      "Ġbottom": 6192,
      "ets": 6193,
      "scan": 6194,
      "Ġssl": 6195,
      "ĠPath": 6196,
      "interfaces": 6197,
      "Loop": 6198,
      "Ġlineno": 6199,
      "Ġsimp": 6200,
      "kes": 6201,
      "scalar": 6202,
      "lick": 6203,
      "urity": 6204,
      "Float": 6205,
      "Some": 6206,
      "rac": 6207,
      "ĠBad": 6208,
      "hy": 6209,
      "limiter": 6210,
      "DELETE": 6211,
      "Position": 6212,
      "ancer": 6213,
      "ĠInter": 6214,
      "ĠQtGui": 6215,
      "Metadata": 6216,
      "Dialog": 6217,
      "inv": 6218,
      "ised": 6219,
      "cap": 6220,
      "CODE": 6221,
      "pdf": 6222,
      "ĠPOST": 6223,
      "Ġstates": 6224,
      "TRIBUT": 6225,
      "Ġsess": 6226,
      "gy": 6227,
      "partial": 6228,
      "ris": 6229,
      "channels": 6230,
      "gu": 6231,
      "Ġ#'": 6232,
      "Copy": 6233,
      "\"\")": 6234,
      "ĠPublic": 6235,
      "responses": 6236,
      "ĠProtocol": 6237,
      "itespace": 6238,
      "ĠCLI": 6239,
      "ĠOper": 6240,
      "Ġsklearn": 6241,
      "got": 6242,
      "dictions": 6243,
      "ought": 6244,
      "Over": 6245,
      "Inline": 6246,
      "functions": 6247,
      "aff": 6248,
      "Ġplugins": 6249,
      "onymous": 6250,
      "PACE": 6251,
      "Ġatom": 6252,
      "ĠAdmin": 6253,
      "ffset": 6254,
      "Ġ1024": 6255,
      "Only": 6256,
      "Ġnx": 6257,
      "ints": 6258,
      "effs": 6259,
      "Ġrate": 6260,
      "Ġpairs": 6261,
      "submit": 6262,
      "Ġclosed": 6263,
      "classi": 6264,
      "Ġresolve": 6265,
      "ENTI": 6266,
      "Basic": 6267,
      "ensure": 6268,
      "UI": 6269,
      "Min": 6270,
      "validator": 6271,
      "Configured": 6272,
      "bum": 6273,
      "inner": 6274,
      "Ali": 6275,
      "Defin": 6276,
      "ability": 6277,
      "collector": 6278,
      "Ġll": 6279,
      "ĠAnd": 6280,
      "Ġterm": 6281,
      "clone": 6282,
      "pickle": 6283,
      "serted": 6284,
      "Last": 6285,
      "ĠTE": 6286,
      "Agent": 6287,
      "Ġlatex": 6288,
      "Ġnested": 6289,
      "Ġinside": 6290,
      "copi": 6291,
      "Ġms": 6292,
      "ulator": 6293,
      "001": 6294,
      "Ġboto": 6295,
      "Member": 6296,
      "TEXT": 6297,
      "Ġactiv": 6298,
      "Ġtrigger": 6299,
      "âĶĢ": 6300,
      "LOAD": 6301,
      "precation": 6302,
      "sin": 6303,
      "rypto": 6304,
      "Ġstrip": 6305,
      "Ġsn": 6306,
      "cus": 6307,
      "128": 6308,
      "Ġones": 6309,
      "Permission": 6310,
      "Ġreferences": 6311,
      "paces": 6312,
      "'d": 6313,
      "FT": 6314,
      "Max": 6315,
      "raries": 6316,
      "ACHE": 6317,
      "ĠCur": 6318,
      "ĠĠĠĠĠĠĠĠĠĠĠĠĠĠĠĠĠĠĠĠĠĠĠĠĠĠĠĠĠĠĠĠĠĠĠĠĠĠĠĠĠĠĠĠĠ": 6319,
      "Ġgame": 6320,
      "Ġfmt": 6321,
      "Ġtyp": 6322,
      "\\.": 6323,
      "Ġfails": 6324,
      "echo": 6325,
      "ICES": 6326,
      "Editor": 6327,
      "Ġplayer": 6328,
      "('<": 6329,
      "ĠFoo": 6330,
      "CESS": 6331,
      "ĠSchema": 6332,
      "keyword": 6333,
      "strict": 6334,
      "Ġiterator": 6335,
      "gon": 6336,
      "mongo": 6337,
      "Series": 6338,
      "Ġden": 6339,
      "ONG": 6340,
      "ipv": 6341,
      "deli": 6342,
      "riteri": 6343,
      "ĠPage": 6344,
      "tran": 6345,
      "Ġ24": 6346,
      "Inst": 6347,
      "Choice": 6348,
      "fr": 6349,
      "ĠParse": 6350,
      "symbol": 6351,
      "============": 6352,
      "specs": 6353,
      "Order": 6354,
      "Ġcert": 6355,
      "sessions": 6356,
      "Ġworkflow": 6357,
      "Extra": 6358,
      "Ġhappen": 6359,
      "ĠWHERE": 6360,
      "Ġnothing": 6361,
      "nb": 6362,
      "________": 6363,
      "Clean": 6364,
      "(\"-": 6365,
      "}/": 6366,
      "Ġchecks": 6367,
      "COMP": 6368,
      "Ġcorehq": 6369,
      "assertNotEqual": 6370,
      "signals": 6371,
      "bundle": 6372,
      "ln": 6373,
      "ateway": 6374,
      "priority": 6375,
      "ĠChange": 6376,
      "ĠCl": 6377,
      "proj": 6378,
      "ned": 6379,
      "compress": 6380,
      "Ġfactor": 6381,
      "('.')": 6382,
      "Collector": 6383,
      "deg": 6384,
      "Ġcompare": 6385,
      "klass": 6386,
      "ValidationError": 6387,
      "tt": 6388,
      "setter": 6389,
      "Ġapps": 6390,
      "syntax": 6391,
      "visor": 6392,
      "quivalent": 6393,
      "Ġunknown": 6394,
      "units": 6395,
      "{%": 6396,
      "Ġredis": 6397,
      "AST": 6398,
      "RIGHT": 6399,
      "Ġcreation": 6400,
      "79": 6401,
      "Ġscan": 6402,
      "Ġordering": 6403,
      "roadcast": 6404,
      "odoc": 6405,
      "ĠCan": 6406,
      "Ġpygments": 6407,
      "existing": 6408,
      "Ġweights": 6409,
      "xs": 6410,
      "âĶĢâĶĢ": 6411,
      "Ġround": 6412,
      "ĠGeneric": 6413,
      "ef": 6414,
      "RPC": 6415,
      "yes": 6416,
      "segment": 6417,
      "ĠRemove": 6418,
      "NAMES": 6419,
      "urllib": 6420,
      "prev": 6421,
      "Ġtrait": 6422,
      "nested": 6423,
      "visible": 6424,
      "progress": 6425,
      "lying": 6426,
      "Ġ(-": 6427,
      "ĠGET": 6428,
      "Ġ404": 6429,
      "Ġlistener": 6430,
      "Ġresponses": 6431,
      "duction": 6432,
      "Site": 6433,
      "semble": 6434,
      "ĠValue": 6435,
      "DIRECT": 6436,
      "IGN": 6437,
      "Ġcb": 6438,
      "ĠMAX": 6439,
      "Ġproc": 6440,
      "OCK": 6441,
      "aemon": 6442,
      "subscribe": 6443,
      ">')": 6444,
      "readline": 6445,
      "VALID": 6446,
      "Cloud": 6447,
      "Ġspe": 6448,
      "collect": 6449,
      "Unit": 6450,
      "jar": 6451,
      "how": 6452,
      "Ġoutputs": 6453,
      "CLUD": 6454,
      "PTION": 6455,
      "ĠMGL": 6456,
      "Comple": 6457,
      "amble": 6458,
      ":\"": 6459,
      "=[\"": 6460,
      "rou": 6461,
      "roperly": 6462,
      "Ġcause": 6463,
      "({\"": 6464,
      "Ġgeneric": 6465,
      "Ġrot": 6466,
      "prob": 6467,
      ")}": 6468,
      "filepath": 6469,
      "Ġunits": 6470,
      "weights": 6471,
      "accounts": 6472,
      "(',": 6473,
      "tmpdir": 6474,
      "Description": 6475,
      "LOCK": 6476,
      "recur": 6477,
      "enti": 6478,
      "Ġseed": 6479,
      "iler": 6480,
      "Ġdelay": 6481,
      "Ġdefaultdict": 6482,
      "cepted": 6483,
      "ĠInitialize": 6484,
      "lier": 6485,
      "pay": 6486,
      "pends": 6487,
      "Obj": 6488,
      "dn": 6489,
      "notify": 6490,
      "adap": 6491,
      "vide": 6492,
      "Ġcolors": 6493,
      "texinfo": 6494,
      "Ġconstruct": 6495,
      "foobar": 6496,
      "receive": 6497,
      "Ġargv": 6498,
      "Ġstarting": 6499,
      "ATIC": 6500,
      "Ġsegment": 6501,
      "threads": 6502,
      "vers": 6503,
      "ĠShould": 6504,
      "previous": 6505,
      "Ġxs": 6506,
      "networks": 6507,
      "week": 6508,
      "VALUE": 6509,
      "ĠContext": 6510,
      "DULE": 6511,
      "optim": 6512,
      ")\\": 6513,
      "Used": 6514,
      "Lookup": 6515,
      "Root": 6516,
      "Ġjobs": 6517,
      "align": 6518,
      "Ġ{%": 6519,
      "orph": 6520,
      "~~~~~~~~~~~~~~~~": 6521,
      "Hash": 6522,
      "Ġ${": 6523,
      "ĠLocal": 6524,
      "customer": 6525,
      "disable": 6526,
      "dependencies": 6527,
      "Ġescape": 6528,
      "strftime": 6529,
      "DateTimeField": 6530,
      "=('": 6531,
      "matches": 6532,
      "ocial": 6533,
      "ros": 6534,
      "except": 6535,
      "definition": 6536,
      "sertionError": 6537,
      "ĠComment": 6538,
      "addresses": 6539,
      "LIST": 6540,
      "FC": 6541,
      "quare": 6542,
      "Ġ255": 6543,
      "oked": 6544,
      "Ġdash": 6545,
      "compare": 6546,
      "pairs": 6547,
      "vicon": 6548,
      "ĠAction": 6549,
      "000000": 6550,
      "'ll": 6551,
      "Ġboot": 6552,
      "Ġerrno": 6553,
      "Ġ[{'": 6554,
      "Ġpriority": 6555,
      "TEMPLATE": 6556,
      "ĠOver": 6557,
      "Ġalong": 6558,
      "CannotContain": 6559,
      "ĠindependentData": 6560,
      "ĠStatus": 6561,
      "Ġpoly": 6562,
      "Ġhref": 6563,
      "ĠFIT": 6564,
      "fast": 6565,
      "Ġretrieve": 6566,
      "Ġframework": 6567,
      "Ġregular": 6568,
      "oring": 6569,
      "listdir": 6570,
      "Ġvideo": 6571,
      "href": 6572,
      "tices": 6573,
      "ĠOUT": 6574,
      "blocks": 6575,
      "Sum": 6576,
      "Ġcomments": 6577,
      "TF": 6578,
      "cum": 6579,
      "Ġsphinx": 6580,
      "Fields": 6581,
      "Ġtenant": 6582,
      "Ġparsing": 6583,
      "ĠAny": 6584,
      "Names": 6585,
      "floating": 6586,
      "actual": 6587,
      "\"/": 6588,
      "gi": 6589,
      "rant": 6590,
      "scheduler": 6591,
      "Ġdesired": 6592,
      "csrf": 6593,
      "Entity": 6594,
      "Feature": 6595,
      "\"\\": 6596,
      "Tab": 6597,
      "jam": 6598,
      "ĠAlso": 6599,
      "Ġprogress": 6600,
      "Ġ2016": 6601,
      "ĠStart": 6602,
      "WR": 6603,
      "SU": 6604,
      "Directory": 6605,
      "wap": 6606,
      "traceback": 6607,
      "Ġemit": 6608,
      "antity": 6609,
      "shift": 6610,
      "predict": 6611,
      "Red": 6612,
      "room": 6613,
      "Ġbrowser": 6614,
      "assertIsNone": 6615,
      "+'": 6616,
      "Ġclone": 6617,
      "ĠDatabase": 6618,
      "ably": 6619,
      "Ġste": 6620,
      "Ġparticular": 6621,
      "ĠMark": 6622,
      "Ġfixed": 6623,
      "olds": 6624,
      "Ġschedule": 6625,
      "ĠComm": 6626,
      "Ġinner": 6627,
      "modi": 6628,
      "ĠEd": 6629,
      "Ġstrftime": 6630,
      "neutron": 6631,
      "ierarch": 6632,
      "Mark": 6633,
      "selection": 6634,
      "configs": 6635,
      "#####": 6636,
      "aws": 6637,
      "Ġnotification": 6638,
      "INST": 6639,
      "aller": 6640,
      "Ġnd": 6641,
      "('',": 6642,
      "activate": 6643,
      "Ġ'[": 6644,
      "2012": 6645,
      "binding": 6646,
      "rd": 6647,
      "Ne": 6648,
      "ĠStr": 6649,
      "Edit": 6650,
      "Volume": 6651,
      "hist": 6652,
      "threshold": 6653,
      "thought": 6654,
      "callable": 6655,
      "ĠToken": 6656,
      "gle": 6657,
      "wt": 6658,
      "typ": 6659,
      "IST": 6660,
      "Repo": 6661,
      "CLUDING": 6662,
      "Custom": 6663,
      "ni": 6664,
      "Stub": 6665,
      "ridge": 6666,
      "ĠJo": 6667,
      "Random": 6668,
      "ĠUnicode": 6669,
      "Iter": 6670,
      "dep": 6671,
      "exe": 6672,
      "ĠGit": 6673,
      "roperlyConfigured": 6674,
      "Parent": 6675,
      "itle": 6676,
      "ĠPa": 6677,
      "phone": 6678,
      "pad": 6679,
      "video": 6680,
      "Ġ18": 6681,
      "family": 6682,
      "Abstract": 6683,
      "frames": 6684,
      "TextField": 6685,
      "Make": 6686,
      "globals": 6687,
      "Report": 6688,
      "MAG": 6689,
      "cleanup": 6690,
      "APPS": 6691,
      "LD": 6692,
      "titude": 6693,
      "king": 6694,
      "Ġklass": 6695,
      "OKEN": 6696,
      "Ġturn": 6697,
      "Endpoint": 6698,
      "2000": 6699,
      "Ġduration": 6700,
      "Ġcontributors": 6701,
      "Ġblocks": 6702,
      "\"%": 6703,
      "article": 6704,
      "Ġtm": 6705,
      "ĠFloat": 6706,
      "tence": 6707,
      "ADDR": 6708,
      "mtree": 6709,
      "ĠVerify": 6710,
      "CLI": 6711,
      "connections": 6712,
      "aving": 6713,
      "ĠEach": 6714,
      "Ġthings": 6715,
      "coming": 6716,
      "hooks": 6717,
      "java": 6718,
      "normalize": 6719,
      "VICE": 6720,
      "Ġ----------------": 6721,
      "Ġmk": 6722,
      "tics": 6723,
      "Ġbackup": 6724,
      "CR": 6725,
      "imate": 6726,
      "Ġconfigure": 6727,
      "Ġthreads": 6728,
      "UST": 6729,
      "cid": 6730,
      "acl": 6731,
      "mentation": 6732,
      "ĠĠĠĠĠĠĠĠĠĠĠĠĊ": 6733,
      "')])": 6734,
      "Ġtranslation": 6735,
      "dims": 6736,
      "draft": 6737,
      "demo": 6738,
      "alf": 6739,
      "mobile": 6740,
      "Ġhosts": 6741,
      "deployment": 6742,
      "onical": 6743,
      "Ġmis": 6744,
      "ĠPack": 6745,
      "forward": 6746,
      "Ġseen": 6747,
      "Ġcompatibility": 6748,
      "bilities": 6749,
      "Ġsync": 6750,
      "Django": 6751,
      "impl": 6752,
      "partition": 6753,
      "Ġcomplex": 6754,
      "andidate": 6755,
      "ĠCONF": 6756,
      "rupt": 6757,
      "sentry": 6758,
      "Ġdetermine": 6759,
      "->": 6760,
      "300": 6761,
      "Ġsec": 6762,
      "Ġautog": 6763,
      "Ġstarted": 6764,
      "Ġlogs": 6765,
      "sentinel": 6766,
      "IZ": 6767,
      "TOKEN": 6768,
      "ĠStop": 6769,
      "ective": 6770,
      "destroy": 6771,
      "ANCE": 6772,
      "ĠSSL": 6773,
      "Ġreader": 6774,
      "ĠDelete": 6775,
      "osite": 6776,
      "Ġvis": 6777,
      "ĠTag": 6778,
      "Domain": 6779,
      "ĠApplication": 6780,
      "loss": 6781,
      "Ġ400": 6782,
      "crete": 6783,
      "DOMAIN": 6784,
      "}\\": 6785,
      "boolean": 6786,
      "formatter": 6787,
      "NESS": 6788,
      "ERCH": 6789,
      "notification": 6790,
      "Ġarr": 6791,
      "outputs": 6792,
      "Person": 6793,
      "65": 6794,
      "erge": 6795,
      "Ġradi": 6796,
      "Ġrecent": 6797,
      "presen": 6798,
      "METHO": 6799,
      "ĠTry": 6800,
      "epoch": 6801,
      "ĠUsage": 6802,
      "Ġansw": 6803,
      "SECRET": 6804,
      "Ġexamples": 6805,
      "BooleanField": 6806,
      ":\",": 6807,
      "jac": 6808,
      "ALLED": 6809,
      "examples": 6810,
      "Ġserialize": 6811,
      "ERCHANT": 6812,
      "ROUP": 6813,
      "Ġdepth": 6814,
      "Ġmac": 6815,
      "aggregate": 6816,
      "38": 6817,
      "ium": 6818,
      "Ġtools": 6819,
      "CK": 6820,
      "Ġ2009": 6821,
      "ĠDes": 6822,
      "maps": 6823,
      "allel": 6824,
      "MagicMock": 6825,
      "='/": 6826,
      "Ġfast": 6827,
      "Ġtensor": 6828,
      "oute": 6829,
      "ĠExec": 6830,
      "getter": 6831,
      "ĠDataFrame": 6832,
      "Stats": 6833,
      "tenv": 6834,
      "TCP": 6835,
      "kt": 6836,
      "ĠSite": 6837,
      "tainer": 6838,
      "AF": 6839,
      "rides": 6840,
      "Example": 6841,
      "SETTINGS": 6842,
      "Ġflavor": 6843,
      "TIMEOUT": 6844,
      "ĠOptional": 6845,
      "urlresolvers": 6846,
      "wb": 6847,
      "setitem": 6848,
      "stmt": 6849,
      "plus": 6850,
      "tar": 6851,
      "Ġgets": 6852,
      "ions": 6853,
      "Library": 6854,
      "ingerprint": 6855,
      "Ġpixels": 6856,
      "ĠEns": 6857,
      "Ġchoice": 6858,
      "Ġruns": 6859,
      "OURCE": 6860,
      "chdir": 6861,
      "xis": 6862,
      "ascript": 6863,
      "9999": 6864,
      "Ġlocals": 6865,
      "lev": 6866,
      "Ġprompt": 6867,
      "datastore": 6868,
      "Unable": 6869,
      "Ġvalidator": 6870,
      "Ġfakes": 6871,
      "variance": 6872,
      "Ġservers": 6873,
      "Has": 6874,
      "sli": 6875,
      "RED": 6876,
      "dele": 6877,
      "Ġmar": 6878,
      "sites": 6879,
      "Memory": 6880,
      "walk": 6881,
      "Ġdirec": 6882,
      "authorized": 6883,
      "ading": 6884,
      "Ġregard": 6885,
      "Alchemy": 6886,
      "alect": 6887,
      "ĠDA": 6888,
      "ĠPoint": 6889,
      "ynchronous": 6890,
      "Ġcm": 6891,
      "Rep": 6892,
      "roved": 6893,
      "ateri": 6894,
      "Multiple": 6895,
      "Ġtargets": 6896,
      "subclass": 6897,
      "lace": 6898,
      "ĠLib": 6899,
      "Ġkeywords": 6900,
      "Product": 6901,
      "ntaxError": 6902,
      "adoop": 6903,
      "MT": 6904,
      "Ġscreen": 6905,
      "finished": 6906,
      "utcnow": 6907,
      "48": 6908,
      "dom": 6909,
      "atype": 6910,
      "Validator": 6911,
      "Wh": 6912,
      "star": 6913,
      "manifest": 6914,
      "Ġ500": 6915,
      "Ġglobals": 6916,
      "parsers": 6917,
      "NU": 6918,
      "ĠMERCHANT": 6919,
      "ĠIndexError": 6920,
      "gun": 6921,
      "avascript": 6922,
      "Registry": 6923,
      "which": 6924,
      "Ġhex": 6925,
      "/{}": 6926,
      "gui": 6927,
      "Ġalign": 6928,
      "UND": 6929,
      "randn": 6930,
      "Ġtb": 6931,
      ">=": 6932,
      "enum": 6933,
      "anging": 6934,
      "pin": 6935,
      "=\"%": 6936,
      "PASSWORD": 6937,
      "Coeffs": 6938,
      "cogn": 6939,
      "Ġthemes": 6940,
      "Ġsheet": 6941,
      "Ġquote": 6942,
      "Send": 6943,
      "organization": 6944,
      "completed": 6945,
      "Ġvirt": 6946,
      "=_(\"": 6947,
      "have": 6948,
      "cebook": 6949,
      "Ġmag": 6950,
      "Ġhandling": 6951,
      "ared": 6952,
      "\"][\"": 6953,
      "Ġ'*'": 6954,
      "ĠFITNESS": 6955,
      "program": 6956,
      "Ġsignals": 6957,
      "Ġcompiler": 6958,
      "Ġsqlite": 6959,
      "verter": 6960,
      "sto": 6961,
      "Ġgreen": 6962,
      "Reactor": 6963,
      "ian": 6964,
      "diffe": 6965,
      "Ġcover": 6966,
      "prog": 6967,
      "servable": 6968,
      "Ġnever": 6969,
      "leton": 6970,
      "UNK": 6971,
      "cases": 6972,
      "kee": 6973,
      "Ġanything": 6974,
      "orizont": 6975,
      "allation": 6976,
      "ĠinCoeffs": 6977,
      "Ġ17": 6978,
      "Ġplaces": 6979,
      "best": 6980,
      "ratio": 6981,
      "destination": 6982,
      "ctypes": 6983,
      "ensor": 6984,
      "Execution": 6985,
      "Allow": 6986,
      "ragma": 6987,
      "Ġrelationship": 6988,
      "Ġrev": 6989,
      "Menu": 6990,
      "Num": 6991,
      "decorator": 6992,
      "locals": 6993,
      "Ġ\"\",": 6994,
      "Binary": 6995,
      "Comment": 6996,
      "TS": 6997,
      "capa": 6998,
      "kedirs": 6999,
      "2010": 7000,
      "randint": 7001,
      "Topic": 7002,
      "Ġselection": 7003,
      "ĠEnsure": 7004,
      "ĠMERCHANTABILITY": 7005,
      "ĠHandle": 7006,
      "hot": 7007,
      "rdf": 7008,
      "ussian": 7009,
      "prompt": 7010,
      "sublime": 7011,
      "zeug": 7012,
      "ĠTwisted": 7013,
      "Popen": 7014,
      "Ġdue": 7015,
      "Ġbundle": 7016,
      "ĠNow": 7017,
      "([(": 7018,
      "Ġty": 7019,
      "Dummy": 7020,
      "{\"": 7021,
      "ULAR": 7022,
      "ĠCreated": 7023,
      "Ġnormalize": 7024,
      "Mapping": 7025,
      "LIED": 7026,
      "Ġsidebar": 7027,
      "}:": 7028,
      "}{": 7029,
      "Environment": 7030,
      "Expected": 7031,
      "MODULE": 7032,
      "secure": 7033,
      "kzeug": 7034,
      "ini": 7035,
      "urther": 7036,
      "Ġmarker": 7037,
      "La": 7038,
      "hood": 7039,
      "_{": 7040,
      "ĠĠĠĠĠĠĠĠĠĠĠĠĠĠĠĠĠĠĠĠĠĠĠĠĠĠĠĠĠĠĠĠĠĠĠĠĠĠĠĠĠĠĠĠĠĠ": 7041,
      "IMIT": 7042,
      "vid": 7043,
      "inct": 7044,
      "Ġ':": 7045,
      "Ġsupplied": 7046,
      "ĠOK": 7047,
      "ASK": 7048,
      "SR": 7049,
      "Ġprocessing": 7050,
      "ĠMethod": 7051,
      "Ġimported": 7052,
      "Ġless": 7053,
      "CONTENT": 7054,
      "chars": 7055,
      "ek": 7056,
      "keywords": 7057,
      "rng": 7058,
      "lio": 7059,
      "Ġfooter": 7060,
      "']]": 7061,
      "windows": 7062,
      "ĠOtherwise": 7063,
      "MB": 7064,
      "Required": 7065,
      "adow": 7066,
      "widgets": 7067,
      "Bytes": 7068,
      "Ġsnapshot": 7069,
      "ĠOP": 7070,
      "compiler": 7071,
      "cuts": 7072,
      ".'''": 7073,
      "mkdir": 7074,
      ")\")": 7075,
      "gid": 7076,
      "Ġga": 7077,
      "strument": 7078,
      "ggest": 7079,
      "Ġreplacement": 7080,
      "emit": 7081,
      "criptor": 7082,
      "wrapped": 7083,
      "flask": 7084,
      "Ġconfigured": 7085,
      "ndarray": 7086,
      "Ġgrr": 7087,
      "Stop": 7088,
      "Ġqueries": 7089,
      "Contains": 7090,
      "Go": 7091,
      "amp": 7092,
      "tb": 7093,
      "Ġcr": 7094,
      "spam": 7095,
      "ification": 7096,
      "blue": 7097,
      "Ġnone": 7098,
      "Ġ\"(": 7099,
      "Ġcost": 7100,
      "95": 7101,
      "Ġactor": 7102,
      "Ġcopies": 7103,
      "black": 7104,
      "translate": 7105,
      "CHAR": 7106,
      "Ġui": 7107,
      "Arg": 7108,
      "fakes": 7109,
      "WE": 7110,
      "Ġthree": 7111,
      "ĠPlease": 7112,
      "formats": 7113,
      "slots": 7114,
      "ffi": 7115,
      "Remote": 7116,
      "postgres": 7117,
      "_'": 7118,
      "ĠĠĠĠĠĠĠĠĠĠĠĠĠĠĠĠĠĠĠĠĠĠĠĠĠĠĠĠĠĠĠĠĠĠĠĠĠĠĠĠĠĠĠĠĠĠĠ": 7119,
      "/.": 7120,
      "Authentication": 7121,
      "utions": 7122,
      "Ġsv": 7123,
      "posed": 7124,
      "Ġ=====": 7125,
      "Ġreduce": 7126,
      "ĠWrite": 7127,
      "iterable": 7128,
      "Ġexpand": 7129,
      "Ġdirname": 7130,
      "oration": 7131,
      "getcwd": 7132,
      "Ġdimension": 7133,
      "Ġcred": 7134,
      "ĠRO": 7135,
      "Ġvery": 7136,
      "ĠPerson": 7137,
      "FR": 7138,
      "endor": 7139,
      "Ġproduce": 7140,
      "Ġ----------------------------------------": 7141,
      "ĠBoolean": 7142,
      "ĠreST": 7143,
      "ressions": 7144,
      "dence": 7145,
      "oted": 7146,
      "rank": 7147,
      "gis": 7148,
      "ĠCor": 7149,
      "ĠFilter": 7150,
      "ĠDeleting": 7151,
      "foot": 7152,
      "Results": 7153,
      "Transform": 7154,
      "Ġchunks": 7155,
      "VAR": 7156,
      "cnt": 7157,
      "ĠUN": 7158,
      "ctl": 7159,
      "********************************": 7160,
      "Values": 7161,
      "struction": 7162,
      "CACHE": 7163,
      "Missing": 7164,
      "identi": 7165,
      "Ġhighlight": 7166,
      "cmp": 7167,
      "dp": 7168,
      "Ġssh": 7169,
      "licies": 7170,
      "67": 7171,
      "ua": 7172,
      "Ġpower": 7173,
      "usters": 7174,
      "POSE": 7175,
      "Ġproperly": 7176,
      "las": 7177,
      "finder": 7178,
      "NE": 7179,
      "versed": 7180,
      "Tri": 7181,
      "Ġtraining": 7182,
      "erce": 7183,
      "ĠRel": 7184,
      "ives": 7185,
      "Parameters": 7186,
      "Sample": 7187,
      "stit": 7188,
      "Ġ'/'": 7189,
      "\"].": 7190,
      "Ġpacket": 7191,
      "Ob": 7192,
      "Ter": 7193,
      "cv": 7194,
      "sur": 7195,
      "Constraint": 7196,
      "Ġmakes": 7197,
      "Track": 7198,
      "OwnerId": 7199,
      "tached": 7200,
      "ĠDon": 7201,
      "ĠDevelopment": 7202,
      "orizontal": 7203,
      "]}": 7204,
      "Close": 7205,
      "iterator": 7206,
      "installed": 7207,
      "Remove": 7208,
      "Ġmachine": 7209,
      "male": 7210,
      "ĠAuto": 7211,
      "ĠAbstract": 7212,
      "does": 7213,
      "Ġfunctionality": 7214,
      "ĠIMPLIED": 7215,
      "Poly": 7216,
      "ells": 7217,
      "ĠME": 7218,
      "ĠSearch": 7219,
      "Ġ#------------------------------------------------------------------------------": 7220,
      "velopers": 7221,
      "ATABASE": 7222,
      "mtime": 7223,
      "eep": 7224,
      "Ġsur": 7225,
      "assertIsNot": 7226,
      "Ġdirection": 7227,
      "syn": 7228,
      "Ġci": 7229,
      "ĠINST": 7230,
      "]],": 7231,
      "Ġinserted": 7232,
      "Ġcontact": 7233,
      "jamas": 7234,
      "trip": 7235,
      "tester": 7236,
      "marker": 7237,
      "ĠImproperlyConfigured": 7238,
      "ender": 7239,
      "Ġmu": 7240,
      "lemb": 7241,
      "DataFrame": 7242,
      "Ġupper": 7243,
      "ĠConfiguration": 7244,
      "virtual": 7245,
      "country": 7246,
      "AV": 7247,
      "AIL": 7248,
      "Testing": 7249,
      "Com": 7250,
      "EMAIL": 7251,
      "Ġexport": 7252,
      "inux": 7253,
      "Ġconnected": 7254,
      "ĠLIMIT": 7255,
      "Ġunpack": 7256,
      "Ġcapa": 7257,
      "Attr": 7258,
      "gether": 7259,
      "########################": 7260,
      "Ġautogenerated": 7261,
      "mes": 7262,
      "Ġcc": 7263,
      "ico": 7264,
      "ffff": 7265,
      "kill": 7266,
      "ĠInput": 7267,
      "ĠPUR": 7268,
      "Diff": 7269,
      "vaila": 7270,
      "*(": 7271,
      "Tw": 7272,
      "ĠSign": 7273,
      "Ġinstanti": 7274,
      "ĠArray": 7275,
      "authenticated": 7276,
      "Pickle": 7277,
      "Ġconv": 7278,
      "ĠPlugin": 7279,
      "httplib": 7280,
      "THON": 7281,
      "87": 7282,
      "Ġbeta": 7283,
      "ĠBasic": 7284,
      "Ġbackground": 7285,
      "deepcopy": 7286,
      "chor": 7287,
      "Functions": 7288,
      "/?": 7289,
      "jid": 7290,
      "ĠAddress": 7291,
      "Ġpol": 7292,
      "Ġhour": 7293,
      "white": 7294,
      "ĠWor": 7295,
      "Ġcodecs": 7296,
      "Ġdoctest": 7297,
      "isode": 7298,
      "ital": 7299,
      "decla": 7300,
      "ĠSkip": 7301,
      "Ġbug": 7302,
      "Ġformatted": 7303,
      "initialize": 7304,
      "hara": 7305,
      "Items": 7306,
      "Ġsimilar": 7307,
      "Ġav": 7308,
      "eros": 7309,
      "geom": 7310,
      "Ġready": 7311,
      "park": 7312,
      "lected": 7313,
      "Ġ{}'.": 7314,
      "good": 7315,
      "ĠCL": 7316,
      ">,": 7317,
      "lembic": 7318,
      "Ġps": 7319,
      "additional": 7320,
      "ationTest": 7321,
      "OwnerAccount": 7322,
      "`)": 7323,
      "Ġwarn": 7324,
      "ARD": 7325,
      "Ġrpc": 7326,
      "moving": 7327,
      "Ġtrace": 7328,
      "Ġ64": 7329,
      "Ġpanel": 7330,
      "Ġbig": 7331,
      "Ġpprint": 7332,
      "Ġtf": 7333,
      "Ġ\"#": 7334,
      "Success": 7335,
      "={}": 7336,
      "Ġgeneral": 7337,
      "copia": 7338,
      "cookies": 7339,
      "IDD": 7340,
      "volumes": 7341,
      "uffle": 7342,
      "itude": 7343,
      "Matrix": 7344,
      "Ġquestion": 7345,
      "ĠGiven": 7346,
      "ĠDecimal": 7347,
      "rator": 7348,
      "tcp": 7349,
      "Ġworkbook": 7350,
      "Ġdim": 7351,
      "ublish": 7352,
      "efficient": 7353,
      "DEX": 7354,
      "findall": 7355,
      "bottom": 7356,
      "ĠIPv": 7357,
      "CHE": 7358,
      "Ġexperiment": 7359,
      "47": 7360,
      "preter": 7361,
      "AIN": 7362,
      "ident": 7363,
      "ĠArticle": 7364,
      "vailability": 7365,
      "MAGE": 7366,
      "Ġinitialized": 7367,
      "Ġable": 7368,
      "ĠTree": 7369,
      "Ġuid": 7370,
      "acquire": 7371,
      "ipeline": 7372,
      "10000": 7373,
      "FS": 7374,
      "Ġreply": 7375,
      "CHO": 7376,
      "under": 7377,
      "Ġrespon": 7378,
      "Ġperm": 7379,
      "flatten": 7380,
      "rmtree": 7381,
      "Ġwrong": 7382,
      "bus": 7383,
      "ĠAUTHORS": 7384,
      "otype": 7385,
      "experiment": 7386,
      "istic": 7387,
      "bootstrap": 7388,
      "192": 7389,
      "oom": 7390,
      "tn": 7391,
      "ables": 7392,
      "pix": 7393,
      "Usage": 7394,
      "Ġfreq": 7395,
      "may": 7396,
      "ĠCall": 7397,
      "Ġleg": 7398,
      "illi": 7399,
      "inity": 7400,
      "quences": 7401,
      "Ġsummary": 7402,
      "pm": 7403,
      "Ġsyn": 7404,
      "Ġbal": 7405,
      "Enum": 7406,
      "aliases": 7407,
      "Ġdimensions": 7408,
      "Ġserve": 7409,
      "resize": 7410,
      "linux": 7411,
      "Ġrc": 7412,
      "Ġlang": 7413,
      "Upload": 7414,
      "Renderer": 7415,
      "splitlines": 7416,
      "ined": 7417,
      "Operation": 7418,
      "Ġcirc": 7419,
      "tour": 7420,
      "selector": 7421,
      "ĠPURPOSE": 7422,
      "ogram": 7423,
      "ivy": 7424,
      "Empty": 7425,
      "registration": 7426,
      "Fixture": 7427,
      "pdu": 7428,
      "trl": 7429,
      "Iteration": 7430,
      "Ġedges": 7431,
      "ĠTeam": 7432,
      "Ġfo": 7433,
      "BC": 7434,
      "Plan": 7435,
      "makedirs": 7436,
      "Descriptor": 7437,
      "clients": 7438,
      "ĠThread": 7439,
      "Ġexecuted": 7440,
      ",-": 7441,
      "MAC": 7442,
      "Ġlazy": 7443,
      "Ġrefresh": 7444,
      "ping": 7445,
      "vile": 7446,
      "Ġtemporary": 7447,
      "Ġgevent": 7448,
      "sizes": 7449,
      "roker": 7450,
      "icrosoft": 7451,
      "Step": 7452,
      "gradient": 7453,
      "band": 7454,
      "()).": 7455,
      "ĠAP": 7456,
      "exact": 7457,
      "spawn": 7458,
      "Ġattempt": 7459,
      "ĠPARTIC": 7460,
      "Ġconven": 7461,
      "Ġ40": 7462,
      "Ġconstant": 7463,
      "updates": 7464,
      "edia": 7465,
      "received": 7466,
      "until": 7467,
      "egg": 7468,
      "ĠPARTICULAR": 7469,
      "Wait": 7470,
      "dec": 7471,
      "bounds": 7472,
      "ĠState": 7473,
      "started": 7474,
      "()])": 7475,
      "Ġmembers": 7476,
      "ags": 7477,
      "vl": 7478,
      "ANY": 7479,
      "beat": 7480,
      "ERY": 7481,
      "!!": 7482,
      "]'": 7483,
      "(\"--": 7484,
      "69": 7485,
      "roken": 7486,
      "2011": 7487,
      "Ġpip": 7488,
      "Ġadding": 7489,
      "JANG": 7490,
      "Ġiprot": 7491,
      "Category": 7492,
      "SUB": 7493,
      "setattr": 7494,
      "WORK": 7495,
      "izing": 7496,
      "must": 7497,
      "dy": 7498,
      "}),": 7499,
      "ĠSelect": 7500,
      "Ġlibs": 7501,
      "DataCacheDictionary": 7502,
      "OAuth": 7503,
      "coords": 7504,
      "Ġforward": 7505,
      "ĠDocuments": 7506,
      "Current": 7507,
      "Ġpants": 7508,
      "hand": 7509,
      "}\"": 7510,
      "Ġfrappe": 7511,
      "lator": 7512,
      "Ġcwd": 7513,
      "Ġdns": 7514,
      "dix": 7515,
      "()'": 7516,
      "Ġlogged": 7517,
      "ĠExp": 7518,
      "figure": 7519,
      "contenttypes": 7520,
      "Ġdouble": 7521,
      "Ġforwards": 7522,
      "Ġcleanup": 7523,
      "ĠFind": 7524,
      "validators": 7525,
      "andbox": 7526,
      "ĠCloud": 7527,
      "ĠUsed": 7528,
      "234": 7529,
      "SY": 7530,
      "Replay": 7531,
      "TIVE": 7532,
      "Ġord": 7533,
      "ATCH": 7534,
      "abstractmethod": 7535,
      "Ġfurther": 7536,
      "cha": 7537,
      "Ġbook": 7538,
      "Show": 7539,
      "nor": 7540,
      "COUNT": 7541,
      "Ġgeo": 7542,
      "Params": 7543,
      "ĠBook": 7544,
      "Ġcalculate": 7545,
      "ike": 7546,
      "needs": 7547,
      "Tuple": 7548,
      "Detail": 7549,
      "Ġauthors": 7550,
      "Ġdele": 7551,
      "Ġ'\"": 7552,
      "ircle": 7553,
      ",\"": 7554,
      "tf": 7555,
      "etree": 7556,
      "chunks": 7557,
      ":')": 7558,
      "ko": 7559,
      "ectors": 7560,
      "finish": 7561,
      "Ġwhose": 7562,
      "cuda": 7563,
      "decimal": 7564,
      "MPLE": 7565,
      "ĠSER": 7566,
      "Ġinterfaces": 7567,
      "dae": 7568,
      "attachment": 7569,
      "mbedded": 7570,
      "VM": 7571,
      "rstrip": 7572,
      "associ": 7573,
      "Speci": 7574,
      "ĠBack": 7575,
      "atter": 7576,
      "GTH": 7577,
      "activity": 7578,
      "Ġlanguages": 7579,
      "errno": 7580,
      "Ġarchive": 7581,
      "ama": 7582,
      "cture": 7583,
      "Ġreading": 7584,
      "CUR": 7585,
      "gateway": 7586,
      "ĠStatic": 7587,
      "relationship": 7588,
      "Ġminimum": 7589,
      "Ġprepare": 7590,
      "Ġaltern": 7591,
      "ĠGNU": 7592,
      "OFF": 7593,
      "bla": 7594,
      "Ġ~": 7595,
      "Ġdocstring": 7596,
      "[(": 7597,
      "ĠSource": 7598,
      "Login": 7599,
      "Ġsubclasses": 7600,
      "Created": 7601,
      "Zero": 7602,
      "devices": 7603,
      "JANGO": 7604,
      ")\",": 7605,
      "ĠPri": 7606,
      "TestSuite": 7607,
      "ATOR": 7608,
      "Properties": 7609,
      "NET": 7610,
      "Ġcenter": 7611,
      "ĠOpenStack": 7612,
      "ĠPO": 7613,
      "Ġsto": 7614,
      "[\\": 7615,
      "Ġcreates": 7616,
      "ĠKeyword": 7617,
      "Ġmarkup": 7618,
      "METHOD": 7619,
      "ĠLO": 7620,
      "Ġrepresents": 7621,
      "blueprint": 7622,
      "eys": 7623,
      "odb": 7624,
      "ĠGrouping": 7625,
      "Ġconverted": 7626,
      "clock": 7627,
      "ĠExtra": 7628,
      "BE": 7629,
      "ads": 7630,
      "0001": 7631,
      "Positive": 7632,
      "MAGES": 7633,
      "Ġthrow": 7634,
      "constant": 7635,
      "edu": 7636,
      "erkzeug": 7637,
      "Ġaccording": 7638,
      "background": 7639,
      "indexes": 7640,
      "cas": 7641,
      "Ġ\"'": 7642,
      "astic": 7643,
      "Ġ#---------------------------------------------------------------------------": 7644,
      "Ġdeployment": 7645,
      "native": 7646,
      "Ġbash": 7647,
      "izard": 7648,
      "ulates": 7649,
      "Ġrand": 7650,
      "packet": 7651,
      "Scheduler": 7652,
      "zon": 7653,
      "Ġsimplejson": 7654,
      "Ġrepla": 7655,
      "\"]:": 7656,
      "Utils": 7657,
      "Ġcols": 7658,
      "Ġdeferred": 7659,
      "jpg": 7660,
      "Cell": 7661,
      "metaclass": 7662,
      "ysi": 7663,
      "coordin": 7664,
      "communic": 7665,
      "VarInt": 7666,
      "Ġanswer": 7667,
      "Ġrobot": 7668,
      "serializers": 7669,
      "Json": 7670,
      "blems": 7671,
      "qt": 7672,
      "=_('": 7673,
      "honeNumber": 7674,
      "scores": 7675,
      "Ġpragma": 7676,
      "aten": 7677,
      "allen": 7678,
      "patcher": 7679,
      "EV": 7680,
      "imit": 7681,
      "Article": 7682,
      "PROJECT": 7683,
      "Ġct": 7684,
      "ĠEnvironment": 7685,
      "ĠDefaults": 7686,
      "Ġbetter": 7687,
      "catalog": 7688,
      "('''": 7689,
      "Ġ2007": 7690,
      "Ġhyper": 7691,
      "Ġspecification": 7692,
      "Ġoptparse": 7693,
      "Grid": 7694,
      "Ġreally": 7695,
      "STATE": 7696,
      "!\")": 7697,
      "Adapter": 7698,
      "ĠChar": 7699,
      "reload": 7700,
      "asarray": 7701,
      "Ġpartition": 7702,
      ")**": 7703,
      "ticket": 7704,
      "Ġthing": 7705,
      "RequestHandler": 7706,
      "Pr": 7707,
      "bench": 7708,
      "Ġsli": 7709,
      "Ġ{}\".": 7710,
      "props": 7711,
      "Ġunderlying": 7712,
      "Ġindexes": 7713,
      "ĠCompute": 7714,
      "Ġdeal": 7715,
      "ely": 7716,
      "Ġsigma": 7717,
      "_[": 7718,
      "Ġroom": 7719,
      "irt": 7720,
      "Ġcounts": 7721,
      ")+": 7722,
      "Main": 7723,
      "Ġrng": 7724,
      "600": 7725,
      "rgb": 7726,
      "Nodes": 7727,
      "ISE": 7728,
      "Vector": 7729,
      "Ġintera": 7730,
      "launch": 7731,
      "percent": 7732,
      "ABC": 7733,
      ">\",": 7734,
      "ĠDIS": 7735,
      "DEF": 7736,
      "aaaa": 7737,
      "Bind": 7738,
      "Ġscripts": 7739,
      "Ġeverything": 7740,
      "Ġfigure": 7741,
      "Ġsparse": 7742,
      "Transaction": 7743,
      "Ġseparate": 7744,
      "SO": 7745,
      "Ġbi": 7746,
      "Ġsubscription": 7747,
      "ĠSeries": 7748,
      "Ġsmall": 7749,
      "FILES": 7750,
      "ierarchy": 7751,
      "Ġarrays": 7752,
      "categories": 7753,
      "cov": 7754,
      "share": 7755,
      "ĠExten": 7756,
      "Ġ'+": 7757,
      "Ġappendix": 7758,
      "Fetch": 7759,
      "Ġborder": 7760,
      "ReplayAll": 7761,
      "vors": 7762,
      "artist": 7763,
      "Ġeffect": 7764,
      "ĠEVENT": 7765,
      "Ġapplied": 7766,
      "Ġdisabled": 7767,
      "direction": 7768,
      "tempdir": 7769,
      "argtypes": 7770,
      ")-": 7771,
      "mesh": 7772,
      "Ġquotes": 7773,
      "Ġletter": 7774,
      "nl": 7775,
      "Ġthreshold": 7776,
      "sensitive": 7777,
      "Ġchecking": 7778,
      "stand": 7779,
      "Ġgu": 7780,
      "pie": 7781,
      "Ġweak": 7782,
      "LIN": 7783,
      "imator": 7784,
      "Ġshift": 7785,
      "Ġnamedtuple": 7786,
      "datasets": 7787,
      "Ġ80": 7788,
      "ĠĠĠĠĠĠĠĠĠĠĠĠĠĠĠĠĠĠĠĠĠĠĠĠĠĠĠĠĠĠĠĠĠĠĠĠĠĠĠĠĠĠĠĠĠĠĠĠ": 7789,
      "Ġactivity": 7790,
      "joint": 7791,
      "Ġoutfile": 7792,
      "repeat": 7793,
      "Ġappended": 7794,
      "ĠConvert": 7795,
      "Ġaxes": 7796,
      "Ġepoch": 7797,
      "advance": 7798,
      "Ġpyjamas": 7799,
      "Ġcollect": 7800,
      "daemon": 7801,
      "reet": 7802,
      "aring": 7803,
      "canvas": 7804,
      "`:": 7805,
      "Ġmetavar": 7806,
      "car": 7807,
      "LENGTH": 7808,
      "Offset": 7809,
      "disconnect": 7810,
      "Setup": 7811,
      "Verify": 7812,
      "sist": 7813,
      "}',": 7814,
      "Ġ23": 7815,
      "Ġrather": 7816,
      "fh": 7817,
      "meter": 7818,
      "Ġhandles": 7819,
      ">.": 7820,
      "hyper": 7821,
      "cluded": 7822,
      "README": 7823,
      "scene": 7824,
      "ĠProxy": 7825,
      "Ġoprot": 7826,
      "extended": 7827,
      "Ġdescribed": 7828,
      "Ġcp": 7829,
      "Ġdays": 7830,
      "Ġlatest": 7831,
      "43": 7832,
      "pip": 7833,
      "ASH": 7834,
      "bulk": 7835,
      "Ġpad": 7836,
      "Ġdynamic": 7837,
      "ndim": 7838,
      "ru": 7839,
      "area": 7840,
      "sibility": 7841,
      "rack": 7842,
      "restype": 7843,
      "Please": 7844,
      "Ġshouldn": 7845,
      "Ġsubnet": 7846,
      "crypted": 7847,
      "Ġinline": 7848,
      "placeholder": 7849,
      "Ġ'.'": 7850,
      "appendices": 7851,
      "rozenset": 7852,
      "Generic": 7853,
      "gorithms": 7854,
      "uniform": 7855,
      "creator": 7856,
      "Ġ\"\")": 7857,
      "LOB": 7858,
      "Ġetree": 7859,
      "Ġtimer": 7860,
      "Ġmanuals": 7861,
      "ANGU": 7862,
      "loading": 7863,
      "Desc": 7864,
      "Ġversionadded": 7865,
      "Ġ2008": 7866,
      "ĠER": 7867,
      "kwds": 7868,
      "hexdigest": 7869,
      "Geometry": 7870,
      "mul": 7871,
      "locations": 7872,
      "Ġlooking": 7873,
      "XY": 7874,
      "Ġdialect": 7875,
      "moo": 7876,
      "Ġentire": 7877,
      "Ġri": 7878,
      "ino": 7879,
      "\"})": 7880,
      "Ġprocesses": 7881,
      "Ġ#-------------------------------------------------------------------------------": 7882,
      "lihood": 7883,
      "pended": 7884,
      "Ġmonitor": 7885,
      "Use": 7886,
      "tol": 7887,
      "Ġbases": 7888,
      "define": 7889,
      "ĠBUT": 7890,
      "Ġlibcloud": 7891,
      "Actor": 7892,
      "vtk": 7893,
      "ople": 7894,
      "ĠAg": 7895,
      "Ġgran": 7896,
      "ĠNE": 7897,
      "1024": 7898,
      "ttl": 7899,
      "Ġfs": 7900,
      "dian": 7901,
      "Ġsmart": 7902,
      "70": 7903,
      "teri": 7904,
      "PRESS": 7905,
      "EP": 7906,
      "Hook": 7907,
      "Ġplease": 7908,
      "Ġhelpers": 7909,
      "distribution": 7910,
      "BY": 7911,
      "Processor": 7912,
      "FIELD": 7913,
      "Body": 7914,
      "Constant": 7915,
      "Ġserializers": 7916,
      "requirements": 7917,
      "currency": 7918,
      "ĠStorage": 7919,
      "hass": 7920,
      "BL": 7921,
      "gri": 7922,
      "Func": 7923,
      "ĠPoly": 7924,
      "Ġpretty": 7925,
      "ĠDict": 7926,
      "ĠSQLAlchemy": 7927,
      "GROUP": 7928,
      "ĠImple": 7929,
      "disabled": 7930,
      "axes": 7931,
      "Ġpublished": 7932,
      "Ġsteps": 7933,
      "Ġdependency": 7934,
      "Ġincludes": 7935,
      "GS": 7936,
      "ridden": 7937,
      "Ġstdin": 7938,
      "GINE": 7939,
      "Headers": 7940,
      "ai": 7941,
      "nick": 7942,
      "__',": 7943,
      "ĠNULL": 7944,
      "cade": 7945,
      "increment": 7946,
      "scopes": 7947,
      "etrieve": 7948,
      "uous": 7949,
      "ython": 7950,
      "('')": 7951,
      "([],": 7952,
      "Ġreturning": 7953,
      "ocus": 7954,
      "Ġassigned": 7955,
      "Definition": 7956,
      "Ġ\")": 7957,
      "Ġformatter": 7958,
      "={\"": 7959,
      "openid": 7960,
      "small": 7961,
      "PU": 7962,
      "fileno": 7963,
      "START": 7964,
      "apon": 7965,
      "Ġfron": 7966,
      "Ġeas": 7967,
      "=',": 7968,
      "PN": 7969,
      "lb": 7970,
      "spli": 7971,
      "Classi": 7972,
      "Pay": 7973,
      "Ġfun": 7974,
      "ĠDO": 7975,
      "Ġlogic": 7976,
      "sisten": 7977,
      "lastic": 7978,
      "istribution": 7979,
      "Ġfab": 7980,
      "Ġplain": 7981,
      "Ġgive": 7982,
      "rename": 7983,
      "setLevel": 7984,
      "diag": 7985,
      "ĠLink": 7986,
      "queries": 7987,
      "Ġ22": 7988,
      "dfs": 7989,
      "Ġexplicitly": 7990,
      "Print": 7991,
      "Ġdetail": 7992,
      "Ġgc": 7993,
      "building": 7994,
      "svn": 7995,
      "Ġfixtures": 7996,
      "Find": 7997,
      "rn": 7998,
      "ĠMon": 7999,
      "special": 8000,
      "Ġexecutable": 8001,
      "Ġpull": 8002,
      "ĠCho": 8003,
      "Ġutility": 8004,
      "ĠCH": 8005,
      "tid": 8006,
      "rigin": 8007,
      "published": 8008,
      "ball": 8009,
      "ĠMax": 8010,
      "lm": 8011,
      "udo": 8012,
      "Ġformats": 8013,
      "att": 8014,
      "lobs": 8015,
      "assertIsNotNone": 8016,
      "onal": 8017,
      "sib": 8018,
      "Debug": 8019,
      "Router": 8020,
      "Ġfire": 8021,
      "addon": 8022,
      "balance": 8023,
      "509": 8024,
      "twitter": 8025,
      "ĠCalc": 8026,
      "RUN": 8027,
      "Ġwon": 8028,
      "elf": 8029,
      "ĠVector": 8030,
      "Ġlinear": 8031,
      "generated": 8032,
      "Exists": 8033,
      "Ġprevent": 8034,
      "sudo": 8035,
      "cra": 8036,
      "Ġrect": 8037,
      "assemble": 8038,
      "ĠLab": 8039,
      "ĠFrame": 8040,
      "Ġloading": 8041,
      "SERT": 8042,
      "Ġflush": 8043,
      "ĠGenerate": 8044,
      "crypto": 8045,
      "Ġlonger": 8046,
      "php": 8047,
      "Ġlex": 8048,
      "jection": 8049,
      "ĠTY": 8050,
      "Ġenum": 8051,
      "Ġndarray": 8052,
      "BER": 8053,
      "Ġ^": 8054,
      "mpa": 8055,
      "\")),": 8056,
      "TC": 8057,
      "alice": 8058,
      "Ġhidden": 8059,
      "keh": 8060,
      "expires": 8061,
      "ĠVM": 8062,
      "Ġagree": 8063,
      "Raw": 8064,
      "Ġfixture": 8065,
      "descriptor": 8066,
      "Ġiteration": 8067,
      "ipedia": 8068,
      "Ġdeclar": 8069,
      "ĠTex": 8070,
      "ĠSec": 8071,
      "ILD": 8072,
      "54": 8073,
      "uncate": 8074,
      "standard": 8075,
      "Ġappear": 8076,
      "ropy": 8077,
      "rase": 8078,
      "mmutable": 8079,
      "Ġvisible": 8080,
      "CHOICES": 8081,
      "\"},": 8082,
      "retri": 8083,
      "Ġ{{": 8084,
      "chemas": 8085,
      "Ġeventlet": 8086,
      "Region": 8087,
      "djang": 8088,
      "major": 8089,
      "shutdown": 8090,
      "dates": 8091,
      "ĠVariable": 8092,
      "clusive": 8093,
      "Ġabort": 8094,
      "sigma": 8095,
      "Cluster": 8096,
      "TRACT": 8097,
      "........": 8098,
      "=[],": 8099,
      "={},": 8100,
      "ĠMay": 8101,
      "sually": 8102,
      "ArgumentParser": 8103,
      "EVENT": 8104,
      "auti": 8105,
      "urlopen": 8106,
      "artbeat": 8107,
      "udit": 8108,
      "Ġterminal": 8109,
      "EM": 8110,
      "ana": 8111,
      "['_": 8112,
      "usted": 8113,
      "adapter": 8114,
      "ordered": 8115,
      "anded": 8116,
      "paren": 8117,
      "quiet": 8118,
      "Global": 8119,
      "Ġ'{}": 8120,
      "notes": 8121,
      "ITS": 8122,
      "Ġimmediate": 8123,
      "Render": 8124,
      "Net": 8125,
      "Errors": 8126,
      "Ġdefines": 8127,
      "Ġretrie": 8128,
      "Connect": 8129,
      "NEC": 8130,
      "ĠEl": 8131,
      "afe": 8132,
      "ached": 8133,
      "Opt": 8134,
      "bp": 8135,
      "nc": 8136,
      "Ġaliases": 8137,
      "Ġsuccessfully": 8138,
      "/(": 8139,
      "qname": 8140,
      "Ġsol": 8141,
      "VIDED": 8142,
      "encoder": 8143,
      "Ġeasy": 8144,
      "Ġmuch": 8145,
      "KET": 8146,
      "Ġprobably": 8147,
      "SHA": 8148,
      "(_('": 8149,
      "ĠCreates": 8150,
      "POINT": 8151,
      "answer": 8152,
      "Ġred": 8153,
      "ĠApi": 8154,
      "ĠDATA": 8155,
      "Inte": 8156,
      "ĠHost": 8157,
      "asis": 8158,
      "tras": 8159,
      "UTF": 8160,
      "ĠTEMPLATE": 8161,
      "Ġcard": 8162,
      "ENGINE": 8163,
      "ilo": 8164,
      "quation": 8165,
      "Ġregarding": 8166,
      "ĠLIMITED": 8167,
      "Ġequivalent": 8168,
      "gination": 8169,
      "Ġchannels": 8170,
      "friend": 8171,
      "Ġdescriptor": 8172,
      "logged": 8173,
      "Ġsymbols": 8174,
      "Ġ1234": 8175,
      "ĠSu": 8176,
      "ĠZZ": 8177,
      "Common": 8178,
      "ond": 8179,
      "constructor": 8180,
      "ĠForeignKey": 8181,
      "xyz": 8182,
      "ĠColor": 8183,
      "MODEL": 8184,
      "Font": 8185,
      "II": 8186,
      "wraps": 8187,
      "heel": 8188,
      "Ġcharset": 8189,
      "Prefix": 8190,
      "Ġcontributor": 8191,
      "lour": 8192,
      "ĠFirst": 8193,
      "saved": 8194,
      "HttpRequest": 8195,
      "Click": 8196,
      "dialog": 8197,
      "bitrary": 8198,
      "shortcuts": 8199,
      "avigation": 8200,
      "\"')": 8201,
      "Ġmiddleware": 8202,
      "Ġstub": 8203,
      "Ġasync": 8204,
      "Ġnegative": 8205,
      "ĠFIX": 8206,
      "OLD": 8207,
      "Ġls": 8208,
      "Conf": 8209,
      "digits": 8210,
      "Done": 8211,
      "IX": 8212,
      "Ġcatch": 8213,
      "consume": 8214,
      "geometry": 8215,
      "Ġprocessed": 8216,
      "Ġdefinitions": 8217,
      "ĠResult": 8218,
      "bidden": 8219,
      "pw": 8220,
      "ĠEngine": 8221,
      "ĠCOPYING": 8222,
      "Ġ###########################################################################": 8223,
      "WIT": 8224,
      "Ġarea": 8225,
      "verbosity": 8226,
      "Ġ10000": 8227,
      "Ġvol": 8228,
      "Display": 8229,
      "cycle": 8230,
      "Ġ'':": 8231,
      "Ġcodes": 8232,
      "terminal": 8233,
      "cryption": 8234,
      "!\"": 8235,
      "ĠALL": 8236,
      "scr": 8237,
      "corder": 8238,
      "keeper": 8239,
      "Ġnb": 8240,
      "Ġpending": 8241,
      "ĠPackage": 8242,
      "UES": 8243,
      "Ġcaller": 8244,
      "ĠAssertionError": 8245,
      "ropo": 8246,
      "Ġmanagement": 8247,
      "seudo": 8248,
      "Ġrecipient": 8249,
      "Ġwsgi": 8250,
      "Cleanup": 8251,
      "ĠDAMAGES": 8252,
      "ancy": 8253,
      "Val": 8254,
      "recipient": 8255,
      "tip": 8256,
      "atural": 8257,
      "Ġlight": 8258,
      "Ġports": 8259,
      "ism": 8260,
      "cross": 8261,
      "(?:": 8262,
      "retty": 8263,
      "Ġ-----": 8264,
      "coverage": 8265,
      "\":\"": 8266,
      "fsm": 8267,
      "precationWarning": 8268,
      "LIC": 8269,
      "alive": 8270,
      "Ġfilepath": 8271,
      "ĠJob": 8272,
      "Ġownership": 8273,
      "dynamic": 8274,
      "flo": 8275,
      "dao": 8276,
      "ĠProduct": 8277,
      "Ġsimply": 8278,
      "fron": 8279,
      "asm": 8280,
      "Ġwar": 8281,
      "Cookie": 8282,
      "mited": 8283,
      "bold": 8284,
      "Ġnodelist": 8285,
      "ĠAllow": 8286,
      "Ġwindows": 8287,
      "Ġfh": 8288,
      "Ġconsume": 8289,
      "pret": 8290,
      "OPEN": 8291,
      "Sm": 8292,
      "former": 8293,
      "ĠĉĠĠĠ": 8294,
      "ĠStream": 8295,
      "gd": 8296,
      "ssue": 8297,
      "ĠSalt": 8298,
      "aker": 8299,
      "ToMany": 8300,
      "LIMIT": 8301,
      "Ġrestri": 8302,
      "Ġnargs": 8303,
      "ĠEmpty": 8304,
      "ĠUSER": 8305,
      "Sheet": 8306,
      "Ġremaining": 8307,
      "exer": 8308,
      "exchange": 8309,
      "Named": 8310,
      "plural": 8311,
      "failUnlessEqual": 8312,
      "TT": 8313,
      "migration": 8314,
      "Ġvalidators": 8315,
      "ĠArguments": 8316,
      "ĠautoGenerate": 8317,
      "Worker": 8318,
      "ĠcStringIO": 8319,
      "ĠIPython": 8320,
      "witch": 8321,
      "Ġscalar": 8322,
      "caten": 8323,
      "Ġpycopia": 8324,
      "sqlalchemy": 8325,
      "assertNotIn": 8326,
      "mpaign": 8327,
      "Ġunless": 8328,
      "Tools": 8329,
      "Ġminimal": 8330,
      "Ġmonkey": 8331,
      "Expression": 8332,
      "////////": 8333,
      "that": 8334,
      "Ġprior": 8335,
      "MQ": 8336,
      "oned": 8337,
      "thumbnail": 8338,
      "memo": 8339,
      "Ġdirectives": 8340,
      "Non": 8341,
      "Ġlicenses": 8342,
      "seg": 8343,
      "vim": 8344,
      "57": 8345,
      "_('": 8346,
      "Ġws": 8347,
      "Title": 8348,
      "benchmark": 8349,
      "bars": 8350,
      "ĠNotes": 8351,
      "Ġmeasure": 8352,
      "ĠĠĠĠĠĠĠĠĠĠĠĠĠĠĠĠĠĠĠĠĠĠĠĠĠĠĠĠĠĠĠĠĠĠĠĠĠĠĠĠĠĠĠĠĠĠĠĠĠ": 8353,
      "(_(\"": 8354,
      "TAG": 8355,
      "asc": 8356,
      "Ġruntime": 8357,
      "Callbacks": 8358,
      "topics": 8359,
      "YY": 8360,
      "Ġtraits": 8361,
      "ramid": 8362,
      "Cer": 8363,
      "Gra": 8364,
      "Ġsever": 8365,
      "scriber": 8366,
      "Ġfloating": 8367,
      "CREATE": 8368,
      "dm": 8369,
      "Ġqual": 8370,
      "Flask": 8371,
      "ered": 8372,
      "Ġreceive": 8373,
      "KeyError": 8374,
      "Ġgradient": 8375,
      "][\"": 8376,
      "Ġ'?": 8377,
      "Ġstrict": 8378,
      "Ġchecked": 8379,
      "!')": 8380,
      "since": 8381,
      "Ġ21": 8382,
      "Ġadds": 8383,
      "Ġcurr": 8384,
      "Security": 8385,
      "dh": 8386,
      "human": 8387,
      "mr": 8388,
      "\"\",": 8389,
      "ĠPygments": 8390,
      "56789": 8391,
      "levant": 8392,
      "Scale": 8393,
      "Ġfinish": 8394,
      "Ġprefixes": 8395,
      "Decimal": 8396,
      "Called": 8397,
      "otal": 8398,
      "acter": 8399,
      "Ġclients": 8400,
      "too": 8401,
      "books": 8402,
      "issues": 8403,
      "UTE": 8404,
      "'m": 8405,
      "diction": 8406,
      "opro": 8407,
      "within": 8408,
      "Ġlst": 8409,
      "ALI": 8410,
      "Ġ'..": 8411,
      "lify": 8412,
      "completion": 8413,
      "verts": 8414,
      "topo": 8415,
      "fully": 8416,
      "Ġsorting": 8417,
      "Ġdialog": 8418,
      "=''):": 8419,
      "TERN": 8420,
      "Ġclassifiers": 8421,
      "serialization": 8422,
      "attrib": 8423,
      "Ġdeg": 8424,
      "Ġclf": 8425,
      "ĠSerial": 8426,
      "cells": 8427,
      "then": 8428,
      "ctree": 8429,
      "Ġhist": 8430,
      "ĠBlock": 8431,
      "negative": 8432,
      "grant": 8433,
      "Width": 8434,
      "Ġpadding": 8435,
      "ĠSp": 8436,
      "ĠRule": 8437,
      "ĠInst": 8438,
      "Skip": 8439,
      "au": 8440,
      "Ġ'$": 8441,
      "keystone": 8442,
      "Ġserialized": 8443,
      "providers": 8444,
      "ĠContentType": 8445,
      "footnote": 8446,
      "Cmd": 8447,
      "ĠLabel": 8448,
      "ĠFree": 8449,
      "tablename": 8450,
      "DataCacheFunctions": 8451,
      ":/": 8452,
      "Git": 8453,
      "ĠMain": 8454,
      "Pos": 8455,
      "ĠSend": 8456,
      "EY": 8457,
      "fu": 8458,
      "ster": 8459,
      "docker": 8460,
      "([^": 8461,
      "bian": 8462,
      "deferred": 8463,
      "Ġnor": 8464,
      "strategy": 8465,
      "Temporary": 8466,
      "ĠGeo": 8467,
      "ĠSchemaMigration": 8468,
      "unused": 8469,
      "ĠTri": 8470,
      "ĠRange": 8471,
      "Windows": 8472,
      "Ġstarts": 8473,
      "Ġserved": 8474,
      "Ġlocations": 8475,
      "rating": 8476,
      "checks": 8477,
      "lst": 8478,
      "ASES": 8479,
      "Ġpassing": 8480,
      "ModelForm": 8481,
      "Ġhandled": 8482,
      "ĠSetup": 8483,
      "sf": 8484,
      "une": 8485,
      "Ġtex": 8486,
      "callbacks": 8487,
      "ESSAGE": 8488,
      "assette": 8489,
      "ĠHelp": 8490,
      "ĠINCLUDING": 8491,
      "Finder": 8492,
      "tm": 8493,
      "coord": 8494,
      "Any": 8495,
      "seen": 8496,
      "ESSION": 8497,
      "Convert": 8498,
      "ippet": 8499,
      "Ġmocked": 8500,
      "DED": 8501,
      "SchemaMigration": 8502,
      "FLAGS": 8503,
      "stan": 8504,
      "ĠRPC": 8505,
      "lapsed": 8506,
      "ajax": 8507,
      "lr": 8508,
      "ĠMin": 8509,
      "ĠRES": 8510,
      "workers": 8511,
      "registered": 8512,
      "Statement": 8513,
      "products": 8514,
      "achine": 8515,
      "iteral": 8516,
      "Ġshare": 8517,
      "Ġbuff": 8518,
      "Ġjinja": 8519,
      "domains": 8520,
      "zed": 8521,
      "stage": 8522,
      "Ġfamily": 8523,
      "CF": 8524,
      "deri": 8525,
      "ĠAccess": 8526,
      "iki": 8527,
      "UUID": 8528,
      "Ġordered": 8529,
      "focus": 8530,
      "theta": 8531,
      "circ": 8532,
      "Ġtar": 8533,
      "horizon": 8534,
      "Ġsentry": 8535,
      "Ġunused": 8536,
      "Ġvars": 8537,
      "urnal": 8538,
      "Ġcertificate": 8539,
      "ĠTYPE": 8540,
      "mdao": 8541,
      "ĠEmail": 8542,
      "Ġsudo": 8543,
      "Ġscene": 8544,
      "ĠCOPYRIGHT": 8545,
      "ĠJava": 8546,
      "Ġtitles": 8547,
      "alter": 8548,
      "Ġ\\\\": 8549,
      "Ġaggreg": 8550,
      ">]": 8551,
      "Ġsystems": 8552,
      "collections": 8553,
      "Del": 8554,
      "Mis": 8555,
      "vpn": 8556,
      "Dataset": 8557,
      "limits": 8558,
      "ĠTop": 8559,
      "Ġpyg": 8560,
      "authorization": 8561,
      "SSH": 8562,
      "ĠQtCore": 8563,
      "Ġ\"\"\"\\": 8564,
      "directed": 8565,
      "perms": 8566,
      "Ġenough": 8567,
      "logout": 8568,
      "scenario": 8569,
      "101": 8570,
      "ced": 8571,
      "aggreg": 8572,
      "ĠfunctionList": 8573,
      "Ġaggregate": 8574,
      "Ġprocessor": 8575,
      "Ġdfp": 8576,
      "operations": 8577,
      "tifier": 8578,
      "Sets": 8579,
      ":],": 8580,
      "Cor": 8581,
      "WID": 8582,
      "ĠPROVIDED": 8583,
      "First": 8584,
      "creation": 8585,
      "Ġplaceholder": 8586,
      "udience": 8587,
      "46": 8588,
      "BR": 8589,
      "dtemp": 8590,
      "receiver": 8591,
      "([])": 8592,
      "ĠMySQL": 8593,
      "Authorization": 8594,
      "ENCE": 8595,
      "trait": 8596,
      "Ġrepe": 8597,
      "Ġlaunch": 8598,
      "ronic": 8599,
      "ĠDeferred": 8600,
      "Neg": 8601,
      "xhtml": 8602,
      "semb": 8603,
      "avg": 8604,
      "speed": 8605,
      "Iterator": 8606,
      "pixel": 8607,
      "^^": 8608,
      "ĠinDataCacheDictionary": 8609,
      "trial": 8610,
      "Ġpositive": 8611,
      "general": 8612,
      "Begin": 8613,
      "ĠStack": 8614,
      "Normal": 8615,
      "ny": 8616,
      "xpath": 8617,
      "Ġinherit": 8618,
      "Arch": 8619,
      "HEADER": 8620,
      "Ġpercent": 8621,
      "border": 8622,
      "alls": 8623,
      "ientation": 8624,
      "ene": 8625,
      "NECTION": 8626,
      "BSD": 8627,
      "pd": 8628,
      "Ġrhs": 8629,
      "attemp": 8630,
      "solver": 8631,
      "Ġwraps": 8632,
      "elery": 8633,
      "96": 8634,
      "ii": 8635,
      "Ġ=>": 8636,
      "Ġprice": 8637,
      "voice": 8638,
      "something": 8639,
      "Ġscenario": 8640,
      "ĠACTION": 8641,
      "-+": 8642,
      "Unicode": 8643,
      "bg": 8644,
      "erature": 8645,
      "Ġincorrect": 8646,
      "Ġ\"[": 8647,
      "ĠCreature": 8648,
      "jected": 8649,
      "WARNING": 8650,
      "tection": 8651,
      "confirm": 8652,
      "ĠDOM": 8653,
      "bindings": 8654,
      "META": 8655,
      "ĠLIABILITY": 8656,
      "jinja": 8657,
      "Ġfragment": 8658,
      "Ġsucce": 8659,
      "Identifier": 8660,
      "SITE": 8661,
      "Ġgs": 8662,
      "realpath": 8663,
      "bf": 8664,
      "Ġbenchmark": 8665,
      "Ġcompatible": 8666,
      "imen": 8667,
      "!'": 8668,
      "clip": 8669,
      "ĠVAL": 8670,
      "loaders": 8671,
      "Ġ*=": 8672,
      "containers": 8673,
      "ĠEnthought": 8674,
      "Ġve": 8675,
      "ully": 8676,
      "take": 8677,
      "radius": 8678,
      "MY": 8679,
      "tabs": 8680,
      "Init": 8681,
      "ICT": 8682,
      "makeOne": 8683,
      "NOWN": 8684,
      "(\".": 8685,
      "stubs": 8686,
      "calendar": 8687,
      "ĠWITH": 8688,
      "removed": 8689,
      "Ġinf": 8690,
      "Attributes": 8691,
      "Ġloss": 8692,
      "Ġprecision": 8693,
      "Ġwidgets": 8694,
      "mf": 8695,
      "cts": 8696,
      "ĠTABLE": 8697,
      "clause": 8698,
      "posts": 8699,
      "symbols": 8700,
      "ĠBytes": 8701,
      "lp": 8702,
      "ductor": 8703,
      "annotation": 8704,
      "SyntaxError": 8705,
      "__:": 8706,
      "ĠSSH": 8707,
      "ĠLay": 8708,
      "ouch": 8709,
      "howto": 8710,
      "presented": 8711,
      "ORM": 8712,
      "ACCESS": 8713,
      "ĠHttpResponseRedirect": 8714,
      "Book": 8715,
      "thrift": 8716,
      "Ġcancel": 8717,
      "Ġbra": 8718,
      "ĠCalled": 8719,
      "Release": 8720,
      "Ġauthorization": 8721,
      "ban": 8722,
      "Ġwerkzeug": 8723,
      "Ġhard": 8724,
      "ĠWhether": 8725,
      "999": 8726,
      "Ġgeometry": 8727,
      "superuser": 8728,
      "mouse": 8729,
      "Ġcertain": 8730,
      "ĠCache": 8731,
      "ĠTexinfo": 8732,
      "Chart": 8733,
      "viding": 8734,
      "/\",": 8735,
      "=\"\"\"": 8736,
      "xies": 8737,
      "Ġdigest": 8738,
      "pretty": 8739,
      "ULTI": 8740,
      "encoded": 8741,
      "Relation": 8742,
      "')):": 8743,
      "ordering": 8744,
      "168": 8745,
      "ighbors": 8746,
      "Sha": 8747,
      "har": 8748,
      "Ġdigits": 8749,
      "ĠMap": 8750,
      "Ġlayers": 8751,
      "migrate": 8752,
      "ĠKEY": 8753,
      "('/',": 8754,
      "IDDLE": 8755,
      "DJANGO": 8756,
      "ĠDateTime": 8757,
      "mid": 8758,
      "SCHE": 8759,
      "veri": 8760,
      "Ġfailures": 8761,
      "Ġxmlns": 8762,
      "ĠcPickle": 8763,
      "unlink": 8764,
      "ĠHas": 8765,
      "infra": 8766,
      "morph": 8767,
      "Ġreload": 8768,
      "Ġdeli": 8769,
      "ĠRandom": 8770,
      "lette": 8771,
      "ĠParameter": 8772,
      "Ġtrailing": 8773,
      "Msg": 8774,
      "pow": 8775,
      "Ġcmp": 8776,
      "('{": 8777,
      "linalg": 8778,
      "pider": 8779,
      "minute": 8780,
      "finite": 8781,
      "CCESS": 8782,
      "authenticate": 8783,
      "ĠProtocolBuffer": 8784,
      "wrong": 8785,
      "illa": 8786,
      "levels": 8787,
      "Ġ~~~~~~~~~~~~~~~~": 8788,
      "declar": 8789,
      "Ġaverage": 8790,
      "Ġenter": 8791,
      "Setting": 8792,
      "Folder": 8793,
      "stor": 8794,
      "mpling": 8795,
      "ĠSTATIC": 8796,
      "hint": 8797,
      "vlan": 8798,
      "unity": 8799,
      "Ġexactly": 8800,
      "Merge": 8801,
      "fine": 8802,
      "pypi": 8803,
      "Ġderived": 8804,
      "Save": 8805,
      "viewer": 8806,
      "dimension": 8807,
      "CLIENT": 8808,
      "Scen": 8809,
      "Ġtt": 8810,
      "poses": 8811,
      "letterpaper": 8812,
      "codec": 8813,
      "Split": 8814,
      "Ġes": 8815,
      "Ġvals": 8816,
      "gamma": 8817,
      "kb": 8818,
      "Ġcpu": 8819,
      "Ġgdata": 8820,
      "entities": 8821,
      "]',": 8822,
      "Children": 8823,
      "Ġrequirements": 8824,
      "PH": 8825,
      "Ġdirector": 8826,
      "aniti": 8827,
      "chat": 8828,
      "cay": 8829,
      "Ġsentinel": 8830,
      "Ġpor": 8831,
      "Ġwebsite": 8832,
      "Flavor": 8833,
      "Ġfew": 8834,
      "ĠĠĠĠĠĠĠĠĠĠĠĠĠĠĠĠĠĠĠĠĠĠĠĠĠĠĠĠĠĠĠĠĠĠĠĠĠĠĠĠĠĠĠĠĠĠĠĠĠĠĠ": 8835,
      "Ġpt": 8836,
      "Async": 8837,
      "CLASSES": 8838,
      "yy": 8839,
      "cks": 8840,
      "ĠBY": 8841,
      "Ġcallbacks": 8842,
      "Ġdaemon": 8843,
      "ĠSim": 8844,
      "Ġguess": 8845,
      "Ġwhole": 8846,
      "hat": 8847,
      "alph": 8848,
      "Stat": 8849,
      "Ġvirtual": 8850,
      "Batch": 8851,
      "ctivity": 8852,
      "Ġgetting": 8853,
      "allenge": 8854,
      "potify": 8855,
      "izations": 8856,
      "gc": 8857,
      "large": 8858,
      "yield": 8859,
      "OPTIONS": 8860,
      "Running": 8861,
      "CD": 8862,
      "()}": 8863,
      "Ġblueprint": 8864,
      "ĠWARRANTY": 8865,
      "ov": 8866,
      "notation": 8867,
      "Accept": 8868,
      "bc": 8869,
      "robot": 8870,
      "Ġintern": 8871,
      "dicts": 8872,
      "Ġface": 8873,
      "drivers": 8874,
      "Ġsqrt": 8875,
      "Ġmagic": 8876,
      "ĠLaborator": 8877,
      "OTE": 8878,
      "Ġagreements": 8879,
      "Ġecho": 8880,
      "copg": 8881,
      "markdown": 8882,
      "Ġdelimiter": 8883,
      "ocs": 8884,
      "Timer": 8885,
      "PROTO": 8886,
      "Ġ(.": 8887,
      "']}": 8888,
      "Ġliter": 8889,
      "MIS": 8890,
      "Ġprops": 8891,
      "Almost": 8892,
      "USERNAME": 8893,
      "ĠFIXME": 8894,
      "FUN": 8895,
      "Keys": 8896,
      "ience": 8897,
      "Ġec": 8898,
      "phi": 8899,
      "Ġtmpdir": 8900,
      "ĠCurrent": 8901,
      "za": 8902,
      "urlencode": 8903,
      "'](": 8904,
      "ĠMet": 8905,
      "Ġshard": 8906,
      "DIRS": 8907,
      "Ġ-----------------------------------------------------------------------------": 8908,
      ",\\": 8909,
      "ticles": 8910,
      "weet": 8911,
      "bio": 8912,
      "Ġslash": 8913,
      "Null": 8914,
      "mgr": 8915,
      "deps": 8916,
      "Ġfore": 8917,
      "Ġsubmit": 8918,
      "presentation": 8919,
      "Creates": 8920,
      "(.": 8921,
      "BB": 8922,
      "Ġclock": 8923,
      "ĠWith": 8924,
      "curacy": 8925,
      "Ġcast": 8926,
      "Enter": 8927,
      "Ġdirs": 8928,
      "Ġflatten": 8929,
      "incip": 8930,
      "Ġam": 8931,
      "Ġrepresented": 8932,
      "checked": 8933,
      "ighted": 8934,
      "Ġcoordinates": 8935,
      "erry": 8936,
      "ellow": 8937,
      "Ġroles": 8938,
      "regions": 8939,
      "measure": 8940,
      "cele": 8941,
      "Ġ(('": 8942,
      "hide": 8943,
      "([('": 8944,
      "ĠRecord": 8945,
      "ĠAsync": 8946,
      "ĠAL": 8947,
      "Ġpaper": 8948,
      "Ġmanifest": 8949,
      "hours": 8950,
      "ganization": 8951,
      "rollback": 8952,
      "Ġ300": 8953,
      "latforms": 8954,
      "Notification": 8955,
      "Ġfilesystem": 8956,
      "Ġlive": 8957,
      "routes": 8958,
      "ailgun": 8959,
      "Ġfiltered": 8960,
      "Card": 8961,
      "Ġpie": 8962,
      "quota": 8963,
      "Ġhorizon": 8964,
      "Namespace": 8965,
      "Edge": 8966,
      "rab": 8967,
      "itation": 8968,
      "ĠMicrosoft": 8969,
      "ĠNAME": 8970,
      "ĠSettings": 8971,
      "Ġcustomize": 8972,
      "Operator": 8973,
      "irtual": 8974,
      "FE": 8975,
      "Mar": 8976,
      "Space": 8977,
      "zA": 8978,
      "upy": 8979,
      "ĠCase": 8980,
      "ĠGE": 8981,
      "LEV": 8982,
      "AttributeError": 8983,
      "Structure": 8984,
      "Ġpm": 8985,
      "72": 8986,
      "imation": 8987,
      "andra": 8988,
      "union": 8989,
      "Chunk": 8990,
      "nonce": 8991,
      "Ġflex": 8992,
      "parame": 8993,
      "Ġstatements": 8994,
      "FromString": 8995,
      "ĠFormat": 8996,
      "58": 8997,
      "three": 8998,
      "Ġlearning": 8999,
      "dialect": 9000,
      "Ġtail": 9001,
      "ĠLocation": 9002,
      "AWS": 9003,
      "uni": 9004,
      "ISING": 9005,
      "AlmostEqual": 9006,
      "Limit": 9007,
      "elif": 9008,
      "Ġartifact": 9009,
      "Lost": 9010,
      "vie": 9011,
      "Ġacross": 9012,
      "altern": 9013,
      "capt": 9014,
      "://%": 9015,
      "ĠREAD": 9016,
      "pointer": 9017,
      "ĠĠĠĠĠĠĠĠĠĠĠĠĠĠĠĠĠĠĠĠĠĠĠĠĠĠĠĠĠĠĠĠĠĠĠĠĠĠĠĠĠĠĠĠĠĠĠĠĠĠ": 9018,
      "numbers": 9019,
      "Ma": 9020,
      "retries": 9021,
      "Ġ[{": 9022,
      "RESULT": 9023,
      "Ġperformance": 9024,
      "oproject": 9025,
      "Ġgeom": 9026,
      "Ġproducts": 9027,
      "Ġopenmdao": 9028,
      "033": 9029,
      "PON": 9030,
      "Ġnative": 9031,
      "QuerySet": 9032,
      "\\\"": 9033,
      "micro": 9034,
      "ĠWHE": 9035,
      "Cursor": 9036,
      "loy": 9037,
      "Ġnotify": 9038,
      "ĠSHALL": 9039,
      "Ġauthenticate": 9040,
      "Ġcuda": 9041,
      "ĠRFC": 9042,
      "locate": 9043,
      "certificate": 9044,
      "Ġtaken": 9045,
      "ĠCategory": 9046,
      "TestBase": 9047,
      "separator": 9048,
      "assandra": 9049,
      "Ġ256": 9050,
      "hub": 9051,
      "Ġ'(": 9052,
      "ĠProperty": 9053,
      "Ġbuilding": 9054,
      "Ġsending": 9055,
      "slave": 9056,
      "vin": 9057,
      "Ġprojects": 9058,
      "ĠLIABLE": 9059,
      "AML": 9060,
      "ky": 9061,
      "tially": 9062,
      "Regexp": 9063,
      "Ġspeed": 9064,
      ":\")": 9065,
      "titions": 9066,
      "ĠTIME": 9067,
      "')).": 9068,
      "xc": 9069,
      "mpp": 9070,
      "Ġresolver": 9071,
      "Ġbounds": 9072,
      "ĠARISING": 9073,
      "reports": 9074,
      "libs": 9075,
      "mitive": 9076,
      "magic": 9077,
      "WRITE": 9078,
      "Ġflash": 9079,
      "Ġdom": 9080,
      "ches": 9081,
      "Ġselector": 9082,
      "Ġfu": 9083,
      "Ġmix": 9084,
      "Ġdoing": 9085,
      "news": 9086,
      "Ġacts": 9087,
      "reporter": 9088,
      "artifact": 9089,
      "INDEX": 9090,
      "doctype": 9091,
      "Ġinstallation": 9092,
      "Linear": 9093,
      "Ġreplacing": 9094,
      "Ġdp": 9095,
      "dicates": 9096,
      "Ġcoming": 9097,
      "ĠShow": 9098,
      "Changed": 9099,
      "Credentials": 9100,
      "Ġconsidered": 9101,
      "Classifier": 9102,
      "RC": 9103,
      "Rest": 9104,
      "ĠCONTRACT": 9105,
      "Ġrenderer": 9106,
      "fora": 9107,
      "Ġminutes": 9108,
      "Ġoverridden": 9109,
      "SP": 9110,
      "alert": 9111,
      "raction": 9112,
      "ĠET": 9113,
      "was": 9114,
      "ĠNon": 9115,
      "termine": 9116,
      "Ġexpires": 9117,
      "ĠExtension": 9118,
      "repos": 9119,
      "Area": 9120,
      "ada": 9121,
      "Ġannotation": 9122,
      "Ġhit": 9123,
      "Ġhaving": 9124,
      "perform": 9125,
      "deprecated": 9126,
      "Ġ=================": 9127,
      "ising": 9128,
      "processes": 9129,
      "pyc": 9130,
      "atory": 9131,
      "erring": 9132,
      "Ġcustomer": 9133,
      "confir": 9134,
      "subset": 9135,
      "?)": 9136,
      "Dest": 9137,
      "sts": 9138,
      "('__": 9139,
      "Ġ([": 9140,
      "strs": 9141,
      "Ġparagraph": 9142,
      "Ġresulting": 9143,
      "Ġurlencode": 9144,
      "isco": 9145,
      "uestion": 9146,
      "Ġradius": 9147,
      "ĠWHETHER": 9148,
      "/*": 9149,
      "Help": 9150,
      "TLS": 9151,
      "obs": 9152,
      "hasattr": 9153,
      "digit": 9154,
      "profiler": 9155,
      "Decorator": 9156,
      "98": 9157,
      ">/": 9158,
      "PACK": 9159,
      "algorithm": 9160,
      "Ġlost": 9161,
      "ĠProfile": 9162,
      "Ġticket": 9163,
      "aneous": 9164,
      "ipy": 9165,
      "Ġprom": 9166,
      "unded": 9167,
      "maker": 9168,
      "OO": 9169,
      "ĠGa": 9170,
      "Identity": 9171,
      "etry": 9172,
      "Ġintegers": 9173,
      "Ġdepends": 9174,
      "tested": 9175,
      "Ġmatched": 9176,
      "Ġtranslate": 9177,
      "evaluate": 9178,
      "Ġcf": 9179,
      "assertDict": 9180,
      "Ġcap": 9181,
      "protocols": 9182,
      "]\\": 9183,
      "tv": 9184,
      "restore": 9185,
      "Shape": 9186,
      "weapon": 9187,
      "AGES": 9188,
      "Summary": 9189,
      "offer": 9190,
      "unnel": 9191,
      "))))": 9192,
      "ĠOb": 9193,
      "readlines": 9194,
      "Ġ31": 9195,
      "tzinfo": 9196,
      "Ġaccepts": 9197,
      "Ġcipher": 9198,
      "ĠStore": 9199,
      "mg": 9200,
      "teardown": 9201,
      "eriv": 9202,
      "Ġfrequency": 9203,
      "Ġoutside": 9204,
      "misc": 9205,
      "Decoder": 9206,
      "riteria": 9207,
      "=\"/": 9208,
      "Ġsoft": 9209,
      "mixin": 9210,
      "vol": 9211,
      "ENABLE": 9212,
      "Objects": 9213,
      "Ġ123": 9214,
      "Ġdetect": 9215,
      "ĠGets": 9216,
      "Pattern": 9217,
      "silon": 9218,
      "buff": 9219,
      "Ġcos": 9220,
      "Ġcompiled": 9221,
      "calculate": 9222,
      "ĠUI": 9223,
      "MEDIA": 9224,
      "HOME": 9225,
      "ranges": 9226,
      "Ġ========": 9227,
      "Ġverbosity": 9228,
      "](": 9229,
      "gre": 9230,
      "Ġtodo": 9231,
      "),(": 9232,
      "Ġbasename": 9233,
      "Ġjs": 9234,
      "charset": 9235,
      "ĠCOMM": 9236,
      "Side": 9237,
      "Zip": 9238,
      "Ġ'\\\\": 9239,
      "Ġnn": 9240,
      "lain": 9241,
      "ĠPAT": 9242,
      "1997": 9243,
      "=\"\",": 9244,
      "Ġregistration": 9245,
      "}/{": 9246,
      "Register": 9247,
      "Ġbel": 9248,
      "izable": 9249,
      "ij": 9250,
      "Ġband": 9251,
      "Ġdates": 9252,
      "ĠRedis": 9253,
      "Xml": 9254,
      "urable": 9255,
      "ĠInte": 9256,
      "ĠINSTALLED": 9257,
      "desk": 9258,
      "DD": 9259,
      "VS": 9260,
      "directories": 9261,
      "Ġcycle": 9262,
      "Repository": 9263,
      "Related": 9264,
      "illow": 9265,
      "theses": 9266,
      "LC": 9267,
      "Lexer": 9268,
      "RGB": 9269,
      "bine": 9270,
      "Ġdx": 9271,
      "health": 9272,
      "Ġextend": 9273,
      "BadRequest": 9274,
      "mpath": 9275,
      "Ġear": 9276,
      "Ġcompleted": 9277,
      "Ġevalu": 9278,
      "splitext": 9279,
      "Ġdep": 9280,
      "Ġissubclass": 9281,
      "dirty": 9282,
      "Ġcompat": 9283,
      "UPPORT": 9284,
      "quit": 9285,
      "ĠSince": 9286,
      "factories": 9287,
      "ĠContainer": 9288,
      "Ġindicates": 9289,
      "ĠStopIteration": 9290,
      "sr": 9291,
      "Ġmemo": 9292,
      "swap": 9293,
      "ĠCONTRIBUT": 9294,
      "djangoproject": 9295,
      "Ġmultiprocessing": 9296,
      "Ġ(_": 9297,
      "Supported": 9298,
      "Ġvisual": 9299,
      "DATABASE": 9300,
      "ypes": 9301,
      "Ġinvoked": 9302,
      "asource": 9303,
      "Ġsin": 9304,
      "nodelist": 9305,
      "Resolver": 9306,
      "Events": 9307,
      "pared": 9308,
      "construct": 9309,
      "))]": 9310,
      "Ġcomparison": 9311,
      "ynomial": 9312,
      "Ġgranted": 9313,
      "inted": 9314,
      "Ġcar": 9315,
      "Ġcalendar": 9316,
      "Route": 9317,
      "Single": 9318,
[...]
