#version: 0.2
> <
p a
pa d
Ġ Ġ
ĠĠ ĠĠ
ĠĠ Ġ
ĠĠĠĠ ĠĠĠ
i n
s e
o r
o n
e r
e n
a t
Ġ t
r e
Ġ =
s t
) <
d e
>< /
ĠĠĠĠ ĠĠĠĠĠĠĠ
Ġ a
Ġ i
l e
: <
a l
r o
m p
l f
se lf
i on
r a
h e
u t
Ġ f
i t
m e
Ġ c
Ġ "
a r
, <
c t
- -
g e
l o
Ġ re
c e
Ġ in
Ġ n
d i
or t
in g
ĠĠĠĠ ĠĠĠĠ
Ġ self
Ġ s
c h
l a
u r
s s
mp ort
e d
en t
Ġ p
Ġ o
e x
a n
Ġt he
) :<
t h
Ġ m
de f
" "
p e
o de
Ġ b
Ġ w
u n
Ġ #
i g
ro m
u e
l i
a d
. <
i d
at e
ur n
Ġ (
t urn
_ _
c k
o t
st r
m a
i z
Ġi mport
p t
Ġi f
on e
ĠĠĠĠ ĠĠĠĠĠĠĠĠĠĠĠ
at a
u l
= =
Ġt o
-- --
f rom
Ġf or
a me
se r
e l
u m
Ġ def
i l
Ġre turn
Ġ '
Ġ d
Ġ N
c o
ex t
ode l
Ġ T
ge t
Ġi s
c on
Ġa s
in t
p ut
a s
Ġ pa
se t
g s
Ġa n
( )<
] <
Ġ" ""
at ion
o l
v al
# #
i c
Ġ -
y pe
i s
er s
ra n
t o
or m
> #
iz e
i le
u p
i mport
" <
e s
h t
Ġ 1
( "
ĠN one
or ch
p o
Ġ [
Ġ C
Ġc on
e t
Ġ A
ul t
Ġo f
e st
en s
( )
Ġ e
Ġ di
n ame
o d
( <
k e
q u
" ,
it h
Ġ lo
Ġ g
p p
ct ion
Ġ h
t er
Ġ l
v i
en d
v er
la ss
d ata
Ġ S
v e
Ġan d
Ġ *
Ġ st
b le
pa th
f ig
" )<
p ro
Ġt h
Ġ L
r i
== ==
Ġ 0
Ġt orch
p y
t ext
ĠĠĠĠĠĠĠĠ ĠĠĠĠĠĠĠĠ
s ize
Ġn ot
Ġ""" <
pt ion
Ġ P
---- ----
e m
' ,
Ġ +
ig ht
Ġ I
re s
. _
c he
m odel
Ġ {
Ġ= =
a ge
in e
mp le
Ġ ex
ser t
o ut
i me
f orm
ar gs
c a
Ġ str
r or
Ġ 2
ra m
m ent
Ġ de
u s
Ġ F
Ġ _
t ype
al l
c lass
r ue
/ /
a se
t a
. .
) )<
Ġc o
d er
f f
i st
Ġ me
ra in
Ġ D
Ġw ith
Ġp ro
at t
s h
li st
d o
e p
in it
Ġ R
## ##
ke y
0 0
Ġm a
val ue
Ġ- >
Ġ se
pa r
Ġ )<
k en
ens or
Ġas sert
i m
an d
p re
Ġd ata
or e
Ġ <
u se
d ing
Ġ x
Ġb e
" ,<
g g
i f
u le
Ġre s
Ġ O
f ile
" :
ma ge
Ġ or
Ġ r
r int
at ch
l l
Ġ get
Ġ la
ran s
e ct
ĠĠĠĠĠĠĠĠ ĠĠĠĠĠĠĠĠĠĠĠ
q ue
Ġm odel
) ,<
e w
[ "
Ġa r
ra me
Ġ :
"" "<
di r
al se
a ck
" ]
el se
u re
Ġo ut
ce ss
Ġ M
l en
Ġ __
) .
a pp
di ct
Ġ else
Ġ `
mp t
E r
p er
o s
or d
a mple
l y
Er ror
od ule
Ġf rom
( '
en se
s c
an ce
) ,
i se
con fig
a ble
Ġt est
ar t
] ,
en ce
b j
Ġ v
la y
r y
Ġo s
Ġ B
i p
a m
a ult
a pe
Ġn um
t ime
Ġp rint
w a
f o
==== ====
ut il
or y
b ed
n um
ar d
u b
t rain
__ (
Ġpa r
h o
T rue
n el
de x
al le
iz er
= "
que st
C on
he ad
I N
Ġf ile
di m
Ġ un
o p
b ut
c ode
lo ad
Ġ on
O N
Ġ y
i x
as k
[ '
Ġ use
3 2
st ate
pa ram
Ġ E
y n
t e
Ġl en
Ġn p
lo ck
s o
i al
Ġ W
um ent
t est
Ġi t
-------- --------
en er
y s
s k
b o
in put
p s
Ġ j
Ġ en
Ġp re
~ ~
Ġin put
p l
Ġw h
p on
ic ense
d a
co m
vi ce
de d
l ine
Ġ U
p i
rans form
th on
it ion
( ):<
Ġc h
b u
Ġp y
ss age
at or
Ġ ra
gg er
Ġ G
' )<
Ġd o
Ġin t
} <
re ad
Ġout put
Ġs o
st ance
ers ion
b el
app end
u ser
r on
s on
lo at
th od
' <
ce pt
Ġb y
Ġ ran
Ġn ame
Ġth at
E R
i r
un ction
N one
g th
ĠT he
' ]
e ight
Ġ >
ce s
pon se
a ve
Ġ k
ĠL icense
Ġ list
Ġ 3
out put
k ens
li c
lo w
E N
Ġt ype
o ol
O R
po int
Ġar gs
alle l
Ġth is
t r
sh ape
Ġ %
un d
Ġ value
to ken
#### ####
ad d
w ard
m o
t orch
po s
yn c
util s
e at
) :
r it
I n
Ġ V
ption al
pe c
str i
Ġ set
Ġcon fig
er ror
it y
ar get
j o
Ġt ime
an t
bj ect
a g
b ack
re ct
wa it
u st
c l
ma sk
() .
n t
ĠC o
data set
Ġ ro
ma x
id s
g ra
b s
a ct
f t
t ent
i v
b ase
w args
n g
id d
A T
ĠR e
ht t
= '
i ve
in fo
t ensor
re d
. """<
o k
se s
Ġres ult
Ġ @
Ġ /
lo g
o w
ĠT rue
` `
f g
F alse
g ument
il l
ĠF alse
at h
n n
pl it
un t
ut e
Ġt ext
idd en
an nel
Ġs h
Ġa l
mp l
] )<
Ġra ise
do w
Ġa re
er y
v ent
" )
R e
b er
bed ding
E S
u mp
ro up
qu i
r ight
he ck
stri but
ĠI n
or k
ur l
pro cess
: //
' :
in al
' ,<
st ep
Ġ key
* *
.. .
Ġs up
Ġex cept
Ġw in
ur r
in dex
Ġ* *
ul d
Ġma x
Ġ .
n ing
len gth
Ġ H
i mage
S E
up le
at ed
n orm
Ġi mage
o u
re ate
co l
e c
Ġdef ault
val id
ion s
ig n
il d
f or
lo c
Ġpa ge
k wargs
g ment
qu ery
p h
Ġa wait
Ġ att
f er
[ :
Ġ[ ]<
ation s
m at
Ġn n
ca le
ur ce
n e
h is
ce ption
Ġt ry
c u
par allel
a i
( [
gg ing
lo b
a v
p en
ar y
li b
che d
s w
jo in
Ġdi ct
Ġto ken
0 2
d s
pe ct
pa t
b atch
p ort
d ate
Ġa ll
m m
st art
] .
res ult
Ġdi m
Ġcon text
Ġ( <
w eight
w ord
form at
th er
Ġw e
n d
i o
ĠO ptional
ĠĠĠĠĠĠĠĠ ĠĠĠĠĠĠĠĠĠĠĠĠĠĠĠ
Ġ` `
Ġt rain
i ct
un c
Ġ 4
co der
Ġa pp
L o
ra y
la ble
urr ent
Ġpa th
I T
m odule
i el
in stance
// //
stribut ed
R E
g at
Ġn ew
Ġa d
Ġ le
m b
er e
i es
S T
me thod
in d
re e
con text
to kens
ma in
Ġlo g
Ġs ys
Ġb u
ser ver
it em
] ,<
D E
un k
Ġs c
># <
Ġc ol
y thon
ch annel
y p
s ample
de vice
c fg
e val
Ġc an
lay er
y le
lo ss
do m
en ame
che ck
======== ========
ro p
a c
p la
ump y
le ct
f ix
li ent
l er
m l
ff er
Ġp o
S t
Ġdata set
1 2
vi de
f il
s ses
py right
Ġ K
s plit
t ers
Ġun der
it s
r un
ĠC on
Ġ+ =
Ġf unction
Ġst ate
pt im
ra ct
ro w
pro mpt
Ġn e
re am
Ġc heck
f rame
Ġl ine
ĠT his
gat ron
li f
Ġn o
id x
en v
Ġc lass
f loat
ta in
se d
m in
Ġran ge
a b
Ġ at
~~ ~~
Ġc a
Ġlo ad
P ro
L E
n y
Ġres ponse
A R
Ġt e
I D
I C
Ġpro mpt
rit e
. __
l in
Ġb ool
la bel
D ata
att r
A S
ent ion
Ġst art
Ġh as
t ro
co unt
o m
Ġs pec
I ON
f eat
Ġco mp
M odel
al ue
T ype
ĠĠĠĠ Ġ
lob al
j son
T ensor
fer ence
Ġc ode
ĠU n
ĠS e
htt ps
Ġsup er
param s
Ġpa ram
Ġt ensor
1 6
E x
i as
gra d
Ġ[ <
per t
Ġs ho
ĠCo pyright
b lock
t ransform
w in
u res
an g
A N
qu ence
Ġe lif
Ġis instance
Ġt arget
ar ray
l at
f a
v el
() )<
v ersion
iel d
ĠA r
Ġ 5
Ġb atch
A L
channel s
" ]<
g roup
ut o
" :<
cu da
ut h
> >
c or
ss ion
Ġme ssage
Ġ{ <
z er
Ġi d
ĠĠĠĠĠĠĠĠĠĠĠĠĠĠĠĠ ĠĠĠĠĠĠĠĠĠĠĠĠĠĠĠĠ
Ġw ill
ption s
Ġe m
ĠE x
n ot
sc ri
u ct
Ġm o
t ri
w w
ver t
n et
Ġre qui
ĠL ist
a pi
Ġin it
Ġ he
Ġp os
ic s
Ġg ener
m s
ck et
all y
Ġ |
Ġlo ss
e f
int er
Con fig
Ġr un
ĠRe turn
Ġlo gger
ot al
id th
t ra
Ġm odule
Ġ user
Ġt yp
Ġla bel
a ch
ran k
a k
l d
vi ew
] :<
Ġj son
Ġstr ing
Ġ up
er nel
con tent
i de
u al
6 4
me ssage
Ġs ample
Ġre quest
p u
n s
ir st
A M
> """<
is ion
em bedding
i ch
Ġin dex
u age
co mp
U T
P I
m it
m ar
se nt
---------------- ----------------
l s
n ew
Ġde vice
rame ters
def ault
' s
g n
st at
' ]<
j ect
Ġa c
Ġf il
Ġi m
Ġs ub
Ġo bject
Ġpa ss
c all
n o
o und
pa ce
w ork
par se
ction s
> @
Ġtyp ing
Ġuse d
Ġm ask
Ġp er
P T
and ler
la sses
Ġ \
ar i
M odule
it er
n p
y er
and le
str ing
v ed
c ore
( (
gment s
######## ########
b y
Ġme gatron
Ġo pen
s p
ma p
ar ning
' )
Ġf loat
ĠĠĠĠ ĠĠ
f unc
Ġh idden
as sert
ĠAr gs
ĠA ny
Ġt ransform
pla ce
if i
Ġma y
Ġas ync
Ġb lock
ar gument
Ġad d
C o
Ġn umpy
Ġsho uld
t arget
1 0
Ġ error
st em
ĠI f
Ġin ter
if ic
Ġlo gging
con v
v id
h idden
T o
e y
ca che
n ode
state s
Ġs ize
di o
us ion
vide o
p rint
Ġ li
l p
> )<
g ram
ad er
Ġb ase
Ġ q
Ġ qu
l t
pe line
mpl ate
] )
Ġg ra
w ith
d b
Ġ !
Ġ[ "
Ġ ext
Ġy ou
Ġb ack
com m
rect ory
Ġpar ser
t rans
Ġ end
ol d
u de
Ġt ra
lo gger
re g
ĠReturn s
do c
C H
o bj
a u
mple ment
sw er
y stem
Ġme thod
train ed
c at
g ener
iz ed
a in
ptim izer
co ding
a f
cl s
ĠV alue
Ġn orm
c al
t he
} ")<
IN G
ar g
t in
Ġ! =
c ur
) )
htt p
ar ch
Ġ head
Ġw ord
as ync
g re
ut ion
t s
02 4
im g
Ġfor ward
res ponse
ng uage
Ġ z
Ġ us
step s
so le
s cale
t es
Ġ> >>
t ask
R O
[: ,
A G
Ġwh ich
F I
vi ron
bu g
d f
re quest
ro po
Ġim g
w rite
á ´
' t
or s
pat ch
Ġv ersion
ropo ut
Ġm at
Ġf eat
Ġs u
Ġc all
Ġ ...
qu al
em bed
ul l
S e
ran ge
L M
R es
ad ata
pos ition
il s
x is
L T
Ġdo c
.. /
lo se
Ġ server
on g
che s
Ġw eight
) .<
tro l
op en
s ub
or g
Ġc urrent
c y
p r
di ces
s um
Ġnum ber
" .
c lasses
check point
Ġto kens
n er
i ss
model s
po se
I M
ai lable
w e
t x
po ch
m ode
Ġa ct
b in
lic ense
Ġdi stributed
Ġpro cess
Ġ pad
Ġp i
py thon
[ -
c ri
Ġc or
P E
ul er
Data set
res h
s ave
ĠS t
ĠD ict
mb da
v o
P ython
Ġo ther
L O
Ġ one
ist er
iv en
st er
Ġr ight
mple t
u g
Ġf rame
Ġ[ '
Ġst ep
Ġwh en
f unction
Ġ{ }
() ,
an ag
o us
ĠValue Error
Ġ }<
me an
Ġ )
Ġn ode
N ame
Ġm in
A D
or ld
s pec
an ge
la ma
(). __
re turn
od y
ff usion
//// ////
o ver
Ġh ave
Ġco mm
T est
Ġe ach
Ġon ly
or es
le ment
ig inal
ht ml
o ff
Ġ query
Ġb ut
anag er
ĠP ro
Ġd type
pa che
o bject
Ġ Q
00 0
vid er
I S
Ġe val
it le
ro und
fil ename
bo x
iz ation
G et
Ġresult s
key s
Ġc reate
a mpl
loc al
Ġco py
ri x
EN SE
a ke
Ġl in
] [
t ing
d type
Ġ valid
row ser
Ġt ask
d m
c li
t on
m ory
IC ENSE
" {
to ol
A C
pa ge
. ")<
Ġ ]<
o c
de v
result s
se ed
ot e
Ġran dom
ist s
Ġtoken izer
... ,
at er
= {
name s
pre fix
lay ers
quest ion
Ġit em
Ġfor mat
ult i
n ow
st d
; <
t adata
> _
Ġm atch
ing le
mar k
\ \
r c
pect ed
Ġ ..
w idth
Ġpar t
a st
v ar
Ġem bedding
Ġe vent
Ġw ork
se q
5 0
str uct
Ġt otal
ar ded
Ġg iven
c lient
st ant
Ġpa t
Ġg roup
c urrent
it e
E M
ch unk
q dm
re ak
ur ation
Ġan y
"" "
p th
' :<
b ias
la st
Ġpy test
u ate
e vent
ig h
ra pp
Ġ Y
ari able
c ord
head s
ĠĠĠĠĠĠĠĠĠĠĠĠĠĠĠĠ ĠĠĠĠĠĠĠĠ
dow n
ched uler
ne ction
ex er
rame ter
Ġ\ <
Ġ url
ca b
Ġf irst
D ict
Ġar g
Ġar gument
P a
b ar
Ġt uple
ist ory
att ention
alle d
ial ize
item s
Ġ{ }<
M e
P ar
0 1
Ġrequi red
L ine
ent s
Ġ 8
= (
end er
Ġla st
tr ing
up date
D I
f act
Ġs cale
ef ault
ro ot
ll m
token izer
mpt y
Ġm ust
lin es
Ġvalue s
Ġi ter
al lable
g lobal
Ġto p
Ġcon tent
__ ()<
o f
mo ve
le vel
ser ved
to p
ĠA ll
Ġsh ape
ta ble
' .
F A
Ġth read
s u
lo t
Ġbu ild
L ist
f n
Ġfil ename
Ġpos ition
Ġse nt
ust om
Ġus ing
type s
Ġla yer
a re
Ġ https
p us
ĠP ython
ut ure
Ġ J
Ġso urce
Ġatt ention
b e
value s
U LT
at ure
if y
fa ce
str ip
train ing
bu ffer
r id
Ġre ad
di st
con d
Ġla nguage
Ġte mp
C O
= [
z e
o uld
ĠEx ception
ol der
O T
ex ec
scri ption
st yle
um n
ate g
o urce
ens ion
r t
ra w
" ):<
er ver
ĠSe e
u ce
lt k
pert y
wa re
po st
Ġcon tain
o ur
"] )<
ĠP ath
u ation
Ġo ver
l r
zer o
Ġs ave
weight s
col or
e ad
en coder
ran dom
o b
Ġch unk
ĠP y
w n
ro ss
Ġy ield
ĠD ata
Ġlen gth
Ġ //
Ġin st
> )
ĠF or
embedding s
ww w
F ile
ut f
Ġin stance
Ġcon v
Ġse e
5 6
Ġc fg
Ġs k
s ys
Ġtrain ing
Ġsup port
Ġb o
Ġwh ile
L exer
Ġ" <
cl ude
Ġf ound
" ),<
C ON
le ase
t ry
pre trained
Ġso ft
ĠM odel
Ġhe lp
c re
i ce
ĠL o
g ic
= -
D e
Ġ{ "
ot ion
an s
di stributed
Ġ( "
re place
w h
~~~~ ~~~~
d d
al o
================ ================
Ġf in
B ase
Ġ val
Ġen um
A B
H O
T O
st ream
Ġdi rectory
i ble
( -
tr ics
norm al
Ġdo es
c pu
att n
re q
c v
et a
but e
ol ution
feat ures
lic y
v ision
L a
er t
N et
Ġc ls
sc ore
- <
ĠT est
ĠUn ion
de bug
le ss
o pt
c s
s or
C h
so urce
Ġin s
zer os
a ction
load er
T ext
] ]
le x
label s
u i
u me
co py
Ġlabel s
D i
se lect
ic ro
c lose
pp ing
Ġg lobal
ĠK ey
Ġre served
sample s
s q
** **
ate s
Ġ ):<
Ġo b
Ġw rit
A r
Ġa ss
D O
ĠD efault
Ġright s
pa ck
le s
Ġst ream
ran d
win dow
S I
re ss
[ ...,
Ġt rans
ise s
Ġne ed
ult ip
To ken
u dio
Ġ 6
off set
th read
ke ep
m atch
E C
l m
Ġt qdm
c ul
Ġre g
g ent
Ġin to
S et
point s
Ġpy thon
E qual
c reate
s pace
in s
Ġk ernel
d ent
Ġex ec
o ptions
E D
Ġinput s
( *
b ody
Ġli mit
Ġ ent
Ġse quence
le an
back end
} "<
Ġex pre
Ġparam s
Ġ1 2
Line ar
transform er
so ft
em b
E X
H T
U n
Ġspec ific
Ġst yle
module s
I L
he ll
ith er
Ġf la
ĠT uple
ĠI Python
cri pt
} ,<
Ġid x
Ġma in
te mplate
c cess
fil ter
sp lay
m y
e poch
ol low
Ġma ke
ch o
ro t
Ġ" /
Ġ' ../
int s
Ġ http
Ġa ction
A t
N orm
par t
Ġ1 0
en o
FA ULT
g pt
at io
Ġn on
T he
n al
Ġm ode
DI R
f la
Ġs plit
Ġro t
ater n
ile d
par ser
input s
ĠG ener
reg ister
ed ge
Ġch annel
f ind
ĠN ame
1 00
ge x
for ward
en viron
() ,<
file s
er ate
h as
q a
_ (
_ /
sc ores
pro perty
in dices
di s
lic ation
eval uate
E T
a bs
ifi ed
ut put
ent ial
pre d
Ġb ias
un ct
stat us
2 0
ex ists
pro b
m d
te mp
il ity
Ġwin dow
( __
ith ub
ve ct
l ta
assert Equal
ĠĠĠĠĠĠĠĠĠĠĠĠĠĠĠĠ ĠĠĠĠĠĠĠĠĠĠĠ
ta ch
M O
Ġen coding
L I
n umpy
Ġof f
ĠS et
AT ION
tin ue
que ue
Ġfile s
Ġm m
U R
et un
form ation
Ġso me
c ent
Ġe ither
ĠI S
F orm
ver y
n ect
Ġi mplement
I O
Ġb reak
Ġran k
Ġa xis
Ġal low
d rop
Ġdoc ument
A PI
um ber
P re
g ithub
Ġi gn
s g
Ġd ate
st ack
et ch
Ġco unt
AG E
m iss
de code
k ernel
bo ol
sw ith
tx t
ransform er
' ),<
i ces
at ing
Ġf a
ĠB ase
ta g
EN T
h andler
F or
ĠP age
ĠI mage
Ġex ample
Ex ception
w orld
sh ould
Ġpar allel
ĠG et
dataset s
R AN
at ter
Ġo ptional
Ġapp li
d ropout
"] ,<
Ġt er
Ġasync io
o bs
it ies
Ġs ystem
Ġpy gments
ra p
word s
Ġa b
Ġa v
li p
pe ed
Ġgener ate
f ore
Ġto ol
ĠA N
Ġdi s
re qui
Ġs ame
av ailable
Ġmo ck
ĠY ou
Ġ2 00
Con text
Ġcheck point
ched ule
ĠW e
Ġ" __
b one
) ))<
9 9
w o
Ġi mp
Ġor iginal
a mp
} ,
co gn
Ġst at
Ġex pected
w ise
an swer
lo op
Y PE
Ġp ip
Ġm ath
ment s
T e
g en
re f
if t
ĠO R
ä ¸
po p
pro j
Ġb et
Ġimage s
f i
E n
Ġsoft ware
ms g
Ġro w
h andle
ĠC ON
Ġh andle
P OR
p end
le d
mple te
Ġro ot
5 5
a p
Ġla mbda
Ġn ltk
Ġ> =
AM E
ï ¼
Ġpa rameters
gra ph
) ]<
f ter
Ġw idth
frame s
se arch
al cul
ĠV ersion
pa rameters
Ġatt n
que e
a ded
Ġsent ence
se quence
p lot
en code
Ġca che
Ġt r
" ).
l u
ĠT ext
Ġlo cal
ed it
B u
Ġc ase
ĠĠĠĠĠĠĠĠ Ġ
m er
r ate
Ġo ptimizer
ifi er
4 0
Ġc ur
ĠA pache
quee ze
} .
le ction
1 1
Ġtransform ers
ĠN ot
Ġst d
rapp er
a x
Ġn ext
ca pe
uth or
I G
st ract
Ġ video
Ġ" \
Ġpat ch
ĠW h
( {
l ation
Ġf ollow
Ġ' .
Ġnorm al
u ction
P ath
un ter
8 0
M L
ic al
s queeze
U N
Ġ --
ĠC h
ĠM o
Ġpar se
Ġdo wn
P O
T I
} \
Ġ 7
AT A
Ġlin es
ma ke
bo ok
mplet ion
Ġfor m
Ġre t
ho ok
er ature
Ġde ta
IT ION
k it
ot o
ter n
Ġenum erate
Ġco m
me mory
ath er
P U
ĠS tring
__ (<
scri pt
f inal
me ta
Ġpad ding
ĠA PI
Ġex ist
" ))<
S D
ĠA t
low er
ex ample
sh ot
ĠS erver
ĠD i
log its
lat form
T P
Ġ keep
le ar
Ġo ptions
i mple
E Y
} )<
ĠC allable
process ing
T R
b ot
I mage
Ġpre fix
P i
m anager
Ġin formation
th ing
Ġmessage s
' '
T H
ĠO F
block s
ampl er
g ine
g er
s ync
t itle
t otal
ar k
Ġrequest s
L U
in ference
ting s
a y
dir s
fact or
ĠL ICENSE
image s
t uple
ma il
Ġcol or
Ġexpre ss
A I
by tes
Ġins pect
to k
mat rix
Pro cess
################ ################
di v
Ġcon tinue
use d
Ġkey s
P RO
Ġl at
ĠD e
Ġan swer
Ġ ),<
i b
Ġo bj
: `
k v
l ight
Ġk wargs
en cy
Ġign ore
. "<
> """
N ot
ers ation
ĠS h
he ight
Ġen v
Ġcor rect
P RE
V alue
pre sent
ES T
Ġs um
Ġw as
arning s
Ġcomm and
ge d
Ġm ore
Ġ1 00
group s
ype s
num ber
r atio
v a
Ġf ind
Ġdi st
Ġh o
Ġmodel s
pro vider
Ġ< =
IN D
pi peline
` .<
Ġc lient
u d
Ġin fo
in dow
Ġob tain
Ġget attr
Ġinit ial
K ey
Ġa fter
Ġm sg
is ode
Ġv o
Ġ'../ _
Ġlog its
) ):<
Ġ( '
Ġarg parse
Ġ 32
li ed
K EN
Ġbe fore
C a
C ol
a xis
on t
me tadata
par ent
ĠW AR
resh ape
ĠT o
der r
ex ception
t ree
en c
en ch
at alo
> ]<
la mbda
Ġe lement
e mpty
Ġi p
tri e
l lama
ĠR es
ĠT ype
a ract
ĠO pen
ro ute
Ġ" "<
le te
M A
Ġwh ere
Ġwrit ing
H andler
ultip le
or der
Me ssage
on ly
Ġpa ck
ort ed
ĠĠĠĠĠĠĠĠ ĠĠĠĠ
L icense
ul ar
ext ra
C T
K EY
ra ises
ph a
Ġgra d
gener ate
Ġin clude
( _
ch ar
ĠC heck
ĠAN Y
ch ain
Ġth en
it es
Ġlo op
Ġch ange
Ġor der
Ġup date
py dev
as on
Ġ2 02
Ġatt ri
Ġdate time
n ext
ĠP a
Ġ1 6
(" --
comm on
g round
in ed
en e
Ġv ariable
stant s
ĠN umber
viron ment
a uto
pa nd
Ġstr ide
u ous
con nection
miss ions
Ar gument
st ore
li ke
ol ver
iv ation
loc ation
Ġem bed
Ġoff set
. ,
Ġoutput s
M ix
m q
ĠC reate
ca y
"] ["
able d
re pr
ch at
ter m
iel ds
now n
Ġcon vert
ĠLicense d
St ate
Ġrequi res
Ġlimit ations
d ition
f ul
ca ble
us h
embed s
L S
Ġpo st
g o
g oto
Ġit s
ĠWAR RAN
Ġc ho
fo o
Ġword s
ens ure
Ġappli cable
u ff
Ġargument s
u id
or n
Ġt a
Ġs ingle
ĠI mport
Ġweight s
f older
path s
stat ic
Ġspec ified
ĠW IT
Ġname s
TI ES
T rain
Ġpro b
V ID
T his
Ġt ag
Ġa gre
Ġb rowser
el l
read y
F F
f low
o ptimizer
) [
v is
f irst
ĠT e
ĠWARRAN TIES
age s
Ġla w
Ġper missions
vect or
N AME
P Y
m an
Ġg over
Ġhe ight
Ġex c
e ed
s rc
di rect
vo cab
Ġth an
ER S
comm and
P o
Ġm an
O utput
L ICENSE
Ġb in
ction ary
lo gging
Par ser
Ġme trics
HO UT
b i
Con v
bu ild
ĠWIT HOUT
Ġme tadata
li ance
ĠA uto
Ġfil ter
' ):<
ĠK IND
ra g
Ġ mp
). __
license s
á »
Ġt ree
ĠD E
//////// ////////
I mplement
x y
' \
ic ode
Ġra w
Ġimp lied
atalo ader
E m
'] )<
Ġcomp liance
` <
a pache
s ing
} )
ĠB AS
ITION S
I A
ĠĠĠĠĠĠĠĠ ĠĠ
__ ":<
"] ,
ĠCON D
ex it
vi ded
ĠUn less
Ġagre ed
st op
line ar
im um
Ġgover ning
ĠBAS IS
ĠCOND ITIONS
ck er
Ġh ere
le t
au dio
Ġav ailable
Ġ" .
gre ss
f c
Ġd f
so cket
per ator
ļ Ħ
Ġc tx
time out
Ġtype s
ç ļĦ
pre c
ool s
Ġin dices
Ġ= >
Ġre present
tra ce
_ {
de pth
ĠL a
Ġtime out
Ġext ra
H ead
ex pert
") ;<
z y
"] .
Ġsc ore
Ġfeat ure
Token izer
E vent
Ġa uto
Ġ ver
Ġme an
Ġtest s
soft max
Ġth ere
-------- ----
Ġex ception
f p
Ġa udio
Ġse lect
ho st
ag ent
Ġre cord
g pu
ar m
C lient
trans pose
Ġt wo
st amp
ri ch
Ġcomp ute
f uture
t mp
Ġcon sole
ites pace
h istory
Ġ license
Ġle vel
Ġc alled
Ġ u
Ġf unc
R L
} /
std out
er r
-------------------------------- --------------------------------
a it
F O
Ġme mory
we en
dir name
G ener
g t
MO DE
d ot
f l
vi ous
en coding
VID IA
ĠT ool
ver age
Ġ 64
f in
ĠM e
an k
py test
ro le
he ther
U S
de scription
la n
TO KEN
at ches
ig ma
Ġmat rix
Mix in
2 4
ĠC OR
In ter
Ġdeta ils
L L
Ġli ke
Ġ' #
ep s
bo se
ir s
AT E
Ġsample s
call back
B lock
Ġw arnings
static method
F rame
re ction
Ġo ld
Ġw rite
Ġembedding s
(" \
ĠCo mp
pa n
K ING
T h
i e
pt er
i k
" \
le ctions
Ġre d
con t
Ġla y
3 3
d ump
f ull
g rid
Re quest
D ATA
Ġre ference
t ils
comp ile
up port
message s
p lay
ĠI t
o g
Ġse q
but es
Implement ed
in f
it ude
Ġj ust
ig uous
'] .
or age
pro ject
Ġte am
ampl ing
s chedule
ĠN VIDIA
ĠT ensor
ff ix
Lo ader
Ġdi ffer
Ġqu atern
w d
le ep
Ġs ign
ver se
Ġfollow ing
1 4
start swith
cor rect
Ġbase d
cur sor
' ],
w er
le ft
Ġdi splay
or a
Ġf ull
class method
ck le
3 0
i str
s ign
con nect
ĠCon fig
Pro mpt
Ġ &
app ly
bo ard
Ġen coder
Ġno qa
ca use
C lass
us al
Ġch ild
Ġpo int
Ġhas attr
FI X
resh old
ĠP re
cu ra
00 00
La yer
loc ator
Ġbu ffer
Ġchannel s
Ġ vi
Ġby tes
ĠCOR POR
A pp
ĠCORPOR ATION
m od
__ )<
ĠCo m
3 4
W OR
Ġ X
Ġmm cv
n on
di fi
Ġm ulti
one s
ĠN ote
ign ment
ĠNot Implemented
nd array
de lta
5 12
: :
la p
M o
u gging
att en
Ġfeat ures
P L
un squeeze
as set
Ġg t
ge st
Ġ question
pa re
Ġ2 0
function al
Ġde scription
Ġbet ween
ct x
ens ions
feat ure
ra ry
Ġma gic
< /
po licy
Pi peline
c an
m all
re move
ĠT O
IN T
Ġmodule s
Ġd on
Ġa x
re ward
ad o
O bject
con ds
Ġf inal
p ol
Ġpro vided
ĠB SD
act ive
Ġ ],<
Ġc lo
init ial
A ny
(" /
Ġl r
cogn izer
e ff
s im
Ġc re
con trol
is h
bu il
var s
U M
s ystem
t y
pa ss
Ġc alcul
In fo
Lo gger
m t
se g
Ġe ps
ĠR et
Ġbe en
tent ion
Ġt able
as ic
in st
ac c
sent ence
Ġw orld
Ġatt r
DE FAULT
af e
] :
t rue
CH EC
ram s
Ġal so
Ġtra ce
ĉ ĉ
i que
Ġpa rameter
ol ve
C heck
c lo
ĠL LM
ĠH T
Ġapp ly
Ġpi peline
Ġ utils
I t
Ð °
or ies
S S
i an
pl at
------------ -<
or iginal
um my
comp ute
cura cy
Ġs in
ca st
Ġso cket
stribut ion
Ġ zero
Ġ $
Ġ 9
Ġa pi
Ġg o
la nguage
ĠT h
Re turn
av ed
ï¼ Į
ĠI D
1 7
di ffusion
ad a
o se
t ect
ma gic
av g
P y
R un
o ther
he s
ĠP ar
Ġch aract
4 8
ĠU RL
m ary
di rectory
Ġs im
ex cept
se ssion
Ġre f
Ġse ssion
it test
Ġs q
Ġen vironment
cli p
A P
b it
o ptim
Ġi o
co pe
ĠI ter
Ġcol lections
Ġvo cab
C ode
a ce
Ġ Z
ri es
PRE FIX
' ))<
ar n
Ġse arch
Ġy our
ĠNotImplemented Error
2 5
Z E
T ime
he d
Ġbu il
Ġz ip
w right
ang le
ve c
Ġext ract
1 5
ĠIn it
g in
con sole
ĠO n
t en
Ġd rop
ĠA pp
en gine
st derr
un ch
co ord
rit er
Res ponse
Ġsk ip
F ound
at ive
de cay
ces sed
Ġ' <
EX T
ĠImport Error
" ),
B U
T uple
Ġo bs
po ol
doc ument
Te mp
iter al
tool s
S h
Ġf ield
Ġpro d
red uce
work ers
i li
v ant
Ġp s
Ġdi r
2 024
P AT
but ton
lin k
Ġrun ning
l ong
o le
c ation
pe at
r u
Ġreturn s
Ġan not
cli ck
---------------------------------------------------------------- -------------<
] +
Ġo pt
ĠKey word
v en
orn ado
Ġs rc
Ġconfig uration
Ġ2 024
Ġfunction s
Ġmp u
: \
IG HT
S tring
di ent
ĠA dd
Ġte mplate
S ize
ĠT ransformer
Ġdi ff
backend s
plat form
sk ip
Ġ lib
li mit
and l
( ?
S o
im gs
y m
dim s
Ġwith out
b its
ro py
co s
Ġe poch
(' --
Ġv ar
wa ys
Ġre place
In it
ĠC ol
C reate
N o
Ġw ant
ĠF ile
**** ****
r en
me d
il ar
Ġal ready
g ame
ce ll
Ġs orted
Ġset up
sq rt
se nd
de coder
ser v
Ġstr uct
tr ic
or ed
etun ing
1 8
s sed
qu ential
V i
ĠĠĠĠĠĠĠĠĠĠĠĠĠĠĠĠ ĠĠĠĠĠĠ
ition al
Ġde code
Ġtemp erature
{ }
Ġo ption
ck pt
a ss
Ġc ustom
re cord
Ġ{ '
ml p
Ġ },<
le g
Ġm ultiple
cont iguous
Ġf l
Ġl lm
ur ing
Ġpar ent
[: -
la va
inter nal
au ss
ce ler
Ġn et
re en
di c
Ġp ri
ĠR un
ench mark
l ate
ri pt
do main
s cheduler
ch ange
Ġsc ript
n ake
en u
Ġp d
ding s
Ġar ray
H E
Ġre move
pla n
a uth
Ġ edge
M anager
mo ck
CHEC KING
s d
ex p
Ġd ropout
Ġt itle
Ġr ender
Ġpre d
ES S
Ġp lay
S cheduler
id get
Ġst op
att ri
r ender
ð Ŀ
col umn
difi ed
Q ue
de sc
to col
Ġdi rect
ĠU tils
ang les
w rap
Ġt im
ĠT YPE
Ġde pth
ol s
stract method
Form atter
1 3
i i
7 6
h er
Ġcon trol
Ġdi ctionary
Ġse ed
Ġen code
Ġ ensure
Ġthe m
tensor s
ĠCom ment
o ption
` ,
Ġp ort
igh b
Ġdiffer ent
co mplete
Ġh istory
ĠG PT
a red
me trics
Ġh andler
O P
V AL
it ive
Ġan g
Ġbe cause
Ġpre trained
Ġbo x
c ustom
ut able
u x
me sh
ch ild
Ġt f
ur al
Ġg pt
head ers
Ġobject s
Ġe mpty
tri bute
Ġlay ers
r l
D oc
la b
Ġp la
Ġ" ,
el y
Ġpo ss
ign ore
Ġinst all
Ġcon s
unct ools
MODE L
al f
ĠC O
h a
pro bs
) ).
B y
i python
has h
ase s
"] [
load s
cs v
E P
Ġst ack
ĠP IL
In put
Ġm er
ex c
back ward
8 4
> }<
exec ute
Ġprob ab
U P
] ):<
Ġ Ð
in sert
con cat
sc al
Ġcomp ut
ject ory
> __
`` <
Ġimplement ation
] ))<
Ġdataset s
Ġ" --
ent ry
Ġstat us
F unction
T IM
m ul
ca se
Ġid ent
g b
Ġa gent
di ction
ic ally
token ize
Ġpath lib
ateg y
1 9
ex pand
ĠA l
uff le
Ġ* <
Ġpro ject
ri de
pp ed
Ġcall back
] ["
Ġex p
att ed
transform ers
an not
per m
arg v
' ),
0 6
ent er
j ust
Ġo per
Ġdim ension
Pa rameter
2 00
L LM
ut or
um ns
Ġsub process
pydev d
doc s
ĠDE FAULT
m otion
re set
ĠĠĠĠĠĠĠĠ ĠĠĠĠĠ
Ġ_ ,
Ġt rue
Ġa li
Ġdi ffusion
OR S
lat ive
3 6
re tro
__ <
Ġle x
Ġback bone
we b
se gment
Ġn ow
Ġpro vider
ag ster
are a
ĠData set
' {
2 56
L e
c ing
c rop
me di
FI G
Ġmethod s
Ġthread ing
SI ZE
ĠTO DO
m ulti
p id
and ard
Ġc lean
SE T
run time
c ut
e ded
e lement
f etch
rapp ed
A IN
g ather
Ġc lasses
Ġ( `
S ON
p ri
pt ure
ang uage
Ġinst ead
he l
etun e
Ġdown load
Ġrot ation
f ra
Ġ queue
Ġp h
Ġo ptim
am l
unct uation
? <
Ġ util
C L
o ok
p ng
IN E
ro ll
Re g
node s
Ġp lt
Ġpre vious
Lo ss
Ġle ft
rand n
Ġthe y
Ġback end
Ġhead ers
arm up
Ġt mp
ad ded
ow n
Ġpart ial
( **
* .
output s
Ġsupport ed
f req
lo sses
yn am
Ġconv ersation
Ġ' '
Ġl ong
ific ation
D is
L D
c md
Ġin te
Ġh igh
Ġsh arded
Vi ew
G R
s ingle
di splay
ble m
em o
Ġj o
Ġt re
ac y
Ġsu ccess
F T
u ery
de tach
Ġf unctools
Ġre trie
li s
Ġma p
Ġse gment
Co mm
vo id
di date
Ġpa ssed
act or
Ġhas h
ug in
F loat
O n
c ross
Ġal pha
Ġb ody
get env
es cape
S erver
n one
Ġto k
) ),<
Ġw ait
Ġe very
act ory
`` .<
St yle
cri ption
ateg ory
T ransformer
a range
se n
Ġ' \
ĠE n
process or
Lo op
and b
: ]<
S C
FI LE
str uction
h at
(" .
Ġde bug
per i
ĠĠĠĠĠĠĠĠ ĠĠĠĠĠĠ
Res ult
iss ing
Di ffusion
me m
Ġset tings
ĠSe quence
ang o
il ter
Ġsh ort
A s
ep isode
Ġattri bute
: %
Ġ rich
de lete
Ġm od
AB LE
C ase
Ġ" _
ext end
all back
Co mp
he el
Ġde c
test s
Ġgener ated
It em
u ally
sw ers
Ġcontain ing
Ð° Ð
l ue
or pus
EM PT
R a
S H
m ath
â Ķ
Ġreturn ed
Ġr ate
ĠU se
Ġreg ister
U p
s hell
Ð ¸
At tention
cent er
e di
Ġm y
Ġj ob
tain er
Ġfla gs
æ ľ
re p
lo aded
In valid
Ġro ute
ĠB rowser
ĠGener ic
2 2
r type
ã Ģ
Ġ" -
user s
cl u
af ter
al id
li ce
st age
po ses
Ġg r
Ġ: ,
ĠHT TP
ne ss
EMPT Y
8 8
: ",
\ <
Ġm icro
init ialize
requi res
Ġm ark
PAT H
Ġ% (
d ataloader
ĠEx ample
CON FIG
Argument s
in k
Ġs ure
Ġpro gram
cur ity
indow s
Ġs hell
Ġd uring
A n
e ction
f ree
m ult
down load
plot lib
Ġpo ints
gener ator
tok ent
istr y
th reshold
OR M
s leep
Ġin ference
ix ed
Ġper form
j ango
Ġg rid
ry pt
tr uth
Ġbo th
P AGE
b ers
Ġitem s
N O
O pen
v end
est ed
Ġex pert
á´ ĩ
ĠĠĠĠĠĠĠĠĠĠĠĠĠĠĠĠ ĠĠĠĠĠĠĠĠĠĠĠĠĠĠĠ
Ġsc ores
Ġent ry
ex pected
Ġthe ir
Ġch at
={ "
Ġ edit
ar s
1 024
T ra
Ġo ur
Ġcon dition
Ġpro vide
bu f
Ġdoes n
] ]<
Ġde lta
AB C
Ġter m
Ġ ge
en um
Ġtime s
Ex ec
fact ory
b lob
Con trol
Ġcol umn
sq l
cho ice
i ent
Ġsho w
inter val
tool kit
Ġ å
Ġ Error
lex er
Ġcur sor
: .
b n
p db
ĠG PU
ust er
ĠPa rameters
pre ssion
pos al
ĠDefault s
s pa
con vert
ĠS o
Ġos p
argument s
alo g
Ġver bose
( \
H el
i mp
co unter
Ġ1 024
Ġd one
get Logger
Ġe p
Ġpy dev
lin eno
di stance
ma ster
um an
co mpletion
Ġstring s
su ccess
ĠSh arded
m icro
Ġd ot
ĠN OT
Ġde pend
sh arded
tra j
Ġinter face
Th read
W ith
s l
y mb
res pon
10 1
Ġ ser
Ġ[ [
Ġp ool
bu gger
Ġac cess
ug h
Ġcomm on
global s
Ġ202 3
k nown
ĠLo ad
ĠTo ken
fl atten
head er
Ġtransform er
mplet ions
Ġfla g
Em bedding
N ode
R et
Ġde coder
Ġ12 8
usal LM
A SE
ĠF unction
d one
Ġpi ckle
Ġo ls
con stants
ist ant
b atches
Ġg en
iv es
Ġdis able
pad ding
el ta
res net
Ġme ans
ĠB y
Ġdo main
t n
gra sp
di ff
ĠA n
data class
Par allel
Ġab out
z ip
Ġ vector
ut er
-- <
ing s
ign ed
fla gs
: :<
D B
s upport
w arning
Ġa bs
Ġf p
Ġ2 55
Ġse par
stri de
epoch s
de st
ĠI N
ER R
Ġpath s
Process or
Ġposs ible
E num
T YPE
Ġre ason
Ġs yn
St ream
Ġpython com
m on
p g
Ġc lose
Ġcon nection
pro d
Ġpack age
Ġn gram
Ġst ore
lex ers
9 6
b old
n ltk
o o
Ġma pping
cho ices
Ġre ward
'' '<
al low
ne g
ST R
Ġbut ton
ĠRet ro
c urr
c lean
s ide
le vant
il y
() [
Ġlo ok
ub lic
Ġpi pe
Ġcre ated
en ate
ex ist
ve lo
sh ow
Ġpy game
env s
ab stractmethod
~~~~~~~~ ~~~~~~~~
Ġplay wright
Ġt ri
la ng
par ts
ph one
um ul
Ġex ists
Ġde l
pre dict
time steps
ĠU p
ĠCon vert
Ġquatern ion
p ers
Ġ et
ro ugh
Ġco s
Ġun ittest
cor ator
) }
B O
B ack
di ctions
Ġ2 56
Ġpre c
ER T
t im
re ference
ri ver
ĠPy gments
sh ift
EN D
cl one
Ġgener ator
UT H
Ġblock s
ĠTe am
C E
v as
ta x
Ġrequi re
i ck
i form
z en
Ġi ds
he lp
Ġse cond
ume l
Ġt ornado
`` ,
Ca usalLM
F actory
s in
in ner
re t
gat ive
Ġtask s
. )<
U ser
re peat
ra ble
For CausalLM
Ġcon struct
Ġh ow
Ġeval uation
f name
t il
W S
] *
Ġ á´
ca m
Con sole
ix el
Ġcontain s
ĠN o
ext ract
jo int
Ġter ms
perm ute
O ptional
i er
Ġa g
Ġ' {
Ġd b
Ġcalcul ate
Q U
p c
the ta
Ġlin k
chunk s
WOR D
ynam ic
i mpl
Ġp latform
C A
M P
] ).
Ġre al
Ġcon st
Ġdi stance
h s
p k
Ġc v
Ġerror s
s olution
ar ge
qu at
Ġde sc
position s
ada pter
V E
c ir
Ġ" #
Ġlo aded
Ġca st
open ai
Ġfa iled
0 5
qu ant
format ter
V ersion
o v
Ġact ual
AC K
vend or
elta Temp
I d
T rans
ro zen
me s
Ġre set
Ġst age
ĠL anguage
ĠR ole
Ġen c
Lo ad
Ġz mq
Ġcor respon
================================ ================================
Ġ ).
ic ation
av ing
af et
ĠDi stributed
v ariable
Ġc l
Ġthe se
id ent
Ġro le
ĠIn str
di rection
is hed
ĠA s
() )
Ġme ta
count s
HT TP
A d
b reak
r ng
se ction
Ġb ound
act ivation
ĠR a
json l
a ut
Ġb est
Ġw ho
id ual
IN FO
ef ore
[ [
se m
res ource
ces ses
Ġc md
auss ian
R ES
ma pping
end swith
te code
length s
ab c
Ġfin etuning
] .<
Ġ err
de ep
Ġstep s
Not Found
f ields
app lication
er m
Ġdata classes
gex Lexer
Ġf uture
Ġc rop
Ġco mb
mask ed
Ġgra ph
S pec
size s
Ġposition s
ĠWh en
' ).
I P
V ar
v ari
Ġm on
ĠĠĠĠĠĠĠĠĠĠĠĠĠĠĠĠ Ġ
time stamp
Ġpre dict
Ġca ption
Ġiter ation
D es
U SE
ĠT ime
op s
Test Case
Ġ --------
en ded
Ġw hether
qu atern
quest ions
Ġle t
stat s
ĠSt yle
ĠInit ialize
G ra
pa ir
ur se
as ure
da y
normal ize
Ġlat ent
c la
e qual
g or
ri er
back bone
Ġact ivation
ĠData Loader
man ual
+ +
Ġ view
pi pe
Ġsh util
BU G
Ġc lip
E nt
} :
an dom
Ġra di
vent ion
Ġnode s
b rowser
y load
ok ie
Pa rams
part ition
ĠIter able
O UT
l st
m k
d it
ar r
work er
object s
term inal
er ies
Ġin dent
"] :<
Ġuse s
ĠWh itespace
Ġtrace back
W arning
å ı
è ¯
en abled
Ġa p
Ġf ree
Ġs cheduler
Ġo p
ind ent
cur s
ĠIn put
Ġho ok
2 7
0 4
M E
al ity
__ .__
Ġd agster
ĠP unctuation
Ġco mplete
read er
Ġsc al
LT K
Ġchunk s
Ġman y
og le
Ġannot ations
Ġdefault dict
Ġ5 12
O C
f ill
Ġj edi
Re ader
AS S
example s
g a
Ġmat ches
Ġevent s
offset s
Que ue
] ):
Ġs peed
ent ropy
Ġ( ...,
ĠT rain
Ġex pect
ĠB u
code s
ĠH ugging
Ġgroup s
Ġfin ally
F L
x x
di a
Ġs nake
Ġla ng
time Error
Ġlib rary
gor ith
Ġ" {
ed Dict
ĠT ask
AN D
Ġ1 000
tra cker
Ġvalid ation
dot env
inst all
Bu ild
or er
us age
Ġwith in
vert ices
Ġinit ialize
eed back
_ ,
Ġcon f
ĠA d
pro gram
iv ed
ide o
Ġframe s
Ġw ould
ĠC LI
Ġg lob
mask s
ĠIn dex
Ġsu ch
ib ility
Ġencode d
se curity
at ural
Ġs pa
li ck
ĠIn c
" [
> ):<
A dd
re trie
'] ,<
red ential
pat ial
make dirs
andl ers
E val
S tr
g r
en able
de mo
ro ad
con struct
ĠP o
Ġne g
ru pt
TIM E
G PT
t ty
x ml
on ent
Ġa verage
Ġse conds
Ġare a
AL L
conv ersation
. *
L P
P ool
c c
th is
S ource
Ġre port
ĠL iteral
Ġv is
Ġne eded
LO AD
Ġ'. /
Ġre lative
ĠO r
Se quential
t ure
} ",
ç Ķ
ro y
ut ed
Ġsh ift
ast ype
rt ual
ĠMo ck
MA X
k pt
s v
Ġs aved
py torch
7 5
e ch
y aml
me tric
as h
set up
up er
Ġdata class
Ġal ways
ĠCon v
CO L
wh ere
å Ī
re al
Ġm u
ĠO perator
Ġpar ts
Ġattri butes
Ġps util
leg acy
r gb
z mq
ä »
or ig
ĠD is
ou g
temp erature
i ed
v es
ir d
Ġad ded
Ġqu at
Ġallow ed
7 0
P os
c ii
Ġa void
pe ech
ĠComp ute
Comm and
ERR OR
D ep
H ook
Ġin valid
Ġe mb
12 3
ha vi
s ite
Ġre mo
__ .
Ġ' __
set s
sh ort
ĠM odule
ai ss
pat tern
Ġpro j
qui re
run ner
prompt s
cre te
fla g
F ore
Ġs igma
Ġ- *
und le
yp ot
Ġcom pat
A gent
W rapper
\ .
b efore
} {
de c
Ġre cognizer
Ġd t
act iv
Ġtensor s
tribute Error
d ated
Ġse nd
ac cess
cor ding
Ġus age
Ġsu ffix
Ġpat tern
ighb or
p df
s ampler
á º
get item
am ma
Ġpar sed
ant ic
Ġfilename s
Layer Norm
Ġvi a
T ree
n umel
Ġno ise
G B
h alf
l ated
p layer
up y
Ġlo c
ĠO utput
Ġv ari
Ġprompt s
Ġta gs
C orpus
o x
Ġa ff
Ġex it
ĠD ep
ct est
co pyright
ri ces
St art
min i
Ġcall s
mplet ed
Ġvariable s
concat enate
F ace
t ract
or al
Ġs ampling
Ġload er
. ",<
e ar
l ora
Ġco ord
Ġstd out
upy ter
' [
O S
## #
ĠĠĠĠĠĠĠĠĠĠĠĠĠĠĠĠ ĠĠĠĠĠ
Ġr ule
Te mplate
ram mar
list dir
task s
Ġ{} ".
CON ST
O r
P lease
] ),
s igma
} '
Ġc am
di f
sc ene
Ġtool s
c ert
e mail
in v
Ġf ew
Ġdef ined
con st
che ma
Ġbe ing
Ġass ign
Ġred uce
Doc ument
Ġc od
Ġp l
Ġfor ce
co st
redential s
/ {
C F
M ask
g ui
h ot
s mall
Ġm issing
ca mer
={ <
hel lo
( "<
M eta
V ER
OR E
add ress
select or
q kv
de ta
le m
Ġst andard
pro p
Ġun ique
e mpt
} ')<
Ġf ields
Ġre pr
Ġin str
ĠN LTK
ĠI O
che me
tri eval
Ġang le
u dent
de pend
con f
Ġopen ai
Ġeval uate
ĠJ SON
q t
Ñ Ģ
in es
ue s
Ġlo sses
Ġor ig
fa st
Ġim gs
ãĢ Ĥ
) ),
9 0
N E
V I
bo und
POR T
Ca che
ĠHugging Face
w arn
cu it
lect or
AM A
al pha
(" %
Ġcon stants
pre v
lic it
ber t
M S
c it
w s
Ġc allable
Ġ# <
Ġg round
Ġth rough
Ġpre v
Ġ202 2
pass word
Ġcharact ers
Ġsq l
P R
or ary
an n
ys cape
4 2
] ],
b eta
b undle
Ġ }
set tings
ol ute
Ġvalid ate
AC E
event s
Ġexist ing
SS L
medi ate
i re
Ġc kpt
In dex
Ġcor pus
({ "
expert s
Ġ ._
Ġde ep
Ġde prec
ĠF la
Ġch ain
iter ation
Argument Parser
dump s
T EXT
se gments
ut es
Ġe ff
ĠĠĠĠĠĠĠĠĠĠĠĠĠĠĠĠ ĠĠĠĠ
ĠW indows
ĠIn ter
Ġle arning
row s
T E
] ]:<
g mail
al y
Ġs imple
Ġgra dient
Ġback ward
ĠPro mpt
Ġfl ush
B AL
e ck
Ġb ar
un et
sert ion
Ġwh at
Ġmo st
bin ary
requi red
Ġstruct ure
P AR
U rl
_ .
v ing
å ħ
il ities
Ġco ver
trans cript
Bu ffer
inf os
Ġprec ision
UTH ORS
yscape s
0 64
h ar
s afe
Ġf ast
li sh
to m
Ġ1 5
Ġdata base
ys is
Ġtr unc
a ctions
ĠO S
W indow
i a
re ason
Ġdi sc
us r
Con tent
Ġch ar
mo e
opt s
Ġ200 6
ĠCh at
D ropout
c le
s cope
ä º
ta ct
Ġen able
LO G
rot ation
serv ation
Ġlex er
-- -<
Ġp e
up per
ĠCon trol
Ġsentence s
Ġnormal ize
A l
G N
S ub
X T
t f
in valid
Ġd ataloader
Ġdi stribution
Ġlo ck
ĠD o
ance l
wa y
Ġmax imum
TH ON
Train ed
Ġsim ilar
" }<
t p
Ð µ
ĠC lass
ter min
Ġconfig ure
date time
lat ent
enc ies
I ter
a a
c lear
æ ĺ
re lu
ro q
il ine
pp er
vide os
Ġcharact er
attri bute
Ġcorrespon ding
road cast
b ind
x iv
re st
Ġc urr
ĠA UTHORS
Ġtra j
7 8
f ont
Ġin clu
ĠĠĠĠĠĠĠĠĠĠĠĠĠĠĠĠ ĠĠ
Ġen gine
Ġq kv
LO BAL
st e
pro c
Ġco mpletion
(' .
Ġnum bers
En coder
Ġelement s
ĠType Error
buil der
re ed
Ġre gex
ng ine
av a
Ġmat rices
AD A
So cket
child ren
Ġag ain
B atch
O ptions
i py
y per
pa rameter
th rop
com pat
Ġsh uffle
Ġmat plotlib
bin s
Me gatron
Ġscale d
schedule s
m ote
Ġa uth
Ġc at
to list
Ġ[ ],
ĠP er
ĠM ake
sk ill
pat ches
fil ters
ĠCon sole
AR G
Ġexample s
US ER
Ġcod ing
throp ic
D ec
c alled
t b
w armup
in ation
Ġbu cket
A udio
k w
Ð ¾
Ġde st
jo ints
... ")<
Ġhead er
vect ors
Ġali ases
Ġep isode
3 5
S ampler
f ield
u ctions
w rapper
ar xiv
lo gs
as cii
jo b
Ġ.. .<
pack age
ĠC or
end ing
Ġde mo
Ġac celer
Ġpla ce
N UM
t qdm
st ion
bo ve
Gener ator
ĠMe gatron
Ġsin ce
Ġ-------- --<
l ing
Ġa da
Ġs mall
Ġw rapper
od al
ak es
Ġac ross
Ġtransform s
su ffix
Ġexec ution
lan k
cir cuit
gorith m
! <
) (
t as
u rable
Ġre main
Ġre try
Ġtra ck
Ġother wise
rand int
//////////////// ////////////////
e k
Ġc ell
fa il
cor pus
request s
Ġ{} '.
Ġkeep dim
Ġse g
ĠM icro
error s
Ġca pture
Ġexpre ssion
% %
] ['
s df
z ure
ä ½
ut ing
Ġf name
Ġpa ir
ĠD oc
ow er
6 8
9 5
C ESS
S Y
V ERS
Ġ[ -
ff ers
ial og
DE BUG
ugging face
Ġdiff users
ĠRun timeError
Ġ'' '<
afet y
P UT
f d
id er
Ġpro gress
ho me
base d
Ġ utf
re direct
Ġ[ (
Ġco uld
Ġline ar
Ġoper ation
u int
Ġ ~~~~~~~~~~~~~~~~
Ġs r
Ġfile ids
exception s
Ġbin ary
coord s
) \
6 0
T ER
T EST
W N
n py
Ġo c
ca ched
ĠM ulti
å Ĳ
Ġc al
un it
ĠN orm
Ġe qual
Res ource
ĠPro ject
Ġlin eno
Ġho st
M ode
e ma
Ġ ----
Ġ" ",
Ġin ner
Ġ( (
ĠL lama
ĠR ot
jo bs
Ġqu ant
s imple
ĠR ep
ĠAt tributeError
Ġquatern ions
b enchmark
e very
æ ķ
Ġtest ing
Con nection
Ġsc ene
ac curacy
ĠLa yer
H andle
Q uery
c p
Ġb ot
Ġ' ''
Ġpo licy
Ġac cept
( ["
h f
p ip
Ġcon nect
() ))<
ĠS ample
tr f
IT Y
LO C
our ces
ĠCO M
D irs
b box
} "
se p
Ġan s
ran ch
Ġstate s
Ġtarget s
ĠĠĠĠĠĠĠĠĠĠĠĠĠĠĠĠĠĠĠĠĠĠĠĠ ĠĠĠĠ
2 01
D P
F ilter
Ġf n
Ġ" %
ce ived
to wer
Ġpro cessed
ron g
ok up
url s
pert ies
Ġinst alled
hes is
2 8
c er
g it
Ġf ra
Ġp layer
Ġ' -
'] :<
V alid
c ro
al ize
Ġm lp
Ġsu c
d river
Ġname d
Ġsoft max
Ġselect ed
Ġinte ger
Float Tensor
7 7
i red
n an
re gex
st orage
de tect
Ġb s
Ġ5 0
Ġmo ve
ra ft
iz ers
Ġimport lib
ect or
Ġtime stamp
Re LU
AM P
ĠĠĠĠĠĠĠĠĠĠĠĠĠĠĠĠĠĠĠĠĠĠĠĠ ĠĠ
Col or
Ġtim ers
I s
e ver
Ġp lot
base name
Ġwe b
12 8
async io
extra s
L EN
_ <
s age
Ġa st
an swers
res olution
app ing
ĠW hether
tro ll
latform Dirs
F ield
in ds
en gth
re lease
Ġin di
ĠL e
Ġun til
Ġload ing
Ġwork er
led ge
Po licy
havi or
F la
N N
Ñ Ĥ
å Ĭ
in fer
Ġre p
Ġin v
"" ,
ĠĠĠĠĠĠĠĠĠĠĠĠĠĠĠĠĠĠĠĠĠĠĠĠ ĠĠĠĠĠ
bar rier
uid ance
A nd
F ORM
T XT
W e
se ns
out er
Ġk now
Ġdirect ly
D A
D efault
M Q
S ec
U E
É ª
Ġrepresent ation
) ]
W ord
æ ĸ
re size
Ġb eta
ĠA uthor
ĠA sync
est im
ĠO ther
bu cket
ĠSt ep
App lication
= _
F a
sc reen
Ġdefault s
cre t
mk dir
: ]
> "<
D o
re try
ble ms
Ġapp lication
AR T
3 1
n a
ro bot
ro uter
Ġ# #
Ġ1 4
Ġun icode
** /
Ġcol ors
feat s
Ġback ground
spec ial
Ġsk ill
â Ģ
Ġa bove
Ġf ake
Ġ" ")<
int ypes
Ġe ven
for med
abs path
By tes
6 6
å ¤
Ġ- =
pro file
Ġla unch
Ġ: ]<
add r
Ġurl lib
requi re
rag ma
cit yscapes
al ysis
Ġc u
Ġ[ `
ĠC a
ĠA C
Ġac curacy
Un ion
INT ER
Ġet c
sertion Error
I f
Ġt k
pre dictions
ĠRe quest
UR L
Ġmer ge
peri ment
camer a
Y ou
w rit
ut ton
Ġlo wer
lic ate
RE D
tokent ypes
9 8
N ote
V A
ut ures
ar range
Ġp t
Ġp ragma
Ġm ult
Ġw ay
Ġpa nd
ched ul
pla in
Le vel
Ġpand as
} _
å ®
æ Ī
er o
Ġf mt
def ined
Ġw andb
Model ForCausalLM
tin s
Se gment
Pa ram
ĠSharded Tensor
it ch
lay out
transform s
Ġmask s
Ġcho ices
9 2
Ġs sl
Ġlo cation
Ġg ot
sh ared
AN G
Ġexec ute
Ġsign al
F rom
O f
v it
at tach
Ġdi rection
Ġde tect
ta gs
time s
no ise
Ġs chedule
con stant
## <
Ġg rammar
ĠS T
Ġst ill
Lo g
Ġindex ed
lear n
se cond
># !
ĠF orm
../ _
Ġfa il
'] ['
mat ically
ĠPro cess
vis ible
d st
di sc
un iform
cond ition
Ġreg ular
O ptimizer
se conds
Ġt ake
al k
00 1
(' \
Ġby groups
stribut ions
Ġem otion
Ġrun ner
Ġcount s
Ġprobab ility
velo p
troll er
d t
Ġin sert
end s
em ory
Ġadd itional
Ġext ension
gener ation
ful ly
go al
prec ision
clo ud
ĠMicro soft
C allable
D own
M PT
R IGHT
b est
Ġlo w
Ġl m
Ġco unter
we et
Ġact iv
pus h
window s
Ġ200 1
NotFound Error
çĶ ¨
0 3
= ["
D ialog
M IN
h ub
t ed
Ġi ss
Ġf ix
Ġn ested
ch ron
mo o
ĠH ow
ĠCon text
ĠQ u
A F
L ong
W h
s a
se par
Ġa ux
Ġpa ra
Ġpre sent
mo st
Ġhead s
ĠAuto Tokenizer
quatern ion
1 000
4 5
S cript
Ġf etch
me ga
Ġc lear
an y
ĠN atural
get attr
qu are
mple ter
emo ve
S ystem
s r
se en
it ter
ver bose
Ġstr ict
init ion
Ġbe low
eat ure
IT E
Ġcol umns
fix ture
ypot hesis
> -
q l
en g
Ġ= ================================================================
ol ved
ic ient
ĠL ine
Ġr atio
rame tr
so me
fer red
Ex pression
ug gest
Ġtemp file
Ġtre etune
ymb ol
M ML
Ġt t
ss l
Re ad
ili ary
Ġngram s
C all
M et
N umber
U B
b f
j pg
Ġt p
"] )
Con dition
pl us
mm lab
fa ces
Ġattr s
2 02
> {
` .
r ule
Ġc enter
Ġ" )<
Ġ( {
co mpletions
2 1
i ally
o ptional
Ġf ig
Ġc ert
Ġ' %
uto ff
alcul ate
Mo ck
dest roy
in str
re port
Ġ' _
() ):<
der edDict
ĠE m
ĠUn icode
fl ush
A ction
I B
Ð ½
st it
Ġf req
Ġre size
Ġ' '<
Ġme m
pre ss
ng ram
ĠRe g
ab ility
ĠQ t
Value Error
******** ********
oug h
b stract
É ´
me l
Ġp db
># -----------------------------------------------------------------------------<
Ġde corator
cess ary
train er
ĠAr gument
local s
De code
ĠOpen AI
Time out
: -
O L
Ñ ĥ
ig ram
str ategy
name d
Ġdim ensions
Ġpass word
Ġdocument s
ĠTool kit
p or
è ¿
at Code
Ġf actor
pro posal
em otion
ator s
La bel
GR AM
D ist
Ġw rapped
co eff
Ġh app
Ġ2 01
ment um
Ġco st
user name
Ġset attr
gra ds
Ġad just
exec utable
Ġrow s
LL AMA
Ġremo ved
/ ><
k in
s lo
or iz
Ġf older
ex pect
Ġm anager
ĠT ree
ĠU ser
'] [
') [
á´ ı
checkpoint ing
ĠQ ue
f lat
Ġc ategory
ke le
Ġdocument ation
e ce
stri ct
Ġcan not
Ġcons ider
D S
w en
Ġw ere
pi ckle
ĠG R
Ġal ign
Ġat tach
Ġass ume
Hel lo
FL AG
P rint
s ig
Ġ ),
al ic
__ ':<
Ġtorch vision
ĠD eltaTemp
Ġra g
ag ing
valid ation
RE AD
Ġac c
xy z
ik i
3 7
E IGHT
W AR
b ank
c wd
he x
Ġin f
Ġst derr
Ġde lete
ist ic
Ġpro blem
Ġspec ial
MML ab
. ')<
A Y
C LI
f ew
it or
un ique
qu bits
Ġse m
Ġle ast
ns ure
Ġiter tools
Ġover ride
ĠModel Type
" }
, )<
4 00
r ic
Ġ æ
ser ve
ĠN ew
Ġcon cat
======== ====
run ning
bin dings
Ġlength s
dent ity
_ )<
s yn
Ġd jango
idd le
") [
DE X
Ġuser name
checkpoint s
ĠGener ator
Ġrepresent ing
æķ °
rametr ize
W ork
s ampling
z one
la unch
fo und
gra dient
tri es
Ġqu eries
Return s
ĠTransformer Config
> ################################
E ngine
r b
u ble
il on
Ġcon vention
IN DEX
ĠE val
Ġapp end
ĠKey Error
andl ing
Ġmer ged
E dit
R o
s pan
at om
al ignment
ex pr
Ġde scri
Ġpre diction
([ <
method s
ateg ories
miss ing
ĠOpen MMLab
ĠBu ild
: ")<
A sync
on d
ma s
out ine
ĠO ption
pl t
Re f
Form at
TR AIN
Ġchild ren
ĠUp date
% (
/ <
on ents
Ġto o
Ġlist s
col umns
Ġcol lect
oc i
Ch at
ĠGener ate
clo sed
kele ton
| \
Ġp op
im al
OR D
CO M
mer ge
m ultip
s ort
text s
mo id
col lection
comp ress
Bu il
ĠCol umn
> ",
P D
S plit
U I
a uthor
h igh
n ers
w rapped
le af
Ġs afe
Ġw ell
iz ing
Ġl lava
pl ugin
St at
Pro vider
string s
Se ssion
Ġinstance s
Ġmulti processing
CL ASS
il er
Ġ' --
ĠA gent
Ġres ource
config ure
Ġpo se
Ġspec ify
Ġgener ation
return s
}/ {
) ',
- %
V ision
Ġ" [
Ġs imp
ig ger
ĠThe se
iter ator
with out
local host
Ġform atted
Ġcl uster
' .<
A uto
b lue
c raft
t len
pad ded
Ġm ime
Ġl lama
ĠP lease
Ġar ch
Con tainer
attr s
assert True
Ġadd ress
Ġpart ic
pa rametrize
Ġt akes
al ign
con n
Ġl ight
mo unt
pack ages
Ġterm inal
ĠCor por
velop ment
ĠCorpor ation
G roup
Q t
d p
pa uthor
Ġc pu
== <
ĠĠĠĠĠĠĠĠĠĠĠĠĠĠĠĠ ĠĠĠĠĠĠĠĠĠĠĠĠĠĠĠĠĠĠĠ
ca ption
inal g
Ġkey word
Ġcontext lib
ĠĠĠĠĠĠĠĠĠĠĠĠĠĠĠĠĠĠĠĠĠĠĠĠ Ġ
select ed
tlen eck
b a
it ers
Ġc ross
Ġs ite
Ġ3 0
Ġset ting
Ġneed s
PRO MPT
Ġnet work
ãĢĤ <
I ST
V ideo
n x
Ġin dic
Ġs pace
Ġo perator
ma ss
(" _
ca p
config s
12 34
ĠĠĠĠĠĠĠĠĠĠĠĠĠĠĠĠĠĠĠĠĠĠĠĠĠĠĠĠĠĠĠĠ ĠĠ
Ġmo dif
encode d
ass istant
Ġdeprec ated
0 33
] (
j s
Ñ ģ
re l
de g
Ġs leep
Ġp ers
Ġpa st
ist ent
Ġme tric
LO W
sign al
B utton
d uration
re qu
Ġg u
ĠCo mm
Ġal gorithm
Ġimage Url
valid ate
To kens
Ġcurrent ly
Ġbet as
Ġhigh light
g ate
v t
Ġre levant
di ents
an h
Ġthe ta
ĠT rans
Me thod
Ġtrans cript
scal ing
= <
P S
in clude
er a
Ġa ctions
ro me
Ġre arrange
Ġm ight
Ġcon n
Ġsh ot
Ġsub class
table Diffusion
ins pect
L R
V ariable
ur ity
att ing
Ġon ce
so ck
ĠW ord
Ġj np
ĠRe ad
vid ers
Ġformat ter
mark er
Ġab c
ĠMo dified
4 4
å Ľ
Ġ: ]
Ġun et
test ing
loc ity
Ġprocess or
Ġprod uct
F uture
G E
N ING
m u
ra cket
ce ed
Ġcase s
Ġcho ice
ĠOr deredDict
G LOBAL
S peed
i ou
l ens
on ical
ĠT ra
ol lama
res olve
ĠD ef
ĠG ra
á´ Ľ
Se quence
EC T
Ġpri or
B in
H istory
U LL
de t
Ġc types
Ġw idget
Ġlo gs
ĠM O
com ment
Ġal ignment
Ġ\ \
=[ <
Ġpydev d
cla mp
R ep
] ],<
t d
w riter
è ®
re po
Ġf ill
Ġc lick
ex e
Ġdo ctest
ron t
Ġauto matically
Ġlicense d
Ġretrie ve
Ġcompat ibility
A da
[ <
Ê Ģ
Ð ¼
Ġre q
ed uce
ĠS imple
ri pper
DE V
Ġsign ature
. \
T Y
s li
Ġdef ine
co ll
sc atter
stant i
cre ment
Ġent ries
Ġav g
Ġred uction
lap sed
Fa iled
Ġaux iliary
8 5
F in
p ixel
ra se
__ ,
Ġ1 1
pro cessed
im odal
TIME OUT
Ġaff ili
latformDirs ABC
' re
2 24
M enu
T ool
b et
Ġ --------------------------------
Ġa round
ĠE num
Ġit self
ition s
Ġcan didate
Ġne cessary
idx s
Ġac count
ĠSt art
Ġprovide s
Ġpredict ed
>#! /
> \
e q
j a
{ "
(" #
ĠS ave
ta b
ac celer
thread s
environ ment
dis patch
Ġaffili ates
! ")<
S ingle
d ense
h params
w heel
y d
)< /
Ġf ont
Ġs cope
Ġar r
In stance
CH E
Ġsupport s
C ore
l inalg
Ġ' ,
ĠS ho
pre ter
pre diction
com mit
Ġprocess ing
normal ized
ighb ors
æĺ ¯
Batch Norm
) ])<
I mport
I ID
m is
w andb
di alog
ma g
con tainer
Ġan other
ĠC ore
Ġdi v
Ġdi alog
Ġst orage
Ġex pand
ob ot
wh en
Po int
W in
st able
un ittest
Ġas set
(" {
ĠC ustom
Ġbe gin
Ġ: -
SE C
lat itude
Ġup dated
ob servation
Un known
Train er
change d
plan es
Ra ises
d in
pa c
Ġpro file
Ġpro cesses
Ġres olution
Ġname space
Ġversion s
char s
pol ation
) ")<
R GB
j or
é Ģ
Ġt urn
Ġx ml
ĠB e
mat ches
Ġtoken ize
call s
top k
Ġrank s
For ward
ĠAuto ModelForCausalLM
ĠIter ator
/ '<
= ['
K ernel
L INE
T orch
] ),<
h i
h uman
ro d
ge lu
la ce
ul ary
ĠN ode
ĠM eta
Ġpos itive
ĠQ uery
Ġwrit er
Ġallow s
Ġstat s
Init ialize
Ġsepar ate
ĠOS Error
ĠLlama Factory
B C
C an
` ):
o led
ra di
Ġre direct
Ġs df
Ġw rap
ext ensions
Ġg pu
tra st
RO M
sim ilar
HE AD
LD ER
) "<
A ll
N OT
c r
c ip
s lice
me gatron
Ġre lease
end ency
am ily
ĠU Net
Ġro und
cor ners
Ġinter val
sub process
Ġass oci
Ġclo sd
ĠPar allel
VERS ION
2 6
3 84
L lama
P latformDirsABC
c redentials
â ķ
Ġ vectors
ch art
ma gen
ext ension
Ġ1 3
() ]<
out e
Ġ2 5
Ġma k
io us
function s
Ġrot ations
Ġmm seg
OP EN
EP GRAM
ĠOther wise
- >
E W
I F
T EM
f u
un icode
Ġth reshold
all en
Ġsc ipy
Ġclass ifier
work space
ĠTh read
ĠApp ly
2 3
c lock
g lob
z z
se lection
se cret
Ġc ore
Ġre call
Ġd st
ĠL O
Ġnot e
ĠM LP
te ger
back ground
St ep
Ġcontent s
eff ect
platform dirs
> ``
K S
b os
g ym
p ublic
t ic
Ġ -----------------------------------------------------------------------------<
ĠP latform
os p
(' /
Re gexLexer
av ig
Ġat om
gram mar
Ġsum mary
Ġjob lib
ĠFla x
) ;<
R I
R ender
b all
s ph
t z
Ġc y
Ġb enchmark
ac count
Co uld
over lap
Ġang les
> "
E L
E lement
M ax
W rite
d n
in ates
la zy
li m
int e
form atted
sh uffle
per cent
Ġj ax
Ġins ide
Di rectory
Col umn
Ġexp licit
As sertionError
Ġwho se
+ ',
_ [
b g
Ġf oo
Ġs a
Ġs ampler
un der
con tinue
ĠR andom
Ġres idual
Ġmask ed
conv s
are st
ĠRes Net
eps peed
p lo
s n
Ġ es
ge s
pe ak
St ore
Ġca ched
PO INT
ĠLa zy
B ar
C S
H p
M ULT
} ",<
Ġre st
.. .<
Ġpro xy
train able
ĠIn valid
ne ed
Ġtra jectory
au g
ĠSt ream
PO ST
M ENT
i um
l ator
s orted
Ġf ixed
Ġan swers
ifi ers
Ġrot ary
fin ished
lis m
Ġmicro phone
Ġdeep copy
Ġinclu ding
> `
^ \
s aved
pa ra
ro bo
ue ss
ma ph
Ġd s
ve locity
Ġ* =
sent s
Ġfil ters
Ġgra sp
Ġpad ded
go ogle
fin ish
Inter face
Ġpartic ular
+ )
C M
Ġa ut
ent ication
Ġb atches
ĠC F
mple x
Ġse gments
Ġr ng
Ġ4 2
sum mary
IM AGE
auto grad
Ġbox es
8 6
A uth
B ASE
G RE
d ll
w b
ç Ĳ
Ġs w
Ġs ide
Ġs aving
Ġp ower
ĠS ec
Ġne gative
ĠSe ssion
assert Raises
cal cul
DO WN
P P
Q T
a gger
g res
å ľ
å Ń
Ġin her
ed u
ent ity
ĠS S
pro blem
config uration
iv ely
fa ke
Ġgra dients
can didate
U RE
i mplement
é Ĺ
Ġre lated
ter ns
pre vious
ip s
alle lism
mo use
eval uation
Ġcontain er
ĠDe velopment
ĠMe ssage
ĠTh ere
Ġtmp dir
Ġsyn tax
Note book
C allback
Ġa mount
ser vice
() ).
ĠB asic
Ġpre vent
pi ck
Pre processing
Ġappli ed
attri butes
tokent ype
support ed
> ""
] ])<
v llm
() }<
pro gress
Ġth ree
py gments
Con vert
ok ies
Ġhe l
inter face
Ġtuple s
style s
CON T
(? :
pk l
Corpus Reader
B ox
H ER
L IN
U DA
h uggingface
x ic
Ġw armup
Ġde s
Ġpro per
ag ic
ach er
std in
Ġmatch ing
shot s
ĠTe mp
initial ized
lis ion
Ġser vice
vari ance
h older
n b
t ot
in struction
on s
er nal
de bugger
pre pare
Ġk l
Ġsome thing
Ġlat ents
Ġchange s
maph ore
) }")<
D ummy
F R
s chedul
x t
Ġ escape
ra ise
ĠL exer
ri e
Ġ2 24
Ġuse ful
Ġatt empt
St orage
Ġ6 0
Up date
An swer
STR ING
CA CHE
Q u
R ule
a ma
f lip
r m
s uper
get cwd
Ġg ather
Ġth ose
', '
ĠF ilter
class ifier
pre ds
Ġpar sing
trans lation
Par se
exec utor
Ġsequence s
ĠOn ly
I Z
O PT
r ho
å º
or ing
re cognizer
st all
Ġre verse
Ġpa per
vi rtual
ĠD own
ĠE nsure
Lo ck
UR R
Ġimplement ed
Ġ7 68
Em bed
sign ature
Que stion
spa ces
ĠRot ation
Long Tensor
f eedback
g ab
t k
ç »
se c
ent ries
Ġd eno
ĠC an
end point
Ġst em
Ġres net
file ids
sc orer
ĠV alid
LE FT
Ġinitial ization
Ġtag ged
Ġrecord s
ĠRa ises
Trained Model
C ross
Q L
[ \
f s
s patial
re load
re levant
ro gram
Ġre trieval
Ġb asic
ran t
ĠS ub
ĠP O
ĠP RO
Ġpro bs
ĠO llama
wa p
Ġact ually
Ġwork ers
filter ed
proj ection
Exec utor
1 50
S PE
h ave
Ġf low
Ġre ader
Ġo wn
il ing
ist ics
Ġset s
ĠRe gexLexer
Ġraise d
box es
Ġwork s
rot ary
Ġconvert ed
ĠLa bel
asset s
ĠNOT E
= ""
in x
re w
Ġs ort
Ġme sh
Ġla zy
Ġout file
Ġthread s
su bject
cogn ition
76 9
Ġjo int
Ġconstruct or
" },<
b b
æ į
ĠC alculate
end ar
Ġwh itespace
Ġsc reen
Ġup per
Module List
RO OT
IM IT
Ch unk
Ġtok ent
ĠBrowser Context
Ġdot env
### <
9 7
: ,
> `.<
H e
f usion
f utures
h ist
v ate
v ance
re ssion
ar ing
Ġac cording
AC T
ĠAt tention
Ġclo sed
acc umul
late st
Ġsuccess fully
deta ils
* ,
al ty
ur ces
ĠN e
Ġe mail
Ġl ater
Ġpro posal
mat mul
([ [
target s
ĠĠĠĠĠĠĠĠĠĠĠĠĠĠĠĠĠĠĠĠĠĠĠĠ ĠĠĠĠĠĠ
ĠType Var
aract er
Ad am
ĠLine ar
5 8
: ],
] \
g amma
h andlers
l g
p d
v g
Ð º
Ġ html
al ph
Ġs d
ĠP i
model ing
ĠF ind
ĠD ATA
ps util
shape s
for ce
unk nown
ĠK e
tra jectory
content s
ific ate
Ġglobal s
ĠRes ponse
PY THON
Ġgo al
ymb ols
> =
> ")<
A X
S er
re mote
ut ions
ge mini
lo ps
Ġs lice
Ġb it
li er
Ġex act
Ġde cay
Ġpro perty
check er
min ator
vari ant
Preprocessing Config
" .<
` ):<
b asic
d up
i pped
r strip
} ".
Ð »
Ġh alf
ĠS plit
ĠR emove
ĠM ax
Ġv ision
bu gging
Ġpy win
Ġne ighbor
net work
au x
á´ Ģ
now ledge
struct ure
At tribute
Ġpack ages
On ly
! ]
) ')<
M ulti
T able
m os
m enu
la ck
ĠC all
ĠA ss
sc roll
col ors
vert ex
Ġcall ing
Ch ar
vis ual
COL OR
, ))<
4 7
b ench
Ġ ut
me asure
Ġp id
__ ))<
co okie
ĠC lient
ĠC PU
Ġe as
Ġse n
im it
app name
wa v
Ġtext s
Ġtrain er
LE CT
AL LE
Ġmo dified
Ġuser s
Gra ph
ĠPer form
Ġremain ing
2 55
s olver
u mpt
w m
__ }
ĠA udio
Ġh f
Ġh andling
ĠS k
Ġde lay
Ġ4 0
Ġca use
ĠWe b
Ġannot ation
retrie ver
ĠGR ID
A RE
m ultiple
r ally
pa irs
Ġt w
ra s
Ġp k
Ġp ut
Ġd ummy
ri ate
ĠF etch
Ġr c
Ġun it
ĠG o
ĠG roq
Ġapp ro
rop riate
Pro tocol
Ġqu ot
over ride
exec ution
meta class
Open AI
Stat us
URR ENT
A ct
R andom
S hell
c ategory
o me
Ġ ,
Ġdi lation
Ġh ps
ĠF B
ly ing
Ġpre pare
In str
ne gative
ac cept
Ġdoc string
names pace
99 9
ĠLayer Norm
>################################ ################################
C AS
C lose
D ef
c nt
u uid
Ê Ł
æ Ĺ
Ġ very
Ġp lan
il la
(" -
Ġex pr
ff ff
len ded
Ex ample
Ġ'../ ../_
part ial
Dis patch
Ġ-* -
Fla gs
) *
A c
D IS
S ER
T ransform
b ad
l lava
pa yload
on al
Ġre po
ĠN O
pro tocol
pre comp
col s
Ġper m
ä¸ Ģ
ĠHT ML
pac ity
? \
L ON
d ummy
w intypes
~ <
Ġ Ä
re cv
Ġp p
Ġpa yload
Ġco mpleted
Ġse ction
Ġk nown
ject ed
Ġend point
itle ts
IO Loop
ĠInit ial
ðĿ Ĺ
Ġ-* -<
- \
M ET
W idget
[ _
m id
li ca
con tain
ĠĠĠĠĠĠĠĠĠĠĠĠĠĠĠĠ ĠĠĠĠĠĠĠĠĠĠĠĠĠĠĠĠĠĠĠĠĠĠĠ
ho od
AM ES
Ġact ive
vo ke
Ġhash lib
Ġshort cut
Ġperform ance
r at
s ame
u ch
w iki
ing er
Ġp ublic
Ġd uration
ĠP os
ub er
Ġtime steps
") ).
right ness
IG N
ĠCa che
' (
5 00
C om
b l
Ġ âĶ
Ġ questions
de s
ra ps
Ġf alse
Ġf ps
Ġre curs
Ġw heel
ĠA uth
res sed
ĠR oute
ĠE ach
ĠG aussian
Ġ% .
col lect
ST ART
tri butes
De coder
dis able
sentence s
Ġacceler ate
æĸ ĩ
Ġassoci ated
J SON
O K
W riter
e os
f ollow
at is
ut ation
Ġ[ ],<
Ġ2 3
ĠF ield
Ġma ss
EN S
add Handler
tra cing
wh ich
Ġta ken
Ġver ify
tmp dir
ĉĉ ĉĉ
Exec ution
Ġlang chain
ĠIO Loop
C rop
C LS
S ent
c nn
i os
j it
de corator
Ġf e
Ġd er
ĠA c
ĠD et
nn er
lib rary
ST EM
Ġbu f
lat ents
fa iled
Ġinter nal
Ġ[' *.
Ar ray
Ġcho sen
Ġlay out
Ġvi rtual
Sh arded
Ġfl atten
Ġcos ine
deep copy
c ss
c um
d raw
f ps
f used
m ix
s peed
Ġw arning
ad ow
em on
Ġ2 4
ĠR o
Ġres olve
Ġ` ``<
ĠE N
Ġro om
Ġapp ropriate
Co unter
trans cription
ĠDi ffusion
We b
- {
g ster
h ers
re lative
int o
ol ume
is file
da gster
Ġsh ard
Type Error
Ġover lap
Norm al
Ġign ored
Ġoffset s
Ġcre ating
76 8
Ġprobab ilities
Ġcomput ation
Ġcal c
p il
de ps
ex port
pt s
Ġco mpletions
Ġse en
Ġ` ``
am ing
EN ER
Ġal ong
PI PE
reg ion
Ġversion added
off load
Ġiter able
Ġent ire
En v
UN K
ĠDe ep
EST AMP
W hat
Ġ ?
Ġf o
Ġf used
Ġp ol
un ding
(" **/
ĠC ode
Ġg uidance
12 7
gre en
Name d
ï¼ ļ
term ine
Event s
Ġabs olute
Ġ---- ---<
ĠEm bedding
ĠÄ ĳ
p ly
v ers
w arnings
st and
Ġc he
Ġs y
ch ine
ur er
Ġb ins
ĠT able
Ġpa irs
Ġcon stant
pro blems
Ġstr ip
lock s
ĠW ork
Ġen abled
Ġ> >
Ġbase name
Ġfeat s
istr al
Ġprod uce
short cut
Ġfreq s
I Python
P er
er ic
de l
qu ad
Ġg l
Ġst ored
sh are
pos itive
Ġad ding
Ġcode s
scale s
spec ific
Ġcorrect ly
document s
Ġspa ces
T AS
v q
w idget
Ĵ Į
Ġs olver
Ġd g
list en
Ġby te
AR Y
Data Frame
Ġstart ing
Ġcomm un
Ġsystem Prompt
EIGHT S
Ġdes ired
: ])<
D ING
N ew
R ole
V IS
b float
u c
Ġ ~
Ġcon d
Ġh ist
us ing
bu ffers
ĠV i
================ ====
by tecode
ug ins
Ġsk learn
Ġnormal ized
quire ment
Ġmime types
) ",
P ress
c d
g y
l ations
r al
è §
Ġn ull
Ġs p
ur sor
an thropic
Ġb roadcast
ul ate
et ics
ĠS core
res ources
ĠD DP
ĠR ich
(' _
am b
Ġy et
rit ic
index ed
Ġsize s
reg istry
Ġpi ck
find all
Ġbuil ding
Ġjo ints
Ġcomb ined
" })<
E nd
f rozen
g u
s pect
pa st
de lay
ul ation
con tact
ĠI P
Ġpar allelism
Con f
Ġpre processing
`` .
index es
gener ated
Ġinitial ized
Ġbin dings
project or
Ġbuil t
Ra w
prod uct
Ġlet ter
Ġoc cur
fu lf
Q A
b lank
z A
Ã ł
pe t
Ġd raw
Ġas k
ĠA BC
Ġe in
ĠS pec
ĠB ert
cept ed
Ġrequest ed
Ġass istant
fla sh
LI ST
annot ations
fra c
predict ed
Ġeff ect
. /
0 8
t ls
å ¼
æ ł
pa int
er as
re cation
al i
Ġin fer
ĠC at
Ġl st
ĠB lock
ir craft
qui val
ĠĠĠĠĠĠĠĠĠĠĠĠĠĠĠĠĠĠĠĠĠĠĠĠĠĠĠĠĠĠĠĠ ĠĠĠĠĠĠĠĠĠĠ
hook s
rep ly
Str ategy
moo thing
v ic
} '<
on ce
re c
Ġb l
ĠN ULL
ic ate
Ġg amma
Ġde termin
Ġde termine
ĠE vent
Ġsh ared
Ġcol lection
Ġ5 00
be gin
ĠPy Torch
template s
ä¸ ª
Found ation
Back end
variable s
AND LE
3 9
D ate
D eltaTemp
T S
_ ()<
h n
k l
al ias
Ġc sv
Ġs olution
Ġd ynamic
set default
Ġh params
ight s
tro ls
Ġtransform ation
Ġsplit s
Ġu uid
episode s
ĠPo st
sig moid
implement ation
3 8
C ert
U tils
h r
r nn
Ġ ])<
Ġt z
Ġp ot
po w
qu ote
Ġg re
data base
ĠS ent
par ents
Ġres p
], [
Ġgener ic
Co unt
Ġdoc s
Ġ20 48
plan ation
Ġscal ing
# -----------------------------------------------------------------------------<
* ",
C P
N e
S ave
a e
p x
Ġf rozen
Ġin struction
Ġp ur
Ġimport ed
ag ics
Ġwork ing
lip board
Ġcom ment
FO LDER
buil tins
Check er
ĠPar se
tn Mask
Ġap pe
Ġcat s
tnMask Type
C urrent
D G
P ES
U L
U ES
d w
k nowledge
o per
s uggest
} _{
å ĴĮ
é ¢
Ġw arn
Ġimport s
set Level
Ġcon current
py plot
Ġex pi
Ġpro tocol
Ġse lection
op le
unt il
device s
Data Parallel
default s
Se q
Ġmin imum
normal izer
Ġpl ugin
Ġ-------------------------------- ----------------
similar ity
TEM PL
A bstract
G D
a vi
f it
s cheme
in verse
ra ys
Ġ" ".
Ġin p
Ġp lease
an aly
Ġb ad
ot ions
ĠT ransform
Ġg old
ĠF eature
Ġlist en
qui red
Ġtra itlets
cat ing
ĠQ T
edge s
ĠPar ser
expand user
tim ers
Ġmu ch
ĠDoc ument
requ ency
umpt ions
N on
S W
e e
e ces
ç Ń
Ġ videos
al t
ut down
Ġf lip
ct ime
Ġme gab
dim ension
ĠW in
ĠU sage
Ġch art
Ġtype of
ft ware
`` `
Ġle ss
ĠĠĠĠĠĠĠĠĠĠĠĠĠĠĠĠĠĠĠĠĠĠĠĠĠĠĠĠĠĠĠĠ ĠĠĠĠ
not e
PRO P
Ġman age
ĠApp lication
LOC AL
L ANG
S c
d jango
k a
o cab
Ġin verse
co urse
()< /
Ġma ster
te ction
ne ighbor
16 0
Ġexec uted
ĠSh ape
Ent ropy
mis c
, )
B ot
R AG
T MP
m im
t ension
Ġf eedback
ĠA SC
ĠF rame
ĠO ver
Ġpar ents
pen alty
Model Type
Ġq s
Ġsu bject
Ġiter ator
Ġoper ations
Ġvari ant
Ġmodif y
recation Warning
> '''<
c ancel
f mt
s quare
t re
t ick
u pt
al ance
Ġre peat
ul lable
ĠN et
Ġh ypothesis
ĠS tableDiffusion
ta ck
gg reg
cl uster
IC E
iss ues
Di stribution
ä¸ Ń
Ġcondition s
ĠDef ine
yd ra
5 7
M ake
f alse
k ind
in ion
ct rl
ce il
Ġ[ ]
ĠI F
att ers
ĠV ariable
ne ctions
Ġle af
Ġresponse s
cor outine
fla x
Ġfew shot
a de
b ranch
o ice
o perator
pa use
ra int
Ġp ixel
pt ed
el t
Ġst o
ĠF ROM
.. ..
im er
IN DO
av es
mb ers
version s
vid ual
Train ing
Inter rupt
initial ization
AP P
Ġradi us
ĠArgument s
ĠPlatform s
M emory
N G
O p
O ver
O ption
S end
å Ĩ
in p
st o
Ġf light
me tas
lo okup
Ġre ct
Ġ' *.
po sed
ĠS E
Ġde dent
key words
ĠB ack
Ġcan vas
split ext
Ġfin ish
Ġdeta il
let ed
Ġregister ed
kin etics
B N
N ORM
u do
Ġt en
re trieval
Ġc t
Ġs l
Ġs pan
Ġs patial
pt ive
Ġ' /
Ġd ump
to do
pro viders
ĠG lobal
In t
ĠRe set
layer norm
Ġcheck s
arg max
mean s
wh ile
Po st
dic ate
Ġscript s
Ġedge s
Diffusion Pipeline
Ġrule s
Ġagain st
ĠSec urity
, ),
> ##
D ir
I dentity
M ap
S ho
W R
W indows
a verage
e lem
f e
h ps
å ĩ
at son
le arning
Ġc la
Ġre lation
Ġl ora
res ume
Ġse p
Ġbe havior
ĠB ADA
Ġso und
RE CT
ĠK ernel
spec s
Ġtrans lation
Ġfa ils
Ġcommand s
Ent ry
Ġradi ans
ĠCLI P
coll ate
fulf ill
atson x
I LE
c ard
e ef
Ġre tro
Ġs low
Ġ# :
__ )
ĠT R
class ify
te am
dist s
cre ase
HO ST
UR N
Ġter min
upport ed
ĠCol or
ĠFB T
B ADA
F unc
O F
T r
g ers
n ested
t yp
Ð ´
å °
Ġ ]
se udo
it alic
ar ies
Ġan aly
Ġ""" :
Ġdi d
ĠP ack
00 2
ise d
Ġtext wrap
([ -
St d
Ġmo e
ĠSt ate
ML P
Ġchange d
DATA SET
ĠID s
Ġali as
âĶ Ģ
ĠBy tes
Ġerr no
Ġfast api
Megatron Module
oriz ont
Ġlight rag
: ',
M ult
T ask
W H
` ]
e ctions
m n
s cape
y out
st ages
Ġs ync
Ġg c
Ġg ive
Ġh andlers
ĠS ql
Ġde bugger
ĠM agic
(' -
load ers
ĠE X
Ġ5 6
tra ck
Res olver
last ic
Ġab stractmethod
ä¸ į
Ġnormal ization
enum s
Ġdepend encies
help ers
CLI P
L ength
P layer
S O
S ample
a wait
q pos
Ġ })<
st ub
ra d
an alysis
Ġ( -
co mpleted
out s
Ġro bot
Ġkey words
Ġindi cating
deg ree
Ada pter
= %
R outer
V ector
k y
t un
w alk
Ġa uthor
me ster
Ġs olve
Ġm enu
ma ction
con troller
() ``
Ġpro p
pre process
Ġ< /
Ġpre dictions
read lines
log ps
ĠCon crete
Ġreg istry
Ġutil ities
rypt o
ĠAs set
Pos ition
Ġ================================================================= ================================
WAR NING
radi us
5 9
o id
æ ŀ
in i
Ġt xt
re play
Ġm otion
Ġw rong
Ġl arge
ĠI M
form s
ca pture
Ġco pi
if act
split lines
Ġno thing
ION S
ĠĠĠĠĠĠĠĠĠĠĠĠĠĠĠĠĠĠĠĠĠĠĠĠĠĠĠĠĠĠĠĠ ĠĠĠĠĠĠ
ĠEx tract
Config uration
CO DE
wh ite
State Dict
Ġvar ious
æľ ī
Ġvari ance
Ġcam era
Ġada pter
Ġ~~~~~~~~~~~~~~~~ ~~~~
Ġche atCode
2 9
> [
C lo
D M
G ET
k p
Ġn ullable
ĠN ow
im ension
ng rams
Ġsc roll
assert Is
level name
ĠLo g
Ġimplement s
Ġdis abled
script s
Ġstack level
Ret ro
ĠComm and
) }<
4 01
I I
b tn
c f
l arge
Ġt ied
re ceived
st udent
Ġm id
Ġd in
ĠS c
ĠD ec
init e
Ġres pon
Ġsh are
") ]<
Ġtemp oral
UN D
reward s
ÑĢ Ð°Ð
Ġorig in
Ġhapp en
TY PES
==================== ==<
C ustom
i ssion
l int
ce back
ch a
rom ise
con tin
ĠF irst
ĠF ast
ON E
Ġy aml
ener gy
Ġgener al
Ġrun time
comm un
Ġbo o
ĠRes ult
board Interrupt
Ġproj ection
OPEN AI
LIN ES
ĠDown load
b eat
l on
} ',
é ĩ
Ġin correct
import s
qu ent
ver ify
######## ####
ĠV ideo
>> >>
gn itude
IL INE
riter ion
annot ation
Tra jectory
Ġbound ary
separ ator
RI PT
) ?
G PU
I X
O FF
S cale
c b
h ere
s mpl
Ġ vertices
Ġ estim
Ġs li
an ner
as cript
Ġdi sk
Ġh ad
ĠS top
pro xy
ĠL lava
ĠF uture
key word
par is
OR Y
AT TR
Ġ/ =
") [-
av ascript
ĠĠĠĠĠĠĠĠĠĠĠĠĠĠĠĠĠĠĠĠĠĠĠĠĠĠĠĠĠĠĠĠ ĠĠĠĠĠ
DO C
:` .
va e
Class ifier
Run ner
Ġdirect ories
mas if
' ll
G RO
W ait
b r
m ing
in el
se e
re ens
re call
ar ding
Ġs he
th ers
Ġex clude
att empt
am ond
sk y
log in
ĠH el
Ġtrain able
Ex tract
ĠEx ec
arg types
Dataset Config
Pa rameters
Ġexec utable
pol ate
VI EW
Ġcu da
chron ous
ĠCore Foundation
P M
T erm
Y THON
h y
h am
n dim
t wo
u ator
Ġc ategories
ed Dataset
Ġm im
Ġd ue
ĠT HE
Ġis a
as ctime
vi sed
pro cesses
ĠP lay
sh a
par sed
Re cord
ump rod
Ġsample d
comp iled
Co mpletion
gre es
á´ ľ
Se lect
ĠLo ss
De bug
Ar g
Ġcomput ing
ĠNorm al
Ġ================================================================================================= ======================<
A ng
C annot
F OR
G ER
R A
U ns
c x
d rant
f ord
i ke
k ely
ro id
mp u
Ġf ront
di stribution
ser ial
Ġdef inition
co me
() `
Ġst ory
ĠP h
ĠF ace
Ġso ck
pos it
Ġ`` '
Ġcan onical
block ing
Ġsql ite
SY STEM
He ader
C UDA
S M
f eed
k s
u gment
Ã ©
ro om
Ġc li
Ġb box
Ġb ert
li es
Ġ( [
Ġcon t
pp onent
Ġpre train
Ġpy lint
pos ix
ĠIn stance
DE EPGRAM
Ġsc orer
fix ed
Ġca p
wh itespace
Ġlocal s
mer ged
ĠTe mplate
aut ore
B M
D IM
G ENER
e le
Ġw ave
con tri
Ġan alysis
ĠR E
ĠM IT
Ġun known
log it
Ġinter section
gener al
../ ../
Ġtemp orary
CO GN
}) "<
Ġreference s
ĠTime out
rest ype
Ġbot tom
plo y
éĹ ®
æį ®
( ['
M ark
T agger
X X
a ff
ê ľ
at uration
Ġf aiss
Ġ" :
ce l
di ag
ur bo
an ford
Ġm ultip
ĠS ystem
Ġ* ,<
Ġst udent
ff n
Ġma g
ĠM ark
ĠE nd
Ġcheck points
Ġstart s
Ġcomp onents
Ġany thing
down sample
socket s
WOR KING
peri od
åĽ ŀ
é¢ ĺ
A E
A ss
C re
D F
[ (
d at
d ynamic
n ull
s chema
in ja
di sk
Ġ1 8
Ġdi ag
ĠI nt
pre view
ĠG roup
ĠH e
ST AT
)) ))<
Ġsu g
Name space
Pa ss
Base Model
Ġwrit ten
abs olute
MO D
Ġtr uth
Ġexception s
link s
Ġsepar ator
Print s
orizont al
ĠSql Queue
+ '
D et
E d
F inal
J o
U AGE
c umprod
æ İ
he ses
id ence
ma ps
is ing
Ġ1 7
Ġ2 8
Ġk v
Ġal igned
DE D
12 4
run e
Ġinter active
Ġgra ds
CH AN
cal lable
arg in
ĠPro vider
Ġwork flow
Ġwindow s
mem ber
slo th
Entropy Loss
U sing
s afety
ge ther
Ġre mote
Ġb racket
Ġcon trast
ĠL ex
ĠL ight
ĠB ot
Ġen ough
Ġpre process
col lector
Ġfunction ality
Ġcheck ing
by te
PRO CESS
hel per
fra gments
exist ing
Ġrequire ments
Ġfra gments
202 3
mim ic
upt ools
ĠBytes IO
D Condition
F low
L AT
c utoff
f allback
g acy
h it
l n
Ġ ----------------
Ġt ab
ent ions
pe ft
ig r
Ġ1 9
(" ,
Ġdi stributions
qu ot
ĠL ON
form er
ĠF in
Ġpy torch
Ġwin error
rank s
Ġsub set
Ġiter ations
be havior
Ġreg ion
Gener ate
ik token
ĠRet rie
VAL UE
Ġretrie ved
allow ed
pers on
++ ++
construct or
Trained Tokenizer
ALLE L
Execution Context
LANG UAGE
L imit
T LS
e g
al loc
Ġs ymbols
ex pression
us ic
if ies
Ġres ume
ĠO ut
ub lish
Ġk ind
add Message
Ġtime step
mat plotlib
ST ORE
Ġcomp ile
ĠSe arch
Se arch
vision er
({ <
can vas
Scheduler Mixin
Ġident ity
orig in
Ġsimilar ity
avig ation
# <
4 80
M ain
M apping
m ore
w atch
å ¯
è ¦
er ical
Ġf f
Ġd a
to xic
Ġg ym
pro perties
ĠW rite
Ġpy wintypes
AT CH
ĠH p
context manager
DE F
Ġgener ating
') ),<
scale d
Ġ{} ,
ĠFor ward
ĠLo cal
pack ed
Ġform atting
CT ION
Ġtre es
Ġwho le
Ġvis ual
Met adata
Ġconsider ed
0 7
> %
T F
e ach
f r
f inger
i ence
m ime
t t
x el
Ñ ı
er ator
re lation
Ġs ig
Ġw av
ma jor
Ġd en
Ġcon tin
() ),
Ġh s
ver sed
Ġr gb
ĠM ask
(' <
Ġal t
RE COGN
Ġcomp ress
Ġmo use
Ġread ing
dis abled
Ġdis patch
PO L
Ġta gger
trace back
Ġdecode d
rypt ed
quatern ions
E CH
M at
S cal
U se
] ',
d g
f time
t ility
Ġc nt
li hood
Ġd ay
ĠT EXT
Ġe qu
ĠS im
ri ve
ĠP rint
Ġde script
Ġpre tty
ac gym
mar izer
Ġmat ched
ĠSt ore
Ġbo ok
Ġfin ished
En vironment
graph y
%% %%
Bytes IO
vic orn
TEMPL ATE
A ccess
F irst
M issing
M agics
N AMES
T op
T arget
V al
l b
t anh
Ġ" ",<
Ġin stanti
Ġn one
Ġm maction
ul ly
as array
() .<
data s
ĠR ender
cl usion
RE G
RE T
Ġrun s
Ġ8 0
Ch ange
ĠKey boardInterrupt
gr ation
weet s
ĠQue ue
ali ases
Ġisa acgym
Ġsug gest
P lay
S P
m g
s m
æ ī
pa ste
al ong
Ġm ix
Ġb i
Ġb one
ĠP ool
ĠF n
num bers
EN ABLE
") ),<
graph s
Ġvocab ulary
VAL ID
Ġmark er
extract or
Dep endency
proposal s
multip ly
ome try
/ %
d ers
r ing
r sp
s pl
s low
Ġc utoff
Ġre cv
po wer
() :
Ġ{ :.
ho ur
yn tax
ys ics
add itional
ĠV er
Re al
url lib
Ġte ar
ĠĠĠĠĠĠĠĠĠĠĠĠĠĠĠĠĠĠĠĠĠĠĠĠĠĠĠĠĠĠĠĠ ĠĠĠĠĠĠĠĠĠĠĠĠĠĠĠ
doc string
Res Net
temp oral
Pre trained
fc n
element s
Reg ister
Des cription
depend ency
Ġmak es
GRE EN
è¦ ģ
) /
) ",<
H I
] {
s ur
u an
st ar
ur i
ent ities
Ġb lank
str ftime
co okies
Ġ[ ])<
ĠC URRENT
Ġe ar
ke pt
Ġh yp
Ġse ns
time delta
da ct
mo mentum
Re quirement
Ġlog ic
Ġpo oled
ID L
Ġmo mentum
Ġinter cepted
Ġext ended
ĠJ o
At tr
Ġbet ter
ap pauthor
ĠX ML
TIM ESTAMP
Ġclose st
break point
ĠSk ip
Ġmegab locks
RECOGN ITION
ECH RECOGNITION
P ri
P ER
V AR
c us
u la
z a
in place
in ux
Ġt iktoken
ss a
Ġh i
Ġh ard
Ġl on
ri a
cl us
Ġal tern
Lo cal
ns i
Ġper cent
level s
Ġposition al
Ġ9 6
Ġextract ed
vant ages
Ġge o
âķ Ĳ
contri b
7 9
: {
F etch
O M
S V
U ID
i pping
r atch
è ¡
re view
re tries
Ġ" ":<
co ver
up load
Ġl ate
ĠR OC
par sing
Ġar rays
ĠM et
). """<
head ing
Ġpre ds
ans i
dd p
Ġimp ro
ä¸ º
Ġstd in
BU FF
cos ine
Ġlong er
quant ization
activ ations
PAR ALLEL
quival ent
DCondition Model
" /
8 9
H ANDLE
J son
S ign
W EIGHTS
c atch
i od
t i
Ġre ceived
ort ion
Ġs cheme
Ġs ymbol
ad ing
ul ator
Ġg ui
Ġh our
init ions
pi red
Re cognizer
Ġqu ote
ĠPro gress
Ġ-- >
]+ ',
Init ial
Ġrequire ment
Str uct
Ġcapture d
ĠSho uld
sph inx
ĠSS L
Ġoccur red
Ġein ops
ĠMagic Mock
" '
" ',
B ACK
C ursor
D rop
R C
Z MQ
d antic
y ear
ð Ł
or i
or ator
re v
Ġf act
Ġre search
di lation
Ġo ps
ex periment
Ġb its
pt cha
Ġis p
int ain
Ġ* ,
Ġco okie
Ġres ources
Ġ` .
ĠW ait
In teger
ne ighbors
ST ER
context s
AC KEN
su ch
La yout
HT ML
Ġstyle s
nal y
100 00
Ġhandle s
Ġtr ust
edit able
segment ation
Gra d
pipe lines
require ments
Ġfe et
! !
" >
J ECT
L anguage
M EM
S imple
b ig
g old
h and
y es
in ing
Ġt s
Ġf lops
Ġw on
Ġd w
set Formatter
Ġh ydra
Ġth ings
Ġ< <
Ġpy audio
tr l
ĠSe gment
Ġ5 7
Config urable
Ġq k
)) [
ĠMe thod
eps ilon
Ġident ifier
Ġtri mesh
ĠConv Module
Ġsimp ly
crement al
alph as
ĠLex ers
( ""
D ES
N S
T ag
T otal
U sage
c m
o st
u cli
Ê ľ
Ġ ----------------------------------------------------------------
de an
ra ints
Ġc er
ch rom
ad s
ĠA ct
Ġ+ <
Ġde bugging
Ġco eff
Con struct
point er
") )
Ġne ver
Ġclass ification
tri but
Ġjson logger
old ers
)) ]<
scal er
Ġlook up
depend encies
tot ypes
ĠRich Handler
ucli dean
A VA
C lipboard
G TH
i magen
s id
w rt
~ /
ur u
an no
Ġis n
Ġ1 92
ĠA da
ĠS ingle
fig ure
ĠP EP
do uble
if est
ĠM emory
Ġj upyter
Ġdo uble
ST ATE
ID TH
Ġstart up
win error
inter faces
Ġper formed
trans late
bin ding
Ġwork space
stream ing
Ġhandle d
ap shot
VAL UES
Comp ute
Ġcoord s
Ġepisode s
ĠQue stion
bet as
schedul ers
Ġmim o
L ink
r f
t w
t ornado
Ġ er
pa ns
al go
Ġc ext
Ġre ally
Ġin d
Ġp c
Ġb ranch
um ing
is dir
pro g
ĠD B
do ctest
pre train
load ing
so und
'] )
ft max
Ġraise s
Ġtrain ed
Ġbu ffers
yp edDict
ac quire
lif y
group ed
Ġone s
filename s
inst alled
Ġbuil tin
Ġcons ist
multi processing
Ġcompat ible
orary Directory
Ġinclu ded
acceler ate
contain s
0 9
A uthor
E scape
K ER
N P
W w
_ ):<
i ans
å ¹
st mt
Ġs s
Ġb ank
ation Error
ĠC orpus
ĠS te
im ation
if rame
Ġget s
ĠM apping
mat ched
Ġunder lying
net es
ug ht
Ġread y
req Dist
ĠPa rameter
ĠConfig uration
serv ations
auss ians
Reg istry
Corpus View
Ġacceler ator
FORM AT
allen ge
uber netes
çŃ Ķ
BUFF ER
B E
L Y
V is
e in
h w
k ill
l ugin
Ġa zure
ort h
Ġp ush
ĠA R
Ġg uess
ĠS tr
Ġex periment
Ġk nn
Ġstate ment
iter able
Ġtra cker
De vice
Ġent ity
pend ing
ĠFile NotFoundError
pri or
Load ing
Buil der
SPE ECHRECOGNITION
æĹ ¶
Ġdin ov
) ],
4 6
C N
M y
R ank
S u
a ive
b reed
m c
s y
s il
v env
} ]
de prec
di ffer
el low
Ġh ol
Ġh yper
che my
class ification
ensor s
ĠB ox
ĠE uler
nn ot
ĠCon dition
Ex it
Ex tension
ang lement
assert False
Ġpat ches
Ch annel
Di stributed
PRE VIEW
Ġeps ilon
Ġbuil tins
skip if
ĠAl so
Dis play
Ġedit or
ĠSo ftware
traj s
LEN GTH
mag ics
rat ios
ĠNet work
éĹ® é¢ĺ
. "
7 2
B ert
F ont
I AL
S um
f lo
} $
ä ¿
ç Ľ
al s
he st
lo ut
di gest
ol utions
Ġl er
Ġstr ategy
Ġde grees
ĠD ropout
Ġpro blems
ĠR educe
use s
Ġr v
iv ity
split s
>> >
ey e
Ġqu bits
oc us
face book
CO MP
Base d
Ch ain
ĠName d
Em otion
ĠExample s
ĠIndex Error
Pool Executor
ĠQu ant
Ġexplicit ly
Dummy Object
ĠSent ence
Ang le
! "<
L AY
P age
t le
v ailable
} '.
Ġt type
Ġre tries
Ġs ur
Ġs peech
Ġs afety
pe g
Ġb g
ĠA I
ĠS in
ĠL AT
ĠD ummy
ll ms
ĠM AX
ĠB atch
IN ST
IN PUT
ON T
AS H
PI L
range s
Ġass umptions
Ġ12 3
ĠCheck point
let te
fin etuning
ĠZ ero
Ġrender able
ðĿ Ĵ
medi a
Ġdepend ency
Ġap pauthor
Ð¾ Ð
Ġtk inter
ĠLO G
Ġhel per
Ġler obot
$ ',
5 3
? ",
C RE
R educe
V ENT
b rid
b roadcast
f aiss
j ection
Ġt as
al ive
Ġf eed
me th
Ġc ip
ce d
di mage
Ġp m
pe dia
Ġb ig
el ls
set attr
ĠC ross
res ses
che atCode
Ġde cor
ub e
Ġtime delta
ĠH andle
[: :-
ĠSe lf
Ex pected
inter section
Ġinter mediate
arg er
á´ ħ
cli ps
Ġfilter ed
Ġdiffer ence
Ġlong itude
ĠSo me
NORM AL
paris on
Ġlate st
* ',
. ,<
. ",
c ial
l ig
m map
o ken
s keleton
Ñ Ħ
Ñ ĭ
ar ras
Ġreturn ing
ĠN on
ĠA nd
ĠI BM
Ġco urse
list s
port ion
Ġlog uru
Ġho me
command s
Gener ic
ĠNorm alize
Ġiss ue
' d
E VAL
G o
b ra
i con
s parse
ĥ ½
Ġc p
Ġre ce
Ġs n
ch or
ĠT arget
Ġe lem
Ġdi vide
ter ance
ĠD on
Ġun iform
ĠE d
ĠG iven
Ġ3 84
ĠV ocab
gra dio
pla nner
ĠCon struct
ĠSt at
Test s
000 1
ĠPy Qt
thread ing
MODE LS
play wright
ĠGPT Model
lab v
ĠCO PY
deep labv
Ġpe ople
detect ed
mega Conf
âķĲ âķĲ
f A
g aussian
u ations
pa ct
pa nel
re te
ur ations
ex clude
Ġm as
pe s
one y
ĠC H
Ġst ar
Ġme l
Ġse curity
ĠM a
fo cus
ĠE nt
In formation
Ġstart ed
ĠĠĠĠĠĠĠĠĠĠĠĠĠĠĠĠĠĠĠĠĠĠĠĠĠĠĠĠĠĠĠĠ ĠĠĠĠĠĠĠĠĠĠĠ
ject ories
gener ic
width s
be led
fi ed
({ '
Ġ100 00
PY QT
active Shell
Ġevery thing
umul ative
asure ment
ä» ¥
Ġbegin ning
calcul ate
Ġcopi ed
Uns upported
> ',
] [-
g its
j ar
{ <
Ê ı
à ¸
å ½
Ġ vec
ot st
ver ter
em ent
ca ses
Ġpro c
Ġpro perties
#### ##<
dict s
time step
so urces
ĠW indow
Ġk w
ou ble
min imum
Pro d
Co mpleter
vo cation
Ġconv olution
KEY WORD
pool er
Ġjo in
Ġsegment ation
END POINT
åı ĸ
Ġscal er
Ġregex p
AMP LE
ĠForm at
============ <
inte ger
çĲ ĥ
posit ory
Ed ge
clus ive
B IN
B asic
F eature
n l
r s
ä ¹
è ¾
it ed
ad min
Ġ""" \<
(" ()
Ġh uggingface
Ġout s
__( **
yn chronous
eight s
port s
Ġ4 00
ST D
Ġcol late
check box
Ġcomp iled
AN CE
sp id
cre ated
Ar gs
match ing
Ġlimit ation
En coding
freq s
spa m
clean ed
Ðµ Ð½
Ġacc umul
MULT ILINE
Ġtokent ypes
. '<
6 9
> '
K L
R ect
T C
W A
b x
g l
r ins
} .")<
ç ī
Ġt i
al igned
ra sh
Ġc redentials
Ġm map
__ ,<
__ ",
__ ),
ĠT ry
Ġe lapsed
Ġh uman
Ġ2 1
im ate
Ġx s
Ġr ho
Ġr ather
Ġapp name
Ġnew line
AR D
lin space
ĠĠĠĠĠĠĠĠĠĠĠĠĠĠĠĠĠĠĠĠĠĠĠĠĠĠĠĠĠĠĠĠ ĠĠĠĠĠĠĠĠ
Ġup load
Ġcall er
ĠPro b
Ġstream ing
IL D
cho sen
rot ations
Ġexpress ions
Ġ32 0
connect ed
Ġsocket s
Ġopt s
[[ ],
åĪ Ĩ
Ġpop up
atis fied
Ġboo lean
ele ms
pans ion
B L
L ow
l lout
m ic
s ure
se maphore
re search
de scri
al chemy
di stributions
Ġw intypes
ad ding
Ġdef ines
Ġd up
() ])<
Ġe ma
ĠL ive
ĠF loat
Ġco mplex
ĠD agster
Ġdata s
ĠU sed
Ġby tecode
log y
eval s
Ġtensor flow
comp onents
AC CESS
mark down
HO ME
edit or
scal ar
Ġph ase
Ret ry
sem antic
ĠCLI PT
reason ing
moo th
IB UT
Cross EntropyLoss
Ġpk g
MET HO
quad r
reens hot
ĠFace book
Ġmas if
( "",
c gn
h ip
m ma
p lex
s nake
Ġ" **/
an e
Ġb old
Ġ[ {"
form atters
Ġde epspeed
att entions
Ġse em
ĠM y
ĠM ain
In struct
ph rase
frame work
lin ux
Ġmessage box
ak ref
CH AR
Ġtop k
Ġdown sample
tok s
pan ded
As sert
Hel p
ĠRetro PreprocessingConfig
BO X
tim ing
pc d
Ġdistance s
Ġinstr uctions
iline ar
SY S
GE LU
åŃ ĺ
otst rap
) (\
* \
A vg
C LO
G ui
] }
q wen
s la
x ies
æ Ń
er ial
Ġ= ================================
ut c
Ġc ent
Ġ" \\
Ġin place
Ġo mega
li ct
Ġto gether
Ġd m
ext ernal
(" [
Ġh n
Ġl iteral
em mer
ĠD es
Ġma chine
ĠIn stall
col lision
LE TE
Ġte acher
Ġsub stit
Ġper iod
Ġext ensions
comm end
CON N
ĠModel Config
Text Tuple
Ġcom pare
ĠString IO
ud ge
MA P
fra gment
curr ence
RES ET
OUT PUT
.* ?
ĠDis patch
deta il
ĠCOM Exception
And TextTuple
oriz on
DEV D
cip hers
ĠGo ogle
) `
B e
U C
U ST
_ %
d c
n ed
t ar
y ield
| [
å ¾
Ġ qui
Ġ ?<
Ġt b
Ġ" $
ar p
Ġre l
ce eded
ch an
Ġb all
Ġb ind
__ __
Ġex ceed
ff t
pre tty
am s
__( *
Ġen viron
cl ar
ab stract
lat ex
Ġsub classes
Ġinter rupt
Ġback off
ĠValue Set
ĠJ upyter
Ch art
IL ITY
Ġlevel s
ĠConfig Mixin
Mo dified
Ġreason ing
ĠTrain er
Iter ator
ĠMegatron Module
//////////////////////////////// ////////////////
fail ure
Ġindi vidual
æĪ Ĳ
Ġattach ment
æķ° æį®
HER E
Ġappro x
CHAN NE
ĠROC D
plex ity
( ('
) "
4 1
C D
D ER
N C
c ritic
e uler
p ot
æ Ŀ
Ġ velocity
de ploy
Ġp r
def ine
Ġb order
li z
Ġfor ms
con vention
Ġan n
ĠS ame
ĠL i
ta gger
ĠO ptimizer
ĠCo unter
max size
iv ers
AT OR
lect urer
run s
Ġne arest
Ġmay be
Pre TrainedModel
So ftmax
06 27
Ġinte gers
Ġdebug py
Ġser ial
Ġmon key
ARG S
peak er
B OT
C AP
M M
O ut
R UN
] ])
g uidance
g ripper
h ard
i ment
| >
se quential
re curs
Ġm ixed
li der
Ġ( ?
ĠA bstract
Ġg ripper
Ġh it
Ġres pect
file id
Ġ` (
ps p
~~ ~<
ER Y
Ġconfig s
start ed
Lo okup
row n
ID C
mar gin
response s
Par ent
Ġfa ster
tag ged
Ġbin ding
lan ding
ĠZ MQ
limit er
Ġepoch s
Ġpri mary
Ġtim ing
Ġprobab ly
19 2
fra ction
Reg ion
afet ensors
oug ht
Ġcoord inates
Ġpe ft
syn tax
Bin dings
Scal er
' ^
G LU
S F
j ax
l it
pa red
re verse
Ġa ircraft
Ġa ugment
ro les
Ġc ut
ch aracter
Ġm iddle
Ġfor e
Ġcon cept
Ġcon tact
qu eries
Ġh is
res olver
Ġar t
pl ugins
=' ',
pat terns
Ġca usal
inter p
inter le
Ġinter preter
Ġversion changed
Ġpat terns
Ġscale s
Set Console
prob ability
bi encoder
buil tin
Ġcallback s
Iter ation
æĪ ·
Segment ation
pixel s
acceler ator
Ġquot es
INDO WS
ĠIM AGE
C R
P ASS
S chema
e ft
ç ½
at map
at ives
un pack
is o
Ġl arger
ĠL L
ĠP T
ĠI dentity
ĠF aiss
Ġco mplet
Ġma de
app ro
ĠB in
") ))<
Ġbu ff
row th
ific ates
Ġpart ition
ĠAt tnMaskType
:` ~
Ġinclude s
fin etune
ĠIndex edDataset
Ġbar rier
? "<
A ST
L ib
a il
f ork
p isode
å Į
ç º
Ġ= ================
de epspeed
Ġf d
Ġf t
Ġc ancel
ge o
Ġre fer
Ġs chema
ch in
Ġw raps
pt d
el s
Ġh and
Ġde leted
and box
input hook
Ġj obs
'] ))<
act ual
ĠIn ference
([ ])<
ac ross
ab i
AN T
cor der
ĠĠĠĠĠĠĠĠĠĠĠĠĠĠĠĠĠĠĠĠĠĠĠĠĠĠĠĠĠĠĠĠ Ġ
Ġsub mit
Ġli kely
Ġsu id
sub mit
Ġurl parse
Ġover all
TO COL
0000 00
Ġclo sing
Sh ape
Ġcons istent
free ze
ĠSharded StateDict
ĠTrain ing
ĠAd am
mediate ly
Ġrep lica
high light
åľ ¨
: ].
S ING
] ",
a ran
a zure
b ird
c as
g an
j ump
s ampl
s ymbol
re compute
it ect
ar b
Ġin complete
__ ).
Ġ' ')<
Ġde que
Ġde tection
ĠD raw
[" _
Ġv llm
am o
alle t
tr unc
** *
Ġne igh
min or
Ġindex es
gram Client
Ġbase line
AG ES
pack aging
Ġexec utor
Pre dict
cogn ize
ĠMo E
callback s
Ġtim m
Ġhook s
Ġvis ible
Ġnamed tuple
Ġrep ly
sli ces
bos ity
candidate s
accumul ation
ĠDeep gramClient
Ġisaacgym envs
ĠSte ven
C ho
M em
P lugin
W M
Z ero
f light
g z
j upyter
ä ¼
re dis
di amond
Ġs ym
ur ther
Ġp in
Ġimport ant
is p
Ġe quivalent
ĠF eed
sh ard
Ġma ps
Ġse c
ĠO ptions
ir m
mo v
Type s
not ify
au gment
over flow
table s
Di ctionary
ĠAN SI
bot tom
Ġlat itude
Ġman ually
let ter
Head ing
Loader Mixin
Ġgo od
record s
Ġph rase
ĠRa ise
real path
Ġsql alchemy
FLAG S
Ġprior ity
Ġinher its
cum sum
Ġgre ater
ĠTR AIN
mn i
ĠConcrete Instr
4 3
4 9
> *
A K
D IC
Q wen
[ /
[ ~
f path
å Ģ
Ġ ^
re main
Ġf id
Ġre load
ch dir
Ġm d
pe ated
Ġd p
Ġcon troller
ĠP Y
ca usal
ĠU I
lic ations
AT H
stribut e
Ġca re
Pro gress
Ġpass ing
cri be
Ġneed le
Ġstride s
err no
Frame s
clip board
ðĿ ĺ
pri vate
Ġretrie ver
Ð¸ Ð
clu ded
Ġchat bot
tim er
Ġdest ination
Ġdetect ed
Ġmag ics
' ``
) ],<
6 5
G ather
M ESS
P ACE
e od
se quent
Ġa m
ers ations
pro totypes
ĠRe ference
Ġwin reg
Ġmax Tokens
Ġad ds
check ed
transform ation
ĠĠĠĠĠĠĠĠĠĠĠĠĠĠĠĠĠĠĠĠĠĠĠĠĠĠĠĠĠĠĠĠ ĠĠĠĠĠĠĠĠĠ
Ġinter act
sub modules
De bugger
Ġfla sh
ĠDe bug
ib ly
ud y
host name
Ġcomput ed
mult imodal
Ġmon th
Dep th
Ġproj ections
Ġtrunc ated
äº İ
cro ps
writ ten
multip lier
ĠMO DE
Ġcy cle
Ġproper ly
Ġplan es
+ \
E E
N um
P ID
S df
e lapsed
h int
j ava
v s
æ ¡
Ġ ))<
or so
Ġa ble
ro ken
Ġf requency
Ġ" @
di git
ig hest
set ting
up ed
() ),<
ĠS end
Ġex planation
fo x
ĠG LOBAL
read line
wait able
SE D
fil eno
16 000
16 384
cor er
new axis
iter ations
To Tensor
á´ Ħ
Se lection
su med
De lete
wh at
Set tings
Ġent er
Pi ece
Ġpack aging
ĠComp utes
Sh ift
Ġpla in
ĠEn coder
erm ine
è¯ ·
sv g
Ġdescri bed
Ġindic ates
çĲ Ĩ
åĩ º
WH ITE
æŀ ľ
smpl lib
A Z
K IP
L IMIT
M icro
P td
c ategories
k h
m iddle
o gram
w i
x label
y ellow
Ñ Ĩ
Ġ vert
de co
de script
Ġn x
an et
Ġm is
Ġm argin
Ġb n
li as
Ġdi vision
us y
ĠO bject
file path
Ġr hs
Con nect
Ġpre ferred
com b
In ference
IT H
Ġne ighbors
Pro perty
Ġinter polation
RO L
Ġformat s
20 48
irs peed
Request Exception
17 7
riter ia
web kit
SC RIPT
micro soft
Ġá´ Ľ
sens us
Ġ[` ~
Ġiss ues
Ġhapp ens
FR AME
aff ine
amo unt
/ "<
B ER
C lick
N ext
T K
c ot
g ran
x e
¦ Ĥ
æ Ģ
in voke
se l
se ek
Ġf lat
Ġre tain
Ġs quare
Ġw a
Ġ( _
Ġ' )<
ic i
ĠS QL
ca sed
Ġun less
op ied
bo mimic
Re gex
io loop
IT EM
Pro file
Ġext ernal
ING S
Res ize
ĠJ son
Ġfin etune
fi re
PO S
Ġperform s
ĠGPU s
retrie ved
Ġaverage d
compat ible
Dec orator
Ġfig ure
ĠAgent P
Fin der
din ov
Ser vice
Ġfrozen set
Ġpixel s
AndTextTuple s
' ve
) [...,
) }"<
A UTH
A USE
C ERT
M AN
P N
S A
n avigation
s peech
er un
re cognition
mp y
Ġn s
un used
ext ended
Ġas pect
ĠA nsi
qu it
vi dia
text only
list ic
ĠR ET
Ġ: :
"] ),<
dim ensions
com bin
ĠV Q
SE LECT
ai ch
Ġob servation
Ġtrans cription
UR ITY
ĠAt tributes
ĠSh ift
ĠPa ss
Ġrepresent s
Ġselect or
Request Error
ĠPre TrainedModel
Ġclo ud
UP PORT
Ġdownload ing
mon itor
ä½ ¿
Decode Head
slo ts
COM M
ĠWeb Socket
ĠPost gres
' }<
C V
F ull
I PE
L ES
] ")<
c ython
f y
f old
n r
s wap
Æ °
Ġt id
Ġi ou
la nd
Ġp il
Ġb rightness
con s
es h
po oled
Ġe uler
ter adata
ĠS cript
Ġst uff
ĠF rom
ĠU N
Ġpy dantic
ĠRe gex
ok ed
ĠIn teger
Ġ`` (
AS K
Ġcomp onent
ĠPro gram
Ġfa ce
Ġcom ments
{} ".
domain s
æľ ¬
ãĢ ģ
igned Sent
}: {
åı ¯
Ġscal ar
retrie ve
ĠDis play
ĠDep recationWarning
Ġfra gment
åĬ ł
Buil tin
CM D
åº ¦
ĠâĶ Ĥ
CLS ID
ĠBot tleneck
comb ine
( %
C li
D C
G lobal
H older
] "
] [:
r ss
Ġ= ========
st andard
al an
al ways
Ġc riterion
Ġn d
th at
Ġw f
ad just
is m
Ġcon version
Ġh ue
Ġst and
