{"<s>":0,"<pad>":1,"</s>":2,"<unk>":3,"<mask>":4,"<N>":5,"!":6,"\"":7,"#":8,"$":9,"%":10,"&":11,"'":12,"(":13,")":14,"*":15,"+":16,",":17,"-":18,".":19,"/":20,"0":21,"1":22,"2":23,"3":24,"4":25,"5":26,"6":27,"7":28,"8":29,"9":30,":":31,";":32,"<":33,"=":34,">":35,"?":36,"@":37,"A":38,"B":39,"C":40,"D":41,"E":42,"F":43,"G":44,"H":45,"I":46,"J":47,"K":48,"L":49,"M":50,"N":51,"O":52,"P":53,"Q":54,"R":55,"S":56,"T":57,"U":58,"V":59,"W":60,"X":61,"Y":62,"Z":63,"[":64,"\\":65,"]":66,"^":67,"_":68,"`":69,"a":70,"b":71,"c":72,"d":73,"e":74,"f":75,"g":76,"h":77,"i":78,"j":79,"k":80,"l":81,"m":82,"n":83,"o":84,"p":85,"q":86,"r":87,"s":88,"t":89,"u":90,"v":91,"w":92,"x":93,"y":94,"z":95,"{":96,"|":97,"}":98,"~":99,"¡":100,"¢":101,"£":102,"¤":103,"¥":104,"¦":105,"§":106,"¨":107,"©":108,"ª":109,"«":110,"¬":111,"®":112,"¯":113,"°":114,"±":115,"²":116,"³":117,"´":118,"µ":119,"¶":120,"·":121,"¸":122,"¹":123,"º":124,"»":125,"¼":126,"½":127,"¾":128,"¿":129,"À":130,"Á":131,"Â":132,"Ã":133,"Ä":134,"Å":135,"Æ":136,"Ç":137,"È":138,"É":139,"Ê":140,"Ë":141,"Ì":142,"Í":143,"Î":144,"Ï":145,"Ð":146,"Ñ":147,"Ò":148,"Ó":149,"Ô":150,"Õ":151,"Ö":152,"×":153,"Ø":154,"Ù":155,"Ú":156,"Û":157,"Ü":158,"Ý":159,"Þ":160,"ß":161,"à":162,"á":163,"â":164,"ã":165,"ä":166,"å":167,"æ":168,"ç":169,"è":170,"é":171,"ê":172,"ë":173,"ì":174,"í":175,"î":176,"ï":177,"ð":178,"ñ":179,"ò":180,"ó":181,"ô":182,"õ":183,"ö":184,"÷":185,"ø":186,"ù":187,"ú":188,"û":189,"ü":190,"ý":191,"þ":192,"ÿ":193,"Ā":194,"ā":195,"Ă":196,"ă":197,"Ą":198,"ą":199,"Ć":200,"ć":201,"Ĉ":202,"ĉ":203,"Ċ":204,"ċ":205,"Č":206,"č":207,"Ď":208,"ď":209,"Đ":210,"đ":211,"Ē":212,"ē":213,"Ĕ":214,"ĕ":215,"Ė":216,"ė":217,"Ę":218,"ę":219,"Ě":220,"ě":221,"Ĝ":222,"ĝ":223,"Ğ":224,"ğ":225,"Ġ":226,"ġ":227,"Ģ":228,"ģ":229,"Ĥ":230,"ĥ":231,"Ħ":232,"ħ":233,"Ĩ":234,"ĩ":235,"Ī":236,"ī":237,"Ĭ":238,"ĭ":239,"Į":240,"į":241,"İ":242,"ı":243,"Ĳ":244,"ĳ":245,"Ĵ":246,"ĵ":247,"Ķ":248,"ķ":249,"ĸ":250,"Ĺ":251,"ĺ":252,"Ļ":253,"ļ":254,"Ľ":255,"ľ":256,"Ŀ":257,"ŀ":258,"Ł":259,"ł":260,"Ń":261,"><":262,"pa":263,"pad":264,"ĠĠ":265,"ĠĠĠĠ":266,"ĠĠĠ":267,"ĠĠĠĠĠĠĠ":268,"in":269,"or":270,"se":271,"on":272,"at":273,"er":274,"en":275,"Ġt":276,"Ġ=":277,"re":278,")<":279,"st":280,"de":281,"></":282,"al":283,"ĠĠĠĠĠĠĠĠĠĠĠ":284,"ro":285,"im":286,"Ġa":287,"le":288,":<":289,"ra":290,"ut":291,"ch":292,"ion":293,"it":294,"lf":295,"self":296,"ge":297,"Ġf":298,"lo":299,"ar":300,",<":301,"ed":302,"Ġ\"":303,"ct":304,"ĠĠĠĠĠĠĠĠ":305,"Ġm":306,"he":307,"Ġre":308,"ce":309,"Ġc":310,"ort":311,"Ġn":312,"Ġin":313,"Ġi":314,"ing":315,"port":316,"Ġs":317,"Ġself":318,"import":319,"la":320,"ss":321,"di":322,"ex":323,"ode":324,"ur":325,"rom":326,"ent":327,"an":328,"Ġp":329,"me":330,"Ġo":331,"pe":332,"ig":333,"th":334,"):<":335,"dat":336,"iz":337,"Ġthe":338,"def":339,"Ġb":340,"pt":341,"um":342,"un":343,"ue":344,"id":345,"data":346,"Ġ#":347,"odel":348,"\"\"":349,"put":350,"ate":351,"ad":352,"from":353,"li":354,"Ġimport":355,"Ġw":356,"as":357,"ck":358,"Ġ(":359,"ser":360,"urn":361,"Ġto":362,"turn":363,"orch":364,".<":365,"ul":366,"to":367,"str":368,"set":369,"Ġif":370,"Ġfor":371,"ext":372,"ĠĠĠĠĠĠĠĠĠĠĠĠĠĠĠ":373,"one":374,"ize":375,"ens":376,"ran":377,"Ġe":378,"age":379,"gs":380,"Ġpa":381,"get":382,"Ġreturn":383,"__":384,"Ġas":385,"int":386,"mp":387,"con":388,"ot":389,"il":390,"Ġdef":391,"orm":392,"co":393,"Ġ-":394,"po":395,"ĠN":396,"ht":397,"val":398,"ic":399,"()<":400,">#":401,"Ġtorch":402,"ĠT":403,"Ġd":404,"]<":405,"ame":406,"ation":407,"size":408,"Ġan":409,"Ġ1":410,"up":411,"is":412,"(\"":413,"Ġcon":414,"Ġis":415,"ver":416,"ol":417,"qu":418,"ype":419,"==":420,"em":421,"len":422,"es":423,"()":424,"ĠA":425,"Ġ'":426,"(<":427,"model":428,"##":429,"et":430,"fig":431,"Ġg":432,"Ġlo":433,"text":434,"ensor":435,"Ġ\"\"\"":436,"ĠNone":437,"Ġ*":438,"\"<":439,"--":440,"Ġ[":441,"ma":442,"ĠC":443,"ers":444,"ĠĠĠĠĠĠĠĠĠĠĠĠĠĠĠĠ":445,"vi":446,"ve":447,"sh":448,"ile":449,"ke":450,"path":451,"ight":452,"\")<":453,"Ġ{":454,"Ġof":455,"od":456,"ĠL":457,"est":458,"ith":459,"ask":460,"ult":461,"Ġ0":462,"args":463,"\",":464,"name":465,"utput":466,"form":467,"Ġ+":468,"Ġh":469,"rain":470,"ep":471,"ction":472,"ĠS":473,"ab":474,"amp":475,"py":476,"att":477,"Ġand":478,"Ġst":479,"el":480,"der":481,"pp":482,"Ġ==":483,"Ġ2":484,"Ġdi":485,"pro":486,"atch":487,"ri":488,"par":489,"Ġdata":490,"ram":491,"Ġnot":492,"lass":493,"ine":494,"ff":495,"ding":496,"Ġex":497,"sert":498,"tok":499,"ption":500,"Ġx":501,"ĠP":502,"all":503,"us":504,"Ġmodel":505,"res":506,"type":507,"Ġ)<":508,"end":509,"..":510,"Ġnum":511,"rans":512,"ample":513,"init":514,"rue":515,"\":":516,"bed":517,"do":518,"Ġma":519,"Ġ\"\"\"<":520,"key":521,"alle":522,"Ġassert":523,"que":524,"che":525,"Ġde":526,"lay":527,"[\"":528,").":529,"Ġ->":530,"Ġstr":531,"ense":532,"Ġar":533,"ĠF":534,"cor":535,"ĠD":536,"image":537,"))<":538,"class":539,"Ġget":540,"ĠR":541,"\"]":542,"wa":543,"Ġ<":544,"ist":545,"Ġme":546,"Ġwith":547,"num":548,"Ġco":549,"ĠI":550,"pre":551,"ter":552,"ape":553,"list":554,"allel":555,"dict":556,"Ġth":557,"cal":558,"dim":559,"gg":560,"cess":561,"ror":562,"====":563,"ĠO":564,"Ġres":565,"rint":566,"value":567,"train":568,"ime":569,"ew":570,"use":571,"state":572,"Ġ_":573,"Ġl":574,"config":575,"ase":576,"00":577,"quest":578,"####":579,"Ġor":580,"icense":581,"izer":582,"Ġr":583,"Ġse":584,"ransform":585,"dir":586,"able":587,"alse":588,"ard":589,"Ġel":590,"tensor":591,"per":592,"input":593,"os":594,"Ġelse":595,"ule":596,"ils":597,"ta":598,"\",<":599,"but":600,"load":601,"ron":602,"ctor":603,"dex":604,"gth":605,"and":606,"wait":607,"ĠĠĠĠĠĠĠĠĠĠĠĠĠĠĠĠĠĠĠ":608,"ĠM":609,"da":610,"',":611,"file":612,"length":613,"Ġpage":614,"stri":615,"._":616,"ĠLicense":617,"],":618,"eight":619,"rame":620,"vice":621,"if":622,"ence":623,"mask":624,"torch":625,"lock":626,"head":627,"('":628,"shape":629,"ly":630,"gat":631,"Ġnp":632,"bedding":633,"True":634,"ance":635,"parallel":636,"ded":637,"Ġla":638,"dataset":639,"app":640,"Ġinput":641,"Ġargs":642,"yn":643,"out":644,"odule":645,"Ġ/":646,"rompt":647,"Ġtok":648,"----":649,"output":650,"Ġfrom":651,"ub":652,"check":653,"Ġpro":654,"Ġsh":655,"Ġawait":656,"),":657,"Ġoutput":658,"=\"":659,"Ġprint":660,"point":661,"ial":662,"Ġ__":663,"Ġpar":664,"ps":665,"ener":666,"loat":667,"wor":668,"pon":669,"ment":670,"ĠB":671,"\"\"\"<":672,"ition":673,"Con":674,"Ġran":675,"rad":676,"pi":677,"ward":678,"batch":679,"),<":680,"lic":681,"am":682,"ack":683,"Ġun":684,"ync":685,"idd":686,"pl":687,"Ġpre":688,"son":689,"Ġos":690,"token":691,"ĠU":692,"Ġbe":693,"ure":694,"Ġtest":695,"ention":696,"ids":697,"Ġj":698,"line":699,"idden":700,"ise":701,"ponse":702,"Ġint":703,"max":704,"gatron":705,"utils":706,"ON":707,"roup":708,"ument":709,"ĠE":710,"param":711,"je":712,"ool":713,"Ġen":714,"ces":715,"Ġconfig":716,"Ġuse":717,"Ġlen":718,"Ġon":719,"stribut":720,"layer":721,"['":722,"rror":723,"Ġ3":724,"Ġy":725,"ator":726,"art":727,"nn":728,"ave":729,"__(":730,"ix":731,"):":732,"ĠW":733,"}<":734,"quer":735,"Ġfile":736,"Ġv":737,"ssage":738,"thod":739,"code":740,"oc":741,"Ġro":742,"process":743,"Ġch":744,"cu":745,"com":746,"ĠG":747,"ft":748,"ault":749,"coder":750,"nel":751,"gger":752,"IN":753,"ble":754,"Error":755,"so":756,"OR":757,"norm":758,"arget":759,"Ġ>":760,"ata":761,"stributed":762,"().":763,"red":764,"inf":765,"append":766,"ng":767,"query":768,"Ġimage":769,"add":770,"Ġdim":771,"for":772,"step":773,"Ġcontext":774,"ry":775,"te":776,"ath":777,"...":778,"():<":779,"test":780,"ow":781,"server":782,"Ġnn":783,"ptional":784,"TI":785,"Ġdataset":786,"')<":787,"plit":788,"ĠV":789,"htt":790,"weight":791,"tokens":792,"sc":793,"Ġtensor":794,"sample":795,"\")":796,"Ġk":797,"sw":798,"log":799,"unction":800,"qui":801,"core":802,"ll":803,"pos":804,"lob":805,"Ġra":806,"cont":807,"']":808,"Ġatt":809,"Ġit":810,"eval":811,"Ġmax":812,"user":813,"[:":814,"rank":815,"ant":816,"grad":817,"pen":818,"Ġmegatron":819,"ai":820,"stance":821,"pec":822,"right":823,"False":824,"ĠThe":825,"ity":826,"bu":827,"ok":828,"bo":829,"wargs":830,"None":831,"Ġtrain":832,"Ġ:":833,"ber":834,"context":835,"checkpoint":836,"mo":837,"ransformer":838,"time":839,"low":840,"Ġtoken":841,"index":842,"gument":843,"unk":844,"Ġ`":845,"rit":846,"//":847,"ag":848,"Ġem":849,"ject":850,"ds":851,"Ġim":852,"row":853,"ip":854,"ca":855,"02":856,"========":857,"Tensor":858,"cept":859,"Ġso":860,"ĠCo":861,"jo":862,"ions":863,"dow":864,"://":865,"ir":866,"ĠRe":867,"EN":868,"cuda":869,"Ġsup":870,"ou":871,"ched":872,"its":873,"pect":874,"idx":875,"url":876,"ias":877,"ptim":878,"Ġstate":879,"embedding":880,"':":881,"Ġbatch":882,"device":883,"loss":884,"ne":885,"DI":886,"rop":887,"av":888,"float":889,"Ġwh":890,">#<":891,"method":892,"########":893,"kwargs":894,"Ġtext":895,"Ġ**":896,"bel":897,"annel":898,"cale":899,"])<":900,"ute":901,"Ġtype":902,"ray":903,"eat":904,"Ġpo":905,"Ġvalue":906,"pu":907,"ict":908,"á´":909,"Ġlist":910,"Ġ@":911,"Ġby":912,"SE":913,"ore":914,"ĠFalse":915,"ations":916,"Ġthis":917,"Ġkey":918,"prompt":919,"ob":920,"fa":921,"Ġunder":922,"gging":923,"Ġ.":924,"ml":925,"Ġset":926,"Ġlog":927,"back":928,"].":929,"tr":930,"reate":931,"uld":932,"Ġparam":933,"unt":934,"lobal":935,"Ġ%":936,"Ġsample":937,"Ġ4":938,"usion":939,"cl":940,"ĠOptional":941,"error":942,"quence":943,"ive":944,"Ġ[]<":945,"und":946,"Ġall":947,".\"\"\"<":948,"peline":949,"Model":950,"Data":951,"ĠAr":952,"Ġ(<":953,"ph":954,"ses":955,"ary":956,"urce":957,"dom":958,"Ġresult":959,"ER":960,"ould":961,"info":962,"group":963,"main":964,"iv":965,"block":966,"item":967,"'<":968,"ac":969,"Ġresponse":970,"Ġmask":971,"ning":972,"zer":973,"Ġdevice":974,"mat":975,"ory":976,"ies":977,"ĠĠĠĠĠĠĠĠĠĠĠĠĠĠĠĠĠĠĠĠĠĠĠ":978,"inal":979,"ĠTrue":980,"Ġal":981,"params":982,"([":983,"Ġrequi":984,"format":985,"uple":986,"Config":987,"fg":988,"ffusion":989,"='":990,"Ġraise":991,"json":992,"Ġload":993,"ES":994,"dd":995,"ld":996,"view":997,"ler":998,"PT":999,"Ġthat":1000,"],<":1001,"ust":1002,"ĠĠĠĠĠĠĠĠĠĠĠĠĠĠĠĠĠĠĠĠĠĠĠĠĠĠĠĠĠĠĠĠ":1003,"pla":1004,"ang":1005,"Ġexcept":1006,"ĠIn":1007,"Ġtime":1008,"unc":1009,"array":1010,"nd":1011,"lib":1012,"Ġhidden":1013,"result":1014,"ĠUn":1015,"Ġloss":1016,"Ġout":1017,"urr":1018,"Ġdefault":1019,"swer":1020,"Ġname":1021,"16":1022,"pert":1023,"Ġval":1024,"ild":1025,"states":1026,"ĠH":1027,"TION":1028,"Ġ+=":1029,"Ġsuper":1030,"Ġob":1031,"split":1032,"--------":1033,"Ġapp":1034,"Ġprompt":1035,"ys":1036,"Ġwor":1037,"ropo":1038,"Ġbu":1039,"ropout":1040,"fix":1041,"work":1042,"32":1043,"lable":1044,"Ġrequest":1045,"Ġpath":1046,"ĠArgs":1047,"module":1048,"join":1049,"In":1050,"Ġrange":1051,"RE":1052,"channel":1053,"AS":1054,"min":1055,"Ġlogger":1056,"ters":1057,"np":1058,"uler":1059,"ctory":1060,"Ġcom":1061,"cli":1062,"hidden":1063,"Ġne":1064,"arded":1065,"lat":1066,"Ġhtt":1067,"start":1068,"Ġindex":1069,"ents":1070,"Ġgener":1071,"pat":1072,"pyright":1073,"\"]<":1074,"date":1075,"rowser":1076,"Ġinit":1077,"ill":1078,"RA":1079,"io":1080,"loc":1081,"Ġid":1082,"**":1083,"Ġcont":1084,"base":1085,"Ġ{<":1086,"ĠCopyright":1087,"nt":1088,"lement":1089,"Ġasync":1090,"ual":1091,"xis":1092,"quat":1093,"Module":1094,"Ġtarget":1095,"LI":1096,"Ġare":1097,"12":1098,"turns":1099,"eps":1100,"content":1101,"instance":1102,"indow":1103,"Ġserver":1104,"page":1105,"ĠSe":1106,"Ġper":1107,"rect":1108,"lect":1109,"[:,":1110,"sses":1111,"ptimizer":1112,"oad":1113,"embed":1114,"col":1115,"Ġsize":1116,"heads":1117,"ster":1118,"count":1119,"Ġnumpy":1120,"ĠList":1121,"Ġforward":1122,"yp":1123,"ision":1124,"ign":1125,"layers":1126,"Ġjson":1127,"df":1128,"scri":1129,"Ġembedding":1130,"Ġq":1131,"request":1132,"ec":1133,"ated":1134,"Ġpos":1135,"tal":1136,"Ġ\\":1137,"mage":1138,"ffer":1139,"AT":1140,"async":1141,"message":1142,"uage":1143,"feat":1144,"Ġdtype":1145,"Ġweight":1146,"DE":1147,"ach":1148,"tain":1149,"ww":1150,"St":1151,"dices":1152,"ved":1153,"dtype":1154,"ĠReturns":1155,"ception":1156,"Ġdistributed":1157,"...,":1158,"vers":1159,"rameters":1160,"ny":1161,"Ġbool":1162,"op":1163,"Ġmessage":1164,"Ġpy":1165,"Ġmo":1166,"cheduler":1167,"ree":1168,"distributed":1169,"ĠEx":1170,"iter":1171,"eta":1172,"erence":1173,"Ġmay":1174,"Dataset":1175,"Ġ5":1176,"lif":1177,"Ġat":1178,"Re":1179,"ret":1180,"attention":1181,"Ġca":1182,"stat":1183,"channels":1184,"his":1185,"pache":1186,"new":1187,"mb":1188,"seq":1189,"AR":1190,"Ġspec":1191,"let":1192,"sed":1193,"read":1194,"((":1195,"}\")<":1196,"poch":1197,"Ġdict":1198,"Ġpad":1199,"Ġblock":1200,"Ġ[\"":1201,"late":1202,"extra":1203,"bias":1204,"target":1205,"ĠCon":1206,"gener":1207,"seed":1208,"Ġcol":1209,"run":1210,"yping":1211,"uate":1212,"Ġattention":1213,"argument":1214,"steps":1215,"vel":1216,"Ġag":1217,"ho":1218,"sum":1219,"Ġfunction":1220,"Ġtokenizer":1221,"iel":1222,"Ġgroup":1223,"inear":1224,"ocab":1225,"Ġelif":1226,"om":1227,"())<":1228,"nguage":1229,"ern":1230,"imest":1231,">@":1232,"urrent":1233,"Ġtyping":1234,"ipeline":1235,"Ġrun":1236,"var":1237,"chunk":1238,"ĠK":1239,"mean":1240,"Ġ202":1241,"irst":1242,"ctions":1243,"fil":1244,"training":1245,"save":1246,"Ġfloat":1247,"tra":1248,"bs":1249,"vert":1250,"uto":1251,"with":1252,"ĠĠĠĠĠ":1253,"vide":1254,"ures":1255,"img":1256,"Ġwe":1257,"Ġac":1258,"Ġcomp":1259,"ized":1260,"trained":1261,"bels":1262,"Ġtry":1263,"alue":1264,";<":1265,"Ġtokens":1266,"]:<":1267,"Ġte":1268,"act":1269,"AG":1270,"print":1271,"env":1272,"embeddings":1273,"range":1274,"comm":1275,"Ġ{}":1276,"place":1277,"go":1278,"transformer":1279,"\":<":1280,"temp":1281,"html":1282,"ST":1283,"FI":1284,"ther":1285,"emb":1286,"ution":1287,"Ġquery":1288,"Ġsub":1289,"Ġ...":1290,"func":1291,"rite":1292,"IT":1293,"position":1294,"UT":1295,"iss":1296,"ĠAny":1297,"map":1298,"ay":1299,"Ġright":1300,"encoder":1301,"Ġno":1302,"Ġdo":1303,"Ġhe":1304,"rix":1305,"ific":1306,"Ġtransform":1307,"response":1308,"Ġstep":1309,"Ġyou":1310,"sub":1311,"uc":1312,"les":1313,"by":1314,"ere":1315,"cat":1316,"gpt":1317,"Ġrot":1318,"global":1319,"Ġshape":1320,"PI":1321,"Ġopen":1322,"task":1323,"Ġadd":1324,"erver":1325,"ĠPage":1326,"Ġclass":1327,"gram":1328,"parse":1329,"Ġimg":1330,"tokenizer":1331,"Ġisinstance":1332,"question":1333,"own":1334,"Ġret":1335,"))":1336,"Ġlogging":1337,"Ġhas":1338,"the":1339,"attn":1340,"Ġnorm":1341,"Ġnew":1342,"AL":1343,"Ġstart":1344,"transform":1345,"cfg":1346,"over":1347,"scale":1348,"ization":1349,"Ġeval":1350,"rot":1351,"EM":1352,"ĠThis":1353,"().__":1354,"trans":1355,"frame":1356,"version":1357,"mbda":1358,"no":1359,"ross":1360,"lu":1361,"Ġimp":1362,"64":1363,"ous":1364,"comp":1365,">)<":1366,"Ġmat":1367,"lp":1368,"ĠAll":1369,"Ġrequired":1370,"bin":1371,"cores":1372,"ĠDict":1373,"ms":1374,"evaluate":1375,"__()<":1376,"logger":1377,"tt":1378,"ĠĠĠĠĠĠ":1379,"Ġparser":1380,"Ġcopy":1381,"function":1382,"patch":1383,">)":1384,"Ġz":1385,"Ġup":1386,"Ġlayer":1387,"pute":1388,"])":1389,"local":1390,"ton":1391,"post":1392,".\")<":1393,"oi":1394,"Ġsoft":1395,"Ġnumber":1396,"[...,":1397,"should":1398,"attr":1399,"spa":1400,"\"])<":1401,"oader":1402,"last":1403,"Ġcode":1404,"ics":1405,"ssion":1406,"valid":1407,"Ġrank":1408,"',<":1409,"not":1410,"api":1411,"Ġtask":1412,"samples":1413,"meta":1414,"ide":1415,"=-":1416,"arch":1417,"quatern":1418,"served":1419,"Ġ!":1420,"lr":1421,"pose":1422,"Ġrights":1423,"ong":1424,"qd":1425,"')":1426,"VI":1427,"ĠValue":1428,"ield":1429,"Ġpart":1430,"Se":1431,"\"{":1432,"net":1433,"ialize":1434,"Ġ}<":1435,"inter":1436,"licy":1437,"Ġerror":1438,"Ġparallel":1439,"idth":1440,"Ġreserved":1441,"Ġle":1442,"spec":1443,"Ġ//":1444,"[-":1445,"ference":1446,"cls":1447,"ename":1448,"ware":1449,"org":1450,"andle":1451,"tool":1452,"Ġ!=":1453,"lin":1454,"Ġ\\<":1455,"Ġ[<":1456,"HO":1457,"ailable":1458,"Ex":1459,"Ġchunk":1460,"Ġbase":1461,"doc":1462,"call":1463,"Ġuser":1464,"ING":1465,"fo":1466,"radi":1467,"ĠPath":1468,"box":1469,"ĠData":1470,"Type":1471,"off":1472,"au":1473,"ak":1474,"ĠServer":1475,"zero":1476,"thon":1477,"stru":1478,"models":1479,"================":1480,"``":1481,"imit":1482,"(-":1483,"umn":1484,"Ġrandom":1485,"Ġdoc":1486,"soft":1487,"iginal":1488,"ĠSt":1489,"weights":1490,"Ġtop":1491,"qdm":1492,"Ġfa":1493,"vid":1494,"Ġcheckpoint":1495,"sq":1496,"scription":1497,"Pro":1498,"ner":1499,"vent":1500,"dropout":1501,"world":1502,"cla":1503,"ĠY":1504,"clo":1505,"ind":1506,"ĠValueError":1507,"Ġtotal":1508,"license":1509,"Res":1510,"reg":1511,"Ġbias":1512,"ark":1513,"Ġlength":1514,"rectory":1515,"answer":1516,"Ġpass":1517,"################":1518,"route":1519,"={":1520,"word":1521,"POR":1522,"cond":1523,"lama":1524,"Ġused":1525,"pty":1526,"conv":1527,"Ġhttps":1528,").<":1529,"LE":1530,"ull":1531,"ATION":1532,"Ġmethod":1533,"\".":1534,"Ġcan":1535,"zeros":1536,"Ġeach":1537,"ĠĠĠĠĠĠĠĠĠĠĠĠĠĠĠĠĠĠĠĠĠĠĠĠ":1538,"ĠUnion":1539,"spect":1540,"cy":1541,"Ġsys":1542,"CEN":1543,"ude":1544,"Pa":1545,"node":1546,"util":1547,"default":1548,"000":1549,"10":1550,"uce":1551,"Ġsequence":1552,"Ġinter":1553,"Linear":1554,"Ġsave":1555,"Ġprocess":1556,"ze":1557,"Ġ{\"":1558,"Ġscale":1559,"ody":1560,"keys":1561,"Ġidx":1562,">>":1563,"prefix":1564,"raph":1565,"down":1566,"LM":1567,"sent":1568,"round":1569,"Ġwill":1570,"Ġmin":1571,"indices":1572,"pretrained":1573,"gment":1574,"sequence":1575,"drop":1576,"CENSE":1577,"Ġus":1578,"Ġgrad":1579,"Ġtraining":1580,"fn":1581,"Ġcreate":1582,"Ġposition":1583,"goto":1584,"Ġtra":1585,"ctx":1586,"'s":1587,"old":1588,"Ġ\"/":1589,"logits":1590,"ef":1591,"less":1592,"ream":1593,"igh":1594,"ayer":1595,"LO":1596,"ound":1597,"cord":1598,"Ġ)":1599,"Ġtqdm":1600,"cket":1601,"Ġtool":1602,"ich":1603,"stem":1604,"AI":1605,"epoch":1606,"we":1607,"uth":1608,"Ġglobal":1609,"expert":1610,"rameter":1611,"ud":1612,"icro":1613,"(),":1614,"Ġlogits":1615,"normal":1616,"Dict":1617,"ĠSh":1618,"Ġparams":1619,"'.":1620,"Ġaxis":1621,"isode":1622,"part":1623,"etun":1624,"features":1625,"random":1626,"Ġhead":1627,"keep":1628,"Ġsplit":1629,"uration":1630,"video":1631,"af":1632,"Ġmult":1633,"mult":1634,"write":1635,"arning":1636,"RAN":1637,"Ġend":1638,"sole":1639,"Di":1640,"ersion":1641,"Ġlanguage":1642,"open":1643,"ints":1644,"viron":1645,"space":1646,"Ġwrit":1647,"cpu":1648,"ists":1649,"miss":1650,"timest":1651,"DIA":1652,"datasets":1653,"scores":1654,"ume":1655,"sets":1656,"Ġattn":1657,"Ġbrowser":1658,"Norm":1659,"Ġcor":1660,"AM":1661,"Ġmath":1662,"Ġbuild":1663,"window":1664,"ystem":1665,"VIDIA":1666,"values":1667,"Ġact":1668,"AGE":1669,"}\"<":1670,"Ġcheck":1671,"forward":1672,"tes":1673,"Lo":1674,"rt":1675,"create":1676,"Ġsc":1677,"_(":1678,"lm":1679,"Ġcfg":1680,"Ġsoftware":1681,"mode":1682,"Ġ]<":1683,"results":1684,"Ġspecific":1685,"items":1686,"Ġfil":1687,"loader":1688,"pipeline":1689,"ister":1690,"Ġonly":1691,"IS":1692,"ĠCOR":1693,"ain":1694,"Ġhttp":1695,"Ġiter":1696,"Ġmodule":1697,"Ġnode":1698,"ingle":1699,"ither":1700,"Ġshould":1701,"are":1702,"ĠApache":1703,"=[":1704,"itle":1705,"Ġoptimizer":1706,"Ġbut":1707,"blocks":1708,"rid":1709,"vision":1710,"lot":1711,"ĠNVIDIA":1712,"Ġ|":1713,"Fa":1714,"ĠVersion":1715,"':<":1716,"ĠOR":1717,"andler":1718,"pected":1719,"ource":1720,"Ġlast":1721,"kv":1722,"her":1723,"Ġ>>>":1724,"ĠException":1725,"Ġ}":1726,"Ġtemp":1727,"lied":1728,"ĠCORPOR":1729,"string":1730,"numpy":1731,"ĠCORPORATION":1732,"bar":1733,"backend":1734,"ateg":1735,"CH":1736,"\\\\":1737,"rc":1738,"ĠCON":1739,"Ġwork":1740,"action":1741,"press":1742,"oken":1743,"UL":1744,"heck":1745,"www":1746,"ernel":1747,"Ġ=>":1748,"template":1749,"of":1750,"ally":1751,"Ġlimit":1752,"source":1753,"Ġ):<":1754,"olution":1755,"top":1756,"abs":1757,"ribut":1758,"Ġeither":1759,"ĠImage":1760,"ĠIf":1761,"buffer":1762,"ĠOF":1763,"be":1764,"idat":1765,"ĠAN":1766,"locator":1767,"Ġpi":1768,"ĠSee":1769,"req":1770,"guments":1771,"classes":1772,"ature":1773,"coding":1774,"Ġcurrent":1775,"Ġstring":1776,"']<":1777,"Ġone":1778,"replace":1779,"ension":1780,"Ġline":1781,"ĠYou":1782,"ĠQ":1783,"rie":1784,"Par":1785,"root":1786,"\"],<":1787,"vider":1788,"Ġmean":1789,"tils":1790,"dist":1791,"Ġpost":1792,"lete":1793,"Pipeline":1794,"Ġimages":1795,"Ġfirst":1796,"entype":1797,"agent":1798,"RO":1799,"object":1800,"ĠNot":1801,"yle":1802,"Ġweights":1803,"level":1804,"mem":1805,"Ġquatern":1806,"Ġgenerate":1807,"etr":1808,"db":1809,"alc":1810,"factor":1811,"mark":1812,"Ġapplic":1813,"man":1814,"Ġinspect":1815,"ling":1816,"Ġ8":1817,"ast":1818,"raw":1819,"Ġobtain":1820,"strip":1821,"Ġvalues":1822,"PU":1823,"images":1824,"Ġvar":1825,"Ġextra":1826,"div":1827,"ls":1828,"Ġurl":1829,"lean":1830,"datal":1831,"pping":1832,"ĠIS":1833,"our":1834,"IND":1835,"PRE":1836,"ptions":1837,"Ġenum":1838,"Ġwhich":1839,"stant":1840,"Ġmatch":1841,"pth":1842,"empty":1843,"Ġ{}<":1844,"Ġrequires":1845,"Ġwindow":1846,"shot":1847,"available":1848,"(),<":1849,"erge":1850,"Ġtim":1851,"reed":1852,"ĠWAR":1853,"Ġanswer":1854,"ifi":1855,"axis":1856,"wright":1857,"Ġlambda":1858,"laywright":1859,"diffusion":1860,"softmax":1861,"Ġembeddings":1862,"ting":1863,"uous":1864,"fla":1865,"Ġad":1866,"https":1867,"table":1868,"vector":1869,"ĠANY":1870,"egatron":1871,"Ġlabels":1872,"vocab":1873,"ssi":1874,"ithub":1875,"----------------":1876,"Ġpadding":1877,"Ġback":1878,"ĠTuple":1879,"example":1880,"Ġmpu":1881,"Image":1882,"og":1883,"lient":1884,"TIONS":1885,">\"\"\"<":1886,"Ġmodels":1887,"ĠWARRAN":1888,"close":1889,"License":1890,"]]":1891,"Ġfeat":1892,"FIX":1893,"fp":1894,"Ġlocal":1895,".__":1896,"Ġ..":1897,"arg":1898,"Ġexpress":1899,"Ġwriting":1900,"iled":1901,"Ġlat":1902,"Ġdown":1903,"ĠWIT":1904,"TIES":1905,"Ġpermiss":1906,"Ġtransformers":1907,"uff":1908,"led":1909,"xt":1910,"like":1911,"ĠWARRANTIES":1912,"Ġformat":1913,"processing":1914,"Ġhelp":1915,"github":1916,"parameters":1917,"Ġhave":1918,"llm":1919,"match":1920,"Ġcontent":1921,"LICENSE":1922,"PE":1923,"Ġass":1924,"umm":1925,"\");<":1926,"Mix":1927,"ĠĠĠĠĠĠĠĠĠĠĠĠĠĠĠĠĠĠĠĠĠĠĠĠĠĠĠ":1928,"names":1929,"embeds":1930,"gine":1931,"Ġasyncio":1932,"Ġpytest":1933,"liance":1934,"Ġmain":1935,"\"\"\"":1936,"Ġapplicable":1937,"used":1938,"Ġover":1939,"ĠKIND":1940,"HOUT":1941,"Ġusing":1942,"bi":1943,"copy":1944,"ĠWITHOUT":1945,"Ġcomm":1946,"licenses":1947,"56":1948,"Ġpermissions":1949,"Ġarg":1950,"Ġlaw":1951,"Ġdis":1952,"cache":1953,"oice":1954,"allable":1955,"Ġinputs":1956,"Ġagreed":1957,"Ġcompliance":1958,"ins":1959,"Ġimplied":1960,"apache":1961,"Ġparameters":1962,"Ġgover":1963,"ĠLicensed":1964,"ĠBAS":1965,"DITIONS":1966,"modules":1967,"ĠCONDITIONS":1968,"Ġgoverning":1969,"ĠBASIS":1970,"select":1971,"Ġfol":1972,"Ġmust":1973,"ĠUnless":1974,"Ġlimitations":1975,"move":1976,"PREFIX":1977,"Net":1978,"rag":1979,"iven":1980,"points":1981,"ĠTransformer":1982,"(__":1983,"Train":1984,"Ġdocument":1985,"etro":1986,"dataloader":1987,"linear":1988,"bool":1989,"label":1990,"Ġdirectory":1991,"ress":1992,"ĠModel":1993,"client":1994,"ema":1995,"transpose":1996,"dis":1997,"Ġ12":1998,"labels":1999,"\").":2000,"Ġbet":2001,"number":2002,"AN":2003,"ä¸":2004,"Ġread":2005,"ange":2006,"024":2007,"Ġsupport":2008,"List":2009,"Ġkeep":2010,"types":2011,"metr":2012,"proj":2013,"ugging":2014,"description":2015,"ones":2016,"ĉĉ":2017,"Ġscal":2018,"stack":2019,"rol":2020,"requi":2021,"ript":2022,"ĠUtils":2023,"LU":2024,"mot":2025,"ĠJ":2026,"Ġencoder":2027,"coded":2028,"TO":2029,"ivation":2030,"\"):<":2031,"pred":2032,"Ġsamples":2033,"search":2034,"Ġfin":2035,"Ġindices":2036,"iguous":2037,"Ġmock":2038,"ODE":2039,"Ġpat":2040,"Ġworld":2041,"Ġrequests":2042,"filename":2043,"Mixin":2044,"bug":2045,"}.":2046,"ĠGPT":2047,"backends":2048,"For":2049,"width":2050,"rand":2051,"Scheduler":2052,"status":2053,"En":2054,"lease":2055,"policy":2056,"vant":2057,"erate":2058,"}\\":2059,"ors":2060,"ite":2061,"cay":2062,"Layer":2063,"ract":2064,"DIR":2065,"Att":2066,"][":2067,"scal":2068,"Ġgpt":2069,"qa":2070,"ities":2071,"ĠTensor":2072,"quee":2073,"Ġmatrix":2074,"20":2075,"hat":2076,"Ġfound":2077,"update":2078,"queeze":2079,"ax":2080,"ulate":2081,"idation":2082,"\"),<":2083,"Ġsk":2084,"(*":2085,"Ġframe":2086,"Ġtuple":2087,"Ġ6":2088,"ender":2089,"Ġexample":2090,"gent":2091,"Ġdiffusion":2092,"Ġsource":2093,"Ġresults":2094,"retro":2095,"Ġav":2096,"matrix":2097,"Ġfla":2098,"ential":2099,"''":2100,"txt":2101,"ĠBase":2102,"Ar":2103,"pha":2104,"reshape":2105,"Ġinto":2106,"gn":2107,"button":2108,"filter":2109,"squeeze":2110,"Ġitem":2111,"sim":2112,"ED":2113,"prob":2114,"ĠDef":2115,"inputs":2116,"Ġcorrect":2117,"emory":2118,"return":2119,"erature":2120,"rep":2121,"vec":2122,"Ġconv":2123,"</":2124,"Pre":2125,"ead":2126,"rapp":2127,"ndarray":2128,"Token":2129,"body":2130,"enc":2131,"angles":2132,"deta":2133,"ckpt":2134,"Ġsharded":2135,"IL":2136,"atio":2137,"ench":2138,"Ġoriginal":2139,"FA":2140,"atter":2141,"files":2142,"lines":2143,"mbedding":2144,"Ġpipeline":2145,"Ġgiven":2146,"Ġgradi":2147,"Ġvocab":2148,"register":2149,"current":2150,"rate":2151,"utf":2152,"face":2153,"inue":2154,"Ġaction":2155,"ĠPy":2156,"lection":2157,"ift":2158,"Ġenumerate":2159,"Ġmetr":2160,"parser":2161,"Ġmode":2162,"Ġother":2163,"ref":2164,"Ġinstance":2165,"Ġoff":2166,"CK":2167,"ĠTool":2168,"ULT":2169,"optimizer":2170,"ampling":2171,"generate":2172,"CT":2173,"Context":2174,"ager":2175,"Base":2176,"mlp":2177,"Ġent":2178,"exists":2179,"angle":2180,"latt":2181,"uccess":2182,"aded":2183,"arm":2184,"Output":2185,"edi":2186,"Ġcall":2187,"Ġkeys":2188,"groups":2189,"click":2190,"Ġembed":2191,"ert":2192,"contiguous":2193,"common":2194,"tensors":2195,"memory":2196,"latten":2197,"Ġnon":2198,"\"))<":2199,"cent":2200,"alled":2201,"Ġneed":2202,"etadata":2203,"uct":2204,"Ġwhen":2205,"99":2206,"flow":2207,"ssian":2208,"Ġagent":2209,"Ġcalc":2210,"ampler":2211,"sd":2212,"})<":2213,"Ġ\"<":2214,"Ġvalid":2215,"ĠAuto":2216,"Diffusion":2217,"Ġroute":2218,"ategy":2219,"sm":2220,"Ġ100":2221,"Ġ>=":2222,"Ġvari":2223,"Ġfollow":2224,"ap":2225,"language":2226,"Ġprefix":2227,"metadata":2228,"SI":2229,"score":2230,"debug":2231,"Ġexist":2232,"obs":2233,"14":2234,"http":2235,"functional":2236,"Block":2237,"Ġtr":2238,"Ġseq":2239,"á´ĩ":2240,"tokentype":2241,"uation":2242,"exec":2243,"cos":2244,"usal":2245,"ish":2246,"decoder":2247,"_{":2248,"llama":2249,"cker":2250,"agster":2251,"cum":2252,"Ġang":2253,"ĠDi":2254,"edit":2255,"Ġ10":2256,"domain":2257,"Ġmake":2258,"FAULT":2259,"PAGE":2260,"=(":2261,"Ġchannel":2262,"fore":2263,"State":2264,"EMPT":2265,"Ġargparse":2266,"Ġany":2267,"Conv":2268,"sqrt":2269,"EMPTY":2270,"now":2271,"vis":2272,"Ġ(`":2273,"gather":2274,"ï¼":2275,"Ġzero":2276,"Ġclo":2277,"(\"--":2278,"Ġexpert":2279,"ns":2280,"Ġdrop":2281,"Ġdiff":2282,"messages":2283,")))<":2284,"probs":2285,"title":2286,"ĠCheck":2287,"lt":2288,"engine":2289,"Ġdatasets":2290,"Ġobject":2291,"static":2292,"ĠSharded":2293,"__(<":2294,"sharded":2295,"Ġcls":2296,"ĠAPI":2297,"ĠBrowser":2298,"Ġenv":2299,"etune":2300,"({":2301,"ĠFor":2302,"Ġ<=":2303,"Ġnormal":2304,"sync":2305,"Ġtrans":2306,"exp":2307,"\"],":2308,"01":2309,").__":2310,"DO":2311,"ie":2312,"Ġsav":2313,"Ġform":2314,"classmethod":2315,"tim":2316,"wo":2317,"dition":2318,"ey":2319,"wh":2320,"Ġstat":2321,"Ġroot":2322,"aussian":2323,"ET":2324,"Ġexec":2325,"resh":2326,"igma":2327,"ighb":2328,"ple":2329,"Ġstride":2330,"Ġmessages":2331,"first":2332,"ify":2333,"Ġapi":2334,"Ġsame":2335,"Ġeps":2336,"lation":2337,"mm":2338,"plot":2339,"ðĿ":2340,"environ":2341,"bytes":2342,"55":2343,"oth":2344,"Ġrotation":2345,"ĠPro":2346,"compute":2347,"apply":2348,"workers":2349,"mul":2350,"ility":2351,"initial":2352,"\"].":2353,"va":2354,"ĠRetro":2355,"optim":2356,"lector":2357,"provider":2358,"Ġkernel":2359,"Ġ$":2360,"Ġ\"\"<":2361,"scheduler":2362,"Ġcontain":2363,"Ġdist":2364,"},":2365,"ĠĠĠĠĠĠĠĠĠĠĠĠĠĠĠĠĠĠĠĠĠĠ":2366,"34":2367,"ating":2368,"qual":2369,"iple":2370,"Tokenizer":2371,"ful":2372,"Ġplaywright":2373,"vided":2374,"staticmethod":2375,"100":2376,"handle":2377,"Ġdropout":2378,"istory":2379,"pter":2380,"Ġ2024":2381,"Process":2382,"ible":2383,"uid":2384,"losses":2385,"Ġinitial":2386,"ĠDataset":2387,"CON":2388,"MA":2389,"script":2390,"PO":2391,"decode":2392,")]<":2393,"lambda":2394,"ĠTest":2395,"ĠPIL":2396,".,":2397,"very":2398,"ĠCallable":2399,"swers":2400,"Ġtimest":2401,"correct":2402,"NAM":2403,"graph":2404,"Ġá´":2405,"ises":2406,"Ġimplement":2407,"celer":2408,"Ġlr":2409,"reduce":2410,"book":2411,"'t":2412,"entity":2413,"Ġctx":2414,"olver":2415,"The":2416,"Ġquestion":2417,"total":2418,"backward":2419,"dio":2420,"Ġ2023":2421,"Loader":2422,"next":2423,"cision":2424,"(\"/":2425,"oices":2426,"}/":2427,"Ġreg":2428,"quant":2429,"vari":2430,"Bu":2431,"Ġ7":2432,"older":2433,"python":2434,"Ġinst":2435,"episode":2436,"build":2437,"Ġwhile":2438,"vars":2439,"\"][\"":2440,"Ġpatch":2441,"gic":2442,"Ġab":2443,"ustom":2444,"rng":2445,"Ġseed":2446,"cur":2447,"handler":2448,"asset":2449,"Ġep":2450,"Ġmetadata":2451,"ason":2452,"ĠWe":2453,"umel":2454,"ora":2455,"Gener":2456,"cross":2457,"itude":2458,"batches":2459,"ĠDefault":2460,"Ġ),<":2461,"Ġutils":2462,"Ġexc":2463,"transformers":2464,"grid":2465,"Ġrecord":2466,"('--":2467,"column":2468,"ODEL":2469,")):<":2470,"Ġconsole":2471,"Ġfiles":2472,"inference":2473,"encode":2474,"Ġtransformer":2475,"Ġoptional":2476,"timesteps":2477,"tuple":2478,"order":2479,"chedule":2480,"ATA":2481,"cam":2482,"opt":2483,"Ġtable":2484,"ose":2485,"Ġmemory":2486,"math":2487,"verage":2488,"Param":2489,"04":2490,"ox":2491,"Ġconvert":2492,"cs":2493,"orage":2494,"ĠCreate":2495,"perm":2496,"andb":2497,"cast":2498,"frames":2499,"Ġdownload":2500,"auto":2501,"alf":2502,"'])<":2503,"chat":2504,"Ġepoch":2505,"Ġmagic":2506,"Ġrow":2507,"wise":2508,"ratio":2509,"sk":2510,"Ġnext":2511,"uture":2512,"cura":2513,"Ġdoes":2514,"ique":2515,"wd":2516,"decay":2517,"lap":2518,"conne":2519,"Ġvector":2520,"ĠAtt":2521,"Ġoutputs":2522,"50":2523,"EY":2524,"has":2525,"OT":2526,"era":2527,"paths":2528,"reak":2529,".\"<":2530,"Co":2531,"ĠGener":2532,"AD":2533,"Ġdimension":2534,"download":2535,"vents":2536,"çļ":2537,"abled":2538,"jection":2539,"users":2540,"Ġquaternion":2541,"çļĦ":2542,"Ġax":2543,"event":2544,"ĠSet":2545,"initialize":2546,"Ġcaption":2547,"Ġhandle":2548,"uffle":2549,"Ġfollowing":2550,"leg":2551,"Ġlabel":2552,"11":2553,"EX":2554,"Ġsum":2555,"ates":2556,"swith":2557,"acy":2558,"Ġcontinue":2559,"ino":2560,"Ġcompute":2561,"Ġwidth":2562,"ries":2563,"ropy":2564,"record":2565,"Ġprovided":2566,"ared":2567,"},<":2568,")).":2569,"orted":2570,"ĠGet":2571,"gt":2572,"tern":2573,"blem":2574,"Ġapply":2575,"inv":2576,"KEY":2577,"stract":2578,"Ġexpected":2579,"Ġallow":2580,"MODEL":2581,"ground":2582,"levant":2583,"Ġ--":2584,"RL":2585,"gpu":2586,"lta":2587,"Ġsq":2588,"umber":2589,"unsqueeze":2590,"Embedding":2591,"fin":2592,"Ġfinal":2593,"corer":2594,"ĠGPU":2595,"Path":2596,"full":2597,"role":2598,"Ġdecoder":2599,"tools":2600,"dum":2601,"fter":2602,"ug":2603,"Ġscore":2604,"propert":2605,"Ġpathlib":2606,"Parallel":2607,"][\"":2608,"idate":2609,"present":2610,"Ġsystem":2611,")[":2612,"pass":2613,"Ġsession":2614,"lower":2615,"pack":2616,"std":2617,"verse":2618,"Ġzip":2619,"\"\\":2620,"De":2621,"Str":2622,"rier":2623,"stage":2624,"quential":2625,"prod":2626,"rieval":2627,"Ġencoding":2628,"Ġmetrics":2629,"har":2630,"AB":2631,"An":2632,"Ġlayers":2633,"fc":2634,"cted":2635,"\"][":2636,"Ġprob":2637,"'].":2638,"host":2639,"Ġsim":2640,"ĠTask":2641,"forms":2642,"Ġexp":2643,"masked":2644,"lip":2645,"To":2646,"ified":2647,"Un":2648,"logging":2649,"Ġman":2650,"ular":2651,"Ġwhere":2652,"Ġpoints":2653,"obj":2654,"Ġ\"__":2655,"Ġsin":2656,"NAME":2657,"curacy":2658,"freq":2659,"clude":2660,"ribute":2661,"Head":2662,"sin":2663,"Ġvideo":2664,"ĠTe":2665,"Ġorder":2666,"68":2667,"Ġtwo":2668,"arange":2669,"flatten":2670,"diction":2671,"feature":2672,"msg":2673,"KEN":2674,"22":2675,"edge":2676,"Ġelement":2677,"ĠPa":2678,"Ġpipe":2679,"Attention":2680,"Ġmerge":2681,"Ġsingle":2682,"Ġsteps":2683,"avg":2684,"Ġheight":2685,"GPT":2686,"dirname":2687,"Ġraw":2688,"Ġarguments":2689,"Test":2690,"only":2691,"ĠMo":2692,"sys":2693,"ween":2694,"Ġbutton":2695,"Form":2696,"etch":2697,"tings":2698,"++":2699,"ank":2700,"ada":2701,"Ġdescription":2702,"struction":2703,"case":2704,"style":2705,"impl":2706,"(\"\\":2707,"Text":2708,"numel":2709,"ĠTO":2710,"experts":2711,"Ġiteration":2712,"TOKEN":2713,"YPE":2714,"bit":2715,"medi":2716,"unch":2717,"mplement":2718,"Ġsent":2719,"Ġfilename":2720,"color":2721,"Ġ2022":2722,"offsets":2723,"Ġ},<":2724,"API":2725,"play":2726,"armup":2727,"padding":2728,"CHE":2729,"cript":2730,"stream":2731,"Ġpred":2732,"epochs":2733,"partition":2734,"non":2735,"yz":2736,"ord":2737,"Ġtre":2738,"lear":2739,"ĠPre":2740,"fi":2741,"serv":2742,"ummy":2743,"15":2744,"ger":2745,"Ġjo":2746,"afet":2747,"long":2748,"ĠĠĠĠĠĠĠĠĠĠĠĠĠĠĠĠĠĠĠĠĠĠĠĠĠĠĠĠĠĠĠĠĠĠĠĠĠĠĠĠ":2749,"rapper":2750,"final":2751,"Ġred":2752,"FIG":2753,"Ġclient":2754,"Ġsrc":2755,"etime":2756,"[:-":2757,"30":2758,"84":2759,"Ġbreak":2760,"vironment":2761,"direct":2762,"Po":2763,"choice":2764,"unct":2765,"Ġbetween":2766,"Megatron":2767,"original":2768,"Ġfp":2769,"Ġ\"\\":2770,"datetime":2771,"ical":2772,"Ġdagster":2773,"pytest":2774,"Ġselect":2775,":\\":2776,"kpt":2777,"Ġign":2778,"Ġupdate":2779,"fer":2780,"ĠLo":2781,"clip":2782,"legacy":2783,"micro":2784,"option":2785,"__\":<":2786,"Ġtensors":2787,"truth":2788,"ĠHugging":2789,"Ġobs":2790,"Ġ16":2791,"Ġtests":2792,"eff":2793,"uch":2794,"ans":2795,"ĠRes":2796,"Ġfilter":2797,"istr":2798,"src":2799,"Ġ{'":2800,"ĠMegatron":2801,"Parameter":2802,"manual":2803,"permute":2804,"lections":2805,"Ġ(\"":2806,"(\".":2807,"odal":2808,"cessed":2809,"moe":2810,"Ġ```":2811,"irs":2812,"Request":2813,"Ġbased":2814,"Ġtemperature":2815,"WOR":2816,"bench":2817,"essage":2818,"gress":2819,"reward":2820,"road":2821,"Ġcur":2822,"ngram":2823,"Ġpoint":2824,"Ġge":2825,"Ġpla":2826,"browser":2827,"Ġtypes":2828,"detach":2829,"cv":2830,"height":2831,"Ġdeta":2832,"amed":2833,":%":2834,"cut":2835,"stop":2836,"Ġ['":2837,"Ġpartial":2838,"offset":2839,"TS":2840,"Ġversion":2841,"raises":2842,"Ġngram":2843,"Ġstream":2844,"ools":2845,"Ġassign":2846,"pand":2847,"Ġarray":2848,"md":2849,"Ġlin":2850,"Ġalpha":2851,"bone":2852,"hether":2853,"ages":2854,"ather":2855,"Ġkwargs":2856,"etuning":2857,"Run":2858,"Sh":2859,"single":2860,"send":2861,"words":2862,"rs":2863,"sign":2864,"Ġclean":2865,"entropy":2866,"sizes":2867,"Ġword":2868,"Float":2869,"Ġfind":2870,"ckle":2871,"ĠCLI":2872,"generator":2873,"Exception":2874,"reshold":2875,"(_":2876,"BAL":2877,"Transformer":2878,"depth":2879,"peed":2880,"Ġgr":2881,"parent":2882,"Ġgetattr":2883,"headers":2884,"trf":2885,"location":2886,"chunks":2887,"Response":2888,"udent":2889,"ik":2890,"Ġtmp":2891,"rary":2892,"Ġ\".":2893,"uring":2894,"Cont":2895,"ĠCom":2896,"################################":2897,":.":2898,"Fore":2899,"ctionary":2900,"project":2901,"property":2902,"]):<":2903,"pare":2904,"chain":2905,"ĠRun":2906,"caten":2907,"struct":2908,"Ġrepresent":2909,"Set":2910,"TH":2911,"rap":2912,"plan":2913,"CONFIG":2914,"segment":2915,"arr":2916,"Ġbody":2917,"Ġ(...,":2918,"Ġho":2919,"ï¼Į":2920,"Implement":2921,"ME":2922,"blob":2923,"tree":2924,"throp":2925,"unter":2926,"RI":2927,"remove":2928,"imum":2929,"Ġinference":2930,"ributes":2931,"Ġtimers":2932,"thropic":2933,"Mask":2934,"Ġafter":2935,"Ġscheduler":2936,"Ġthan":2937,"Ġtasks":2938,"Face":2939,"TER":2940,"urse":2941,"questions":2942,"bert":2943,"letion":2944,"LOBAL":2945,"metrics":2946,"Ġfield":2947,"jsonl":2948,"ATE":2949,"motion":2950,"ighbor":2951,"ene":2952,"idual":2953,"riter":2954,"Logger":2955,"LayerNorm":2956,"peat":2957,"Ġ1024":2958,"master":2959,"rotation":2960,"timestamp":2961,"Ġangle":2962,"Éª":2963,"ĠDE":2964,"iteration":2965,"eded":2966,"Ġckpt":2967,"Ġ'{":2968,"masks":2969,"**/":2970,"ĠTODO":2971,")}":2972,"ĠX":2973,"Ġaverage":2974,"constant":2975,"Ġchange":2976,"positions":2977,"roadcast":2978,"LP":2979,"sdf":2980,"ten":2981,"Ġgt":2982,"Ġ'.":2983,"prompts":2984,"Ġfailed":2985,"tmp":2986,"Ġparse":2987,"queries":2988,"Ġblocks":2989,"Ġgradient":2990,"Ġignore":2991,"system":2992,"Ġ&":2993,"ĠLI":2994,"Ġbucket":2995,"activation":2996,"ĠHuggingFace":2997,"aut":2998,"dest":2999,"Ġplt":3000,"Ġcondition":3001,"Ġbefore":3002,"Ġ:,":3003,"Ġbuffer":3004,"Ġcollections":3005,"sql":3006,"Ġmulti":3007,"Ġscaled":3008,"Ġinfo":3009,"tokentypes":3010,"just":3011,"edError":3012,"diff":3013,"Ġpack":3014,"vious":3015,"Ġretrie":3016,"web":3017,"PRO":3018,"selector":3019,"ĠFla":3020,"ĠShardedTensor":3021,"jang":3022,"ĠType":3023,"Ġquaternions":3024,"wer":3025,"inst":3026,"__)<":3027,"Ġepisode":3028,"80":3029,"DP":3030,"`<":3031,"Ġthen":3032,"aiss":3033,"jango":3034,"Ca":3035,"PL":3036,"ĠRot":3037,"Ġprod":3038,"Ġits":3039,"Ġvalidation":3040,"Ġprompts":3041,"store":3042,"Ġmore":3043,"Ġoptim":3044,"dataclass":3045,"CE":3046,"formation":3047,"Ġconfiguration":3048,"ĠNotImplement":3049,"metric":3050,"Ġdiffusers":3051,"alog":3052,"roll":3053,"mock":3054,"ĠInc":3055,"ledge":3056,"ĠNotImplementedError":3057,"ency":3058,"queue":3059,"Ġ_,":3060,"ields":3061,"issing":3062,"globals":3063,"Ġfeature":3064,"adapter":3065,"Ġ9":3066,"hook":3067,"CO":3068,"fra":3069,"Ġext":3070,"Ġids":3071,"Ġscores":3072,"Ġstd":3073,"session":3074,"Ġpredict":3075,"'):<":3076,"ssed":3077,"Ġduring":3078,"ĠLayer":3079,"ĠOpen":3080,"loads":3081,"ness":3082,"Ch":3083,"ake":3084,"Ġlicense":3085,"ĠCh":3086,"Ġpositions":3087,"ĠNote":3088,"ASE":3089,"Dropout":3090,"Ġu":3091,"Ġwas":3092,"pool":3093,"resource":3094,"Ġdepth":3095,"={\"":3096,"File":3097,"Ob":3098,"png":3099,"Ġquat":3100,"ative":3101,"pop":3102,"Ġ[`":3103,"processor":3104,"barrier":3105,"Ġtreetune":3106,"Function":3107,"half":3108,"Ġfull":3109,"Ġsign":3110,"Ġenvironment":3111,"fill":3112,"true":3113,"distance":3114,"dims":3115,"Ġextract":3116,"%%":3117,"36":3118,"qkv":3119,"hel":3120,"rices":3121,"jector":3122,"library":3123,"'''<":3124,"Processor":3125,"Col":3126,"Ġcase":3127,"Ġemb":3128,"Ġsoftmax":3129,"Parser":3130,"afety":3131,"cre":3132,"folder":3133,"ery":3134,"ortcut":3135,"Ġargument":3136,"Ġcolumn":3137,"Ġsaved":3138,"celerate":3139,"catenate":3140,"Ġdatetime":3141,"uter":3142,"ĠĠĠĠĠĠĠĠĠĠĠĠ":3143,"Ġcre":3144,"olve":3145,"ĠEn":3146,"Ġyour":3147,"ready":3148,"Ġhasattr":3149,">}<":3150,"Ġcustom":3151,"Exec":3152,"kernel":3153,"options":3154,"ork":3155,"Ġ'<":3156,"Ġheaders":3157,"examples":3158,"hf":3159,"É´":3160,"itialize":3161,"loaded":3162,"ars":3163,"Ġ\",":3164,"ĠID":3165,"Ġacross":3166,"Ġmatrices":3167,"ĠQu":3168,"Ġsupported":3169,"unctools":3170,"delete":3171,"Ġbin":3172,"cope":3173,"pytorch":3174,"ĠMult":3175,"outputs":3176,"acc":3177,"Ġindexed":3178,"ĠConvert":3179,"area":3180,"DATA":3181,"Ġcount":3182,"chedul":3183,"á´ı":3184,"DEFAULT":3185,"document":3186,"Factory":3187,"side":3188,"Ġtree":3189,"Ġreference":3190,"Ġsuc":3191,"expected":3192,"make":3193,"Ġllm":3194,"Ġevaluation":3195,"Not":3196,"ĠDe":3197,"Ġpretrained":3198,"Ġmultiple":3199,"ait":3200,"gradi":3201,"mit":3202,"Ġver":3203,"Ġremove":3204,"dictions":3205,"answers":3206,"shift":3207,"================================":3208,"Ġoffset":3209,"OP":3210,"Ġæ":3211,"Ġtitle":3212,"Ġfunctools":3213,"lava":3214,"Ġdomain":3215,"Ġfew":3216,"Ġmicro":3217,"uman":3218,"istant":3219,"Ġsearch":3220,"fferent":3221,"ification":3222,"Agent":3223,"Get":3224,"find":3225,"merge":3226,"aly":3227,"exit":3228,"mini":3229,"Ġspa":3230,"asic":3231,"Ġdataclasses":3232,"bucket":3233,"history":3234,"pend":3235,"Ġau":3236,"Ġradi":3237,"ĠConfig":3238,"Ġactivation":3239,"oid":3240,"arge":3241,"ĠAdd":3242,"ĠTransformerConfig":3243,"Ġsorted":3244,"entry":3245,"ĠApp":3246,"ĠSample":3247,"Ġexpect":3248,"Ġpython":3249,"ĠDataLoader":3250,"Key":3251,"actions":3252,"pg":3253,"pdf":3254,"})":3255,"Ġwrite":3256,"gative":3257,"Params":3258,"(**":3259,"`,":3260,"few":3261,"inner":3262,"timeout":3263,"Ġgenerated":3264,"Ġavailable":3265,"IM":3266,"]))<":3267,"Ġwandb":3268,"ĠCol":3269,"Ġhere":3270,"Ġdictionary":3271,"ables":3272,"required":3273,"ci":3274,"warning":3275,"ĠZ":3276,"interval":3277,"FloatTensor":3278,"Ġreplace":3279,"Ġ\\\\":3280,"uggingface":3281,"Ġcalculate":3282,"Object":3283,"05":3284,"Ġspecified":3285,"ensure":3286,"console":3287,"grads":3288,"Ġcomput":3289,"Ġchunks":3290,"ĠStep":3291,"openai":3292,"email":3293,"Check":3294,"xiv":3295,"Ġtf":3296,"aml":3297,"joint":3298,">_":3299,"ili":3300,"Ġmapping":3301,"factory":3302,"Ġsetup":3303,"Ġlevel":3304,"clean":3305,"Ġpd":3306,"Ġparameter":3307,"ĠTrain":3308,"jectory":3309,"leton":3310,"lush":3311,"requires":3312,":]<":3313,"This":3314,"can":3315,"Ġopt":3316,"ments":3317,"nowledge":3318,"03":3319,"Le":3320,"ass":3321,"free":3322,"Ġ'''":3323,"clone":3324,"CLI":3325,"Ġcurr":3326,"directory":3327,"ensions":3328,"ĠCor":3329,"Ġexists":3330,"Ġ32":3331,"MS":3332,"Ġfree":3333,"arxiv":3334,"convert":3335,"ĠAgent":3336,"checkpointing":3337,"Ġinitialize":3338,"Ġ{}'.":3339,"Ġscript":3340,"Ġkeepdim":3341,"Arguments":3342,"'],":3343,"bot":3344,"Ġcos":3345,"Ġencoded":3346,"Ġrunning":3347,"ifier":3348,"istry":3349,"gin":3350,"warmup":3351,"Ġvi":3352,"roy":3353,"Ġpool":3354,"ested":3355,"prev":3356,"Ġ``":3357,"startswith":3358,"25":3359,"]).":3360,"ked":3361,"Ġsuccess":3362,"buf":3363,"Ġcache":3364,"Ġteam":3365,"Ġnoise":3366,"docs":3367,"hash":3368,"Ġmlp":3369,"lice":3370,"Ġdistance":3371,"program":3372,"Ġsegment":3373,"Ġshuffle":3374,"Ġjnp":3375,"SET":3376,"Sequential":3377,"UM":3378,"beta":3379,"curr":3380,"Ġref":3381,"Ġnet":3382,"Ġinformation":3383,"Ġsigma":3384,"Ġoper":3385,"ĠNumber":3386,"tracker":3387,"Ġfeatures":3388,"eed":3389,"Ġ\"--":3390,"Ġreal":3391,"Ġold":3392,"itional":3393,"Ġtimeout":3394,"Ġ{}\".":3395,"Resource":3396,"17":3397,"mport":3398,"}'":3399,"left":3400,"Ġsampling":3401,"Ġrender":3402,"á´Ľ":3403,"ĠSequence":3404,"foo":3405,"Ġskip":3406,"USE":3407,"Value":3408,"ĠLLM":3409,"Ġprogram":3410,"Ġyield":3411,"tests":3412,"lative":3413,"Ġmeans":3414,"Frame":3415,"iform":3416,"ks":3417,"Ġå":3418,"assert":3419,"extend":3420,"shared":3421,"Ġsome":3422,"neg":3423,"retrie":3424,"Ġgroups":3425,"Ġchannels":3426,"}{":3427,"~~":3428,"stom":3429,"unet":3430,"keleton":3431,"Ġdataclass":3432,"Ġlm":3433,"pipe":3434,"custom":3435,"****":3436,"ĠPython":3437,">):<":3438,"FO":3439,"none":3440,"sup":3441,"strategy":3442,"ĠError":3443,"patches":3444,"Ġtraj":3445,"icrosoft":3446,"ÊĢ":3447,"Ġfix":3448,"ĠĠĠĠĠĠĠĠĠĠĠĠĠĠĠĠĠĠĠĠĠĠĠĠĠĠĠĠĠĠĠ":3449,"lengths":3450,"tokenize":3451,"ĠLICENSE":3452,"#<":3453,"Time":3454,"_,":3455,"element":3456,"arrange":3457,"Ġwithout":3458,"tag":3459,"Ġbuil":3460,"arguments":3461,"compile":3462,"Ġprobab":3463,"try":3464,"}:":3465,"Ġdone":3466,"Ġneg":3467,"Ġlatent":3468,"center":3469,"\"[":3470,"ableDiffusion":3471,"ĠUp":3472,"Ġnames":3473,"ummary":3474,"sigma":3475,"Ġ64":3476,"Reg":3477,"/{":3478,"dp":3479,"router":3480,"Ġevent":3481,"ĠOutput":3482,"leted":3483,"ĠTeam":3484,"lue":3485,"Ġschedule":3486,"licate":3487,"traj":3488,"after":3489,"ĠDefaults":3490,"256":3491,"por":3492,"Ġutil":3493,"Ġbeta":3494,"ĠAn":3495,"ĠMicrosoft":3496,"Ġproject":3497,"Ġflag":3498,"Mo":3499,"Message":3500,"Qu":3501,"UN":3502,"Ġedit":3503,"Ġcrop":3504,"Invalid":3505,"Encoder":3506,"scaling":3507,"usalLM":3508,"Ġsentence":3509,"sset":3510,"eno":3511,"Ġter":3512,"Ġbs":3513,"Ġwarning":3514,"ĠWh":3515,"gumentParser":3516,"Ġconvention":3517,"CHECK":3518,"-<":3519,"tf":3520,"Ġaff":3521,"Ġalready":3522,"stats":3523,"UD":3524,"reason":3525,"itive":3526,"Ġindi":3527,"Ġsure":3528,"megatron":3529,"Ġlinear":3530,"stribution":3531,"Ġtools":3532,"Ġclosd":3533,"Generator":3534,"stractmethod":3535,"96":3536,"PAT":3537,"ym":3538,"Ġheads":3539,"alpha":3540,"Ġrep":3541,"Ġdir":3542,"mov":3543,"Ġngrams":3544,"destroy":3545,"18":3546,"flat":3547,"zy":3548,"Ġpassed":3549,"ilar":3550,"Ġconne":3551,"Ġgrid":3552,"mail":3553,"ĠLoad":3554,"infos":3555,"checkpoints":3556,"flag":3557,"ĠDEFAULT":3558,"So":3559,"enter":3560,"quaternion":3561,"yper":3562,"expand":3563,"Ġloaded":3564,"ĠFlax":3565,"IG":3566,"Spec":3567,"avi":3568,"hub":3569,"Ġlike":3570,"Ġqueries":3571,"Ġcalled":3572,"usage":3573,"Ġgenerator":3574,"Ġpickle":3575,"Ġfinetuning":3576,"mediate":3577,"'))<":3578,"Load":3579,"PA":3580,"}\",":3581,"Ġtp":3582,"reset":3583,"Ġcam":3584,"ĠImport":3585,"servation":3586,"13":3587,"nown":3588,"Ġview":3589,"ater":3590,"choices":3591,"Ġstatus":3592,"With":3593,"success":3594,"ĠIndex":3595,"Ġ512":3596,"visible":3597,"CausalLM":3598,"Ġdataloader":3599,"Ġ*<":3600,"oute":3601,"board":3602,"ForCausalLM":3603,"small":3604,"finish":3605,"done":3606,"Ġlet":3607,"seen":3608,"ons":3609,"Ġtak":3610,"concatenate":3611,"ĠText":3612,"Ġ1000":3613,"mapping":3614,"Ġstrict":3615,"ENT":3616,"ĠExample":3617,"iteral":3618,"manager":3619,"astype":3620,"ĠCorpor":3621,"kedirs":3622,"ĠCorporation":3623,"Field":3624,"Name":3625,"gen":3626,"hot":3627,"pers":3628,"sg":3629,"xyz":3630,"Ġchoices":3631,"ĠĠĠĠĠĠĠĠĠĠĠĠĠĠĠĠĠĠĠĠĠĠĠĠĠĠ":3632,"Ġtrunc":3633,"({\"":3634,":\",":3635,"Id":3636,"ĠĠĠĠĠĠĠĠĠ":3637,"workspace":3638,"Ġqkv":3639,"iterator":3640,"Ġrotary":3641,"').":3642,"future":3643,"kl":3644,"mbed":3645,"encoding":3646,"show":3647,"Ġrate":3648,"Ġvalidate":3649,"Ġrotations":3650,"objects":3651,"GLOBAL":3652,"cing":3653,"tp":3654,"alys":3655,"tolist":3656,"setup":3657,"getenv":3658,"Ġground":3659,"Ġmap":3660,"bose":3661,"Ġtargets":3662,"Ġcast":3663,"Ġbackward":3664,"randn":3665,"inov":3666,"alysis":3667,"ect":3668,"Ġbeen":3669,"latitude":3670,"Ġcolor":3671,"Ġbetas":3672,"Build":3673,">\"\"\"":3674,"bf":3675,"gb":3676,"enum":3677,"Ġcla":3678,"threshold":3679,"audio":3680,"Ġimplementation":3681,"Ġinstall":3682,"1024":3683,"78":3684,":]":3685,"ID":3686,"dot":3687,"pri":3688,"Ġflush":3689,"Ġmy":3690,"Ġinclude":3691,"Ġstyle":3692,"Ġmethods":3693,"sn":3694,"sampling":3695,"vit":3696,"Ġauto":3697,"Ġloc":3698,"ĠIter":3699,"Ġstates":3700,"Ġcommand":3701,"Trained":3702,"19":3703,"parameter":3704,"Ġfreq":3705,"lism":3706,"Ġdifferent":3707,"ĠIN":3708,"bins":3709,"light":3710,"zip":3711,"delta":3712,"allen":3713,"edDict":3714,"Ġmissing":3715,"Ġtorchvision":3716,"stride":3717,"Ġjust":3718,"PP":3719,"optional":3720,"enable":3721,"andom":3722,"idget":3723,"texts":3724,"Ġshift":3725,"Ġprevious":3726,"END":3727,"transforms":3728,"callback":3729,"Ġdisable":3730,"dumps":3731,"Sampler":3732,"gelu":3733,"ĠPer":3734,"06":3735,"dec":3736,"Ġreset":3737,"izers":3738,"Ġglob":3739,"Ġdatabase":3740,"allelism":3741,"Ġneeded":3742,"Ġopenai":3743,"complete":3744,"Preprocessing":3745,"Ġlines":3746,"insert":3747,"unit":3748,"unic":3749,"())":3750,"predict":3751,"buil":3752,"Ġranks":3753,"Loss":3754,"24":3755,"Man":3756,"Ġrearrange":3757,"Ġnow":3758,"Ġrng":3759,"Ġtransforms":3760,"512":3761,"sing":3762,"æķ":3763,"repeat":3764,"utor":3765,"Ġsdf":3766,"Ġtheir":3767,"conds":3768,"ride":3769,"../":3770,"temperature":3771,"77":3772,"Ġensure":3773,"Ġfunc":3774,"uest":3775,"Ġstage":3776,"pped":3777,"Ġtokentype":3778,"worker":3779,"Ġpaths":3780,"Ġgeneration":3781,"normalize":3782,"ĠBrowserContext":3783,"::":3784,"CA":3785,"]):":3786,"tocol":3787,"Ġasset":3788,"Ġhandler":3789,"resolution":3790,"urls":3791,"Input":3792,"--------------------------------":3793,"orig":3794,"reen":3795,"Ġmerged":3796,"ice":3797,"render":3798,"Ġ).":3799,"logs":3800,"exception":3801,"anh":3802,"scatter":3803,"Ġempty":3804,"Ġmasked":3805,"Result":3806,"WORK":3807,"Ada":3808,"Server":3809,"`.<":3810,"bers":3811,"ele":3812,"schedul":3813,"ts":3814,"gest":3815,"mpl":3816,"makedirs":3817,"Ġstop":3818,"Ġ200":3819,"sentence":3820,"PreprocessingConfig":3821,")),":3822,"ZE":3823,"Ġgo":3824,"Ġ255":3825,"Ġdisc":3826,"projection":3827,"ĠMLP":3828,"caption":3829,"á´Ģ":3830,"obot":3831,"Index":3832,"Ġregister":3833,"BASE":3834,"âĶ":3835,"Ġlibrary":3836,"Ġtrue":3837,"deg":3838,"leep":3839,"Ġrelevant":3840,"Ġsecond":3841,"Ġprecision":3842,"aved":3843,"ignore":3844,"command":3845,"ĠĠĠĠĠĠĠĠĠĠĠĠĠĠĠĠĠĠĠĠĠĠĠĠĠĠĠĠĠ":3846,"allenge":3847,"200":3848,"Ġ''":3849,"idxs":3850,"Ġloader":3851,"Ġperform":3852,"trace":3853,"Ġevaluate":3854,"nodes":3855,"Ġcontaining":3856,"\"}":3857,"TRA":3858,"redirect":3859,"imodal":3860,"Ġ128":3861,"Ġexecution":3862,"DF":3863,"Torch":3864,"Tuple":3865,"jit":3866,"{}":3867,"Ġ],<":3868,"Ġsm":3869,"cook":3870,"Ġjax":3871,"cloud":3872,"multi":3873,"rapped":3874,">]<":3875,"åı":3876,"real":3877,"Ġforce":3878,"Ġdjango":3879,"(\"#":3880,"Ġ20":3881,"allback":3882,"Ġthread":3883,"123":3884,"Ġretrieval":3885,">__":3886,"CL":3887,"LD":3888,"lens":3889,"respon":3890,"rotary":3891,"connection":3892,"SC":3893,"bits":3894,"ga":3895,"tri":3896,"ÊŁ":3897,"getitem":3898,"ĠMeta":3899,"locity":3900,"UDA":3901,"sec":3902,"alt":3903,"educe":3904,"Ġreward":3905,"ĠĠĠĠĠĠĠĠĠĠĠĠĠĠĠĠĠ":3906,"Ġdel":3907,"Ġenc":3908,"mote":3909,"uidance":3910,"gradient":3911,"ib":3912,"lst":3913,"ended":3914,"difi":3915,"ulation":3916,"getLogger":3917,"Ġloop":3918,"problem":3919,"ĠPo":3920,"ĠGaussian":3921,"Trainer":3922,"Comp":3923,"ĠRotation":3924,"No":3925,"`):<":3926,"`):":3927,"oled":3928,"Ġ\"_":3929,"ĠTYPE":3930,"perim":3931,"need":3932,"ESS":3933,"arn":3934,"Ġclip":3935,"Ġinner":3936,"expect":3937,"ĠFile":3938,"ĠRoute":3939,"Ġinte":3940,"csv":3941,"CHECKING":3942,"Node":3943,"change":3944,"Ġio":3945,"Ġboth":3946,"lick":3947,"rant":3948,"ilon":3949,"Ġdf":3950,"ffers":3951,"Ġlight":3952,"ynam":3953,"Ġprovide":3954,"job":3955,"Ġadjust":3956,"Ġgradients":3957,"Ġangles":3958,"BO":3959,"Event":3960,"Te":3961,"Ġport":3962,"section":3963,"annot":3964,"Ġcons":3965,"Ġconstant":3966,"ĠUse":3967,"ĠInitialize":3968,"Policy":3969,"Sharded":3970,"Manager":3971,"æķ°":3972,"!]":3973,"Mult":3974,"URL":3975,"fused":3976,"ient":3977,"Ġquant":3978,"Ġtk":3979,"relevant":3980,"allow":3981,"Ġds":3982,"(\"**/":3983,"ĠInput":3984,"ĠConv":3985,"Ġsaving":3986,"Ġlicensed":3987,"48":3988,"User":3989,"Var":3990,"ulf":3991,"Ġwant":3992,"Ġ((":3993,"Ġanswers":3994,"Ġlosses":3995,"ĠĠĠĠĠĠĠĠĠĠĠĠĠĠĠĠĠĠĠĠĠ":3996,"\"]:<":3997,"account":3998,"summ":3999,"fully":4000,"camera":4001,"\"),":4002,"HE":4003,"Th":4004,"xic":4005,"coll":4006,"Ġhistory":4007,"Ġdelta":4008,"Ġwithin":4009,"Ġcover":4010,"Ġunique":4011,"control":4012,"accuracy":4013,"Ġmasks":4014,"Ġfunctions":4015,"Ġtemplate":4016,"ĠDiffusion":4017,"ĠCompute":4018,"hello":4019,"ĠColumn":4020,"Client":4021,"Open":4022,"ws":4023,"åĪ":4024,"stable":4025,"\"])":4026,"ĠOllama":4027,"clu":4028,"noise":4029,"special":4030,"\"}<":4031,"Optimizer":4032,"PUT":4033,"sleep":4034,"Ġfused":4035,"Ġgraph":4036,"Ġsend":4037,"latent":4038,"={<":4039,"Ġtrack":4040,"MScheduler":4041,"SS":4042,"every":4043,"gab":4044,"jpg":4045,"ops":4046,"æľ":4047,"ĠĠĠĠĠĠĠĠĠĠĠĠĠ":4048,"ranch":4049,"(\"<":4050,"()[":4051,"ĠIt":4052,"Ġunet":4053,"Ġtimesteps":4054,"oxel":4055,"ĠOpenAI":4056,"GB":4057,"Ġoption":4058,"ĠPlat":4059,"Ġshutil":4060,"Ġnormalize":4061,"ĠMulti":4062,"IO":4063,"LLM":4064,"PLE":4065,"\\<":4066,"oo":4067,"loop":4068,"etrie":4069,"ell":4070,"ĠOr":4071,"Ġadded":4072,"dump":4073,"SON":4074,"VER":4075,"]]<":4076,"hparams":4077,"rim":4078,"Ġabs":4079,"Ġoptions":4080,"unique":4081,"otion":4082,"Ġlaunch":4083,"lica":4084,"============":4085,"Ġhash":4086,"offload":4087,"Ġlengths":4088,"Ġpredicted":4089,"Ġwarnings":4090,"42":4091,"Class":4092,"pc":4093,"zen":4094,"pac":4095,"enabled":4096,"Ġcv":4097,"mes":4098,"assets":4099,"Ġreturns":4100,"Ġstruct":4101,"Ġrole":4102,"Ġcorrespon":4103,"Ġreduce":4104,"ĠLayerNorm":4105,"ĠImportError":4106,"uestion":4107,"fulf":4108,"gr":4109,"lora":4110,"sampler":4111,"scorer":4112,"exist":4113,"urer":4114,"lish":4115,"Ġhf":4116,"prec":4117,"Ġthere":4118,"pix":4119,"rypt":4120,"requests":4121,"PATH":4122,"].<":4123,"_<":4124,"('.":4125,"Ġprovider":4126,"Ġsubprocess":4127,"PORT":4128,"topk":4129,"Ġexamples":4130,"autograd":4131,"Strategy":4132,"Dis":4133,"Trans":4134,"_)<":4135,"clock":4136,"fid":4137,"ĠĠĠĠĠĠĠĠĠĠ":4138,"ĠBu":4139,"\")).":4140,"Ġbytes":4141,"ASS":4142,"Ġcommon":4143,"ĠAutoTokenizer":4144,"variance":4145,"*,":4146,"Please":4147,"nMask":4148,"Ġparallelism":4149,"Ġchat":4150,"epspeed":4151,"home":4152,"Execution":4153,"ven":4154,"éĢ":4155,"padded":4156,"Ġmsg":4157,"ilter":4158,"validation":4159,"shapes":4160,"cepted":4161,"generation":4162,"uthor":4163,"ĠAutoModel":4164,"Ġsql":4165,"Ġfewshot":4166,"FT":4167,"Found":4168,"Optional":4169,"gster":4170,"have":4171,"my":4172,"wrap":4173,"}')<":4174,"resize":4175,"dev":4176,"Ġnested":4177,"Ġinf":4178,"velocity":4179,"ĠRep":4180,"dagster":4181,"('/":4182,"lication":4183,"Ġprev":4184,"nner":4185,"'],<":4186,"mooth":4187,"Ġpop":4188,"Ġloading":4189,"anguage":4190,"tasks":4191,"Ġlearning":4192,"ĠĠĠĠĠĠĠĠĠĠĠĠĠĠĠĠĠĠĠĠĠĠĠĠĠĠĠĠ":4193,"Ġusage":4194,"ighbors":4195,"skip":4196,"frac":4197,"nMaskType":4198,"45":4199,"æĺ":4200,"alize":4201,"mega":4202,"ilities":4203,"acher":4204,"ĉĉĉĉ":4205,"Forward":4206,"Ġdetails":4207,"iliates":4208,"Ġaffiliates":4209,"VA":4210,"equal":4211,"knowledge":4212,"ä»":4213,"Ġexit":4214,"INFO":4215,"oug":4216,"Ġbatches":4217,"patial":4218,"Ġactual":4219,"ArgumentParser":4220,"execute":4221,"timers":4222,"password":4223,"planation":4224,"ynamic":4225,"SH":4226,"tic":4227,"åĲ":4228,"pay":4229,"Ġ\"\")<":4230,"randint":4231,"ĠParameters":4232,"Content":4233,"Ġproduct":4234,"]:":4235,"called":4236,"disc":4237,"trainer":4238,"checker":4239,"Ġprobs":4240,"accum":4241,"collection":4242,"Ġclasses":4243,"Ġ'''<":4244,"'{":4245,"Vi":4246,"ond":4247,"rozen":4248,"Ġcore":4249,"Ġrag":4250,"Ġpadded":4251,"ALL":4252,"simple":4253,"07":4254,"RN":4255,"Val":4256,"fields":4257,"encoded":4258,"Ġet":4259,"ĠLiteral":4260,"subject":4261,"condition":4262,"periment":4263,"MPT":4264,"NUM":4265,"TP":4266,"TY":4267,"fetch":4268,"rgb":4269,"relu":4270,"except":4271,"Ġprag":4272,"Ġdesc":4273,"ĠDo":4274,"predictions":4275,"termin":4276,"calc":4277,"Ġresidual":4278,"Ġshard":4279,"Ġconfigure":4280,"rows":4281,"backbone":4282,"Ġdefaults":4283,"flax":4284,"Ġentry":4285,"times":4286,"Ġpragma":4287,"dup":4288,"ire":4289,"yaml":4290,"repo":4291,"Ġsummary":4292,"Ġlow":4293,"epcopy":4294,"ĠRa":4295,"Ġchoice":4296,"Ġattribute":4297,"ĠĠĠĠĠĠĠĠĠĠĠĠĠĠĠĠĠĠĠĠĠĠĠĠĠĠĠĠĠĠĠĠĠĠ":4298,"STR":4299,"EXT":4300,"Ġjoints":4301,"Ġ```<":4302,"89":4303,"cle":4304,"fname":4305,"ick":4306,"kdir":4307,"schedule":4308,"ãĢ":4309,"Ġmu":4310,"Ġreason":4311,"Ġind":4312,"thing":4313,"uniform":4314,"ĠNo":4315,"ĠNOT":4316,"Ġcond":4317,"ĠAl":4318,"abstractmethod":4319,"Ġexception":4320,"listdir":4321,"ĠCont":4322,"lapsed":4323,"Ġsmall":4324,"Temp":4325,"Chat":4326,"FF":4327,"LAG":4328,"]['":4329,"ector":4330,"ually":4331,"storage":4332,"ported":4333,"Ġthey":4334,"olute":4335,"lended":4336,"ĠUNet":4337,"Ġpolicy":4338,"ĠKey":4339,"gmentation":4340,"flags":4341,"uffix":4342,"SIZE":4343,"POST":4344,"String":4345,"Hel":4346,"]],":4347,"bet":4348,"vq":4349,"chron":4350,"Ġbroadcast":4351,"Ġ({":4352,"Ġhigh":4353,"Ġunit":4354,"timeError":4355,"matmul":4356,"Ġmetric":4357,"DiffusionPipeline":4358,"Ġabout":4359,"fulfill":4360,"EL":4361,"ROR":4362,"TES":4363,"]]:<":4364,"bn":4365,"xx":4366,"åĬ":4367,"ont":4368,"Ġpers":4369,"ĠAda":4370,"ĠLlama":4371,"Ġmegab":4372,"ynchron":4373,");<":4374,"Com":4375,"ML":4376,"crop":4377,"eet":4378,"mt":4379,"}\"":4380,"âĢ":4381,"Ġ15":4382,"agen":4383,"Inter":4384,"Ġretro":4385,"Ġfactor":4386,"rtual":4387,"ogle":4388,"MegatronModule":4389,"summary":4390,"dense":4391,"sv":4392,"ture":4393,"uint":4394,"Ġcross":4395,"cost":4396,"ĠTh":4397,"Ġdirect":4398,"endswith":4399,"header":4400,"Condition":4401,"ĠEmbedding":4402,"blems":4403,"joints":4404,"([<":4405,"RED":4406,"Ġmoe":4407,"Ġaccuracy":4408,"envs":4409,"Ġlatents":4410,"initialized":4411,"episodes":4412,"Add":4413,"Or":4414,"TYPE":4415,"yd":4416,"Ġct":4417,"Ġedge":4418,"Ġ\"{":4419,"Ġplot":4420,"Ġop":4421,"ĠNorm":4422,"ĠLinear":4423,"Ġsee":4424,"ĠModule":4425,"Ġ:]<":4426,"Ġsettings":4427,"inalg":4428,"Ġtimes":4429,"plotlib":4430,"FOR":4431,"QA":4432,"]+":4433,"lim":4434,"lator":4435,"tk":4436,"wandb":4437,"|>":4438,"mester":4439,"Ġthem":4440,"()))<":4441,"Ġgather":4442,"Ġ*=":4443,"shuffle":4444,"ĠPar":4445,"Ġengine":4446,"Ġrequire":4447,"Ġneighbor":4448,"alculate":4449,"argv":4450,"initialization":4451,"osen":4452,"ugh":4453,"Answer":4454,"constants":4455,"384":4456,"Any":4457,"By":4458,"HT":4459,"events":4460,"nx":4461,"qpos":4462,"äº":4463,"ords":4464,"gex":4465,"mel":4466,"Ġ##":4467,"Ġ('":4468,"Ġevents":4469,"ĠTo":4470,"Ġdeno":4471,"Ġ'__":4472,"Ġhand":4473,"Ġhparams":4474,"Ġdecay":4475,"ators":4476,"Ġaccount":4477,"active":4478,"binary":4479,"ĠStableDiffusion":4480,"StateDict":4481,"Ġvia":4482,"Retro":4483,"huggingface":4484,"wrapper":4485,"anthropic":4486,"Ġ[-":4487,"atting":4488,"rich":4489,"dout":4490,"ublic":4491,"Ġnodes":4492,"details":4493,"MAX":4494,"Ġlightrag":4495,"`]":4496,"aract":4497,"limit":4498,"Ġinv":4499,"ĠChat":4500,"outer":4501,"mentum":4502,"runner":4503,"uced":4504,"lastic":4505,"Ġfast":4506,"Ġdocuments":4507,"ĠGenerate":4508,"1000":4509,"gor":4510,"human":4511,"oriz":4512,"Ġpp":4513,"afe":4514,"abspath":4515,"ources":4516,"PARA":4517,"95":4518,"ELU":4519,"Source":4520,"bos":4521,"uction":4522,"{\"":4523,"Ġ\"[":4524,"Ġbins":4525,"Ġdon":4526,"upper":4527,"prediction":4528,"Ġprediction":4529,"iply":4530,"lecturer":4531,"retrieval":4532,"ĠAttention":4533,"install":4534,"Ġfreqs":4535,"gorith":4536,"Pool":4537,"eft":4538,"sl":4539,"solution":4540,"Ġmm":4541,"dialog":4542,"ulator":4543,"Ġequal":4544,"ĠAsset":4545,"Ġ'\\":4546,"Ġlong":4547,"Ġprocessed":4548,"Ġpreprocessing":4549,"codes":4550,"Ġalso":4551,"latents":4552,"Ġcontrol":4553,"ĠSession":4554,"Ġworker":4555,"celerator":4556,"35":4557,"You":4558,"]),":4559,"_[":4560,"other":4561,"å¤":4562,"Ġè":4563,"invalid":4564,"Ġfetch":4565,"hex":4566,"thread":4567,"Ġreturned":4568,"Ġ256":4569,"ĠDDP":4570,"ĠWhether":4571,"ngine":4572,"ĠPyTorch":4573,"ðĿĹ":4574,"Ġcreated":4575,"ĠBuild":4576,"](":4577,"blue":4578,"ced":4579,"sig":4580,"rable":4581,"utton":4582,"ĠĠĠĠĠĠĠĠĠĠĠĠĠĠĠĠĠĠ":4583,"Ġproblem":4584,"á´ľ":4585,"failed":4586,"means":4587,"ideo":4588,"Ġtrajectory":4589,"Ġcalls":4590,"Ġverbose":4591,"Ġcorresponding":4592,")),<":4593,"fusion":4594,"lon":4595,"this":4596,"mpu":4597,"ĠAd":4598,"Ġdiv":4599,"layernorm":4600,"INE":4601,"Ġmaximum":4602,"Ġ%.":4603,"Ġscaling":4604,"rolNet":4605,"Ġoffsets":4606,"Ġvariance":4607,"assistant":4608,"pacity":4609,".')<":4610,">{":4611,"OUT":4612,"rection":4613,"lex":4614,"polation":4615,"ĠSplit":4616,"ĠRo":4617,"locks":4618,"amond":4619,"INT":4620,"indexed":4621,"}/{":4622,"PROMPT":4623,"27":4624,"rough":4625,"rast":4626,"Ġrelative":4627,"ote":4628,"Ġans":4629,"ĠSave":4630,"ĠScore":4631,"------":4632,"username":4633,"ivations":4634,"Ġ500":4635,"SION":4636,"Ġexisting":4637,"LEN":4638,"TEM":4639,"fy":4640,"ipy":4641,"kit":4642,"ov":4643,"ru":4644,"çĶ":4645,"êľ":4646,"seg":4647,"Ġ[],":4648,"ĠĠĠĠĠĠĠĠĠĠĠĠĠĠĠĠĠĠĠĠ":4649,"ĠURL":4650,"cesses":4651,"']['":4652,"tract":4653,"structor":4654,"where":4655,"ĠApply":4656,"Timeout":4657,"ĠPlatforms":4658,"bank":4659,"ices":4660,"mkdir":4661,"ä½":4662,"paint":4663,"ras":4664,"itial":4665,"icient":4666,"Ġstory":4667,"ĠDoc":4668,"']:<":4669,"latform":4670,"Stream":4671,"clamp":4672,"Ġdocumentation":4673,"ĠRuntimeError":4674,"retriever":4675,"Eval":4676,"Long":4677,"Number":4678,"solver":4679,"âķ":4680,"Ġrich":4681,"Ġresize":4682,"ĠToken":4683,"Ġdb":4684,"Ġdot":4685,"Ġdistribution":4686,"Ġdimensions":4687,"ĠRequest":4688,"observation":4689,"ERS":4690,"feats":4691,"omic":4692,"ĠMock":4693,"Ġselected":4694,"WORKING":4695,"Ġactions":4696,"edDataset":4697,"Ġreport":4698,"Ġbert":4699,"empt":4700,"Ġ'-":4701,"els":4702,"river":4703,"Ġarch":4704,"ĠBy":4705,"pied":4706,"128":4707,"normalizer":4708,"Ġworkflow":4709,"ĠDistributed":4710,".\",<":4711,"37":4712,"BU":4713,"Group":4714,"Vision":4715,"linalg":4716,"zz":4717,"ink":4718,"eras":4719,"rogram":4720,"Ġcpu":4721,"Ġsolver":4722,"urces":4723,"avig":4724,"Ġobj":4725,"Ġmov":4726,"Ġaccelerate":4727,"parts":4728,"Ġavg":4729,"orizon":4730,"Button":4731,"Tool":4732,"Work":4733,"}_":4734,"æį":4735,"Ġ=================================":4736,"imple":4737,"Ġada":4738,"chema":4739,"dates":4740,"ĠDown":4741,"istic":4742,"Ġuses":4743,"phas":4744,"DatasetConfig":4745,"Ġweb":4746,"NotFound":4747,"Ġsuccessfully":4748,"ExecutionContext":4749,"ĠAutoModelForCausalLM":4750,")\")<":4751,")}\")<":4752,"Prompt":4753,"UP":4754,"WE":4755,"bfloat":4756,"pil":4757,"reference":4758,"Ġwait":4759,"toxic":4760,"Ġeff":4761,"ways":4762,"strict":4763,"Ġ:]":4764,"Step":4765,"LOG":4766,"enchmark":4767,"when":4768,"ABLE":4769,"Ġplace":4770,"ilarity":4771,"DB":4772,"smpl":4773,"Ġ),":4774,"Ġps":4775,"settings":4776,"ĠRem":4777,"Ġresolution":4778,"ENAI":4779,"neighbor":4780,"Ġpossi":4781,"ERROR":4782,"pattern":4783,"Ġmodules":4784,"Env":4785,"Ġtimestamp":4786,"CLIP":4787,"21":4788,"Sub":4789,"_.":4790,"ined":4791,"instruction":4792,"Ġten":4793,"uted":4794,"lan":4795,"romise":4796,"Ġemail":4797,"__<":4798,"ĠPlease":4799,"ĠOn":4800,"ifact":4801,"cause":4802,"Ġalong":4803,"Ġdefaultdict":4804,"Ġ50":4805,"before":4806,"encies":4807,"++++":4808,"%%%%":4809,"ibility":4810,"\"})<":4811,"28":4812,"47":4813,"GET":4814,"dit":4815,"ium":4816,"writer":4817,"pan":4818,"gemini":4819,"Ġbest":4820,"parate":4821,"loaders":4822,"negative":4823,"ERT":4824,"extract":4825,"argin":4826,"SchedulerMixin":4827,"Ġtimestep":4828,"LongTensor":4829,"CUDA":4830,"åħ":4831,"Ġquestions":4832,"Ġfig":4833,"launch":4834,"Ġpt":4835,"Ġevery":4836,"Ġpaper":4837,"(\"%":4838,"0000":4839,"ixed":4840,"Ġvis":4841,"INDE":4842,"Ġwords":4843,"Storage":4844,"Ġleft":4845,"region":4846,"signal":4847,"Hello":4848,"INDEX":4849,"08":4850,"768":4851,"=\"\"":4852,"Sc":4853,"ui":4854,"Ġscorer":4855,"dated":4856,"Ġbone":4857,"Ġgen":4858,"ĠWork":4859,"ĠVal":4860,"Ġcompat":4861,"1234":4862,"commit":4863,"Ġsubject":4864,"Ġgrads":4865,"multiple":4866,"ummyObject":4867,"éĹ":4868,"pace":4869,"arding":4870,"Ġhs":4871,"ĠSo":4872,"Ġkl":4873,"continue":4874,"Start":4875,"tesIO":4876,"Ġdisplay":4877,"rsp":4878,"collate":4879,"Ġmegablocks":4880,"IC":4881,"Op":4882,"Split":4883,"[[":4884,"\\.":4885,"ear":4886,"slice":4887,"Ġip":4888,"entr":4889,"ement":4890,"ĠĠĠĠĠĠĠĠĠĠĠĠĠĠĠĠĠĠĠĠĠĠĠĠĠĠĠĠĠĠĠĠĠĠĠ":4891,"parents":4892,"Ġexce":4893,"Ġmaster":4894,"ĠDP":4895,"Ġenable":4896,"localhost":4897,"Ġvariable":4898,"Ġ768":4899,"benchmark":4900,"Meta":4901,"cmd":4902,"mu":4903,"si":4904,"along":4905,"imation":4906,"chrom":4907,"Ġbar":4908,"lend":4909,"Ġstand":4910,"Ġparent":4911,"Ġjob":4912,"rightness":4913,"Ġcombin":4914,"ModuleList":4915,"Ġsizes":4916,"Ġfinish":4917,"Ġcontains":4918,"Ġmultiprocessing":4919,"alyze":4920,"Dep":4921,"WAR":4922,"field":4923,"rl":4924,"Ġsl":4925,"Ġimportlib":4926,"Ġwhether":4927,"__':<":4928,"Ġdt":4929,"term":4930,"tact":4931,"ancel":4932,"Ġparsed":4933,"fast":4934,"fixture":4935,"Ġleast":4936,"rewards":4937,"TrainedModel":4938,"degree":4939,"Code":4940,"Handler":4941,"aff":4942,"ored":4943,"dete":4944,"Ġ\"\",":4945,"Ġmark":4946,"Ġinsert":4947,"Ġ#<":4948,"ash":4949,"counter":4950,"(\"{":4951,"quare":4952,"cords":4953,"Ġattributes":4954,"Ġ%(":4955,"ives":4956,"ĠHT":4957,"theta":4958,"Ġintercepted":4959,"stanti":4960,"vantages":4961,"ĠProcess":4962,"Ġaudio":4963,"98":4964,"cc":4965,"Ġcu":4966,"todo":4967,"shortcut":4968,"ĠPrompt":4969,"Ġdepend":4970,"Ġchain":4971,"ĠConsole":4972,"Ġitems":4973,"Ġinitialization":4974,"iktoken":4975,"ĠQuery":4976,"Ġconnection":4977,"IGH":4978,"Embed":4979,"If":4980,"mim":4981,"nan":4982,"safety":4983,"ush":4984,"wrapped":4985,"student":4986,"Ġflatten":4987,"cell":4988,"Ġinclu":4989,"Ġsy":4990,"exc":4991,"coeff":4992,"ĠTime":4993,"ĠTable":4994,"Ġprogress":4995,"ĠBert":4996,"completion":4997,"bind":4998,"Ġscene":4999,"Ġavoid":5000,"connect":5001,"Ġjoint":5002,"Ġterms":5003,"enums":5004,"It":5005,"driver":5006,"Êľ":5007,"åĽ":5008,"Ġfname":5009,"Ġannot":5010,"Ġlower":5011,"ability":5012,"ria":5013,"istics":5014,"RAG":5015,"Ġmatplotlib":5016,"quaternions":5017,"Ġparts":5018,"Failed":5019,"Ġurllib":5020,"Union":5021,"Ġletter":5022,"unication":5023,"\"},<":5024,"57":5025,"500":5026,"?<":5027,"DCondition":5028,"Iter":5029,"LLE":5030,"bt":5031,"sp":5032,"æĸ":5033,"stdout":5034,"utable":5035,"Ġresearch":5036,"Ġstudent":5037,"processed":5038,"Ġseconds":5039,"extras":5040,"lug":5041,"metaclass":5042,"Level":5043,"dified":5044,"=[\"":5045,"Size":5046,"ae":5047,"mod":5048,"}\",<":5049,"report":5050,"Ġfill":5051,"Ġreq":5052,"Ġinher":5053,"Ġour":5054,"ĠFunction":5055,"ĠField":5056,"Ġparents":5057,"ĠComp":5058,"Ġtexts":5059,"Ġalign":5060,"span":5061,"ĠShape":5062,"Ġvectors":5063,"Ġepisodes":5064,"NotFoundError":5065,"glob":5066,"ia":5067,"sep":5068,"lops":5069,"Ġsuch":5070,"Ġdinov":5071,"Ġnumbers":5072,"Ġdecode":5073,"configuration":5074,"Ġprojection":5075,"itions":5076,"login":5077,"antic":5078,"bove":5079,"moid":5080,"functions":5081,"partial":5082,"ĠJSON":5083,"Ġobjects":5084,"Ġallowed":5085,"Ġtakes":5086,".*":5087,"43":5088,"=<":5089,">\")<":5090,"RGB":5091,"cr":5092,"ĠĠĠĠĠĠĠĠĠĠĠĠĠĠ":5093,"dic":5094,"izing":5095,"pted":5096,"course":5097,">#!":5098,"ffn":5099,"precision":5100,"Ġ>>":5101,"Ġ:-":5102,"ĠReturn":5103,"Ġsetattr":5104,"accelerate":5105,"Read":5106,"ReLU":5107,"Ġcollect":5108,"Ġinstead":5109,"TEMPL":5110,"mimic":5111,"=_":5112,"Al":5113,"Batch":5114,"DummyObject":5115,"iod":5116,"æĪ":5117,"into":5118,"sen":5119,"Ġmem":5120,"ulary":5121,"ĠAsync":5122,"deredDict":5123,"amma":5124,"TIME":5125,"```":5126,"cumprod":5127,"ĠIDs":5128,"finished":5129,"gorithm":5130,"202":5131,"CAL":5132,"Low":5133,"pr":5134,"erobot":5135,"Ġtiktoken":5136,"ĠClient":5137,"Ġlerobot":5138,"dirs":5139,"apping":5140,"bound":5141,"runtime":5142,"Ġheader":5143,"gnitude":5144,"reply":5145,"execution":5146,"inops":5147,"learn":5148,"Ġhost":5149,"Ġnetwork":5150,"atermark":5151,",)<":5152,"->":5153,"Filter":5154,"MO":5155,"TE":5156,"Ġcl":5157,"Ġsd":5158,"ues":5159,"contain":5160,"ĠStr":5161,"Ġstore":5162,"Ġcounter":5163,"Ġlang":5164,"Ġkv":5165,"á´ħ":5166,"fail":5167,"vertices":5168,"structions":5169,"Ġwriter":5170,"Ġmatches":5171,"ragraph":5172,"Ġabc":5173,"ordin":5174,"schedulers":5175,"PARALLE":5176,"âķĲ":5177,"LL":5178,"Utils":5179,"[<":5180,"named":5181,"aturation":5182,"modeling":5183,"abc":5184,"ĠFa":5185,"rametr":5186,"checkbox":5187,"Ġvision":5188,"ĠArguments":5189,"124":5190,"selected":5191,"ðĿĴ":5192,"ĠCLIP":5193,"Ġtmpdir":5194,"merged":5195,"Query":5196,"Ad":5197,"NO":5198,"eos":5199,"git":5200,"remote":5201,"iters":5202,"Ġfeet":5203,"Ġbox":5204,"()).":5205,"atted":5206,"Ġarr":5207,"ĠBe":5208,"Ġpattern":5209,"ĠGPTModel":5210,"Ġvariables":5211,"IGHTS":5212,"NOR":5213,"]],<":5214,"sage":5215,"ucli":5216,"é¢":5217,")</":5218,"dean":5219,"Ġrecall":5220,"Ġcod":5221,"urbo":5222,"datas":5223,"ĠCalculate":5224,"Ġhalf":5225,"Ġcharact":5226,"Ġpose":5227,"Ġpooled":5228,"Ġnegative":5229,"lated":5230,"Ġnoqa":5231,"Ġscipy":5232,"apshot":5233,"Ġexpr":5234,"Ġbinary":5235,"ĠWhen":5236,"uclidean":5237,"23":5238,"DS":5239,"Engine":5240,"fr":5241,"pus":5242,"skeleton":5243,"tanh":5244,"à¸":5245,"åº":5246,"once":5247,"erical":5248,"arras":5249,"help":5250,"ĠLight":5251,"usr":5252,"Ġdelete":5253,"istent":5254,"ĠMake":5255,"penalt":5256,"bomimic":5257,"ived":5258,"ernal":5259,"Ġsequences":5260,"repr":5261,"Ġentries":5262,"ought":5263,"Ġindent":5264,"DConditionModel":5265,"âķĲâķĲ":5266,"App":5267,"Element":5268,"VAL":5269,"game":5270,"ndim":5271,"playwright":5272,"Êı":5273,"Ġaround":5274,"Ġabove":5275,"Ġ\")<":5276,"Ġcenter":5277,"uru":5278,"Ġops":5279,"Ġeinops":5280,"Ġpand":5281,"resnet":5282,"Ġllama":5283,"Ġratio":5284,"percent":5285,"iframe":5286,"buffers":5287,"latest":5288,"network":5289,"ategory":5290,"visual":5291,"ngrams":5292,"Ġrepresentation":5293,"cii":5294,"Ġtokentypes":5295,"Ġpandas":5296,"58":5297,"DING":5298,"ination":5299,"ceil":5300,"Ġcost":5301,"Ġorig":5302,"Ġrand":5303,"Ġbecause":5304,"ĠEval":5305,"mouse":5306,"basename":5307,"rune":5308,"ĠĠĠĠĠĠĠĠĠĠĠĠĠĠĠĠĠĠĠĠĠĠĠĠĠ":5309,"Ġprocessor":5310,"Ġworkspace":5311,"Ġfolder":5312,"filtered":5313,"pooler":5314,"Ġinteger":5315,"([\"":5316,"Grad":5317,"Question":5318,"è¯":5319,"pture":5320,"serial":5321,"(\"()":5322,"Ġguidance":5323,"ĠLa":5324,"ĠBlock":5325,"socket":5326,"Ġtrainer":5327,"overlap":5328,"Ġfake":5329,"LAGS":5330,"Ġdirectly":5331,":,":5332,":],":5333,"Enum":5334,"OG":5335,"fallback":5336,"gaussian":5337,"hs":5338,"holder":5339,"known":5340,"pid":5341,"xy":5342,"inds":5343,"inspect":5344,"Ġfaiss":5345,"Ġ\"**/":5346,"Ġsw":5347,"Ġscope":5348,"Ġpri":5349,"virtual":5350,"attributes":5351,"inite":5352,"corator":5353,"preds":5354,"cessary":5355,"application":5356,"okup":5357,"ipher":5358,"errors":5359,"Ġcheckpoints":5360,"ĠModelType":5361,"ĠRetroPreprocessingConfig":5362,"Ġsignal":5363,"Ġradians":5364,"~~~~":5365,"Soft":5366,"ãĢĤ":5367,"26":5368,"clear":5369,"sy":5370,"ories":5371,"ero":5372,"Ġmotion":5373,"ascii":5374,"Ġgpu":5375,"Ġhn":5376,"Ġdialog":5377,"configure":5378,"Ġshow":5379,"aging":5380,"epsilon":5381,"templates":5382,"Ġoverlap":5383,"IMAGE":5384,"Ġprobability":5385,"ĠOrderedDict":5386,"Ġcoding":5387,")]":5388,"Doc":5389,"II":5390,"bal":5391,"ky":5392,"orn":5393,"ily":5394,"Ġconst":5395,"ĠLe":5396,"problems":5397,"ĠRetrie":5398,"Ġshort":5399,"plus":5400,"jected":5401,"Ġmessagebox":5402,"Ġpytorch":5403,"Sequence":5404,"link":5405,"curs":5406,"ĠMegatronModule":5407,"OPENAI":5408,"USER":5409,"Ġpopup":5410,"ĠNOTE":5411,"ydra":5412,"40":5413,"=['":5414,"All":5415,"PS":5416,"Ra":5417,"hi":5418,"wb":5419,"writ":5420,"past":5421,"alloc":5422,"Ġap":5423,"utions":5424,"Ġinstruction":5425,"mesh":5426,"Ġbenchmark":5427,"olved":5428,"Ġgaussian":5429,"Ġlogs":5430,"Ġ[[":5431,"ĠCustom":5432,"ĠDagster":5433,"ĠDATA":5434,"uble":5435,"licit":5436,"ocus":5437,"teger":5438,"quired":5439,"Ġloguru":5440,"PIL":5441,"argmax":5442,"ĠRaises":5443,"betas":5444,"çĶ¨":5445,"*\",":5446,"Bert":5447,"Future":5448,"NN":5449,"NING":5450,"Random":5451,"_):<":5452,"ook":5453,"}$":5454,"ç»":5455,"Ġaut":5456,"Ġmon":5457,"analysis":5458,"tower":5459,"Ġdeepcopy":5460,"trainable":5461,"ĠUser":5462,"Ġattr":5463,"DataParallel":5464,"))))<":5465,"Ġsplits":5466,"missing":5467,"Training":5468,"Ġotherwise":5469,"Ġtranscript":5470,"ĠConfigMixin":5471,">\"<":5472,"bx":5473,"each":5474,"mi":5475,"widget":5476,"è§":5477,"selection":5478,"imagen":5479,"Ġ\"-":5480,"Ġstorage":5481,"derr":5482,"Ġdec":5483,"laybook":5484,"Ġident":5485,"Ġperm":5486,"Ġmodi":5487,"biencoder":5488,"ĠCheckpoint":5489,"Header":5490,"ĠCLIPT":5491,"reasoning":5492,"snr":5493,"ĠPerform":5494,"fidence":5495,"PARALLEL":5496,"é¢ĺ":5497,"\">":5498,"31":5499,">-":5500,"QU":5501,"Rank":5502,"We":5503,"cnt":5504,"ln":5505,"mon":5506,"pkl":5507,"rnn":5508,"saved":5509,"spatial":5510,"tab":5511,"parametr":5512,"itch":5513,"loy":5514,"Ġinp":5515,"uess":5516,"Ġ11":5517,"attribute":5518,"endpoint":5519,"Ġdescri":5520,"Ġthrough":5521,"pip":5522,"Ġpresent":5523,"positive":5524,"evals":5525,"neighbors":5526,"planner":5527,"based":5528,"Ġclose":5529,"Buil":5530,"ĠAttnMaskType":5531,"jectories":5532,"ĠIndexedDataset":5533,"CACHE":5534,"Callable":5535,"OS":5536,"What":5537,"broadcast":5538,"high":5539,"lers":5540,"pisode":5541,"tb":5542,"tqdm":5543,"win":5544,"onal":5545,"alphas":5546,"pow":5547,"ĠNew":5548,"upload":5549,"()):<":5550,"Ġgold":5551,"ĠĠĠĠĠĠĠĠĠĠĠĠĠĠĠĠĠĠĠĠĠĠĠĠĠĠĠĠĠĠĠĠĠĠĠĠĠĠĠ":5552,"Ġhow":5553,"layout":5554,"Ġlarge":5555,"Ġseen":5556,"iddle":5557,"...\")<":5558,"ranks":5559,"general":5560,"')[":5561,"HOST":5562,"ĠShardedStateDict":5563,"eradata":5564,"Ġcomputation":5565,"Ġcosine":5566,"ĠUpdate":5567,"Ġthreading":5568,"============<":5569,"Ġetc":5570,"STRING":5571,">#!/":5572,".)<":5573,"Tra":5574,"`.":5575,"branch":5576,"sph":5577,"pair":5578,"Ġsync":5579,"Ġsolution":5580,"ident":5581,"Ġeven":5582,"###":5583,"ĠId":5584,"dimension":5585,"Ġshortcut":5586,"Conf":5587,"plat":5588,"aving":5589,"Ġitertools":5590,"Buffer":5591,"product":5592,"ĠTemp":5593,"segments":5594,"Ġpackage":5595,"Ġreplica":5596,"Ac":5597,"ACK":5598,"hy":5599,"sli":5600,"Ġqueue":5601,"inp":5602,"inverse":5603,"err":5604,"ength":5605,"Ġtag":5606,"char":5607,"Ġfields":5608,"lout":5609,"Ġplatform":5610,"unds":5611,"ĠNe":5612,"ĠEuler":5613,"background":5614,"across":5615,"ĠĠĠĠĠĠĠĠĠĠĠĠĠĠĠĠĠĠĠĠĠĠĠĠĠĠĠĠĠĠĠĠĠĠĠĠĠĠ":5616,"16384":5617,"Ġusername":5618,"Ġintermediate":5619,"edia":5620,"Ġstats":5621,"LoaderMixin":5622,"ĠMoE":5623,"Ġhook":5624,"alyzer":5625,"Ġradius":5626,"Ġbuilding":5627,"Ġhashlib":5628,"ĠLlamaFactory":5629,"38":5630,"Pie":5631,"Scal":5632,"UB":5633,"UR":5634,"Up":5635,"kh":5636,"mc":5637,"mg":5638,"sa":5639,"inu":5640,"erc":5641,"ending":5642,"recompute":5643,"Ġrelease":5644,"lang":5645,"Ġbi":5646,"Ġwrapper":5647,"Ġ---------":5648,"Ġhuggingface":5649,"abel":5650,"allet":5651,"ĠIM":5652,"ĠMask":5653,"Ġpreprocess":5654,"Ġpredictions":5655,"infer":5656,"ird":5657,"ddp":5658,"transcript":5659,"calls":5660,"Ġframes":5661,"exceptions":5662,"OpenAI":5663,"Ġstructure":5664,"LENG":5665,"70":5666,"AY":5667,"_()<":5668,"eod":5669,"ha":5670,"sorted":5671,"scope":5672,"åŃ":5673,"ores":5674,"database":5675,"added":5676,"()]<":5677,"###<":5678,"parator":5679,"Ġdete":5680,"ĠReduce":5681,"Ġcourse":5682,"INTER":5683,"causal":5684,"Ġ40":5685,"matic":5686,"Ġcontrast":5687,"Ġtrace":5688,"windows":5689,"Ġneedle":5690,"variant":5691,"Formatter":5692,"ĠIterator":5693,"Ġconstants":5694,"View":5695,")\"<":5696,"And":5697,"Options":5698,"Sdf":5699,"VE":5700,"basic":5701,"havi":5702,"ove":5703,"Ġclick":5704,"diamond":5705,"ural":5706,"Ġthese":5707,"ullable":5708,"inte":5709,"poses":5710,"ĠLanguage":5711,"cording":5712,"ĠDis":5713,"Ġresnet":5714,"ĠGlobal":5715,"some":5716,"á´Ħ":5717,"uster":5718,"asyncio":5719,"Ġfunctional":5720,"filters":5721,"FILE":5722,"submodules":5723,"Ġoverride":5724,"Ġprobabilities":5725,"Template":5726,"smpllib":5727,"Ġbarrier":5728,"Item":5729,")(":5730,"Def":5731,"pk":5732,"onent":5733,"recv":5734,"Ġinverse":5735,"Ġ([":5736,"Ġ-=":5737,"Ġ'--":5738,"ĠLog":5739,"fact":5740,"Ġsampled":5741,"targets":5742,"Ġagain":5743,"registry":5744,"Ġglobals":5745,"Ġtiming":5746,"dispatch":5747,"Ġnormalization":5748,"vae":5749,"Ġá´Ľ":5750,"Ġelements":5751,"################################################":5752,"builder":5753,"FORM":5754,"sired":5755,"Ġcuda":5756,"penalty":5757,"Piece":5758,"LENGTH":5759,"75":5760,"URE":5761,"cro":5762,"euler":5763,"llava":5764,"navig":5765,"wn":5766,"roq":5767,"anner":5768,"Ġpc":5769,"uning":5770,"Ġ---------------------------------":5771,"Ġconn":5772,"ĠCPU":5773,"Ġ{:.":5774,"ĠDropout":5775,"Ġllava":5776,"day":5777,"Conne":5778,"Ġbelow":5779,"push":5780,"fake":5781,"Ġidentity":5782,"convention":5783,"Ġvariant":5784,"Ġsince":5785,"ĠĠĠĠĠĠĠĠĠĠĠĠĠĠĠĠĠĠĠĠĠĠĠĠĠĠĠĠĠĠĠĠĠĠĠĠĠĠĠĠĠĠ":5786,"ĠLoss":5787,"ĠAgentP":5788,"Ġoperation":5789,"VERSION":5790,"pixel":5791,"-{":5792,"39":5793,"FE":5794,"TEXT":5795,"Wh":5796,"Writer":5797,"]}":5798,"ba":5799,"ios":5800,"npy":5801,"ðŁ":5802,"relative":5803,"child":5804,"entries":5805,"()}<":5806,"Ġexplanation":5807,"ĠDB":5808,"ĠRandom":5809,"tags":5810,"ĠMessage":5811,"eights":5812,"Ġbegin":5813,"Ġencode":5814,"Ġ30":5815,"ĠVQ":5816,"grouped":5817,"Ġapplied":5818,"versation":5819,"trajectory":5820,"etric":5821,"scaled":5822,"Ġ[`~":5823,"cookie":5824,"RNG":5825,"ĠHTTP":5826,"parametrize":5827,"79":5828,":\")<":5829,"adata":5830,"green":5831,"ply":5832,"æŀ":5833,"Ġrepo":5834,"Ġnull":5835,"dia":5836,"Ġwarmup":5837,"Ġwell":5838,"Ġdynamic":5839,"Ġ13":5840,"Ġhi":5841,"Ġstack":5842,"Ġ25":5843,"classification":5844,"preprocess":5845,"teradata":5846,"Ġbeing":5847,"Ġchallenge":5848,"\")[":5849,"'][":5850,"evaluation":5851,"Ġteacher":5852,"found":5853,"aux":5854,"arest":5855,"Ġinitialized":5856,"Ġcamera":5857,"elem":5858,"æĺ¯":5859,"Ġstandard":5860,"'.<":5861,",)":5862,"Do":5863,"Me":5864,"hand":5865,"voxel":5866,"geo":5867,"Ġredirect":5868,"portion":5869,"conf":5870,"vidia":5871,"Ġdest":5872,"Ġ/=":5873,"ĠGLOBAL":5874,"Ġtrainable":5875,"counts":5876,"ĠExtract":5877,"extractor":5878,"Ġcompleted":5879,"radius":5880,"Ġpassword":5881,"=[<":5882,"ä¸ª":5883,"ĠBrowserType":5884,"ĠForward":5885,"Ġmanager":5886,"Ġuuid":5887,"cleaned":5888,"Lowdim":5889,"ĠIdentity":5890,"AX":5891,"Cho":5892,"From":5893,"US":5894,"eng":5895,"align":5896,"Ġflops":5897,"arp":5898,"Ġsafety":5899,"peg":5900,"ump":5901,"ĠSub":5902,"ĠSdf":5903,"allreduce":5904,"Ġround":5905,"redential":5906,"Ġalways":5907,"Ġnecessary":5908,"versions":5909,"ĠContext":5910,"multiply":5911,"shots":5912,"999":5913,"Ġrepresenting":5914,"Ġretrieve":5915,"********":5916,"ĠPolicy":5917,"ĠDownload":5918,"btn":5919,"400":5920,":-":5921,":`":5922,"MIN":5923,"MLP":5924,"ipe":5925,"jnp":5926,"}.\")<":5927,"oral":5928,"Ġts":5929,"Ġturn":5930,"lem":5931,"Ġmod":5932,"ider":5933,"otal":5934,"coords":5935,"Ġ'_":5936,"Ġ204":5937,"Ġdatas":5938,"fft":5939,"Ġdeprec":5940,"ORS":5941,"Ġcontextlib":5942,"Ġsetting":5943,"running":5944,"Seq":5945,"Ġadding":5946,"ä¸Ģ":5947,"predicted":5948,"TRAIN":5949,"cookies":5950,"BOX":5951,"existing":5952,"megaConf":5953,"platform":5954,"!\")<":5955,"FAI":5956,"Ro":5957,"bstract":5958,"rm":5959,"tas":5960,"uuid":5961,"udio":5962,"Ġqu":5963,"sto":5964,"imp":5965,"Ġrepeat":5966,"pet":5967,"toks":5968,"Ġdeepspeed":5969,"ocation":5970,"Return":5971,"Ġcausal":5972,"generations":5973,"Ġretry":5974,"Ġbackground":5975,"scales":5976,"Ġaveraged":5977,"webkit":5978,"helper":5979,"Region":5980,"êľ±":5981,"Ġinherits":5982,"TEMPLATE":5983,"ĠAgentPrune":5984,"MET":5985,"NE":5986,"PES":5987,"Word":5988,"gra":5989,"mq":5990,"px":5991,"ren":5992,"sparse":5993,"®é¢ĺ":5994,"å®":5995,"å¼":5996,"æł":5997,"insum":5998,"Ġtri":5999,"Ġsn":6000,"lier":6001,"ĠNode":6002,"Ġdst":6003,"ollow":6004,"progress":6005,"Ġthreshold":6006,"andbox":6007,"heading":6008,"ĠBatch":6009,"Stat":6010,"Ġsubset":6011,"cating":6012,"interle":6013,"Protocol":6014,"normalized":6015,"absolute":6016,"Ġassistant":6017,"Ġexecute":6018,"scripts":6019,"Ġfixed":6020,"BUG":6021,"éĹ®é¢ĺ":6022,"'),":6023,"29":6024,"LR":6025,"auth":6026,"bda":6027,"mer":6028,"site":6029,"ted":6030,"åĩ":6031,"onents":6032,"rox":6033,"imate":6034,"ites":6035,"Ġmel":6036,"adam":6037,"ulative":6038,"Ġeuler":6039,"polate":6040,"isfile":6041,"ĠClass":6042,"share":6043,"ĠScheduler":6044,"Ġexact":6045,"ĠPlaywright":6046,"ĠOptimizer":6047,"oci":6048,"Ġappend":6049,"Info":6050,"letions":6051,"without":6052,"rotations":6053,"specs":6054,"vidual":6055,"udge":6056,"PipelineOutput":6057,"scaler":6058,"Ġconverted":6059,"Ġrows":6060,"ĠResponse":6061,"Adam":6062,"lank":6063,"ĠLazy":6064,"redentials":6065,"'),<":6066,"-%":6067,">\"\"":6068,"ND":6069,"Transform":6070,"actor":6071,"brid":6072,"css":6073,"ially":6074,"çŃ":6075,"panel":6076,"ines":6077,"Ġ=========":6078,"Ġff":6079,"ceived":6080,"Ġnullable":6081,"Ġsampler":6082,"export":6083,"Ġpk":6084,"Ġpm":6085,"Ġpix":6086,"Ġbound":6087,"Ġpast":6088,"ĠTHE":6089,"shard":6090,"Ġsto":6091,"rib":6092,"ĠPos":6093,"Ġcould":6094,"prepare":6095,"('\\":6096,"Ġchar":6097,"sources":6098,"ower":6099,"ĠĠĠĠĠĠĠĠĠĠĠĠĠĠĠĠĠĠĠĠĠĠĠĠĠĠĠĠĠĠĠĠĠĠĠĠĠĠĠĠĠĠĠĠĠĠĠ":6100,"plain":6101,"Ġspecial":6102,"Ġaccess":6103,"Ġrots":6104,"AMPLE":6105,"Ġstrings":6106,"Ġsimple":6107,"ĠTaskState":6108,"microbatches":6109,"Ġindicating":6110,"Adapter":6111,"Ġcombined":6112,"90":6113,"BC":6114,"Reduce":6115,"gits":6116,"zarr":6117,"atios":6118,"Ġcsv":6119,"ancing":6120,"Ġoc":6121,"Ġbot":6122,"ueue":6123,"__)":6124,"ĠAc":6125,"ĠCross":6126,"ĠSimple":6127,"Ġ</":6128,"Ġtesting":6129,"ĠEmbed":6130,"INST":6131,"addr":6132,"cached":6133,"ĠReset":6134,"Initialize":6135,"utilities":6136,"Ġ...<":6137,"BaseModel":6138,"timing":6139,"columns":6140,"ĠGenerator":6141,"fire":6142,"servations":6143,"60":6144,">=":6145,"AC":6146,"GPU":6147,"Gather":6148,"Py":6149,"bbox":6150,"dinov":6151,"gold":6152,"Ġta":6153,"Ġfn":6154,"Ġinvalid":6155,"Ġdummy":6156,"Ġ',":6157,"eter":6158,"Ġdecoded":6159,"Ġdesired":6160,"ĠFaiss":6161,"ĠFeed":6162,"Ġlora":6163,"Ġshare":6164,"Ġprepare":6165,"momentum":6166,"Ġtokenize":6167,"ĠReg":6168,"Ġkeyword":6169,"ĠInter":6170,"ĠHow":6171,"ypedDict":6172,"generated":6173,"tracing":6174,"Ġpartition":6175,"Ġassume":6176,"Ġsupports":6177,"ABC":6178,"partitioned":6179,"Ġgeo":6180,"Chunk":6181,"needle":6182,"Workspace":6183,"entric":6184,"ĠLightRAG":6185,"LS":6186,"RES":6187,"]*":6188,"hn":6189,"mory":6190,"sort":6191,"è¿":6192,"ression":6193,"chem":6194,"Ġremain":6195,"Ġdefine":6196,"validate":6197,"ollama":6198,"ĠLL":6199,"Ġdedup":6200,"----<":6201,"Convert":6202,"ised":6203,"Ġyaml":6204,"ocentric":6205,"Ġchosen":6206,"logps":6207,"locators":6208,"require":6209,"Ġflags":6210,"Ġconditions":6211,"pipelines":6212,"Ġutilities":6213,"Mock":6214,"person":6215,"ĠIterable":6216,"payload":6217,"RetroPreprocessingConfig":6218,"Ġpossible":6219,"TIMEOUT":6220,"Softmax":6221,"'\\":6222,"?\",":6223,"KL":6224,"cri":6225,"eck":6226,"gan":6227,"hip":6228,"nb":6229,"tre":6230,"second":6231,"Ġtake":6232,"Ġfps":6233,"ari":6234,"Ġmp":6235,"hes":6236,"Ġrecv":6237,"serve":6238,"__.__":6239,"Ġhydra":6240,"Ġexpand":6241,"pression":6242,"terns":6243,"dicts":6244,"ĠMax":6245,"Ġenabled":6246,"ocast":6247,"rowth":6248,"ATT":6249,"ART":6250,"Ġcompletion":6251,"Ġadditional":6252,"ĠState":6253,"vidence":6254,"Ġcannot":6255,"ROOT":6256,"cosine":6257,"Decoder":6258,"âĶĢ":6259,"accumulation":6260,"Ġunittest":6261,"WEIGHTS":6262,"Ġ2048":6263,",),":6264,"CTION":6265,"WS":6266,"dummy":6267,"rb":6268,"same":6269,"Ġdate":6270,"Ġvelocity":6271,"rec":6272,"regex":6273,"Ġsr":6274,"Ġ17":6275,"Ġ19":6276,"vised":6277,"configs":6278,"ases":6279,"Ġseparate":6280,"('-":6281,"ĠEnum":6282,"Ġalgorithm":6283,"Ġgenerating":6284,"commend":6285,"Ġ{},":6286,"Ġupload":6287,"Select":6288,"lining":6289,"Ġ$\\\\":6290,"Ġdownloading":6291,"uggest":6292,"Column":6293,"ĠAdam":6294,"æį®":6295,"æĸĩ":6296,"PASS":6297,"Sample":6298,"aa":6299,"gre":6300,"mis":6301,"è®":6302,"paragraph":6303,"star":6304,"challenge":6305,"Ġiss":6306,"Ġpil":6307,"Ġbanner":6308,"Ġdraw":6309,"ĠASC":6310,"else":6311,"resume":6312,"ĠFused":6313,"Ġcook":6314,"Ġsec":6315,"Ġvllm":6316,"codebook":6317,"ĠInference":6318,"RECT":6319,"mbol":6320,"activations":6321,"Ġcodes":6322,"Ġpartic":6323,"timestep":6324,"Normal":6325,"Ġflax":6326,"Ġinstalled":6327,"ParallelRegion":6328,"Ġpipelines":6329,"ĠLocal":6330,"ĠEncoder":6331,"Ġtaken":6332,"sentences":6333,"stantiate":6334,"ociated":6335,"%(":6336,"Auto":6337,"SY":6338,"WER":6339,"faiss":6340,"jav":6341,"lint":6342,"large":6343,"see":6344,"sequential":6345,"erf":6346,"Ġaz":6347,"Ġph":6348,"Ġstar":6349,"riate":6350,"ĠBlended":6351,"force":6352,"ĠVi":6353,"scr":6354,"ropriate":6355,"Ġwhat":6356,"track":6357,"Selection":6358,"fox":6359,"CHAN":6360,"Ġpaddings":6361,"ĠDefine":6362,"ltk":6363,"variable":6364,"Ġdoesn":6365,"ĠParam":6366,"Ġcreating":6367,"Ġrandn":6368,"ĠASCII":6369,"Char":6370,"GRE":6371,"Vector":6372,"[~":6373,"]),<":6374,"mid":6375,"uan":6376,"uator":6377,"yes":6378,"Ġli":6379,"ĠâĶ":6380,"inuous":6381,"atern":6382,"Ġfid":6383,"Ġsolve":6384,"unfinished":6385,"Ġ-----------------":6386,"ĠTarget":6387,"()])<":6388,"Ġ[{\"":6389,"ĠST":6390,"endof":6391,"Ġstrategy":6392,"Ġart":6393,"ĠOther":6394,"Ġosp":6395,"reduced":6396,"ĠVit":6397,"ĠVocab":6398,"Ġknow":6399,"ĠCourse":6400,"viewer":6401,"Ġ}\"\"\"<":6402,"ĠModelConfig":6403,"Ġtrim":6404,"Ġformatted":6405,"Ġmany":6406,"Runtime":6407,"ĠComput":6408,"Ġspace":6409,"super":6410,"Ġprovides":6411,"ĠDiffusionPipeline":6412,"sigmoid":6413,")])<":6414,".\\":6415,"LINE":6416,"ece":6417,"fut":6418,"fps":6419,"sure":6420,"wik":6421,"}'<":6422,"}_{":6423,"inria":6424,"erial":6425,"Ġpe":6426,"Ġbrightness":6427,"asarray":6428,"stron":6429,"ĠNet":6430,"Ġgre":6431,"Ġxs":6432,"resolve":6433,"waxis":6434,"previous":6435,"comput":6436,"ĠGroup":6437,"Ġtrained":6438,"indexes":6439,"ĠCopied":6440,"newaxis":6441,"ĠĠĠĠĠĠĠĠĠĠĠĠĠĠĠĠĠĠĠĠĠĠĠĠĠĠĠĠĠĠĠĠĠĠĠĠ":6442,"steri":6443,"Ġqk":6444,"StableDiffusion":6445,"Ġaddress":6446,"levels":6447,"flash":6448,"ä¸Ń":6449,"others":6450,"Ġá´Ģ":6451,"Ġ-->":6452,"flattened":6453,"segmentation":6454,"Ġretriever":6455,"Colors":6456,"crete":6457,"fewshot":6458,"ĠUpload":6459,"TrainedTokenizer":6460,"threads":6461,"Ġparticular":6462,"endoftext":6463,":{":6464,"Asset":6465,"MM":6466,"Video":6467,"Ww":6468,"Wrapper":6469,"cot":6470,"js":6471,"jax":6472,"king":6473,"mix":6474,"ratios":6475,"til":6476,"ving":6477,"İ¨":6478,"erun":6479,"reens":6480,"demo":6481,"depend":6482,"utes":6483,"Ġfuture":6484,"Ġcnt":6485,"Ġsaturation":6486,"tom":6487,"ranular":6488,"Ġema":6489,"couple":6490,"Ġanalysis":6491,"ĠAI":6492,"ĠABC":6493,"ensors":6494,"Ġ[(":6495,"Ġexpi":6496,"Ġmagnitude":6497,"preview":6498,"001":6499,"pickle":6500,"Ġvoxel":6501,"contexts":6502,"Ġlists":6503,"Ġappropriate":6504,"Ġcontents":6505,"Ġmove":6506,"Required":6507,"ĠKarras":6508,"Ġcomplete":6509,"Ġ{}:":6510,"LED":6511,"RANK":6512,"Ġ60":6513,"Ġinstances":6514,"Ġnormalized":6515,"Ġchanges":6516,"fraction":6517,"retrieved":6518,"PPING":6519,"Scaler":6520,"ranularity":6521,")/":6522,")}\"<":6523,"88":6524,"IF":6525,"Render":6526,"duration":6527,"fe":6528,"suffix":6529,"rete":6530,"release":6531,"raft":6532,"Ġrecompute":6533,"Ġsuffix":6534,"__.":6535,"cogn":6536,"Ġconf":6537,"Ġgot":6538,"Ġ*,<":6539,"pending":6540,"Ġ`(":6541,"untie":6542,"actual":6543,"completions":6544,"Segmentation":6545,"matching":6546,"ĠProgram":6547,"curity":6548,"Checkpoint":6549,"yperParams":6550,"origin":6551,"scheduling":6552,"Ġreasoning":6553,"TEST":6554,"painting":6555,"Ġcompatibility":6556,"cription":6557,"ĠASCIIColors":6558,"coupled":6559,"Cross":6560,"Sup":6561,"Scale":6562,"][-":6563,"elapsed":6564,"gers":6565,"semester":6566,"desc":6567,"Ġ\"$":6568,"Ġ\"\":<":6569,"Ġinfer":6570,"peft":6571,"unding":6572,"Ġelapsed":6573,"__).":6574,"ĠTra":6575,"sharding":6576,"Ġhue":6577,"Ġ201":6578,"Ġdivide":6579,"keywords":6580,"ĠFin":6581,"Ġcoordin":6582,"Ġselection":6583,"outError":6584,"checked":6585,"ĠBasic":6586,"aive":6587,"pective":6588,"á´į":6589,"Ġ42":6590,"RET":6591,"ious":6592,"Ġperforms":6593,"letter":6594,"Ġcolors":6595,"Ġacc":6596,"Ġtopk":6597,"Ġurlparse":6598,"ANS":6599,"ä¸º":6600,"similarity":6601,"Ġdetail":6602,"ControlNet":6603,"Ġretrieved":6604,"Loading":6605,"(\"**/*\",":6606,")\",":6607,"*]":6608,".'<":6609,"MUL":6610,"Metadata":6611,"Named":6612,"SM":6613,"}\".":6614,"è¡":6615,"seconds":6616,"research":6617,"geocentric":6618,"Ġnumel":6619,"Ġsmooth":6620,"uncond":6621,"service":6622,"touch":6623,"mpy":6624,"const":6625,"Ġlock":6626,"Ġhorizon":6627,"Ġpretrain":6628,"Ġjit":6629,"stribute":6630,"artifact":6631,"Ġchild":6632,"DataFrame":6633,"accelerator":6634,"ĠĠĠĠĠĠĠĠĠĠĠĠĠĠĠĠĠĠĠĠĠĠĠĠĠĠĠĠĠĠĠĠĠĠĠĠĠ":6635,"Ġqs":6636,"Ġpylint":6637,"Ġupdated":6638,"Ġprocessing":6639,"Ġpositional":6640,"Ġiterations":6641,"white":6642,"MAPPING":6643,"ĠWeb":6644,"ĠTypeVar":6645,"Ġcolumns":6646,"Ġsentences":6647,"realpath":6648,"WARNING":6649,"Ġincluding":6650,"QueryParam":6651,"Ġgaussians":6652,"Connection":6653,"ĠOtherwise":6654,"2024":6655,"Api":6656,"Down":6657,"GLU":6658,"Mode":6659,"bold":6660,"dt":6661,"fit":6662,"ners":6663,"tan":6664,"çº":6665,"Ġ])<":6666,"inplace":6667,"itor":6668,"Ġflat":6669,"Ġrelated":6670,"Ġcy":6671,"Ġnamed":6672,"datapath":6673,"()),":6674,"Ġ''<":6675,"short":6676,"Ġdid":6677,"residual":6678,"Ġlon":6679,"ased":6680,"Ġunwrapped":6681,"address":6682,"agram":6683,"viewport":6684,"hood":6685,"Ġsubmit":6686,"Ġmultimodal":6687,"Ġbackend":6688,"replay":6689,"Ġtransfer":6690,"Ġbuilt":6691,"aviate":6692,"ynchronous":6693,"chromium":6694,"ipes":6695,")\\":6696,"404":6697,"66":6698,"BED":6699,"Cre":6700,"EP":6701,"MENT":6702,"Save":6703,"Ve":6704,"card":6705,"smooth":6706,"ves":6707,"Ð°":6708,"å°":6709,"Ġcallable":6710,"orth":6711,"Ġsig":6712,"throw":6713,"icode":6714,"Ġdp":6715,"Ġden":6716,"Ġanthropic":6717,"Ġ'%":6718,"textarea":6719,"keyA":6720,"Ġresp":6721,"Ġproj":6722,"Ġprocesses":6723,"Ġintent":6724,"ĠGo":6725,"phone":6726,"ĠSection":6727,"mageProcessor":6728,"Ġmost":6729,"videos":6730,"EMM":6731,"completed":6732,"LOW":6733,"Ġlats":6734,"Ġcommunication":6735,"facebook":6736,"Ġentire":6737,"Ġneeds":6738,"cumsum":6739,"Ġimplements":6740,"Runner":6741,"Ġcases":6742,"Ġverify":6743,"ServerConfig":6744,"Multi":6745,"TYPES":6746,"ĠNormalize":6747,"sterior":6748,")')<":6749,"Av":6750,"End":6751,"ILI":6752,"best":6753,"eef":6754,"ham":6755,"deepspeed":6756,"aries":6757,"Ġretain":6758,"Ġreverse":6759,"any":6760,"Ġplease":6761,"umulative":6762,"admin":6763,"ascript":6764,"Ġpair":6765,"concept":6766,"ĠTrans":6767,"ĠTRA":6768,"Ġduration":6769,"(\"-":6770,"Ġexperiment":6771,"corners":6772,"Ġrmat":6773,"ĠExec":6774,"retry":6775,"Ġ...')<":6776,"ITE":6777,"EMBED":6778,"qdrant":6779,"ĠĠĠĠĠĠĠĠĠĠĠĠĠĠĠĠĠĠĠĠĠĠĠĠĠĠĠĠĠĠ":6780,"Ġworking":6781,"Ġassociated":6782,"motions":6783,"NAMES":6784,"packages":6785,"effect":6786,"DATASET":6787,"Identity":6788,"åıĸ":6789,"ĠRemove":6790,"BatchNorm":6791,"Create":6792,"]])<":6793,"jor":6794,"public":6795,"urable":6796,"æ¡":6797,"algo":6798,"Ġfalse":6799,"Ġsp":6800,"()</":6801,"sha":6802,"pyplot":6803,"Ġdilation":6804,"resources":6805,"Ġdetermin":6806,"Ġthree":6807,"ĠMe":6808,"ĠMemory":6809,"Ġbehavi":6810,"ĠGELU":6811,"ORY":6812,"ryan":6813,"logy":6814,"contrib":6815,"ircle":6816,"devices":6817,"accept":6818,"REG":6819,"Ġsubmodules":6820,"fov":6821,"Ġtempfile":6822,"ĠTransformerBlock":6823,"display":6824,"Ġ10000":6825,"10000":6826,"Ġimplemented":6827,"quantize":6828,"variables":6829,"Ġmanage":6830,"popup":6831,"ĠOnly":6832,"NORE":6833,"åº¦":6834,"crops":6835,"ĠFeedForward":6836,"Ġdeduped":6837,"ĠTRAIN":6838,".'''<":6839,"BE":6840,"GELU":6841,"SO":6842,"Speed":6843,"Write":6844,"big":6845,"bryan":6846,"ders":6847,"granularity":6848,"hold":6849,"ti":6850,"Ġ~":6851,"Ġ._":6852,"Ġtait":6853,"Ġ\"@":6854,"Ġmul":6855,"Ġremote":6856,"Ġincre":6857,"lack":6858,"igr":6859,"Ġ#################":6860,"Ġwould":6861,"olutions":6862,"Ġhq":6863,"ressed":6864,"ĠIF":6865,"Ġselector":6866,"bour":6867,"mount":6868,"Inversion":6869,"minator":6870,"Returns":6871,"STEM":6872,"encoderKL":6873,"```<":6874,"Ġfails":6875,"ighbour":6876,"ä¸į":6877,"ĠQuatern":6878,"ĠExamples":6879,"oolean":6880,"ĠSoft":6881,"Ġexceed":6882,"affine":6883,"Builder":6884,"*.":6885,">'''<":6886,"Dec":6887,"Func":6888,"Gaussian":6889,"Img":6890,"cp":6891,"drant":6892,"rins":6893,"sr":6894,"such":6895,"warn":6896,"É¢":6897,"ÊĻ":6898,"æŃ":6899,"onnx":6900,"chdir":6901,"Ġ\"#":6902,"didates":6903,"Ġpip":6904,"Ġpdb":6905,"Ġbf":6906,"Ġwere":6907,"Ġforms":6908,"Ġpay":6909,"construct":6910,"cover":6911,"epSpeed":6912,"using":6913,"ĠFore":6914,"classifier":6915,"Ġresources":6916,"\")[-":6917,"Ġbuffers":6918,"DEBUG":6919,"utoff":6920,"intermediate":6921,"matches":6922,"Ġreader":6923,"Ġvocabulary":6924,"({'":6925,"package":6926,"media":6927,"Ġextended":6928,"Ġsignature":6929,"Executor":6930,"support":6931,"ĠOllamaServerConfig":6932,"rimin":6933,"Reader":6934,"ercial":6935,"Ġtags":6936,"chemy":6937,"76":6938,"Click":6939,"Fla":6940,"MESS":6941,"Playbook":6942,"elastic":6943,"xl":6944,"}'.":6945,"æĹ":6946,"eric":6947,"alchemy":6948,"experiment":6949,"Ġthemes":6950,"Ġest":6951,"constructor":6952,"pooled":6953,"ĠTransform":6954,"ĠSingle":6955,"projector":6956,"ĠFind":6957,"wave":6958,"precomp":6959,"Ġvae":6960,"teacher":6961,"Ġsocket":6962,"############":6963,"Ġsuperclass":6964,"Ġobservation":6965,"Ġgeneral":6966,"Ġgeneric":6967,"');<":6968,"DOC":6969,"environment":6970,"orama":6971,"ĠĠĠĠĠĠĠĠĠĠĠĠĠĠĠĠĠĠĠĠĠĠĠĠĠĠĠĠĠĠĠĠĠĠĠĠĠĠĠĠĠĠĠĠĠ":6972,"efficient":6973,"Ġgelu":6974,"Masked":6975,"Ġdistances":6976,"Ġlocation":6977,"elems":6978,"controlnet":6979,"Validation":6980,"TESTS":6981,"ĠParallel":6982,"Ġcontrolnet":6983,"scratch":6984,"(?":6985,")*":6986,"/<":6987,"86":6988,":])<":6989,">\",":6990,"Be":6991,"EVA":6992,"Llama":6993,"Language":6994,"OC":6995,"]}<":6996,"ech":6997,"sil":6998,"xity":6999,"zone":7000,"ä¿":7001,"éĩ":7002,"Ġtxt":7003,"dep":7004,"des":7005,"utation":7006,"Ġmight":7007,"Ġmeta":7008,"Ġclear":7009,"Ġinside":7010,"Ġsli":7011,"Ġslice":7012,"Ġsafe":7013,"Ġsandbox":7014,"urses":7015,"iding":7016,"asy":7017,"Ġ(*,":7018,"Ġtopo":7019,"Ġeod":7020,"__}":7021,"Ġ14":7022,"Ġgym":7023,"attempt":7024,"pper":7025,"Ġdivisible":7026,"ĠPipeline":7027,"ĠMan":7028,"='',":7029,"EST":7030,"viewless":7031,"splitext":7032,"fixed":7033,"Ġrequested":7034,"embedder":7035,"Ġspecify":7036,"))]<":7037,"Pass":7038,"Ġinterface":7039,"Ġfilters":7040,"Ġ})<":7041,"Ġmatching":7042,"Ġflask":7043,"ckpts":7044,"Ġcallback":7045,"plexity":7046,"ĠGPUs":7047,"properties":7048,"freqs":7049,"chedulers":7050,"Registry":7051,"Ġtruncated":7052,"ĠDistributedDataParallel":7053,"Submodules":7054,"=\"\")<":7055,"Ġmodify":7056,"futures":7057,"ĠNetwork":7058,"EMBEDDING":7059,"(\"\"":7060,"33":7061,"Abstract":7062,"Des":7063,"Ld":7064,"MAN":7065,"Max":7066,"med":7067,"margin":7068,"nq":7069,"ppo":7070,"ç®":7071,"Ġ^":7072,"Ġlib":7073,"atrix":7074,"Ġtanh":7075,"alyz":7076,"hest":7077,"anced":7078,"Ġpublic":7079,"ulated":7080,"Ġconcurrent":7081,"Ġ'/":7082,"Ġlook":7083,"Ġ\"\"\"()":7084,"Ġ[],<":7085,"Ġstk":7086,"Ġ24":7087,"proc":7088,"ĠForm":7089,"('_":7090,"ublish":7091,"Ġdims":7092,"joco":7093,"RESET":7094,"ĠSelf":7095,"Ġcare":7096,"extraction":7097,"commercial":7098,"Ġtransformation":7099,"Ġupper":7100,"Ġerrors":7101,"ichoice":7102,"Ġextracted":7103,"Ġdisabled":7104,"disabled":7105,"ĠBaseImage":7106,"Ġformatting":7107,"ParallelLinear":7108,"ĠConfiguration":7109,"supported":7110,"movement":7111,"rimary":7112,"éĢģ":7113,"BytesIO":7114,"Ġfastapi":7115,"Ġdependencies":7116,"Ġtraceback":7117,"Choice":7118,"Pos":7119,"Retrie":7120,"System":7121,"SDF":7122,"Task":7123,"cwd":7124,"euclidean":7125,"delay":7126,"learning":7127,"uting":7128,"chosen":7129,"Ġfo":7130,"Ġshe":7131,"digits":7132,"Ġwin":7133,"Ġ-*":7134,"==<":7135,"ĠCO":7136,"ĠSk":7137,"Ġstable":7138,"Ġstill":7139,"tokenized":7140,"Ġonce":7141,"faces":7142,"Ġresponses":7143,"Ġaltern":7144,"([[":7145,"Ġpercent":7146,"Ġpyrogram":7147,"Ġtrajectories":7148,"Ġiterator":7149,"disk":7150,"ĠJson":7151,"CKER":7152,"cases":7153,"ĠZh":7154,"\"[!]":7155,"Ġtkinter":7156,"æľī":7157,"Discrete":7158,"ĠControlNet":7159,"ĠString":7160,"Ġcharacters":7161,"matically":7162,"navigation":7163,"ĠGLOBALS":7164,"firefox":7165,"stronomic":7166,"ANSWER":7167,"ĠQuaternions":7168,"/\",":7169,"Box":7170,"EVAL":7171,"Fin":7172,"Graph":7173,"QL":7174,"`].":7175,"hard":7176,"mmap":7177,"ĴĮ":7178,"separator":7179,"exe":7180,"advantages":7181,"extModel":7182,"Ġder":7183,"Ġanalyze":7184,"Ġcontact":7185,"verbose":7186,"Ġresume":7187,"rong":7188,"('<":7189,"ĠEns":7190,"ĠVideo":7191,"scroll":7192,"mlu":7193,"Ġpositive":7194,"retries":7195,"Ġgrouped":7196,"Ġ...'.":7197,"Extra":7198,"Expected":7199,"downsample":7200,"Ġtracker":7201,"Ġactive":7202,"ategies":7203,"Ġcurrently":7204,"ĉĉĉ":7205,"replica":7206,"CTED":7207,"clicked":7208,"executable":7209,"domains":7210,"Ġepsilon":7211,"cameras":7212,"Ġallows":7213,"ĠPreTrainedModel":7214,"Ġreduction":7215,"Ġoperations":7216,"Ġindic":7217,"Ġperformance":7218,"Ġsqlalchemy":7219,"------<":7220,"Scatter":7221,"çŃĶ":7222,"ĠSoftware":7223,"riminator":7224,".\",":7225,"Cannot":7226,"FLAGS":7227,"Missing":7228,"][:":7229,"await":7230,"flo":7231,"font":7232,"follow":7233,"lb":7234,"spl":7235,"vh":7236,"xml":7237,"include":7238,"chars":7239,"loud":7240,"Ġssim":7241,"rome":7242,"pection":7243,"iglu":7244,"ĠName":7245,"##<":7246,"attach":7247,"inese":7248,"ĠPad":7249,").\"\"\"<":7250,"Ġsection":7251,"ialog":7252,"ams":7253,"Ġuniform":7254,"tokenization":7255,"ocator":7256,"rylib":7257,"\")),<":7258,"agic":7259,"agents":7260,"á´ĺ":7261,"access":7262,"ASK":7263,"patterns":7264,"Style":7265,"Ġcollection":7266,"Ġstarting":7267,"Ġzarr":7268,"interpolation":7269,"LOCAL":7270,"factors":7271,"insky":7272,"Ġfinetune":7273,"Ġentity":7274,"Ġpatches":7275,"Ġabstractmethod":7276,"afetensors":7277,"Ġlink":7278,"Ġpackaging":7279,"accard":7280,"Ġaux":7281,"Checker":7282,"Ġfreeze":7283,"CLASS":7284,"ShardedTensor":7285,"ShardedStrategy":7286,"Ġ=============================================<":7287,"Êľá´ĩ":7288,"writing":7289,"khrylib":7290,"Ġ----------<":7291,"WordPiece":7292,"itespace":7293,"ILITY":7294,"splatting":7295,".\"":7296,"Cli":7297,"DModel":7298,"Ent":7299,"GEN":7300,"HF":7301,"NODE":7302,"slug":7303,"tlen":7304,"vllm":7305,"Ġ,":7306,"Ġcell":7307,"records":7308,"imal":7309,"Ġfact":7310,"thought":7311,"Ġwd":7312,"ication":7313,"Ġ'',":7314,"Ġdirection":7315,"ĠPeft":7316,"Ġ<<":7317,"ĠOmegaConf":7318,"loading":7319,"andinsky":7320,"('>":7321,"moved":7322,"DIMScheduler":7323,"trunc":7324,"Ġruntime":7325,"Ġaccum":7326,"goal":7327,"google":7328,"STATE":7329,"PImageProcessor":7330,"override":7331,"linspace":7332,"Ġintern":7333,"Ġinterval":7334,"beg":7335,"Ġdisk":7336,"Ġregistry":7337,"paddings":7338,"Ġarrays":7339,"Ġproduce":7340,"Ġextension":7341,"ĠTraining":7342,"snapshot":7343,"Ġperson":7344,"2023":7345,"Ġapex":7346,"Status":7347,"requirements":7348,"Normalizer":7349,"tleneck":7350,"!<":7351,"(\\":7352,">[":7353,">')<":7354,"Call":7355,"CHO":7356,"DD":7357,"First":7358,"MIT":7359,"WH":7360,"_%":7361,"blank":7362,"cancel":7363,"credentials":7364,"fuser":7365,"feed":7366,"schema":7367,"Ġhtml":7368,"orary":7369,"atan":7370,"Ġfmt":7371,"Ġregex":7372,"Ġsan":7373,"lazy":7374,"setLevel":7375,"upported":7376,"ĠCall":7377,"ĠLOG":7378,"Ġdiag":7379,"ĠPrint":7380,"ĠFrozen":7381,"istrable":7382,"numbers":7383,"lying":7384,"Ġshared":7385,"ĠUsage":7386,"Ġknowledge":7387,"Configuration":7388,"Ġqa":7389,"Ġcollate":7390,"Ġnoins":7391,"multimodal":7392,"Log":7393,"modes":7394,"Attn":7395,"AttnMaskType":7396,"expr":7397,"0447":7398,"EXAMPLE":7399,"HeadAttention":7400,"Point":7401,"diffusers":7402,"assign":7403,"duplicate":7404,"ĠDDPMScheduler":7405,"%%%%%%%%":7406,"Ġdescrib":7407,"ĠGlobals":7408,"Ġ([`":7409,"ĠBlendedMegatron":7410,"MULTI":7411,"Ġnoinspection":7412,")[...,":7413,".,<":7414,".'.":7415,"230":7416,":].":7417,"COR":7418,"Drop":7419,"Edit":7420,"GO":7421,"On":7422,"gus":7423,"gamma":7424,"ipping":7425,"mine":7426,"}}":7427,"åĴĮ":7428,"pairs":7429,"inem":7430,"imer":7431,"raps":7432,"gemm":7433,"Ġfont":7434,"Ġ\"\".":7435,"Ġmid":7436,"Ġcp":7437,"Ġcumulative":7438,"explanation":7439,"Ġpur":7440,"Ġpush":7441,"Ġbits":7442,"pts":7443,"identity":7444,"Ġwrapped":7445,"Ġelem":7446,"formers":7447,"ĠPool":7448,"ĠPRO":7449,"Ġseg":7450,"Ġpropert":7451,"Ġyet":7452,"Ġ400":7453,"pages":7454,"cols":7455,"Ġmaybe":7456,"Ġclassification":7457,"Selector":7458,"defaults":7459,"Ġintersection":7460,"ĠImageNet":7461,"ĠQuestion":7462,"stacks":7463,"Ġnonlocal":7464,"MAP":7465,"Ġsimilar":7466,"Unexpected":7467,"ĠStepError":7468,"ĠFileNotFoundError":7469,"bosity":7470,"ĠBytesIO":7471,"uided":7472,"ĠFace":7473,"ĠBeaut":7474,"petition":7475,"Ġoccur":7476,"İ¨éĢģ":7477,"MESSAGE":7478,"!\"<":7479,"./":7480,"GE":7481,"KV":7482,"SP":7483,"Uns":7484,"catch":7485,"category":7486,"safe":7487,"two":7488,"watch":7489,"æĿ":7490,"Ġ]":7491,"incr":7492,"rosa":7493,"Ġ\"../":7494,"Ġnltk":7495,"Ġinplace":7496,"Ġssl":7497,"metry":7498,"Ġdw":7499,"Ġanother":7500,"esis":7501,"Ġgra":7502,"ellow":7503,"ends":7504,"Ġresolve":7505,"ĠBERT":7506,"INPUT":7507,"scape":7508,"Ġtensorized":7509,"Ġapprox":7510,"steresis":7511,"ARGET":7512,"AGER":7513,"Ġclassifier":7514,"Ġlearn":7515,"vantage":7516,"Attribute":7517,"PreTrainedModel":7518,"quantization":7519,"connected":7520,"ÉªÉ´":7521,"findall":7522,"ÊĢá´ĩ":7523,"TRACKER":7524,"æĺŁ":7525,"++++++++":7526,"cursive":7527,"Ġagainst":7528,"MANAGER":7529,"WHITE":7530,"inemat":7531,"Async":7532,"Could":7533,"Date":7534,"HyperParams":7535,"Lay":7536,"Page":7537,"hw":7538,"hers":7539,"ipped":7540,"nth":7541,"turbo":7542,"yellow":7543,"orge":7544,"recall":7545,"det":7546,"deep":7547,"lookup":7548,"Ġrest":7549,"Ġnx":7550,"Ġins":7551,"Ġswe":7552,"Ġpin":7553,"Ġomega":7554,"concat":7555,"Ġdefined":7556,"Ġconstructor":7557,"Ġhist":7558,"Ġnote":7559,"istep":7560,"period":7561,"','":7562,"plug":7563,"Ġprevent":7564,"ocap":7565,"Ġrobomimic":7566,"\"))":7567,"logprobs":7568,"ĠRead":7569,"Ġ48":7570,"ĠArgumentParser":7571,"splits":7572,"Store":7573,"readlines":7574,"Ġcolorama":7575,"spaces":7576,"Session":7577,"ĠStable":7578,"Ġmultip":7579,"PECTED":7580,"MODELS":7581,"á´ıá´ľ":7582,"Ġrefresh":7583,"elements":7584,"Ġterm":7585,"Ġindividual":7586,"Ġsubjects":7587,"ãĢĤ<":7588,"agicMock":7589,"044715":7590,":',":7591,"Action":7592,"APP":7593,"Cour":7594,"GRO":7595,"Jo":7596,"Of":7597,"PER":7598,"URN":7599,"gym":7600,"ier":7601,"nested":7602,"ux":7603,"oring":7604,"stub":7605,"stitial":7606,"stderr":7607,"Ġsa":7608,"Ġsquare":7609,"defics":7610,"Ġbranch":7611,"Ġwidget":7612,"Ġ{:":7613,"Ġhapp":7614,"Ġhyper":7615,"Ġrule":7616,"perform":7617,"ĠMC":7618,"ĠMIT":7619,"ĠEX":7620,"compat":7621,"ĠGEMM":7622,"Ġattempt":7623,"Ġlogvar":7624,"Inference":7625,"Ġneighbors":7626,"Ġaccording":7627,"translation":7628,"links":7629,"LOAD":7630,"Ġactivations":7631,"Ġbackbone":7632,"scalar":7633,"sdp":7634,"ĠAutoencoderKL":7635,"Ġcontainer":7636,"POINT":7637,"Generate":7638,"finetune":7639,"ABILITY":7640,"224":7641,"RequestException":7642,"autores":7643,"ĠTrainer":7644,"freeze":7645,"container":7646,"ĠCheckpointing":7647,"åĩº":7648,"GREEN":7649,"autoresume":7650,"BACK":7651,"Dir":7652,"GR":7653,"HER":7654,"Label":7655,"Memory":7656,"Target":7657,"]\")<":7658,"bad":7659,"bil":7660,"cpp":7661,"django":7662,"frozen":7663,"udo":7664,"{<":7665,"çĲ":7666,"requ":7667,"rock":7668,"Ġcard":7669,"Ġnone":7670,"Ġsyn":7671,"Ġblend":7672,"Ġ(-":7673,"ully":7674,"Ġdue":7675,"(\"_":7676,"Ġhad":7677,"allclose":7678,"usoid":7679,"Ġdecision":7680,"Ġcov":7681,"osp":7682,"stributions":7683,"Ġvq":7684,"Ġknn":7685,"ĠThese":7686,"okens":7687,"unknown":7688,"Ġvalidat":7689,"Ġcontiguous":7690,"ualInversion":7691,"127":7692,"Ġmomentum":7693,"iterations":7694,"Ġtech":7695,"Ġhel":7696,"docstring":7697,"Ġchecks":7698,"ifiers":7699,"Ġlocals":7700,"Ġ123":7701,"Ġflash":7702,"Ġcloud":7703,"Ġexperts":7704,"optimizers":7705,"ĠAttributes":7706,"Ġoptimization":7707,"Ġspaces":7708,"secret":7709,"Ġconsist":7710,"æķ°æį®":7711,"Ġrequirements":7712,"Ġdenominator":7713,"åĽŀ":7714,"ĠCLIPTextModel":7715,"ualInversionLoaderMixin":7716,"$$":7717,")`":7718,")],":7719,"255":7720,"AUT":7721,"BUT":7722,"Per":7723,"SHO":7724,"Table":7725,"beat":7726,"fpath":7727,"guidance":7728,"null":7729,"wt":7730,"zh":7731,"åĨ":7732,"Ġdat":7733,"Ġ],":7734,"rel":7735,"Ġaw":7736,"Ġns":7737,"extension":7738,"Ġ18":7739,"ĠCa":7740,"ĠFirst":7741,"\"]),<":7742,"joinpath":7743,"ATCH":7744,"Ġcapture":7745,"STER":7746,"subprocess":7747,"transition":7748,"transfer":7749,"lugin":7750,"See":7751,"Ġscales":7752,"Ġgradio":7753,"Ġstatistics":7754,"quality":7755,"Unknown":7756,"edges":7757,"Format":7758,"Ġconditioning":7759,"gradio":7760,"ĠAnswer":7761,"calculator":7762,"ĠIMAGE":7763,"implement":7764,"Ġbehavior":7765,")$":7766,")\":":7767,"-\\":7768,"At":7769,"IZ":7770,"NEL":7771,"Queue":7772,"Row":7773,"TypedDict":7774,"blend":7775,"cer":7776,"guess":7777,"ned":7778,"vic":7779,"wen":7780,"wallet":7781,"¦ģ":7782,"recommend":7783,"roles":7784,"Ġmot":7785,"Ġpot":7786,"Ġprimary":7787,"metas":7788,"unbind":7789,"extended":7790,"iling":7791,"illa":7792,"ĠAuth":7793,"Ġgamma":7794,"ĠCan":7795,"ĠLi":7796,"inition":7797,"double":7798,"ĠRET":7799,"Ġcoords":7800,"Ġresource":7801,"008":7802,"ĠMAX":7803,"ĠMagicMock":7804,"pointer":7805,"licated":7806,"ĠWindow":7807,"comment":7808,"tech":7809,"capacity":7810,"ĠInteger":7811,"npz":7812,"Ġindexes":7813,"oaders":7814,"Ġcaptions":7815,"intersection":7816,"Program":7817,"gments":7818,"Ġpick":7819,"probas":7820,"TextDataset":7821,"Ġplan":7822,"LDER":7823,"Ġannotations":7824,"Ġlangchain":7825,"è§Ĵ":7826,"slices":7827,"ĠEnsure":7828,"Unsupported":7829,">```<":7830,"Crop":7831,"Episode":7832,"Handle":7833,"dst":7834,"evidence":7835,"nv":7836,"td":7837,"tar":7838,"åľ":7839,"è¾":7840,"pab":7841,"decoded":7842,"Ġmix":7843,"Ġmmap":7844,"Ġcat":7845,"Ġcert":7846,"ssl":7847,"Ġpeft":7848,"Ġbasic":7849,"lies":7850,"Ġ()":7851,"ĠAs":7852,"ĠCUDA":7853,"docker":7854,"ĠICT":7855,"Ġlons":7856,"005":7857,"bleu":7858,"sampled":7859,"iphers":7860,"methods":7861,"until":7862,"Ġindexmap":7863,"***":7864,"Ġscan":7865,"begin":7866,"arger":7867,"descriptions":7868,"Ġfinally":7869,"itect":7870,"ï¼ļ":7871,"ĠShardedObject":7872,"Post":7873,"Ġstreaming":7874,"autore":7875,"roller":7876,"documents":7877,"ValueWith":7878,"192":7879,"Ġabsolute":7880,"humanml":7881,"ĠTimeoutError":7882,"âķĲâķĲâķĲâķĲ":7883,"balancing":7884,"spherical":7885,"Ġfunctionality":7886,"ĠLLa":7887,"holders":7888,"ç®Ĺ":7889,"Ġoccurred":7890,"ValueWithRank":7891,"CESS":7892,"DM":7893,"GHT":7894,"ached":7895,"dantic":7896,"han":7897,"hist":7898,"ied":7899,"watermark":7900,"å¹":7901,"çī":7902,"Ġast":7903,"Ġfan":7904,"Ġfhs":7905,"Ġrecords":7906,"digest":7907,"series":7908,"strategies":7909,"gsm":7910,"getcwd":7911,"(\",":7912,"quiz":7913,"ely":7914,"Ġexport":7915,"keyword":7916,"ques":7917,"Ġdelay":7918,"way":7919,"Ġsep":7920,"pies":7921,"licies":7922,"Ġconfigs":7923,"ĠVision":7924,"scene":7925,"Ġattrs":7926,"clus":7927,"DEF":7928,"sumed":7929,"Ġaccelerator":7930,"notdiamond":7931,"aky":7932,"ĠStore":7933,"Projection":7934,"claude":7935,"Ġtimm":7936,"Ġadvantages":7937,"tables":7938,"Listener":7939,"Enter":7940,"Array":7941,"Ġconvolution":7942,"Ġprefixes":7943,"á´ĩÊĢ":7944,"ðĿĳ":7945,"ðĿļ":7946,"Ġepochs":7947,"Decode":7948,"gressive":7949,"TransformerBlock":7950,"Namespace":7951,"parameterized":7952,"åĪĨ":7953,"todos":7954,"æŀľ":7955,"treetune":7956,"SYSTEM":7957,"javascript":7958,"CharField":7959,"facebookresearch":7960,"GENER":7961,"usoidal":7962,"/\")<":7963,"Det":7964,"PC":7965,"PH":7966,"Score":7967,"Safety":7968,"Top":7969,"Version":7970,"ail":7971,"draw":7972,"fmt":7973,"mantic":7974,"mpeg":7975,"square":7976,"¡ç®Ĺ":7977,"è¦ģ":7978,"ini":7979,"erialize":7980,"deepcopy":7981,"decorator":7982,"Ġauthor":7983,"Ġamount":7984,"chuan":7985,"Ġffn":7986,"Ġmargin":7987,"Ġnb":7988,"Ġskeleton":7989,"analyze":7990,"Ġbal":7991,"uming":7992,"unroute":7993,"setdefault":7994,"power":7995,"ĠAct":7996,"Ġgbuf":7997,"Ġhuman":7998,"ĠSolver":7999,"ĠSkeleton":8000,"ĠPipes":8001,"\"]]<":8002,"energ":8003,"Ġunwrap":8004,"Ġpreds":8005,"Ġpretraining":8006,"ĠEach":8007,"cud":8008,"Ġtensorflow":8009,"\")))<":8010,"Ġwhite":8011,"Ġwhitespace":8012,"phore":8013,"ĠInvalid":8014,"Ġgenerations":8015,"ModuleSpec":8016,"Ġperiod":8017,"Ġqvel":8018,"Ġmodified":8019,"ĠExit":8020,"START":8021,"subset":8022,"translator":8023,"note":8024,"interface":8025,"Ġface":8026,"cyan":8027,"Directory":8028,"Ġlater":8029,"Ġscaler":8030,"}.\"<":8031,"Ġtrust":8032,"ĠSetup":8033,"autocast":8034,"ĠTypeError":8035,"Ġautomatically":8036,"Completion":8037,"Ġconsider":8038,"icks":8039,"Ġ\"[!]":8040,"pusht":8041,"Web":8042,"ighbours":8043,"rinsics":8044,"bilinear":8045,"SafetyChecker":8046,")}<":8047,"44":8048,"85":8049,"Browser":8050,"OF":8051,"Total":8052,"Using":8053,"]\"":8054,"ccl":8055,"iou":8056,"nll":8057,"vas":8058,"wner":8059,"xlabel":8060,"ying":8061,"zA":8062,"{{":8063,"çĽ":8064,"rope":8065,"Ġflip":8066,"Ġfeed":8067,"Ġmodal":8068,"Ġreprod":8069,"Ġcipher":8070,"Ġnd":8071,"lace":8072,"fromarray":8073,"__))<":8074,"__)),":8075,"ĠTeradata":8076,"Ġgive":8077,"maz":8078,"ĠLlava":8079,"Ġhop":8080,"ĠSpec":8081,"aba":8082,"processes":8083,"initions":8084,"Ġmaint":8085,"Ġdeterm":8086,"ĠFI":8087,"ĠFrom":8088,"Ġlate":8089,"tak":8090,"ĠBack":8091,"ĠWrite":8092,"ĠWord":8093,"compare":8094,"posit":8095,"ivity":8096,"accs":8097,"ĠInitial":8098,"READ":8099,"lecture":8100,"collect":8101,"DED":8102,"Ġcached":8103,"Ġruns":8104,"ĠKe":8105,"submit":8106,"Example":8107,"normalization":8108,"Distributed":8109,"levelname":8110,"dataloaders":8111,"Ġcorrectly":8112,"Ġá´Ħ":8113,"bitmq":8114,"ĠCLIPImageProcessor":8115,"ĠRotary":8116,"Ġscripts":8117,"ĠAnthropic":8118,"Ġintegers":8119,"HEAD":8120,"Ġhandling":8121,"-------<":8122,"mips":8123,"####################################################":8124,"When":8125,"DiscreteScheduler":8126,"Ġinternal":8127,"clusive":8128,"AP":8129,"AZ":8130,"Custom":8131,"Matrix":8132,"Over":8133,"Ut":8134,"Zero":8135,"ever":8136,"einsum":8137,"focus":8138,"growth":8139,"hu":8140,"ience":8141,"ost":8142,"oto":8143,"tuning":8144,"å¾":8145,"passed":8146,"stars":8147,"ged":8148,"ctime":8149,"Ġmd":8150,"heel":8151,"Ġslug":8152,"Ġpsnr":8153,"Ġtheta":8154,"Ġasynchronous":8155,"conn":8156,"confidence":8157,"posed":8158,"quared":8159,"major":8160,"Ġhref":8161,"ĠStop":8162,"ĠFP":8163,"ĠRE":8164,"ĠOver":8165,"ĠUSE":8166,"Ġimpro":8167,"SES":8168,"ĠĠĠĠĠĠĠĠĠĠĠĠĠĠĠĠĠĠĠĠĠĠĠĠĠĠĠĠĠĠĠĠĠĠĠĠĠĠĠĠĠĠĠĠĠĠĠĠĠĠ":8169,"attentions":8170,"rots":8171,"Ġleg":8172,"ĠStat":8173,"closed":8174,"Ġbetter":8175,"Ġfilenames":8176,"Ġclientai":8177,"Ġ\"./":8178,"ĠShardedTensorFactory":8179,"expanduser":8180,"built":8181,"building":8182,"triangles":8183,"ĠAssetKey":8184,"Ġdots":8185,"Depend":8186,"sender":8187,"allocate":8188,"reenshot":8189,"Super":8190,"AZURE":8191,"\".<":8192,"'%":8193,"72":8194,"Author":8195,"BOT":8196,"Callback":8197,"Dagster":8198,"DDP":8199,"Equal":8200,"LATION":8201,"Rep":8202,"Schedulers":8203,"^\\":8204,"az":8205,"flip":8206,"ian":8207,"iLU":8208,"ount":8209,"sol":8210,"suggest":8211,"ä¹":8212,"è½":8213,"Ġttk":8214,"Ġ=================":8215,"Ġaio":8216,"Ġmq":8217,"ings":8218,"Ġsort":8219,"Ġspatial":8220,"Ġollama":8221,"ptr":8222,"ptive":8223,"adlr":8224,"lihood":8225,"ising":8226,"Ġconversation":8227,"Ġ'')<":8228,"Ġgc":8229,"kel":8230,"Ġhard":8231,"ĠScorer":8232,"ĠFloat":8233,"ĠFAI":8234,"ĠFilter":8235,"ĠDep":8236,"Ġthose":8237,"psample":8238,"amount":8239,"ĠWeights":8240,"Ġrol":8241,"[::-":8242,"observations":8243,"ĠArgus":8244,"ĠInt":8245,"LID":8246,"Ġcap":8247,"reader":8248,"AGES":8249,"placeholder":8250,"Ġchunked":8251,"Ġapplication":8252,"rollout":8253,"ĠBaseLowdim":8254,"Args":8255,"Ġcalling":8256,"DiffusionSchedulers":8257,"({<":8258,"Ġtransition":8259,"Ġkernels":8260,"invocation":8261,"finetuning":8262,"ĠĠĠĠĠĠĠĠĠĠĠĠĠĠĠĠĠĠĠĠĠĠĠĠĠĠĠĠĠĠĠĠĠĠĠĠĠĠĠĠĠĠĠĠ":8263,"RIBUT":8264,"Change":8265,"Ġspan":8266,"buckets":8267,"SCRI":8268,"Ġrewards":8269,"Compose":8270,"Ġadjusted":8271,"ĠMultiHeadAttention":8272,"('./":8273,"ä»¥":8274,"ynchronize":8275,"Ġprior":8276,"english":8277,"Ġexpire":8278,"ĠGoogle":8279,"deploy":8280,"Layout":8281,"Course":8282,"Ġdetermine":8283,"Case":8284,"GS":8285,"Ops":8286,"SV":8287,"Ser":8288,"cis":8289,"craft":8290,"dw":8291,"fd":8292,"glu":8293,"kp":8294,"tension":8295,"¦Ĥ":8296,"åĮ":8297,"enu":8298,"enes":8299,"rest":8300,"rector":8301,"remat":8302,"chans":8303,"arize":8304,"ceive":8305,"dilation":8306,"Ġpol":8307,"peech":8308,"igger":8309,"Ġbw":8310,"Ġbz":8311,"unity":8312,"Ġws":8313,"asis":8314,"getHeader":8315,"iline":8316,"ĠNO":8317,"()\")<":8318,"ĠAlib":8319,"magen":8320,"ĠLora":8321,"keyB":8322,"Ġsen":8323,"iful":8324,"Ġjseq":8325,"logvar":8326,"Ġ:].":8327,"captions":8328,"ĠInstruction":8329,"Integer":8330,"fference":8331,"hoto":8332,"components":8333,"interpolate":8334,"Ġless":8335,"Ġdocstring":8336,"ĠStart":8337,"ĠStyle":8338,"Ġfail":8339,"Ġinterpolation":8340,"AMA":8341,"beams":8342,"TrainData":8343,"AND":8344,"refer":8345,"executor":8346,"Ġchannelmap":8347,"Ġexecuted":8348,"ĠParameter":8349,"ĠResult":8350,"(\"./":8351,"Settings":8352,"Ġ\\\\<":8353,"Ġletters":8354,"Ġmyjson":8355,"Ġassetdir":8356,"Ġdiscret":8357,"ough":8358,"ĠAssetExecutionContext":8359,"êľ°":8360,"ĠDocstring":8361,"Ġcompatible":8362,"Iteration":8363,"LevelDataset":8364,"ĠRetrieve":8365,"Ġbiencoder":8366,"Created":8367,"hammer":8368,"plugin":8369,"çĲĨ":8370,"ĠRETURN":8371,"pository":8372,"ĠAlibaba":8373,"*\",<":8374,"54":8375,"94":8376,"ARE":8377,"CODE":8378,"EE":8379,"Metric":8380,"Success":8381,"[(":8382,"[/":8383,"ao":8384,"average":8385,"bly":8386,"cert":8387,"dret":8388,"horizon":8389,"judge":8390,"xs":8391,"Ġ))<":8392,"Ġtw":8393,"Ġteradata":8394,"resent":8395,"lev":8396,"itting":8397,"Ġinqui":8398,"entially":8399,"Ġput":8400,"defined":8401,"\"\"\",<":8402,"extensions":8403,"Ġeos":8404,"contact":8405,"ĠAudio":8406,"ĠSE":8407,"ĠSH":8408,"Ġstored":8409,"profile":8410,"}</":8411,"bounding":8412,"Ġimagen":8413,"Ġsources":8414,"Ġbyte":8415,"workflow":8416,"Instance":8417,"omial":8418,"Ġaccept":8419,"responses":8420,"ĠStudent":8421,"fns":8422,"Network":8423,"dispose":8424,"genta":8425,"Ġembedder":8426,"Ġtruth":8427,"gathered":8428,"Ġregular":8429,"Ġencodings":8430,"Ġexplicit":8431,"Ġgeorge":8432,"planes":8433,"timestamps":8434,"COL":8435,"ĠDeepSpeed":8436,"ĠZero":8437,"Ġcomputed":8438,"candidates":8439,"Ġbuilder":8440,"Ġlocator":8441,"ä»¶":8442,"âĢĻ":8443,"Ġè®":8444,"ĠAdjust":8445,"zzz":8446,"Ġexceeded":8447,"BertModel":8448,"ĠTempNamed":8449,"TRAINED":8450,"Ġsnapshot":8451,"Ġpixel":8452,"CHANNEL":8453,"Ġexceeds":8454,"Ġpayload":8455,"Ġalternate":8456,"Only":8457,"autoreset":8458,"energy":8459,"cudnn":8460,"Ġlatest":8461,"takis":8462,"drettakis":8463,"Ġinquiries":8464,"ĠTempNamedDir":8465,"!!":8466,"/%":8467,"Final":8468,"Length":8469,"PY":8470,"Pad":8471,"]**":8472,"]])":8473,"bine":8474,"hop":8475,"mmlu":8476,"oper":8477,"pcfg":8478,"æī":8479,"pag":8480,"Ġauth":8481,"loth":8482,"Ġ\"\",<":8483,"Ġcot":8484,"direction":8485,"entence":8486,"ighest":8487,"Ġbook":8488,"ulder":8489,"Ġpanel":8490,"Ġpairs":8491,"ĠTr":8492,"Ġconcept":8493,"();<":8494,"ĠCla":8495,"shop":8496,"Ġher":8497,"ĠScal":8498,"Ġdecor":8499,"ĠRO":8500,"andbytes":8501,"Ġshs":8502,"fork":8503,"ĠVari":8504,"berta":8505,"ipedia":8506,"ĠComm":8507,"cluster":8508,"Ġalloc":8509,"Ġcomment":8510,"started":8511,"Ġpydantic":8512,"Ġrunner":8513,"trainedConfig":8514,"AGSTER":8515,"Ġqueryset":8516,"transitions":8517,"VICE":8518,"Ġdocs":8519,"ĠShould":8520,"Ġfeats":8521,"disable":8522,"Based":8523,"flower":8524,"ToTextDataset":8525,"Ġckpts":8526,"ĠChannel":8527,"iliary":8528,"ĠThere":8529,"ĠModuleSpec":8530,"Ġmmcv":8531,"Ġadapted":8532,"pander":8533,"Ġincluded":8534,"Docstring":8535,"hybrid":8536,"ĠSdfCli":8537,"ĠPosition":8538,"challenges":8539,"Ġartifact":8540,"rectories":8541,")-":8542,")\",<":8543,"220":8544,"ACT":8545,"BERT":8546,"Limit":8547,"LAY":8548,"Locator":8549,"Pix":8550,"Simple":8551,"SiLU":8552,"dc":8553,"fs":8554,"ming":8555,"ohot":8556,"rstrip":8557,"}]":8558,"instantiate":8559,"onical":8560,"rech":8561,"recon":8562,"gether":8563,"Ġremoved":8564,"Ġincorrect":8565,"Ġsumm":8566,"ane":8567,"Ġpower":8568,"Ġbit":8569,"Ġ(:":8570,"setattr":8571,"oney":8572,"Ġear":8573,"otes":8574,"cov":8575,"abort":8576,"attern":8577,"Ġstoring":8578,"Ġdatapaths":8579,"ĠPatch":8580,"ĠPAI":8581,"Ġdemo":8582,"Ġdebug":8583,"ĠFOR":8584,"ĠFast":8585,"Ġprotocol":8586,"pick":8587,"ĠEpisode":8588,"nnot":8589,"Ġcho":8590,"\")]<":8591,"mom":8592,"cap":8593,"ĠCounter":8594,"ModelParallelRegion":8595,"viewpoint":8596,"attrs":8597,"specific":8598,"multichoice":8599,"okenizer":8600,"Ġones":8601,"emails":8602,"2048":8603,"Ġapplying":8604,"packed":8605,"Analyzer":8606,"ĠLoRA":8607,"istral":8608,"WORD":8609,"tmpdir":8610,"destination":8611,"Ġpacked":8612,"ĠEnv":8613,"ymbo":8614,"Ġconnect":8615,"Soup":8616,"redirects":8617,"Classification":8618,"rypto":8619,"Translator":8620,"discrete":8621,"ãĢģ":8622,"Ġarchitect":8623,"Ġadapter":8624,"detected":8625,"Ġcharacter":8626,"GradScaler":8627,"SdfTranslator":8628,"integer":8629,"Ġ-------------------------------------------------":8630,"wiki":8631,"AssetExecutionContext":8632,"ĠSelfAttention":8633,"ĠBeautiful":8634,"Ġrollout":8635,"SCRIPT":8636,"ĠBeautifulSoup":8637,"300":8638,"41":8639,"73":8640,"91":8641,"Cam":8642,"Owner":8643,"Tree":8644,"XL":8645,"bc":8646,"ciphers":8647,"false":8648,"lur":8649,"mse":8650,"uations":8651,"}%":8652,"ç¬":8653,"ç½":8654,"èµ":8655,"ĠÐ":8656,"pause":8657,"seudo":8658,"imgs":8659,"Ġay":8660,"ardown":8661,"Ġiou":8662,"Ġsol":8663,"lapping":8664,"entication":8665,"think":8666,"thook":8667,"dation":8668,"Ġbx":8669,"Ġwave":8670,"asctime":8671,"Ġ(_":8672,"Ġelastic":8673,"ames":8674,"()\"\"\"<":8675,"ĠAss":8676,"Ġguess":8677,"\"<|":8678,"prop":8679,"pardir":8680,"ĠgetLogger":8681,"ĠRMS":8682,"\"]]":8683,"wav":8684,"Ġcoeff":8685,"Ġcopied":8686,"Ġthink":8687,"Ġresample":8688,"ĠMetric":8689,"ponential":8690,"aming":8691,"INO":8692,"TIC":8693,"ĠVector":8694,"aichuan":8695,"Ġ::":8696,"most":8697,"eature":8698,"latex":8699,"RAPH":8700,"Ġ502":8701,"seqs":8702,"owner":8703,"))[":8704,"ttp":8705,"')[-":8706,"multip":8707,"Ġiterable":8708,"ImageProcessor":8709,"biased":8710,"Ġsklearn":8711,"ĠBaseModel":8712,"assetdir":8713,"ADATA":8714,"Ġsqrt":8715,"truths":8716,"Ġgemini":8717,"signature":8718,"Ġæľ":8719,"needles":8720,"Thread":8721,"Ġinfinite":8722,"äºİ":8723,"Ġsliding":8724,".*?":8725,"Ġ:-)')<":8726,"Ġorigin":8727,"~~~~~~~~":8728,"Document":8729,"INTERPO":8730,"Ġ4096":8731,"Ġdestination":8732,"stock":8733,"ĠMethod":8734,"silu":8735,"ĠZhou":8736,"rechet":8737,"'\")<":8738,"';<":8739,"/\"<":8740,"09":8741,"87":8742,"Back":8743,"Bench":8744,"Plugin":8745,"Router":8746,"Window":8747,"XT":8748,"author":8749,"cnn":8750,"cies":8751,"fw":8752,"fsdp":8753,"mum":8754,"modal":8755,"oke":8756,"promise":8757,"rerun":8758,"å¿":8759,"æ®":8760,"Ġvec":8761,"Ġvery":8762,"separate":8763,"atab":8764,"alg":8765,"chast":8766,"Ġmit":8767,"Ġmuch":8768,"digit":8769,"urations":8770,"Ġpr":8771,"peated":8772,"setHeader":8773,"policies":8774,"ĠNow":8775,"uplicated":8776,"ypes":8777,"()}":8778,"()}\"<":8779,"ĠACT":8780,"ĠCode":8781,"ĠLow":8782,"\",)<":8783,"formatter":8784,"abstract":8785,"ĠFLAGS":8786,"Ġthird":8787,"Ġlarger":8788,"tensorboard":8789,"masking":8790,"__(**":8791,"ĠGroq":8792,"ORT":8793,"ĠThey":8794,"DataSource":8795,"AGEN":8796,"ranges":8797,"STM":8798,"structed":8799,"ĠShortcut":8800,"Ġendpoint":8801,"idator":8802,"ĠTransformerLayer":8803,"replicate":8804,"ToTensor":8805,"cased":8806,"microbatch":8807,"RequestError":8808,"RIGHT":8809,"Ġenvironments":8810,"Ġvirtual":8811,"ĠTextualInversionLoaderMixin":8812,"dots":8813,"Ġdspy":8814,"Ġedges":8815,"OUTPUT":8816,"prime":8817,"Admin":8818,"identifiers":8819,"Update":8820,"arpness":8821,"æłĩ":8822,"computed":8823,"ĠKarrasDiffusionSchedulers":8824,"fea":8825,"çº¬":8826,"Ġdiagonal":8827,"GROUP":8828,"mazon":8829,"Act":8830,"IP":8831,"Io":8832,"JSON":8833,"LER":8834,"Mark":8835,"Map":8836,"Mapping":8837,"Weights":8838,"_\"":8839,"cf":8840,"guided":8841,"hit":8842,"hance":8843,"mixed":8844,"sat":8845,"syn":8846,"wi":8847,"Ġtgt":8848,"rewrite":8849,"ale":8850,"imator":8851,"lfw":8852,"Ġmse":8853,"Ġcategory":8854,"portions":8855,"lab":8856,"uri":8857,"roma":8858,"Ġboolean":8859,"Ġtoo":8860,"____":8861,"Ġassets":8862,"isions":8863,"versed":8864,"verbosity":8865,"Ġglfw":8866,"velo":8867,"Ġhour":8868,"Ġhighest":8869,"about":8870,"rist":8871,"ĠPDF":8872,"Ġthresh":8873,"Ġrescale":8874,"tensorized":8875,"Ġproblems":8876,"ĠEnt":8877,"ĠVer":8878,"screen":8879,"Ġknown":8880,"DIS":8881,"Ġwho":8882,"Ġposterior":8883,"SEC":8884,"ĠĠĠĠĠĠĠĠĠĠĠĠĠĠĠĠĠĠĠĠĠĠĠĠĠĠĠĠĠĠĠĠĠĠĠĠĠĠĠĠĠĠĠĠĠĠĠĠĠ":8885,"ĠHel":8886,"Ġnethook":8887,"Ġjsonify":8888,"Ġdicts":8889,"Ġagents":8890,"ucing":8891,"overflow":8892,"locals":8893,"Ġbaseline":8894,"ĠDataSource":8895,"Provide":8896,"Ġchecking":8897,"Ġwindows":8898,"reedy":8899,"ĠJo":8900,"PreTrainedTokenizer":8901,"BaseOutput":8902,"ðĿĺ":8903,"curacies":8904,"ĠResNet":8905,"Ġfiltered":8906,"Control":8907,"ĠConverts":8908,"pipelining":8909,"IGNORE":8910,"persistent":8911,"Ġtruncation":8912,"prior":8913,"Ġshifted":8914,"Ġregistered":8915,"Vari":8916,"accounts":8917,"ViT":8918,"ĠAdded":8919,"rupt":8920,"ĠWorkflow":8921,"æĪĲ":8922,"ĠClientAI":8923,"Ġ\"**/*\",<":8924,"ĠCLIPTokenizer":8925,"ĠStateDict":8926,"REGI":8927,"feedforward":8928,"2309":8929,"è¾ĵ":8930,"INTERPOLATION":8931,"æ®µ":8932,"chastic":8933,"Hub":8934,"LES":8935,"NS":8936,"Rot":8937,"Scope":8938,"`\")<":8939,"circle":8940,"ee":8941,"fbx":8942,"gu":8943,"hue":8944,"ka":8945,"pids":8946,"ral":8947,"safetensors":8948,"sloth":8949,"æģ":8950,"Ġed":8951,"Ġvertices":8952,"Ġlayout":8953,"pact":8954,"regat":8955,"returns":8956,"choo":8957,"Ġfine":8958,"Ġmixed":8959,"Ġrefer":8960,"Ġremov":8961,"Ġrepetition":8962,"cel":8963,"Ġspect":8964,"advantage":8965,"Ġwatermark":8966,"__,":8967,"intent":8968,"Ġ-------<":8969,"ĠTP":8970,"ĠTop":8971,"(\"[":8972,"esh":8973,"ĠAM":8974,"mass":8975,"maphore":8976,"ĠSend":8977,"Ġxyz":8978,"corr":8979,"ggregat":8980,"Ġprevents":8981,"á´ł":8982,"oregressive":8983,"blocking":8984,"mats":8985,"lerobot":8986,"Ġjsonl":8987,"ATES":8988,"statistics":8989,"Ġcompile":8990,"communication":8991,"Ġsubproblem":8992,"boxes":8993,"ĠStream":8994,"multiline":8995,"Ġscatter":8996,"Ġhttpx":8997,"ategories":8998,"Ġvars":8999,"Ġhelpful":9000,"ressor":9001,"ĠBaseOutput":9002,"SIG":9003,"Ġclosure":9004,"Ġnormalizer":9005,"ĠTestServer":9006,"EXPECTED":9007,"ĠPass":9008,"TOKENIZ":9009,"ĠMegatronDataset":9010,"Shot":9011,"depths":9012,"Ġ'./":9013,"Ġbuckets":9014,"Ġoptimizers":9015,"warnings":9016,"Socket":9017,"dotenv":9018,"secure":9019,"difier":9020,"BOS":9021,"allowed":9022,"Ġbroadcasting":9023,"åĬł":9024,"ĠLinearNormalizer":9025,"Ġhandles":9026,"StreamResponse":9027,"ĠTokenizer":9028,"Embedder":9029,"MOD":9030,"contains":9031,"ĠCLIPVision":9032,"dispatcher":9033,"children":9034,"Ġissues":9035,"CrossAttention":9036,"Available":9037,"Flax":9038,"Ġlibrosa":9039,"inematic":9040,"requency":9041,"çīĩ":9042,"ĠFAISS":9043,"ymbolic":9044,"chooser":9045,"ĠTestServerRequest":9046,"(()":9047,"*:":9048,".{":9049,"59":9050,"63":9051,">\\":9052,">â":9053,"FN":9054,"Ret":9055,"Unet":9056,"Usage":9057,"Vec":9058,"`]):<":9059,"cutoff":9060,"eo":9061,"gbuf":9062,"lons":9063,"ring":9064,"vanced":9065,"Òĵ":9066,"Ġzeros":9067,"įåĬ":9068,"ľâĶĢ":9069,"injected":9070,"atmap":9071,"reach":9072,"alth":9073,"robot":9074,"itles":9075,"Ġrecursive":9076,"imports":9077,"distribution":9078,"expi":9079,"odetic":9080,"Ġwrap":9081,"Ġwrong":9082,"Ġtodo":9083,"Ġtoxic":9084,"Ġtogether":9085,"ulating":9086,"izes":9087,"covery":9088,"ĠNa":9089,"verify":9090,"Ġhy":9091,"Ġhar":9092,"ĠSystem":9093,"Ġstderr":9094,"Ġ23":9095,"Ġdivision":9096,"Ġdeg":9097,"ĠDDIMScheduler":9098,"ĠImplement":9099,"preprocessing":9100,"ggreg":9101,"ambda":9102,"Ġunbiased":9103,"redit":9104,"querySelector":9105,"lowdim":9106,"ĠReference":9107,"Ġlogin":9108,"ModelArguments":9109,"Ġmasking":9110,"Ġalgo":9111,"ĠĠĠĠĠĠĠĠĠĠĠĠĠĠĠĠĠĠĠĠĠĠĠĠĠĠĠĠĠĠĠĠĠ":9112,"libs":9113,"Ġqdrant":9114,"Ġweighted":9115,"readable":9116,"ITEM":9117,"rotmat":9118,"Problem":9119,"Ġ80":9120,"Ġcommit":9121,"aped":9122,"Ġá´ı":9123,"Device":9124,"Ġsimilarity":9125,"Ġmanually":9126,"partitions":9127,"WORLD":9128,"etuningArguments":9129,"Running":9130,"Ġcleaned":9131,"riterion":9132,"Ġradii":9133,"Ġcomputing":9134,"../..":9135,"ĠPost":9136,"ĠReplicate":9137,"ĠRepresent":9138,"accumulate":9139,"Ġmoves":9140,"Ġtimestamps":9141,"serialization":9142,"Raw":9143,"ddpm":9144,"Default":9145,"interleaved":9146,"misc":9147,"Ġcookies":9148,"è¡Į":9149,"Ġhorizontal":9150,"OCAB":9151,"implementation":9152,"multiplier":9153,"'re":9154,"2000":9155,"AVE":9156,"Dialog":9157,"Non":9158,"Option":9159,"Ollama":9160,"RT":9161,"TRAN":9162,"Vis":9163,"Vocab":9164,"Whether":9165,"middle":9166,"ql":9167,"å¯":9168,"Ł¥":9169,"inuation":9170,"ori":9171,"erator":9172,"review":9173,"received":9174,"del":9175,"Ġam":9176,"rab":9177,"Ġfit":9178,"Ġ\"\").":9179,"ctrl":9180,"Ġmedia":9181,"distributions":9182,"anilla":9183,"Ġpublish":9184,"Ġ#####################################################":9185,"ateLimit":9186,"Ġ-----<":9187,">#################################":9188,"ĠTH":9189,"Ġconcatenate":9190,"Ġconfidence":9191,"Ġgives":9192,"Ġdistribute":9193,"Ġnumerical":9194,"ĠDrop":9195,"callable":9196,"Ġrespon":9197,"Ġ_(\"":9198,"Ġuntil":9199,"Ġjpos":9200,"sock":9201,"ORCH":9202,"team":9203,"swe":9204,"quival":9205,"air":9206,"jobs":9207,"ENS":9208,"ĠĠĠĠĠĠĠĠĠĠĠĠĠĠĠĠĠĠĠĠĠĠĠĠĠĠĠĠĠĠĠĠĠĠĠĠĠĠĠĠĠĠĠ":9209,"ĠSearch":9210,"Ġperplexity":9211,"Ġaccessed":9212,"Ġteardown":9213,"embd":9214,"Ġ...\")<":9215,"Search":9216,"sequences":9217,"Ġworkers":9218,"ROM":9219,"memmory":9220,"Ġadds":9221,"]]):":9222,"Encoding":9223,"(*_":9224,"enced":9225,"detail":9226,"downloads":9227,"nontoxic":9228,"chained":9229,"instagram":9230,"rolling":9231,"Ġreply":9232,"Ġtruncate":9233,"latitudes":9234,"Ġincludes":9235,"annotators":9236,"Multistep":9237,"ĠEmbeddings":9238,"Original":9239,"ĠNormal":9240,"Ġlonger":9241,"Ġeffect":9242,"Ġpossibly":9243,"ĠValidate":9244,"entral":9245,"Ġjoblib":9246,"helpers":9247,"Êıá´ıá´ľ":9248,"åŃĹ":9249,"Ġtrimmed":9250,"VeScheduler":9251,"Retriever":9252,"Ġarchitecture":9253,"ç½®":9254,");":9255,")',":9256,"CS":9257,"CY":9258,"CAM":9259,"ECT":9260,"GD":9261,"OM":9262,"TLS":9263,"WARE":9264,"ah":9265,"ddim":9266,"fwd":9267,"ips":9268,"rd":9269,"wheel":9270,"å·":9271,"Ġ...,":9272,"Ġlecturer":9273,"Ġtemb":9274,"raction":9275,"Ġpl":9276,"Ġpwn":9277,"Ġbo":9278,"Ġwav":9279,"Ġway":9280,"Ġwraps":9281,"Ġequ":9282,"conversation":9283,"Ġdefines":9284,"Ġdro":9285,"Ġdense":9286,"isdir":9287,"Ġconcat":9288,"ĠSO":9289,"Ġ21":9290,"ĠPromise":9291,"Ġmaking":9292,"ĠDes":9293,"ĠDraw":9294,"\"]))<":9295,"Ġrgb":9296,"ront":9297,"Ġproc":9298,"Ġproper":9299,"ONE":9300,"Ġ36":9301,"addEvent":9302,"bugging":9303,"Ġsoup":9304,"nearest":9305,"ModelMixin":9306,"ĠHttp":9307,"Ġnearest":9308,"sterizer":9309,"Ġstartup":9310,"Prod":9311,"Ġpassing":9312,"reqs":9313,"linearity":9314,"Ġreading":9315,"Ġembeds":9316,"Processing":9317,"Ġinitializer":9318,"CONTEXT":9319,"ĠGeneric":9320,"Ġæİ¨éĢģ":9321,"Ġmappings":9322,"Ġlevels":9323,"Ġsegments":9324,"pipes":9325,"}:{":9326,"MoE":9327,"showerror":9328,"åĪ°":9329,"Validate":9330,"calculate":9331,"Ġsmaller":9332,"Orm":9333,"ĠValidation":9334,"12341234":9335,"Ġfinished":9336,"Ġsympy":9337,"hysteresis":9338,"basicConfig":9339,"integr":9340,"Ġchallenges":9341,"handlers":9342,"Ġturned":9343,"supervised":9344,"igrations":9345,"GaussianModel":9346,"waveform":9347,"ĠControlNetModel":9348,"Ġmotions":9349,"Ġmodality":9350,"ĠNaN":9351,"addEventListener":9352,"\"/":9353,")],<":9354,")[:,":9355,".):<":9356,"51":9357,"69":9358,"CLO":9359,"GING":9360,"OFF":9361,"Pri":9362,"Summary":9363,"VOCAB":9364,"Warning":9365,"]/":9366,"cles":9367,"mas":9368,"sft":9369,"zs":9370,"ĠÊĻ":9371,"Ġdataloaders":9372,"İ·":9373,"ining":9374,"Ġturbo":9375,"Ġfov":9376,"Ġ\"%":9377,"Ġmis":9378,"Ġmemb":9379,"Ġcent":9380,"Ġnest":9381,"didate":9382,"Ġpid":9383,"igInteger":9384,"getattr":9385,"Ġreturning":9386,"intents":9387,"ĠAfter":9388,"erspective":9389,"sertion":9390,"usic":9391,"\"]),":9392,"contrast":9393,"irm":9394,"prompted":9395,"Ġunderlying":9396,"DataLoader":9397,"Ġindexing":9398,"ĠConstant":9399,"hour":9400,"temporal":9401,"subplot":9402,"PIPE":9403,"Ġretries":9404,"ALLED":9405,"Ġmaterialize":9406,"={\"<|":9407,"mission":9408,"lotter":9409,"Ġhelpers":9410,"selective":9411,"ĠModels":9412,"Ġentities":9413,"SIST":9414,"ĠProgress":9415,"ĠAttn":9416,"ĠĠĠĠĠĠĠĠĠĠĠĠĠĠĠĠĠĠĠĠĠĠĠĠĠĠĠĠĠĠĠĠĠĠĠĠĠĠĠĠĠ":9417,"WORDS":9418,"PROCESS":9419,"Keyboard":9420,"ĠCollect":9421,"Ġsuccessful":9422,"Ġedited":9423,"\"}]<":9424,"Ġquantization":9425,"FTWARE":9426,"ĉĉĉĉĉĉĉĉ":9427,"ĠAlso":9428,"Comput":9429,"Interrupt":9430,"ĠParse":9431,"Ġvisible":9432,"Ġmarker":9433,"Ġmonitor":9434,"FORMERS":9435,"Ġdeprecate":9436,"METHO":9437,"Ġassumes":9438,"ĠView":9439,"ĠParams":9440,"Ġgreater":9441,"dependencies":9442,"MAPPINGS":9443,"smoothing":9444,"æĹ¶":9445,"éĩı":9446,"(\"\")<":9447,"Dropdown":9448,"vicorn":9449,"Ġaiohttp":9450,"ĠSdfCliResource":9451,"atabase":9452,"ateLimitError":9453,"Ġmembers":9454,":])":9455,">'<":9456,"Ass":9457,"IST":9458,"Platform":9459,"Widget":9460,"[_":9461,"]))":9462,"aps":9463,"feet":9464,"hdf":9465,"knn":9466,"mpty":9467,"oV":9468,"rn":9469,"ric":9470,"year":9471,"orld":9472,"onion":9473,"Ġtan":9474,"alore":9475,"Ġactor":9476,"raint":9477,"Ġreshape":9478,"Ġcmd":9479,"Ġcancel":9480,"ortho":9481,"Ġnaive":9482,"diag":9483,"Ġpbar":9484,"Ġbvh":9485,"Ġ(*":9486,"ensive":9487,"internal":9488,">#################":9489,"ĠdLd":9490,"Ġconstruct":9491,"olding":9492,"ĠAnnot":9493,"Ġ')<":9494,"Ġ[])<":9495,"mag":9496,"magnitude":9497,"namespace":9498,"Ġ+<":9499,"ĠSin":9500,"Ġdatapath":9501,"ffff":9502,"ĠPM":9503,"ĠPack":9504,"ĠIP":9505,"Ġren":9506,"lockwise":9507,"Ġsharding":9508,"=\"{":9509,"piece":9510,"Ġroom":9511,"testing":9512,"contents":9513,"ritic":9514,"dsd":9515,"ĠComb":9516,"nee":9517,"DIM":9518,"Ġposes":9519,"photo":9520,"ESTION":9521,"ĠĠĠĠĠĠĠĠĠĠĠĠĠĠĠĠĠĠĠĠĠĠĠĠĠĠĠĠĠĠĠĠĠĠĠĠĠĠĠĠĠĠĠĠĠĠĠĠĠĠĠĠĠĠĠĠĠĠ":9522,"ĠInst":9523,"ĠUni":9524,"REM":9525,"tains":9526,"Ġcomponents":9527,"Ġ...]<":9528,"Ġcodebook":9529,"Extension":9530,"ĠImageOps":9531,"Ġpiece":9532,"Ġcommons":9533,"filenames":9534,"Pretrain":9535,"Ġdiffs":9536,"which":9537,"Ġregion":9538,"ĠGeneral":9539,"invoke":9540,"ĠResidual":9541,"TransformerConfig":9542,"installed":9543,"COM":9544,"ĠChinese":9545,"canvas":9546,"USED":9547,"avier":9548,"jitter":9549,"ShardedStateDict":9550,"Ġtracking":9551,"ĠOriginal":9552,"ĠKeyboard":9553,"ĠThread":9554,"Ġipdb":9555,"Ġautoregressive":9556,"ĠDownloadSource":9557,"Ġcoordinates":9558,"ĠFrozenDict":9559,"Ġdescribing":9560,"Ġomegaconf":9561,"Ġrules":9562,"EpisodeGenerator":9563,"Ġlegacy":9564,"Ġ########################################################<":9565,"MultistepScheduler":9566,".\".":9567,"336":9568,"403":9569,"=\\\\":9570,"?\\":9571,"AU":9572,"As":9573,"Ann":9574,"CES":9575,"Calculate":9576,"Cloud":9577,"Events":9578,"JO":9579,"Motion":9580,"Part":9581,"Sim":9582,"UE":9583,"VQ":9584,"cite":9585,"dent":9586,"opacity":9587,"pd":9588,"warm":9589,"ylabel":9590,"}-":9591,"}}<":9592,"Ð¸":9593,"éĿ":9594,"Ġutf":9595,"atype":9596,"Ġtg":9597,"Ġastronomic":9598,"rase":9599,"raise":9600,"ited":9601,"itized":9602,"Ġrepeated":9603,"Ġcentral":9604,"ingular":9605,"Ġsmpl":9606,"asure":9607,"strft":9608,"Ġeinsum":9609,"ĠNvidia":9610,"Ġantic":9611,"verter":9612,"Ġ\"\"\")<":9613,"ĠScale":9614,"Ġstability":9615,"provided":9616,"inity":9617,"ĠRet":9618,"ĠRAG":9619,"wap":9620,"ggle":9621,"tax":9622,"plt":9623,"song":9624,"tokenizers":9625,"ĠEvent":9626,"combin":9627,"ĠGot":9628,"ryption":9629,"Ġ`__":9630,"ĠResize":9631,"near":9632,"DICT":9633,"SEP":9634,"Ġkeypoints":9635,"Ġkeywords":9636,"Ġresulting":9637,"acity":9638,"([])<":9639,"Int":9640,"minimum":9641,"Ġqlen":9642,"Ġmom":9643,"ĠKandinsky":9644,"bsz":9645,"Ġcomponent":9646,"Ġshapes":9647,"Ġaddition":9648,"nology":9649,"Ġlayernorm":9650,"postprocess":9651,"Ġcheckpointing":9652,"Provider":9653,"indx":9654,"={'":9655,"Diamond":9656,"ULAR":9657,"ĠAND":9658,"Ġoverall":9659,"copysign":9660,"Ġ1234":9661,"buttons":9662,"Ġexecutor":9663,"Ġsimp":9664,"nonzero":9665,"(\".\")[":9666,"sendline":9667,"Ġconditional":9668,"Ġpackages":9669,"Ġretrieving":9670,"ĠRotations":9671,"Child":9672,"á´ıÉ´":9673,"assertTrue":9674,"Quant":9675,"á´ĢÉ´":9676,"Multiple":9677,"Ġ1536":9678,"Ġdenoised":9679,"å¤§":9680,"ĠDocument":9681,"Ġplaceholder":9682,"ĠRemote":9683,"Ġdetected":9684,"Ġá´ĽÊľá´ĩ":9685,"ĠHTTPException":9686,"Mean":9687,"ReduceOp":9688,"bboxes":9689,"Ġcookie":9690,"ĠViT":9691,"SelectionConfig":9692,"elasticsearch":9693,"compatible":9694,"ĠCheckpointingException":9695,"DecodeError":9696,"ĠDepth":9697,"è¾ĵåĩº":9698,"ITEMS":9699,"strftime":9700,"\"></":9701,"\"):":9702,")+":9703,")}.":9704,"*\")<":9705,":\"<":9706,"ACE":9707,"CASE":9708,"Literal":9709,"OD":9710,"Rew":9711,"SD":9712,"Tip":9713,"UAL":9714,"bones":9715,"bmm":9716,"blended":9717,"criminator":9718,"dino":9719,"flush":9720,"munk":9721,"nlp":9722,"pot":9723,"qvel":9724,"rule":9725,"vate":9726,"vity":9727,"à¹":9728,"åĿ":9729,"éľ":9730,"Ġvert":9731,"Ġerr":9732,"passage":9733,"inx":9734,"atural":9735,"endation":9736,"Ġfc":9737,"Ġfmap":9738,"ardi":9739,"ctan":9740,"Ġmt":9741,"Ġspeed":9742,"different":9743,"Ġpunct":9744,"Ġbad":9745,"lict":9746,"Ġtot":9747,"setTimeout":9748,"external":9749,"coin":9750,"comes":9751,"copies":9752,"ĠTorch":9753,"Ġdns":9754,"Ġddp":9755,"(\">":9756,"emini":9757,"ĠAD":9758,"ĠAG":9759,"ĠAverage":9760,"ĠLR":9761,"Ġstages":9762,"Ġnotdiamond":9763,"ĠPO":9764,"ĠPart":9765,"ĠPattern":9766,"endor":9767,"keyboard":9768,"Ġdeque":9769,"Ġdeleted":9770,"Ġartic":9771,"ĠDon":9772,"ĠDeter":9773,"classify":9774,"Ġ_:":9775,"Ġsemester":9776,"ĠMODEL":9777,"pired":9778,"amily":9779,"Ġjwt":9780,"Ġrobot":9781,"ĠGiven":9782,"Ġ`{":9783,"DataSet":9784,"ConfigMixin":9785,"Init":9786,"Ġcontribut":9787,"lette":9788,"hover":9789,"chunked":9790,"savefig":9791,"Ġweak":9792,"envstacks":9793,")))":9794,"aug":9795,"Ġinterle":9796,"Ġwritten":9797,"AMPL":9798,"Ġactually":9799,"Lock":9800,"Ġvarious":9801,"ragent":9802,"ANT":9803,"ĠGPTDataSet":9804,"Ġfollowed":9805,"optimization":9806,"sincos":9807,"ĠModified":9808,"Ġcurs":9809,"Ġplanner":9810,"ikipedia":9811,"MaskSoftmax":9812,"ledgehammer":9813,"ĠChunk":9814,"============================================":9815,"7884":9816,"ÊŁá´ĩ":9817,"pixels":9818,"termination":9819,"ĠContent":9820,"Ġhigher":9821,"ELLOW":9822,"âĢĶ":9823,"limiter":9824,"|>\"})<":9825,"HTML":9826,"ĠChatMessage":9827,"Ġarchive":9828,"Ġefficient":9829,"Ġfigure":9830,"early":9831,"games":9832,"pidump":9833,"allocated":9834,"Ġpresentation":9835,"ĠNeural":9836,"ĠDBDataset":9837,"FAIL":9838,"Ġgreat":9839,"ScaleMaskSoftmax":9840,"æ¡£":9841,"Ġpercentage":9842,"ĠAuthors":9843,"DEFINE":9844,"Dependency":9845,"è½¬":9846,"Ġè®¡ç®Ĺ":9847,"Ġearly":9848,"Ġanticlockwise":9849,"ĠGPTDataSetV":9850,"'d":9851,"'):":9852,"+\",":9853,",-":9854,",),<":9855,",)).":9856,"114":9857,"53":9858,"=(<":9859,"CAT":9860,"Dense":9861,"Li":9862,"MN":9863,"RON":9864,"Say":9865,"UNet":9866,"]`":9867,"break":9868,"brightness":9869,"black":9870,"basis":9871,"mble":9872,"uite":9873,"vstack":9874,"}-{":9875,"åį":9876,"èĩ":9877,"Ġve":9878,"indi":9879,"orqa":9880,"rejected":9881,"determin":9882,"decoupled":9883,"Ġfbx":9884,"arctan":9885,"edrock":9886,"Ġrevision":9887,"Ġrecover":9888,"Ġcr":9889,"Ġsx":9890,"Ġpdf":9891,"Ġphoto":9892,"Ġimports":9893,"poly":9894,"ĠTak":9895,"uplicate":9896,"ism":9897,"Ġconversion":9898,"figsize":9899,"Ġgu":9900,"Ġ{{<":9901,"ĠLM":9902,"ĠSampling":9903,"quet":9904,"ĠDynamic":9905,"ĠImagen":9906,"Ġresized":9907,"Ġ_]":9908,"Ġori":9909,"tack":9910,"ĠMain":9911,"ĠMapping":9912,"ĠBot":9913,"ĠUsed":9914,"ĠUsing":9915,"nnx":9916,"ĠGRAPH":9917,"ftfy":9918,"llms":9919,"Ġ:],":9920,"SED":9921,"ĠOptionalDependency":9922,"ĠHO":9923,"Ġobservations":9924,"120":9925,"ypot":9926,"Ġcapab":9927,"Ġsubfolder":9928,"ITH":9929,"aystack":9930,"Ġdocker":9931,"EMA":9932,"')\")<":9933,"interfaces":9934,"dropdown":9935,"Ġ)[":9936,"Normalize":9937,"Ġ}}<":9938,"Ġworks":9939,"ĠBased":9940,"ĠBaseException":9941,"á´ĩá´ħ":9942,"Ġá´ĺ":9943,"ĠGeneration":9944,"presentation":9945,"THER":9946,"auty":9947,"Ġexternal":9948,"Ġdepths":9949,"Collator":9950,"Ġcounts":9951,"NotAvailable":9952,"Ġrepr":9953,"CLS":9954,"Ġconsistent":9955,"Ġabsl":9956,"åĲį":9957,"PoolExecutor":9958,"ĠRole":9959,"ĠQueryParam":9960,"Ġsymbol":9961,"Iterator":9962,"æĪ·":9963,"Ġswiglu":9964,"ĠLearning":9965,"Ġmodif":9966,"QUESTION":9967,"Ġclicked":9968,"Ġbeginning":9969,"ä¸Ģä¸ª":9970,"å¼ı":9971,"INSTALLED":9972,"Ġsecret":9973,"ĠâĶľâĶĢ":9974,"ĠComputes":9975,"Ð°Ñ":9976,"ImgPipeline":9977,"ĠTransformers":9978,"ĠBlendedMegatronDatasetConfig":9979,"Ġhelper":9980,"å¹¶":9981,"Ġndarray":9982,"Ġdecorated":9983,"İ·åıĸ":9984,"éľĢ":9985,"ĠOptionalDependencyNotAvailable":9986,")[\"":9987,")[:":9988,",))<":9989,"-'":9990,"After":9991,"Can":9992,"Draw":9993,"Folder":9994,"FLAG":9995,"ITI":9996,"Json":9997,"Lab":9998,"MAS":9999}