{"<s>":0,"<pad>":1,"</s>":2,"<unk>":3,"<mask>":4,"<N>":5,"!":6,"\"":7,"#":8,"$":9,"%":10,"&":11,"'":12,"(":13,")":14,"*":15,"+":16,",":17,"-":18,".":19,"/":20,"0":21,"1":22,"2":23,"3":24,"4":25,"5":26,"6":27,"7":28,"8":29,"9":30,":":31,";":32,"<":33,"=":34,">":35,"?":36,"@":37,"A":38,"B":39,"C":40,"D":41,"E":42,"F":43,"G":44,"H":45,"I":46,"J":47,"K":48,"L":49,"M":50,"N":51,"O":52,"P":53,"Q":54,"R":55,"S":56,"T":57,"U":58,"V":59,"W":60,"X":61,"Y":62,"Z":63,"[":64,"\\":65,"]":66,"^":67,"_":68,"`":69,"a":70,"b":71,"c":72,"d":73,"e":74,"f":75,"g":76,"h":77,"i":78,"j":79,"k":80,"l":81,"m":82,"n":83,"o":84,"p":85,"q":86,"r":87,"s":88,"t":89,"u":90,"v":91,"w":92,"x":93,"y":94,"z":95,"{":96,"|":97,"}":98,"~":99,"¡":100,"¢":101,"£":102,"¤":103,"¥":104,"¦":105,"§":106,"¨":107,"©":108,"ª":109,"«":110,"¬":111,"®":112,"¯":113,"°":114,"±":115,"²":116,"³":117,"´":118,"µ":119,"¶":120,"·":121,"¸":122,"¹":123,"º":124,"»":125,"¼":126,"½":127,"¾":128,"¿":129,"À":130,"Á":131,"Â":132,"Ã":133,"Ä":134,"Å":135,"Æ":136,"Ç":137,"È":138,"É":139,"Ê":140,"Ë":141,"Ì":142,"Í":143,"Î":144,"Ï":145,"Ð":146,"Ñ":147,"Ò":148,"Ó":149,"Ô":150,"Õ":151,"Ö":152,"×":153,"Ø":154,"Ù":155,"Ú":156,"Û":157,"Ü":158,"Ý":159,"Þ":160,"ß":161,"à":162,"á":163,"â":164,"ã":165,"ä":166,"å":167,"æ":168,"ç":169,"è":170,"é":171,"ê":172,"ë":173,"ì":174,"í":175,"î":176,"ï":177,"ð":178,"ñ":179,"ò":180,"ó":181,"ô":182,"õ":183,"ö":184,"÷":185,"ø":186,"ù":187,"ú":188,"û":189,"ü":190,"ý":191,"þ":192,"ÿ":193,"Ā":194,"ā":195,"Ă":196,"ă":197,"Ą":198,"ą":199,"Ć":200,"ć":201,"Ĉ":202,"ĉ":203,"Ċ":204,"ċ":205,"Č":206,"č":207,"Ď":208,"ď":209,"Đ":210,"đ":211,"Ē":212,"ē":213,"Ĕ":214,"ĕ":215,"Ė":216,"ė":217,"Ę":218,"ę":219,"Ě":220,"ě":221,"Ĝ":222,"ĝ":223,"Ğ":224,"ğ":225,"Ġ":226,"ġ":227,"Ģ":228,"ģ":229,"Ĥ":230,"ĥ":231,"Ħ":232,"ħ":233,"Ĩ":234,"ĩ":235,"Ī":236,"ī":237,"Ĭ":238,"ĭ":239,"Į":240,"į":241,"İ":242,"ı":243,"Ĳ":244,"ĳ":245,"Ĵ":246,"ĵ":247,"Ķ":248,"ķ":249,"ĸ":250,"Ĺ":251,"ĺ":252,"Ļ":253,"ļ":254,"Ľ":255,"ľ":256,"Ŀ":257,"ŀ":258,"Ł":259,"ł":260,"Ń":261,"ĠĠ":262,"ĠĠĠĠ":263,"ĠĠĠ":264,"ĠĠĠĠĠĠĠ":265,"><":266,"in":267,"or":268,"se":269,"at":270,"on":271,"er":272,"en":273,"Ġt":274,"Ġ=":275,"re":276,")<":277,"st":278,"de":279,"></":280,"ar":281,"al":282,"ĠĠĠĠĠĠĠĠĠĠĠ":283,"ro":284,"im":285,"le":286,"an":287,":<":288,"ut":289,"ch":290,"ion":291,"it":292,"lf":293,"as":294,"self":295,"ge":296,"Ġp":297,"Ġf":298,"lo":299,"am":300,",<":301,"ed":302,"Ġ\"":303,"ct":304,"ĠĠĠĠĠĠĠĠ":305,"Ġm":306,"he":307,"Ġre":308,"ce":309,"Ġc":310,"ort":311,"Ġn":312,"Ġin":313,"Ġi":314,"ing":315,"imp":316,"Ġs":317,"Ġself":318,"import":319,"ad":320,"ex":321,"ode":322,"Ġd":323,"ur":324,"rom":325,"ent":326,"Ġo":327,"pe":328,"ig":329,"):<":330,"iz":331,"Ġthe":332,"def":333,"pt":334,"ata":335,"um":336,"Ġa":337,"Ġb":338,"un":339,"es":340,"id":341,"age":342,"ra":343,"Ġ#":344,"odel":345,"et":346,"\"\"":347,"di":348,"put":349,"ue":350,"from":351,"Ġimport":352,"li":353,"Ġw":354,"ate":355,"ck":356,"Ġ(":357,"ser":358,"urn":359,"Ġto":360,"orch":361,".<":362,"la":363,"ul":364,"str":365,"to":366,"em":367,"set":368,"Ġif":369,"Ġret":370,"Ġfor":371,"ss":372,"ext":373,"ĠĠĠĠĠĠĠĠĠĠĠĠĠĠĠ":374,"ens":375,"arg":376,"and":377,"Ġas":378,"ize":379,"one":380,"get":381,"Ġreturn":382,"__":383,"ot":384,"int":385,"el":386,"con":387,">#":388,"il":389,"ath":390,"Ġdef":391,"orm":392,"co":393,"Ġ-":394,"po":395,"ĠN":396,"ht":397,"val":398,"ran":399,"ic":400,"()<":401,"Ġtorch":402,"ĠT":403,"args":404,"ation":405,"ame":406,"]<":407,"is":408,"par":409,"Ġ1":410,"up":411,"size":412,"data":413,"(\"":414,"Ġcon":415,"Ġis":416,"ver":417,"ol":418,"qu":419,"ype":420,"==":421,"len":422,"()":423,"ĠA":424,"Ġ'":425,"(<":426,"model":427,"##":428,"Ġg":429,"fig":430,"Ġlo":431,"text":432,"ensor":433,"Ġ\"\"\"":434,"ĠNone":435,"Ġ*":436,"\"<":437,"--":438,"Ġ[":439,"ĠC":440,"ers":441,"ĠĠĠĠĠĠĠĠĠĠĠĠĠĠĠĠ":442,"vi":443,"ile":444,"est":445,"ight":446,"path":447,"\")<":448,"ke":449,"Ġ{":450,"Ġof":451,"ep":452,"od":453,"sh":454,"ask":455,"ĠL":456,"atch":457,"ith":458,"ass":459,"ult":460,"om":461,"Ġ0":462,"th":463,"cl":464,"\",":465,"ap":466,"utput":467,"form":468,"Ġ+":469,"Ġh":470,"rain":471,"ple":472,"ction":473,"att":474,"ab":475,"ve":476,"ĠS":477,"py":478,"Ġand":479,"name":480,"Ġst":481,"der":482,"Ġ==":483,"pro":484,"Ġ2":485,"ri":486,"Ġe":487,"Ġnot":488,"ax":489,"Ġdata":490,"ff":491,"ine":492,"emb":493,"pl":494,"Ġex":495,"ding":496,"sert":497,"tok":498,"ption":499,"Ġx":500,"ĠP":501,"all":502,"us":503,"Ġmodel":504,"res":505,"Ġpar":506,"type":507,"Ġnum":508,"Ġdi":509,"end":510,"Ġ)<":511,"..":512,"rans":513,"Ġl":514,"ample":515,"init":516,"rue":517,"\":":518,"Ġ\"\"\"<":519,"key":520,"alle":521,"Ġassert":522,"Ġde":523,"que":524,"che":525,"Ġr":526,"lay":527,"[\"":528,").":529,"Ġ->":530,"Ġstr":531,"ense":532,"ĠF":533,"cor":534,"ĠD":535,"num":536,"image":537,"))<":538,"class":539,"Ġget":540,"ĠR":541,"\"]":542,"Ġ<":543,"ist":544,"pre":545,"Ġwith":546,"wa":547,"embed":548,"ĠI":549,"eg":550,"ape":551,"list":552,"allel":553,"dict":554,"Ġth":555,"cal":556,"per":557,"dim":558,"gg":559,"cess":560,"ror":561,"====":562,"ĠO":563,"Ġres":564,"ow":565,"rint":566,"ew":567,"train":568,"ime":569,"use":570,"Ġ_":571,"config":572,"ase":573,"00":574,"quest":575,"Ġor":576,"icense":577,"####":578,"os":579,"able":580,"izer":581,"Ġse":582,"gr":583,"ransform":584,"dir":585,"alse":586,"ard":587,"else":588,"ain":589,"tensor":590,"input":591,"Ġelse":592,"ule":593,"ils":594,"\",<":595,"but":596,"load":597,"ron":598,"ctor":599,"dex":600,"ter":601,"gth":602,"wait":603,"ĠĠĠĠĠĠĠĠĠĠĠĠĠĠĠĠĠĠĠ":604,"ĠM":605,"',":606,"file":607,"length":608,"Ġpage":609,"stri":610,"._":611,"ĠLicense":612,"],":613,"eight":614,"ack":615,"vice":616,"if":617,"ence":618,"mask":619,"torch":620,"param":621,"lock":622,"head":623,"('":624,"shape":625,"out":626,"Ġnp":627,"ance":628,"com":629,"True":630,"parallel":631,"ded":632,"da":633,"dataset":634,"app":635,"Ġinput":636,"Ġargs":637,"yn":638,"odule":639,"Ġ/":640,"oc":641,"rompt":642,"Ġtok":643,"add":644,"----":645,"output":646,"Ġfrom":647,"ub":648,"check":649,"Ġpro":650,"Ġsh":651,"Ġawait":652,"),":653,"Ġoutput":654,"Ġan":655,"=\"":656,"lab":657,"pon":658,"Ġprint":659,"point":660,"met":661,"Ġval":662,"ial":663,"Ġ__":664,"ener":665,"loat":666,"wor":667,"ess":668,"ĠB":669,"\"\"\"<":670,"ition":671,"Con":672,"embedding":673,"egat":674,"ward":675,"rank":676,"batch":677,"),<":678,"lic":679,"Ġun":680,"ync":681,"ag":682,"idd":683,"ment":684,"Ġpre":685,"son":686,"Ġos":687,"ĠU":688,"token":689,"ure":690,"Ġtest":691,"ention":692,"ids":693,"Ġj":694,"line":695,"ise":696,"idden":697,"ponse":698,"Ġint":699,"egatron":700,"utils":701,"ON":702,"ps":703,"roup":704,"Ġbe":705,"max":706,"ument":707,"ĠE":708,"ix":709,"ay":710,"je":711,"ool":712,"state":713,"art":714,"Ġen":715,"ator":716,"Ġon":717,"ces":718,"Ġconfig":719,"Ġuse":720,"Ġlen":721,"stribut":722,"layer":723,"['":724,"rror":725,"Ġ3":726,"Ġy":727,"ang":728,"eps":729,"__(":730,"):":731,"ave":732,"ĠW":733,"}<":734,"Ġv":735,"quer":736,"Ġfile":737,"els":738,"hod":739,"ll":740,"code":741,"Ġro":742,"process":743,"essage":744,"Ġch":745,"ĠG":746,"ft":747,"our":748,"stat":749,"ault":750,"coder":751,"gger":752,"IN":753,"Error":754,"nn":755,"OR":756,"norm":757,"arget":758,"Ġ>":759,"stributed":760,"ann":761,"().":762,"red":763,"inf":764,"append":765,"Ġcom":766,"Ġparam":767,"query":768,"Ġimage":769,"log":770,"Ġdim":771,"grad":772,"ai":773,"for":774,"Ġcontext":775,"...":776,"():<":777,"test":778,"cont":779,"server":780,"Ġnn":781,"ptional":782,"TI":783,"Ġdataset":784,"ly":785,"')<":786,"plit":787,"ĠV":788,"htt":789,"weight":790,"tokens":791,"sw":792,"Ġtensor":793,"pos":794,"opy":795,"pa":796,"sample":797,"\")":798,"Ġk":799,"unction":800,"cu":801,"qui":802,"core":803,"ipe":804,"ind":805,"lob":806,"']":807,"Ġatt":808,"Ġit":809,"eval":810,"Ġmax":811,"ant":812,"pen":813,"user":814,"[:":815,"Ġmegatron":816,"stance":817,"pec":818,"right":819,"False":820,"ĠThe":821,"ry":822,"ity":823,"bu":824,"ok":825,"rg":826,"wargs":827,"None":828,"Ġtrain":829,"sc":830,"Ġ:":831,"range":832,"context":833,"checkpoint":834,"ransformer":835,"low":836,"unt":837,"Ġtoken":838,"index":839,"ac":840,"unk":841,"Ġ`":842,"rit":843,"//":844,"ber":845,"ject":846,"row":847,"Ġra":848,"img":849,"02":850,"========":851,"Tensor":852,"ob":853,"cept":854,"://":855,"ions":856,"EN":857,"pu":858,"cuda":859,"Ġsup":860,"bo":861,"ou":862,"ched":863,"ern":864,"its":865,"pect":866,"idx":867,"url":868,"value":869,"ias":870,"ary":871,"ds":872,"Ġap":873,"ptim":874,"':":875,"Ġbatch":876,"av":877,"device":878,"loss":879,"rop":880,"DI":881,">#<":882,"float":883,"Ġwh":884,"method":885,"########":886,"kwargs":887,"Ġtext":888,"Ġ**":889,"cale":890,"])<":891,"ute":892,"Ġlog":893,"mo":894,"Ġtype":895,"ray":896,"eat":897,"ict":898,"Ġpo":899,"ast":900,"jo":901,"á´":902,"Ġlist":903,"ations":904,"Ġ@":905,"Ġby":906,"SE":907,"ĠFalse":908,"Ġthis":909,"Ġkey":910,"prompt":911,"oft":912,"Ġunder":913,"gging":914,"Ġ.":915,"ĠRet":916,"oul":917,"ir":918,"ml":919,"Ġset":920,"ore":921,"ret":922,"ph":923,"back":924,"].":925,"array":926,"Ġcont":927,"Ġstate":928,"ould":929,"lobal":930,"time":931,"Ġ%":932,"Ġsample":933,"und":934,"Ġ4":935,"usion":936,"ĠOptional":937,"error":938,"quence":939,"Ġ[]<":940,"Ġall":941,".\"\"\"<":942,"Data":943,"ipeline":944,"Model":945,"iv":946,"reate":947,"ean":948,"fa":949,"Ġ(<":950,"ses":951,"ive":952,"ource":953,"port":954,"own":955,"ies":956,"Ġresult":957,"ER":958,"info":959,"group":960,"block":961,"item":962,"'<":963,"Ġresponse":964,"Ġmask":965,"andom":966,"ĠArg":967,"zer":968,"Ġdevice":969,"Ġcl":970,"ory":971,"Ġgr":972,"ip":973,"argument":974,"Ġmet":975,"ning":976,"ĠĠĠĠĠĠĠĠĠĠĠĠĠĠĠĠĠĠĠĠĠĠĠ":977,"inal":978,"ĠTrue":979,"Ġal":980,"params":981,"fg":982,"([":983,"Ġrequi":984,"format":985,"uple":986,"Config":987,"embeddings":988,"ffusion":989,"='":990,"Ġraise":991,"json":992,"Ġload":993,"ES":994,"ld":995,"view":996,"ated":997,"ach":998,"PT":999,"Ġthat":1000,"],<":1001,"St":1002,"ust":1003,"ĠĠĠĠĠĠĠĠĠĠĠĠĠĠĠĠĠĠĠĠĠĠĠĠĠĠĠĠĠĠĠĠ":1004,"Ġexcept":1005,"ĠIn":1006,"Ġtime":1007,"unc":1008,"lib":1009,"mat":1010,"ĠUn":1011,"Ġhidden":1012,"result":1013,"Ġloss":1014,"Ġout":1015,"urr":1016,"Ġdefault":1017,"swer":1018,"last":1019,"16":1020,"pert":1021,"ild":1022,"states":1023,"ĠH":1024,"TION":1025,"Ġ+=":1026,"Ġsuper":1027,"Ġob":1028,"split":1029,"--------":1030,"io":1031,"Ġprompt":1032,"Ġwor":1033,"ropo":1034,"Ġbu":1035,"ropout":1036,"fix":1037,"work":1038,"32":1039,"lable":1040,"Ġrequest":1041,"Ġpath":1042,"ĠArgs":1043,"module":1044,"join":1045,"In":1046,"np":1047,"Ġrange":1048,"ames":1049,"RE":1050,"chann":1051,"AS":1052,"ys":1053,"Ġlogger":1054,"ctory":1055,"uler":1056,"cli":1057,"hidden":1058,"arded":1059,"ents":1060,"Ġhtt":1061,"start":1062,"Ġindex":1063,"ill":1064,"Ġgener":1065,"op":1066,"base":1067,"opyright":1068,"\"]<":1069,"rowser":1070,"Ġinit":1071,"ues":1072,"loc":1073,"RA":1074,"step":1075,"Ġid":1076,"ping":1077,"**":1078,"min":1079,"urns":1080,"Ġ{<":1081,"ĠCopyright":1082,"Ġasync":1083,"ual":1084,"lat":1085,"ec":1086,"quat":1087,"nt":1088,"Module":1089,"Ġtarget":1090,"LI":1091,"Ġare":1092,"12":1093,"content":1094,"instance":1095,"indow":1096,"Ġserver":1097,"Ġper":1098,"rect":1099,"lect":1100,"[:,":1101,"gram":1102,"page":1103,"Ġvalue":1104,"ptimizer":1105,"oad":1106,"heads":1107,"act":1108,"Ġname":1109,"col":1110,"count":1111,"Ġnumpy":1112,"ma":1113,"rame":1114,"ne":1115,"ĠList":1116,"ache":1117,"Ġforward":1118,"ision":1119,"ign":1120,"layers":1121,"Ġjson":1122,"scri":1123,"df":1124,"Ġq":1125,"request":1126,"Ġpos":1127,"Ġ\\":1128,"Par":1129,"mage":1130,"ffer":1131,"AT":1132,"async":1133,"message":1134,"uage":1135,"feat":1136,"anguage":1137,"Ġdtype":1138,"sum":1139,"ĠAn":1140,"Ġweight":1141,"DE":1142,"tal":1143,"new":1144,"ww":1145,"dices":1146,"ved":1147,"dtype":1148,"ĠReturns":1149,"ception":1150,"Ġdistributed":1151,"...,":1152,"eters":1153,"te":1154,"vers":1155,"Ġpy":1156,">@":1157,"Ġbool":1158,"Ġmessage":1159,"lace":1160,"cheduler":1161,"ree":1162,"distributed":1163,"Ġsize":1164,"ĠEx":1165,"iter":1166,"erence":1167,"Ġmay":1168,"Dataset":1169,"Ġgrad":1170,"Ġ5":1171,"lif":1172,"ply":1173,"ulti":1174,"Ġat":1175,"lev":1176,"attention":1177,"channels":1178,"his":1179,"Ġty":1180,"seq":1181,"AR":1182,"Ġspec":1183,"sed":1184,"over":1185,"tem":1186,"read":1187,"ric":1188,"nd":1189,"((":1190,"}\")<":1191,"poch":1192,"Ġdict":1193,"Ġpad":1194,"Ġblock":1195,"ler":1196,"Ġ[\"":1197,"prob":1198,"bias":1199,"target":1200,"ĠCon":1201,"gener":1202,"seed":1203,"Ġcol":1204,"Ġattention":1205,"steps":1206,"valid":1207,"ock":1208,"Ġag":1209,"Ġfunction":1210,"Ġtokenizer":1211,"iel":1212,"Ġgroup":1213,"ĠSe":1214,"inear":1215,"ocab":1216,"ton":1217,"uate":1218,"Ġelif":1219,"())<":1220,"imest":1221,"urrent":1222,"Ġtyping":1223,"Ġne":1224,"var":1225,"chunk":1226,"ĠK":1227,"mean":1228,"pad":1229,"Ġ202":1230,"irst":1231,"ctions":1232,"fil":1233,"ta":1234,"training":1235,"save":1236,"Ġfloat":1237,"ized":1238,"vert":1239,"with":1240,"ĠĠĠĠĠ":1241,"map":1242,"vide":1243,"ures":1244,"tra":1245,"Ġac":1246,"Ġwe":1247,"trained":1248,"labels":1249,"Ġtry":1250,";<":1251,"Ġtokens":1252,"]:<":1253,"print":1254,"AG":1255,"env":1256,"lement":1257,"comm":1258,"Ġ{}":1259,"transformer":1260,"\":<":1261,"place":1262,"alue":1263,"amb":1264,"Ġrun":1265,"html":1266,"ST":1267,"FI":1268,"iss":1269,"Ġax":1270,"go":1271,"ution":1272,"run":1273,"Ġimp":1274,"position":1275,"Ġquery":1276,"main":1277,"Ġsub":1278,"Ġ...":1279,"func":1280,"Ġadd":1281,"rite":1282,"extra":1283,"cat":1284,"Ġapp":1285,"IT":1286,"adata":1287,"ole":1288,"UT":1289,"ĠAny":1290,"Ġright":1291,"Ġimg":1292,"encoder":1293,"Ġhe":1294,"rix":1295,"ific":1296,"Ġtransform":1297,"response":1298,"Ġstep":1299,"ere":1300,"Ġyou":1301,"sub":1302,"tt":1303,"uc":1304,"by":1305,"uto":1306,"arch":1307,"gpt":1308,"les":1309,"Ġrot":1310,"global":1311,"oi":1312,"Ġshape":1313,"PI":1314,"task":1315,"Ġopen":1316,"erver":1317,"ĠPage":1318,"Ġclass":1319,"parse":1320,"tokenizer":1321,"Ġisinstance":1322,"Ġno":1323,"question":1324,"ambda":1325,"date":1326,"))":1327,"Ġlogging":1328,"Ġhas":1329,"the":1330,"cfg":1331,"attn":1332,"ng":1333,"Ġnorm":1334,"Ġnew":1335,"AL":1336,"Ġstart":1337,"transform":1338,"pose":1339,"scale":1340,"ization":1341,"Ġeval":1342,"rot":1343,"EM":1344,"ĠThis":1345,"lp":1346,"().__":1347,"ound":1348,"trans":1349,"version":1350,"ous":1351,"ross":1352,"lu":1353,"64":1354,">)<":1355,"Ġmat":1356,"post":1357,"ĠAll":1358,"Ġrequired":1359,"cores":1360,"ĠDict":1361,"ĠSt":1362,"__()<":1363,"patch":1364,"logger":1365,"evaluate":1366,"ĠĠĠĠĠĠ":1367,"Ġparser":1368,"Ġcopy":1369,"function":1370,">)":1371,"Ġz":1372,"Ġup":1373,"Ġlayer":1374,"pute":1375,"])":1376,"local":1377,"no":1378,"emory":1379,".\")<":1380,"ampl":1381,"Ġvalid":1382,"Ġsoft":1383,"Ġnumber":1384,"[...,":1385,"should":1386,"attr":1387,"ak":1388,"api":1389,"\"])<":1390,"oader":1391,"Ġcode":1392,"ong":1393,"Ġrank":1394,"',<":1395,"Ġtask":1396,"samples":1397,"vid":1398,"ide":1399,"=-":1400,"ms":1401,"quatern":1402,"served":1403,"Ġ!":1404,"lr":1405,"Ġrights":1406,"Ġco":1407,"qd":1408,"')":1409,"VI":1410,"pace":1411,"ama":1412,"ield":1413,"net":1414,"Ġpart":1415,"\"{":1416,"Ġ}<":1417,"ĠValue":1418,"inter":1419,"ef":1420,"label":1421,"licy":1422,"Ġerror":1423,"Ġparallel":1424,"idth":1425,"Ġreserved":1426,"ins":1427,"empt":1428,"ĠData":1429,"ates":1430,"Ġ//":1431,"[-":1432,"cls":1433,"ble":1434,"ware":1435,"org":1436,"andle":1437,"tool":1438,"Ġ!=":1439,"Ġ\\<":1440,"Ġ[<":1441,"ialize":1442,"HO":1443,"au":1444,"ailable":1445,"Ex":1446,"Ġchunk":1447,"spec":1448,"Ġbase":1449,"Ġuser":1450,"reg":1451,"ING":1452,"off":1453,"ther":1454,"call":1455,"ĠPath":1456,"Type":1457,"ĠServer":1458,"ange":1459,"box":1460,"zero":1461,"thon":1462,"stru":1463,"models":1464,"================":1465,"``":1466,"doc":1467,"imit":1468,"Res":1469,"(-":1470,"umn":1471,"Ġrandom":1472,"soft":1473,"Ġdoc":1474,"clo":1475,"iginal":1476,"weights":1477,"Ġle":1478,"Ġtop":1479,"ownload":1480,"qdm":1481,"ho":1482,"Ġcheckpoint":1483,"scription":1484,"Ġpass":1485,"vent":1486,"Pro":1487,"dropout":1488,"world":1489,"sq":1490,"ĠY":1491,"ĠValueError":1492,"Ġtotal":1493,"license":1494,"Ġbias":1495,"press":1496,"ark":1497,"Ġlength":1498,"rectory":1499,"answer":1500,"################":1501,"route":1502,"ference":1503,"tr":1504,"={":1505,"asses":1506,"word":1507,"POR":1508,"lin":1509,"cond":1510,"Ġused":1511,"conv":1512,"Ġhttps":1513,").<":1514,"LE":1515,"ull":1516,"ATION":1517,"Ġmethod":1518,"eter":1519,"plate":1520,"\".":1521,"mb":1522,"zeros":1523,"ĠĠĠĠĠĠĠĠĠĠĠĠĠĠĠĠĠĠĠĠĠĠĠĠ":1524,"Ġeach":1525,"ĠUnion":1526,"fn":1527,"ename":1528,"Ġsys":1529,"ud":1530,"CEN":1531,"ude":1532,"Ġdo":1533,"node":1534,"util":1535,"default":1536,"000":1537,"are":1538,"10":1539,"uce":1540,"Ġsequence":1541,"Ġinter":1542,"Linear":1543,"Ġsave":1544,"Ġprocess":1545,"Ġ{\"":1546,"Ġscale":1547,"ody":1548,"keys":1549,"Ġidx":1550,">>":1551,"ake":1552,"LM":1553,"yst":1554,"sent":1555,"Ġwill":1556,"Re":1557,"prefix":1558,"drop":1559,"fo":1560,"indices":1561,"Ġmin":1562,"pretrained":1563,"empty":1564,"sequence":1565,"raph":1566,"CENSE":1567,"Ġus":1568,"old":1569,"Ġtraining":1570,"Ġposition":1571,"goto":1572,"epoch":1573,"ctx":1574,"'s":1575,"Ġcomp":1576,"ze":1577,"Ġtra":1578,"Ġ\"/":1579,"logits":1580,"Se":1581,"Ġla":1582,"igh":1583,"ayer":1584,"LO":1585,"ream":1586,"less":1587,"cord":1588,"eta":1589,"Ġ)":1590,"Ġtqdm":1591,"Ġembedding":1592,"rap":1593,"Ġtool":1594,"ner":1595,"Ġcreate":1596,"AI":1597,"we":1598,"uth":1599,"Ġglobal":1600,"expert":1601,"icro":1602,"(),":1603,"Ġlogits":1604,"enc":1605,"normal":1606,"Dict":1607,"ĠSh":1608,"Ġparams":1609,"'.":1610,"isode":1611,"part":1612,"keep":1613,"Ġaxis":1614,"etun":1615,"features":1616,"og":1617,"Ġhead":1618,"Ġins":1619,"af":1620,"Ġsplit":1621,"uration":1622,"Ġdis":1623,"level":1624,"video":1625,"write":1626,"arning":1627,"RAN":1628,"Di":1629,"sole":1630,"Ġend":1631,"ersion":1632,"Ġlanguage":1633,"open":1634,"ints":1635,"viron":1636,"rt":1637,"Ġwrit":1638,"cpu":1639,"random":1640,"tes":1641,"omain":1642,"ists":1643,"cur":1644,"miss":1645,"ema":1646,"mp":1647,"sets":1648,"timest":1649,"DIA":1650,"datasets":1651,"scores":1652,"ather":1653,"Ġattn":1654,"tain":1655,"Ġbrowser":1656,"Norm":1657,"Ġcor":1658,"AM":1659,"Ġmath":1660,"Ġbuild":1661,"window":1662,"VIDIA":1663,"ystem":1664,"values":1665,"Ġact":1666,"AGE":1667,"exp":1668,"}\"<":1669,"Ġsc":1670,"Ġcheck":1671,"forward":1672,"_(":1673,"lm":1674,"Ġcfg":1675,"Ġsoftware":1676,"mode":1677,"Ġ]<":1678,"ingle":1679,"results":1680,"Ġspecific":1681,"create":1682,"items":1683,"bin":1684,"gment":1685,"ster":1686,"pipeline":1687,"Ġad":1688,"ister":1689,"Ġonly":1690,"IS":1691,"ich":1692,"ĠCOR":1693,"loader":1694,"Ġhttp":1695,"Param":1696,"bs":1697,"pth":1698,"pache":1699,"Ġiter":1700,"not":1701,"Ġmodule":1702,"Ġnode":1703,"ither":1704,"Ġshould":1705,"ĠApache":1706,"=[":1707,"itle":1708,"Ġfil":1709,"Ġoptimizer":1710,"Ġcan":1711,"Ġbut":1712,"blocks":1713,"acy":1714,"vision":1715,"lot":1716,"ĠNVIDIA":1717,"Ġ|":1718,"ĠVersion":1719,"Ġtem":1720,"':<":1721,"ĠOR":1722,"andler":1723,"pected":1724,"Ġlast":1725,"of":1726,"round":1727,"kv":1728,"axis":1729,"agent":1730,"mbed":1731,"top":1732,"Ġ>>>":1733,"ĠException":1734,"Ġ}":1735,"ian":1736,"lied":1737,"los":1738,"ĠCORPOR":1739,"string":1740,"numpy":1741,"ĠCORPORATION":1742,"ateg":1743,"backend":1744,"CH":1745,"rc":1746,"oken":1747,"\\\\":1748,"ĠCON":1749,"Ġwork":1750,"Fa":1751,"bar":1752,"lag":1753,"action":1754,"UL":1755,"heck":1756,"www":1757,"Ġ=>":1758,"ally":1759,"source":1760,"Ġlimit":1761,"Ġ):<":1762,"olution":1763,"abs":1764,"ribut":1765,"Ġeither":1766,"ĠImage":1767,"ĠIf":1768,"buffer":1769,"ient":1770,"episode":1771,"ĠOF":1772,"ĠAN":1773,"locator":1774,">\"\"\"<":1775,"Ġca":1776,"req":1777,"ĠSee":1778,"classes":1779,"Ġmo":1780,"ature":1781,"coding":1782,"dd":1783,"Ġcurrent":1784,"Ġstring":1785,"']<":1786,"replace":1787,"ssion":1788,"ension":1789,"Ġline":1790,"ĠYou":1791,"ĠQ":1792,"rie":1793,"\"],<":1794,"vider":1795,"Ġmean":1796,"tils":1797,"dist":1798,"ĠNot":1799,"Ġpost":1800,"atal":1801,"Pipeline":1802,"Ġimages":1803,"Ġfirst":1804,"entype":1805,"RO":1806,"object":1807,"oice":1808,"rics":1809,"sm":1810,"yle":1811,"Ġweights":1812,"amp":1813,"Ġquatern":1814,"ied":1815,"alc":1816,"factor":1817,"frame":1818,"mark":1819,"Ġapplic":1820,"Ġinspect":1821,"Ġ8":1822,"db":1823,"raw":1824,"strip":1825,"Ġobtain":1826,"Ġvalues":1827,"PU":1828,"root":1829,"images":1830,"Ġvar":1831,"div":1832,"Ġurl":1833,"ĠIS":1834,"IND":1835,"PRE":1836,"ptions":1837,"Ġenum":1838,"Ġwhich":1839,"stant":1840,"Ġmatch":1841,"Ġ{}<":1842,"Ġrequires":1843,"ting":1844,"Ġwindow":1845,"shot":1846,"available":1847,"(),<":1848,"man":1849,"erge":1850,"Ġtim":1851,"reed":1852,"Ġexpress":1853,"embeds":1854,"ĠWAR":1855,"dec":1856,"Ġanswer":1857,"wright":1858,"Ġlambda":1859,"laywright":1860,"Ġextra":1861,"diffusion":1862,"Ġgenerate":1863,"softmax":1864,"Ġembeddings":1865,"Lo":1866,"uous":1867,"https":1868,"table":1869,"vector":1870,"ĠANY":1871,"Ġlabels":1872,"vocab":1873,"Ġfa":1874,"ithub":1875,"----------------":1876,"Ġpadding":1877,"Ġone":1878,"Ġback":1879,"ĠTuple":1880,"fp":1881,"example":1882,"ca":1883,"Ġmpu":1884,"Image":1885,"lient":1886,"TIONS":1887,"Ġmodels":1888,"ĠWARRAN":1889,"pi":1890,"close":1891,"License":1892,"]]":1893,"Ġfeat":1894,"FIX":1895,"Ġlocal":1896,".__":1897,"Ġ..":1898,"Ġwriting":1899,"iled":1900,"Ġlat":1901,"ernel":1902,"ĠWIT":1903,"TIES":1904,"Ġpermiss":1905,"Ġtransformers":1906,"uff":1907,"oth":1908,"ĠWARRANTIES":1909,"names":1910,"processing":1911,"Ġhelp":1912,"xt":1913,"github":1914,"sign":1915,"copy":1916,"Ġhave":1917,"parameters":1918,"llm":1919,"match":1920,"Ġcontent":1921,"LICENSE":1922,"PE":1923,"umm":1924,"used":1925,"\");<":1926,"Mix":1927,"ĠĠĠĠĠĠĠĠĠĠĠĠĠĠĠĠĠĠĠĠĠĠĠĠĠĠĠ":1928,"gine":1929,"Ġasyncio":1930,"Ġpytest":1931,"Ġmain":1932,"liance":1933,"\"\"\"":1934,"Ġapplicable":1935,"Ġargument":1936,"Ġover":1937,"ĠKIND":1938,"HOUT":1939,"Ġusing":1940,"ĠWITHOUT":1941,"Ġcomm":1942,"licenses":1943,"56":1944,"Ġpermissions":1945,"Ġarg":1946,"Ġlaw":1947,"cache":1948,"allable":1949,"Ġinputs":1950,"Ġagreed":1951,"Ġcompliance":1952,"Ġimplied":1953,"Ġgover":1954,"apache":1955,"ĠLicensed":1956,"ĠBAS":1957,"Ġparameters":1958,"DITIONS":1959,"modules":1960,"template":1961,"ĠCONDITIONS":1962,"Ġgoverning":1963,"ĠBASIS":1964,"select":1965,"Ġfol":1966,"Ġmust":1967,"ĠRe":1968,"ĠUnless":1969,"Ġlimitations":1970,"bi":1971,"PREFIX":1972,"Net":1973,"iven":1974,"points":1975,"ĠTransformer":1976,"ataloader":1977,"rol":1978,"(__":1979,"Train":1980,"like":1981,"Ġdocument":1982,"Ġmulti":1983,"linear":1984,"bool":1985,"plet":1986,"Ġdirectory":1987,"ĠModel":1988,"move":1989,"client":1990,"sp":1991,"space":1992,"Ġbet":1993,"Ġformat":1994,"transpose":1995,"Att":1996,"Ġ12":1997,"\").":1998,"number":1999,"AN":2000,"ä¸":2001,"Ġread":2002,"kip":2003,"ones":2004,"024":2005,"Ch":2006,"Ġsupport":2007,"List":2008,"Ġkeep":2009,"types":2010,"proj":2011,"ugging":2012,"description":2013,"ĉĉ":2014,"Ġscal":2015,"stack":2016,"requi":2017,"ript":2018,"ĠUtils":2019,"LU":2020,"mot":2021,"ĠJ":2022,"Ġencoder":2023,"coded":2024,"cket":2025,"TO":2026,"lean":2027,"ivation":2028,"\"):<":2029,"For":2030,"pred":2031,"Ġsamples":2032,"bug":2033,"search":2034,"Ġindices":2035,"iguous":2036,"rand":2037,"Ġmock":2038,"apping":2039,"ODE":2040,"Ġworld":2041,"Ġrequests":2042,"Mixin":2043,"}.":2044,"ĠGPT":2045,"backends":2046,"width":2047,"Scheduler":2048,"Ġfin":2049,"erate":2050,"status":2051,"En":2052,"policy":2053,"fr":2054,"}\\":2055,"ite":2056,"Layer":2057,"DIR":2058,"][":2059,"Ġfound":2060,"Ġgpt":2061,"qa":2062,"ities":2063,"ĠTensor":2064,"quee":2065,"Ġmatrix":2066,"20":2067,"scal":2068,"update":2069,"queeze":2070,"\"),<":2071,"(*":2072,"ors":2073,"Ġtuple":2074,"Ġ6":2075,"ender":2076,"Ġexample":2077,"be":2078,"lease":2079,"Ġsource":2080,"Ġdiffusion":2081,"retro":2082,"Ġresults":2083,"Ġav":2084,"matrix":2085,"ential":2086,"''":2087,"Pre":2088,"txt":2089,"ĠBase":2090,"pha":2091,"reshape":2092,"Ġinto":2093,"button":2094,"filter":2095,"squeeze":2096,"Ġitem":2097,"ED":2098,"ĠDef":2099,"inputs":2100,"Ġcorrect":2101,"return":2102,"perature":2103,"gent":2104,"vec":2105,"Ġconv":2106,"ead":2107,"ndarray":2108,"Token":2109,"body":2110,"arr":2111,"angles":2112,"ckpt":2113,"Ġsharded":2114,"IL":2115,"atio":2116,"ash":2117,"meta":2118,"filename":2119,"ighb":2120,"ench":2121,"Ġoriginal":2122,"obs":2123,"FA":2124,"atter":2125,"files":2126,"lines":2127,"mbedding":2128,"Ġpipeline":2129,"Ġgiven":2130,"Ġvocab":2131,"register":2132,"izes":2133,"rate":2134,"utf":2135,"face":2136,">\"\"\"":2137,"Ġaction":2138,"ĠPy":2139,"inue":2140,"lection":2141,"ift":2142,"Ġenumerate":2143,"ible":2144,"parser":2145,"current":2146,"Ġmode":2147,"Ġother":2148,"ress":2149,"Ġinstance":2150,"Ġoff":2151,"CK":2152,"ulate":2153,"ĠTool":2154,"ULT":2155,"optimizer":2156,"generate":2157,"ampling":2158,"CT":2159,"dis":2160,"Context":2161,"angle":2162,"Base":2163,"ager":2164,"mlp":2165,"An":2166,"Ġent":2167,"exists":2168,"latt":2169,"arm":2170,"uccess":2171,"aded":2172,"Ġdrop":2173,"ĠCom":2174,"Output":2175,"Ġcall":2176,"Ġkeys":2177,"groups":2178,"click":2179,"lax":2180,"ie":2181,"ert":2182,"contiguous":2183,"common":2184,"memory":2185,"tensors":2186,"latten":2187,"Ġnon":2188,"Ġ\"<":2189,"\"))<":2190,"cent":2191,"alled":2192,"Ġneed":2193,"ating":2194,"uct":2195,"Ġwhen":2196,"aster":2197,"99":2198,"flow":2199,"Ġform":2200,"Ġagent":2201,"Ġcalc":2202,"})<":2203,"ampler":2204,"Diffusion":2205,"ssian":2206,"Ġroute":2207,"ategy":2208,"Ġ100":2209,"Ġ>=":2210,"Ġfollow":2211,"ref":2212,"language":2213,"metadata":2214,"Ġprefix":2215,"Ġtr":2216,"SI":2217,"score":2218,"std":2219,"debug":2220,"Ġexist":2221,"Ġvari":2222,"14":2223,"Ġchann":2224,"http":2225,"functional":2226,"Block":2227,"Ġseq":2228,"á´ĩ":2229,"tokentype":2230,"exec":2231,"cos":2232,"ish":2233,"usal":2234,"agic":2235,"ome":2236,"uation":2237,"decoder":2238,"_{":2239,"ick":2240,"wh":2241,"ĠAuto":2242,"agster":2243,"cum":2244,"Ġang":2245,"edit":2246,"Ġ10":2247,"domain":2248,"Ġmake":2249,"ĠDi":2250,"FAULT":2251,"PAGE":2252,"apt":2253,"Ġexp":2254,"=(":2255,"EMPT":2256,"Ġargparse":2257,"Ġany":2258,"Conv":2259,"sqrt":2260,"EMPTY":2261,"gather":2262,"now":2263,"vis":2264,"Ġte":2265,"Ġ(`":2266,"ï¼":2267,"(\"--":2268,"Ġexpert":2269,"Ġzero":2270,"Ġdiff":2271,"llama":2272,"messages":2273,")))<":2274,"fore":2275,"probs":2276,"Arg":2277,"title":2278,"ĠCheck":2279,"engine":2280,"static":2281,"Ġdatasets":2282,"Ġobject":2283,"ĠSharded":2284,"ful":2285,"__(<":2286,"sharded":2287,"edi":2288,"ĠAPI":2289,"ĠBrowser":2290,"Ġenv":2291,"Ġcls":2292,"etune":2293,"({":2294,"plot":2295,"Ġembed":2296,"ĠFor":2297,"Ġ<=":2298,"Ġnormal":2299,"sync":2300,"Ġtrans":2301,"\"],":2302,"01":2303,"lt":2304,"ped":2305,").__":2306,"DO":2307,"Ġsav":2308,"classmethod":2309,"comp":2310,"State":2311,"dition":2312,"Ġroot":2313,"aussian":2314,"ET":2315,"ey":2316,"Ġstat":2317,"Ġexec":2318,"resh":2319,"igma":2320,"Ġstride":2321,"Ġmessages":2322,"first":2323,"ify":2324,"wo":2325,"Ġeps":2326,"stra":2327,"Ġapi":2328,"ðĿ":2329,"environ":2330,"Ġsame":2331,"bytes":2332,"55":2333,"rag":2334,"lap":2335,"Ġrotation":2336,"compute":2337,"tim":2338,"apply":2339,"mul":2340,"multi":2341,"ility":2342,"workers":2343,"ĠPro":2344,"initial":2345,"\"].":2346,"ĠRetro":2347,"Ġinitial":2348,"optim":2349,"lector":2350,"provider":2351,"ĠPar":2352,"va":2353,"Ġ$":2354,"led":2355,"Ġ\"\"<":2356,"scheduler":2357,"ĠCh":2358,"Ġcontain":2359,"},":2360,"ĠĠĠĠĠĠĠĠĠĠĠĠĠĠĠĠĠĠĠĠĠĠ":2361,"34":2362,"Ġso":2363,"qual":2364,"Ġdist":2365,"Tokenizer":2366,"Ġplaywright":2367,"vided":2368,"staticmethod":2369,"100":2370,"handle":2371,"Ġdropout":2372,"istory":2373,"oices":2374,"wrap":2375,"Ġ2024":2376,"Process":2377,"uid":2378,"ĠDataset":2379,"losses":2380,"CON":2381,"MA":2382,"Ġframe":2383,"script":2384,"</":2385,"PO":2386,"rep":2387,"decode":2388,")]<":2389,"lambda":2390,"rad":2391,"ĠTest":2392,"ĠPIL":2393,".,":2394,"very":2395,"ĠCallable":2396,"swers":2397,"Ġtimest":2398,"correct":2399,"NAM":2400,"Ġá´":2401,"ank":2402,"ises":2403,"Ġimplement":2404,"celer":2405,"Ġlr":2406,"reduce":2407,"book":2408,"'t":2409,"entity":2410,"Ġctx":2411,"olver":2412,"The":2413,"Ġquestion":2414,"Ġreg":2415,"total":2416,"backward":2417,"Ġ2023":2418,"Loader":2419,"gn":2420,"next":2421,"(\"/":2422,"opt":2423,"}/":2424,"quant":2425,"Bu":2426,"Ġ7":2427,"older":2428,"vari":2429,"Ġpatch":2430,"handler":2431,"Ġinst":2432,"build":2433,"Ġwhile":2434,"vars":2435,"\"][\"":2436,"rng":2437,"Ġab":2438,"ustom":2439,"Ġseed":2440,"untime":2441,"asset":2442,"uments":2443,"ason":2444,"Ġdat":2445,"ĠWe":2446,"Ġmetadata":2447,"python":2448,"Gener":2449,"cross":2450,"batches":2451,"ĠDefault":2452,"lama":2453,"Ġ),<":2454,"Ġutils":2455,"Ġexc":2456,"grid":2457,"transformers":2458,"Im":2459,"ox":2460,"itude":2461,"Ġrecord":2462,"('--":2463,"column":2464,"ODEL":2465,")):<":2466,"Ret":2467,"Ġconsole":2468,"Ġfiles":2469,"inference":2470,"cam":2471,"down":2472,"graph":2473,"encode":2474,"Ġtransformer":2475,"Ġoptional":2476,"timesteps":2477,"tuple":2478,"order":2479,"chedule":2480,"ATA":2481,"Ġtable":2482,"Ġmemory":2483,"dio":2484,"ĠSet":2485,"mm":2486,"math":2487,"04":2488,"Ġconvert":2489,"orage":2490,"Ġdownload":2491,"andb":2492,"perm":2493,"frames":2494,"cast":2495,"alf":2496,"'])<":2497,"pass":2498,"chat":2499,"Un":2500,"Ġmagic":2501,"Ġepoch":2502,"Ġrow":2503,"wise":2504,"ratio":2505,"Ġnext":2506,"pp":2507,"uture":2508,"Ġdoes":2509,"lete":2510,"conne":2511,"decay":2512,"cision":2513,"Ġvector":2514,"Ġoutputs":2515,"grams":2516,"50":2517,"EY":2518,"OT":2519,"download":2520,"paths":2521,"Ġkernel":2522,"reak":2523,".\"<":2524,"ĠAtt":2525,"ĠGener":2526,"AD":2527,"Ġdimension":2528,"vents":2529,"çļ":2530,"choice":2531,"verage":2532,"abled":2533,"jection":2534,"users":2535,"Ġquaternion":2536,"çļĦ":2537,"auto":2538,"event":2539,"vel":2540,"initialize":2541,"Ġcaption":2542,"ique":2543,"leg":2544,"Ġhandle":2545,"uffle":2546,"Ġfollowing":2547,"Ġlabel":2548,"11":2549,"EX":2550,"Ġsum":2551,"swith":2552,"ino":2553,"orted":2554,"Ġcompute":2555,"Ġcontinue":2556,"dataloader":2557,"pack":2558,"Ġwidth":2559,"lation":2560,"ropy":2561,"De":2562,"record":2563,"Ġprovided":2564,"ared":2565,"},<":2566,")).":2567,"inv":2568,"ĠGet":2569,"RL":2570,"wd":2571,"gt":2572,"Ġapply":2573,"stract":2574,"KEY":2575,"imple":2576,"ĠCreate":2577,"Ġexpected":2578,"Ġallow":2579,"MODEL":2580,"sin":2581,"lip":2582,"Ġ--":2583,"levant":2584,"email":2585,">_":2586,"gpu":2587,"lta":2588,"por":2589,"Ġsq":2590,"umber":2591,"unsqueeze":2592,"Embedding":2593,"det":2594,"Ġfinal":2595,"corer":2596,"ĠGPU":2597,"Path":2598,"full":2599,"role":2600,"attern":2601,"Ġdecoder":2602,"tools":2603,"dum":2604,"fter":2605,"Ġscore":2606,"propert":2607,"Ġpathlib":2608,"Parallel":2609,"][\"":2610,"flag":2611,"present":2612,"fin":2613,"Ġsystem":2614,"ries":2615,"Ġzip":2616,")[":2617,"Ġsession":2618,"lower":2619,"host":2620,"verse":2621,"\"\\":2622,"lem":2623,"rier":2624,"Str":2625,"stage":2626,"quential":2627,"prod":2628,"rieval":2629,"Ġencoding":2630,"Ġmetrics":2631,"AB":2632,"sim":2633,"Ġlayers":2634,"arange":2635,"Ġprob":2636,"To":2637,"fc":2638,"cted":2639,"\"][":2640,"'].":2641,"ĠTask":2642,"forms":2643,"msg":2644,"masked":2645,"ier":2646,"ĠRes":2647,"ified":2648,"logging":2649,"ular":2650,"obj":2651,"Ġwhere":2652,"Ġpoints":2653,"Ġ\"__":2654,"Ġsin":2655,"etime":2656,"curacy":2657,"NAME":2658,"freq":2659,"ug":2660,"clude":2661,"ribute":2662,"Head":2663,"Ġvideo":2664,"plement":2665,"Ġorder":2666,"68":2667,"Ġtwo":2668,"Ġsingle":2669,"flatten":2670,"Ġman":2671,"diction":2672,"feature":2673,"KEN":2674,"22":2675,"ground":2676,"Ġpipe":2677,"Ġelement":2678,"Attention":2679,"do":2680,"edge":2681,"Ġmerge":2682,"Ġsteps":2683,"avg":2684,"Ġheight":2685,"GPT":2686,"ics":2687,"dirname":2688,"Ġraw":2689,"stop":2690,"Ġarguments":2691,"Test":2692,"only":2693,"mult":2694,"sys":2695,"ween":2696,"Ġbutton":2697,"Form":2698,"etch":2699,"tings":2700,"++":2701,"Com":2702,"Ġdescription":2703,"struction":2704,"case":2705,"(\"\\":2706,"apter":2707,"Text":2708,"ora":2709,"style":2710,"impl":2711,"ĠTO":2712,"numel":2713,"color":2714,"experts":2715,"Ġiteration":2716,"TOKEN":2717,"YPE":2718,"bit":2719,"unch":2720,"Ġsent":2721,"sv":2722,"clip":2723,"Ġ2022":2724,"offsets":2725,"cker":2726,"Ġ},<":2727,"Sh":2728,"API":2729,"armup":2730,"long":2731,"padding":2732,"CHE":2733,"cript":2734,"stream":2735,"serv":2736,"Ġpred":2737,"epochs":2738,"partition":2739,"non":2740,"ord":2741,"Ġtre":2742,"lear":2743,"ĠPre":2744,"plan":2745,"ummy":2746,"15":2747,"yz":2748,"Ġjo":2749,"afet":2750,"ages":2751,"ĠĠĠĠĠĠĠĠĠĠĠĠĠĠĠĠĠĠĠĠĠĠĠĠĠĠĠĠĠĠĠĠĠĠĠĠĠĠĠĠ":2752,"final":2753,"Ġred":2754,"FIG":2755,"Po":2756,"Ġclient":2757,"Ġsrc":2758,"[:-":2759,"channel":2760,"30":2761,"84":2762,"Ġbreak":2763,"ĠEn":2764,"vironment":2765,"direct":2766,"option":2767,"unct":2768,"air":2769,"Ġbetween":2770,"Megatron":2771,"kpt":2772,"src":2773,"original":2774,"Ġfp":2775,"Ġ\"\\":2776,"Ġdagster":2777,"ical":2778,"pytest":2779,"Ġselect":2780,":\\":2781,"medi":2782,"Ġign":2783,"Ġupdate":2784,"legacy":2785,"micro":2786,"__\":<":2787,"Ġtensors":2788,"ĠHugging":2789,"Ġobs":2790,"truth":2791,"Ġ16":2792,"Ġtests":2793,"eff":2794,"hook":2795,"Ġfilter":2796,"istr":2797,"Ġ{'":2798,"ĠMegatron":2799,"Parameter":2800,"manual":2801,"tag":2802,"uch":2803,"permute":2804,"lections":2805,"Ġ(\"":2806,"(\".":2807,"odal":2808,"cessed":2809,"Ġ```":2810,"moe":2811,"Ġbased":2812,"Request":2813,"Ġtemperature":2814,"WOR":2815,"bench":2816,"depth":2817,"reward":2818,"road":2819,"Ġcur":2820,"Ġpoint":2821,"browser":2822,"amed":2823,"Ġtypes":2824,"detach":2825,"cv":2826,"Ġge":2827,"height":2828,"acc":2829,":%":2830,"cut":2831,"Ġ['":2832,"Ġpartial":2833,"offset":2834,"TS":2835,"Ġversion":2836,"Ġfind":2837,"raises":2838,"Ġassign":2839,"Ġstream":2840,"ools":2841,"Ġarray":2842,"md":2843,"Ġlin":2844,"Ġalpha":2845,"bone":2846,"late":2847,"single":2848,"hether":2849,"Ġkwargs":2850,"etuning":2851,"send":2852,"ĠLo":2853,"words":2854,"tails":2855,"sizes":2856,"entropy":2857,"Ġword":2858,"Float":2859,"Set":2860,"ĠCLI":2861,"Cont":2862,"generator":2863,"Exception":2864,"reshold":2865,"(_":2866,"BAL":2867,"Transformer":2868,"ose":2869,"Ġclean":2870,"peed":2871,"parent":2872,"Ġgetattr":2873,"headers":2874,"location":2875,"chunks":2876,"Response":2877,"trf":2878,"udent":2879,"rary":2880,"Ġtmp":2881,"Ġflag":2882,"Ġ\".":2883,"uring":2884,"################################":2885,":.":2886,"dif":2887,"ctionary":2888,"project":2889,"ĠIm":2890,"property":2891,"]):<":2892,"chain":2893,"pare":2894,"caten":2895,"struct":2896,"Ġrepresent":2897,"TH":2898,"utor":2899,"Ġpack":2900,"CONFIG":2901,"segment":2902,"Ġbody":2903,"Ġ(...,":2904,"ï¼Į":2905,"ME":2906,"blob":2907,"fer":2908,"unter":2909,"throp":2910,"Ġstd":2911,"Implement":2912,"RI":2913,"imum":2914,"Ġinference":2915,"ributes":2916,"Ġtimers":2917,"thropic":2918,"Fore":2919,"Mask":2920,"Ġscheduler":2921,"Ġafter":2922,"Ġthan":2923,"Ġtasks":2924,"Face":2925,"TER":2926,"lass":2927,"Ġsk":2928,"questions":2929,"metrics":2930,"bert":2931,"LOBAL":2932,"Ġfield":2933,"jsonl":2934,"ATE":2935,"motion":2936,"ighbor":2937,"era":2938,"remove":2939,"idual":2940,"riter":2941,"Logger":2942,"LayerNorm":2943,"master":2944,"tree":2945,"peat":2946,"Ġ1024":2947,"rotation":2948,"Ġangle":2949,"ym":2950,"Éª":2951,"ĠDE":2952,"iteration":2953,"eded":2954,"Ġckpt":2955,"Ġ'{":2956,"masks":2957,"**/":2958,"ĠTODO":2959,")}":2960,"ĠX":2961,"Ġaverage":2962,"constant":2963,"Ġchange":2964,"positions":2965,"ĠParam":2966,"roadcast":2967,"LP":2968,"sdf":2969,"ten":2970,"Ġgt":2971,"Ġfilename":2972,"Ġext":2973,"Ġ'.":2974,"prompts":2975,"Ġfailed":2976,"tmp":2977,"queries":2978,"Ġgradient":2979,"Ġblocks":2980,"Ġignore":2981,"system":2982,"Ġ&":2983,"Ġcre":2984,"ĠLI":2985,"plete":2986,"Ġparse":2987,"Ġbucket":2988,"activation":2989,"ĠHuggingFace":2990,"ene":2991,"dest":2992,"Ġplt":2993,"Ġcondition":2994,"Ġbefore":2995,"Ġ:,":2996,"Ġbuffer":2997,"Ġcollections":2998,"Ġscaled":2999,"wer":3000,"Ġinfo":3001,"tokentypes":3002,"just":3003,"Ġretrie":3004,"vious":3005,"PRO":3006,"sup":3007,"selector":3008,"Ġdec":3009,"ĠShardedTensor":3010,"jang":3011,"edError":3012,"diff":3013,"ĠType":3014,"Ġquaternions":3015,"pri":3016,"Ġepisode":3017,"inst":3018,"__)<":3019,"ĠDe":3020,"80":3021,"DP":3022,"`<":3023,"dp":3024,"Ġthen":3025,"aiss":3026,"sql":3027,"jango":3028,"PL":3029,"ĠRot":3030,"Ġprod":3031,"Ġits":3032,"Ġprompts":3033,"Ġvalidation":3034,"store":3035,"Ġmore":3036,"Ġnet":3037,"Ġoptim":3038,"dataclass":3039,"pletion":3040,"CE":3041,"Ġpick":3042,"Ġskip":3043,"formation":3044,"Ġdepth":3045,"Ġconfiguration":3046,"ources":3047,"ĠNotImplement":3048,"Ġdiffusers":3049,"roll":3050,"Ġclos":3051,"mock":3052,"ĠInc":3053,"ledge":3054,"ĠNotImplementedError":3055,"ci":3056,"adapter":3057,"Ġ_,":3058,"ields":3059,"issing":3060,"globals":3061,"ency":3062,"Ġfeature":3063,"har":3064,"Ġ9":3065,"Ġemb":3066,"CO":3067,"assed":3068,"Ġids":3069,"Ġscores":3070,"session":3071,"Ġpredict":3072,"'):<":3073,"alog":3074,"Ġduring":3075,"ĠLayer":3076,"ĠOpen":3077,"annot":3078,"Ġlicense":3079,"Ġpositions":3080,"ĠNote":3081,"ASE":3082,"Dropout":3083,"ness":3084,"ars":3085,"Ġwas":3086,"pop":3087,"pool":3088,"resource":3089,"={\"":3090,"File":3091,"Ob":3092,"png":3093,"Ġquat":3094,"Ġ[`":3095,"processor":3096,"barrier":3097,"Ġtreetune":3098,"Function":3099,"half":3100,"Ġfull":3101,"Ġsign":3102,"Ġenvironment":3103,"fill":3104,"Ġu":3105,"ative":3106,"ery":3107,"distance":3108,"dims":3109,"Ġextract":3110,"%%":3111,"36":3112,"qkv":3113,"true":3114,"Ġter":3115,"rices":3116,"jector":3117,"library":3118,"'''<":3119,"Processor":3120,"Col":3121,"play":3122,"Ġcase":3123,"loads":3124,"Parser":3125,"Ġsoftmax":3126,"afety":3127,"fra":3128,"folder":3129,"ik":3130,"ortcut":3131,"Ġcolumn":3132,"Ġsaved":3133,"celerate":3134,"catenate":3135,"uter":3136,"ĠĠĠĠĠĠĠĠĠĠĠĠ":3137,"olve":3138,"Ġyour":3139,"ready":3140,"Ġhasattr":3141,"Ġdatetime":3142,">}<":3143,"ire":3144,"ork":3145,"hel":3146,"Ġcustom":3147,"Exec":3148,"options":3149,"Ġ'<":3150,"Ġcolor":3151,"Ġheaders":3152,"hf":3153,"É´":3154,"loaded":3155,"Ġ\",":3156,"queue":3157,"Ġrad":3158,"ĠID":3159,"Ġacross":3160,"Ġmatrices":3161,"ĠQu":3162,"examples":3163,"Ġsupported":3164,"unctools":3165,"delete":3166,"Ġbin":3167,"cope":3168,"pytorch":3169,"outputs":3170,"anner":3171,"Ġindexed":3172,"ĠConvert":3173,"area":3174,"Ġmultiple":3175,"DATA":3176,"chedul":3177,"á´ı":3178,"DEFAULT":3179,"Ġcount":3180,"Factory":3181,"bl":3182,"Ġtree":3183,"Ġreference":3184,"Ġsuc":3185,"expected":3186,"Ġllm":3187,"ĠInit":3188,"make":3189,"Ġevaluation":3190,"Not":3191,"eger":3192,"Ġpretrained":3193,"ait":3194,"mit":3195,"Ġver":3196,"answers":3197,"Ġremove":3198,"dictions":3199,"shift":3200,"================================":3201,"Ġoffset":3202,"OP":3203,"Ġæ":3204,"Ġtitle":3205,"alid":3206,"Ġfunctools":3207,"Ġdomain":3208,"lava":3209,"cret":3210,"Ġfew":3211,"Ġmicro":3212,"uman":3213,"istant":3214,"Ġsearch":3215,"fferent":3216,"ification":3217,"Agent":3218,"Get":3219,"find":3220,"gress":3221,"merge":3222,"exit":3223,"ume":3224,"ĠTe":3225,"Ġho":3226,"ability":3227,"mini":3228,"asic":3229,"Ġdataclasses":3230,"bucket":3231,"temp":3232,"history":3233,"pend":3234,"arge":3235,"Ġau":3236,"ĠConfig":3237,"Ġactivation":3238,"oid":3239,"ans":3240,"Ġnames":3241,"ĠAdd":3242,"web":3243,"ĠTransformerConfig":3244,"Ġsorted":3245,"entry":3246,"ĠSample":3247,"Ġexpect":3248,"Ġpython":3249,"ĠDataLoader":3250,"Key":3251,"actions":3252,"pdf":3253,"})":3254,"Ġwrite":3255,"egative":3256,"Params":3257,"(**":3258,"`,":3259,"few":3260,"inner":3261,"timeout":3262,"Ġgenerated":3263,"Ġavailable":3264,"IM":3265,"]))<":3266,"pg":3267,"arx":3268,"Ġwandb":3269,"ĠCol":3270,"Ġhere":3271,"Ġdictionary":3272,"ables":3273,"required":3274,"warning":3275,"ĠZ":3276,"aml":3277,"Ġdir":3278,"interval":3279,"FloatTensor":3280,"ib":3281,"Ġreplace":3282,"Ġ\\\\":3283,"uggingface":3284,"Object":3285,"05":3286,"hat":3287,"Ġspecified":3288,"timestamp":3289,"aly":3290,"ensure":3291,"console":3292,"Ġcomput":3293,"grads":3294,"ĠStep":3295,"Ġchunks":3296,"openai":3297,"Check":3298,"Ġtf":3299,"joint":3300,"Ġchannel":3301,"ili":3302,"Ġmapping":3303,"Ġsetup":3304,"factory":3305,"arxiv":3306,"Ġpd":3307,"ĠTrain":3308,"jectory":3309,"Ġparameter":3310,"lush":3311,"requires":3312,":]<":3313,"MS":3314,"This":3315,"Ġopt":3316,"nowledge":3317,"03":3318,"free":3319,"convert":3320,"Ġ'''":3321,"clone":3322,"CLI":3323,"Ġcurr":3324,"directory":3325,"ensions":3326,"ĠCor":3327,"Ġexists":3328,"Ġ32":3329,"Ġfree":3330,"ĠAgent":3331,"checkpointing":3332,"Ġ{}'.":3333,"Ġscript":3334,"Ġkeepdim":3335,"Arguments":3336,"'],":3337,"eed":3338,"Ġcos":3339,"Ġcrop":3340,"ifier":3341,"Ġencoded":3342,"Ġrunning":3343,"istry":3344,"Reg":3345,"clean":3346,"warmup":3347,"Ġvi":3348,"roy":3349,"Ġpool":3350,"ested":3351,"prev":3352,"metric":3353,"Ġ``":3354,"startswith":3355,"25":3356,"Ca":3357,"]).":3358,"aut":3359,"hash":3360,"Ġcache":3361,"Ġsuccess":3362,"buf":3363,"Ġnoise":3364,"Ġteam":3365,"arrange":3366,"Ġmlp":3367,"lice":3368,"Ġdistance":3369,"Ġsegment":3370,"Ġshuffle":3371,"Ġjnp":3372,"SET":3373,"Sequential":3374,"UM":3375,"beta":3376,"Ġmap":3377,"Ġref":3378,"Ġinformation":3379,"Ġsigma":3380,"Ġoper":3381,"ĠNumber":3382,"kele":3383,"tracker":3384,"Ġfeatures":3385,"bot":3386,"Ġ\"--":3387,"Ġreal":3388,"Ġold":3389,"Ġtimeout":3390,"Ġ{}\".":3391,"Resource":3392,"expand":3393,"17":3394,"Le":3395,"curr":3396,"ients":3397,"}'":3398,"left":3399,"Ġsampling":3400,"Ġrender":3401,"á´Ľ":3402,"ĠSequence":3403,"foo":3404,"#<":3405,"USE":3406,"ĠLLM":3407,"itional":3408,"Ġyield":3409,"tests":3410,"Ġmeans":3411,"iform":3412,"ks":3413,"neg":3414,"Ġå":3415,"assert":3416,"extend":3417,"shared":3418,"ments":3419,"retrie":3420,"Ġgroups":3421,"docs":3422,"Ġchannels":3423,"pipe":3424,"}{":3425,"~~":3426,"stom":3427,"unet":3428,"Ġdataclass":3429,"Ġlm":3430,"custom":3431,"****":3432,"ĠPython":3433,"keleton":3434,">):<":3435,"FO":3436,"kernel":3437,"none":3438,"strategy":3439,"ĠError":3440,"Ġinitialize":3441,"patches":3442,"Ġtraj":3443,"icrosoft":3444,"Ġcalculate":3445,"ÊĢ":3446,"Ġfix":3447,"edir":3448,"ĠĠĠĠĠĠĠĠĠĠĠĠĠĠĠĠĠĠĠĠĠĠĠĠĠĠĠĠĠĠĠ":3449,"lengths":3450,"ĠLICENSE":3451,"Time":3452,"_,":3453,"element":3454,"ia":3455,"Ġwithout":3456,"arguments":3457,"Ġbuil":3458,"lative":3459,"compile":3460,"cy":3461,"}:":3462,"Ġneg":3463,"Ġdone":3464,"ĠUp":3465,"Ġlatent":3466,"center":3467,"\"[":3468,"ableDiffusion":3469,"ĠWh":3470,"ourse":3471,"ummary":3472,"pers":3473,"so":3474,"sigma":3475,"Ġ64":3476,"ĠAd":3477,"tokenize":3478,"mov":3479,"/{":3480,"Value":3481,"router":3482,"Ġsm":3483,"Ġevent":3484,"ĠOutput":3485,"ĠTeam":3486,"Ġschedule":3487,"Ġdown":3488,"licate":3489,"traj":3490,"after":3491,"ĠDefaults":3492,"256":3493,"Ġar":3494,"Ġutil":3495,"Ġstop":3496,"ĠMicrosoft":3497,"Ġproject":3498,"Frame":3499,"Message":3500,"Qu":3501,"UN":3502,"Ġedit":3503,"Invalid":3504,"Encoder":3505,"scaling":3506,"usalLM":3507,"Ġsentence":3508,">__":3509,"sset":3510,"Ġden":3511,"Ġthem":3512,"Ġbs":3513,"Ġwarning":3514,"umentParser":3515,"mak":3516,"Ġconvention":3517,"CHECK":3518,"-<":3519,"tf":3520,"Ġcam":3521,"Ġaff":3522,"stats":3523,"Ġalready":3524,"UD":3525,"megatron":3526,"reason":3527,"itive":3528,"Ġindi":3529,"Ġsure":3530,"Ġwrap":3531,"Ġlinear":3532,"stribution":3533,"ocket":3534,"Ġtools":3535,"Generator":3536,"stractmethod":3537,"Ġclosd":3538,"96":3539,"PAT":3540,"Ġheads":3541,"alpha":3542,"Ġngrams":3543,"Ġbeta":3544,"destroy":3545,"18":3546,"flat":3547,"zy":3548,"Ġpassed":3549,"Ġsim":3550,"ilar":3551,"Ġconne":3552,"ĠLoad":3553,"infos":3554,"checkpoints":3555,"Ġgrid":3556,"ĠDEFAULT":3557,"enter":3558,"quaternion":3559,"Run":3560,"Ġloaded":3561,"ĠFlax":3562,"IG":3563,"Spec":3564,"avi":3565,"hub":3566,"sd":3567,"Ġqueries":3568,"Ġcalled":3569,"program":3570,"usage":3571,"Ġprogram":3572,"Ġgenerator":3573,"Ġfinetuning":3574,"mediate":3575,"Ġpickle":3576,"'))<":3577,"Load":3578,"PA":3579,"}\",":3580,"Ġtp":3581,"reset":3582,"servation":3583,"ĠImport":3584,"13":3585,"nown":3586,"Ġview":3587,"ater":3588,"choices":3589,"Ġstatus":3590,"With":3591,"sg":3592,"success":3593,"ession":3594,"ĠIndex":3595,"Ġ512":3596,"visible":3597,"CausalLM":3598,"ons":3599,"Ġdataloader":3600,"Ġ*<":3601,"ĠMulti":3602,"oute":3603,"small":3604,"ForCausalLM":3605,"finish":3606,"done":3607,"seen":3608,"Ġtak":3609,"concatenate":3610,"ĠText":3611,"Ġ1000":3612,"Ġstrict":3613,"ENT":3614,"board":3615,"astype":3616,"ĠExample":3617,"iteral":3618,"manager":3619,"poration":3620,"ĠCorporation":3621,"edirs":3622,"Field":3623,"mapping":3624,"xyz":3625,"Ġchoices":3626,"ĠĠĠĠĠĠĠĠĠĠĠĠĠĠĠĠĠĠĠĠĠĠĠĠĠĠ":3627,"Ġtrunc":3628,"({\"":3629,":\",":3630,"Id":3631,"ngram":3632,"ĠĠĠĠĠĠĠĠĠ":3633,"workspace":3634,"Ġqkv":3635,"iterator":3636,"Ġrotary":3637,"').":3638,"future":3639,"hot":3640,"kl":3641,"encoding":3642,"show":3643,"Ġrate":3644,"Ġrotations":3645,"Ġvalidate":3646,"document":3647,"objects":3648,"GLOBAL":3649,"tp":3650,"alys":3651,"Ġcast":3652,"tolist":3653,"setup":3654,"getenv":3655,"Ġground":3656,"bose":3657,"Ġtargets":3658,"Ġbackward":3659,"randn":3660,"inov":3661,"alysis":3662,"cing":3663,"Ġrep":3664,"ĠMo":3665,"Ġbeen":3666,"latitude":3667,"Ġbetas":3668,"Build":3669,"zip":3670,"Ġlevel":3671,"enum":3672,"threshold":3673,"Ġimplementation":3674,"Ġinstall":3675,"1024":3676,"78":3677,":]":3678,"Ad":3679,"ID":3680,"bf":3681,"dot":3682,"ect":3683,"Ġflush":3684,"Ġinclude":3685,"Ġstyle":3686,"Ġmethods":3687,"sn":3688,"sampling":3689,"vit":3690,"Ġmy":3691,"Ġloc":3692,"Ġstates":3693,"ĠIter":3694,"agen":3695,"Ġcommand":3696,"Trained":3697,"19":3698,"bins":3699,"light":3700,"Ġfreq":3701,"Ġmult":3702,"lism":3703,"Ġdifferent":3704,"ĠIN":3705,"parameter":3706,"delta":3707,"allen":3708,"Ġmissing":3709,"Ġtorchvision":3710,"stride":3711,"Ġjust":3712,"ns":3713,"optional":3714,"enable":3715,"let":3716,"idget":3717,"texts":3718,"Ġrng":3719,"Ġshift":3720,"Ġprevious":3721,"END":3722,"transforms":3723,"blem":3724,"callback":3725,"Ġdisable":3726,"dumps":3727,"PP":3728,"Sampler":3729,"dat":3730,"gelu":3731,"ĠPer":3732,"06":3733,"Ġreset":3734,"izers":3735,"Ġglob":3736,"Ġdatabase":3737,"allelism":3738,"complete":3739,"Ġchar":3740,"Ġneeded":3741,"Ġopenai":3742,"Preprocessing":3743,"Ġlines":3744,"her":3745,"insert":3746,"unit":3747,"unic":3748,"())":3749,"predict":3750,"buil":3751,"Ġranks":3752,"audio":3753,"Loss":3754,"24":3755,"Man":3756,"ius":3757,"side":3758,"Ġrearrange":3759,"Ġnow":3760,"Ġsp":3761,"Ġtransforms":3762,"512":3763,"pattern":3764,"æķ":3765,"repeat":3766,"Ġclo":3767,"Ġsdf":3768,"Ġtheir":3769,"conds":3770,"ride":3771,"../":3772,"temperature":3773,"77":3774,"Ġensure":3775,"deg":3776,"Ġfunc":3777,"uest":3778,"Ġhy":3779,"Ġstage":3780,"Ġtokentype":3781,"worker":3782,"Ġpaths":3783,"Ġgeneration":3784,"normalize":3785,"ĠBrowserContext":3786,"::":3787,"]):":3788,"Ġclip":3789,"tocol":3790,"Ġasset":3791,"Ġhandler":3792,"resolution":3793,"urls":3794,"Input":3795,"--------------------------------":3796,"orig":3797,"Ġmerged":3798,"render":3799,"Ġ).":3800,"Ġempty":3801,"exception":3802,"scatter":3803,"Ġmasked":3804,"Result":3805,"WORK":3806,"Server":3807,"`.<":3808,"bers":3809,"schedul":3810,"Ġlike":3811,"reen":3812,"anh":3813,"gest":3814,"Ġ200":3815,"sentence":3816,"support":3817,"makedirs":3818,"PreprocessingConfig":3819,")),":3820,"CA":3821,"ZE":3822,"ell":3823,"projection":3824,"Ġ255":3825,"ĠMLP":3826,"obot":3827,"á´Ģ":3828,"Index":3829,"caption":3830,"Ġregister":3831,"BASE":3832,"âĶ":3833,"Ġlibrary":3834,"Ġtrue":3835,"leep":3836,"Ġrelevant":3837,"Ġsecond":3838,"Ġprecision":3839,"aved":3840,"ignore":3841,"command":3842,"ĠĠĠĠĠĠĠĠĠĠĠĠĠĠĠĠĠĠĠĠĠĠĠĠĠĠĠĠĠ":3843,"allenge":3844,"200":3845,"Ġ''":3846,"Ġjax":3847,"idxs":3848,"Ġloader":3849,"Ġperform":3850,"trace":3851,"nodes":3852,"Ġcontaining":3853,"\"}":3854,"TRA":3855,"bits":3856,"skip":3857,"redirect":3858,"imodal":3859,"Ġcover":3860,"Ġthread":3861,"Ġenc":3862,"Ġ128":3863,"Ġexecution":3864,"DF":3865,"Torch":3866,"Tuple":3867,"jit":3868,"{}":3869,"Ġ],<":3870,"Ġsome":3871,"cook":3872,"Ġcons":3873,"pher":3874,"cloud":3875,">]<":3876,"åı":3877,"real":3878,"Ġdjango":3879,"Ġretrieval":3880,"Ġforce":3881,"(\"#":3882,"omet":3883,"Ġ20":3884,"allback":3885,"123":3886,"CL":3887,"LD":3888,"lens":3889,"Ġgo":3890,"respon":3891,"rotary":3892,"connection":3893,"SC":3894,"tri":3895,"vant":3896,"ÊŁ":3897,"alt":3898,"getitem":3899,"ĠMeta":3900,"logs":3901,"locity":3902,"Ġtemp":3903,"UDA":3904,"educe":3905,"Ġreward":3906,"ĠAp":3907,"ĠĠĠĠĠĠĠĠĠĠĠĠĠĠĠĠĠ":3908,"Ġdel":3909,"gradient":3910,"mote":3911,"uidance":3912,"lst":3913,"ulation":3914,"getLogger":3915,"Ġloop":3916,"ĠGaussian":3917,"problem":3918,"Trainer":3919,"fully":3920,"ĠRotation":3921,"No":3922,"`):<":3923,"`):":3924,"Ġ\"_":3925,"Ġdf":3926,"ĠTYPE":3927,"perim":3928,"ESS":3929,"need":3930,"oled":3931,"pleted":3932,"csv":3933,"arn":3934,"Ġinner":3935,"expect":3936,"Ġlos":3937,"oment":3938,"ĠFile":3939,"ĠRoute":3940,"Ġevaluate":3941,"CHECKING":3942,"Node":3943,"job":3944,"Ġet":3945,"change":3946,"Ġio":3947,"Ġboth":3948,"lick":3949,"ilon":3950,"ester":3951,"ffers":3952,"ĠPo":3953,"Ġlight":3954,"ynam":3955,"Ġprovide":3956,"Ġgradients":3957,"Ġadjust":3958,"Ġangles":3959,"BO":3960,"Event":3961,"section":3962,"Ġconstant":3963,"ĠUse":3964,"Sharded":3965,"Policy":3966,"Manager":3967,"æķ°":3968,"!]":3969,"URL":3970,"Ġquant":3971,"Ġtk":3972,"relevant":3973,"allow":3974,"lems":3975,"Ġds":3976,"Ġass":3977,"rant":3978,"(\"**/":3979,"ĠInput":3980,"ĠConv":3981,"Ġsaving":3982,"Ġlicensed":3983,"48":3984,"User":3985,"Var":3986,"fused":3987,"ts":3988,"ters":3989,"ulf":3990,"ended":3991,"Ġwant":3992,"Ġ((":3993,"ĠĠĠĠĠĠĠĠĠĠĠĠĠĠĠĠĠĠĠĠĠ":3994,"\"]:<":3995,"Ġanswers":3996,"control":3997,"account":3998,"summ":3999,"lug":4000,"camera":4001,"Ġlosses":4002,"\"),":4003,"HE":4004,"Th":4005,"cre":4006,"ws":4007,"xic":4008,"coll":4009,"Ġhistory":4010,"Ġdelta":4011,"Ġwithin":4012,"Ġunique":4013,"accuracy":4014,"Ġmasks":4015,"Ġfunctions":4016,"ĠCompute":4017,"ĠDiffusion":4018,"hello":4019,"ĠColumn":4020,"Client":4021,"Open":4022,"pc":4023,"åĪ":4024,"stable":4025,"clu":4026,"ĠRep":4027,"\"])":4028,"ĠOllama":4029,"noise":4030,"special":4031,"\"}<":4032,">{":4033,"Optimizer":4034,"PUT":4035,"sleep":4036,"Ġport":4037,"Ġfused":4038,"Ġgraph":4039,"Ġsend":4040,"latent":4041,"={<":4042,"Ġtrack":4043,"MScheduler":4044,"SS":4045,"every":4046,"jpg":4047,"ops":4048,"æľ":4049,"Ġpl":4050,"ĠĠĠĠĠĠĠĠĠĠĠĠĠ":4051,"ranch":4052,"(\"<":4053,"()[":4054,"egab":4055,"Ġunet":4056,"Ġtimesteps":4057,"ĠOpenAI":4058,"GB":4059,"Ġoption":4060,"ĠPlat":4061,"prec":4062,"Ġshutil":4063,"IO":4064,"LLM":4065,"PLE":4066,"\\<":4067,"loop":4068,"Ġadded":4069,"Ġnormalize":4070,"dump":4071,"SON":4072,"VER":4073,"]]<":4074,"hparams":4075,"Ġoptions":4076,"Ġabs":4077,"unique":4078,"otion":4079,"ĠOr":4080,"lica":4081,"============":4082,"Ġhash":4083,"offload":4084,"Ġlengths":4085,"Ġlaunch":4086,"Ġmodif":4087,"Ġpredicted":4088,"Ġwarnings":4089,"42":4090,"Class":4091,"rim":4092,"sing":4093,"zen":4094,"enabled":4095,"assets":4096,"Ġcv":4097,"Ġreturns":4098,"Ġstruct":4099,"Ġrole":4100,"Ġcorrespon":4101,"Ġreduce":4102,"ĠLayerNorm":4103,"ĠImportError":4104,"uestion":4105,"Found":4106,"fulf":4107,"pix":4108,"sampler":4109,"scorer":4110,"Ġtag":4111,"Ġinf":4112,"exist":4113,"urer":4114,"lish":4115,"Ġhf":4116,"ega":4117,"rypt":4118,"requests":4119,"PATH":4120,"].<":4121,"_<":4122,"try":4123,"('.":4124,"Ġprovider":4125,"ators":4126,"oug":4127,"Ġsubprocess":4128,"PORT":4129,"topk":4130,"Ġexamples":4131,"autograd":4132,"Strategy":4133,"Dis":4134,"Trans":4135,"_)<":4136,"clock":4137,"fid":4138,"lora":4139,"ĠĠĠĠĠĠĠĠĠĠ":4140,"ĠBu":4141,"\")).":4142,"Ġbytes":4143,"ASS":4144,"Ġcommon":4145,"ĠAutoTokenizer":4146,"variance":4147,"*,":4148,"Please":4149,"nMask":4150,"ven":4151,"Ġparallelism":4152,"epspeed":4153,"Ġchat":4154,"tasks":4155,"Execution":4156,"eet":4157,"mem":4158,"éĢ":4159,"Ġmsg":4160,"ilter":4161,"shapes":4162,"cepted":4163,"mooth":4164,"Ġpop":4165,"Inter":4166,"generation":4167,"validation":4168,"padded":4169,"uthor":4170,"Ġtemplate":4171,"ĠAutoModel":4172,"Ġsql":4173,"frac":4174,"ĠInitialize":4175,"Ġfewshot":4176,"FT":4177,"Optional":4178,"crop":4179,"equal":4180,"gster":4181,"have":4182,"}')<":4183,"resize":4184,"dev":4185,"Ġnested":4186,"velocity":4187,"('/":4188,"dagster":4189,"lication":4190,"Ġprev":4191,"'],<":4192,"Ġloading":4193,"acher":4194,"Ġlearning":4195,"ĠĠĠĠĠĠĠĠĠĠĠĠĠĠĠĠĠĠĠĠĠĠĠĠĠĠĠĠ":4196,"Ġusage":4197,"ighbors":4198,"nMaskType":4199,"45":4200,"æĺ":4201,"ilities":4202,"Ġdetails":4203,"ĉĉĉĉ":4204,"Forward":4205,"iliates":4206,"Ġaffiliates":4207,"VA":4208,"knowledge":4209,"ä»":4210,"atial":4211,"Ġexit":4212,"INFO":4213,"Ġbatches":4214,"ĠCont":4215,"Ġactual":4216,"execute":4217,"ArgumentParser":4218,"timers":4219,"password":4220,"planation":4221,"ynamic":4222,"SH":4223,"cle":4224,"åĲ":4225,"Ġ\"\")<":4226,"egin":4227,"Ġrag":4228,"randint":4229,"Content":4230,"ĠParameters":4231,"Ġproduct":4232,"]:":4233,"called":4234,"disc":4235,"trainer":4236,"checker":4237,"Ġprobs":4238,"accum":4239,"Ġclasses":4240,"collection":4241,"Ġ'''<":4242,"'{":4243,"gu":4244,"pair":4245,"simple":4246,"ond":4247,"rozen":4248,"Ġcore":4249,"ayload":4250,"Ġappro":4251,"Ġpadded":4252,"ALL":4253,"07":4254,"Met":4255,"RN":4256,"Vi":4257,"fields":4258,"has":4259,"home":4260,"my":4261,"ov":4262,"seg":4263,"encoded":4264,"alize":4265,"ĠLiteral":4266,"rows":4267,"Ġcontrol":4268,"subject":4269,"condition":4270,"periment":4271,"MPT":4272,"NUM":4273,"TP":4274,"TY":4275,"flax":4276,"fetch":4277,"lash":4278,"relu":4279,"Ġprag":4280,"except":4281,"andard":4282,"Ġdesc":4283,"ĠRun":4284,"predictions":4285,"ĠIt":4286,"calc":4287,"Ġresidual":4288,"termin":4289,"Ġshard":4290,"Ġconfigure":4291,"Ġattr":4292,"rgb":4293,"backbone":4294,"Ġdefaults":4295,"Ġlet":4296,"Ġentry":4297,"Ġpragma":4298,"dup":4299,"yaml":4300,"repo":4301,"Ġsummary":4302,"extr":4303,"Ġlow":4304,"epcopy":4305,"Ġchoice":4306,"Ġattribute":4307,"ĠĠĠĠĠĠĠĠĠĠĠĠĠĠĠĠĠĠĠĠĠĠĠĠĠĠĠĠĠĠĠĠĠĠ":4308,"STR":4309,"EXT":4310,"Ġjoints":4311,"Ġ```<":4312,"89":4313,"Tem":4314,"kdir":4315,"schedule":4316,"ãĢ":4317,"inator":4318,"anel":4319,"Ġmu":4320,"Ġreason":4321,"Ġind":4322,"uniform":4323,"cour":4324,"ĠNOT":4325,"Ġcond":4326,"ĠAl":4327,"aper":4328,"abstractmethod":4329,"Ġexception":4330,"listdir":4331,"lapsed":4332,"Ġsmall":4333,"FF":4334,"LAG":4335,"Valid":4336,"]['":4337,"ector":4338,"fname":4339,"ually":4340,"storage":4341,"Ġthey":4342,"olute":4343,"lended":4344,"Ġthere":4345,"ĠUNet":4346,"Ġpolicy":4347,"uffix":4348,"Chat":4349,"SIZE":4350,"POST":4351,"flags":4352,"String":4353,"Hel":4354,"]],":4355,"bet":4356,"vq":4357,"chron":4358,"Ġbroadcast":4359,"Ġ({":4360,"ĠTh":4361,"Ġhigh":4362,"Ġunit":4363,"Ġposs":4364,"Ġmetric":4365,"matmul":4366,"DiffusionPipeline":4367,"Ġabout":4368,"fulfill":4369,"EL":4370,"ROR":4371,"TES":4372,"]]:<":4373,"bn":4374,"gen":4375,"ture":4376,"xx":4377,"åĬ":4378,"ont":4379,"Ġpers":4380,"Ġmegab":4381,"ĠLlama":4382,"dapt":4383,"ynchron":4384,"ĠKey":4385,"untimeError":4386,"oxel":4387,");<":4388,"ML":4389,"mt":4390,"}\"":4391,"âĢ":4392,"Ġretro":4393,"Ġ15":4394,"ogle":4395,"rtual":4396,"Ġfactor":4397,"MegatronModule":4398,"summary":4399,"dense":4400,"uint":4401,"imagen":4402,"Ġreport":4403,"Ġcross":4404,"cost":4405,"Ġdirect":4406,"endswith":4407,"header":4408,"Condition":4409,"ĠEmbedding":4410,"joints":4411,"([<":4412,"RED":4413,"Ġaccuracy":4414,"envs":4415,"episodes":4416,"Ġmoe":4417,"Ġlatents":4418,"initialized":4419,"Add":4420,"TYPE":4421,"cap":4422,"mega":4423,"sl":4424,"Ġct":4425,"Ġedge":4426,"Ġplot":4427,"Ġ\"{":4428,"Ġop":4429,"ĠNorm":4430,"ĠTo":4431,"ĠLinear":4432,"Ġhand":4433,"Ġsee":4434,"ĠModule":4435,"Ġ:]<":4436,"Ġsettings":4437,"inalg":4438,"Ġtimes":4439,"plotlib":4440,"FOR":4441,"Or":4442,"QA":4443,"]+":4444,"lim":4445,"lator":4446,"ount":4447,"tk":4448,"wandb":4449,"|>":4450,"atic":4451,"argv":4452,"()))<":4453,"Ġgather":4454,"Ġ*=":4455,"estim":4456,"shuffle":4457,"Ġengine":4458,"Ġrequire":4459,"Init":4460,"Ġneighbor":4461,"Answer":4462,"initialization":4463,"ugh":4464,"osen":4465,"constants":4466,"384":4467,"By":4468,"HT":4469,"events":4470,"mel":4471,"nx":4472,"qpos":4473,"äº":4474,"ords":4475,"gex":4476,"esh":4477,"Ġ##":4478,"dialog":4479,"Ġ('":4480,"Ġ'__":4481,"Ġhparams":4482,"Ġevents":4483,"active":4484,"Ġaccount":4485,"ĠStableDiffusion":4486,"binary":4487,"other":4488,"Any":4489,"StateDict":4490,"Ġdecay":4491,"Ġvia":4492,"Name":4493,"huggingface":4494,"ling":4495,"details":4496,"anthropic":4497,"Ġinv":4498,"ĠNo":4499,"Ġ[-":4500,"atting":4501,"rich":4502,"Ġnodes":4503,"wrapper":4504,"MAX":4505,"Retro":4506,"Ġlightrag":4507,"`]":4508,"ced":4509,"limit":4510,"Ġfast":4511,"outer":4512,"lastic":4513,"runner":4514,"uced":4515,"afe":4516,"Ġdocuments":4517,"times":4518,"ĠChat":4519,"ĠGenerate":4520,"omentum":4521,"1000":4522,"gor":4523,"human":4524,"oriz":4525,"Ġpp":4526,"abspath":4527,"PARA":4528,"95":4529,">[":4530,"ELU":4531,"Source":4532,"bos":4533,"uction":4534,"Ġ\"[":4535,"Ġdon":4536,"Ġbins":4537,"upper":4538,"ĠRa":4539,"prediction":4540,"ublic":4541,"Ġprediction":4542,"retrieval":4543,"lecturer":4544,"ĠAttention":4545,"install":4546,"Ġfreqs":4547,"gorith":4548,"Pool":4549,"eft":4550,"solution":4551,"{\"":4552,"Ġmm":4553,"ulator":4554,"ely":4555,"ĠAsset":4556,"Ġ'\\":4557,"ĠSession":4558,"Ġequal":4559,"Ġlong":4560,"Ġprocessed":4561,"Ġpreprocessing":4562,"codes":4563,"Ġalso":4564,"latents":4565,"Ġupd":4566,"Ġworker":4567,"celerator":4568,"35":4569,"You":4570,"]),":4571,"_[":4572,"å¤":4573,"Ġè":4574,"invalid":4575,"Ġfetch":4576,"loy":4577,"hex":4578,"Ġreturned":4579,"thread":4580,"Ġ256":4581,"ĠDDP":4582,"ĠWhether":4583,"ngine":4584,"ĠPyTorch":4585,"ðĿĹ":4586,"Ġcreated":4587,"ĠBuild":4588,"](":4589,"sig":4590,"utton":4591,"ĠĠĠĠĠĠĠĠĠĠĠĠĠĠĠĠĠĠ":4592,"Ġproblem":4593,"á´ľ":4594,"failed":4595,"means":4596,"ideo":4597,"Ġtrajectory":4598,"Ġcalls":4599,"blue":4600,"Ġverbose":4601,"Ġcorresponding":4602,")),<":4603,"fusion":4604,"mpu":4605,"Ġam":4606,"Ġbo":4607,"assistant":4608,"this":4609,"Ġdiv":4610,"layernorm":4611,"INE":4612,"Ġmaximum":4613,"Ġ%.":4614,"rolNet":4615,"Ġscaling":4616,"Ġoffsets":4617,"Ġvariance":4618,".')<":4619,"OUT":4620,"amond":4621,"polation":4622,"ĠSplit":4623,"locks":4624,"INT":4625,"indexed":4626,"}/{":4627,"PROMPT":4628,"27":4629,"kit":4630,"pil":4631,"rough":4632,"ote":4633,"ĠSave":4634,"ĠScore":4635,"------":4636,"Ġans":4637,"username":4638,"ivations":4639,"Ġ500":4640,"SION":4641,"Ġexisting":4642,"LEN":4643,"TEM":4644,"cc":4645,"ipy":4646,"çĶ":4647,"êľ":4648,"Ġ[],":4649,"ĠĠĠĠĠĠĠĠĠĠĠĠĠĠĠĠĠĠĠĠ":4650,"plex":4651,"ĠMock":4652,"ĠURL":4653,"cesses":4654,"']['":4655,"tract":4656,"structor":4657,"Ġoverlap":4658,"where":4659,"Timeout":4660,"ĠApply":4661,"ĠPlatforms":4662,"bank":4663,"mkdir":4664,"sk":4665,"ä½":4666,"icient":4667,"clamp":4668,"Ġstory":4669,"ĠDoc":4670,"ĠRuntimeError":4671,"']:<":4672,"Stream":4673,"latform":4674,"Ġdocumentation":4675,"ibility":4676,"retriever":4677,"Eval":4678,"Long":4679,"Number":4680,"gs":4681,"solver":4682,"âķ":4683,"Ġrich":4684,"Ġresize":4685,"Ġdot":4686,"rast":4687,"ĠToken":4688,"omic":4689,"Ġdistribution":4690,"Ġdimensions":4691,"observation":4692,"phas":4693,"ERS":4694,"feats":4695,"ĠRequest":4696,"Ġselected":4697,"WORKING":4698,"Ġep":4699,"Ġarch":4700,"ink":4701,"edDataset":4702,"Ġactions":4703,"Ġauto":4704,"Ġbert":4705,"Ġ'-":4706,"river":4707,"ĠRem":4708,"ĠBy":4709,"128":4710,"normalizer":4711,"Ġworkflow":4712,"ĠDistributed":4713,".\",<":4714,"37":4715,"BU":4716,"Group":4717,"Sc":4718,"Vision":4719,"linalg":4720,"zz":4721,"eras":4722,"Ġrelative":4723,"Ġcpu":4724,"Ġsolver":4725,"paint":4726,"avig":4727,"Ġobj":4728,"Ġaccelerate":4729,"parts":4730,"Ġmov":4731,"alculate":4732,"Ġavg":4733,"orizon":4734,"Button":4735,"Tool":4736,"Work":4737,"ru":4738,"}_":4739,"æį":4740,"Ġ=================================":4741,"rogram":4742,"chema":4743,"Ġdb":4744,"istic":4745,"Ġuses":4746,"Ġalong":4747,"DatasetConfig":4748,"iece":4749,"NotFound":4750,"Ġsuccessfully":4751,"ExecutionContext":4752,"ĠAutoModelForCausalLM":4753,")\")<":4754,")}\")<":4755,"Prompt":4756,"UP":4757,"WE":4758,"bfloat":4759,"hi":4760,"reference":4761,"Ġplace":4762,"Ġfill":4763,"Ġaut":4764,"etr":4765,"Ġwait":4766,"toxic":4767,"Ġeff":4768,"ways":4769,"strict":4770,"Ġ:]":4771,"Step":4772,"LOG":4773,"enchmark":4774,"when":4775,"ABLE":4776,"ilarity":4777,"DB":4778,"Ġ),":4779,"Ġpattern":4780,"cell":4781,"settings":4782,"ĠOn":4783,"Ġresolution":4784,"ENAI":4785,"ERROR":4786,"neighbor":4787,"Ġmodules":4788,"smpl":4789,"Env":4790,"CLIP":4791,"21":4792,"Sub":4793,"_.":4794,"Ġemail":4795,"instruction":4796,"Ġten":4797,"uted":4798,"Ġsw":4799,"romise":4800,"Ġassum":4801,"__<":4802,"ĠPlease":4803,"ifact":4804,"Ġdefaultdict":4805,"Ġ50":4806,"encies":4807,"before":4808,"++++":4809,"%%%%":4810,"\"})<":4811,"28":4812,"47":4813,"GET":4814,"dit":4815,"ium":4816,"negative":4817,"writer":4818,"sec":4819,"arding":4820,"gemini":4821,"Ġfr":4822,"Ġbest":4823,"argin":4824,"parate":4825,"loaders":4826,"ERT":4827,"extract":4828,"SchedulerMixin":4829,"Ġtimestep":4830,"LongTensor":4831,"CUDA":4832,"ae":4833,"åħ":4834,"Ġquestions":4835,"Ġps":4836,"Ġpt":4837,"Ġpaper":4838,"Ġfig":4839,"launch":4840,"(\"%":4841,"abilities":4842,"Ġevery":4843,"0000":4844,"ixed":4845,"Ġvis":4846,"INDE":4847,"Storage":4848,"Ġwords":4849,"opied":4850,"region":4851,"Ġleft":4852,"signal":4853,"Hello":4854,"INDEX":4855,"08":4856,"768":4857,"=\"\"":4858,"aff":4859,"mon":4860,"Ġip":4861,"Ġsl":4862,"Ġscorer":4863,"Ġbone":4864,"Ġgen":4865,"ĠWork":4866,"Ġkl":4867,"acity":4868,"1234":4869,"Ġgrads":4870,"commit":4871,"Ġsubject":4872,"Ġcompat":4873,"multiple":4874,"ummyObject":4875,"rsp":4876,"éĹ":4877,"Ġhs":4878,"continue":4879,"Start":4880,"Ġdisplay":4881,"tesIO":4882,"collate":4883,"Ġmegablocks":4884,"IC":4885,"Op":4886,"Split":4887,"[[":4888,"\\.":4889,"ear":4890,"ls":4891,"slice":4892,"Ġmaster":4893,"ement":4894,"parents":4895,"ĠĠĠĠĠĠĠĠĠĠĠĠĠĠĠĠĠĠĠĠĠĠĠĠĠĠĠĠĠĠĠĠĠĠĠ":4896,"ĠDP":4897,"Ġunwrap":4898,"Ġenable":4899,"localhost":4900,"Ġvariable":4901,"Ġ768":4902,"benchmark":4903,"Grad":4904,"Meta":4905,"cmd":4906,"mu":4907,"along":4908,"chrom":4909,"Ġsizes":4910,"Ġbar":4911,"Ġdefin":4912,"lend":4913,"Ġexce":4914,"Ġparent":4915,"Ġparsed":4916,"Ġjob":4917,"Ġcombin":4918,"rightness":4919,"ModuleList":4920,"Ġmultiprocessing":4921,"Ġfinish":4922,"Ġcontains":4923,"alyze":4924,"WAR":4925,"fast":4926,"field":4927,"hing":4928,"rl":4929,"Ġdt":4930,"Ġimportlib":4931,"Ġwhether":4932,"__':<":4933,"term":4934,"tern":4935,"ancel":4936,"fixture":4937,"overlap":4938,"Ġleast":4939,"rewards":4940,"TrainedModel":4941,"degree":4942,"Code":4943,"Handler":4944,"yper":4945,"ored":4946,"dete":4947,"Ġ\"\",":4948,"Ġmark":4949,"Ġinsert":4950,"Ġ#<":4951,"counter":4952,"(\"{":4953,"quare":4954,"cords":4955,"Ġattributes":4956,"Ġ%(":4957,"ives":4958,"ĠHT":4959,"theta":4960,"Ġintercepted":4961,"ĠProcess":4962,"vantages":4963,"98":4964,"ices":4965,"si":4966,"Ġcu":4967,"andas":4968,"shortcut":4969,"ĠPrompt":4970,"Ġdepend":4971,"Ġchain":4972,"paces":4973,"ĠConsole":4974,"stanti":4975,"Ġitems":4976,"Ġinitialization":4977,"iktoken":4978,"ĠQuery":4979,"Ġaudio":4980,"Ġconnection":4981,"IGH":4982,"Embed":4983,"If":4984,"bind":4985,"can":4986,"nan":4987,"safety":4988,"ush":4989,"student":4990,"imic":4991,"Ġflatten":4992,"Ġinclu":4993,"exc":4994,"Ġour":4995,"coeff":4996,"ĠTime":4997,"ĠTable":4998,"completion":4999,"Ġprogress":5000,"ĠBert":5001,"artifact":5002,"tail":5003,"Ġscene":5004,"Ġavoid":5005,"connect":5006,"Ġjoint":5007,"Ġterms":5008,"enums":5009,"supported":5010,"driver":5011,"Êľ":5012,"åĽ":5013,"Ġlower":5014,"istics":5015,"Ġannot":5016,"RAG":5017,"Ġmatplotlib":5018,"quaternions":5019,"Ġparts":5020,"Failed":5021,"Ġurllib":5022,"Union":5023,"unication":5024,"Ġletter":5025,"\"},<":5026,"57":5027,"500":5028,"?<":5029,"DCondition":5030,"Iter":5031,"LLE":5032,"bt":5033,"æĸ":5034,"sem":5035,"utable":5036,"char":5037,"Ġfname":5038,"Ġresearch":5039,"lain":5040,"Ġstudent":5041,"processed":5042,"Ġseconds":5043,"metaclass":5044,"stdout":5045,"Level":5046,"extras":5047,"=[\"":5048,"cr":5049,"ice":5050,"mod":5051,"}\",<":5052,"report":5053,"Ġpair":5054,"Ġreq":5055,"Ġparents":5056,"ĠFunction":5057,"ĠField":5058,"Ġtexts":5059,"Ġalign":5060,"Ġweb":5061,"ĠShape":5062,"span":5063,"Ġvectors":5064,"Ġepisodes":5065,"NotFoundError":5066,"dra":5067,"lon":5068,"sep":5069,"lops":5070,"Ġcap":5071,"Ġsuch":5072,"Ġdinov":5073,"dered":5074,"plates":5075,"Ġnumbers":5076,"Ġdecode":5077,"ĠDo":5078,"configuration":5079,"Ġprojection":5080,"itions":5081,"login":5082,"antic":5083,"bove":5084,"moid":5085,"levels":5086,"functions":5087,"partial":5088,"ĠJSON":5089,"Ġobjects":5090,"Ġallowed":5091,"Ġtakes":5092,".*":5093,"43":5094,"=<":5095,">\")<":5096,"RGB":5097,"ĠĠĠĠĠĠĠĠĠĠĠĠĠĠ":5098,"Ġinher":5099,"izing":5100,">#!":5101,"ffn":5102,"precision":5103,"agn":5104,"Ġ>>":5105,"Ġ:-":5106,"accelerate":5107,"ĠReturn":5108,"Ġsetattr":5109,"Ġcollect":5110,"Read":5111,"ReLU":5112,"Ġinstead":5113,"course":5114,"TEMPL":5115,"=_":5116,">-":5117,"Batch":5118,"DummyObject":5119,"glob":5120,"iod":5121,"rid":5122,"æĪ":5123,"into":5124,"sen":5125,"amma":5126,"ulary":5127,"ĠAsync":5128,"Ġstandard":5129,"TIME":5130,"```":5131,"cumprod":5132,"repr":5133,"ĠIDs":5134,"finished":5135,"gorithm":5136,"deredDict":5137,"202":5138,"CAL":5139,"Low":5140,"dig":5141,"runtime":5142,"erobot":5143,"Ġtiktoken":5144,"reply":5145,"chem":5146,"ĠClient":5147,"Ġlang":5148,"Ġlerobot":5149,"dirs":5150,"bound":5151,"Ġheader":5152,"execution":5153,"inops":5154,"learn":5155,"Ġnetwork":5156,"Ġhost":5157,"atermark":5158,"agnitude":5159,",)<":5160,"->":5161,"Al":5162,"Filter":5163,"MO":5164,"TE":5165,"Ġqu":5166,"Ġsd":5167,"dic":5168,"Ġstore":5169,"agraph":5170,"contain":5171,"Ġkv":5172,"á´ħ":5173,"fail":5174,"vertices":5175,"ĠStr":5176,"Ġcounter":5177,"structions":5178,"Ġwriter":5179,"Ġmatches":5180,"Ġabc":5181,"schedulers":5182,"PARALLE":5183,"âķĲ":5184,"LL":5185,"Mo":5186,"Utils":5187,"named":5188,"aturation":5189,"rection":5190,"modeling":5191,"abc":5192,"ĠFa":5193,"checkbox":5194,"Ġvision":5195,"ĠArguments":5196,"124":5197,"cause":5198,"selected":5199,"ðĿĴ":5200,"ĠCLIP":5201,"Ġtmpdir":5202,"merged":5203,"Query":5204,"Co":5205,"Multi":5206,"NO":5207,"Size":5208,"eos":5209,"pus":5210,"Ġarr":5211,"ination":5212,"remote":5213,"iters":5214,"Ġfeet":5215,"Ġbox":5216,"()).":5217,"atted":5218,"ĠGPTModel":5219,"Ġvariables":5220,"IGHTS":5221,"NOR":5222,"[<":5223,"]],<":5224,"sage":5225,"ucli":5226,"é¢":5227,"dean":5228,"Ġrecall":5229,"Ġcod":5230,"Ġnegative":5231,"apshot":5232,"Ġhalf":5233,"Ġpose":5234,"Ġpooled":5235,"Ġnoqa":5236,"Ġscipy":5237,"Ġexpr":5238,"Ġbinary":5239,"ĠWhen":5240,"datas":5241,"Ġcharact":5242,"uclidean":5243,"23":5244,"DS":5245,"Engine":5246,"lated":5247,"skeleton":5248,"tanh":5249,"à¸":5250,"åº":5251,"once":5252,"help":5253,"ĠLight":5254,"omimic":5255,"usr":5256,"Ġdelete":5257,"istent":5258,"ĠMake":5259,"penalt":5260,"ernal":5261,"ived":5262,"ocker":5263,"Ġsequences":5264,"pick":5265,"arras":5266,"Ġentries":5267,"Ġradian":5268,"Ġindicat":5269,"ought":5270,"Ġindent":5271,"DConditionModel":5272,"âķĲâķĲ":5273,"Element":5274,"VAL":5275,"ndim":5276,"ngrams":5277,"pr":5278,"playwright":5279,"Êı":5280,"Ġpandas":5281,"Ġ\")<":5282,"Ġcenter":5283,"uru":5284,"urbo":5285,"Ġops":5286,"Ġabove":5287,"Ġgu":5288,"ria":5289,"Ġeinops":5290,"resnet":5291,"Ġllama":5292,"Ġratio":5293,"percent":5294,"ĠMet":5295,"ponent":5296,"buffers":5297,"network":5298,"ategory":5299,"visual":5300,"latest":5301,"Ġrepresentation":5302,"cii":5303,"Ġaround":5304,"Ġtokentypes":5305,"58":5306,"DING":5307,"ceil":5308,"serial":5309,"Ġrand":5310,"Ġorig":5311,"Ġinteger":5312,"Ġbecause":5313,"ĠEval":5314,"ĠInt":5315,"basename":5316,"rune":5317,"Ġcost":5318,"ĠĠĠĠĠĠĠĠĠĠĠĠĠĠĠĠĠĠĠĠĠĠĠĠĠ":5319,"Ġprocessor":5320,"Ġworkspace":5321,"Ġfolder":5322,"filtered":5323,"pooler":5324,"([\"":5325,"Question":5326,"Up":5327,"me":5328,"tic":5329,"è¯":5330,"err":5331,"Ġfake":5332,"andid":5333,"(\"()":5334,"Ġguidance":5335,"ĠBlock":5336,"inds":5337,"Ġtrainer":5338,"crete":5339,"LAGS":5340,"Ġdirectly":5341,":,":5342,":],":5343,"Enum":5344,"OG":5345,"Soft":5346,"fallback":5347,"hs":5348,"holder":5349,"ips":5350,"known":5351,"pid":5352,"xy":5353,"Ġpri":5354,"Ġfaiss":5355,"Ġ\"**/":5356,"Ġma":5357,"Ġscope":5358,"virtual":5359,"attributes":5360,"inite":5361,"corator":5362,"preds":5363,"cessary":5364,"application":5365,"okup":5366,"errors":5367,"inspect":5368,"Ġcheckpoints":5369,"ĠModelType":5370,"ĠRetroPreprocessingConfig":5371,"Ġsignal":5372,"~~~~":5373,"ãĢĤ":5374,"Ġradians":5375,"26":5376,"All":5377,"clear":5378,"ories":5379,"ero":5380,"ascii":5381,"Ġme":5382,"Ġmotion":5383,"Ġgpu":5384,"Ġhn":5385,"Ġdialog":5386,"configure":5387,"Ġshow":5388,"aging":5389,"epsilon":5390,"templates":5391,"link":5392,"Ġprobability":5393,"IMAGE":5394,"ĠOrderedDict":5395,"Ġcoding":5396,")]":5397,"Doc":5398,"II":5399,"bal":5400,"ky":5401,"orn":5402,"Ġmem":5403,"Ġshort":5404,"jected":5405,"ĠRetrie":5406,"Ġpytorch":5407,"Ġmessagebox":5408,"problems":5409,"Sequence":5410,"ĠMegatronModule":5411,"OPENAI":5412,"USER":5413,"Ġpopup":5414,"ĠNOTE":5415,"40":5416,"=['":5417,"PS":5418,"wb":5419,"writ":5420,"alloc":5421,"utions":5422,"Ġinstruction":5423,"Ġbenchmark":5424,"argmax":5425,"ily":5426,"olved":5427,"Ġgaussian":5428,"Ġ[[":5429,"ĠCustom":5430,"ĠLa":5431,"ĠDagster":5432,"ĠDATA":5433,"iframe":5434,"ocus":5435,"uble":5436,"licit":5437,"past":5438,"quired":5439,"Ġlogs":5440,"Ġloguru":5441,"mouse":5442,"PIL":5443,"snr":5444,"betas":5445,"ĠRaises":5446,"çĶ¨":5447,"*\",":5448,"Bert":5449,"Future":5450,"NN":5451,"NING":5452,"Random":5453,"_):<":5454,"}$":5455,"ç»":5456,"analysis":5457,"Ġmon":5458,"tower":5459,"Ġdeepcopy":5460,"trainable":5461,"ĠUser":5462,"ĠValid":5463,"DataParallel":5464,"))))<":5465,"Ġsplits":5466,"missing":5467,"Training":5468,"Ġotherwise":5469,"Ġtranscript":5470,"ĠConfigMixin":5471,">\"<":5472,"bx":5473,"each":5474,"win":5475,"widget":5476,"è§":5477,"Ġli":5478,"selection":5479,"Ġ\"-":5480,"ĠLe":5481,"Ġstorage":5482,"derr":5483,"laybook":5484,"Ġident":5485,"Ġperm":5486,"biencoder":5487,"ĠCheckpoint":5488,"Header":5489,"ĠCLIPT":5490,"reasoning":5491,"ĠPerform":5492,"fidence":5493,"PARALLEL":5494,"é¢ĺ":5495,"\">":5496,"31":5497,"QU":5498,"Rank":5499,"We":5500,"cnt":5501,"ln":5502,"pkl":5503,"rnn":5504,"saved":5505,"tab":5506,"itch":5507,"Ġinp":5508,"Ġ11":5509,"attribute":5510,"planner":5511,"endpoint":5512,"Ġdescri":5513,"Ġthrough":5514,"parametr":5515,"Ġpresent":5516,"positive":5517,"evals":5518,"based":5519,"neighbors":5520,"spatial":5521,"Buil":5522,"ĠAttnMaskType":5523,"jectories":5524,"ĠIndexedDataset":5525,"Ġclose":5526,"CACHE":5527,"Callable":5528,"OS":5529,"What":5530,"broadcast":5531,"high":5532,"lask":5533,"mc":5534,"pisode":5535,"tb":5536,"tqdm":5537,"onal":5538,"ength":5539,"alphas":5540,"pow":5541,"ĠNew":5542,"upload":5543,"()):<":5544,"Ġgold":5545,"ĠCo":5546,"ĠĠĠĠĠĠĠĠĠĠĠĠĠĠĠĠĠĠĠĠĠĠĠĠĠĠĠĠĠĠĠĠĠĠĠĠĠĠĠ":5547,"Ġhow":5548,"plat":5549,"plus":5550,"Ġlarge":5551,"layout":5552,"Ġseen":5553,"ranks":5554,"iddle":5555,"...\")<":5556,"general":5557,"')[":5558,"HOST":5559,"ĠShardedStateDict":5560,"Ġcomputation":5561,"Ġcosine":5562,"ĠUpdate":5563,"Ġthreading":5564,"Ġetc":5565,"============<":5566,"STRING":5567,">#!/":5568,".)<":5569,"Adapt":5570,"`.":5571,"branch":5572,"gaussian":5573,"sa":5574,"Ġsync":5575,"Ġsolution":5576,"ident":5577,"ĠTem":5578,"ĠCalculate":5579,"Ġeven":5580,"ĠId":5581,"dimension":5582,"Ġshortcut":5583,"Conf":5584,"aving":5585,"Ġitertools":5586,"Buffer":5587,"product":5588,"Ġpackage":5589,"segments":5590,"Ġreplica":5591,"Ac":5592,"ACK":5593,"ove":5594,"sli":5595,"inp":5596,"inverse":5597,"Ġplatform":5598,"Ġfields":5599,"lout":5600,"unds":5601,"esc":5602,"ĠBe":5603,"ĠEuler":5604,"across":5605,"background":5606,"ĠĠĠĠĠĠĠĠĠĠĠĠĠĠĠĠĠĠĠĠĠĠĠĠĠĠĠĠĠĠĠĠĠĠĠĠĠĠ":5607,"16384":5608,"Ġusername":5609,"Ġintermediate":5610,"edia":5611,"Ġstats":5612,"LoaderMixin":5613,"Ġradius":5614,"Ġhook":5615,"alyzer":5616,"Ġbuilding":5617,"ĠMoE":5618,"Ġhashlib":5619,"ĠLlamaFactory":5620,"38":5621,"Scal":5622,"UB":5623,"UR":5624,"kh":5625,"lang":5626,"pip":5627,"inu":5628,"ati":5629,"erc":5630,"recompute":5631,"Ġrelease":5632,"Ġ---------":5633,"Ġhuggingface":5634,"abel":5635,"allet":5636,"ĠIM":5637,"ĠMask":5638,"Ġpreprocess":5639,"Ġpredictions":5640,"infer":5641,"ird":5642,"transcript":5643,"curs":5644,"ddp":5645,"Ġwrapper":5646,"exceptions":5647,"OpenAI":5648,"Ġstructure":5649,"LENG":5650,"Ġframes":5651,"70":5652,"AY":5653,"_()<":5654,"eod":5655,"fs":5656,"oo":5657,"spect":5658,"sorted":5659,"scope":5660,"åŃ":5661,"Ġcourse":5662,"added":5663,"parator":5664,"database":5665,"()]<":5666,"ĠLog":5667,"Ġdete":5668,"ĠReduce":5669,"INTER":5670,"Ġcontrast":5671,"Ġ40":5672,"calls":5673,"Ġtrace":5674,"windows":5675,"causal":5676,"Ġneedle":5677,"variant":5678,"Formatter":5679,"ordin":5680,"ĠIterator":5681,"Ġconstants":5682,"View":5683,")\"<":5684,"And":5685,"Item":5686,"Options":5687,"Sdf":5688,"VE":5689,"basic":5690,"havi":5691,"eng":5692,"Ġpc":5693,"Ġclick":5694,"ural":5695,"Ġthese":5696,"diamond":5697,"ullable":5698,"poses":5699,"ĠLanguage":5700,"cording":5701,"ĠDis":5702,"Ġresnet":5703,"ĠGlobal":5704,"á´Ħ":5705,"uster":5706,"asyncio":5707,"Ġfunctional":5708,"filters":5709,"FILE":5710,"submodules":5711,"pression":5712,"Ġdisc":5713,"Ġoverride":5714,"Ġprobabilities":5715,"smpllib":5716,"Ġbarrier":5717,")(":5718,"Def":5719,"Piece":5720,"Wh":5721,"ha":5722,"mesh":5723,"rm":5724,"recv":5725,"Ġngram":5726,"Ġinverse":5727,"Ġ([":5728,"Ġ-=":5729,"Ġ'--":5730,"###<":5731,"ĠDownload":5732,"Ġsampled":5733,"fact":5734,"targets":5735,"Ġagain":5736,"registry":5737,"Ġglobals":5738,"Ġtiming":5739,"dispatch":5740,"Ġnormalization":5741,"vae":5742,"Ġá´Ľ":5743,"Ġelements":5744,"################################################":5745,"builder":5746,"Template":5747,"FORM":5748,"sired":5749,"Ġcuda":5750,"penalty":5751,"LENGTH":5752,"75":5753,"URE":5754,"euler":5755,"llava":5756,"navig":5757,"pk":5758,"wn":5759,"enames":5760,"roq":5761,"uning":5762,"Ġ---------------------------------":5763,"Ġconn":5764,"ĠCPU":5765,"Ġ{:.":5766,"Ġllava":5767,"ĠDropout":5768,"day":5769,"Conne":5770,"Ġbelow":5771,"push":5772,"fake":5773,"Ġidentity":5774,"convention":5775,"Ġvariant":5776,"Ġsince":5777,"ĠĠĠĠĠĠĠĠĠĠĠĠĠĠĠĠĠĠĠĠĠĠĠĠĠĠĠĠĠĠĠĠĠĠĠĠĠĠĠĠĠĠ":5778,"ĠLoss":5779,"ĠAgentP":5780,"Ġoperation":5781,"VERSION":5782,"pixel":5783,"-{":5784,"39":5785,"FE":5786,"TEXT":5787,"Writer":5788,"]}":5789,"found":5790,"npy":5791,"ðŁ":5792,"relative":5793,"child":5794,"entries":5795,"Ġbegin":5796,"()}<":5797,"Ġexplanation":5798,"ĠDB":5799,"ĠRandom":5800,"ĠMessage":5801,"eights":5802,"Ġencode":5803,"Ġ30":5804,"ĠVQ":5805,"grouped":5806,"Int":5807,"versation":5808,"trajectory":5809,"Ġapplied":5810,"scaled":5811,"Ġ[`~":5812,"cookie":5813,"RNG":5814,"ĠHTTP":5815,"parametrize":5816,"79":5817,":\")<":5818,"Tra":5819,"elem":5820,"green":5821,"yped":5822,"æŀ":5823,"Ġrepo":5824,"Ġnull":5825,"Ġdynamic":5826,"Ġwarmup":5827,"Ġwell":5828,"Ġ13":5829,"Ġstack":5830,"Ġ25":5831,"classification":5832,"preprocess":5833,"Ġbeing":5834,"Ġchallenge":5835,"\")[":5836,"'][":5837,"evaluation":5838,"aux":5839,"arest":5840,"Ġteacher":5841,"Ġinitialized":5842,"tags":5843,"Ġcamera":5844,"æĺ¯":5845,"'.<":5846,",)":5847,"hand":5848,"Ġqueue":5849,"ending":5850,"rops":5851,"Ġredirect":5852,"laude":5853,"conf":5854,"ilation":5855,"Ġdest":5856,"teradata":5857,"Ġ/=":5858,"Ġround":5859,"ĠGLOBAL":5860,"Ġcompleted":5861,"Ġtrainable":5862,"counts":5863,"ĠExtract":5864,"extractor":5865,"vidia":5866,"Ġpassword":5867,"=[<":5868,"ä¸ª":5869,"ĠBrowserType":5870,"ĠForward":5871,"radius":5872,"Ġmanager":5873,"Ġuuid":5874,"cleaned":5875,"Lowdim":5876,"ĠIdentity":5877,"AX":5878,"From":5879,"US":5880,"rec":5881,"align":5882,"Ġflops":5883,"amps":5884,"Ġsafety":5885,"peg":5886,"omatic":5887,"ĠSub":5888,"ĠSdf":5889,"proc":5890,"allreduce":5891,"egment":5892,"redential":5893,"portion":5894,"Ġalways":5895,"versions":5896,"ĠContext":5897,"Ġnecessary":5898,"shots":5899,"999":5900,"multiply":5901,"Ġrepresenting":5902,"Ġretrieve":5903,"********":5904,"ĠPolicy":5905,"btn":5906,"400":5907,":-":5908,":`":5909,"Dep":5910,"MIN":5911,"MLP":5912,"bomimic":5913,"jnp":5914,"}.\")<":5915,"Ġts":5916,"Ġmod":5917,"ider":5918,"otal":5919,"coords":5920,"ĠNe":5921,"Ġ'_":5922,"Ġ204":5923,"fft":5924,"Ġdeprec":5925,"ORS":5926,"Ġcontextlib":5927,"Ġsetting":5928,"running":5929,"Seq":5930,"Ġadding":5931,"ä¸Ģ":5932,"Ġtimestamp":5933,"Ġdatas":5934,"predicted":5935,"TRAIN":5936,"cookies":5937,"BOX":5938,"existing":5939,"megaConf":5940,"platform":5941,"!\")<":5942,"Cre":5943,"FAI":5944,"bstract":5945,"oot":5946,"uuid":5947,"udio":5948,"Ġrepeat":5949,"Ġcare":5950,"pet":5951,"Ġretry":5952,"toks":5953,"Ġdeepspeed":5954,"ocation":5955,"generations":5956,"commend":5957,"Ġcausal":5958,"Ġbackground":5959,"scales":5960,"Return":5961,"Ġaveraged":5962,"helper":5963,"webkit":5964,"Region":5965,"êľ±":5966,"Ġinherits":5967,"TEMPLATE":5968,"ĠAgentPrune":5969,"MET":5970,"NE":5971,"PES":5972,"Word":5973,"ba":5974,"mq":5975,"px":5976,"ren":5977,"ral":5978,"sure":5979,"sparse":5980,"®é¢ĺ":5981,"å®":5982,"å¼":5983,"æł":5984,"insum":5985,"Ġtri":5986,"aries":5987,"Ġsn":5988,"Ġdst":5989,"lier":5990,"andbox":5991,"ĠNode":5992,"ollow":5993,"progress":5994,"Ġthreshold":5995,"heading":5996,"ocent":5997,"addr":5998,"ĠBatch":5999,"Ġsubset":6000,"interle":6001,"Protocol":6002,"normalized":6003,"absolute":6004,"Ġexecute":6005,"scripts":6006,"Ġfixed":6007,"Ġdenom":6008,"Ġassistant":6009,"BUG":6010,"éĹ®é¢ĺ":6011,"'),":6012,"29":6013,"LR":6014,"auth":6015,"mer":6016,"ted":6017,"åĩ":6018,"ites":6019,"adam":6020,"ulative":6021,"polate":6022,"isfile":6023,"Ġconst":6024,"ĠClass":6025,"share":6026,"ĠScheduler":6027,"Ġeuler":6028,"Ġexact":6029,"ĠPlaywright":6030,"ĠOptimizer":6031,"oci":6032,"ponents":6033,"Info":6034,"without":6035,"Ġappend":6036,"rotations":6037,"vidual":6038,"specs":6039,"udge":6040,"rapper":6041,"PipelineOutput":6042,"scaler":6043,"Ġconverted":6044,"Ġrows":6045,"ĠResponse":6046,"Adam":6047,"ĠLazy":6048,"redentials":6049,"'),<":6050,"-%":6051,">\"\"":6052,"ND":6053,"Transform":6054,"actor":6055,"brid":6056,"css":6057,"ially":6058,"panel":6059,"sources":6060,"çŃ":6061,"Ġ=========":6062,"Ġpk":6063,"Ġpm":6064,"Ġpix":6065,"Ġpast":6066,"Ġff":6067,"ceived":6068,"Ġcould":6069,"Ġnullable":6070,"Ġsimple":6071,"export":6072,"Ġbound":6073,"esume":6074,"ĠTHE":6075,"shard":6076,"rib":6077,"ĠPos":6078,"prepare":6079,"('\\":6080,"ĠĠĠĠĠĠĠĠĠĠĠĠĠĠĠĠĠĠĠĠĠĠĠĠĠĠĠĠĠĠĠĠĠĠĠĠĠĠĠĠĠĠĠĠĠĠĠ":6081,"mail":6082,"Ġspecial":6083,"Ġaccess":6084,"Ġrots":6085,"AMPLE":6086,"Ġstrings":6087,"pletions":6088,"ĠTaskState":6089,"microbatches":6090,"utoresume":6091,"Ġdeno":6092,"Ġcombined":6093,"Ġindicating":6094,"Ġdescrib":6095,"Adapter":6096,"90":6097,"BC":6098,"Reduce":6099,"fire":6100,"sr":6101,"site":6102,"zarr":6103,"ancing":6104,"Ġfn":6105,"Ġcsv":6106,"Ġinvalid":6107,"Ġsr":6108,"Ġbot":6109,"ueue":6110,"__)":6111,"ĠAc":6112,"ĠCross":6113,"ĠSimple":6114,"Ġtesting":6115,"ĠEmbed":6116,"Ġyaml":6117,"INST":6118,"Stat":6119,"utilities":6120,"cached":6121,"Ġ...<":6122,"ĠReset":6123,"BaseModel":6124,"timing":6125,"columns":6126,"ĠGenerator":6127,"poral":6128,"servations":6129,"Initialize":6130,"atios":6131,"60":6132,">=":6133,"AC":6134,"Gather":6135,"GPU":6136,"Log":6137,"Py":6138,"bbox":6139,"dinov":6140,"gold":6141,"momentum":6142,"Ġmel":6143,"Ġmak":6144,"Ġdummy":6145,"pture":6146,"ump":6147,"Ġ',":6148,"Ġhi":6149,"Ġdecoded":6150,"Ġdesired":6151,"ĠFaiss":6152,"ĠFeed":6153,"ĠReg":6154,"ggreg":6155,"Ġshare":6156,"Ġprepare":6157,"ĠVi":6158,"ernels":6159,"Ġkeyword":6160,"ĠInter":6161,"ĠHow":6162,"generated":6163,"tracing":6164,"Ġpartition":6165,"Chunk":6166,"Ġsupports":6167,"ABC":6168,"partitioned":6169,"needle":6170,"Workspace":6171,"ĠLightRAG":6172,"ypedDict":6173,"LS":6174,"Mock":6175,"RES":6176,"]*":6177,"bine":6178,"hn":6179,"hy":6180,"mory":6181,"payload":6182,"sort":6183,"è¿":6184,"Ġremain":6185,"Ġsampler":6186,"Ġdefine":6187,"ollama":6188,"ĠLL":6189,"Ġdedup":6190,"----<":6191,"Convert":6192,"ised":6193,"Ġchosen":6194,"logps":6195,"olean":6196,"locators":6197,"require":6198,"Ġexpand":6199,"Ġflags":6200,"Ġconditions":6201,"pipelines":6202,"person":6203,"Ġutilities":6204,"ĠIterable":6205,"Ġpossible":6206,"RetroPreprocessingConfig":6207,"TIMEOUT":6208,"Softmax":6209,"ocentric":6210,"'\\":6211,"?\",":6212,"KL":6213,"eck":6214,"nb":6215,"tre":6216,"second":6217,"Ġtake":6218,"Ġfps":6219,"Ġmp":6220,"hes":6221,"Ġrecv":6222,"Ġcannot":6223,"serve":6224,"__.__":6225,"dicts":6226,"ower":6227,"Ġsem":6228,"ĠMax":6229,"ocast":6230,"Ġenabled":6231,"Ġcompletion":6232,"pending":6233,"rowth":6234,"ATT":6235,"ART":6236,"validate":6237,"Ġadditional":6238,"ĠState":6239,"vidence":6240,"Normal":6241,"ROOT":6242,"cosine":6243,"Decoder":6244,"Ġhydra":6245,"âĶĢ":6246,"accumulation":6247,"Ġunittest":6248,"WEIGHTS":6249,"Ġ2048":6250,",),":6251,"App":6252,"CTION":6253,"WS":6254,"dummy":6255,"gan":6256,"med":6257,"mid":6258,"rb":6259,"same":6260,"Ġvelocity":6261,"regex":6262,"ane":6263,"Ġsy":6264,"Ġdate":6265,"Ġ17":6266,"Ġ19":6267,"vised":6268,"Ġlora":6269,"configs":6270,"Ġseparate":6271,"('-":6272,"ĠEnum":6273,"Ġalgorithm":6274,"Ġgenerating":6275,"Ġ{},":6276,"Ġupload":6277,"lining":6278,"Select":6279,"Ġ$\\\\":6280,"Ġdownloading":6281,"uggest":6282,"Column":6283,"ĠAdam":6284,"æį®":6285,"æĸĩ":6286,"PASS":6287,"Sample":6288,"aa":6289,"lue":6290,"mis":6291,"mom":6292,"ploy":6293,"è®":6294,"star":6295,"stit":6296,"ari":6297,"challenge":6298,"Ġpil":6299,"Ġflax":6300,"Ġiss":6301,"Ġdraw":6302,"Ġbanner":6303,"paragraph":6304,"ĠASC":6305,"resume":6306,"ĠFused":6307,"Ġvllm":6308,"codebook":6309,"pac":6310,"ĠInference":6311,"RECT":6312,"activations":6313,"Ġcodes":6314,"Ġcook":6315,"Ġpartic":6316,"mbol":6317,"timestep":6318,"Char":6319,"Ġinstalled":6320,"ParallelRegion":6321,"Ġpipelines":6322,"ĠEncoder":6323,"ĠLocal":6324,"Ġtaken":6325,"sentences":6326,"stantiate":6327,"egmentation":6328,"ociated":6329,"%(":6330,"SY":6331,"WER":6332,"faiss":6333,"jav":6334,"lint":6335,"large":6336,"plain":6337,"sequential":6338,"Ġph":6339,"Ġaz":6340,"Ġnumer":6341,"ĠBlended":6342,"force":6343,"scr":6344,"Ġwhat":6345,"track":6346,"fox":6347,"Selection":6348,"CHAN":6349,"Ġpaddings":6350,"ĠDefine":6351,"ltk":6352,"variable":6353,"Ġdoesn":6354,"Ġcreating":6355,"priate":6356,"Ġrandn":6357,"ĠASCII":6358,"GRE":6359,"Runtime":6360,"Vector":6361,"[~":6362,"]),<":6363,"uan":6364,"uator":6365,"ĠâĶ":6366,"inuous":6367,"see":6368,"atern":6369,"Ġfid":6370,"Ġspace":6371,"Ġsym":6372,"Ġsolve":6373,"igg":6374,"unfinished":6375,"Ġ-----------------":6376,"ĠTarget":6377,"()])<":6378,"ĠApp":6379,"Ġ[{\"":6380,"ĠCourse":6381,"ĠST":6382,"Ġstar":6383,"endof":6384,"Ġstrategy":6385,"ĠOther":6386,"Ġosp":6387,"reduced":6388,"ĠVit":6389,"ĠVocab":6390,"Ġknow":6391,"Ġtokenize":6392,"viewer":6393,"Ġ}\"\"\"<":6394,"ĠModelConfig":6395,"ĠComput":6396,"Ġformatted":6397,"Ġtrim":6398,"Ġmany":6399,"super":6400,"Ġprovides":6401,"ĠDiffusionPipeline":6402,"sigmoid":6403,")])<":6404,".\\":6405,"LINE":6406,"aw":6407,"ech":6408,"fut":6409,"fps":6410,"flash":6411,"gre":6412,"jax":6413,"voxel":6414,"yes":6415,"}'<":6416,"}_{":6417,"inria":6418,"erial":6419,"asarray":6420,"Ġpe":6421,"Ġbi":6422,"Ġbrightness":6423,"stron":6424,"ĠNet":6425,"Ġgre":6426,"ĠCopied":6427,"Ġxs":6428,"resolve":6429,"previous":6430,"comput":6431,"ĠGroup":6432,"Ġtrained":6433,"indexes":6434,"StableDiffusion":6435,"ĠĠĠĠĠĠĠĠĠĠĠĠĠĠĠĠĠĠĠĠĠĠĠĠĠĠĠĠĠĠĠĠĠĠĠĠ":6436,"Ġqk":6437,"newaxis":6438,"Ġaddress":6439,"others":6440,"ä¸Ń":6441,"Ġá´Ģ":6442,"Ġ-->":6443,"flattened":6444,"segmentation":6445,"Ġretriever":6446,"Colors":6447,"fewshot":6448,"ĠUpload":6449,"TrainedTokenizer":6450,"threads":6451,"Ġparticular":6452,"endoftext":6453,":{":6454,"Asset":6455,"MM":6456,"Video":6457,"Ww":6458,"Wrapper":6459,"cot":6460,"js":6461,"mix":6462,"til":6463,"Ġema":6464,"İ¨":6465,"erun":6466,"reens":6467,"demo":6468,"depend":6469,"utes":6470,"Ġfuture":6471,"Ġmagnitude":6472,"Ġcnt":6473,"Ġsaturation":6474,"tom":6475,"couple":6476,"ranular":6477,"ĠAI":6478,"ĠABC":6479,"ensors":6480,"Ġ[(":6481,"ĠRo":6482,"preview":6483,"001":6484,"Ġanalysis":6485,"Ġcomplete":6486,"contexts":6487,"Ġlists":6488,"Ġcontents":6489,"ĠKarras":6490,"Ġ{}:":6491,"LED":6492,"Required":6493,"RANK":6494,"Ġmove":6495,"Ġ60":6496,"Ġinstances":6497,"Ġnormalized":6498,"Ġchanges":6499,"retrieved":6500,"PPING":6501,"Ġappropriate":6502,"pickle":6503,"Scaler":6504,"ranularity":6505,")/":6506,")}\"<":6507,"88":6508,">'''<":6509,"Auto":6510,"IF":6511,"Render":6512,"Segmentation":6513,"duration":6514,"iers":6515,"suffix":6516,"ving":6517,"release":6518,"arp":6519,"Ġrecompute":6520,"Ġcent":6521,"Ġsuffix":6522,"__.":6523,"cogn":6524,"Ġconf":6525,"###":6526,"Ġgot":6527,"Ġ*,<":6528,"ription":6529,"Ġdetail":6530,"ases":6531,"completions":6532,"untie":6533,"Ġ`(":6534,"amespace":6535,"actual":6536,"Ġacc":6537,"matching":6538,"Checkpoint":6539,"origin":6540,"scheduling":6541,"Ġreasoning":6542,"TEST":6543,"Ġcompatibility":6544,"yperParams":6545,"ĠASCIIColors":6546,"coupled":6547,"Cross":6548,"Sup":6549,"Scale":6550,"][-":6551,"elapsed":6552,"rray":6553,"desc":6554,"Ġ\"$":6555,"Ġ\"\":<":6556,"Ġsmooth":6557,"peft":6558,"unding":6559,"__).":6560,"ĠTra":6561,"ationError":6562,"sharding":6563,"Ġhue":6564,"Ġ201":6565,"Ġelapsed":6566,"Ġdivide":6567,"keywords":6568,"ĠFin":6569,"Ġselection":6570,"outError":6571,"address":6572,"checked":6573,"ĠBasic":6574,"aive":6575,"ipes":6576,"á´į":6577,"Ġ42":6578,"ious":6579,"RET":6580,"Ġperforms":6581,"Ġcolors":6582,"Ġtopk":6583,"Ġadapt":6584,"Ġurlparse":6585,"ANS":6586,"ä¸º":6587,"ĠProgram":6588,"similarity":6589,"ControlNet":6590,"Ġretrieved":6591,"Loading":6592,"letter":6593,"(\"**/*\",":6594,"semester":6595,")\",":6596,"*]":6597,".'<":6598,"MUL":6599,"Named":6600,"SM":6601,"dt":6602,"ior":6603,"ided":6604,"}\".":6605,"è¡":6606,"seconds":6607,"research":6608,"imation":6609,"geocentric":6610,"uncond":6611,"service":6612,"touch":6613,"Ġlock":6614,"Ġhorizon":6615,"Ġnumel":6616,"ĠRef":6617,"Ġpretrain":6618,"Ġjit":6619,"stribute":6620,"Ġchild":6621,"ours":6622,"accelerator":6623,"DataFrame":6624,"ĠĠĠĠĠĠĠĠĠĠĠĠĠĠĠĠĠĠĠĠĠĠĠĠĠĠĠĠĠĠĠĠĠĠĠĠĠ":6625,"Ġqs":6626,"Ġpylint":6627,"Ġprocessing":6628,"Ġpositional":6629,"Ġiterations":6630,"white":6631,"MAPPING":6632,"ĠTypeVar":6633,"Ġcolumns":6634,"Ġsentences":6635,"realpath":6636,"Metadata":6637,"Ġupdated":6638,"WARNING":6639,"Ġincluding":6640,"QueryParam":6641,"Ġgaussians":6642,"Connection":6643,"ĠOtherwise":6644,"2024":6645,"Api":6646,"GLU":6647,"Mode":6648,"agram":6649,"bold":6650,"fit":6651,"game":6652,"ipher":6653,"çº":6654,"Ġ])<":6655,"inplace":6656,"itor":6657,"Ġflat":6658,"Ġrelated":6659,"Ġcy":6660,"Ġnamed":6661,"Ġdid":6662,"datapath":6663,"()),":6664,"Ġ''<":6665,"short":6666,"Ġexpi":6667,"residual":6668,"Ġlon":6669,"ased":6670,"viewport":6671,"Ġsubmit":6672,"hood":6673,"gmentation":6674,"Ġbackend":6675,"Ġtransfer":6676,"replay":6677,"Ġbuilt":6678,"aviate":6679,"Ġmultimodal":6680,"ynchronous":6681,"painting":6682,"Ġunwrapped":6683,"chromium":6684,")\\":6685,"404":6686,"66":6687,"BED":6688,"EP":6689,"MENT":6690,"Save":6691,"Ve":6692,"card":6693,"ners":6694,"ratios":6695,"sy":6696,"smooth":6697,"tan":6698,"ves":6699,"Ð°":6700,"å°":6701,"Ġcallable":6702,"orth":6703,"Ġsig":6704,"icode":6705,"Ġ'%":6706,"textarea":6707,"ember":6708,"keyA":6709,"Ġresp":6710,"completed":6711,"Ġproj":6712,"Ġprocesses":6713,"Ġanthropic":6714,"Ġintent":6715,"Ġvoxel":6716,"mageProcessor":6717,"ĠSection":6718,"videos":6719,"EMM":6720,"LOW":6721,"Ġmost":6722,"Ġlats":6723,"Ġcommunication":6724,"facebook":6725,"Ġentire":6726,"Ġneeds":6727,"cumsum":6728,"Ġimplements":6729,"Ġcases":6730,"Ġverify":6731,"Runner":6732,"ServerConfig":6733,"omething":6734,"TYPES":6735,"ĠNormalize":6736,"plexity":6737,")')<":6738,"Av":6739,"Dec":6740,"End":6741,"ILI":6742,"Ref":6743,"best":6744,"eef":6745,"ham":6746,"pot":6747,"erf":6748,"deepspeed":6749,"any":6750,"ascript":6751,"Ġplease":6752,"Ġreverse":6753,"admin":6754,"Ġduration":6755,"umulative":6756,"disp":6757,"Ġretain":6758,"concept":6759,"ĠTrans":6760,"ĠTRA":6761,"(\"-":6762,"prop":6763,"Ġexperiment":6764,"Ġrmat":6765,"corners":6766,"Ġ</":6767,"ĠGo":6768,"retry":6769,"ĠExec":6770,"Ġ...')<":6771,"ITE":6772,"EMBED":6773,"qdrant":6774,"ĠĠĠĠĠĠĠĠĠĠĠĠĠĠĠĠĠĠĠĠĠĠĠĠĠĠĠĠĠĠ":6775,"Ġworking":6776,"motions":6777,"NAMES":6778,"packages":6779,"effect":6780,"DATASET":6781,"Identity":6782,"åıĸ":6783,"Ġassociated":6784,"ĠRemove":6785,"BatchNorm":6786,"Pass":6787,"]])<":6788,"crops":6789,"ders":6790,"jor":6791,"lers":6792,"public":6793,"xl":6794,"æ¡":6795,"algo":6796,"Ġfalse":6797,"Ġinfer":6798,"Ġdp":6799,"Ġdilation":6800,"urable":6801,"throw":6802,"pyplot":6803,"resources":6804,"Ġdetermin":6805,"Ġthree":6806,"ĠMemory":6807,"Ġinteg":6808,"Ġbehavi":6809,"ĠGELU":6810,"ORY":6811,"logy":6812,"contrib":6813,"ryan":6814,"accept":6815,"devices":6816,"ircle":6817,"REG":6818,"Ġsubmodules":6819,"fov":6820,"ĠTransformerBlock":6821,"Ġ10000":6822,"10000":6823,"Ġimplemented":6824,"quantize":6825,"variables":6826,"ĠWeb":6827,"Ġmanage":6828,"popup":6829,"Ġtempfile":6830,"ĠOnly":6831,"NORE":6832,"åº¦":6833,"ĠFeedForward":6834,"Ġdeduped":6835,"display":6836,"ĠTRAIN":6837,".'''<":6838,"BE":6839,"GELU":6840,"SO":6841,"Speed":6842,"Write":6843,"bryan":6844,"gra":6845,"granularity":6846,"hold":6847,"Ġ~":6848,"Ġ._":6849,"eres":6850,"Ġtait":6851,"Ġ\"@":6852,"Ġmul":6853,"Ġremote":6854,"Ġincre":6855,"Ġoc":6856,"igr":6857,"Ġ#################":6858,"Ġwould":6859,"lack":6860,"olutions":6861,"sha":6862,"Ġhq":6863,"ĠSoft":6864,"ĠSingle":6865,"ressed":6866,"ĠIF":6867,"Ġselector":6868,"Inversion":6869,"STEM":6870,"encoderKL":6871,"tters":6872,"```<":6873,"Ġfails":6874,"ä¸į":6875,"Returns":6876,"fraction":6877,"ĠQuatern":6878,"ĠExamples":6879,"affine":6880,"Ġexceed":6881,"Builder":6882,"*.":6883,"Func":6884,"Gaussian":6885,"cp":6886,"drant":6887,"such":6888,"warn":6889,"É¢":6890,"ÊĻ":6891,"æŃ":6892,"onnx":6893,"lex":6894,"chdir":6895,"Ġpip":6896,"Ġpdb":6897,"Ġ\"#":6898,"rable":6899,"Ġwere":6900,"todo":6901,"Ġforms":6902,"construct":6903,"cover":6904,"epSpeed":6905,"ĠFore":6906,"classifier":6907,"Ġresources":6908,"artic":6909,"\")[-":6910,"Ġbuffers":6911,"DEBUG":6912,"utoff":6913,"intermediate":6914,"matches":6915,"Ġreader":6916,"Ġvocabulary":6917,"({'":6918,"Img":6919,"package":6920,"media":6921,"Ġextended":6922,"Ġsignature":6923,"Executor":6924,"ĠOllamaServerConfig":6925,"Ġtags":6926,"rupt":6927,"Reader":6928,"chemy":6929,"andidates":6930,"ercial":6931,"76":6932,"Click":6933,"MESS":6934,"Playbook":6935,"elems":6936,"elastic":6937,"pay":6938,"}'.":6939,"æĹ":6940,"alchemy":6941,"Ġsocket":6942,"experiment":6943,"constructor":6944,"pooled":6945,"ĠTransform":6946,"projector":6947,"using":6948,"ĠFind":6949,"precomp":6950,"Ġvae":6951,"annel":6952,"Ġsuperclass":6953,"Ġobservation":6954,"Ġgeneral":6955,"Ġgeneric":6956,"teacher":6957,"');<":6958,"DOC":6959,"environment":6960,"ĠParallel":6961,"ĠĠĠĠĠĠĠĠĠĠĠĠĠĠĠĠĠĠĠĠĠĠĠĠĠĠĠĠĠĠĠĠĠĠĠĠĠĠĠĠĠĠĠĠĠ":6962,"efficient":6963,"Ġgelu":6964,"Masked":6965,"Ġdistances":6966,"Ġthemes":6967,"Ġlocation":6968,"pherical":6969,"controlnet":6970,"Ġcontrolnet":6971,"TESTS":6972,"scratch":6973,"(?":6974,")*":6975,"/<":6976,"86":6977,":])<":6978,">\",":6979,"EVA":6980,"Language":6981,"Llama":6982,"OC":6983,"]}<":6984,"sil":6985,"wik":6986,"zone":6987,"ä¿":6988,"éĩ":6989,"Ġtxt":6990,"des":6991,"utation":6992,"asy":6993,"Ġflask":6994,"Ġmight":6995,"Ġclear":6996,"Ġsli":6997,"Ġslice":6998,"Ġsafe":6999,"Ġsandbox":7000,"iding":7001,"raft":7002,"Ġ(*,":7003,"Ġtopo":7004,"__}":7005,"Ġ14":7006,"Ġgym":7007,"attempt":7008,"Ġeod":7009,"ĠPipeline":7010,"Ġdivisible":7011,"embedder":7012,"############":7013,"Ġmeta":7014,"='',":7015,"EST":7016,"viewless":7017,"splitext":7018,"fixed":7019,"Ġrequested":7020,"Ġspecify":7021,"))]<":7022,"Ġinterface":7023,"Ġinside":7024,"Ġfilters":7025,"Ġ})<":7026,"Ġmatching":7027,"ckpts":7028,"Ġcallback":7029,"ĠGPUs":7030,"properties":7031,"freqs":7032,"Ġlink":7033,"dified":7034,"chedulers":7035,"Registry":7036,"Ġtruncated":7037,"Ġmodify":7038,"ĠDistributedDataParallel":7039,"Submodules":7040,"=\"\")<":7041,"futures":7042,"ĠNetwork":7043,"EMBEDDING":7044,"(\"\"":7045,"33":7046,"Abstract":7047,"Drop":7048,"Ld":7049,"Max":7050,"MAN":7051,"ii":7052,"lan":7053,"margin":7054,"nq":7055,"ppo":7056,"ç®":7057,"Ġ^":7058,"Ġlib":7059,"atrix":7060,"Ġtanh":7061,"alyz":7062,"anced":7063,"hest":7064,"ulated":7065,"upd":7066,"Ġconcurrent":7067,"Ġ'/":7068,"Ġlook":7069,"Ġ\"\"\"()":7070,"Ġ[],<":7071,"Ġstk":7072,"Ġ24":7073,"ĠForm":7074,"('_":7075,"ublish":7076,"Ġdims":7077,"joco":7078,"RESET":7079,"ĠSelf":7080,"commercial":7081,"extraction":7082,"Ġtransformation":7083,"Ġupper":7084,"Ġerrors":7085,"Ġdisabled":7086,"Ġextracted":7087,"Choice":7088,"ĠBaseImage":7089,"disabled":7090,"Ġformatting":7091,"ParallelLinear":7092,"ĠConfiguration":7093,"movement":7094,"rimary":7095,"éĢģ":7096,"BytesIO":7097,"Ġfastapi":7098,"Ġdependencies":7099,"Ġtraceback":7100,">```<":7101,"Pos":7102,"System":7103,"SDF":7104,"Task":7105,"cwd":7106,"euclidean":7107,"pal":7108,"delay":7109,"learning":7110,"uting":7111,"chosen":7112,"ams":7113,"Ġshe":7114,"Ġwin":7115,"Ġ-*":7116,"ĠTer":7117,"==<":7118,"ĠCO":7119,"Ġstor":7120,"Ġstable":7121,"Ġstill":7122,"ĠMan":7123,"ocap":7124,"tokenized":7125,"Ġonce":7126,"faces":7127,"Ġresponses":7128,"Ġaltern":7129,"([[":7130,"Ġpercent":7131,"Ġpyrogram":7132,"Ġcoordin":7133,"Ġtrajectories":7134,"Ġiterator":7135,"ĠJson":7136,"CKER":7137,"disk":7138,"Retrie":7139,"cases":7140,"ĠInitial":7141,"ĠZh":7142,"\"[!]":7143,"Ġtkinter":7144,"æľī":7145,"Discrete":7146,"ĠControlNet":7147,"digits":7148,"ĠString":7149,"Ġcharacters":7150,"navigation":7151,"ĠGLOBALS":7152,"firefox":7153,"stronomic":7154,"ANSWER":7155,"ĠQuaternions":7156,"/\",":7157,"Box":7158,"EVAL":7159,"Fin":7160,"Graph":7161,"Mult":7162,"QL":7163,"`].":7164,"ea":7165,"hard":7166,"lins":7167,"mmap":7168,"spl":7169,"ĴĮ":7170,"separator":7171,"advantages":7172,"Ġder":7173,"extModel":7174,"verbose":7175,"Ġresume":7176,"rong":7177,"('<":7178,"Ġanalyze":7179,"ĠVideo":7180,"scroll":7181,"mlu":7182,"retries":7183,"Ġcontact":7184,"Ġpositive":7185,"Ġgrouped":7186,"Ġ...'.":7187,"Expected":7188,"Ġtracker":7189,"ategies":7190,"Ġcurrently":7191,"ĉĉĉ":7192,"CTED":7193,"clicked":7194,"executable":7195,"domains":7196,"Ġepsilon":7197,"replica":7198,"cameras":7199,"downsample":7200,"Ġallows":7201,"ĠPreTrainedModel":7202,"Ġreduction":7203,"Ġoperations":7204,"Ġperformance":7205,"riminator":7206,"Ġsqlalchemy":7207,"------<":7208,"Scatter":7209,"çŃĶ":7210,"ĠSoftware":7211,".\",":7212,"Cannot":7213,"FLAGS":7214,"Missing":7215,"][:":7216,"await":7217,"fy":7218,"font":7219,"follow":7220,"vh":7221,"include":7222,"chars":7223,"Ġpublic":7224,"loud":7225,"Ġssim":7226,"exe":7227,"rome":7228,"pection":7229,"iglu":7230,"attach":7231,"inese":7232,"ĠPad":7233,").\"\"\"<":7234,"Ġsection":7235,"ocator":7236,"ialog":7237,"Ġuniform":7238,"agents":7239,"\")),<":7240,"rylib":7241,"access":7242,"á´ĺ":7243,"Style":7244,"ASK":7245,"Ġcollection":7246,"Ġstarting":7247,"Ġzarr":7248,"interpolation":7249,"insky":7250,"LOCAL":7251,"Ġactive":7252,"factors":7253,"Ġfinetune":7254,"Ġentity":7255,"Ġpatches":7256,"Ġabstractmethod":7257,"afetensors":7258,"accard":7259,"Ġpackaging":7260,"Ġaux":7261,"Checker":7262,"Ġfreeze":7263,"patterns":7264,"CLASS":7265,"ShardedTensor":7266,"ShardedStrategy":7267,"discret":7268,"Ġ=============================================<":7269,"Ġautomatic":7270,"Êľá´ĩ":7271,"writing":7272,"khrylib":7273,"Ġ----------<":7274,"WordPiece":7275,"itespace":7276,"ILITY":7277,"splatting":7278,".\"":7279,"Cli":7280,"DModel":7281,"Ent":7282,"GEN":7283,"HF":7284,"NODE":7285,"big":7286,"beg":7287,"fi":7288,"some":7289,"slug":7290,"ty":7291,"turn":7292,"tlen":7293,"vllm":7294,"xml":7295,"Ġ,":7296,"Ġcell":7297,"ined":7298,"onem":7299,"records":7300,"imal":7301,"Ġpur":7302,"Ġfact":7303,"Ġbl":7304,"Ġwd":7305,"andinsky":7306,"Ġ'',":7307,"ĠCall":7308,"thought":7309,"ĠPeft":7310,"Ġdirection":7311,"Ġruntime":7312,"Ġ<<":7313,"ĠOmegaConf":7314,"Ġseg":7315,"('>":7316,"Ġapex":7317,"DIMScheduler":7318,"moved":7319,"override":7320,"Ġaccum":7321,"STATE":7322,"goal":7323,"google":7324,"PImageProcessor":7325,"Ġintern":7326,"Ġinterval":7327,"Ġdisk":7328,"Ġregistry":7329,"paddings":7330,"Ġarrays":7331,"Ġextension":7332,"Ġproduce":7333,"Ġterm":7334,"ĠTraining":7335,"snapshot":7336,"Ġperson":7337,"2023":7338,"Status":7339,"requirements":7340,"Normalizer":7341,"linspace":7342,"tleneck":7343,"!<":7344,"(\\":7345,">')<":7346,"Call":7347,"CHO":7348,"DD":7349,"First":7350,"MIT":7351,"WH":7352,"_%":7353,"cancel":7354,"credentials":7355,"fuser":7356,"feed":7357,"schema":7358,"Ġhtml":7359,"atan":7360,"Ġfmt":7361,"Ġregex":7362,"Ġbf":7363,"lazy":7364,"setLevel":7365,"ĠLOG":7366,"assign":7367,"ĠPrint":7368,"ĠFrozen":7369,"numbers":7370,"istrable":7371,"Ġshared":7372,"agonal":7373,"ĠUsage":7374,"Ġknowledge":7375,"Configuration":7376,"Ġqa":7377,"Ġcollate":7378,"Ġnoins":7379,"Extra":7380,"expr":7381,"modes":7382,"Attn":7383,"AttnMaskType":7384,"0447":7385,"EXAMPLE":7386,"porary":7387,"HeadAttention":7388,"multimodal":7389,"Point":7390,"diffusers":7391,"blank":7392,"duplicate":7393,"ĠDDPMScheduler":7394,"%%%%%%%%":7395,"ĠGlobals":7396,"Ġ([`":7397,"ĠBlendedMegatron":7398,"MULTI":7399,"Ġnoinspection":7400,")[...,":7401,".,<":7402,".'.":7403,"230":7404,":].":7405,"COR":7406,"Edit":7407,"GO":7408,"On":7409,"gamma":7410,"mine":7411,"rs":7412,"}}":7413,"åĴĮ":7414,"inem":7415,"imer":7416,"gemm":7417,"Ġpush":7418,"Ġfont":7419,"Ġ\"\".":7420,"Ġmid":7421,"Ġcp":7422,"Ġcumulative":7423,"explanation":7424,"pts":7425,"Ġbits":7426,"identity":7427,"raps":7428,"tod":7429,"posed":7430,"formers":7431,"Ġelem":7432,"ĠPool":7433,"ĠPRO":7434,"Ġpropert":7435,"tokenization":7436,"Ġyet":7437,"Ġ400":7438,"pages":7439,"cols":7440,"Ġmaybe":7441,"Ġclassification":7442,"defaults":7443,"Ġintersection":7444,"Selector":7445,"ĠImageNet":7446,"ĠQuestion":7447,"stacks":7448,"Ġnonlocal":7449,"MAP":7450,"Unexpected":7451,"ĠStepError":7452,"Ġwrapped":7453,"Ġsimilar":7454,"ĠFileNotFoundError":7455,"bosity":7456,"ĠBytesIO":7457,"ĠFace":7458,"ĠBeaut":7459,"petition":7460,"İ¨éĢģ":7461,"Ġoccur":7462,"MESSAGE":7463,"!\"<":7464,"./":7465,"GE":7466,"KV":7467,"SP":7468,"catch":7469,"category":7470,"safe":7471,"watch":7472,"æĿ":7473,"Ġ]":7474,"incr":7475,"rosa":7476,"lookup":7477,"Ġ\"../":7478,"Ġnltk":7479,"Ġinplace":7480,"Ġsimp":7481,"Ġssl":7482,"Ġdw":7483,"ellow":7484,"ends":7485,"Ġresolve":7486,"ĠMC":7487,"Ġanother":7488,"ĠBERT":7489,"ĠGrad":7490,"INPUT":7491,"Ġtensorized":7492,"pective":7493,"ively":7494,"ARGET":7495,"AGER":7496,"Ġclassifier":7497,"Ġlearn":7498,"trunc":7499,"ysteres":7500,"Attribute":7501,"PreTrainedModel":7502,"quantization":7503,"connected":7504,"ÉªÉ´":7505,"findall":7506,"ÊĢá´ĩ":7507,"datetime":7508,"TRACKER":7509,"vantage":7510,"æĺŁ":7511,"Ġapprox":7512,"++++++++":7513,"Ġagainst":7514,"MANAGER":7515,"WHITE":7516,"ysteresis":7517,"Async":7518,"Could":7519,"Date":7520,"HyperParams":7521,"Lay":7522,"Page":7523,"Session":7524,"ail":7525,"hw":7526,"nth":7527,"spaces":7528,"turbo":7529,"yellow":7530,"orge":7531,"Ġturn":7532,"recall":7533,"recommend":7534,"deep":7535,"Ġpin":7536,"Ġrest":7537,"Ġnx":7538,"Ġswe":7539,"Ġomega":7540,"concat":7541,"Ġconstructor":7542,"Ġhist":7543,"Ġnote":7544,"plug":7545,"istep":7546,"period":7547,"','":7548,"Ġprevent":7549,"Ġrobomimic":7550,"logprobs":7551,"\"))":7552,"Ġ48":7553,"ĠArgumentParser":7554,"Store":7555,"splits":7556,"readlines":7557,"ĠStable":7558,"ataload":7559,"PECTED":7560,"ĠRead":7561,"ressive":7562,"agicMock":7563,"MODELS":7564,"Ġcolorama":7565,"á´ıá´ľ":7566,"Ġrefresh":7567,"elements":7568,"Ġindividual":7569,"pairs":7570,"Ġsubjects":7571,"Ġdefined":7572,"ãĢĤ<":7573,"044715":7574,":',":7575,"Action":7576,"APP":7577,"Det":7578,"GRO":7579,"Jo":7580,"Of":7581,"PER":7582,"URN":7583,"autoresume":7584,"gym":7585,"hu":7586,"nested":7587,"sym":7588,"stub":7589,"stderr":7590,"Ġsquare":7591,"defics":7592,"Ġbranch":7593,"Ġwidget":7594,"Ġ{:":7595,"Ġhapp":7596,"Ġrule":7597,"perform":7598,"ĠMIT":7599,"ĠEX":7600,"ĠGEMM":7601,"anny":7602,"Ġattempt":7603,"Ġlogvar":7604,"Inference":7605,"Ġneighbors":7606,"Ġaccording":7607,"translation":7608,"links":7609,"LOAD":7610,"Ġactivations":7611,"Ġbackbone":7612,"scalar":7613,"ĠAutoencoderKL":7614,"compat":7615,"Ġcontainer":7616,"POINT":7617,"Generate":7618,"finetune":7619,"ABILITY":7620,"224":7621,"RequestException":7622,"ĠTrainer":7623,"freeze":7624,"Ġhyper":7625,"ometry":7626,"container":7627,"ĠCheckpointing":7628,"åĩº":7629,"stitial":7630,"GREEN":7631,"BACK":7632,"Crop":7633,"Dir":7634,"GR":7635,"HER":7636,"Label":7637,"Memory":7638,"Target":7639,"]\")<":7640,"bad":7641,"bil":7642,"django":7643,"frozen":7644,"iou":7645,"mpt":7646,"socket":7647,"ux":7648,"{<":7649,"çĲ":7650,"Ġestim":7651,"secret":7652,"eno":7653,"rel":7654,"requ":7655,"rock":7656,"Ġflash":7657,"Ġmomentum":7658,"Ġcard":7659,"Ġsyn":7660,"Ġspaces":7661,"Ġdue":7662,"Ġblend":7663,"Ġ(-":7664,"(\"_":7665,"Ġhad":7666,"ĠStop":7667,"embers":7668,"Ġexport":7669,"allclose":7670,"usoid":7671,"Ġdecision":7672,"osp":7673,"ifiers":7674,"stributions":7675,"Ġvq":7676,"Ġknn":7677,"ĠThese":7678,"okens":7679,"unknown":7680,"Ġcontiguous":7681,"ualInversion":7682,"127":7683,"iterations":7684,"Ġcov":7685,"docstring":7686,"Ġchecks":7687,"Ġlocals":7688,"Ġ123":7689,"Ġtech":7690,"Ġexperts":7691,"optimizers":7692,"ĠAttributes":7693,"Ġoptimization":7694,"Ġcloud":7695,"Ġconsist":7696,"æķ°æį®":7697,"Ġrequirements":7698,"åĽŀ":7699,"ĠCLIPTextModel":7700,"Ġdenominator":7701,"ualInversionLoaderMixin":7702,"$$":7703,")`":7704,")],":7705,"255":7706,"AUT":7707,"BUT":7708,"Per":7709,"Rep":7710,"SHO":7711,"Table":7712,"beat":7713,"ever":7714,"fpath":7715,"git":7716,"guidance":7717,"null":7718,"åĨ":7719,"Ġ],":7720,"Ġns":7721,"Ġnone":7722,"implement":7723,"entic":7724,"Ġaw":7725,"extension":7726,"power":7727,"Ġ18":7728,"ĠSkip":7729,"ĠFirst":7730,"\"]),<":7731,"gradio":7732,"joinpath":7733,"ATCH":7734,"ĠAnswer":7735,"Ġgradio":7736,"STER":7737,"subprocess":7738,"transition":7739,"See":7740,"Ġcapture":7741,"Ġscales":7742,"Ġstatistics":7743,"quality":7744,"Unknown":7745,"Format":7746,"Ġconditioning":7747,"Ġmultip":7748,"lugin":7749,"calculator":7750,"ĠIMAGE":7751,"Ġbehavior":7752,")$":7753,")\":":7754,"-\\":7755,"IZ":7756,"NEL":7757,"Queue":7758,"Row":7759,"TypedDict":7760,"blend":7761,"vic":7762,"wen":7763,"wallet":7764,"¦ģ":7765,"roles":7766,"Ġpot":7767,"Ġprimary":7768,"Ġmot":7769,"unbind":7770,"extended":7771,"illa":7772,"ĠAuth":7773,"Ġgamma":7774,"ĠLi":7775,"omog":7776,"ĠSp":7777,"inition":7778,"ĠRET":7779,"Ġresource":7780,"008":7781,"ĠMAX":7782,"ĠMagicMock":7783,"comment":7784,"pointer":7785,"metas":7786,"licated":7787,"ĠWindow":7788,"npz":7789,"Ġindexes":7790,"tech":7791,"probas":7792,"Ġhel":7793,"Ġcoords":7794,"intersection":7795,"curity":7796,"Ġcaptions":7797,"Unsupported":7798,"double":7799,"edges":7800,"TextDataset":7801,"ĠEnsure":7802,"LDER":7803,"Ġplan":7804,"guess":7805,"capacity":7806,"Ġannotations":7807,"Ġlangchain":7808,"ĠInteger":7809,"è§Ĵ":7810,"slices":7811,"ataloaders":7812,"Create":7813,"Episode":7814,"Handle":7815,"ached":7816,"begin":7817,"dst":7818,"docker":7819,"evidence":7820,"nv":7821,"spherical":7822,"td":7823,"tar":7824,"two":7825,"wi":7826,"zh":7827,"åľ":7828,"è¾":7829,"decoded":7830,"Ġpeft":7831,"Ġflip":7832,"aming":7833,"Ġmix":7834,"Ġmmap":7835,"Ġcert":7836,"Ġbasic":7837,"lies":7838,"Ġ()":7839,"ssl":7840,"arger":7841,"ĠAs":7842,"ĠCUDA":7843,"Ġlons":7844,"ĠICT":7845,"005":7846,"sampled":7847,"until":7848,"methods":7849,"phers":7850,"Ġindexmap":7851,"***":7852,"transfer":7853,"bleu":7854,"documents":7855,"Program":7856,"gments":7857,"Ġfail":7858,"descriptions":7859,"Ġfinally":7860,"itect":7861,"ï¼ļ":7862,"ĠShardedObject":7863,"Post":7864,"Ġstreaming":7865,"roller":7866,"ValueWith":7867,"192":7868,"Ġabsolute":7869,"humanml":7870,"ĠTimeoutError":7871,"âķĲâķĲâķĲâķĲ":7872,"balancing":7873,"Ġfunctionality":7874,"holders":7875,"ç®Ĺ":7876,"Ġoccurred":7877,"ValueWithRank":7878,"Array":7879,"CESS":7880,"DM":7881,"GHT":7882,"Namespace":7883,"claude":7884,"dantic":7885,"hist":7886,"tick":7887,"watermark":7888,"å¹":7889,"çī":7890,"ines":7891,"rest":7892,"Ġfhs":7893,"Ġrecords":7894,"ings":7895,"Ġsan":7896,"Ġast":7897,"digest":7898,"series":7899,"strategies":7900,"getcwd":7901,"(\",":7902,"quiz":7903,"##<":7904,"clus":7905,"keyword":7906,"Ġdet":7907,"Ġdelay":7908,"way":7909,"Ġsep":7910,"licies":7911,"Ġconfigs":7912,"ĠVision":7913,"scene":7914,"sumed":7915,"DEF":7916,"ĠKe":7917,"Ġaccelerator":7918,"ĠStore":7919,"aky":7920,"Projection":7921,"Ġadvantages":7922,"notdiamond":7923,"Ġtimm":7924,"tables":7925,"Listener":7926,"Enter":7927,"Ġconvolution":7928,"Ġprefixes":7929,"á´ĩÊĢ":7930,"ðĿĳ":7931,"ðĿļ":7932,"Ġepochs":7933,"Decode":7934,"TransformerBlock":7935,"parameterized":7936,"åĪĨ":7937,"Ġattrs":7938,"æŀľ":7939,"treetune":7940,"CharField":7941,"SYSTEM":7942,"javascript":7943,"facebookresearch":7944,"GENER":7945,"todos":7946,"usoidal":7947,"/\")<":7948,"PC":7949,"PH":7950,"Score":7951,"Safety":7952,"Version":7953,"cpp":7954,"draw":7955,"fmt":7956,"hore":7957,"mpeg":7958,"sol":7959,"square":7960,"¡ç®Ĺ":7961,"è¦ģ":7962,"Ġim":7963,"ini":7964,"erialize":7965,"deepcopy":7966,"decorator":7967,"rove":7968,"analyze":7969,"chuan":7970,"Ġpsnr":7971,"Ġffn":7972,"Ġmargin":7973,"Ġnb":7974,"Ġskeleton":7975,"Ġauthor":7976,"Ġbal":7977,"unroute":7978,"setdefault":7979,"ĠAct":7980,"Ġgbuf":7981,"Ġhuman":7982,"ĠSolver":7983,"ĠSkeleton":7984,"ĠPipes":7985,"\"]]<":7986,"energ":7987,"Ġpreds":7988,"Ġpretraining":7989,"ĠEach":7990,"Ġtensorflow":7991,"\")))<":7992,"cud":7993,"Ġwhite":7994,"Ġwhitespace":7995,"ĠInvalid":7996,"Ġgenerations":7997,"ModuleSpec":7998,"Ġperiod":7999,"Ġqvel":8000,"ĠExit":8001,"tak":8002,"START":8003,"subset":8004,"translator":8005,"interface":8006,"insics":8007,"aug":8008,"Directory":8009,"note":8010,"Ġface":8011,"Ġlater":8012,"Ġscaler":8013,"}.\"<":8014,"ighbours":8015,"Ġtrust":8016,"ĠSetup":8017,"Completion":8018,"ĠTypeError":8019,"autocast":8020,"cyan":8021,"Ġconsider":8022,"Ġmodified":8023,"Ġ\"[!]":8024,"Ġamount":8025,"pusht":8026,"Web":8027,"Ġautomatically":8028,"bilinear":8029,"SafetyChecker":8030,")}<":8031,"44":8032,"85":8033,"Bo":8034,"Browser":8035,"OF":8036,"Total":8037,"Using":8038,"]\"":8039,"ah":8040,"ccl":8041,"mips":8042,"nll":8043,"vas":8044,"wt":8045,"wner":8046,"xlabel":8047,"zA":8048,"çĽ":8049,"rope":8050,"Ġfan":8051,"Ġfeed":8052,"edrock":8053,"Ġmodal":8054,"Ġreprod":8055,"Ġcipher":8056,"Ġnd":8057,"fromarray":8058,"Ġway":8059,"ully":8060,"__))<":8061,"__)),":8062,"Ġgc":8063,"Ġgive":8064,"ĠLlava":8065,"Ġhop":8066,"ĠSpec":8067,"processes":8068,"Ġlate":8069,"initions":8070,"Ġdeterm":8071,"ĠFI":8072,"ĠFrom":8073,"ĠMult":8074,"compare":8075,"ĠBack":8076,"ĠWrite":8077,"ĠWord":8078,"posit":8079,"ivity":8080,"READ":8081,"lecture":8082,"collect":8083,"ĠAnthropic":8084,"DED":8085,"Ġruns":8086,"submit":8087,"Example":8088,"normalization":8089,"levelname":8090,"Distributed":8091,"Ġcached":8092,"Ġcorrectly":8093,"Ġá´Ħ":8094,"bitmq":8095,"accs":8096,"ĠCLIPImageProcessor":8097,"ĠRotary":8098,"Ġscripts":8099,"HEAD":8100,"Ġhandling":8101,"-------<":8102,"Ġmaint":8103,"When":8104,"####################################################":8105,"Ġintegers":8106,"ĠTeradata":8107,"DiscreteScheduler":8108,"Ġinternal":8109,"AP":8110,"AZ":8111,"Custom":8112,"Matrix":8113,"Over":8114,"Ut":8115,"Zero":8116,"az":8117,"cer":8118,"einsum":8119,"focus":8120,"growth":8121,"oup":8122,"passed":8123,"tuning":8124,"å¾":8125,"stars":8126,"ged":8127,"ctime":8128,"Ġmd":8129,"heel":8130,"Ġslug":8131,"Ġtheta":8132,"Ġasynchronous":8133,"conn":8134,"confidence":8135,">#################################":8136,"quared":8137,"Ġhard":8138,"Ġhref":8139,"ĠFP":8140,"ĠRE":8141,"ĠOver":8142,"ĠUSE":8143,"lying":8144,"SES":8145,"ĠĠĠĠĠĠĠĠĠĠĠĠĠĠĠĠĠĠĠĠĠĠĠĠĠĠĠĠĠĠĠĠĠĠĠĠĠĠĠĠĠĠĠĠĠĠĠĠĠĠ":8146,"major":8147,"attentions":8148,"rots":8149,"closed":8150,"Ġleg":8151,"bsocket":8152,"Ġfilenames":8153,"Ġbetter":8154,"Ġclientai":8155,"Ġ\"./":8156,"ĠShardedTensorFactory":8157,"expanduser":8158,"built":8159,"building":8160,"triangles":8161,"ĠAssetKey":8162,"Ġdots":8163,"sender":8164,"allocate":8165,"Depend":8166,"igger":8167,"reenshot":8168,"Super":8169,"AZURE":8170,"\".<":8171,"'%":8172,"72":8173,"Author":8174,"Be":8175,"BOT":8176,"Course":8177,"Callback":8178,"Do":8179,"Dagster":8180,"DDP":8181,"Equal":8182,"LATION":8183,"Schedulers":8184,"^\\":8185,"flip":8186,"hop":8187,"iLU":8188,"suggest":8189,"ä¹":8190,"è½":8191,"Ġttk":8192,"Ġ=================":8193,"recon":8194,"deploy":8195,"amount":8196,"Ġmq":8197,"ceive":8198,"Ġsort":8199,"adlr":8200,"Ġollama":8201,"ptr":8202,"lihood":8203,"integ":8204,"ising":8205,"Ġconversation":8206,"Ġ'')<":8207,"aba":8208,"ĠScorer":8209,"ĠFloat":8210,"ĠFAI":8211,"ĠFilter":8212,"Ġthose":8213,"psample":8214,"ĠWeights":8215,"Ġrol":8216,"Ġkernels":8217,"[::-":8218,"observations":8219,"ĠArgus":8220,"LID":8221,"reader":8222,"AGES":8223,"placeholder":8224,"Ġchunked":8225,"Ġapplication":8226,"rollout":8227,"Change":8228,"ĠBaseLowdim":8229,"Ġcalling":8230,"DiffusionSchedulers":8231,"Args":8232,"({<":8233,"Ġtransition":8234,"invocation":8235,"finetuning":8236,"Compose":8237,"ĠĠĠĠĠĠĠĠĠĠĠĠĠĠĠĠĠĠĠĠĠĠĠĠĠĠĠĠĠĠĠĠĠĠĠĠĠĠĠĠĠĠĠĠ":8238,"Ġgeo":8239,"RIBUT":8240,"buckets":8241,"ĠMultiHeadAttention":8242,"Ġspan":8243,"Ġspatial":8244,"SCRI":8245,"Ġrewards":8246,"Ġadjusted":8247,"('./":8248,"ä»¥":8249,"Ġprior":8250,"english":8251,"pacity":8252,"Ġexpire":8253,"ĠGoogle":8254,"Layout":8255,"clusive":8256,"Ġdetermine":8257,">â":8258,"Case":8259,"GS":8260,"Ops":8261,"SV":8262,"Ser":8263,"cis":8264,"craft":8265,"dw":8266,"fd":8267,"glu":8268,"hip":8269,"kp":8270,"oto":8271,"ti":8272,"tension":8273,"{{":8274,"¦Ĥ":8275,"åĮ":8276,"enes":8277,"rector":8278,"remat":8279,"chans":8280,"asis":8281,"Ġpol":8282,"Ġmom":8283,"peech":8284,"Ġbw":8285,"Ġbz":8286,"unity":8287,"dilation":8288,"Ġws":8289,"getHeader":8290,"iline":8291,"ĠNO":8292,"()\")<":8293,"ĠAlib":8294,"ĠLora":8295,"keyB":8296,"wave":8297,"egressive":8298,"Ġsen":8299,"iful":8300,"components":8301,"Ġjseq":8302,"Ġones":8303,"logvar":8304,"Ġ:].":8305,"Ġposter":8306,"ĠInstruction":8307,"fference":8308,"ĠStart":8309,"ĠStyle":8310,"interpolate":8311,"Ġdocstring":8312,"Ġless":8313,"Ġletters":8314,"hoto":8315,"Ġinterpolation":8316,"Ġdiscret":8317,"AMA":8318,"Ġscan":8319,"captions":8320,"TrainData":8321,"AND":8322,"beams":8323,"refer":8324,"executor":8325,"Ġexecuted":8326,"ĠResult":8327,"(\"./":8328,"Settings":8329,"utoregressive":8330,"ĠParameter":8331,"Ġ\\\\<":8332,"Ġchannelmap":8333,"Ġmyjson":8334,"Ġassetdir":8335,"ough":8336,"ĠAssetExecutionContext":8337,"êľ°":8338,"ĠDocstring":8339,"Ġcompatible":8340,"Iteration":8341,"LevelDataset":8342,"ĠRetrieve":8343,"Integer":8344,"Created":8345,"Ġbiencoder":8346,"hammer":8347,"plugin":8348,"çĲĨ":8349,"ĠRETURN":8350,"pository":8351,"ĠAlibaba":8352,"*\",<":8353,"54":8354,"94":8355,"ARE":8356,"CODE":8357,"EE":8358,"Map":8359,"Success":8360,"Top":8361,"[(":8362,"[/":8363,"average":8364,"cert":8365,"candidates":8366,"dret":8367,"horizon":8368,"judge":8369,"ost":8370,"pNamed":8371,"xs":8372,"Ġ))<":8373,"Ġimagen":8374,"enu":8375,"Ġtw":8376,"resent":8377,"arize":8378,"itting":8379,"Ġput":8380,"Ġpayload":8381,"Ġinqui":8382,"Ġsources":8383,"entially":8384,"defined":8385,"Ġaio":8386,"\"\"\",<":8387,"Ġwav":8388,"extensions":8389,"iling":8390,"ĠAudio":8391,"omial":8392,"ĠSE":8393,"ĠSH":8394,"Ġstored":8395,"profile":8396,"Ġeos":8397,"contact":8398,"bounding":8399,"Ġbyte":8400,"oreset":8401,"workflow":8402,"Instance":8403,"Ġaccept":8404,"responses":8405,"ĠStudent":8406,"fns":8407,"timestamps":8408,"agenta":8409,"Network":8410,"dispose":8411,"Ġtruth":8412,"Ġexplicit":8413,"gathered":8414,"Ġembedder":8415,"wrapped":8416,"Ġregular":8417,"Ġencodings":8418,"planes":8419,"Ġgeorge":8420,"ĠDeepSpeed":8421,"COL":8422,"ĠZero":8423,"Ġcomputed":8424,"autoreset":8425,"Ġbuilder":8426,"ĠAdjust":8427,"Ġlocator":8428,"ä»¶":8429,"Metric":8430,"âĢĻ":8431,"Ġè®":8432,"zzz":8433,"Ġexceeded":8434,"BertModel":8435,"ĠTempNamed":8436,"TRAINED":8437,"Ġsnapshot":8438,"Ġpixel":8439,"CHANNEL":8440,"Ġexceeds":8441,"Ġalternate":8442,"Only":8443,"energy":8444,"cudnn":8445,"takis":8446,"Ġlatest":8447,"drettakis":8448,"Ġinquiries":8449,"ĠTempNamedDir":8450,"!!":8451,"/%":8452,"Final":8453,"Length":8454,"PY":8455,"Pad":8456,"]**":8457,"]])":8458,"ao":8459,"aint":8460,"bc":8461,"mmlu":8462,"oper":8463,"pcfg":8464,"slo":8465,"æī":8466,"Ġartifact":8467,"seud":8468,"Ġpanel":8469,"Ġ\"\",<":8470,"Ġreply":8471,"Ġcot":8472,"entence":8473,"ighest":8474,"Ġauth":8475,"raction":8476,"andbytes":8477,"ĠTr":8478,"Ġconcept":8479,"();<":8480,"shop":8481,"cluster":8482,"Ġher":8483,"ĠScal":8484,"Ġdecor":8485,"ĠRO":8486,"Ġshs":8487,"}</":8488,"Ġcomment":8489,"fork":8490,"ĠVari":8491,"berta":8492,"oulder":8493,"Ġalloc":8494,"started":8495,"Ġpydantic":8496,"trainedConfig":8497,"AGSTER":8498,"Ġrunner":8499,"Ġqueryset":8500,"transitions":8501,"VICE":8502,"Ġdocs":8503,"ĠShould":8504,"Ġfeats":8505,"kipedia":8506,"disable":8507,"Based":8508,"flower":8509,"ĠChannel":8510,"ToTextDataset":8511,"Ġckpts":8512,"iliary":8513,"ĠThere":8514,"ĠModuleSpec":8515,"Ġmmcv":8516,"Ġbook":8517,"Ġincluded":8518,"Ġpairs":8519,"Docstring":8520,"ĠSdfCli":8521,"ĠPosition":8522,"hybrid":8523,"ĠLLa":8524,"challenges":8525,"Ġadapted":8526,"rectories":8527,"sloth":8528,")-":8529,")\",<":8530,"220":8531,"ACT":8532,"BERT":8533,"Limit":8534,"LAY":8535,"Locator":8536,"Pix":8537,"Simple":8538,"Soup":8539,"SiLU":8540,"dc":8541,"dom":8542,"gb":8543,"ohot":8544,"ql":8545,"rstrip":8546,"}]":8547,"instantiate":8548,"onical":8549,"rech":8550,"imate":8551,"Ġpower":8552,"Ġremoved":8553,"Ġincorrect":8554,"Ġsumm":8555,"Ġday":8556,"Ġbit":8557,"Ġ(:":8558,"setattr":8559,"oney":8560,"gether":8561,"otes":8562,"integer":8563,"cov":8564,"ĠCl":8565,"ĠCan":8566,"thing":8567,"abort":8568,"rist":8569,"Ġear":8570,"Ġdatapaths":8571,"ĠPatch":8572,"ĠPAI":8573,"Ġdemo":8574,"Ġdebug":8575,"ĠFOR":8576,"ĠFast":8577,"numer":8578,"loading":8579,"Ġprotocol":8580,"ĠEpisode":8581,"nnot":8582,"\")]<":8583,"phonem":8584,"ModelParallelRegion":8585,"viewpoint":8586,"attrs":8587,"specific":8588,"emails":8589,"Ġadapter":8590,"okenizer":8591,"2048":8592,"Analyzer":8593,"multichoice":8594,"packed":8595,"Ġapplying":8596,"ĠEnv":8597,"istral":8598,"WORD":8599,"ĠLoRA":8600,"Ġpacked":8601,"tmpdir":8602,"destination":8603,"Ġconnect":8604,"redirects":8605,"Classification":8606,"rypto":8607,"Translator":8608,"ãĢģ":8609,"Validation":8610,"Ġarchitect":8611,"GradScaler":8612,"detected":8613,"Ġcharacter":8614,"ĠCounter":8615,"SdfTranslator":8616,"Ġ-------------------------------------------------":8617,"AssetExecutionContext":8618,"wiki":8619,"ĠSelfAttention":8620,"Ġstoring":8621,"discrete":8622,"ĠBeautiful":8623,"Ġrollout":8624,"SCRIPT":8625,"ĠBeautifulSoup":8626,"300":8627,"41":8628,"73":8629,"91":8630,"Cam":8631,"Owner":8632,"Tree":8633,"XL":8634,"bda":8635,"false":8636,"lb":8637,"uations":8638,"}%":8639,"ç¬":8640,"ç½":8641,"èµ":8642,"ĠÐ":8643,"stock":8644,"asctime":8645,"Ġfmap":8646,"loor":8647,"Ġrecurs":8648,"Ġcopied":8649,"Ġiou":8650,"Ġsa":8651,"Ġsol":8652,"Ġay":8653,"Ġbx":8654,"Ġ(_":8655,"pardir":8656,"()\"\"\"<":8657,"ĠAss":8658,"Ġgra":8659,"\"<|":8660,"think":8661,"Ġelastic":8662,"ĠgetLogger":8663,"ĠRMS":8664,"\"]]":8665,"wav":8666,"Ġthink":8667,"Ġresample":8668,"Ġsec":8669,"ardown":8670,"ponential":8671,"INO":8672,"aichuan":8673,"TIC":8674,"ĠVector":8675,"pause":8676,"Ġ::":8677,"imgs":8678,"most":8679,"eature":8680,"owner":8681,"RAPH":8682,"latex":8683,"Ġ502":8684,"seqs":8685,"ttp":8686,"))[":8687,"Ġcoeff":8688,"')[-":8689,"blems":8690,"Ġiterable":8691,"ImageProcessor":8692,"signature":8693,"biased":8694,"ĠBaseModel":8695,"assetdir":8696,"ADATA":8697,"Ġsqrt":8698,"multip":8699,"truths":8700,"Ġgemini":8701,"Control":8702,"Ġsklearn":8703,"ciphers":8704,"Ġæľ":8705,"ibly":8706,"needles":8707,"Thread":8708,"Ġinfinite":8709,"äºİ":8710,"Ġassume":8711,"Ġsliding":8712,".*?":8713,"Ġ:-)')<":8714,"Ġguess":8715,"ĠMethod":8716,"ĠMetric":8717,"Ġorigin":8718,"~~~~~~~~":8719,"INTERPO":8720,"Ġ4096":8721,"Ġdestination":8722,"arpness":8723,"silu":8724,"ĠZhou":8725,"rechet":8726,"'\")<":8727,"';<":8728,"/\"<":8729,"09":8730,"87":8731,"Back":8732,"Bench":8733,"Plugin":8734,"Router":8735,"Window":8736,"XT":8737,"author":8738,"cs":8739,"cnn":8740,"ee":8741,"fw":8742,"fea":8743,"mum":8744,"modal":8745,"oke":8746,"promise":8747,"rerun":8748,"sph":8749,"zon":8750,"å¿":8751,"æ®":8752,"Ġvec":8753,"Ġvery":8754,"separate":8755,"alg":8756,"chast":8757,"Ġpr":8758,"Ġmit":8759,"Ġmuch":8760,"urations":8761,"peated":8762,"setHeader":8763,"policies":8764,"ĠNow":8765,"uplicated":8766,"ypes":8767,"()}":8768,"()}\"<":8769,"ĠACT":8770,"ĠAdapt":8771,"ĠCode":8772,"ĠLow":8773,"\",)<":8774,"formatter":8775,"abstract":8776,"ĠSec":8777,"Ġdiagonal":8778,"Ġlarger":8779,"ĠFLAGS":8780,"Ġthird":8781,"tensorboard":8782,"masking":8783,"ĠEnt":8784,"__(**":8785,"ĠGroq":8786,"ORT":8787,"anning":8788,"ĠThey":8789,"scape":8790,"ranges":8791,"DataSource":8792,"tached":8793,"AGEN":8794,"STM":8795,"structed":8796,"ĠShortcut":8797,"Ġendpoint":8798,"ĠTransformerLayer":8799,"replicate":8800,"ToTensor":8801,"cased":8802,"microbatch":8803,"RequestError":8804,"RIGHT":8805,"Ġenvironments":8806,"Ġvirtual":8807,"ĠTextualInversionLoaderMixin":8808,"Admin":8809,"dots":8810,"Ġdspy":8811,"ynchronize":8812,"Ġedges":8813,"OUTPUT":8814,"digit":8815,"Update":8816,"identifiers":8817,"fsdp":8818,"æłĩ":8819,"computed":8820,"ĠKarrasDiffusionSchedulers":8821,"çº¬":8822,"GROUP":8823,"Act":8824,"IP":8825,"Io":8826,"JSON":8827,"LER":8828,"Mean":8829,"Mark":8830,"Mapping":8831,"Weights":8832,"_\"":8833,"ece":8834,"hit":8835,"hance":8836,"mse":8837,"mixed":8838,"sat":8839,"syn":8840,"Ġem":8841,"atmap":8842,"Ġtgt":8843,"rewrite":8844,"ale":8845,"lfw":8846,"Ġmse":8847,"Ġcr":8848,"Ġcategory":8849,"roma":8850,"Ġtoo":8851,"Ġassets":8852,"____":8853,"cop":8854,"isions":8855,"versed":8856,"verbosity":8857,"Ġglfw":8858,"Ġhighest":8859,"about":8860,"velo":8861,"ĠPDF":8862,"Ġthresh":8863,"Ġrescale":8864,"tensorized":8865,"Ġproblems":8866,"ĠVer":8867,"Ġknown":8868,"acies":8869,"bolic":8870,"DIS":8871,"modif":8872,"SEC":8873,"portions":8874,"aches":8875,"ĠĠĠĠĠĠĠĠĠĠĠĠĠĠĠĠĠĠĠĠĠĠĠĠĠĠĠĠĠĠĠĠĠĠĠĠĠĠĠĠĠĠĠĠĠĠĠĠĠ":8876,"ĠHel":8877,"Ġjsonify":8878,"overflow":8879,"Ġdicts":8880,"Ġagents":8881,"ucing":8882,"locals":8883,"ĠDataSource":8884,"Ġbaseline":8885,"Provide":8886,"curacies":8887,"Ġchecking":8888,"Ġwindows":8889,"reedy":8890,"ĠJo":8891,"PreTrainedTokenizer":8892,"BaseOutput":8893,"ðĿĺ":8894,"ĠResNet":8895,"Ġfiltered":8896,"prior":8897,"Ġnethook":8898,"Ġteradata":8899,"ĠConverts":8900,"pipelining":8901,"persistent":8902,"ĠAdded":8903,"IGNORE":8904,"Ġtruncation":8905,"leted":8906,"Ġshifted":8907,"Ġregistered":8908,"Vari":8909,"accounts":8910,"guided":8911,"ViT":8912,"ĠWorkflow":8913,"æĪĲ":8914,"ĠClientAI":8915,"Ġ\"**/*\",<":8916,"ĠCLIPTokenizer":8917,"ĠStateDict":8918,"REGI":8919,"feedforward":8920,"2309":8921,"è¾ĵ":8922,"Ġposterior":8923,"INTERPOLATION":8924,"æ®µ":8925,"chastic":8926,"Flax":8927,"Hub":8928,"LES":8929,"NS":8930,"Rot":8931,"Scope":8932,"Socket":8933,"`\")<":8934,"circle":8935,"fbx":8936,"hue":8937,"pids":8938,"safetensors":8939,"æģ":8940,"Ġed":8941,"Ġvertices":8942,"Ġlayout":8943,"choo":8944,"Ġfine":8945,"Ġmixed":8946,"Ġrefer":8947,"Ġremov":8948,"Ġrepetition":8949,"Ġspa":8950,"Ġspect":8951,"advantage":8952,"uri":8953,"Ġwatermark":8954,"__,":8955,"intent":8956,"Ġ-------<":8957,"ĠTP":8958,"(\"[":8959,"ĠAM":8960,"ĠSend":8961,"Ġxyz":8962,"ĠPass":8963,"corr":8964,"Ġprevents":8965,"statistics":8966,"á´ł":8967,"returns":8968,"blocking":8969,"Ġjsonl":8970,"ATES":8971,"lerobot":8972,"maphore":8973,"communication":8974,"Ġsubproblem":8975,"ĠStream":8976,"boxes":8977,"Ġcompile":8978,"Ġscatter":8979,"Ġhttpx":8980,"ategories":8981,"Ġvars":8982,"Ġhelpful":8983,"ĠBaseOutput":8984,"SIG":8985,"Ġnormalizer":8986,"ĠTestServer":8987,"EXPECTED":8988,"multiline":8989,"TOKENIZ":8990,"Shot":8991,"ĠMegatronDataset":8992,"depths":8993,"Ġ'./":8994,"Ġbuckets":8995,"Ġoptimizers":8996,"Ġclosure":8997,"warnings":8998,"dotenv":8999,"BOS":9000,"allowed":9001,"Ġbroadcasting":9002,"åĬł":9003,"ĠLinearNormalizer":9004,"Ġhandles":9005,"StreamResponse":9006,"ĠTokenizer":9007,"secure":9008,"Embedder":9009,"MOD":9010,"contains":9011,"ĠCLIPVision":9012,"Document":9013,"escape":9014,"dispatcher":9015,"children":9016,"Ġissues":9017,"CrossAttention":9018,"Available":9019,"Ġlibrosa":9020,"inematic":9021,"requency":9022,"çīĩ":9023,"ĠFAISS":9024,"chooser":9025,"ĠTestServerRequest":9026,"(()":9027,"*:":9028,".{":9029,"59":9030,"63":9031,">\\":9032,"FN":9033,"Raw":9034,"Unet":9035,"Usage":9036,"Vec":9037,"`]):<":9038,"cutoff":9039,"gbuf":9040,"lons":9041,"ned":9042,"vanced":9043,"Òĵ":9044,"Ġzeros":9045,"įåĬ":9046,"ľâĶĢ":9047,"injected":9048,"alth":9049,"robot":9050,"itles":9051,"geo":9052,"Ġfo":9053,"imports":9054,"odetic":9055,"distribution":9056,"Ġwrong":9057,"Ġtoxic":9058,"Ġtogether":9059,"ulating":9060,"covery":9061,"verify":9062,"aped":9063,"ĠSo":9064,"ĠSystem":9065,"Ġstderr":9066,"Ġ23":9067,"rip":9068,"Ġdivision":9069,"Ġdeg":9070,"ĠDDIMScheduler":9071,"preprocessing":9072,"Ġunbiased":9073,"redit":9074,"querySelector":9075,"screen":9076,"lowdim":9077,"Ġlogin":9078,"ModelArguments":9079,"Ġmasking":9080,"Ġalgo":9081,"aching":9082,"ĠĠĠĠĠĠĠĠĠĠĠĠĠĠĠĠĠĠĠĠĠĠĠĠĠĠĠĠĠĠĠĠĠ":9083,"libs":9084,"Ġqdrant":9085,"Ġweighted":9086,"readable":9087,"ITEM":9088,"rotmat":9089,"Problem":9090,"Ġ80":9091,"Ġcommit":9092,"Ġtimestamps":9093,"Ġá´ı":9094,"Device":9095,"Ġmanually":9096,"partitions":9097,"WORLD":9098,"etuningArguments":9099,"Ġcleaned":9100,"ĠImplement":9101,"riterion":9102,"Ġradii":9103,"Ġcomputing":9104,"Ġsimilarity":9105,"Running":9106,"../..":9107,"ometric":9108,"ĠPost":9109,"ĠReplicate":9110,"ĠRepresent":9111,"accumulate":9112,"Ġmoves":9113,"prime":9114,"serialization":9115,"ddpm":9116,"Default":9117,"interleaved":9118,"misc":9119,"Ġcookies":9120,"è¡Į":9121,"Ġhorizontal":9122,"ĠReference":9123,"OCAB":9124,"implementation":9125,"multiplier":9126,"'re":9127,"2000":9128,"As":9129,"AVE":9130,"Dialog":9131,"Non":9132,"Option":9133,"Ollama":9134,"RT":9135,"TRAN":9136,"Vis":9137,"Vocab":9138,"Whether":9139,"aN":9140,"jobs":9141,"mag":9142,"middle":9143,"å¯":9144,"Ġes":9145,"Ł¥":9146,"inuation":9147,"review":9148,"ression":9149,"received":9150,"del":9151,"detail":9152,"anilla":9153,"Ġpublish":9154,"Ġfit":9155,"Ġ\"\").":9156,"ctrl":9157,"Ġmedia":9158,"Ġrec":9159,"Ġcat":9160,"Ġ#####################################################":9161,"distributions":9162,"ateLimit":9163,"Ġ-----<":9164,"ĠTH":9165,"Ġconcatenate":9166,"Ġconfidence":9167,"Ġgives":9168,"Ġhar":9169,"ĠSup":9170,"embd":9171,"Ġdistribute":9172,"ĠDrop":9173,"callable":9174,"Ġrespon":9175,"Ġ_(\"":9176,"Ġuntil":9177,"Ġjpos":9178,"ORCH":9179,"swe":9180,"posite":9181,"quival":9182,"ENS":9183,"ĠĠĠĠĠĠĠĠĠĠĠĠĠĠĠĠĠĠĠĠĠĠĠĠĠĠĠĠĠĠĠĠĠĠĠĠĠĠĠĠĠĠĠ":9184,"Ġperplexity":9185,"team":9186,"ĠSearch":9187,"Ġaccessed":9188,"Ġ...\")<":9189,"Ġadds":9190,"ĠStat":9191,"sequences":9192,"Search":9193,"enced":9194,"Ġworkers":9195,"ROM":9196,"]]):":9197,"Encoding":9198,"(*_":9199,"Ġteardown":9200,"downloads":9201,"nontoxic":9202,"chained":9203,"instagram":9204,"rolling":9205,"annotators":9206,"Ġindic":9207,"Ġtruncate":9208,"latitudes":9209,"Ġincludes":9210,"memmory":9211,"Ġpossibly":9212,"ĠEmbeddings":9213,"ĠNormal":9214,"Original":9215,"Ġlonger":9216,"loyd":9217,"Ġboolean":9218,"Ġeffect":9219,"Ġjoblib":9220,"helpers":9221,"Êıá´ıá´ľ":9222,"ĠValidate":9223,"åŃĹ":9224,"Ġnumerical":9225,"Ġtrimmed":9226,"VeScheduler":9227,"Retriever":9228,"Multistep":9229,"Ġarchitecture":9230,"ç½®":9231,");":9232,")',":9233,"CS":9234,"CY":9235,"CAM":9236,"Down":9237,"ECT":9238,"GD":9239,"OM":9240,"TLS":9241,"WARE":9242,"ddim":9243,"fwd":9244,"hysteresis":9245,"rd":9246,"wheel":9247,"å·":9248,"Ġ...,":9249,"Ġembeds":9250,"Ġlecturer":9251,"Ġlevels":9252,"Ġtemb":9253,"stem":9254,"arc":9255,"Ġpwn":9256,"Ġdense":9257,"Ġwraps":9258,"conversation":9259,"ĠNaN":9260,"ĠTop":9261,"isdir":9262,"Ġconcat":9263,"ĠSO":9264,"Ġ21":9265,"Ġequ":9266,"ĠPromise":9267,"Ġren":9268,"ĠDraw":9269,"\"]))<":9270,"ront":9271,"addEvent":9272,"Ġproc":9273,"Ġproper":9274,"ONE":9275,"Ġ36":9276,"ĠGe":9277,"bugging":9278,"irm":9279,"ModelMixin":9280,"achine":9281,"ĠHttp":9282,"nearest":9283,"Ġnearest":9284,"Ġstartup":9285,"Ġpassing":9286,"Prod":9287,"expi":9288,"reqs":9289,"linearity":9290,"Ġreading":9291,"Ġinitializer":9292,"Ġsoup":9293,"Processing":9294,"CONTEXT":9295,"ĠGeneric":9296,"Ġæİ¨éĢģ":9297,"Ġmappings":9298,"Ġsegments":9299,"pipes":9300,"}:{":9301,"showerror":9302,"åĪ°":9303,"Ġsmaller":9304,"Validate":9305,"Orm":9306,"12341234":9307,"Ġdefines":9308,"Ġfinished":9309,"MoE":9310,"basicConfig":9311,"Ġchallenges":9312,"handlers":9313,"Ġmaking":9314,"Ġsympy":9315,"supervised":9316,"igrations":9317,"GaussianModel":9318,"ĠControlNetModel":9319,"Ġturned":9320,"Ġmotions":9321,"Ġmodality":9322,"integr":9323,"waveform":9324,"addEventListener":9325,"\"/":9326,")],<":9327,")[:,":9328,".):<":9329,"51":9330,"69":9331,"CLO":9332,"GING":9333,"OFF":9334,"Pri":9335,"Summary":9336,"VOCAB":9337,"Warning":9338,"]/":9339,"cles":9340,"ience":9341,"pic":9342,"sft":9343,"zs":9344,"ĠÊĻ":9345,"İ·":9346,"Ġturbo":9347,"Ġpid":9348,"Ġfov":9349,"Ġ\"%":9350,"Ġmis":9351,"Ġmembers":9352,"ada":9353,"Ġdataloaders":9354,"igInteger":9355,"Ġtodo":9356,"Ġretries":9357,"getattr":9358,"Ġreturning":9359,"intents":9360,"const":9361,"coord":9362,"ĠAfter":9363,"ĠCre":9364,"erspective":9365,"ĠSc":9366,"sertion":9367,"usic":9368,"Ġrgb":9369,"\"]),":9370,"ourses":9371,"contrast":9372,"prompted":9373,"Ġunderlying":9374,"DataLoader":9375,"Ġindexing":9376,"temporal":9377,"ĠConstant":9378,"subplot":9379,"PIPE":9380,"ALLED":9381,"Ġmaterialize":9382,"={\"<|":9383,"mission":9384,"bined":9385,"lotter":9386,"Ġhelpers":9387,"selective":9388,"ĠModels":9389,"fram":9390,"Ġentities":9391,"SIST":9392,"ĠProgress":9393,"ĠParse":9394,"ĠAttn":9395,"Comput":9396,"ĠĠĠĠĠĠĠĠĠĠĠĠĠĠĠĠĠĠĠĠĠĠĠĠĠĠĠĠĠĠĠĠĠĠĠĠĠĠĠĠĠ":9397,"WORDS":9398,"ĠParams":9399,"PROCESS":9400,"Keyboard":9401,"ĠCollect":9402,"Ġsuccessful":9403,"Ġedited":9404,"\"}]<":9405,"Ġquantization":9406,"Interrupt":9407,"FTWARE":9408,"ĉĉĉĉĉĉĉĉ":9409,"ĠAlso":9410,"Ġassumes":9411,"Ġvisible":9412,"Ġmarker":9413,"andidate":9414,"Ġmonitor":9415,"escription":9416,"FORMERS":9417,"Ġdeprecate":9418,"METHO":9419,"ĠView":9420,"Ġgreater":9421,"dependencies":9422,"MAPPINGS":9423,"smoothing":9424,"æĹ¶":9425,"éĩı":9426,"(\"\")<":9427,"Dropdown":9428,"vicorn":9429,"Ġaiohttp":9430,"ĠSdfCliResource":9431,"ateLimitError":9432,":])":9433,">'<":9434,"Ass":9435,"IST":9436,"Platform":9437,"Widget":9438,"[_":9439,"]))":9440,"feet":9441,"gsm":9442,"hdf":9443,"knn":9444,"magnitude":9445,"oV":9446,"qvel":9447,"year":9448,"orld":9449,"onion":9450,"Ġtan":9451,"alore":9452,"Ġpbar":9453,"Ġpiece":9454,"Ġreshape":9455,"Ġcmd":9456,"Ġcancel":9457,"ortho":9458,"Ġnaive":9459,"ĠdLd":9460,"Ġactor":9461,"Ġautoregressive":9462,"Ġbvh":9463,"Ġ(*":9464,"ulates":9465,"internal":9466,">#################":9467,"Ġconstruct":9468,"olding":9469,"ĠAnnot":9470,"Ġ')<":9471,"Ġ[])<":9472,"Ġ+<":9473,"ĠSin":9474,"Ġdatapath":9475,"ffff":9476,"ĠPM":9477,"ĠPack":9478,"ĠDown":9479,"ĠIP":9480,"lockwise":9481,"Ġsharding":9482,"=\"{":9483,"Ġroom":9484,"Ġcomponents":9485,"testing":9486,"contents":9487,"ritic":9488,"Ġraster":9489,"dsd":9490,"DIM":9491,"Ġposes":9492,"photo":9493,"itemap":9494,"ESTION":9495,"ĠĠĠĠĠĠĠĠĠĠĠĠĠĠĠĠĠĠĠĠĠĠĠĠĠĠĠĠĠĠĠĠĠĠĠĠĠĠĠĠĠĠĠĠĠĠĠĠĠĠĠĠĠĠĠĠĠĠ":9496,"ĠUni":9497,"REM":9498,"nee":9499,"filenames":9500,"Ġ...]<":9501,"Ġcodebook":9502,"Extension":9503,"ĠImageOps":9504,"piece":9505,"namespace":9506,"Ġcommons":9507,"Pretrain":9508,"which":9509,"Ġdiffs":9510,"straint":9511,"ĠChinese":9512,"Ġregion":9513,"ĠGeneral":9514,"invoke":9515,"ĠResidual":9516,"TransformerConfig":9517,"installed":9518,"COM":9519,"USED":9520,"avier":9521,"jitter":9522,"ShardedStateDict":9523,"Ġtracking":9524,"ĠOriginal":9525,"calculate":9526,"ĠThread":9527,"ĠKeyboard":9528,"Ġipdb":9529,"canvas":9530,"ĠDownloadSource":9531,"Ġdescribing":9532,"Ġcoordinates":9533,"ĠFrozenDict":9534,"Ġomegaconf":9535,"Ġrules":9536,"EpisodeGenerator":9537,"Ġlegacy":9538,"Ġ########################################################<":9539,"MultistepScheduler":9540,".\".":9541,"336":9542,"403":9543,"=\\\\":9544,"?\\":9545,"AU":9546,"Ann":9547,"CES":9548,"Cloud":9549,"Events":9550,"JO":9551,"Motion":9552,"Sim":9553,"UE":9554,"VQ":9555,"cite":9556,"cription":9557,"dent":9558,"mas":9559,"opacity":9560,"pd":9561,"pand":9562,"rn":9563,"sock":9564,"tax":9565,"warm":9566,"ylabel":9567,"}-":9568,"}}<":9569,"Ð¸":9570,"éĿ":9571,"Ġutf":9572,"inx":9573,"atype":9574,"Ġtg":9575,"itized":9576,"asure":9577,"Ġrepeated":9578,"ingular":9579,"Ġastronomic":9580,"rase":9581,"raise":9582,"Ġwave":9583,"strft":9584,"emester":9585,"ensive":9586,"ĠNvidia":9587,"verter":9588,"ques":9589,"Ġ\"\"\")<":9590,"ĠScale":9591,"Ġstability":9592,"provided":9593,"Ġeinsum":9594,"plt":9595,"inity":9596,"ĠRAG":9597,"ggle":9598,"compress":9599,"Ġantic":9600,"song":9601,"tokenizers":9602,"ĠEvent":9603,"Ġcho":9604,"ĠGot":9605,"Ġcomponent":9606,"indx":9607,"ryption":9608,"Ġ`__":9609,"DICT":9610,"SEP":9611,"Ġkeypoints":9612,"Ġkeywords":9613,"Ġresulting":9614,"([])<":9615,"mats":9616,"minimum":9617,"near":9618,"Ġqlen":9619,"ĠKandinsky":9620,"Ġaddition":9621,"Ġshapes":9622,"postprocess":9623,"Ġlayernorm":9624,"nology":9625,"Ġcheckpointing":9626,"Provider":9627,"={'":9628,"Diamond":9629,"bsz":9630,"ULAR":9631,"ĠAND":9632,"copysign":9633,"Ġoverall":9634,"Ġ1234":9635,"Child":9636,"buttons":9637,"Ġexecutor":9638,"ĠResize":9639,"nonzero":9640,"(\".\")[":9641,"sendline":9642,"Ġpackages":9643,"Ġconditional":9644,"Ġretrieving":9645,"ĠDepth":9646,"ĠRotations":9647,"á´ıÉ´":9648,"assertTrue":9649,"Ġsmpl":9650,"Quant":9651,"á´ĢÉ´":9652,"Ġ1536":9653,"å¤§":9654,"ĠRemote":9655,"Ġplaceholder":9656,"Multiple":9657,"Ġdetected":9658,"Ġá´ĽÊľá´ĩ":9659,"ĠHTTPException":9660,"Ġdenoised":9661,"ReduceOp":9662,"bboxes":9663,"ĠViT":9664,"Ġcookie":9665,"SelectionConfig":9666,"Ġcentral":9667,"elasticsearch":9668,"ĠCheckpointingException":9669,"mpty":9670,"DecodeError":9671,"è¾ĵåĩº":9672,"ITEMS":9673,"strftime":9674,"\"></":9675,"\"):":9676,")+":9677,")}.":9678,"*\")<":9679,":\"<":9680,">ðŁ":9681,"ACE":9682,"CASE":9683,"Literal":9684,"OD":9685,"Part":9686,"Rew":9687,"SD":9688,"Tip":9689,"UAL":9690,"bones":9691,"bmm":9692,"blended":9693,"criminator":9694,"dino":9695,"flush":9696,"games":9697,"hover":9698,"ikipedia":9699,"ming":9700,"munk":9701,"nlp":9702,"rule":9703,"vate":9704,"vity":9705,"à¹":9706,"åĿ":9707,"éľ":9708,"Ġvert":9709,"Ġerr":9710,"Ġartic":9711,"atural":9712,"Ġpunct":9713,"Ġfc":9714,"amily":9715,"ctan":9716,"Ġmt":9717,"Ġspeed":9718,"Ġddp":9719,"Ġdns":9720,"uming":9721,"Ġbad":9722,"ragent":9723,"different":9724,"lict":9725,"Ġtot":9726,"emini":9727,"setTimeout":9728,"external":9729,">###":9730,"coin":9731,"ĠName":9732,"ĠTorch":9733,"(\">":9734,"ĠAD":9735,"ĠAG":9736,"ĠAverage":9737,"ĠLR":9738,"Ġhour":9739,"Ġstages":9740,"Ġnotdiamond":9741,"ĠPO":9742,"ĠPart":9743,"ĠPattern":9744,"endor":9745,"keyboard":9746,"Ġdeque":9747,"Ġdeleted":9748,"Ġstrip":9749,"ĠDon":9750,"ĠDeter":9751,"classify":9752,"Ġ_:":9753,"ĠMODEL":9754,"comes":9755,"Ġjwt":9756,"Ġrobot":9757,"ĠGiven":9758,"Ġ`{":9759,"Ġcontribut":9760,"DataSet":9761,"ConfigMixin":9762,"ĠInst":9763,"chunked":9764,"savefig":9765,"Ġweak":9766,"envstacks":9767,")))":9768,"Ġinterle":9769,"Ġwritten":9770,"AMPL":9771,"Ġactually":9772,"Ġvarious":9773,"pired":9774,"ANT":9775,"ĠGPTDataSet":9776,"Ġfollowed":9777,"optimization":9778,"ĠChunk":9779,"sincos":9780,"Ġcurs":9781,"MaskSoftmax":9782,"ledgehammer":9783,"============================================":9784,"ĠModified":9785,"7884":9786,"ÊŁá´ĩ":9787,"Ġplanner":9788,"pixels":9789,"ĠContent":9790,"termination":9791,"Ġhigher":9792,"ELLOW":9793,"âĢĶ":9794,"limiter":9795,"|>\"})<":9796,"HTML":9797,"ĠChatMessage":9798,"Ġarchive":9799,"Ġefficient":9800,"Ġfigure":9801,"early":9802,"pidump":9803,"allocated":9804,"Ġpresentation":9805,"ĠDBDataset":9806,"ĠNeural":9807,"FAIL":9808,"Ġsemester":9809,"Ġgreat":9810,"ScaleMaskSoftmax":9811,"æ¡£":9812,"Ġpercentage":9813,"ĠAuthors":9814,"DEFINE":9815,"Dependency":9816,"è½¬":9817,"Ġè®¡ç®Ĺ":9818,"Ġearly":9819,"copies":9820,"Ġanticlockwise":9821,"ĠGPTDataSetV":9822,"'d":9823,"'):":9824,"+\",":9825,",-":9826,",),<":9827,",)).":9828,"114":9829,"53":9830,"=(<":9831,">\\\\":9832,"CAT":9833,"Dense":9834,"Li":9835,"MN":9836,"RON":9837,"Say":9838,"UNet":9839,"]`":9840,"break":9841,"brightness":9842,"black":9843,"bbitmq":9844,"basis":9845,"ras":9846,"uite":9847,"vstack":9848,"}-{":9849,"åį":9850,"èĩ":9851,"orqa":9852,"rejected":9853,"determin":9854,"decoupled":9855,"arctan":9856,"ali":9857,"Ġpdf":9858,"Ġphoto":9859,"Ġfbx":9860,"Ġrevision":9861,"Ġrecover":9862,"Ġsx":9863,"Ġdocker":9864,"diag":9865,"Ġimports":9866,"laced":9867,"Ġask":9868,"ĠTak":9869,"ism":9870,"uplicate":9871,"Ġconversion":9872,"quet":9873,"figsize":9874,"Ġ{{<":9875,"ĠLM":9876,"ĠSampling":9877,"ĠDynamic":9878,"ĠRole":9879,"Ġresized":9880,"Ġ_]":9881,"Ġsecret":9882,"ĠMain":9883,"ĠMapping":9884,"ĠBot":9885,"ĠUsed":9886,"ĠUsing":9887,"aystack":9888,"llms":9889,"ĠGRAPH":9890,"ftfy":9891,"nnx":9892,"ĠVal":9893,"Ġ:],":9894,"SED":9895,"ĠOptionalDependency":9896,"ĠHO":9897,"Ġobservations":9898,"120":9899,"Ġsubfolder":9900,"ITH":9901,"')\")<":9902,"interfaces":9903,"dropdown":9904,"Ġ)[":9905,"Ġ}}<":9906,"Ġworks":9907,"ĠBased":9908,"ĠBaseException":9909,"ĠComp":9910,"á´ĩá´ħ":9911,"Ġá´ĺ":9912,"ĠGeneration":9913,"presentation":9914,"ĠImagen":9915,"THER":9916,"Ġexternal":9917,"Ġdepths":9918,"Collator":9919,"Ġcounts":9920,"NotAvailable":9921,"auty":9922,"Ġrepr":9923,"Ġconsistent":9924,"CLS":9925,"Ġabsl":9926,"åĲį":9927,"PoolExecutor":9928,"Ġswiglu":9929,"ĠQueryParam":9930,"Iterator":9931,"æĪ·":9932,"ĠLearning":9933,"QUESTION":9934,"Ġclicked":9935,"Ġbeginning":9936,"ä¸Ģä¸ª":9937,"å¼ı":9938,"INSTALLED":9939,"Ġsymbol":9940,"ĠâĶľâĶĢ":9941,"ĠComputes":9942,"Ð°Ñ":9943,"ImgPipeline":9944,"ĠTransformers":9945,"ĠBlendedMegatronDatasetConfig":9946,"Ġhelper":9947,"å¹¶":9948,"Ġndarray":9949,"Ġdecorated":9950,"İ·åıĸ":9951,"éľĢ":9952,"ĠOptionalDependencyNotAvailable":9953,")[\"":9954,")[:":9955,",))<":9956,"-'":9957,"After":9958,"Calculate":9959,"Draw":9960,"Folder":9961,"FLAG":9962,"ITI":9963,"Json":9964,"Lab":9965,"MAS":9966,"MAT":9967,"Ne":9968,"Ro":9969,"Rem":9970,"Sun":9971,"Script":9972,"Tuning":9973,"Use":9974,"VD":9975,"_,<":9976,"`]<":9977,"den":9978,"kernels":9979,"nvidia":9980,"odir":9981,"sAnd":9982,"yles":9983,"ÃĹ":9984,"åĢ":9985,"æ¶":9986,"incorrect":9987,"sections":9988,"Ġtls":9989,"strap":9990,"rounds":9991,"Ġply":9992,"Ġfla":9993,"Ġnq":9994,"Ġnfeats":9995,"Ġinstructions":9996,"Ġscor":9997,"Ġsledgehammer":9998,"ading":9999}