{"<s>":0,"</s>":1,"!":2,"\"":3,"#":4,"$":5,"%":6,"&":7,"'":8,"(":9,")":10,"*":11,"+":12,",":13,"-":14,".":15,"/":16,"0":17,"1":18,"2":19,"3":20,"4":21,"5":22,"6":23,"7":24,"8":25,"9":26,":":27,";":28,"<":29,"=":30,">":31,"?":32,"@":33,"A":34,"B":35,"C":36,"D":37,"E":38,"F":39,"G":40,"H":41,"I":42,"J":43,"K":44,"L":45,"M":46,"N":47,"O":48,"P":49,"Q":50,"R":51,"S":52,"T":53,"U":54,"V":55,"W":56,"X":57,"Y":58,"Z":59,"[":60,"\\":61,"]":62,"^":63,"_":64,"`":65,"a":66,"b":67,"c":68,"d":69,"e":70,"f":71,"g":72,"h":73,"i":74,"j":75,"k":76,"l":77,"m":78,"n":79,"o":80,"p":81,"q":82,"r":83,"s":84,"t":85,"u":86,"v":87,"w":88,"x":89,"y":90,"z":91,"{":92,"|":93,"}":94,"~":95,"¡":96,"¢":97,"£":98,"¤":99,"¥":100,"¦":101,"§":102,"¨":103,"©":104,"ª":105,"«":106,"¬":107,"®":108,"¯":109,"°":110,"±":111,"²":112,"³":113,"´":114,"µ":115,"¶":116,"·":117,"¸":118,"¹":119,"º":120,"»":121,"¼":122,"½":123,"¾":124,"¿":125,"À":126,"Á":127,"Â":128,"Ã":129,"Ä":130,"Å":131,"Æ":132,"Ç":133,"È":134,"É":135,"Ê":136,"Ë":137,"Ì":138,"Í":139,"Î":140,"Ï":141,"Ð":142,"Ñ":143,"Ò":144,"Ó":145,"Ô":146,"Õ":147,"Ö":148,"×":149,"Ø":150,"Ù":151,"Ú":152,"Û":153,"Ü":154,"Ý":155,"Þ":156,"ß":157,"à":158,"á":159,"â":160,"ã":161,"ä":162,"å":163,"æ":164,"ç":165,"è":166,"é":167,"ê":168,"ë":169,"ì":170,"í":171,"î":172,"ï":173,"ð":174,"ñ":175,"ò":176,"ó":177,"ô":178,"õ":179,"ö":180,"÷":181,"ø":182,"ù":183,"ú":184,"û":185,"ü":186,"ý":187,"þ":188,"ÿ":189,"Ā":190,"ā":191,"Ă":192,"ă":193,"Ą":194,"ą":195,"Ć":196,"ć":197,"Ĉ":198,"ĉ":199,"Ċ":200,"ċ":201,"Č":202,"č":203,"Ď":204,"ď":205,"Đ":206,"đ":207,"Ē":208,"ē":209,"Ĕ":210,"ĕ":211,"Ė":212,"ė":213,"Ę":214,"ę":215,"Ě":216,"ě":217,"Ĝ":218,"ĝ":219,"Ğ":220,"ğ":221,"Ġ":222,"ġ":223,"Ģ":224,"ģ":225,"Ĥ":226,"ĥ":227,"Ħ":228,"ħ":229,"Ĩ":230,"ĩ":231,"Ī":232,"ī":233,"Ĭ":234,"ĭ":235,"Į":236,"į":237,"İ":238,"ı":239,"Ĳ":240,"ĳ":241,"Ĵ":242,"ĵ":243,"Ķ":244,"ķ":245,"ĸ":246,"Ĺ":247,"ĺ":248,"Ļ":249,"ļ":250,"Ľ":251,"ľ":252,"Ŀ":253,"ŀ":254,"Ł":255,"ł":256,"Ń":257,"ĠĠ":258,"ĠĠĠĠ":259,"ĠĠĠ":260,"ĠĠĠĠĠĠĠĠ":261,"se":262,"ĠĠĠĠĠĠĠ":263,"in":264,"re":265,"on":266,"te":267,"or":268,"de":269,"st":270,"Ġ=":271,"th":272,"sel":273,"self":274,"le":275,"me":276,"Ġa":277,"ti":278,"er":279,"al":280,"ĠĠĠĠĠĠĠĠĠĠĠ":281,"Ġi":282,"Ġ'":283,"ar":284,"Ġc":285,"an":286,"Ġself":287,"en":288,"--":289,"Ġf":290,"ro":291,"at":292,"Ġre":293,"Ġth":294,"ur":295,"ge":296,"ce":297,"Ġp":298,"):":299,"tion":300,"\"\"":301,"as":302,"mp":303,"ue":304,"',":305,"ĠĠĠĠĠĠĠĠĠĠĠĠĠĠĠĠ":306,"Ġt":307,"Ġn":308,"Ġs":309,"##":310,"el":311,"def":312,"ame":313,"ing":314,"Ġin":315,"Ġo":316,"Ġthe":317,"ate":318,"ec":319,"ser":320,"li":321,"fi":322,"lo":323,"nt":324,"Ġd":325,"ri":326,"Ġb":327,"()":328,"co":329,"Ġdef":330,"':":331,"ch":332,"Ġ(":333,"Ġm":334,"ex":335,"Ġ\"":336,"Ġw":337,"ort":338,"Ġif":339,"si":340,"ut":341,"urn":342,"----":343,"un":344,"turn":345,"id":346,"ul":347,"ra":348,"Ġ#":349,"__":350,"ĠĠĠĠĠĠĠĠĠĠĠĠĠĠĠ":351,"name":352,"is":353,"ter":354,"get":355,"pe":356,"\"\"\"":357,"ode":358,"ot":359,"ad":360,"Ġreturn":361,"Ġfor":362,"it":363,"),":364,"ck":365,"Ġto":366,"one":367,"ma":368,"mport":369,"ĠT":370,"('":371,"ct":372,"val":373,"ed":374,"Ġis":375,"pa":376,"####":377,"la":378,"up":379,"Ġ[":380,"ver":381,"rom":382,"Ġan":383,"Ġ\"\"\"":384,"ass":385,"es":386,"il":387,"ype":388,"eld":389,"ect":390,"set":391,"di":392,"')":393,"ke":394,"ata":395,"qu":396,"Ġh":397,"con":398,"sert":399,"test":400,"None":401,"ol":402,"ss":403,"et":404,"Ġ{":405,"cl":406,"ult":407,"Ġst":408,"rue":409,"Ġof":410,"op":411,"==":412,"bj":413,"vi":414,"gs":415,"der":416,"Ġex":417,"']":418,"._":419,"ation":420,"od":421,"ap":422,"\",":423,"ment":424,"ent":425,"Ġ1":426,"ble":427,"))":428,"Ġcon":429,"ls":430,"00":431,"Ġimport":432,"Ġu":433,"sion":434,"value":435,"from":436,"ĠA":437,"ta":438,"ror":439,"and":440,"Ġnot":441,"ve":442,"ĠS":443,"--------":444,"res":445,"um":446,"ile":447,"Ġ%":448,"Ġand":449,"Ġas":450,"['":451,"ĠC":452,"ĠI":453,"age":454,"ith":455,"key":456,"to":457,"ted":458,"Ġ0":459,"ase":460,"ction":461,"int":462,"assert":463,"ĠNone":464,"que":465,"bject":466,"ĠĠĠĠĠ":467,"(\"":468,"type":469,"am":470,"ĠĠĠĠĠĠĠĠĠĠĠĠĠĠĠĠĠĠĠ":471,"he":472,"Ġg":473,"time":474,"orm":475,"ield":476,"],":477,"tr":478,"Ġe":479,"Ġ+":480,"Ġ_":481,"bu":482,"xt":483,"file":484,"class":485,"pro":486,"us":487,"ĠF":488,"all":489,"Ġtest":490,"ang":491,"par":492,"Ġel":493,"end":494,"path":495,"ption":496,"Ġ==":497,"Ġres":498,"ic":499,"ow":500,"True":501,"lin":502,"Ġde":503,"Ġ:":504,"ew":505,"Ġ*":506,"per":507,"ance":508,"Ġ-":509,"ig":510,"ht":511,"ĠL":512,"len":513,"ub":514,"Ġor":515,"list":516,"args":517,"Ġco":518,"Re":519,"Ġ2":520,"########":521,"Ġbe":522,"mode":523,"ĠP":524,"text":525,"Ġr":526,"db":527,"if":528,"pt":529,"alse":530,"quest":531,"Er":532,"ist":533,"fo":534,"Error":535,"Ġ('":536,"Ġname":537,"qual":538,"Ġlo":539,"\")":540,"app":541,"Ġme":542,"ry":543,"po":544,"data":545,"field":546,"tem":547,"='":548,"ault":549,"ON":550,"able":551,"ack":552,"Ġwith":553,"out":554,"ER":555,"put":556,"str":557,"Ġ{'":558,"ise":559,"ĠD":560,"jang":561,"our":562,"mo":563,"jango":564,"ty":565,"Ġpro":566,"stance":567,"Ġfile":568,"red":569,"ĠO":570,"iz":571,"sh":572,"====":573,"ĠĠĠĠĠĠĠĠĠĠĠĠĠĠĠĠĠĠĠĠĠĠĠĠĠĠĠĠĠĠĠĠ":574,"ĠM":575,"reate":576,"pec":577,"IN":578,"oc":579,"Ġelse":580,"fig":581,"mm":582,"import":583,"Field":584,"mple":585,"date":586,"Equal":587,"art":588,"Ġvalue":589,"ho":590,"form":591,"add":592,"est":593,"ys":594,"Ġ__":595,"ule":596,"ly":597,"tri":598,"url":599,"Ġse":600,"wor":601,"Ġdata":602,"Ġma":603,"In":604,"ource":605,"Ġar":606,"code":607,"assertEqual":608,"Ġget":609,"models":610,"Ġch":611,"Ġset":612,"ger":613,"pon":614,"sc":615,"ure":616,"Ġun":617,"ip":618,"\":":619,"])":620,"fields":621,"atch":622,"object":623,"late":624,"lic":625,"Ġy":626,"ĠE":627,"Ġon":628,"Ġthis":629,"'}":630,"Ġra":631,"ĠN":632,"ff":633,"bo":634,"</":635,"Ġv":636,"ense":637,"Ġassert":638,"ponse":639,"ange":640,"rent":641,"----------------":642,"ES":643,"py":644,"Ġstr":645,"Ġx":646,"Ġal":647,"Ġdi":648,"TI":649,"uth":650,"che":651,"ĠB":652,"ory":653,"__(":654,"Ġpar":655,"Ġfrom":656,"user":657,"Ġthat":658,"dex":659,"unt":660,"cess":661,"lient":662,"ind":663,"rint":664,"django":665,").":666,"kw":667,"tp":668,"jo":669,"..":670,"line":671,"thod":672,"ary":673,"ten":674,"Ġ@":675,"cept":676,"roup":677,"ĉĉ":678,"pre":679,"Ġuse":680,"Ġpa":681,"ĠW":682,"Ġ[],":683,"EN":684,"ader":685,"ument":686,"ĠĠĠĠĠĠĠĠĠĠĠĠĠĠĠĠĠĠĠĠĠĠĠĠ":687,"ĠTrue":688,"error":689,"Con":690,"ild":691,"ĠThe":692,"pp":693,"Ġraise":694,"ber":695,"ĠĠĠĠĠĠĠĠĠĠĠĠĠĠĠĠĠĠĠĠĠĠĠ":696,"ore":697,"fa":698,"ock":699,"col":700,"Ġ)":701,"Ġat":702,"``":703,"low":704,"gin":705,"Ġwh":706,"eck":707,"dd":708,"read":709,"port":710,"ĠU":711,"version":712,"param":713,"OR":714,"Ġ3":715,"Ġen":716,"tent":717,"om":718,"odule":719,"Ġos":720,"Ġit":721,"ting":722,"Ġkey":723,"icense":724,"temp":725,"init":726,"vice":727,"cal":728,"01":729,"mage":730,"ther":731,"**":732,"ext":733,"=\"":734,"ok":735,"min":736,"ĠĠĠĠĠĠ":737,">>":738,"Ġby":739,"ca":740,"kwargs":741,"Ġ<":742,"ans":743,"instance":744,"Ġresult":745,"Ġmode":746,"RE":747,"Ġ}":748,"ĠFalse":749,"ST":750,"ĠG":751,"dir":752,"ator":753,"ception":754,"ml":755,"Test":756,"//":757,"Ġlist":758,"################":759,"ssage":760,"os":761,".__":762,"ir":763,"gth":764,"valid":765,"ou":766,"tes":767,"ph":768,"False":769,"ask":770,"ler":771,"vent":772,"default":773,"log":774,"():":775,"append":776,"ac":777,"SE":778,"max":779,"ery":780,"AT":781,"ded":782,"ill":783,"Ġcl":784,"''":785,"und":786,"Ch":787,"ĠR":788,"Ġout":789,"Ġexcept":790,"Ġl":791,"tions":792,"mmand":793,"Ġlen":794,"'),":795,"ĠLicense":796,"Ġla":797,"Ġare":798,"lib":799,"unction":800,"ust":801,"atus":802,"rect":803,"son":804,"wa":805,"rite":806,"fe":807,"Ġtry":808,"ds":809,"request":810,"Ġlog":811,"back":812,"tain":813,"scri":814,"ĠV":815,"'}),":816,"ze":817,"Ġ**":818,"Ġprint":819,"AR":820,"ms":821,"update":822,"info":823,"for":824,"Ġwe":825,"ces":826,"ĠRe":827,"Ġuser":828,"LE":829,"ize":830,"ave":831,"IT":832,"pla":833,"create":834,"Ġtime":835,"Ġrequest":836,"ren":837,"Ġobject":838,"qui":839,"Ġro":840,"tive":841,"ĠH":842,"load":843,"den":844,"ag":845,"base":846,"ant":847,"tribu":848,"format":849,"ab":850,"config":851,"umber":852,"Ex":853,"count":854,"thon":855,"no":856,"result":857,"ght":858,"ses":859,"========":860,"server":861,"own":862,"ull":863,"work":864,"main":865,"join":866,"ters":867,"query":868,"ener":869,"ĠĠĠĠĊ":870,"tic":871,"uld":872,"node":873,"dict":874,"ĠĠĠĠĠĠĠĠĠ":875,"Ġtype":876,"length":877,"AL":878,"im":879,"Ġso":880,"sp":881,"Pro":882,"UT":883,"attr":884,"view":885,"Ġsh":886,"ute":887,"ft":888,"Ġno":889,"Type":890,"Ġpass":891,"lan":892,"Ġpre":893,"Ġnew":894,"pen":895,"Ġhe":896,"12":897,"ample":898,"size":899,"sed":900,"ken":901,"cur":902,"Ġdefault":903,"arget":904,"Ġnode":905,"og":906,"nec":907,"Ġapp":908,"ray":909,"AN":910,"Ġcol":911,"Ġ[]":912,"start":913,"Ġpath":914,"uti":915,"umn":916,"ject":917,"Ġdo":918,"index":919,"com":920,"nd":921,"Ġwill":922,"())":923,"lu":924,"tern":925,"opy":926,"Ġ4":927,"://":928,"ign":929,"group":930,"his":931,"Co":932,"([":933,"lock":934,"json":935,"Ġhas":936,"Ġelif":937,"Ke":938,"vel":939,"ies":940,"comp":941,"string":942,"template":943,"auth":944,"ifi":945,"TION":946,"ated":947,"ume":948,"gn":949,"ree":950,"10":951,"pi":952,"sub":953,"Ġsys":954,"ost":955,"mb":956,"Ġall":957,"client":958,"ID":959,"Name":960,"Ġcan":961,"da":962,"IC":963,"ress":964,"bel":965,"Ġfield":966,"Ġpy":967,"fix":968,"gument":969,"Ġspec":970,"Ġclass":971,"Ġper":972,"Ġcomp":973,"St":974,"uct":975,"right":976,"item":977,"Ġk":978,"iv":979,"write":980,"with":981,"Ġform":982,"ard":983,"Ġ{}":984,"ĠIf":985,"tra":986,"alue":987,"Ġsup":988,"tial":989,"word":990,"by":991,"Ġsub":992,"ron":993,"lement":994,"ity":995,"ning":996,"Ġstring":997,"(),":998,"Ġoption":999,"ĠIn":1000,"ial":1001,"tings":1002,"ĠĊ":1003,"Key":1004,"pace":1005,"mit":1006,"Ġadd":1007,"return":1008,"].":1009,"led":1010,"Ġresponse":1011,"unc":1012,"ME":1013,"OD":1014,"mis":1015,"Ġ['":1016,"[\"":1017,"AS":1018,"cor":1019,"act":1020,"andler":1021,"Ġmethod":1022,"ll":1023,"Ġcur":1024,"Ġurl":1025,"Ġ\\":1026,"'],":1027,"ts":1028,"ari":1029,"RO":1030,"reg":1031,"11":1032,"Ġnp":1033,"map":1034,"sing":1035,"clu":1036,"state":1037,"nection":1038,"Ġ+=":1039,"arch":1040,"http":1041,"Ġli":1042,"table":1043,"ttp":1044,"method":1045,"ine":1046,"Ġinstance":1047,"Ġconfig":1048,"ĠThis":1049,"Ġbu":1050,"ix":1051,"service":1052,"lete":1053,"md":1054,"ime":1055,"run":1056,"32":1057,"Ġ>":1058,"Ġcreate":1059,"status":1060,"Ġ`":1061,"Ġ``":1062,"obj":1063,"Ġargs":1064,"perty":1065,"cation":1066,"pected":1067,"Ġle":1068,"ww":1069,"link":1070,"net":1071,"host":1072,"0000":1073,"ED":1074,".\"\"\"":1075,"lank":1076,"ite":1077,"uto":1078,"ĠĠĠĠĠĠĠĠĠĠĠĠĠĠĠĠĠĠĠĠĠĠĠĠĠĠĠ":1079,"ware":1080,"tle":1081,"response":1082,"hould":1083,"loat":1084,"Ġdoc":1085,"lean":1086,"Ġac":1087,"ump":1088,"oo":1089,"gra":1090,"sha":1091,"Ġisinstance":1092,"api":1093,"Ġline":1094,"Ġ.":1095,"module":1096,"Char":1097,"tribute":1098,"HE":1099,"ee":1100,"'s":1101,"not":1102,"Ġpo":1103,"Ġ5":1104,"Res":1105,"message":1106,"lit":1107,"do":1108,"scription":1109,"Ġfunction":1110,"mission":1111,"man":1112,"De":1113,"sent":1114,"\"]":1115,"IS":1116,"doc":1117,"row":1118,"AC":1119,"rame":1120,"--------------------------------":1121,"va":1122,"fil":1123,"Ġerror":1124,"Ġitem":1125,"Ġunder":1126,"ight":1127,"ers":1128,"rans":1129,"Ġint":1130,"mail":1131,"Ġ'''":1132,"Ġmessage":1133,"Ġ/":1134,"ak":1135,"dis":1136,"Ġother":1137,"ash":1138,"call":1139,"Ġshould":1140,"context":1141,"aders":1142,"pr":1143,"bug":1144,"ich":1145,"'])":1146,"Ġ!":1147,"Ġ>>":1148,"ribu":1149,"Ġdist":1150,"elp":1151,"Ġwor":1152,"'t":1153,"().":1154,"ody":1155,"ay":1156,"model":1157,"clo":1158,"CharField":1159,"64":1160,"names":1161,"objects":1162,"Ġversion":1163,"Ġdjango":1164,"sta":1165,"Ġoutput":1166,"ĠEx":1167,"25":1168,"ĠCon":1169,"pri":1170,"Str":1171,"Ġrun":1172,"ound":1173,"utils":1174,"ref":1175,"content":1176,"ding":1177,"bs":1178,"title":1179,"use":1180,"image":1181,"Ġspecifi":1182,"ally":1183,"check":1184,"action":1185,"Ġused":1186,"Ġ!=":1187,"parse":1188,"ING":1189,"Ġdis":1190,"ved":1191,"ations":1192,"99":1193,"Ġz":1194,"nel":1195,"Ġmodule":1196,"html":1197,"Ġmay":1198,"we":1199,"sg":1200,"MP":1201,"yn":1202,"new":1203,"ager":1204,"ging":1205,"Data":1206,"sign":1207,"Ġ|":1208,"Set":1209,"su":1210,"Ġstart":1211,"move":1212,"ĠOR":1213,"'.":1214,"rap":1215,"ulti":1216,"File":1217,"Ġsu":1218,"tro":1219,"lob":1220,"Ġbase":1221,"Ġcheck":1222,"Ġhttp":1223,"Ġne":1224,"ach":1225,"ĠTest":1226,"quired":1227,"arg":1228,"ĠĠĠĠĠĠĠĠĊ":1229,"ream":1230,"Ġcode":1231,"eta":1232,"Ġid":1233,"foo":1234,"blank":1235,"Ġfa":1236,"Ġend":1237,"sys":1238,"((":1239,"Ġmodel":1240,"Ġwhich":1241,"Ġyou":1242,"org":1243,"'))":1244,"DE":1245,"Ġdate":1246,"Ġ>>>":1247,"UR":1248,"ĠAN":1249,"Ġj":1250,"Case":1251,"teger":1252,"array":1253,"ax":1254,"ors":1255,"ark":1256,"AB":1257,"'):":1258,"lugin":1259,"ENT":1260,"lated":1261,"Ġcall":1262,"bin":1263,"Ġtext":1264,"uple":1265,"cre":1266,"Ġdict":1267,"Ġdb":1268,"Ġcopy":1269,"label":1270,"point":1271,"SI":1272,"Ġmodels":1273,"ion":1274,"ments":1275,"token":1276,"odel":1277,"ties":1278,"Ġindex":1279,"source":1280,"men":1281,"ols":1282,"ne":1283,"TT":1284,"split":1285,"tifi":1286,"GE":1287,"pack":1288,"trans":1289,"core":1290,"Ġcontext":1291,"Ġvalues":1292,"...":1293,"Ser":1294,"Ġcurrent":1295,"Ġhave":1296,"rectory":1297,"Ġmax":1298,"ns":1299,"cs":1300,"process":1301,"output":1302,"ong":1303,"uid":1304,"the":1305,"trol":1306,"Ġmock":1307,"be":1308,"Ġsource":1309,"ual":1310,"ep":1311,"Ġstate":1312,"clude":1313,"Ġimage":1314,"mary":1315,"ld":1316,"ĠOF":1317,"play":1318,"DI":1319,"Ġ},":1320,"MA":1321,"Ġany":1322,"################################":1323,"List":1324,"ĠReturn":1325,"LO":1326,"ner":1327,"icode":1328,"ome":1329,"tin":1330,"To":1331,"types":1332,"Ġclient":1333,"Ġcontain":1334,"AD":1335,"Ġobj":1336,"filter":1337,"Ġone":1338,"FI":1339,"Ġcal":1340,"lable":1341,"func":1342,"\"),":1343,"comm":1344,"[:":1345,"orted":1346,"print":1347,"Ġsuper":1348,"tity":1349,"Value":1350,"its":1351,"my":1352,"andle":1353,"Ġad":1354,"place":1355,"indow":1356,"angu":1357,"OT":1358,"PI":1359,"anguage":1360,"Par":1361,"Id":1362,"Ġnumber":1363,"rc":1364,"input":1365,"02":1366,"Ġwhen":1367,"ameters":1368,"Ġcommand":1369,"idth":1370,":`":1371,"Un":1372,"project":1373,"params":1374,"inter":1375,"ĠX":1376,"open":1377,"andom":1378,"Ġevent":1379,"options":1380,"ariable":1381,"Ġexp":1382,"Ġdistribu":1383,"UL":1384,"lication":1385,"ises":1386,"null":1387,"iven":1388,"spec":1389,"lay":1390,"ps":1391,"delete":1392,"04":1393,"PE":1394,"ĠPy":1395,"Ġexpected":1396,"target":1397,"lines":1398,"Ġrange":1399,"values":1400,"Ġargument":1401,"space":1402,"command":1403,"viron":1404,"Ġver":1405,"Time":1406,"Ġparam":1407,"AA":1408,"Ġmatch":1409,"event":1410,"ĠĠĠĠĠĠĠĠĠĠ":1411,"****":1412,"Ġquery":1413,"ffer":1414,"feren":1415,"ĠIN":1416,"debug":1417,"Ġup":1418,"})":1419,"adata":1420,"Ġoptions":1421,"patch":1422,"Ġauth":1423,"ci":1424,"Ġserver":1425,"TestCase":1426,"Ġopen":1427,"Model":1428,"Ġwork":1429,"================":1430,"filename":1431,"idget":1432,"bar":1433,"cri":1434,"itial":1435,"ftware":1436,"16":1437,"num":1438,"uration":1439,"order":1440,"Ġonly":1441,"Ġcontent":1442,"tag":1443,"Ġformat":1444,"ĠDe":1445,"Get":1446,"conn":1447,"Up":1448,"sage":1449,"TIONS":1450,"var":1451,"store":1452,"Ġtra":1453,"ĠĠĠĠĠĠĠĠĠĠĠĠ":1454,"stri":1455,"03":1456,"ĠQ":1457,"attern":1458,"ify":1459,"Po":1460,"String":1461,"Di":1462,"Ġreg":1463,"Ġmust":1464,"lection":1465,"cate":1466,"Ġ6":1467,"exec":1468,"mock":1469,"Ġmsg":1470,"pass":1471,"Ġtarget":1472,"Form":1473,"Ġ--":1474,"utf":1475,"TR":1476,"Ġbo":1477,"Ġhelp":1478,"ML":1479,"sor":1480,"PO":1481,"Ġvalid":1482,"Ġbut":1483,"},":1484,"settings":1485,"Ġfiles":1486,"Ġaction":1487,"Ġgener":1488,"Ġag":1489,"Base":1490,"arning":1491,"Ġca":1492,"ql":1493,"cache":1494,"cy":1495,"entry":1496,"msg":1497,"*-":1498,"Ġinput":1499,"Ar":1500,"irst":1501,"queue":1502,"related":1503,"err":1504,"job":1505,"root":1506,"sition":1507,"als":1508,"Ġgiven":1509,"US":1510,"tension":1511,"CT":1512,"cls":1513,"unk":1514,"IL":1515,"Exception":1516,"15":1517,"match":1518,"NA":1519,"Ġkwargs":1520,"shape":1521,"tocol":1522,"serial":1523,"stra":1524,"ell":1525,"ature":1526,"Ġ-*-":1527,"ocket":1528,"plo":1529,"close":1530,"ĠY":1531,"Ġgroup":1532,"~~":1533,"::":1534,"CH":1535,"Ġtrans":1536,"mbda":1537,"Ġ]":1538,"lat":1539,"34":1540,"keys":1541,"ched":1542,"ists":1543,"Ġtable":1544,"ud":1545,"ĠĠĠĠĠĠĠĠĠĠĠĠĠ":1546,"000":1547,"option":1548,"has":1549,"ilter":1550,"14":1551,"xy":1552,"ĠK":1553,"En":1554,"assertTrue":1555,"of":1556,"Ġtoken":1557,"build":1558,"property":1559,"TH":1560,"ister":1561,"Node":1562,"User":1563,"face":1564,"over":1565,"ĠJ":1566,"Ġ'%":1567,"Ġread":1568,"range":1569,"annel":1570,"trib":1571,"TTP":1572,"Ġdocument":1573,"items":1574,"(_":1575,"page":1576,"env":1577,"function":1578,"dent":1579,"tributes":1580,"column":1581,"Man":1582,"local":1583,"\".":1584,"Ġlogging":1585,"ats":1586,"ĠCON":1587,"Pa":1588,"ccess":1589,"Ġvi":1590,"UN":1591,"Ra":1592,"pos":1593,"task":1594,"ration":1595,"Object":1596,"ĠIS":1597,"child":1598,"ĠTHE":1599,"emp":1600,"tadata":1601,"Ġback":1602,"fs":1603,"Ġmo":1604,"LI":1605,"Ġupdate":1606,"Vi":1607,"here":1608,"license":1609,"Ġfol":1610,"parent":1611,"ittest":1612,"session":1613,"Col":1614,"ersion":1615,"pache":1616,"number":1617,"Ġ8":1618,"change":1619,"chema":1620,"ran":1621,"bi":1622,"ĠĠĠĠĠĠĠĠĠĠĠĠĠĠĠĠĠ":1623,"fore":1624,"ĠĠĠĠĠĠĠĠĠĠĠĠĠĠ":1625,"ĠValue":1626,"Ġprovi":1627,"Ġrequired":1628,"ĠUn":1629,"raw":1630,"Ġrow":1631,"ures":1632,"ain":1633,"(*":1634,"Ġdoes":1635,"equal":1636,"datetime":1637,"19":1638,"TY":1639,"olume":1640,"20":1641,"resource":1642,")),":1643,"try":1644,"ĠĠĠĠĠĠĠĠĠĠĠĠĠĠĠĠĠĠĠĠĠ":1645,"lass":1646,"HO":1647,"post":1648,"level":1649,"inal":1650,"stant":1651,"copy":1652,"Ġsize":1653,"][":1654,"quen":1655,"Ġ(\"":1656,"Text":1657,"Ġhost":1658,"CO":1659,"Ġdistributed":1660,"exp":1661,"du":1662,"select":1663,"umpy":1664,"files":1665,"Ġ10":1666,"ĠĠĠĠĠĠĠĠĠĠĠĠĠĠĠĠĠĠĠĠĠĠĠĠĠĠĠĠĠĠĠ":1667,"ique":1668,"admin":1669,"Not":1670,"Ġfirst":1671,"Ġport":1672,"ste":1673,"{'":1674,")))":1675,"Se":1676,"Ġparser":1677,"ĠReturns":1678,"lease":1679,"EX":1680,"coding":1681,"fir":1682,"Ġman":1683,"Ġinter":1684,"box":1685,"edit":1686,"mber":1687,"Ġjson":1688,"yle":1689,"prefix":1690,"pk":1691,"Ġtemplate":1692,"ote":1693,"np":1694,"now":1695,"fter":1696,"ĠĠĠĠĠĠĠĠĠĠĠĠĠĠĠĠĠĠĠĠĠĠĠĠĠ":1697,"opyright":1698,"mation":1699,"Ġparams":1700,"find":1701,"Request":1702,"Ġmin":1703,"www":1704,"current":1705,"Ġpage":1706,"iter":1707,"Ġcls":1708,"uster":1709,"orage":1710,"Ġ201":1711,"tail":1712,"ĠSee":1713,"33":1714,"Ġsettings":1715,"201":1716,"Ġcolumn":1717,"iled":1718,"top":1719,"18":1720,"ous":1721,"17":1722,"50":1723,"ped":1724,"onent":1725,"lect":1726,"last":1727,"Ġ'/":1728,"old":1729,"etwork":1730,"kip":1731,"IF":1732,"lation":1733,"=[":1734,"Ġdatetime":1735,"Ġarg":1736,"ither":1737,"Ġmake":1738,"river":1739,"Ġparent":1740,"At":1741,"24":1742,"ĠANY":1743,"struct":1744,"Ġq":1745,"Ġexception":1746,"CE":1747,"ized":1748,"Ġover":1749,"fla":1750,"less":1751,"script":1752,"atri":1753,"xml":1754,"dition":1755,"oreign":1756,"ĠCo":1757,"ĠValueError":1758,"Ġstatus":1759,"body":1760,"ustom":1761,"ference":1762,"Add":1763,"Ġusing":1764,"fact":1765,"exception":1766,"RAN":1767,"ĠĠĠĠĠĠĠĠĠĠĠĠĠĠĠĠĠĠ":1768,"ast":1769,")]":1770,"float":1771,"ord":1772,"ui":1773,"domain":1774,"otal":1775,"OP":1776,"Ġchange":1777,"rid":1778,"Ġlimit":1779,"ton":1780,"mt":1781,"Ġ::":1782,"Ġfilename":1783,"block":1784,"uri":1785,"Ġview":1786,"other":1787,"ization":1788,"bose":1789,"save":1790,"fy":1791,"ake":1792,"Ġpack":1793,"vert":1794,"Return":1795,"sit":1796,"tiv":1797,"are":1798,"Ġret":1799,"\\\\":1800,"ĠPro":1801,"rt":1802,"rate":1803,"ĠPython":1804,"df":1805,"sa":1806,"ĠCopyright":1807,"ĠĠĠĠĠĠĠĠĠĠĠĠĠĠĠĠĠĠĠĠ":1808,"Ġlabel":1809,"ternal":1810,"mon":1811,"Date":1812,"raph":1813,"pub":1814,"Ġwri":1815,"vai":1816,"tools":1817,"13":1818,"network":1819,"Ġinst":1820,"Ġwhile":1821,"cmd":1822,"Ġimp":1823,"Ġelement":1824,"CON":1825,"verse":1826,"description":1827,"Ġyield":1828,"conf":1829,"Ġtask":1830,"oolean":1831,"Ġinto":1832,"cer":1833,"Ġtuple":1834,"pop":1835,"Ġcase":1836,"Integer":1837,"The":1838,"Ġpri":1839,"python":1840,"100":1841,"RI":1842,"Ġpermission":1843,"ick":1844,"ating":1845,"Ġtw":1846,"56":1847,"oreignKey":1848,"ression":1849,"'},":1850,"sible":1851,"tinue":1852,"Ġfla":1853,"ie":1854,"ameter":1855,"reak":1856,"dout":1857,"ont":1858,"atrix":1859,"OF":1860,"parser":1861,"ush":1862,"cript":1863,"usr":1864,"ĠCh":1865,"vo":1866,"ormal":1867,"ready":1868,"rou":1869,"ESS":1870,"Ġfields":1871,"off":1872,"Ġ7":1873,"Ġnames":1874,"fer":1875,"lear":1876,"Bu":1877,"FA":1878,"uture":1879,"address":1880,"ha":1881,"headers":1882,"util":1883,"Ġdirectory":1884,"email":1885,"Ġneed":1886,"Ġresource":1887,"Ġeach":1888,"Ġoper":1889,"search":1890,"gh":1891,"inst":1892,"ĠWAR":1893,"manager":1894,"Ġpos":1895,"so":1896,"sum":1897,"handler":1898,"22":1899,"essage":1900,"licy":1901,"EST":1902,"Ġwas":1903,"site":1904,"gener":1905,"ive":1906,"asses":1907,"VER":1908,"vm":1909,"View":1910,"Ġcount":1911,"Raises":1912,"CL":1913,"cp":1914,"ATE":1915,"fail":1916,"Ġresults":1917,"ĠAr":1918,"55":1919,"mote":1920,"Ġpython":1921,"Lo":1922,"Ġuti":1923,"password":1924,"Config":1925,"ForeignKey":1926,"').":1927,"Ġval":1928,"Ġeither":1929,"200":1930,"perties":1931,"actory":1932,"Ġsome":1933,"frame":1934,"Ġfollow":1935,"Ġ\"\"":1936,"Ġprocess":1937,"Ġorder":1938,"ync":1939,"30":1940,"next":1941,"ĉĉĉ":1942,"Ġchild":1943,"les":1944,"Ġfloat":1945,"lug":1946,"gine":1947,"lobal":1948,"cket":1949,"Ġspecified":1950,"strip":1951,"Me":1952,"Ġ'.":1953,"ĠWARRAN":1954,"cord":1955,"Ġheaders":1956,"Ġob":1957,"down":1958,"KE":1959,"ĠException":1960,"Ġlocal":1961,"abled":1962,"formation":1963,"No":1964,"mark":1965,"Ġtag":1966,"argument":1967,"86":1968,"send":1969,"Response":1970,"Ġproject":1971,"flow":1972,"connect":1973,"swith":1974,"Ġhere":1975,"uuid":1976,"thing":1977,"vailable":1978,"Ġattr":1979,"Ġcor":1980,"connection":1981,"lied":1982,"assertRaises":1983,"Ġchar":1984,"width":1985,"req":1986,"izer":1987,"IO":1988,"remove":1989,"('/":1990,"Handler":1991,"ates":1992,"color":1993,"Ġservice":1994,"Ġallow":1995,"Ġcontinue":1996,"Ġlast":1997,"Ġfound":1998,"Ġdest":1999,"Ġexec":2000,"Ġsa":2001,"Ġ200":2002,"Ġthen":2003,"difi":2004,"package":2005,"stream":2006,"pc":2007,"stamp":2008,"lity":2009,"UM":2010,"Ġsi":2011,"fg":2012,"Ġobjects":2013,"Ġ..":2014,"Ġ''":2015,"Ġ9":2016,"meta":2017,"Ġbody":2018,"Ġmore":2019,"nder":2020,"Meta":2021,"register":2022,"84":2023,"ctionary":2024,"Ġspecific":2025,"ĉĊ":2026,"igh":2027,"Ġsha":2028,"TER":2029,"Path":2030,"sup":2031,"ids":2032,"Ġconnection":2033,"Ġextra":2034,"duct":2035,"alt":2036,"sy":2037,"Ġop":2038,"can":2039,"Group":2040,"ĠĠĠĠĠĠĠĠĠĠĠĠĠĠĠĠĠĠĠĠĠĠ":2041,"make":2042,"Ġsign":2043,"ker":2044,"primary":2045,"gen":2046,"Ġnumpy":2047,"ice":2048,"username":2049,"ultip":2050,"ution":2051,"QU":2052,"Ġsoftware":2053,"show":2054,"TIES":2055,"go":2056,"80":2057,"aster":2058,"Client":2059,"Ġlanguage":2060,"Log":2061,"Ġlogger":2062,"[-":2063,"stack":2064,"tmp":2065,"plugin":2066,"Ġroot":2067,"Ġdel":2068,"mented":2069,"Auto":2070,"header":2071,"Ġmap":2072,"'})":2073,"Ġdif":2074,"rule":2075,"SS":2076,"Ġ\"%":2077,"fault":2078,"ined":2079,"pattern":2080,"AG":2081,"Ġdescription":2082,"Ġsame":2083,"Qu":2084,"Ġ...":2085,"Ġses":2086,"first":2087,"nown":2088,"Bo":2089,"Ġlib":2090,"Ġsy":2091,"element":2092,"IND":2093,"Ġlink":2094,"Ġsession":2095,"ENSE":2096,"older":2097,"wh":2098,"vision":2099,"Ġfe":2100,"Ġgetattr":2101,"case":2102,"Is":2103,"ail":2104,"Ġconn":2105,"etch":2106,"AP":2107,"Ġbuild":2108,"direct":2109,"ĠĠĠĠĠĠĠĠĠĠĠĠĠĠĠĠĠĠĠĠĠĠĠĠĠĠĠĠ":2110,"rs":2111,"Ġload":2112,"present":2113,"char":2114,"ĠYou":2115,"ĠWARRANTIES":2116,"av":2117,"89":2118,"66":2119,"lt":2120,"NAME":2121,"RL":2122,"Ġblock":2123,"Ġarguments":2124,"replace":2125,"ĠSt":2126,"Command":2127,"ĠPar":2128,"author":2129,"actor":2130,"lish":2131,"ĠĠĠĠĠĠĠĠĠĠĠĠĠĠĠĠĠĠĠĠĠĠĠĠĠĠ":2132,"rec":2133,"dentifi":2134,"UP":2135,"logger":2136,"Ġarray":2137,"Ġact":2138,"27":2139,"environ":2140,"Ad":2141,"round":2142,"ĠĠĠĠĠĠĠĠĠĠĠĠĠĠĠĠĠĠĠĠĠĠĠĠĠĠĠĠĠ":2143,"IP":2144,"'''":2145,"abs":2146,"amples":2147,"lice":2148,"Dict":2149,"static":2150,"Ġpart":2151,"ICENSE":2152,"Message":2153,"Create":2154,"ICA":2155,"Ġinfo":2156,"Item":2157,"Ġnum":2158,"contain":2159,"Ġcmd":2160,"Ġvariable":2161,"EL":2162,"br":2163,"quence":2164,"Ġ&":2165,"hash":2166,"Class":2167,"location":2168,"zer":2169,"ative":2170,"ish":2171,"sw":2172,"system":2173,"Ġnext":2174,"Ġpackage":2175,"Ġ),":2176,"Ġbreak":2177,"mod":2178,"Comp":2179,"IntegerField":2180,"random":2181,"ĠAdd":2182,"37":2183,"Ġsp":2184,"']['":2185,"OL":2186,"sentry":2187,"Ġheader":2188,"Auth":2189,"ng":2190,"Ġ%(":2191,"lso":2192,"Ġfilter":2193,"Ġattribute":2194,"Ġpoint":2195,"let":2196,"URL":2197,"'].":2198,"quire":2199,"mpty":2200,"ĠWIT":2201,"Ġoff":2202,"cond":2203,"ob":2204,"FF":2205,"Ġparse":2206,"extra":2207,"common":2208,"future":2209,"OG":2210,"Ġtrue":2211,"QL":2212,"=%":2213,"ings":2214,"Py":2215,"Ġmain":2216,".\"":2217,"tests":2218,"cope":2219,"oding":2220,").__":2221,"selec":2222,"exists":2223,"Ġax":2224,"Ġright":2225,"Ġab":2226,"graph":2227,"stop":2228,"edge":2229,"ini":2230,"Ġafter":2231,"ĠMOD":2232,"io":2233,"ĠLI":2234,"ful":2235,"okup":2236,"Ġcomm":2237,"alid":2238,"AY":2239,"Ġ<=":2240,"Ġopt":2241,"derr":2242,"DB":2243,"Ġold":2244,")):":2245,"elper":2246,"termin":2247,"Ġunicode":2248,"Ġclo":2249,"resh":2250,"Ġtop":2251,"ĠWe":2252,"cale":2253,"device":2254,"Ġtitle":2255,"88":2256,"Ġlevel":2257,"gory":2258,"Ġutf":2259,"Ġfind":2260,"mplemented":2261,"comple":2262,"\"}":2263,"cen":2264,"','":2265,"Ġqu":2266,"36":2267,"war":2268,"Ġ\"'":2269,"TE":2270,"Ġthere":2271,"del":2272,"lower":2273,"Ġthread":2274,"ĠGet":2275,"Ġcoding":2276,"Ġexist":2277,"Boolean":2278,"timeout":2279,"troller":2280,"ĠStr":2281,"chedule":2282,"metadata":2283,"entic":2284,"ITY":2285,"Ġcom":2286,"ĠFor":2287,"Event":2288,"ported":2289,"ULT":2290,"imal":2291,"Ġprefix":2292,"Ġresp":2293,"ogle":2294,"wrap":2295,"ERR":2296,"des":2297,"execute":2298,"press":2299,".')":2300,"Al":2301,"77":2302,"ĠĠĠĠĠĠĠĠĠĠĠĠĠĠĠĠĠĠĠĠĠĠĠĠĠĠĠĠĠĠĠĠĠĠĠ":2303,"Ġorig":2304,"compile":2305,"modules":2306,"ĠNot":2307,"Ġits":2308,"]:":2309,"HTTP":2310,"true":2311,"assertEquals":2312,"Ġ[\"":2313,"Ġwithout":2314,"Ġlambda":2315,"asic":2316,"expected":2317,"Ġenv":2318,"Ġhandler":2319,"sis":2320,"Ġwhere":2321,"ĠSet":2322,"Ġentry":2323,"callback":2324,"\">":2325,"Ġhasattr":2326,"App":2327,"44":2328,"Ġnon":2329,"29":2330,"={":2331,"AutoField":2332,"dist":2333,"ingle":2334,"********":2335,"auto":2336,"ICATIONS":2337,"Ġfail":2338,"Ġnetwork":2339,"({":2340,"Ġobtain":2341,"ĠType":2342,"Ġerr":2343,"23":2344,"Ġfunc":2345,"side":2346,"ĠKey":2347,"Ġgo":2348,"Ġfollowing":2349,"ators":2350,"Ġapi":2351,"Ġsetup":2352,"OC":2353,"ĠVersion":2354,"encode":2355,"ĠUser":2356,"ilder":2357,"ular":2358,"sets":2359,"Ġinitial":2360,"ector":2361,"ĠMODIF":2362,"Ġsee":2363,"ĠMODIFICATIONS":2364,"ET":2365,"Ġpermissions":2366,"ultiple":2367,"_(":2368,"Element":2369,"ĠFOR":2370,"unicode":2371,"Ġ>=":2372,"gex":2373,"ASE":2374,"\"))":2375,"MS":2376,"oper":2377,"%(":2378,"Ġtemp":2379,"setup":2380,"GET":2381,"---":2382,"Ġreturns":2383,"results":2384,"tend":2385,"ORT":2386,"unique":2387,"Per":2388,"tx":2389,"Ġass":2390,"ĠBE":2391,"called":2392,"Ġinformation":2393,"ĠURL":2394,"TYPE":2395,"Ġpassword":2396,"Mock":2397,"Ġcache":2398,"contrib":2399,"05":2400,"Ġfin":2401,"HOUT":2402,"example":2403,"09":2404,"License":2405,"served":2406,"handle":2407,"Ġcreated":2408,"mory":2409,"lot":2410,"Server":2411,"Content":2412,"Ġinclude":2413,"\",\"":2414,"]))":2415,"errors":2416,"By":2417,"style":2418,"cli":2419,"Ġcallback":2420,"Ġ{\"":2421,"Factory":2422,"Ġpub":2423,"###":2424,"He":2425,"rop":2426,"Ġauto":2427,"ear":2428,"very":2429,"olute":2430,"atures":2431,"fn":2432,"groups":2433,"Ġaddress":2434,"WA":2435,"ink":2436,"latform":2437,"VAL":2438,"Ac":2439,"Ġalready":2440,"Option":2441,"ba":2442,"gor":2443,"licenses":2444,"Ġ'__":2445,"Ġlength":2446,"startswith":2447,"Ġparameters":2448,"stdout":2449,"Ġjob":2450,"Ġframe":2451,"Ġunittest":2452,"ves":2453,"gr":2454,"Ġthan":2455,"Ġdictionary":2456,"attribute":2457,"dump":2458,"exit":2459,"loc":2460,"Ġwrite":2461,"Ġindi":2462,"only":2463,"ĠAt":2464,"ĠWITHOUT":2465,"utton":2466,"HT":2467,"75":2468,".\")":2469,"BU":2470,"active":2471,"Ġhandle":2472,"ship":2473,"ĠKIND":2474,"Ca":2475,"NS":2476,"Ġtimeout":2477,"Ġapplic":2478,"book":2479,"repr":2480,"dia":2481,"From":2482,"ĠAn":2483,"ason":2484,"BooleanField":2485,"conds":2486,"ABLE":2487,"ĠĠĠĠĠĠĠĠĠĠĠĠĠĠĠĠĠĠĠĠĠĠĠĠĠĠĠĠĠĠ":2488,"ik":2489,"Ġabs":2490,"Ġkeys":2491,"nodes":2492,"Th":2493,"idx":2494,"Sh":2495,"DateTime":2496,"ĠSo":2497,"Ġcalled":2498,"Ġitems":2499,"penden":2500,"cho":2501,"Run":2502,"26":2503,"ĠApache":2504,"tails":2505,"Ġbefore":2506,"=(":2507,"Instance":2508,"offset":2509,"Ġsearch":2510,"tach":2511,"FAULT":2512,"ould":2513,"driver":2514,"Ġwriting":2515,"Ġlines":2516,"35":2517,"bl":2518,"assed":2519,"OK":2520,"tera":2521,"permission":2522,"Index":2523,"gment":2524,"Ġconfiguration":2525,"Ġ'_":2526,"Connection":2527,"Ġalso":2528,"application":2529,"ĠString":2530,"Ġiter":2531,"INE":2532,"Ġshow":2533,"Ġtests":2534,"plot":2535,"EC":2536,"Ġbin":2537,"lambda":2538,"Info":2539,"Image":2540,"'\",":2541,"ĠCreate":2542,"Ġ'\\":2543,"Ġ'-":2544,"Ġbeen":2545,"dev":2546,"ĠEX":2547,"PRO":2548,"ĉĉĉĉ":2549,"']:":2550,"shot":2551,"Ġcomple":2552,"UE":2553,"nap":2554,"zone":2555,"sm":2556,"(?":2557,"State":2558,"volume":2559,"Ġsw":2560,"sen":2561,"Ġ'--":2562,"39":2563,"Ġverbose":2564,"tw":2565,"Ġdatabase":2566,"Ġexample":2567,"Resource":2568,"ali":2569,"Ġyour":2570,"thread":2571,"metri":2572,"wd":2573,"__,":2574,"ĠImport":2575,"~~~~":2576,"channel":2577,"Ġstream":2578,"bytes":2579,"06":2580,"Call":2581,"unittest":2582,"sitive":2583,"Ġprovided":2584,"Ġdomain":2585,"Ġrandom":2586,"An":2587,"Ġap":2588,"mplement":2589,"Ġcolor":2590,"----------------------------------------------------------------":2591,"rary":2592,"Trans":2593,"wise":2594,"exc":2595,"dentifier":2596,"limit":2597,"Dis":2598,"ports":2599,"fake":2600,"Ġreturned":2601,"Ġpost":2602,"Ġreq":2603,"\");":2604,"tags":2605,"src":2606,"Or":2607,"reed":2608,"ven":2609,"txt":2610,"ERROR":2611,"ĠAPI":2612,"28":2613,"apache":2614,"Ġhash":2615,"stats":2616,"Ġavailable":2617,"Manager":2618,"SION":2619,"inx":2620,"Service":2621,"pl":2622,"member":2623,"tree":2624,"ummy":2625,"]),":2626,"Sub":2627,"ries":2628,"Ġimplied":2629,"lex":2630,"ditional":2631,"opts":2632,"mi":2633,"ystem":2634,"oci":2635,"web":2636,"dential":2637,"ATION":2638,"LICENSE":2639,"commit":2640,"Ġcre":2641,"cc":2642,"login":2643,".,":2644,"Ġwrap":2645,"07":2646,"profile":2647,"rge":2648,"dest":2649,"liance":2650,"ixin":2651,"ĠAND":2652,"ĠNO":2653,"vider":2654,"left":2655,"GL":2656,"Out":2657,"schema":2658,"peri":2659,"UD":2660,"sume":2661,"ĠHTTP":2662,"gest":2663,"ĠNOT":2664,"bind":2665,"access":2666,"Ġgover":2667,"lative":2668,"Ġte":2669,"ĠData":2670,"ODO":2671,"Ġref":2672,"(__":2673,"dered":2674,"Pre":2675,"bot":2676,"backend":2677,"OS":2678,"fin":2679,"ranch":2680,"phinx":2681,"Ġapplicable":2682,"prot":2683,"urls":2684,"XX":2685,"ploy":2686,"heet":2687,"pool":2688,"ived":2689,"This":2690,"Parser":2691,"addr":2692,"repo":2693,"insert":2694,"Ġ$":2695,"Ġnow":2696,"Des":2697,"assi":2698,"Version":2699,"Ġrender":2700,"xx":2701,"Ġsocket":2702,"clean":2703,"imum":2704,"Ġfull":2705,"Query":2706,"{}":2707,"ĠĠĠĠĠĠĠĠĠĠĠĠĠĠĠĠĠĠĠĠĠĠĠĠĠĠĠĠĠĠĠĠĠ":2708,"tuple":2709,"yload":2710,"255":2711,"Ġerrors":2712,"ince":2713,"dified":2714,"tered":2715,"Ġserial":2716,"Ġrule":2717,"Ġrepresent":2718,"Result":2719,"aa":2720,"cted":2721,"Ġattributes":2722,"classmethod":2723,"KEY":2724,"\"):":2725,"Ġexpress":2726,"reen":2727,"Check":2728,"`.":2729,"Ġextension":2730,"Action":2731,"Ġsingle":2732,"SON":2733,"tep":2734,"Ġempty":2735,"vate":2736,"ĠAll":2737,"full":2738,"fl":2739,"zy":2740,"ĠBAS":2741,"Ġcompliance":2742,"children":2743,"diff":2744,"Ġremove":2745,"pha":2746,"Ġdelete":2747,"ĠCONDI":2748,"oly":2749,"85":2750,"eca":2751,"ĠCONDITIONS":2752,"ĠLicensed":2753,"Ġaccess":2754,"help":2755,"tom":2756,"Ġauthor":2757,"Ġgoverning":2758,"Number":2759,"ILITY":2760,"ĠBASIS":2761,"#!":2762,"ret":2763,"Ġtwo":2764,"day":2765,":]":2766,"Ġoptional":2767,"87":2768,"Ġlaw":2769,"ALL":2770,"buffer":2771,"extension":2772,"Ġsend":2773,"Ġscript":2774,"For":2775,"factory":2776,"ical":2777,"forms":2778,"Ġagreed":2779,"120":2780,"used":2781,"ices":2782,"bility":2783,"FOR":2784,"cluster":2785,"Ġpassed":2786,"except":2787,"Ġtypes":2788,"__)":2789,"Ġdocumentation":2790,"MPL":2791,"Widget":2792,"ride":2793,"til":2794,":%":2795,"Ġexc":2796,"\\\"":2797,"itor":2798,"binary":2799,"Ġmetadata":2800,"Le":2801,"THER":2802,"ati":2803,"IG":2804,"isted":2805,"Ġproperty":2806,"aded":2807,"ending":2808,"OW":2809,"decode":2810,"dle":2811,"ĠCol":2812,"As":2813,"(['":2814,"sort":2815,"Ġencoding":2816,"aml":2817,"Ġjust":2818,"Ġparameter":2819,"itch":2820,"git":2821,"49":2822,"Ġdon":2823,"Ġlimitations":2824,"ĠIt":2825,"Context":2826,"Do":2827,"total":2828,"Ġim":2829,"================================":2830,"Ġutils":2831,"directory":2832,"unter":2833,"Ġplugin":2834,"Ġali":2835,"Implemented":2836,"annot":2837,"ecause":2838,"ĠBase":2839,"argv":2840,"cent":2841,"SC":2842,"window":2843,"engine":2844,"non":2845,"document":2846,"\"],":2847,"Table":2848,"created":2849,")[":2850,"socket":2851,"Ġip":2852,"ĠNo":2853,"Ġsystem":2854,"cla":2855,"DateTimeField":2856,"comment":2857,"Ġnodes":2858,"ĠUnless":2859,"validate":2860,"Ġcollection":2861,"On":2862,"cul":2863,"iddle":2864,"anel":2865,"Ġdir":2866,"Ġstruct":2867,"opt":2868,"Frame":2869,"storage":2870,"Property":2871,"ĠsetUp":2872,"Size":2873,"quires":2874,"Su":2875,"Ġmethods":2876,"/%":2877,"MM":2878,"sca":2879,"Ġ####":2880,"bit":2881,"WARE":2882,"Ġcustom":2883,"PAT":2884,"vor":2885,"skip":2886,"vironment":2887,"Ġlike":2888,"gg":2889,"sten":2890,"Ġmark":2891,"https":2892,"orig":2893,"cret":2894,"users":2895,"Dec":2896,"]['":2897,"PER":2898,"ĠEn":2899,"words":2900,"ocument":2901,"AM":2902,"ĠID":2903,"ait":2904,"Ġshape":2905,"shared":2906,"ics":2907,"straint":2908,"POST":2909,"her":2910,"cry":2911,"Ġ\",":2912,"Many":2913,"Ġraw":2914,"=['":2915,"Ġta":2916,"zip":2917,"\"}),":2918,"ĠCheck":2919,"section":2920,"part":2921,"position":2922,"tim":2923,"rough":2924,"ffix":2925,"UB":2926,"napshot":2927,"Ġlay":2928,"okie":2929,"(-":2930,"Ġinclu":2931,"Ġ100":2932,"ipel":2933,"alled":2934,"ONE":2935,"Ġpla":2936,"sq":2937,"ĠIMP":2938,"Ġvar":2939,"rep":2940,"API":2941,"Ġ):":2942,"STR":2943,"flags":2944,"VE":2945,"curity":2946,"pu":2947,"EXT":2948,"Ġwant":2949,"Ġcho":2950,"Ġdirect":2951,"Ġmeta":2952,"attributes":2953,"ĠTODO":2954,"leted":2955,"ks":2956,"#!/":2957,"Ġ',":2958,"sql":2959,"Ġbet":2960,"required":2961,"fd":2962,"wn":2963,"oken":2964,"tenant":2965,"ditions":2966,"FO":2967,"arnings":2968,"ift":2969,");":2970,"ux":2971,"gram":2972,"dim":2973,"istry":2974,"vious":2975,"Ġchannel":2976,"istory":2977,"sue":2978,"ĠRes":2979,"Ġpattern":2980,"Ġdown":2981,"Tests":2982,"Ġemail":2983,"SER":2984,"Ġstop":2985,"Ġdevice":2986,"ĠĠĠĠĠĠĠĠĠĠĠĠĠĠĠĠĠĠĠĠĠĠĠĠĠĠĠĠĠĠĠĠĠĠ":2987,"bove":2988,"mask":2989,"Reg":2990,"Map":2991,"tex":2992,"45":2993,"Rec":2994,"ĠĠĠĠĠĠĠĠĠĠĠĠĊ":2995,"Code":2996,"delta":2997,"ceived":2998,"account":2999,"Ġ--------":3000,"Ġlong":3001,"axis":3002,"+)":3003,"DS":3004,"stead":3005,"PL":3006,"irs":3007,"ZE":3008,"include":3009,"display":3010,"ible":3011,"Ġrecord":3012,"aly":3013,"board":3014,"allow":3015,"Ġdtype":3016,"abel":3017,"Ġglobal":3018,"ĠTH":3019,"ODE":3020,"ured":3021,"igration":3022,"proxy":3023,"role":3024,"classes":3025,"AAAA":3026,"policy":3027,"Ġbool":3028,"ipeline":3029,"Invalid":3030,"andard":3031,"21":3032,"Task":3033,"desc":3034,"cast":3035,"Ġqueue":3036,"Format":3037,"ĠSoftware":3038,"And":3039,"dtype":3040,"issing":3041,"------------------------------------------------------------------------":3042,"]]":3043,"emplate":3044,"79":3045,"Ġlocation":3046,"Ġbytes":3047,"Ġthey":3048,"SH":3049,"keep":3050,"empty":3051,"leep":3052,"dirname":3053,"ĠDE":3054,"points":3055,"stderr":3056,"Loc":3057,"ĠArgs":3058,"Ġ],":3059,"Ġapplication":3060,"Inter":3061,"sure":3062,"widget":3063,"Ġbecause":3064,"Ġ'<":3065,"_,":3066,"Ġet":3067,"Mixin":3068,"ess":3069,"stants":3070,"ĠPer":3071,"fetch":3072,"js":3073,"Ġ'',":3074,"76":3075,"properties":3076,"Ġoffset":3077,"With":3078,"loads":3079,"ĠNotImplemented":3080,"ĠSer":3081,"OFT":3082,"ND":3083,"(**":3084,"gl":3085,"Ġfil":3086,"Ġstyle":3087,"ĠOption":3088,"release":3089,"ward":3090,"Ġtri":3091,"Ġmy":3092,"PR":3093,"attrs":3094,"olve":3095,"Ġnamespace":3096,"bool":3097,"Ġimplement":3098,"long":3099,"hether":3100,"sv":3101,"DIR":3102,"Ġwidth":3103,"container":3104,"extend":3105,"ĠDefault":3106,"utable":3107,"render":3108,"edi":3109,"Ġxml":3110,"assertFalse":3111,"ACK":3112,"Ġgraph":3113,"Ġtree":3114,"ceback":3115,"public":3116,"Ġthem":3117,"ĠGener":3118,"UTH":3119,"ffi":3120,"layer":3121,"stract":3122,"Ġnoti":3123,"rows":3124,"sitory":3125,"']\"}),":3126,"initial":3127,"ĠName":3128,"Column":3129,"59":3130,"expr":3131,"Ġsupport":3132,"'^":3133,"step":3134,"Ġsure":3135,"ĠTypeError":3136,"OFTWARE":3137,"wait":3138,"Ġ\"/":3139,"Lay":3140,"Ġdebug":3141,"linen":3142,"ling":3143,"entity":3144,"Gener":3145,"ffect":3146,"Ġmessages":3147,"ABILITY":3148,"({'":3149,"ween":3150,"ws":3151,"\"])":3152,"ja":3153,"Ġsum":3154,"Fla":3155,"sted":3156,"apping":3157,"LINE":3158,"olver":3159,"ĠList":3160,"ination":3161,"Ġdisplay":3162,"Ġabove":3163,"ATA":3164,"Fa":3165,"Filter":3166,"ĠImportError":3167,"height":3168,"PC":3169,"TIC":3170,"ĠPRO":3171,"Fe":3172,"ily":3173,"Ġselect":3174,"SD":3175,"coder":3176,"Ġrequests":3177,"pth":3178,"TextField":3179,"rv":3180,"hi":3181,"Ġexists":3182,"imp":3183,"TO":3184,"ĠĠĠĠĠĠĠĠĠĠĠĠĠĠĠĠĠĠĠĠĠĠĠĠĠĠĠĠĠĠĠĠĠĠĠĠĠĠĠ":3185,"Ġusername":3186,"Ġrepo":3187,"ĠSOFTWARE":3188,"dentity":3189,"Ġinteger":3190,"mbol":3191,"sl":3192,"tact":3193,"Attribute":3194,"slug":3195,"Ġspace":3196,"known":3197,"encoding":3198,"install":3199,"ello":3200,"iltin":3201,"Ġti":3202,"################################################################":3203,"parameters":3204,"sole":3205,"Ġsave":3206,"messages":3207,"verbose":3208,"ower":3209,"selected":3210,"success":3211,"Ġsorted":3212,"Sta":3213,"DEFAULT":3214,"component":3215,"Ġge":3216,"normal":3217,"any":3218,"ĠRun":3219,"Ro":3220,"Ġtotal":3221,"MIT":3222,"record":3223,"ights":3224,"Ġ16":3225,"Ġtmp":3226,"train":3227,"38":3228,"Ġnull":3229,"Ġblank":3230,"tification":3231,"Ġabsolute":3232,"lem":3233,"esca":3234,"ĠFI":3235,"Ġ12":3236,"way":3237,"dt":3238,"rf":3239,"hen":3240,"term":3241,"timestamp":3242,"74":3243,"=_":3244,"CP":3245,"ano":3246,"LY":3247,"'][":3248,"tG":3249,"oto":3250,"gnore":3251,"SY":3252,"rations":3253,"owner":3254,"invalid":3255,"ĠHT":3256,"Ġforms":3257,"Ġreverse":3258,"gress":3259,"Ġmon":3260,"Ġclean":3261,"raises":3262,"columns":3263,"Cache":3264,"inition":3265,"tml":3266,"series":3267,"ctx":3268,"PATH":3269,"Ġinstead":3270,"like":3271,"END":3272,"variable":3273,"ĠTHIS":3274,"Ġwindow":3275,"sample":3276,"Ed":3277,"FILE":3278,"Valid":3279,"cle":3280,"iddleware":3281,"ĠAttribute":3282,"Ġcomponent":3283,"Ġzip":3284,"Ġcontaining":3285,"Ġcluster":3286,"ways":3287,"={'":3288,"Ġpossible":3289,"ook":3290,"ĠHTML":3291,"ĠĠĠĠĠĠĠĠĠĠĠĠĠĠĠĠĠĠĠĠĠĠĠĠĠĠĠĠĠĠĠĠĠĠĠĠ":3292,"yp":3293,"Ġsrc":3294,"language":3295,"ib":3296,"win":3297,"ged":3298,"Ġsuccess":3299,"see":3300,"Ġedit":3301,"Ġposition":3302,"rest":3303,"Window":3304,"Ġsix":3305,"End":3306,"dentials":3307,"ategory":3308,"08":3309,"ferred":3310,".'":3311,"Ġsql":3312,"pping":3313,"gate":3314,"Protocol":3315,"Ġ\".":3316,"Ġ})":3317,"00000000":3318,"dot":3319,"agent":3320,"Ġfl":3321,"Ġpk":3322,"Ġadded":3323,"Input":3324,"Ġconditions":3325,"clear":3326,"STAT":3327,"Ġweb":3328,"IB":3329,"wner":3330,"Ġthese":3331,"cursor":3332,"Ġchunk":3333,"namespace":3334,"69":3335,"cies":3336,"Ġinterface":3337,"Ġflag":3338,"Ġdefined":3339,"Ġdoesn":3340,"umerate":3341,"Ġwidget":3342,"Ġdetails":3343,"Ġsection":3344,"most":3345,"loop":3346,"views":3347,"Ġ\"\\":3348,"lineno":3349,"ĠIP":3350,"All":3351,"ouble":3352,"ric":3353,"serv":3354,"head":3355,"else":3356,"Count":3357,"imple":3358,"Address":3359,"Ġnormal":3360,"indi":3361,"ĠZ":3362,"Admin":3363,"cro":3364,"ground":3365,"eval":3366,"wri":3367,"void":3368,"tical":3369,"Ġcolumns":3370,"Line":3371,"Ġremote":3372,"entries":3373,"spa":3374,"collection":3375,"ĠNotImplementedError":3376,"ĠON":3377,"AGE":3378,"ntry":3379,"cfg":3380,"tems":3381,"[:,":3382,"Ġfoo":3383,"ĠSe":3384,"Tra":3385,"track":3386,"Mo":3387,"ithub":3388,"54":3389,"Logger":3390,"Ġaxis":3391,"cheme":3392,"real":3393,"alog":3394,"cip":3395,"ĠFile":3396,"EE":3397,"ferent":3398,"tivity":3399,"af":3400,"compute":3401,"kernel":3402,"Ġcharac":3403,"Tag":3404,"cloud":3405,"__':":3406,"CK":3407,"cap":3408,"ticle":3409,"master":3410,"ntax":3411,"Status":3412,"ose":3413,"Ġvolume":3414,"One":3415,"cr":3416,"Ġsta":3417,"-------":3418,"ession":3419,"ĠNote":3420,"chunk":3421,"tk":3422,"Int":3423,"Ġstrings":3424,"ĠĠĠĠĠĠĠĠĠĠĠĠĠĠĠĠĠĠĠĠĠĠĠĠĠĠĠĠĠĠĠĠĠĠĠĠĠ":3425,"Ġcorrect":3426,"cd":3427,"cat":3428,"EM":3429,"rand":3430,"folder":3431,"simple":3432,"RES":3433,"')),":3434,"exceptions":3435,"GI":3436,"batch":3437,"('\\":3438,"GIN":3439,"assertIs":3440,"nu":3441,"light":3442,"()[":3443,"Ġunique":3444,"FL":3445,"Ġconf":3446,"multi":3447,"ĠApp":3448,"Ġcontainer":3449,"scope":3450,"DER":3451,"Down":3452,"images":3453,"Ġskip":3454,"cb":3455,"unit":3456,"pid":3457,"Ġpatch":3458,"vars":3459,"Ġassoci":3460,"gf":3461,"CS":3462,"Process":3463,"disk":3464,"protocol":3465,"rel":3466,"42":3467,"NO":3468,"('-":3469,"Ġrelative":3470,"rag":3471,"unded":3472,"Ġgenerate":3473,"tify":3474,"vs":3475,"Ġoriginal":3476,".*":3477,"Ġfunctions":3478,"Ġenumerate":3479,"Ġbetween":3480,"ories":3481,"Ġactual":3482,"Function":3483,"Ġph":3484,"mk":3485,"td":3486,"Ġfake":3487,"region":3488,"matrix":3489,"rl":3490,"ished":3491,"Ġentity":3492,"Ġsecond":3493,"iff":3494,"mension":3495,"Ġctx":3496,"bound":3497,"actions":3498,"orter":3499,"Ġpaths":3500,"Callback":3501,"Ġflags":3502,"ueue":3503,"Ġabout":3504,"Ġsimple":3505,"sumer":3506,"']\",":3507,"Ġmod":3508,"Ġtags":3509,"ĠInc":3510,"Ġleft":3511,"('%":3512,"moved":3513,"ants":3514,"WOR":3515,"><":3516,"Ġnotice":3517,"idden":3518,"ĠComp":3519,"SA":3520,"Of":3521,"Ġcontrol":3522,"resp":3523,"Point":3524,"Ġprotocol":3525,"Found":3526,"ĠĠĠĠĠĠĠĠĠĠĠĠĠĠĠĠĠĠĠĠĠĠĠĠĠĠĠĠĠĠĠĠĠĠĠĠĠĠ":3527,"tended":3528,"USER":3529,"Module":3530,"ero":3531,"ational":3532,"pb":3533,"xture":3534,"Ġbeing":3535,"OST":3536,"Ġdifferent":3537,"eq":3538,"once":3539,"ient":3540,"ROM":3541,"Ġbinary":3542,")'":3543,"tt":3544,"gger":3545,"Ġfailed":3546,"dumps":3547,"Ġsort":3548,"ĠParameters":3549,"Ġopts":3550,"Ġcer":3551,"remote":3552,"CC":3553,"$',":3554,"____":3555,"Ġaccount":3556,"Ġgra":3557,"Ġmultiple":3558,"events":3559,"sive":3560,"convert":3561,"Ġreplace":3562,")\"":3563,"med":3564,"sheet":3565,"gorith":3566,"liter":3567,"Ġbackend":3568,"Method":3569,"We":3570,"IM":3571,"stat":3572,"vis":3573,"sec":3574,"Ġattrs":3575,"sity":3576,"img":3577,"Ġcy":3578,"Ġlook":3579,"Be":3580,"Ġwho":3581,"cm":3582,"40":3583,"-%":3584,"rection":3585,"ority":3586,"buf":3587,"60":3588,"Ġhtml":3589,"seq":3590,"ORS":3591,"Ġcursor":3592,"Ġinstall":3593,"67":3594,"secret":3595,"bb":3596,"Len":3597,"filters":3598,"Ġeq":3599,"cated":3600,"PS":3601,"Ġfinally":3602,"////":3603,"duce":3604,"labels":3605,"escape":3606,"'\\":3607,"some":3608,"Ġxrange":3609,"INT":3610,"reset":3611,"Returns":3612,"tGui":3613,"Ġ</":3614,"Ġour":3615,"DR":3616,"Token":3617,"ĠIF":3618,"uff":3619,"Sec":3620,"Color":3621,"provider":3622,"Ġ[(":3623,"au":3624,"wer":3625,":'":3626,"licit":3627,"Ġgenerated":3628,"std":3629,"hook":3630,"PORT":3631,"Ġstep":3632,"Ġ->":3633,"short":3634,"Spec":3635,"Contain":3636,"card":3637,"Ġ20":3638,"If":3639,"ath":3640,"database":3641,"Ġadmin":3642,"Ġurllib":3643,"istribu":3644,"ork":3645,".',":3646,"ĠKeyError":3647,"Ġexpression":3648,"PT":3649,"Ġoperation":3650,"Ġthrough":3651,"dify":3652,"rtype":3653,"ritems":3654,"scale":3655,")\",":3656,"alias":3657,"cing":3658,"ĠAs":3659,"65":3660,"eve":3661,"verage":3662,"signed":3663,"Ġwx":3664,"31":3665,"Update":3666,"}'.":3667,"Ġpick":3668,"ĠConstant":3669,"CLUD":3670,"ordin":3671,"Ġmatrix":3672,"resses":3673,"logging":3674,"Oper":3675,"Ġcontains":3676,"mar":3677,"gy":3678,"assifi":3679,"Ġwhether":3680,"ĠAuth":3681,"apps":3682,"Cl":3683,"(\"%":3684,"igrations":3685,"Ġgen":3686,"Ġfix":3687,"Ġstack":3688,"Ġusers":3689,"olution":3690,"ValueError":3691,"na":3692,"ATED":3693,"paths":3694,")])":3695,"Ġlate":3696,"sig":3697,"enabled":3698,"ĠRE":3699,"raise":3700,"safe":3701,"ĠOTHER":3702,"Ġcomment":3703,"ĉĉĊ":3704,"PAR":3705,"dr":3706,".\\":3707,"Ġschema":3708,"Ġforce":3709,"Ġsubprocess":3710,"lip":3711,"INTER":3712,"Ġsalt":3713,"undle":3714,"1111":3715,"resources":3716,"ĠAd":3717,"TEST":3718,"Change":3719,"ferences":3720,"ually":3721,"Ġrunning":3722,"Ġignore":3723,"Ġidx":3724,"mean":3725,"Ġlicense":3726,"route":3727,"BUG":3728,"ĠLOG":3729,"CLUDING":3730,"JE":3731,"ASS":3732,"83":3733,"Ġsm":3734,"DO":3735,"product":3736,"changed":3737,"(('":3738,"ĠHttp":3739,"sym":3740,"Ġ----------":3741,"Ġcopyright":3742,"spect":3743,"score":3744,"uint":3745,"gt":3746,"System":3747,"Ġ'{":3748,"Ġsequence":3749,"Port":3750,"Ġstdout":3751,"fp":3752,"hs":3753,"XML":3754,"div":3755,"LL":3756,"()))":3757,"Output":3758,"rpc":3759,"year":3760,"akes":3761,">'":3762,"Ġbar":3763,"Ġsupported":3764,"}.":3765,"Ġmember":3766,"entication":3767,"Ġreference":3768,"greg":3769,"STATUS":3770,"Ġparsed":3771,"Ġ[])":3772,"VALUE":3773,"Ġbased":3774,"bucket":3775,"report":3776,"connec":3777,"Ġstore":3778,"medi":3779,"Child":3780,"Ġexisting":3781,"Ġfn":3782,"Page":3783,"Ġkeep":3784,"enter":3785,">\\":3786,"github":3787,"Ġrights":3788,"Ġ((":3789,"ANT":3790,"rer":3791,"WS":3792,"ĠCONTR":3793,"Ġbegin":3794,"Tree":3795,"dataset":3796,"Ġevery":3797,"Read":3798,"sleep":3799,"eeded":3800,"tool":3801,"SIZE":3802,"TIME":3803,"Ġcontents":3804,"Ġstatic":3805,"PY":3806,"warning":3807,"tensor":3808,"pendencies":3809,"tificate":3810,"SL":3811,"ĠOpen":3812,"Ġdefaults":3813,"Ġclasses":3814,"contents":3815,"tty":3816,"LOG":3817,"Start":3818,"Ġclose":3819,"Ġvariables":3820,"DF":3821,"slice":3822,"pol":3823,"``.":3824,"chine":3825,"fit":3826,"ni":3827,"Ġrelated":3828,"generate":3829,"mount":3830,"ĠOr":3831,"SQL":3832,"Ġsince":3833,"UI":3834,"Ġvalidate":3835,"Ġinit":3836,"force":3837,"Ġprofile":3838,"bad":3839,"Ġredirect":3840,"Ġconvert":3841,"cheduler":3842,"ĠRed":3843,"\").":3844,"Ġ'#":3845,"Ġjoin":3846,"helper":3847,"iki":3848,"jobs":3849,"()),":3850,"57":3851,"Ġproperties":3852,"ping":3853,"BO":3854,"Struct":3855,"Ġexpect":3856,"gments":3857,"GR":3858,"matic":3859,"Ġwhat":3860,"tab":3861,"Ġwait":3862,"Plugin":3863,"hy":3864,"interface":3865,"titem":3866,"docs":3867,"ines":3868,"controller":3869,"ptr":3870,"font":3871,"global":3872,"Ġnet":3873,"Default":3874,"utron":3875,"uter":3876,"Ġinstances":3877,"VERSION":3878,"lookup":3879,"respon":3880,"pg":3881,"ĠJSON":3882,"Open":3883,"Back":3884,"Source":3885,"tition":3886,"ynam":3887,"Ġappro":3888,"ĠMock":3889,"Ġeval":3890,"grid":3891,"gb":3892,"Ġsubject":3893,"seconds":3894,"cert":3895,"proto":3896,"Ġreal":3897,"packages":3898,"Ġagain":3899,"Ġdataset":3900,"SET":3901,"Ġhow":3902,"ĠColumn":3903,"Ġsite":3904,"CRE":3905,"MAX":3906,"Array":3907,"Ġplace":3908,"VI":3909,"ĠConfig":3910,"Cur":3911,"parts":3912,"CI":3913,"__.":3914,"defaults":3915,"returns":3916,"'re":3917,"Clo":3918,"Label":3919,"Serial":3920,"Ġprimary":3921,"free":3922,"ancel":3923,"tz":3924,"Ġmerge":3925,"reverse":3926,"Ġsetting":3927,"cols":3928,"manage":3929,"ested":3930,"ĠAttributeError":3931,"Ver":3932,"AND":3933,"Ġmulti":3934,"Ġassociated":3935,"boot":3936,"\\'":3937,"ae":3938,"ving":3939,"deo":3940,"Box":3941,"Ġvari":3942,"Options":3943,"ITE":3944,"testing":3945,"Ġtimestamp":3946,"loader":3947,"....":3948,"velop":3949,"umb":3950,"Ġ,":3951,"ssl":3952,"Ġsample":3953,"ench":3954,"abc":3955,"Ġstri":3956,"Ġcop":3957,"Ġstats":3958,"custom":3959,"features":3960,"ĠTO":3961,"uch":3962,"anization":3963,"47":3964,"ases":3965,"Ġtheir":3966,")*":3967,"Ġ_('":3968,"category":3969,"vari":3970,"home":3971,"zeros":3972,"ram":3973,"ops":3974,"Ġretri":3975,"hex":3976,"Ġevents":3977,"basic":3978,"cords":3979,"-----":3980,"Ġinvalid":3981,"fsm":3982,"security":3983,"chemy":3984,"Dir":3985,"Ġreport":3986,"ĠValid":3987,"1234":3988,"ĠLo":3989,"ssh":3990,"Ġedge":3991,"ored":3992,"mer":3993,"SM":3994,"Ġsuch":3995,"Ġrows":3996,"46":3997,"Ġbuffer":3998,"Ġcfg":3999,"Ġpool":4000,"95":4001,"('--":4002,"ignore":4003,"Ġrep":4004,"ĠPo":4005,"ACE":4006,"gorithm":4007,"Ġlock":4008,"ĠOn":4009,"LS":4010,"rb":4011,"_.":4012,"ude":4013,"ĠUse":4014,"MOD":4015,"platform":4016,"cessed":4017,"Ġutil":4018,"Ġkw":4019,"Ġprevious":4020,"Ġtwisted":4021,"Ġboth":4022,"iteritems":4023,"publish":4024,"prop":4025,"Ġ\"__":4026,"this":4027,"ural":4028,"GHT":4029,"staticmethod":4030,"Ġwarnings":4031,"uted":4032,"nored":4033,"indices":4034,"dat":4035,"ĠEV":4036,"Ġcompute":4037,"false":4038,"Ġcould":4039,"Argument":4040,"ĠUSE":4041,"Ġnamed":4042,"math":4043,"Ġallowed":4044,"ĠFROM":4045,"Ġ###":4046,"Ġreason":4047,"Ġwould":4048,"_)":4049,"abspath":4050,"ĠĠĠĠĠĠĠĠĠĠĠĠĠĠĠĠĠĠĠĠĠĠĠĠĠĠĠĠĠĠĠĠĠĠĠĠĠĠĠĠ":4051,"tten":4052,"Ġseconds":4053,"Ġparts":4054,"should":4055,"ĠEND":4056,"ĠImage":4057,"`,":4058,"control":4059,"uring":4060,"redirect":4061,"utor":4062,"Ġsplit":4063,"verify":4064,"URE":4065,"unch":4066,"dar":4067,"Ġbatch":4068,"OUT":4069,"terms":4070,"Ġchanges":4071,"Ġkeyword":4072,"warn":4073,"modified":4074,"gether":4075,"month":4076,"9999":4077,"lite":4078,"ĠTo":4079,"ire":4080,"Ġfalse":4081,"ĠGa":4082,"super":4083,"reference":4084,"oriz":4085,"Ġspecify":4086,"Failed":4087,"dient":4088,"Ġlibrary":4089,"Ġproduct":4090,"flag":4091,"Stream":4092,"utes":4093,"Ph":4094,"****************":4095,"96":4096,">>>":4097,"Ġregion":4098,"none":4099,"iver":4100,"Ġ15":4101,"Ġheight":4102,"Button":4103,"usage":4104,"Ġbound":4105,"css":4106,"serve":4107,"lector":4108,"Ġhand":4109,"lities":4110,"Exec":4111,"__()":4112,"virt":4113,"Ġconver":4114,"OB":4115,"ĠĠĠĠĠĠĠĠĠĠĠĠĠĠĠĠĠĠĠĠĠĠĠĠĠĠĠĠĠĠĠĠĠĠĠĠĠĠĠĠĠĠĠ":4116,"(%":4117,"MD":4118,"Ġdt":4119,"Ġcommon":4120,"tables":4121,"ĠTh":4122,"px":4123,"tore":4124,"Ġ'')":4125,"Ġ_(\"":4126,"HER":4127,"Positive":4128,"Sy":4129,"cimal":4130,"ctor":4131,"Ġelements":4132,"services":4133,"Python":4134,"lim":4135,"/',":4136,"ĠFILE":4137,"Ġmissing":4138,"pose":4139,"Ġexit":4140,"Ġtrack":4141,"78":4142,"ULL":4143,"added":4144,"TA":4145,"links":4146,"Ġconnec":4147,"LECT":4148,"Ġprob":4149,"Ġpresent":4150,"Ġcallable":4151,"Entry":4152,"ACT":4153,"question":4154,"Ġhigh":4155,"Ġexceptions":4156,"apt":4157,"Ġsent":4158,"Ġstorage":4159,"serialize":4160,"Ġmapping":4161,"48":4162,"deploy":4163,"Network":4164,"button":4165,"ĠRequest":4166,"interval":4167,",)":4168,"CA":4169,"Ġfeature":4170,"cu":4171,"TICE":4172,"Ġotherwise":4173,"sk":4174,"Ġfilters":4175,"'\"":4176,"salt":4177,"fmt":4178,"localhost":4179,"csv":4180,"getLogger":4181,"rowser":4182,"sgi":4183,"assertIn":4184,"vt":4185,"regex":4186,"leg":4187,"Ġmetri":4188,"detail":4189,"chain":4190,"pare":4191,"Ġmanager":4192,"literals":4193,"asure":4194,"MIN":4195,"periment":4196,"kes":4197,"Ġkind":4198,"/'":4199,"ĠOS":4200,"arge":4201,"stru":4202,"listen":4203,"sd":4204,"Ġway":4205,"az":4206,"media":4207,"timeError":4208,"My":4209,"TEXT":4210,"Build":4211,"fname":4212,"RECT":4213,"ific":4214,"flush":4215,"New":4216,"ified":4217,"ĠĠĠĠĠĠĠĠĠĠĠĠĠĠĠĠĠĠĠĠĠĠĠĠĠĠĠĠĠĠĠĠĠĠĠĠĠĠĠĠĠ":4218,"Ġdriver":4219,"Rel":4220,"ends":4221,"Ġdisk":4222,"tist":4223,"Ġdf":4224,"ĠGo":4225,"after":4226,"ado":4227,"Ġ11":4228,"Ġencode":4229,"Ġenvironment":4230,"ide":4231,"Ġsignal":4232,"private":4233,"precated":4234,"ĠTime":4235,"Ġreserved":4236,"')(":4237,"Ġdesc":4238,"tities":4239,"Ġcannot":4240,"indent":4241,"NOT":4242,"ometry":4243,"``,":4244,"Ġupdated":4245,"OM":4246,"ĠDjango":4247,"amily":4248,"Ġcore":4249,"eds":4250,"Link":4251,"em":4252,"pendency":4253,"havi":4254,"Session":4255,"ence":4256,"ĠSub":4257,"plugins":4258,"mapping":4259,"Graph":4260,"gz":4261,"faces":4262,"AMA":4263,"Ġrepr":4264,"Var":4265,"quested":4266,"payload":4267,"ENER":4268,"wards":4269,"Ġdecor":4270,"ationError":4271,"Ġ\"-":4272,"Ġconst":4273,"Ġbind":4274,")',":4275,"ĠNode":4276,"256":4277,"RIGHT":4278,"memory":4279,"ĠNOTICE":4280,"Ġwithin":4281,"roy":4282,"reshold":4283,"Ġverify":4284,"Ġlabels":4285,"Ġmask":4286,"Ġ\"--":4287,"USE":4288,"READ":4289,"weight":4290,"where":4291,"lab":4292,"Ġproxy":4293,"Ġuuid":4294,"Ġanother":4295,"selection":4296,"complete":4297,"Ġloop":4298,"NE":4299,"++":4300,"ĠMeta":4301,"Ġfp":4302,"times":4303,"ĠAl":4304,"Template":4305,"Ġtrain":4306,":\\":4307,"ynamic":4308,"Ġtheano":4309,"REQU":4310,"Ġrole":4311,"kind":4312,"gramm":4313,"Ġuri":4314,"eg":4315,"WI":4316,"Ġdone":4317,"pick":4318,"Ġpoints":4319,"ĠWhen":4320,"Ġext":4321,"Obj":4322,"Ġalways":4323,"ug":4324,"require":4325,"UMENT":4326,"sock":4327,"Project":4328,"EV":4329,"Ġpayload":4330,"Ġbel":4331,"MENT":4332,"cell":4333,"loaded":4334,"tasks":4335,"ached":4336,"plan":4337,"signal":4338,"Jo":4339,"Ġplot":4340,"Ġconnect":4341,"hape":4342,"ĠAR":4343,"ĠMy":4344,"Ġusage":4345,"Ġpublic":4346,"wx":4347,"ĠLIMIT":4348,"menu":4349,"PUT":4350,"dio":4351,"Ġdefer":4352,"Ġperson":4353,"mem":4354,"So":4355,"hostname":4356,"rules":4357,"Ġcomplete":4358,"97":4359,"Exp":4360,"Ġword":4361,"Op":4362,"FR":4363,"updated":4364,"inf":4365,"mitted":4366,"oauth":4367,"404":4368,"VIC":4369,"ĠUp":4370,"LIED":4371,"numpy":4372,"branch":4373,"jec":4374,"INFO":4375,"FORM":4376,"Ġcommit":4377,"Ġregister":4378,"second":4379,"Ġindent":4380,"Queue":4381,"pendent":4382,"Ġctypes":4383,"Ġ{})":4384,"Length":4385,"apter":4386,"Ġcommands":4387,"expi":4388,"FT":4389,"instances":4390,"Ġscope":4391,"upper":4392,"Host":4393,"Ġbuf":4394,"}}":4395,"Thread":4396,"Ġsepar":4397,"128":4398,"Ġpublish":4399,"andid":4400,"mac":4401,"Ġrest":4402,"arted":4403,"structor":4404,"ĠRa":4405,"upload":4406,"lobals":4407,"Ġsim":4408,"quote":4409,"ĠDAMA":4410,"Ġdiff":4411,"ĠModel":4412,"NotFound":4413,"Ġshort":4414,"choices":4415,"ilt":4416,"UID":4417,"ĠDo":4418,"uplic":4419,"samples":4420,"Ref":4421,"Met":4422,"transform":4423,",'":4424,"cf":4425,"Control":4426,"subnet":4427,"ĠStringIO":4428,"Pack":4429,"rove":4430,"Ġsig":4431,"istration":4432,"Ġplatform":4433,"attach":4434,"OPY":4435,"Ġplt":4436,"ĠDi":4437,"\"][\"":4438,"Ġmodules":4439,"rot":4440,"history":4441,"bed":4442,"endswith":4443,"router":4444,"000000":4445,"ifest":4446,"aries":4447,"Ġalpha":4448,"servers":4449,"Ag":4450,"ĠCommand":4451,"Fail":4452,"isc":4453,"Ġvia":4454,"ĠCOPY":4455,"()]":4456,"########################################################################":4457,"Ġexpr":4458,"vals":4459,"pair":4460,"scribe":4461,"ins":4462,"ctype":4463,"layout":4464,"Com":4465,"sync":4466,"Ġlookup":4467,"ĠMake":4468,"Ġexecute":4469,"Ġcli":4470,"Ġunit":4471,"PRE":4472,".%":4473,"(\\":4474,"pending":4475,"Ġtokens":4476,"pted":4477,"Ġ])":4478,"ctions":4479,"Ab":4480,"AUTH":4481,"inputs":4482,"available":4483,"Ġclear":4484,"Block":4485,"__.__":4486,"Ġ##":4487,"Ġmatches":4488,"dispatch":4489,"note":4490,"latex":4491,"center":4492,"pages":4493,"zero":4494,"Ġ\"\",":4495,"Ġdisable":4496,"transport":4497,"Pri":4498,"ĠIMPLIED":4499,"Ġfactory":4500,"98":4501,"70":4502,"merge":4503,"Ġtesting":4504,"ross":4505,"Ġ#:":4506,"vid":4507,"Ġimplementation":4508,"Search":4509,"Ġpi":4510,"subject":4511,"lon":4512,"ĠExample":4513,"Mode":4514,"ords":4515,"DEBUG":4516,"Ge":4517,"Ġpop":4518,"nn":4519,"ĠBUT":4520,"seed":4521,"mpt":4522,"Ġpages":4523,"Ġ%}":4524,"culate":4525,"COL":4526,"']),":4527,"ĠQtGui":4528,"Ġ(%":4529,"angible":4530,"Ġimg":4531,"Ġmath":4532,"dc":4533,"OCUMENT":4534,"fill":4535,"Ġselected":4536,"VID":4537,"Ġ'*":4538,"ĠPAR":4539,"ĠBy":4540,"Ġcompile":4541,"poch":4542,"sphinx":4543,":`.":4544,"\"].":4545,"iod":4546,"ĠDocument":4547,"ĠLanguage":4548,"byte":4549,"DATA":4550,"Http":4551,"endpoint":4552,"FC":4553,"Ġrequire":4554,"GB":4555,"ĠIO":4556,"Ġfont":4557,"AI":4558,"Buffer":4559,"vas":4560,"paces":4561,"LEASE":4562,"ĠDec":4563,"uce":4564,"exclude":4565,"Variable":4566,"Ġstderr":4567,"ixel":4568,"png":4569,"}\".":4570,"decor":4571,"sn":4572,"Qt":4573,"Ġpolicy":4574,"Ġfolder":4575,"alle":4576,"ORY":4577,"Ġneeded":4578,"Ġcalls":4579,"JECT":4580,"ĠLIMITED":4581,"Sp":4582,"tod":4583,"Ġcorrespon":4584,"cription":4585,"Ġfinal":4586,"Load":4587,"extensions":4588,"just":4589,"Ġfree":4590,"Ġcategory":4591,"agic":4592,"(\"/":4593,"Ġoc":4594,"Ġuses":4595,"Ġig":4596,"Ġrv":4597,"missing":4598,"Ġincluded":4599,"Ġimages":4600,"Ġslice":4601,"Ġtransaction":4602,"Ġ))":4603,"ĠĠĊ":4604,"single":4605,"Ġcollections":4606,"feature":4607,"mat":4608,"43":4609,"ordering":4610,"topic":4611,"Ġchanged":4612,",))":4613,"alk":4614,"ustome":4615,"registry":4616,"~~~~~~~~":4617,"Ġgit":4618,"lime":4619,"[:-":4620,"rp":4621,"]*":4622,"Ġhttps":4623,"const":4624,"Ġoprot":4625,"Ġissue":4626,"download":4627,"LEN":4628,"ĠGaffer":4629,"ĠIndex":4630,"Ġmigrations":4631,"ĠSh":4632,"Ġmp":4633,"Ġperform":4634,"commands":4635,"Ġaut":4636,"Ġcell":4637,"cel":4638,"Level":4639,"elements":4640,"Wrap":4641,"states":4642,"Ġapply":4643,"Ġchildren":4644,"OWN":4645,"arn":4646,"istered":4647,"Ġtool":4648,"meth":4649,"></":4650,"72":4651,"Ġwrapper":4652,"ĠBu":4653,"eries":4654,"Top":4655,"Ġmean":4656,"Ġgroups":4657,"perm":4658,"Ġlinks":4659,"ulate":4660,"trace":4661,"Ġneeds":4662,"Te":4663,"SO":4664,"basename":4665,"Ġ\"<":4666,"Ġactive":4667,"orn":4668,"LA":4669,"123":4670,"ĠMe":4671,"68":4672,"Delete":4673,"Ġstatement":4674,"arguments":4675,"suite":4676,"done":4677,"optional":4678,"Ġstandard":4679,"icro":4680,"ANG":4681,"metric":4682,"adding":4683,"90":4684,"ToMany":4685,"MPLES":4686,"ĠAUT":4687,"Ġ-=":4688,"scriptor":4689,"exist":4690,"Ġgl":4691,"cached":4692,"ied":4693,"()):":4694,"ĠBEGIN":4695,"Ġdetermin":4696,"NUM":4697,"Ġbranch":4698,"gettext":4699,"pkg":4700,"Ġowner":4701,"zz":4702,"Ġtr":4703,"Ġendpoint":4704,"Document":4705,"ĠSQL":4706,"ĠGroup":4707,"proc":4708,"Ġshared":4709,"builder":4710,"hosts":4711,"Ġremoved":4712,"Ġrelease":4713,"ĠĠĠĠĠĠĠĠĠĠĠĠĠĠĠĠĠĠĠĠĠĠĠĠĠĠĠĠĠĠĠĠĠĠĠĠĠĠĠĠĠĠ":4714,"relation":4715,"Ġbucket":4716,"ĠSH":4717,"Ġ30":4718,"anti":4719,"sertion":4720,"':'":4721,"TypeError":4722,"google":4723,"suffix":4724,"Ġsetattr":4725,"dirs":4726,"rm":4727,"Ġtheme":4728,"export":4729,"SSL":4730,"ia":4731,"ĠDB":4732,"identifier":4733,"Ġadditional":4734,"holder":4735,"IBUT":4736,"issue":4737,"six":4738,"MT":4739,"permissions":4740,"tyle":4741,"ga":4742,"ils":4743,"Job":4744,"CR":4745,"ĠText":4746,"Ġitera":4747,"Ġbuilder":4748,"uting":4749,")/":4750,"->":4751,"fc":4752,"sep":4753,"deleted":4754,"click":4755,"Core":4756,"counter":4757,"']))":4758,"Ġinv":4759,"before":4760,"Ġbit":4761,"snapshot":4762,"ĠLIABILITY":4763,"Ren":4764,"alpha":4765,"AMPLES":4766,"Ġ32":4767,">',":4768,"uses":4769,"calls":4770,"push":4771,"templates":4772,"ĠLog":4773,"Ġmenu":4774,"defined":4775,"Stack":4776,"Pass":4777,"lack":4778,"theme":4779,"hn":4780,"mag":4781,"gramming":4782,"tives":4783,"Permission":4784,"Range":4785,"ĠQu":4786,"Ġdistribution":4787,"Ġwin":4788,"Unless":4789,"Ġassign":4790,"Match":4791,"ARY":4792,"Layout":4793,"Ġlogin":4794,"Target":4795,"ĠDOCUMENT":4796,"scal":4797,"ĠSEE":4798,"HOST":4799,"dn":4800,"Ġlayer":4801,"58":4802,"ĠDONE":4803,"alchemy":4804,"CTION":4805,"ĠMAY":4806,"feed":4807,"wiki":4808,"Ġrequires":4809,"Ġmaster":4810,"53":4811,"city":4812,"ENERATED":4813,"setdefault":4814,"vmware":4815,"_%":4816,"stf":4817,"FIX":4818,"Ġiprot":4819,"tokens":4820,"bal":4821,"Ġtraceback":4822,"yaml":4823,"AME":4824,"gpy":4825,"Proxy":4826,"Bar":4827,"WR":4828,"SP":4829,"PositiveIntegerField":4830,"creen":4831,"Application":4832,"AF":4833,"Ġoperator":4834,"ĠEXAMPLES":4835,"ustomer":4836,"requests":4837,"Ġreset":4838,"Ġside":4839,"Ġequal":4840,"Ġmodify":4841,"roll":4842,"Ġgot":4843,"Ġattrib":4844,"Ġ[[":4845,"Ġsuffix":4846,"Ġswgpy":4847,"hello":4848,"Ġbad":4849,")).":4850,"requires":4851,"isinstance":4852,"configuration":4853,"ĠRedistribu":4854,"Ġdimension":4855,"fixed":4856,"Ġput":4857,"127":4858,"Ġbyte":4859,"ĠWindow":4860,"qs":4861,"sequence":4862,"ĠLOST":4863,"ĠPLEASE":4864,"Ġupload":4865,"Ġspecial":4866,"ĠDOCUMENTATION":4867,"mox":4868,"ĠError":4869,".)":4870,"ĠMo":4871,"ĠONLINE":4872,"peed":4873,"mbed":4874,"Max":4875,"Header":4876,"OGENERATED":4877,"Ġmost":4878,"ĠAUTOGENERATED":4879,"LETE":4880,"blem":4881,"ROPER":4882,"cii":4883,"stfName":4884,"Ġeven":4885,"\":\"":4886,"ĠIMPROPER":4887,"Param":4888,"agicMock":4889,"ĠIMPROPERLY":4890,"crement":4891,"ĠST":4892,"handlers":4893,"Ġexpi":4894,"Ġmany":4895,"tio":4896,"GES":4897,"ones":4898,"appen":4899,"apply":4900,"ĠDis":4901,"cision":4902,"orary":4903,"Sign":4904,"unct":4905,"Store":4906,"Float":4907,"Ġprovider":4908,"rong":4909,"Ġinternal":4910,"FIG":4911,"92":4912,"Ġflask":4913,"Ġshell":4914,"Ġchoices":4915,"=\\\"":4916,"Ġ//":4917,"vp":4918,"ToManyField":4919,"Ġuntil":4920,"Ġaccept":4921,"revision":4922,"drop":4923,"GN":4924,"Ġetc":4925,"span":4926,"ĠRuntimeError":4927,"Ġraised":4928,"ĠHttpResponse":4929,"Ġpe":4930,"Warning":4931,"fixture":4932,"ier":4933,"Ġ2014":4934,"Ġidentifier":4935,"sid":4936,"73":4937,"Ax":4938,"xtra":4939,"Ġattemp":4940,"ftp":4941,"external":4942,"]+":4943,"days":4944,"ongo":4945,"035":4946,"Ġpackages":4947,"Serializer":4948,"Ġreceived":4949,"Ġbot":4950,"Ġscale":4951,"Ġsuite":4952,"effect":4953,"MAP":4954,"cv":4955,"uest":4956,"isten":4957,"abi":4958,"Storage":4959,"Ġlisten":4960,"Ġmat":4961,"utc":4962,"identity":4963,"Flag":4964,"ressed":4965,"ART":4966,"two":4967,"]])":4968,"enu":4969,"Cre":4970,"edirect":4971,"ĠGoogle":4972,"Ġhead":4973,"arDown":4974,"Ġvm":4975,"shell":4976,"together":4977,"Ġsen":4978,"zen":4979,"You":4980,"Ġmemory":4981,"ĠĠĠĠĠĠĠĠĠĠĠĠĠĠĠĠĠĠĠĠĠĠĠĠĠĠĠĠĠĠĠĠĠĠĠĠĠĠĠĠĠĠĠĠ":4982,"Min":4983,"Ġnote":4984,"nb":4985,"patterns":4986,"Ġ{},":4987,"getattr":4988,"dicate":4989,"Ġprogram":4990,"summary":4991,"umeric":4992,"ough":4993,"lap":4994,"choice":4995,"Ġalias":4996,"depth":4997,"eff":4998,"flat":4999,"94":5000,"ĠTra":5001,"running":5002,"LD":5003,"cesses":5004,"support":5005,"cpu":5006,"NR":5007,"nan":5008,"Def":5009,"ane":5010,"Ġinstalled":5011,"Wri":5012,"Ġarch":5013,"visit":5014,"Ġwere":5015,"STRING":5016,"GS":5017,"norm":5018,"itter":5019,"components":5020,"Ġoperations":5021,"ness":5022,"Ġnova":5023,"('.":5024,"methods":5025,"Ġbutton":5026,"Ġ2015":5027,"rece":5028,"ĠOUT":5029,"Ġignored":5030,"cos":5031,"Ġdeleted":5032,"lb":5033,"requen":5034,"failure":5035,"tile":5036,"arm":5037,"OLDER":5038,"Ġtoo":5039,"digest":5040,"Ġinputs":5041,"Ġensure":5042,"Parse":5043,"ĠSystem":5044,"]):":5045,"mpy":5046,"Ġpytest":5047,"Ġincluding":5048,"LED":5049,"ota":5050,":`~":5051,"Device":5052,"Ġlet":5053,"NESS":5054,"Cannot":5055,"hq":5056,"ony":5057,"Ġthreading":5058,"switch":5059,")(":5060,"Ġconstants":5061,"ĠFIT":5062,"Ġoverride":5063,"MO":5064,"Ġentries":5065,"generator":5066,"Multi":5067,"Ġtuples":5068,"Ġtempfile":5069,"Ġdownload":5070,"Ġtimes":5071,"power":5072,"ĠForm":5073,"teration":5074,"Ġonce":5075,"SYS":5076,"Ġren":5077,"__\":":5078,"unknown":5079,",-":5080,"angle":5081,"mq":5082,"Li":5083,"ManyToManyField":5084,"FLAG":5085,"ternet":5086,"Ġdeploy":5087,"worker":5088,"ĠCOPYRIGHT":5089,"ĠInvalid":5090,"1000":5091,"integer":5092,"ars":5093,"101":5094,"activ":5095,"Ġio":5096,"Ġrece":5097,"inline":5098,"Ġautomatic":5099,"reason":5100,"ULAR":5101,"unic":5102,"\"'":5103,"ĠField":5104,"52":5105,"Programming":5106,"Bad":5107,"ernel":5108,"82":5109,"Ġ\"{":5110,"ERCH":5111,"Ġpkg":5112,"Component":5113,"Ġgoogle":5114,"chron":5115,"ERCHANT":5116,"ope":5117,"ffici":5118,"roid":5119,"ĠLICENSE":5120,"found":5121,"Ġshutil":5122,"Ġreactor":5123,"Ġrelation":5124,"Ġ?":5125,"DATE":5126,"Ġzero":5127,"lots":5128,"Ġstored":5129,"enable":5130,"cookie":5131,"HERE":5132,"SU":5133,"Ġsq":5134,"lazy":5135,"dst":5136,"Exist":5137,"(\"\\":5138,"Ġdocuments":5139,"Ġexclude":5140,"Ġfetch":5141,"Ġfi":5142,"Ġrel":5143,"Deferred":5144,",),":5145,".\",":5146,"Ġ--------------------------------":5147,"Ġmeans":5148,"Ġoccur":5149,"POSE":5150,"scheme":5151,"lint":5152,"199":5153,"Ġqueryset":5154,")],":5155,"ites":5156,"alth":5157,"Ġstat":5158,"Ġboolean":5159,"}/":5160,"xtures":5161,"WORD":5162,"ROOT":5163,"library":5164,"eek":5165,"road":5166,"bg":5167,"iscsi":5168,"Layer":5169,"ĠXML":5170,"Ġfig":5171,"Ġcomb":5172,"Ġdat":5173,"ison":5174,"runner":5175,"Ġdst":5176,"Ġcp":5177,"cores":5178,"Schema":5179,"mu":5180,"ĠMERCHANT":5181,"ocker":5182,"arr":5183,"ftime":5184,"dl":5185,"cessary":5186,"IR":5187,"SELECT":5188,"ĠClient":5189,"Ġthose":5190,"vl":5191,"details":5192,"dependent":5193,"ka":5194,"VM":5195,"PRESS":5196,"Ġ14":5197,"CONF":5198,"ullable":5199,"stone":5200,"wrapper":5201,"------":5202,"63":5203,"perly":5204,"gi":5205,"Ġcases":5206,"amo":5207,"gpu":5208,"Ġseq":5209,"ateri":5210,"Ġenable":5211,"Ġappend":5212,"named":5213,"Account":5214,"wsgi":5215,"reduce":5216,"Select":5217,"Ġfailure":5218,"='',":5219,"Ġtake":5220,"===":5221,"INGS":5222,"Ġcharacters":5223,"distribu":5224,"Ġ-------":5225,"ank":5226,"Ġ13":5227,"ĠTrans":5228,"workflow":5229,"pto":5230,"Doc":5231,"rn":5232,"NC":5233,"ĠEvent":5234,"Ġown":5235,"acy":5236,"BE":5237,"ĠBSD":5238,"ĠNumber":5239,"accept":5240,"team":5241,"Ġtab":5242,"Ġ[('":5243,"ĠSpec":5244,"ips":5245,"targets":5246,"inary":5247,"uation":5248,"writer":5249,"BR":5250,"ctive":5251,"internal":5252,"constants":5253,"draw":5254,"stub":5255,"ĠVer":5256,"dns":5257,"Ġviews":5258,"parameter":5259,"ĠPUR":5260,"assign":5261,"rev":5262,"BASE":5263,"blob":5264,"ĠObject":5265,"Ġdatastore":5266,"ef":5267,"ĠReg":5268,"sorted":5269,"JSON":5270,"Ġsupp":5271,"Ġflow":5272,"Ġdirectly":5273,"echo":5274,"atible":5275,"reader":5276,"correct":5277,"Args":5278,"Ġwritten":5279,"velopment":5280,"sistent":5281,"Ġvisit":5282,"icon":5283,"utdown":5284,"flavor":5285,"lang":5286,"ln":5287,"lue":5288,")\\":5289,"poly":5290,"oid":5291,"moves":5292,"ffff":5293,"CF":5294,"ĠFITNESS":5295,"ĠĠĠĠĠĠĠĠĠĠĠĠĠĠĠĠĊ":5296,"Ġderi":5297,"ĠPURPOSE":5298,"delay":5299,"high":5300,"Ġstill":5301,"ascii":5302,"Ġenviron":5303,"TICULAR":5304,"ĠĠĠĠĠĠĠĠĠĠĠĠĠĠĠĠĠĠĠĠĠĠĠĠĠĠĠĠĠĠĠĠĠĠĠĠĠĠĠĠĠĠĠĠĠ":5305,"assertNot":5306,"changes":5307,"blue":5308,"Policy":5309,"ĠPARTICULAR":5310,"rup":5311,"priate":5312,"panel":5313,"AX":5314,"setUp":5315,"'d":5316,"HEAD":5317,"Settings":5318,"Ġgenerator":5319,"ĠUpdate":5320,"(\"\"\"":5321,"Ġregex":5322,"expand":5323,"Handle":5324,"Ġcurrently":5325,"derer":5326,"ollow":5327,"ĠĠĠĠĠĠĠĠĠĠĠĠĠĠĠĠĠĠĠĠĠĠĠĠĠĠĠĠĠĠĠĠĠĠĠĠĠĠĠĠĠĠĠĠĠĠĠ":5328,"Ġdecode":5329,"ĠAS":5330,"Profile":5331,"Ġ1000":5332,"MB":5333,"Ġloc":5334,"ĠNe":5335,"EG":5336,"Parameter":5337,"comments":5338,"gregate":5339,"schedule":5340,"Ġmodifi":5341,"console":5342,"Comm":5343,"using":5344,"CONT":5345,"period":5346,"gu":5347,"Style":5348,"dig":5349,"defer":5350,"Ġcopies":5351,"lent":5352,"gative":5353,"machine":5354,"dep":5355,"Ġfeatures":5356,"wb":5357,"ĠSphinx":5358,"Ġchain":5359,"signature":5360,"Ġwell":5361,"hour":5362,"Ġindices":5363,"Wrapper":5364,"Ġsubclass":5365,"DIS":5366,"Does":5367,"outer":5368,"Ġmaximum":5369,"Ġmanage":5370,"Pool":5371,"Email":5372,"Ġbehavi":5373,"builtin":5374,"TS":5375,"Ġduring":5376,"ĠSimple":5377,"LOW":5378,"versions":5379,"lert":5380,"okies":5381,"final":5382,"Ġsel":5383,"=-":5384,"ond":5385,"Controller":5386,"Ġrules":5387,"Location":5388,"2015":5389,"Ġstructure":5390,"Ġlayout":5391,"Ġ_,":5392,"Ġstd":5393,"Ne":5394,"PH":5395,"Ġinsert":5396,"ĠTemplate":5397,"mc":5398,"Ġmatching":5399,"ENTI":5400,"Ġaddr":5401,"Ġworks":5402,"Can":5403,"double":5404,"Reference":5405,"Ġagent":5406,"expression":5407,"')]":5408,"pytest":5409,"gories":5410,"cover":5411,"Ġresources":5412,"Ġfeed":5413,"transaction":5414,"begin":5415,"Ġns":5416,"Ġfd":5417,"contains":5418,"Failure":5419,"CONFIG":5420,"Ġdestination":5421,"rr":5422,"lexible":5423,"original":5424,"Ġrequested":5425,"extract":5426,"Post":5427,"cut":5428,"mediate":5429,"Ġdivision":5430,"ube":5431,"Ġhelper":5432,"SV":5433,"enchmark":5434,"nova":5435,"baz":5436,"ĠEVENT":5437,"ĠMERCHANTABILITY":5438,"Ġterms":5439,"Ġnumbers":5440,"fficient":5441,"Ġexternal":5442,"Ġsuccessful":5443,"tect":5444,"boo":5445,"ĠOther":5446,"strap":5447,"dash":5448,"Ġmd":5449,"Ġextensions":5450,"Record":5451,"qa":5452,"getitem":5453,"Ġappropriate":5454,"Ġprovide":5455,"Ġpickle":5456,"GER":5457,"ral":5458,"watch":5459,"Ġ60":5460,"Ġpixel":5461,"notation":5462,"rozen":5463,"Ġdep":5464,"pipeline":5465,"dx":5466,"BL":5467,"Ġsets":5468,"siz":5469,"atom":5470,"formed":5471,"MI":5472,"ĠHe":5473,"Ġ------------------------------------------------------------------------":5474,"figs":5475,"arison":5476,"vg":5477,"ilar":5478,"Ġ<<":5479,"sired":5480,"Ġleast":5481,"rift":5482,"Ġcontrib":5483,"Ġ[-":5484,"strings":5485,"Ġrecur":5486,"Types":5487,"LOCK":5488,"sqrt":5489,"Ġsecurity":5490,"Ġversions":5491,"BY":5492,"93":5493,"environment":5494,"Ġvector":5495,"ipv":5496,"Access":5497,"ynchron":5498,"Ġknow":5499,"62":5500,"inv":5501,"Ġrepository":5502,"_):":5503,"Ġtransform":5504,"FS":5505,"firm":5506,"ĠLoc":5507,"NING":5508,"ards":5509,"Ġbelow":5510,"ring":5511,"ulk":5512,"Ġest":5513,"Ġbest":5514,"dummy":5515,"ĠElement":5516,"Ġsym":5517,"Cal":5518,"Redirect":5519,")')":5520,"Interface":5521,"Ġenabled":5522,"[:]":5523,"Ġ2013":5524,"subprocess":5525,"Ġprop":5526,"Off":5527,"subscription":5528,"REQUEST":5529,"cce":5530,"Ġbasic":5531,"Ġ300":5532,"tb":5533,"Ġmight":5534,"operator":5535,"Ġsignature":5536,"Collection":5537,"Ġqs":5538,"ĠDAMAGES":5539,"ĠTestCase":5540,"translation":5541,"PIPE":5542,"Ġinte":5543,"Ġsympy":5544,"\"/":5545,"Ġtemplates":5546,"Work":5547,"ighb":5548,"KN":5549,"raft":5550,"scen":5551,"Ġcredentials":5552,"Ġpipeline":5553,"peat":5554,"failed":5555,"Simple":5556,"Ġda":5557,"setting":5558,"VIDED":5559,"crypt":5560,"Panel":5561,"Ġdraw":5562,"cene":5563,"refresh":5564,"rays":5565,"ava":5566,"Ġrepresenting":5567,"lations":5568,"YY":5569,"lev":5570,"Ġfname":5571,"almost":5572,"etc":5573,"Ġaddresses":5574,"fra":5575,"Ġcharacter":5576,"Ġactions":5577,"Ġpd":5578,"Ġyet":5579,"ORE":5580,"Ġinterval":5581,"factor":5582,"uate":5583,"when":5584,"operation":5585,"CD":5586,"Ali":5587,"}',":5588,"Ġtasks":5589,"+'":5590,"ĠWindows":5591,"Ġtermin":5592,"contact":5593,"Ġbuiltin":5594,"Ġoptim":5595,"Metadata":5596,"ĠINCLUDING":5597,"dius":5598,"alysis":5599,",\\":5600,"foreign":5601,"Ġengine":5602,"Ġdelta":5603,"COMM":5604,"Ġextract":5605,"Ġts":5606,"Middleware":5607,"VALID":5608,"condition":5609,"override":5610,"Ġok":5611,"Ġexact":5612,"Author":5613,"Ġdid":5614,"51":5615,"SR":5616,"Ġfit":5617,"Ġbox":5618,"Ġ102":5619,"ĠHOLDER":5620,"pad":5621,":\"":5622,"Ġ50":5623,"tn":5624,"CB":5625,"ev":5626,"rive":5627,"ools":5628,"500":5629,"iso":5630,"ĠPre":5631,"Ġattach":5632,"Ġraises":5633,"Ġcorresponding":5634,"configure":5635,"closed":5636,"player":5637,"rica":5638,"Ġassume":5639,"Ġ')":5640,"freq":5641,"2014":5642,"elem":5643,"backends":5644,"lendar":5645,"Ġconstraint":5646,"ducer":5647,"Ġrepresentation":5648,"consumer":5649,"oll":5650,"Exit":5651,"ges":5652,"#------------------------------------------------------------------------":5653,"ua":5654,"ĠPROVIDED":5655,"retry":5656,"locale":5657,"ĠAuthor":5658,"Ġlower":5659,"mbols":5660,"Ġtables":5661,"{{":5662,"}'":5663,"ISING":5664,"andidate":5665,"complex":5666,"Ġsk":5667,"ysql":5668,"claime":5669,"AV":5670,"ĠOptions":5671,"ons":5672,"Ġpatterns":5673,"ĠClo":5674,"ĠXXX":5675,"ĠIOError":5676,">\"":5677,"ĠDate":5678,"Ġdefinition":5679,"ĠFake":5680,"Script":5681,"Ġhook":5682,"Ġautomatically":5683,"Only":5684,"Sup":5685,"Ġuseful":5686,"Hash":5687,"dp":5688,"uplicate":5689,"Password":5690,"DIRECT":5691,"Builder":5692,"Container":5693,"/$',":5694,"Ġexplicit":5695,"Description":5696,"81":5697,"ace":5698,"ĠSHALL":5699,"ĠWHE":5700,"learn":5701,"*.":5702,"ĠBo":5703,"wo":5704,"Ġprivate":5705,"Migration":5706,"inja":5707,"Rule":5708,"Ġprev":5709,"voke":5710,"ĠARISING":5711,"ii":5712,"cost":5713,"Ġappe":5714,"nx":5715,"metrical":5716,"ublic":5717,"Names":5718,"Ġnecessary":5719,"duration":5720,"ĠDEFAULT":5721,"dh":5722,"Ġdependencies":5723,"Row":5724,"Desc":5725,"Ġlists":5726,"sim":5727,"ĠLIABLE":5728,"Loader":5729,"amount":5730,"Extension":5731,"Ġflat":5732,"DoesNot":5733,"break":5734,"Flexible":5735,"Ġseries":5736,"Ġplan":5737,"statement":5738,":])":5739,"Ġinspect":5740,"Ġsock":5741,"ading":5742,"AW":5743,"StringIO":5744,"cording":5745,"grade":5746,"Ġcookie":5747,"ĠWHETHER":5748,"Ġfixed":5749,"Ġcached":5750,"connected":5751,"ĠMessage":5752,"metrics":5753,"ĠĠĠĠĠĠĠĠĠĠĠĠĠĠĠĠĠĠĠĠĠĠĠĠĠĠĠĠĠĠĠĠĠĠĠĠĠĠĠĠĠĠĠĠĠĠ":5754,"Configuration":5755,"Menu":5756,"align":5757,"expect":5758,"Ġbuilt":5759,"Ġ).":5760,"IE":5761,"Ġrouter":5762,"vely":5763,"ĠCONTRACT":5764,"ited":5765,":-":5766,"FORMAT":5767,"Ġscal":5768,"herit":5769,"Ġworker":5770,"roles":5771,"middleware":5772,"utors":5773,"Ġpretty":5774,"Ġscore":5775,"ouse":5776,"Ġiterable":5777,"Ġfactor":5778,"Ġlater":5779,"FlexibleForeignKey":5780,"Ġoutfile":5781,"41":5782,"dm":5783,"ĠAUTH":5784,"ĠCom":5785,"Ġsomething":5786,"members":5787,"ĠContent":5788,"Ġamount":5789,"HTML":5790,"vc":5791,"sitions":5792,"izers":5793,"ĠResponse":5794,"Ġus":5795,"vector":5796,"tence":5797,"constraint":5798,"ATTR":5799,"href":5800,"Ġcontroller":5801,"Ġlineno":5802,"queryset":5803,"ulation":5804,"ification":5805,"Ġfill":5806,"maining":5807,"addCallback":5808,"big":5809,"{%":5810,"ĠtearDown":5811,"ever":5812,"_:":5813,"cwd":5814,"bits":5815,"person":5816,"gre":5817,"plain":5818,"=\"\"":5819,"('_":5820,"Ġcoordin":5821,"dic":5822,"ĠServer":5823,"sian":5824,"outputs":5825,"ru":5826,"Listen":5827,"relative":5828,"mak":5829,"DD":5830,"WISE":5831,"deredDict":5832,"allowed":5833,"ĠQt":5834,"Files":5835,"Ġpartic":5836,"Member":5837,"ĠEXPRESS":5838,"([\"":5839,"IZ":5840,"processor":5841,"visor":5842,"Ġsafe":5843,"ĠPermission":5844,"vance":5845,"mapper":5846,"Ġ\"_":5847,"tf":5848,"Ġterm":5849,"Ġcla":5850,"Ġpr":5851,"Ġalgorithm":5852,"requency":5853,"distance":5854,"ĠOut":5855,"xC":5856,"../":5857,"Ġenum":5858,"Ġrestri":5859,"supported":5860,"ĠThere":5861,"kit":5862,"DoesNotExist":5863,"ird":5864,"ixed":5865,"scan":5866,"Foo":5867,"Ġ42":5868,"absolute":5869,"gc":5870,"Cho":5871,"Order":5872,"SERVER":5873,"Ġcybox":5874,"counts":5875,"ups":5876,"Ġgrid":5877,"ĠRec":5878,"ialog":5879,"tl":5880,"authentic":5881,"'%":5882,"Ġavoid":5883,"dy":5884,"Ġids":5885,"Ġtakes":5886,"lict":5887,"CM":5888,"PES":5889,"Ġday":5890,"Ġactually":5891,"Ġworld":5892,"soft":5893,"////////":5894,"Ġsources":5895,"Bounded":5896,"amma":5897,"inger":5898,"repository":5899,"today":5900,"Ġdefine":5901,"iti":5902,"validation":5903,"review":5904,"hd":5905,"Ġtb":5906,"([[":5907,"]+)":5908,"Ġtopic":5909,"srv":5910,"ara":5911,"________":5912,"Ġmedia":5913,"__['":5914,"Ġ24":5915,"bounded":5916,"allback":5917,"logy":5918,"Tool":5919,"Ġmanual":5920,"Ġspa":5921,"Ġbits":5922,"roadcast":5923,"irc":5924,"COMP":5925,"ĠInitial":5926,"Ġsymbol":5927,"digits":5928,"sender":5929,"ĠOTHERWISE":5930,"Sm":5931,"recv":5932,"tit":5933,"iform":5934,"progress":5935,"yper":5936,"lies":5937,"Go":5938,"ĠTORT":5939,"mas":5940,"game":5941,"Ġisn":5942,"FIL":5943,"ek":5944,"claimer":5945,"sin":5946,"UND":5947,"orizont":5948,"Ġmonth":5949,"bc":5950,"Driver":5951,"tran":5952,"Ġlon":5953,"Ġdecorator":5954,"scripts":5955,"Suite":5956,"Sw":5957,"Ġnullable":5958,"Ġround":5959,"servation":5960,"71":5961,"cid":5962,"VICE":5963,":',":5964,"ĠQuery":5965,"ario":5966,"Ġpl":5967,"tc":5968,"epcopy":5969,"Ġyear":5970,"Ġtran":5971,"assifier":5972,"edges":5973,"functions":5974,"192":5975,"Ġprovides":5976,"Write":5977,"inder":5978,"Ġwords":5979,"monitor":5980,"networks":5981,"Ġslug":5982,"('<":5983,"ula":5984,"Decimal":5985,"ĠResource":5986,"ĠAc":5987,"sources":5988,"generic":5989,"ornado":5990,"utation":5991,"ĠThese":5992,"Ġmove":5993,"400":5994,"Ġ\"(('":5995,"specific":5996,"itle":5997,"segment":5998,"Big":5999,"Ġvalidation":6000,"BB":6001,"Url":6002,"Ġloaded":6003,"61":6004,"NET":6005,"${":6006,"Ġast":6007,"')[":6008,"ĠVi":6009,"\"})":6010,"Ġzone":6011,"Ġpylint":6012,"Ġdisclaimer":6013,"Ġsegment":6014,"BACK":6015,"Ġlow":6016,"urllib":6017,"screen":6018,"Unknown":6019,"ĠOnly":6020,"NN":6021,"Ġboto":6022,"'),)\",":6023,"symmetrical":6024,"beta":6025,"atibility":6026,"tick":6027,"INCLUDING":6028,"nail":6029,"Ġfuture":6030,"failUnless":6031,"Over":6032,"ye":6033,"ĠRedistributions":6034,"Ġperiod":6035,"LIST":6036,"IBUTORS":6037,"',),":6038,"wk":6039,"Ġhref":6040,"Ġdrop":6041,"many":6042,"Ġcalling":6043,"Ġcat":6044,"unpack":6045,"rea":6046,"Ġreview":6047,"processing":6048,"uman":6049,"Ġpid":6050,"Font":6051,"Ġmetavar":6052,"ĠDummy":6053,"xs":6054,"hand":6055,"RED":6056,"Values":6057,"Ġdeprecated":6058,"oneNumber":6059,"Api":6060,"DELETE":6061,"xel":6062,"Ġ64":6063,"('__":6064,"Ġproto":6065,"Ġbasestring":6066,"Ġ117":6067,"Ġmime":6068,"Ġeditor":6069,"Could":6070,"Lock":6071,"Ġmetric":6072,"PP":6073,"LOC":6074,"Ġagainst":6075,"resolver":6076,"jor":6077,"iling":6078,"izes":6079,"tract":6080,"Ġmodified":6081,"ĠRead":6082,"Ġpairs":6083,"KS":6084,"Ġoutputs":6085,"Ġallows":6086,"lyph":6087,"visible":6088,"price":6089,"La":6090,"Ġdump":6091,"ĠMan":6092,"Ġlin":6093,"asy":6094,"fast":6095,"tected":6096,"editor":6097,"async":6098,"ĠCONTRIBUTORS":6099,"alg":6100,"Domain":6101,"cred":6102,"andas":6103,"ĠTests":6104,"notification":6105,"aut":6106,"Ġscheme":6107,"ctl":6108,"copyright":6109,"Ġorigin":6110,"INST":6111,"Initial":6112,"nc":6113,"lask":6114,"fun":6115,"Ġcondition":6116,"rst":6117,"Ġdistance":6118,"cleaned":6119,"Ġ25":6120,"Ġdev":6121,"EP":6122,"UST":6123,"MPLATE":6124,",\"":6125,"URI":6126,"IST":6127,"cancel":6128,"ĠGeneral":6129,"GRO":6130,"organization":6131,"steps":6132,"ĠLa":6133,"Sequence":6134,"Ġ(-":6135,"2013":6136,"Ġcomponents":6137,"Position":6138,"Mon":6139,"Volume":6140,"Helper":6141,"archive":6142,"[^":6143,"reply":6144,"WAR":6145,"channels":6146,"Ġsubst":6147,"Attr":6148,"Ob":6149,"Ġelem":6150,"ĠSta":6151,"allclose":6152,"border":6153,"Ġshown":6154,"orizontal":6155,"Ġurlparse":6156,"fb":6157,"Ġweight":6158,"seek":6159,"Ġwarning":6160,"Transport":6161,"kel":6162,"ĠTask":6163,"MES":6164,"Ġexecution":6165,"origin":6166,"Ġtx":6167,"]).":6168,"Ġroute":6169,"abstract":6170,"Ġdot":6171,"projects":6172,"567":6173,"RH":6174,"}\\":6175,"Edit":6176,"ĠModule":6177,"TF":6178,"mor":6179,"retri":6180,"places":6181,"CLASS":6182,"Ġdescri":6183,"Num":6184,"Encoder":6185,"Binary":6186,"Ġtenant":6187,"igrate":6188,"ERS":6189,"Owner":6190,"subclass":6191,"Writer":6192,"Plan":6193,"xc":6194,"bundle":6195,"CESS":6196,"multiple":6197,"ĠWHERE":6198,"ĠTable":6199,"Runner":6200,"Ġsnapshot":6201,"rence":6202,"Ġdirectories":6203,"management":6204,"tifact":6205,"colors":6206,"variables":6207,"FE":6208,"Ġsqlalchemy":6209,"quiva":6210,"Ġnorm":6211,"Ġsender":6212,"Ġll":6213,"Ġdispatch":6214,"records":6215,"Attributes":6216,"lists":6217,"Fi":6218,"partial":6219,"ĠSy":6220,"vr":6221,"AndReturn":6222,"Ġhostname":6223,"\"\\":6224,"Dialog":6225,"Ġargparse":6226,"FIEL":6227,"Backend":6228,"Web":6229,"AAAAAAAA":6230,"Ġswitch":6231,"runtime":6232,"/')":6233,"Ġrecords":6234,"warnings":6235,"ITS":6236,"Received":6237,"Ġdirection":6238,"Ġhappen":6239,"Ġsubnet":6240,"(\"-":6241,"Ġpair":6242,"Import":6243,"Ġnotification":6244,"vec":6245,"Ġauthentication":6246,"(?:":6247,"Package":6248,"urity":6249,"CY":6250,"ĠArgument":6251,"Ġssl":6252,"Width":6253,"ganization":6254,"LOAD":6255,"isfile":6256,"Ġitself":6257,"WIT":6258,"Local":6259,"Channel":6260,"91":6261,"II":6262,"ĠReserved":6263,"ĠBuild":6264,"resolve":6265,"pairs":6266,"NU":6267,"UTE":6268,"Ġtyp":6269,"Ġrevision":6270,"credentials":6271,"Ġmail":6272,"clar":6273,"(':":6274,"dimension":6275,"#######":6276,"otype":6277,"Ġflavor":6278,"ĠNOTE":6279,"ICT":6280,"Ġproc":6281,"EW":6282,"translate":6283,"(',":6284,"capa":6285,"executable":6286,"Results":6287,"Stats":6288,"Ġscan":6289,"amera":6290,"ability":6291,"parsed":6292,"Ġmade":6293,"Ġcounter":6294,"Ġsaved":6295,"Ġcert":6296,"grad":6297,"CODE":6298,"UNT":6299,"deli":6300,"ERY":6301,"MY":6302,"Ġkernel":6303,"Ġknown":6304,"Role":6305,"Ġimplemented":6306,"pm":6307,"Ġprogress":6308,">`":6309,"TP":6310,"Ġexport":6311,"brl":6312,"priority":6313,"DQ":6314,"umbnail":6315,"ĠPO":6316,"asset":6317,"Ġrot":6318,"ategy":6319,"plotlib":6320,"cmp":6321,"keyword":6322,"logs":6323,"leting":6324,"Ġlocale":6325,"Ġ2012":6326,"Ġorm":6327,"green":6328,"chor":6329,"inel":6330,"Ġdeal":6331,"astype":6332,"Ġbackground":6333,"ĠFound":6334,"struction":6335,"MAIN":6336,"ĠRemove":6337,"=\"%":6338,"Ġicon":6339,"timer":6340,"separ":6341,"Inst":6342,"inner":6343,"ater":6344,"ĠĠĠĠĠĠĠĠĠĠĠĠĠĠĠĠĠĠĠĠĠĠĠĠĠĠĠĠĠĠĠĠĠĠĠĠĠĠĠĠĠĠĠĠĠĠĠĠĠ":6345,"TC":6346,"PU":6347,"hidden":6348,"decimal":6349,"Ġmem":6350,"Ġretry":6351,"yy":6352,"Temp":6353,"tester":6354,"Directory":6355,"DAT":6356,"ridge":6357,"hat":6358,"pdf":6359,"nect":6360,"Database":6361,"wall":6362,"SHA":6363,"teri":6364,"aging":6365,"codes":6366,"ESC":6367,"ai":6368,"pet":6369,"notify":6370,"Del":6371,"olved":6372,"ĠService":6373,"gle":6374,"riteri":6375,"CHAR":6376,"Ġoauth":6377,"Provider":6378,"Begin":6379,"prepare":6380,"Stop":6381,"Ġtargets":6382,"arange":6383,"!!":6384,"/\"":6385,"WW":6386,"Ġmapper":6387,"compat":6388,"Ġ''.":6389,"onical":6390,"Ġbehavior":6391,"cn":6392,"oked":6393,"Agent":6394,"sli":6395,"mous":6396,"gres":6397,"Ġ255":6398,"otes":6399,"teractive":6400,"Ġtz":6401,"Ġdig":6402,"bosity":6403,"Timeout":6404,"rd":6405,"units":6406,"Unit":6407,"ldap":6408,"/{":6409,"chan":6410,"reshape":6411,"IGN":6412,"Ġchart":6413,"reater":6414,"ZZ":6415,"sparse":6416,"Ġcs":6417,"appengine":6418,"seg":6419,"ced":6420,"shift":6421,"ĠProtocol":6422,"stmt":6423,"getvalue":6424,"1024":6425,"more":6426,"cipy":6427,"ĠHOLDERS":6428,"Ġplay":6429,"ĠExamples":6430,"Ġpush":6431,"ĉĉĉĉĉ":6432,"XY":6433,"001":6434,"timezone":6435,"Regex":6436,"NG":6437,"brary":6438,"Ġvirt":6439,"ENCE":6440,"Ame":6441,"ĠRights":6442,"family":6443,"mg":6444,"rency":6445,"ateway":6446,"refs":6447,"bum":6448,"redis":6449,"Ġconnections":6450,"ĠInteger":6451,"isdir":6452,"Ġalign":6453,"*(":6454,"specs":6455,"Ġdecimal":6456,"Ġclosed":6457,"ivar":6458,"stdin":6459,"Pi":6460,"ĠInstance":6461,"Uti":6462,"Ġindicate":6463,"bd":6464,"Ġ'\"":6465,"ĠTType":6466,"etri":6467,"THOD":6468,"existing":6469,"ĠSec":6470,"internet":6471,"ives":6472,"sist":6473,"TYPES":6474,"matches":6475,"Ġes":6476,"Root":6477,"vidual":6478,"{\"":6479,"Ġ()":6480,"Ġcap":6481,"Nodes":6482,"Ġrunner":6483,"Formatter":6484,"prev":6485,"Ġaround":6486,"CUR":6487,"Ġpartial":6488,"Ġtimedelta":6489,"ĠBY":6490,"Ġ{}),":6491,"Ġworkflow":6492,"EY":6493,"mplements":6494,"blog":6495,"mul":6496,"threshold":6497,"enum":6498,"ĠNew":6499,"quivalent":6500,"latest":6501,"clone":6502,"ĠProject":6503,"yes":6504,"unctools":6505,"Pr":6506,"ANCE":6507,"ality":6508,"ĠWeb":6509,"locate":6510,"Ġsecret":6511,"Hello":6512,"world":6513,"emit":6514,"Ġscreen":6515,"bob":6516,"Ġtransport":6517,"assertIsInstance":6518,"ADDR":6519,"TEMPLATE":6520,"wt":6521,"bilities":6522,"########################":6523,"Wor":6524,"gp":6525,"neutron":6526,"Na":6527,"onymous":6528,"Ġhttplib":6529,"Last":6530,"Ġfact":6531,"Ġdepth":6532,"qt":6533,"Ġatom":6534,")+":6535,"2000":6536,"ĠCal":6537,"Ġloader":6538,"follow":6539,"Ġhistory":6540,"ĠĠĠĠĠĠĠĠĠĠĠĠĠĠĠĠĠĠĠĠĠĠĠĠĠĠĠĠĠĠĠĠĠĠĠĠĠĠĠĠĠĠĠĠĠĠĠĠ":6541,"Ġstarting":6542,"Ġencoded":6543,"Ġidentity":6544,"APP":6545,"threads":6546,"DU":6547,"tached":6548,"Ġstrip":6549,"Reader":6550,"Ġperm":6551,"recur":6552,"boolean":6553,"lected":6554,"Ġlocals":6555,"framework":6556,"bf":6557,"vn":6558,"(\"--":6559,"Ġboot":6560,"ĠRo":6561,"',)":6562,"PF":6563,"uess":6564,"Ġep":6565,"Usage":6566,"Ġtensor":6567,"attrib":6568,"BER":6569,"bra":6570,"scalar":6571,"Ip":6572,"ĠFunction":6573,"live":6574,"Ġfilenames":6575,"Socket":6576,"Deta":6577,"Ġpur":6578,"readline":6579,"Remove":6580,"initions":6581,"PREFIX":6582,"dence":6583,"Report":6584,"submit":6585,"Topic":6586,"Ta":6587,"Matrix":6588,"Ġneutron":6589,"destroy":6590,"It":6591,"dims":6592,"Ġconsole":6593,"fh":6594,"partition":6595,"ĠRaises":6596,"Allow":6597,"__(*":6598,"Ġglob":6599,"Ġauthentic":6600,"ĠOSError":6601,"pw":6602,"Ġdesired":6603,"Feed":6604,"mime":6605,"Constraint":6606,"Ġwrapped":6607,"Ġcreating":6608,"Ġqui":6609,"Ġnothing":6610,"ĠLoad":6611,"ĠExp":6612,"VS":6613,"RPC":6614,"Ġserialize":6615,"Ġfra":6616,"bottom":6617,"ĠThey":6618,"Parent":6619,"fr":6620,"/(?":6621,"allel":6622,"previous":6623,"America":6624,"props":6625,"rable":6626,"Ġregistered":6627,"strict":6628,"Display":6629,"fire":6630,"Ġdim":6631,"poll":6632,"[(":6633,"cum":6634,"nl":6635,"ECTION":6636,"destination":6637,"ĠOutput":6638,"Ġsimp":6639,"omial":6640,"Ġconsumer":6641,"Ġmarker":6642,"Ġyaml":6643,"Ġworking":6644,"ĠConnection":6645,"irt":6646,"/<":6647,"MQ":6648,"atype":6649,"Ġseen":6650,"Ġinner":6651,"pus":6652,"Ġiterator":6653,"ĠDecimal":6654,"exer":6655,"MAIL":6656,"Ġgood":6657,"Ġupdates":6658,"Ġwriter":6659,"ĠCustom":6660,"ĠURI":6661,"aj":6662,"Ġcv":6663,"symbol":6664,"gid":6665,"Ġprior":6666,"ells":6667,"alf":6668,"ically":6669,"based":6670,"impl":6671,"uz":6672,"ders":6673,"ĠMulti":6674,":\",":6675,"Ġdummy":6676,"Keys":6677,"openstack":6678,"inc":6679,"definition":6680,"floating":6681,"Ġblob":6682,"execution":6683,"EB":6684,"rator":6685,"chart":6686,"2012":6687,"VarInt":6688,"aff":6689,"exe":6690,"week":6691,"Ġ\"#":6692,"imate":6693,"IMA":6694,"Ġscipy":6695,"nsure":6696,"fixtures":6697,"DataCache":6698,"SUB":6699,"RY":6700,"antity":6701,"Ġ&&":6702,"cus":6703,"Ġ17":6704,"pred":6705,"Ġinside":6706,"processed":6707,"300":6708,"Ġchecks":6709,"contenttypes":6710,"IX":6711,"Ġfast":6712,"connections":6713,"ĠPost":6714,"Current":6715,"marker":6716,"optim":6717,"ensure":6718,"Ġur":6719,"Params":6720,"Fake":6721,"Ġsamples":6722,"Ġ1024":6723,"TL":6724,"ĠSome":6725,"kg":6726,"Ġ18":6727,"Operation":6728,"]'":6729,"Ġaff":6730,"Ġdouble":6731,"Ġalong":6732,"mysql":6733,"may":6734,"=_(\"":6735,"zA":6736,"elif":6737,"Entity":6738,"Ġcsv":6739,"traceback":6740,"Ġargv":6741,"ably":6742,"interfaces":6743,"area":6744,"Bind":6745,"Environment":6746,"jection":6747,"gui":6748,"Ġnested":6749,"ĠSSL":6750,"jk":6751,"Ġmachine":6752,"sem":6753,"ancer":6754,"ĠIs":6755,"Ġunits":6756,"ĠOrderedDict":6757,"ĠNetwork":6758,"Ġdetermine":6759,"ny":6760,"rupt":6761,"Ġ'+":6762,"Tab":6763,"Decode":6764,"Ġconstruct":6765,"sur":6766,"which":6767,"Ġscheduler":6768,"Ġsetuptools":6769,"PhoneNumber":6770,"darray":6771,"Ġgran":6772,"Ġunknown":6773,"strftime":6774,"Ġcloud":6775,"prog":6776,"Ġpriority":6777,")}":6778,"oring":6779,"arb":6780,"Ġregular":6781,"Ġitertools":6782,"Ġsouth":6783,"aller":6784,"rides":6785,"background":6786,"ĠGe":6787,"Ġcontact":6788,"NV":6789,"Ġselection":6790,"ĠInter":6791,"Main":6792,"ĠInt":6793,"illi":6794,"Ġdocs":6795,"ĠParse":6796,"ints":6797,"lave":6798,"gateway":6799,"Ġcomplex":6800,"prob":6801,"Ġstates":6802,"Imp":6803,"Ġcb":6804,"gon":6805,"crete":6806,"509":6807,"Ġclick":6808,"without":6809,"Ġds":6810,"Ġretrieve":6811,"CV":6812,"riend":6813,"Ġ}}":6814,"aws":6815,"manifest":6816,"ĠOne":6817,">=":6818,"ONG":6819,"blocks":6820,"CAC":6821,"Ġpacket":6822,"klass":6823,"ULE":6824,"Ġescape":6825,"quare":6826,"SED":6827,"aterials":6828,"limiter":6829,"Ġexpand":6830,"Comple":6831,"ĠOtherwise":6832,"OKEN":6833,"PA":6834,"ĠStatus":6835,"Generator":6836,"tection":6837,"Ġbundle":6838,"Ġserializer":6839,"Rep":6840,"DT":6841,"PK":6842,"direction":6843,"TAG":6844,"layers":6845,"lying":6846,"itespace":6847,"QQ":6848,"gree":6849,"Ġsupplied":6850,"listener":6851,"alloc":6852,"ĠItem":6853,"Ġ${":6854,"video":6855,"00000":6856,"ĠArray":6857,"Offset":6858,"uc":6859,"ĠAlso":6860,"WH":6861,"ital":6862,"Items":6863,"Ġ[{'":6864,"Ġweights":6865,"FLAGS":6866,"bp":6867,"')))":6868,"============":6869,"Created":6870,"================================================================":6871,"Ġsur":6872,"descriptor":6873,"Ġansw":6874,"linear":6875,"Ġms":6876,"xf":6877,"ĠTw":6878,"ĠPath":6879,"Ġlarge":6880,"Ġcalcul":6881,"Ġhandlers":6882,"ky":6883,"dele":6884,"smp":6885,"presen":6886,"geo":6887,"Cons":6888,"chars":6889,"Ġclone":6890,"backup":6891,"Properties":6892,"variance":6893,"iq":6894,"']]":6895,"ĠWS":6896,"Unable":6897,"ĠAD":6898,"addresses":6899,"'ll":6900,"lier":6901,"ĠCan":6902,"Ġsyntax":6903,"Ġborder":6904,"ĠSE":6905,"NAMES":6906,"Ġrelationship":6907,"Pick":6908,"STATE":6909,"compare":6910,"aaaa":6911,"YPE":6912,"URCE":6913,"ANY":6914,"Missing":6915,"Ġvarious":6916,"conver":6917,"Ġcreation":6918,"inity":6919,"Ġugettext":6920,"Ġsupports":6921,"pipe":6922,"NECTION":6923,"PASS":6924,"normalize":6925,"ndim":6926,"erge":6927,"ĠSER":6928,"ĠLO":6929,"seen":6930,">')":6931,"Ġresolve":6932,"measure":6933,"Ġquestion":6934,"Ġrendered":6935,"ĠOptional":6936,"ĠIndexError":6937,"national":6938,"Ġfails":6939,"sqlite":6940,"Ġcm":6941,"direc":6942,"vide":6943,"Ġrate":6944,"Custom":6945,"Tri":6946,"inct":6947,"Engine":6948,"Ġ2011":6949,"gm":6950,"Iter":6951,"Ġreferences":6952,"Ġconstructor":6953,"ĠCode":6954,"ĠProcess":6955,"Ġtrigger":6956,"Ġnose":6957,"Basic":6958,"Ġduration":6959,"duction":6960,"GROUP":6961,"ĠCur":6962,"Ġindividual":6963,"RR":6964,"ah":6965,"Ġemit":6966,"country":6967,"tm":6968,"Ġmar":6969,"Ġmetrics":6970,"reactor":6971,"Ġregistry":6972,"LIN":6973,"same":6974,"Ġcorrectly":6975,"Ġwatch":6976,"disable":6977,"ZW":6978,"notes":6979,"dom":6980,"Ġappen":6981,"Ġstuff":6982,"Mark":6983,"Cor":6984,"conv":6985,"pay":6986,"Red":6987,"Ġproblem":6988,"ysi":6989,"({\"":6990,"tices":6991,"ĠMatrix":6992,"ĠStop":6993,"DEX":6994,"Ġplugins":6995,"ĠLine":6996,"DEF":6997,"ions":6998,"inte":6999,"dependencies":7000,"Ġsublime":7001,"Ġask":7002,"Show":7003,"Ġrecent":7004,"Ġpoly":7005,"Ġdirec":7006,"ĠNULL":7007,"diffe":7008,"Ġcertificate":7009,"Cloud":7010,"Ġkeywords":7011,"dk":7012,"Ġcompare":7013,"special":7014,"lick":7015,"cepted":7016,"dirty":7017,"rypto":7018,"za":7019,"pickle":7020,"Listener":7021,"('.')":7022,"Ġgets":7023,"posed":7024,"Cer":7025,"ĠCO":7026,"Ġjobs":7027,"Ġhome":7028,"Ġmodification":7029,"actual":7030,"Ġsync":7031,"Extra":7032,"DJ":7033,"Expected":7034,"Ġcomments":7035,"DA":7036,"Ġfmt":7037,"Ġsec":7038,"oute":7039,"Ġservices":7040,"Ġparticular":7041,"Site":7042,"slots":7043,"ĠBe":7044,"atar":7045,"Ġprocessing":7046,"Flow":7047,"Ġparsing":7048,"........":7049,"lp":7050,"Ġcenter":7051,"Ġbottom":7052,"('/')":7053,"uda":7054,"lace":7055,"weights":7056,"PN":7057,"Ġnor":7058,"Ga":7059,"nested":7060,"vf":7061,"PTION":7062,"ĠĠĠĠĠĠĠĠĠĠĠĠĠĠĠĠĠĠĠĠĠĠĠĠĠĠĠĠĠĠĠĠĠĠĠĠĠĠĠĠĠĠĠĠĠĠĠĠĠĠĠ":7063,"Parameters":7064,"Enum":7065,"ĠHow":7066,")\")":7067,"urnal":7068,"Ġdelay":7069,"bile":7070,"resize":7071,"Ġtrace":7072,"pixel":7073,"virtual":7074,"hg":7075,"Ġcross":7076,"oted":7077,"rank":7078,"VAR":7079,"java":7080,"Ġordering":7081,"0001":7082,"Arg":7083,"Ġexecuted":7084,"serializer":7085,"Ġimports":7086,"OCK":7087,"Make":7088,"epoch":7089,"METHOD":7090,"Generate":7091,"trigger":7092,"FN":7093,"Ġ19":7094,"Memory":7095,"')])":7096,"Mapping":7097,"cnt":7098,"ashes":7099,"SW":7100,"AK":7101,"Axis":7102,"Ġfinished":7103,"UU":7104,"lr":7105,"packet":7106,"Loop":7107,"Ġgame":7108,"collect":7109,"234":7110,"ZX":7111,"ĠMagicMock":7112,"Ġcause":7113,"Ġattempt":7114,"PECI":7115,"ĠDATA":7116,"cleanup":7117,"DH":7118,"Ġstarted":7119,"ective":7120,"ARD":7121,"Ġnever":7122,"roker":7123,"ĠLi":7124,"__))":7125,"structure":7126,"Fn":7127,"Ġrec":7128,"Ġsc":7129,"Ġanything":7130,"forward":7131,"versed":7132,"ned":7133,"Ġpor":7134,"iler":7135,"mes":7136,"manual":7137,"TCP":7138,"ĠSup":7139,"vaila":7140,"ko":7141,"Ġarr":7142,"2011":7143,"Ġindic":7144,"covery":7145,"ĠOper":7146,"Cy":7147,"QR":7148,"coming":7149,"crypted":7150,"'m":7151,"ĠIPv":7152,"Lim":7153,"moo":7154,"quences":7155,"\"]:":7156,"Ġactiv":7157,"Sum":7158,"_{":7159,"]|":7160,"Lookup":7161,"compress":7162,"devices":7163,"globals":7164,"ĠMIT":7165,"amp":7166,"ĠEach":7167,"Ġless":7168,"atory":7169,"acquire":7170,"ĠWork":7171,"ĠUnicode":7172,"kill":7173,"documents":7174,"best":7175,"Ġinitialize":7176,"equals":7177,"Ġentities":7178,"Ġssh":7179,"Ġsummary":7180,"ĠDIS":7181,"Ġpad":7182,"Ġ'[":7183,"Ter":7184,"ĠAnd":7185,"frames":7186,"Choice":7187,"Lexer":7188,"argtypes":7189,"=('":7190,"mx":7191,"zo":7192,"activity":7193,"ĠWITH":7194,"Space":7195,"star":7196,"Ġtimezone":7197,"Ġseed":7198,"CONTENT":7199,"filepath":7200,"ntaxError":7201,"pd":7202,"keywords":7203,"sertionError":7204,"lencode":7205,"Clean":7206,"-+":7207,"Empty":7208,"GG":7209,"Series":7210,"twisted":7211,"uffle":7212,"ĠDelete":7213,"oration":7214,"Ġturn":7215,"Ġupper":7216,"vailability":7217,"]],":7218,"finished":7219,"ĠCLI":7220,"Ġvisible":7221,"FD":7222,"Changed":7223,"hist":7224,"plus":7225,"aving":7226,"ifs":7227,"responses":7228,"ĠSTR":7229,"titude":7230,"gmail":7231,"ĠStart":7232,")-":7233,"timedelta":7234,"Ġcaller":7235,"Stub":7236,"lm":7237,"locals":7238,"Ġcontributors":7239,"zon":7240,"}),":7241,"eb":7242,"CLI":7243,"trip":7244,"tid":7245,"3333":7246,"Ġappear":7247,"Title":7248,"Feature":7249,"acl":7250,"xi":7251,"ĠPOST":7252,"Ġthreads":7253,"250":7254,"\\.":7255,"usters":7256,"Ġderived":7257,"Ġklass":7258,"hw":7259,"Ġreader":7260,"Ġsess":7261,"ĠAny":7262,"Ġdue":7263,"usted":7264,"gration":7265,"ĠBad":7266,"secure":7267,"lour":7268,"ctypes":7269,"Ġ(_":7270,"agraph":7271,"Ġwhose":7272,"BC":7273,"percent":7274,"Ġblocks":7275,"binding":7276,"Ġ\"(":7277,"xxxx":7278,"Poly":7279,"RC":7280,"macro":7281,"canvas":7282,"precation":7283,"Ġchoice":7284,"helpers":7285,"Ġconnected":7286,"Ġcc":7287,"coordin":7288,"ratio":7289,"compatible":7290,"Ġeffect":7291,"fq":7292,"Ġexclu":7293,"Some":7294,"deployment":7295,">%":7296,"RT":7297,"Use":7298,"ĠCA":7299,"\"%":7300,"serted":7301,"Expression":7302,"ĠTry":7303,"MAC":7304,"fk":7305,"Ġmaps":7306,"ĠShould":7307,"listdir":7308,"ĠLe":7309,"Ġhashlib":7310,"deepcopy":7311,"constant":7312,"TIVE":7313,"ĠChange":7314,"ĠOver":7315,"Ġ40":7316,"got":7317,"aliases":7318,"}\"":7319,"geom":7320,"Chart":7321,"(\"\"":7322,"ĠUN":7323,"Ġiden":7324,"Ġleg":7325,"PhoneNumberDesc":7326,"Used":7327,"Bytes":7328,"band":7329,"Ġthings":7330,"ĠĠĠĠĠĠĠĠĠĠĠĠĠĠĠĠĠĠĠĠĠĠĠĠĠĠĠĠĠĠĠĠĠĠĠĠĠĠĠĠĠĠĠĠĠĠĠĠĠĠ":7331,"Ġ':":7332,"Ġsn":7333,"Ġreply":7334,"Ġoverwrite":7335,"mr":7336,"Repo":7337,"Ġec":7338,"aste":7339,"IV":7340,"ĠCre":7341,"Dictionary":7342,"cryption":7343,"define":7344,"criptor":7345,"DC":7346,"tcp":7347,"Ġreduce":7348,"lopen":7349,"WORK":7350,"Ġ\\\\":7351,"TIT":7352,"}{":7353,"Ġglobals":7354,"volumes":7355,"rx":7356,"Ġschedule":7357,"ĠTEST":7358,"gation":7359,"browser":7360,"__),":7361,"Ġnoqa":7362,"Ġsli":7363,"Ma":7364,"Ġdns":7365,"Ġapplied":7366,"Ġmatplotlib":7367,"GP":7368,"MODE":7369,"ared":7370,"Ġsleep":7371,"FB":7372,"IMAGE":7373,"PACE":7374,"tar":7375,"ris":7376,"LP":7377,"customer":7378,"life":7379,"Abstract":7380,"datastore":7381,"Ġarchive":7382,"Send":7383,"Ġhandling":7384,"Ġformatted":7385,"Ġvideo":7386,"Ġquote":7387,"Ġinterpre":7388,"SK":7389,"Ġurls":7390,"Track":7391,"Ġedges":7392,"jar":7393,"Ġty":7394,"vy":7395,"ASK":7396,"ValidationError":7397,"ĠImp":7398,"GV":7399,"fw":7400,"exact":7401,"orizon":7402,"Ġsimilar":7403,"MAL":7404,"tire":7405,"Ġcost":7406,"Ġmet":7407,"configs":7408,"ĠAb":7409,"walk":7410,"itude":7411,"NULL":7412,"osite":7413,"zk":7414,"strument":7415,"paper":7416,"\"},":7417,"ĠMigration":7418,"lc":7419,"ĠClass":7420,"Ġpower":7421,"teps":7422,"cov":7423,"168":7424,"vlan":7425,"moving":7426,"WN":7427,"ised":7428,"typ":7429,"ĠOK":7430,"BoundedBig":7431,"Ġplayer":7432,"Ġconverted":7433,"HH":7434,"vile":7435,"ĠWARRANTY":7436,"sr":7437,"article":7438,".'''":7439,"Da":7440,"Ok":7441,"inux":7442,"Ġ{%":7443,"aggregate":7444,"Pos":7445,"php":7446,"Ġconstant":7447,"Ġwrong":7448,"analy":7449,"Ġdescriptor":7450,"Ġord":7451,"Ġunpack":7452,"sites":7453,"2016":7454,"ĠACTION":7455,"ĠTag":7456,"ĠNow":7457,"START":7458,"Ġ'/'":7459,"avi":7460,"Required":7461,"FUN":7462,"Close":7463,"ĠComment":7464,"irtual":7465,"Comment":7466,"PECIAL":7467,"ĠFind":7468,"ENTIAL":7469,"Tuple":7470,"prompt":7471,"ele":7472,"Ġcapa":7473,"JJ":7474,"`:":7475,"Ġteam":7476,"tangible":7477,"allen":7478,"restype":7479,"QA":7480,"Ġhour":7481,"licies":7482,"annotation":7483,"Popen":7484,"rozenset":7485,"phone":7486,"voice":7487,"aps":7488,"shutdown":7489,"formats":7490,"bm":7491,"Ġct":7492,"ĠQueue":7493,"ĠDefaults":7494,"Ġminimum":7495,"aemon":7496,"ĠAction":7497,"Ġcover":7498,"([(":7499,"ĠValidationError":7500,"dashboard":7501,"dw":7502,"lg":7503,"Ġuid":7504,"Transform":7505,"ingerprint":7506,"TK":7507,"Ġcapt":7508,"Editor":7509,"tee":7510,"SEQU":7511,"tics":7512,"Enabled":7513,"Children":7514,"Ġface":7515,"disabled":7516,"Category":7517,"ĠQtCore":7518,"Ġidentifi":7519,"Ġrc":7520,"Ġbig":7521,"Ġbases":7522,"Opt":7523,"such":7524,"OFF":7525,"Ġones":7526,"Ġ22":7527,"DN":7528,"Copy":7529,"Ġnone":7530,"ĠView":7531,"anging":7532,"Multiple":7533,"Ġ23":7534,"predict":7535,"syn":7536,"Ġhex":7537,"calc":7538,"ĠGET":7539,"Raw":7540,"USED":7541,"sibility":7542,"Ġbackwards":7543,"GH":7544,"cture":7545,"Ġpandas":7546,"Ġgranted":7547,"adow":7548,"eded":7549,"rng":7550,"Ġnormalize":7551,"CREATE":7552,"sz":7553,"ascript":7554,"Gl":7555,"ĠWSGI":7556,"pn":7557,"att":7558,"Db":7559,"Iteration":7560,"Flags":7561,"edia":7562,"Ġbackup":7563,"ĠVerify":7564,"tour":7565,"Remote":7566,"program":7567,"xl":7568,"appro":7569,"Ġpie":7570,"Ġprompt":7571,"Vector":7572,"Ġprom":7573,"600":7574,"Ġfreq":7575,"udio":7576,"Ġresponses":7577,"Ġindependent":7578,"windows":7579,"Ġretain":7580,"Execution":7581,"rase":7582,"associ":7583,"ĠPY":7584,"ATCH":7585,"ki":7586,"Ġcompatibility":7587,"getter":7588,"Ġmonitor":7589,"BoundedBigAutoField":7590,"Ġnx":7591,"Pe":7592,"Ġpixels":7593,"Ġhosts":7594,"ĠComm":7595,"ĠWor":7596,"Ġdisabled":7597,"Ġpanel":7598,"maps":7599,"coord":7600,"asarray":7601,"white":7602,"QtGui":7603,"mazon":7604,"ĠGeneric":7605,"Ġ\"+":7606,"ables":7607,"setter":7608,"Ġmeasure":7609,"foreignkey":7610,"Ġcharset":7611,"Ġden":7612,"686":7613,"archy":7614,"letter":7615,"]}":7616,"activate":7617,"=[\"":7618,"that":7619,"Ġthree":7620,"Ġdele":7621,"under":7622,"Grid":7623,"Ġ^":7624,"Ġbrowser":7625,"iterator":7626,")**":7627,"Ġblue":7628,"setitem":7629,"endor":7630,"Ġdimensions":7631,"room":7632,"__',":7633,"ndarray":7634,"CACHE":7635,"Ġcr":7636,"Ġclassifi":7637,"avascript":7638,"Ġlang":7639,"Ġvery":7640,"Ġfunctools":7641,"DOMAIN":7642,"Ġpipe":7643,"xp":7644,"KK":7645,"PB":7646,"ij":7647,"migration":7648,"ining":7649,"Ġconfigured":7650,"Ġvim":7651,"relationship":7652,"ContentType":7653,"experiment":7654,"Wh":7655,"stand":7656,"Ġ'':":7657,"udit":7658,"Ġsubscription":7659,"Sa":7660,"errno":7661,"Ġ~":7662,"Ġbeta":7663,"callable":7664,"Ġerrno":7665,"Ġimplements":7666,"cipe":7667,"Random":7668,"Ġ404":7669,"ĠJo":7670,"['_":7671,"COUNT":7672,"ĠFoundation":7673,"olds":7674,"orator":7675,"loss":7676,"ĠCl":7677,"ython":7678,"ensor":7679,"cookies":7680,"######":7681,"Errors":7682,"mkdir":7683,"gw":7684,"Article":7685,"ĠDatabase":7686,"have":7687,"Ġ'*'":7688,"spawn":7689,"Cell":7690,"GA":7691,"dian":7692,"KET":7693,"UTF":7694,"2010":7695,"Tw":7696,"ectors":7697,"Identifier":7698,"dependency":7699,"share":7700,"Ġqueries":7701,"********************************":7702,"Ġ400":7703,"sizes":7704,"CHE":7705,"ancy":7706,"small":7707,"Success":7708,"Ġgeneral":7709,"KNOWN":7710,"ppro":7711,"coords":7712,"Ġrpc":7713,"Ġshall":7714,"Ġbug":7715,"ĉĠĠĠ":7716,"thrift":7717,"Ġ\")":7718,"TIMEOUT":7719,"Library":7720,"cifs":7721,"Fields":7722,"Descriptor":7723,"car":7724,"Ġpredi":7725,"must":7726,"ModelAdmin":7727,"Ġgradient":7728,"Ġpartition":7729,"Ġruns":7730,"scheduler":7731,"(%(":7732,"ĠPOINTER":7733,"xd":7734,"Ġrect":7735,"Ġconfigure":7736,"finite":7737,"TeX":7738,"Ġri":7739,"ĠDes":7740,"Ġreally":7741,"clients":7742,"Ġtemporary":7743,"Ġcopied":7744,"MED":7745,"Ġseparate":7746,"LIC":7747,"vol":7748,"Ġsl":7749,"ket":7750,"authorized":7751,"completed":7752,"vides":7753,"outfile":7754,"SIGN":7755,"56789":7756,"loor":7757,"Ġservers":7758,"ĠSUB":7759,"\")),":7760,"spi":7761,"Ġchunks":7762,".\"),":7763,"UES":7764,"ynchronous":7765,"NT":7766,"Ġaccording":7767,"();":7768,"Ġpypy":7769,"findall":7770,"Ġmakes":7771,"Debug":7772,"ĠPoint":7773,"Ġ500":7774,"rant":7775,"joint":7776,"Ġdistutils":7777,"Ġinitialized":7778,"Inline":7779,"bld":7780,"ĠHandle":7781,"_='":7782,"Ġgeneric":7783,"MC":7784,"ocial":7785,"999":7786,"Person":7787,"rstrip":7788,"ĠSession":7789,"Ġaxes":7790,"Cluster":7791,"compiler":7792,"ĠCa":7793,"ident":7794,"sal":7795,"}:":7796,"since":7797,"chdir":7798,"Ġlogs":7799,"Conf":7800,"Ġcounts":7801,"Ġapps":7802,"Ġcolors":7803,"edirs":7804,"Ġabstract":7805,"Product":7806,"GD":7807,"MagicMock":7808,"ticket":7809,"ĠMark":7810,"strails":7811,"assertNotEqual":7812,"Find":7813,"Ġanswer":7814,"Ġcols":7815,"categories":7816,"tv":7817,"peak":7818,"Step":7819,"###############################################################################":7820,"ĠPublic":7821,"ech":7822,"LC":7823,"RUN":7824,"Body":7825,"pretty":7826,"Err":7827,"ĠNS":7828,"ifies":7829,"HA":7830,"ĠSign":7831,"ADD":7832,"Ġdependency":7833,"ĠSU":7834,"Plug":7835,"ussian":7836,"fm":7837,"Ġpermitted":7838,"PACK":7839,"Ġsell":7840,"Ġunless":7841,"foobar":7842,"isual":7843,"ientation":7844,"Ġlistener":7845,"cases":7846,"RF":7847,"Ġmu":7848,"ĠAdding":7849,"TOKEN":7850,"Ġfo":7851,"orth":7852,"Ġfid":7853,"good":7854,"Ġlonger":7855,"_'":7856,"coun":7857,"Func":7858,"standard":7859,"tras":7860,"hyper":7861,"Ġgreen":7862,"jected":7863,"Ġadding":7864,"Skip":7865,"ĠDon":7866,"astic":7867,"Prefix":7868,"efficient":7869,"started":7870,"Ġrev":7871,"formatter":7872,"avg":7873,"ĠAUTHORS":7874,"syntax":7875,"Ġ------------------------------------------------":7876,"splitlines":7877,"ĠOAuth":7878,"validator":7879,"Qk":7880,"black":7881,"micro":7882,"Ġports":7883,"diag":7884,"Gra":7885,"MPLE":7886,"Ġ2010":7887,"Ġproducts":7888,"+=":7889,"uv":7890,"Has":7891,"examples":7892,"indexes":7893,"certificate":7894,"utions":7895,"hood":7896,"WM":7897,"Ġpadding":7898,"STA":7899,"CHO":7900,"peer":7901,"SETT":7902,"lobs":7903,"Ġproperly":7904,"produce":7905,"ĠRel":7906,"dec":7907,"mongo":7908,"egg":7909,"how":7910,"Ġnegative":7911,"JS":7912,"ĠINTER":7913,"TX":7914,"ardown":7915,"Ġev":7916,"GTH":7917,"cogn":7918,"Ġforward":7919,"=_('":7920,"axes":7921,"onal":7922,"Ġnb":7923,"GO":7924,"Example":7925,"updates":7926,"cally":7927,"scores":7928,"POINT":7929,"Ġpagin":7930,"Ġui":7931,"qq":7932,"Disk":7933,"uf":7934,"Ori":7935,"Ġincludes":7936,"finish":7937,"ĠFlask":7938,"YX":7939,"[\\":7940,"Ġwarn":7941,"capt":7942,"Ġmembers":7943,"ĠGraph":7944,"hh":7945,"Security":7946,"Ġ'\\\\":7947,"EMAIL":7948,"INVALID":7949,"Cmd":7950,"Help":7951,"Ġ#------------------------------------------------------------------------":7952,"charset":7953,"Upload":7954,"Ġthreshold":7955,"Ġchannels":7956,"Generic":7957,"TABLE":7958,"EVER":7959,"_[":7960,"SECRE":7961,"trl":7962,"ĠAdditional":7963,"radius":7964,"king":7965,"Ġaltern":7966,"Ġarea":7967,"subscribe":7968,"Ġ80":7969,"Ġentire":7970,"decorators":7971,"Definition":7972,"hooks":7973,"Verify":7974,"qname":7975,"authors":7976,"parsers":7977,"anded":7978,"ĠInitialize":7979,"vd":7980,"KT":7981,"Ġgive":7982,"aw":7983,"Ġable":7984,"Ġshift":7985,"FIELD":7986,"udi":7987,"balance":7988,"OFP":7989,"migrations":7990,"ĠFe":7991,"HEADER":7992,"MEDI":7993,"Ġcompiler":7994,"Ġsmall":7995,"ĠGL":7996,"tol":7997,"Ġaliases":7998,"tenv":7999,"randint":8000,"registration":8001,"Please":8002,"Ġpt":8003,"Ġexamples":8004,"KB":8005,"quota":8006,"Ġrdf":8007,"Render":8008,"ĠToken":8009,"operations":8010,"Ġ\"[":8011,"Unicode":8012,"Ġtoday":8013,"installed":8014,"gene":8015,"NUMBER":8016,"mbedded":8017,"roken":8018,"Ġ'.'":8019,"lette":8020,"xe":8021,"DESC":8022,"eper":8023,"Ġcharge":8024,"VV":8025,"NODE":8026,"aring":8027,"ogram":8028,"gradient":8029,"sb":8030,"linux":8031,"ĠAdmin":8032,"Ġ{}'.":8033,">,":8034,"repeat":8035,"ĠTangible":8036,"locations":8037,"MGL":8038,"pect":8039,"Ġdays":8040,"Ġtornado":8041,"flatten":8042,"AQ":8043,"Ġremaining":8044,"LOB":8045,"mtree":8046,"Ġrestriction":8047,"semble":8048,"ĠSCons":8049,"tainer":8050,"GF":8051,"Ġsheet":8052,"ĠState":8053,";\\":8054,"()])":8055,"apsed":8056,"CURE":8057,"nr":8058,"=',":8059,"ĠDI":8060,"Ġarrays":8061,"imen":8062,"received":8063,"come":8064,"Dist":8065,"+/":8066,"iterable":8067,"AE":8068,"Ġbetter":8069,"receive":8070,"Ġpending":8071,"ĠPlease":8072,"ĠStorage":8073,"ĠKeyword":8074,"Ġsuccessfully":8075,"nick":8076,"Ġ'(":8077,"Ġ\"\"\")":8078,"inclu":8079,"(_('":8080,"Ġ\"\")":8081,"Flavor":8082,"spam":8083,"Pub":8084,"accounts":8085,"ordered":8086,"Endpoint":8087,"acter":8088,"glob":8089,"cons":8090,"ĠContext":8091,"Contains":8092,"ian":8093,"('',":8094,"Ġtraining":8095,"pread":8096,"docker":8097,"Ġdoctest":8098,"nsor":8099,"Msg":8100,"Ġsyn":8101,"OO":8102,"}):":8103,"ĠSPECIAL":8104,"launch":8105,"Ġvirtual":8106,"processors":8107,"Headers":8108,"attachment":8109,"Ġepoch":8110,"initialize":8111,">\",":8112,"ggest":8113,"ĠWrite":8114,"Ġrefresh":8115,"MR":8116,"Ġls":8117,"ĠCONNECTION":8118,"GC":8119,"Ġlex":8120,"forum":8121,"Ġexactly":8122,"jac":8123,"Ġcalculate":8124,"plural":8125,"Ġready":8126,"ipe":8127,"SECRET":8128,"journal":8129,"Ġdocstring":8130,"Ġtranslation":8131,"Non":8132,"ĠUsed":8133,"Ġfs":8134,"kb":8135,"Ġlazy":8136,"tmpdir":8137,"Ġ34":8138,"Xz":8139,"THON":8140,"Region":8141,"Software":8142,"Xbrl":8143,"tistics":8144,"ĠBoolean":8145,"PRI":8146,"Folder":8147,"Ġvars":8148,"Ġimmediate":8149,"Ġexperiment":8150,"Ġconv":8151,"VICES":8152,"Ġfigure":8153,"Ġpol":8154,"Ġreturning":8155,"logo":8156,"MODEL":8157,"Ġexplicitly":8158,"asis":8159,"Ġorg":8160,"Release":8161,"Ġfh":8162,"codename":8163,"Ġhyper":8164,"ĠPa":8165,"ircle":8166,"widgets":8167,"ffe":8168,"BS":8169,"PROTO":8170,"demo":8171,"=[],":8172,"pagin":8173,"Ġproduce":8174,"ju":8175,"Ġannot":8176,"Ġspecification":8177,"Ġnargs":8178,"ĠSkip":8179,"GT":8180,"Ġcred":8181,"UV":8182,"hp":8183,"ipient":8184,"ĠEd":8185,"ĠExec":8186,"Ġimported":8187,"DATAB":8188,"gis":8189,"logical":8190,"512":8191,"ĠMethod":8192,"gd":8193,"Ġcwd":8194,"Ġrather":8195,"figure":8196,"communic":8197,"FY":8198,"foot":8199,"ipher":8200,"placeholder":8201,"kk":8202,"ism":8203,"Height":8204,"Trove":8205,"crop":8206,"ASH":8207,"Print":8208,"Util":8209,"Ġmk":8210,"Ġcollect":8211,"ĠSelect":8212,"morph":8213,"mouse":8214,"rack":8215,"(_(\"":8216,"First":8217,"ĠPass":8218,"writeField":8219,"Ġdistribute":8220,"Ġyfsm":8221,"Ġassigned":8222,"vors":8223,"Ġhereby":8224,"EVENT":8225,"scene":8226,"PM":8227,"Ġrespon":8228,"CID":8229,"fv":8230,"MUL":8231,"Ġprevent":8232,"LENGTH":8233,"`)":8234,"CLAI":8235,"ĠNON":8236,"ĠFIX":8237,"ĠConvert":8238,"Ow":8239,"reload":8240,"stor":8241,"Ġcorehq":8242,"Cursor":8243,"Note":8244,"raries":8245,"pie":8246,"Ġdeferred":8247,"]',":8248,"Ġtrait":8249,"clock":8250,"Wait":8251,"httplib":8252,"assertIsNone":8253,"ront":8254,"Transaction":8255,"('''":8256,"Ġequivalent":8257,"Ġchecking":8258,"trols":8259,"ragma":8260,"until":8261,"SERT":8262,"Django":8263,"Ġversionadded":8264,"Ġbook":8265,"makedirs":8266,"Ġmis":8267,"additional":8268,"ĠPack":8269,"Ġpermit":8270,"isode":8271,"Testing":8272,"Ġetree":8273,"FH":8274,"SUP":8275,"ĠFloat":8276,"nii":8277,"Ġmag":8278,"Ġarc":8279,"Namespace":8280,"tip":8281,"ĠLaTeX":8282,"Reactor":8283,"OPEN":8284,"Ġeverything":8285,"dae":8286,"Ġconven":8287,"tablename":8288,"204":8289,"catalog":8290,"Dummy":8291,"='/":8292,"ĠSearch":8293,"Ġdeployment":8294,"WITH":8295,"vb":8296,"Ġps":8297,"Ġreading":8298,"Ġ['_":8299,"Ġworksheet":8300,"Xml":8301,"Ġ29":8302,"Ġcurr":8303,"chunks":8304,"ĠEnvironment":8305,"saved":8306,"Ġinstanti":8307,"while":8308,"IA":8309,"SQ":8310,"Ġhard":8311,"Ġtm":8312,"Ġwon":8313,"ĠGO":8314,"rw":8315,"stics":8316,"ĠCall":8317,"ĠPage":8318,"ĠVM":8319,"superuser":8320,"Ġthrow":8321,"EMENT":8322,"Selection":8323,"Copyright":8324,"ĠFilter":8325,"android":8326,"!\")":8327,"ĠFoo":8328,"utcnow":8329,"Ġbal":8330,"Login":8331,"cross":8332,"800":8333,"wrapped":8334,"Ġ'$":8335,"SIG":8336,"SEQUENTIAL":8337,">.":8338,"ender":8339,"draft":8340,"Ġdefaultdict":8341,"Ġcreates":8342,"sessions":8343,"ĠĠĠĠĠĠĠĠĠĠĠĠĠĠĠĠĠĠĠĠĠĠĠĠĠĠĠĠĠĠĠĠĠĠĠĠĠĠĠĠĠĠĠĠĠĠĠĠĠĠĠĠ":8344,"={},":8345,"HttpRequest":8346,"distribution":8347,"Ġsqlite":8348,"SB":8349,"speed":8350,"numbers":8351,"Ġthing":8352,"Ġ31":8353,"Ġprocessed":8354,"iving":8355,"heel":8356,"ĠPh":8357,"urther":8358,"ĠAddress":8359,"creation":8360,"mited":8361,"FITS":8362,"ĠApplication":8363,"Ġcomparison":8364,"DY":8365,"sf":8366,"/(":8367,"Fl":8368,"rename":8369,"vanced":8370,"Ġstdin":8371,"increment":8372,"Ġ################################":8373,"Ġindexes":8374,"/?":8375,"RIPT":8376,"Ġcleanup":8377,"Ġdynamic":8378,"ĠLocal":8379,"ĠInput":8380,"Configured":8381,"serialized":8382,"PASSWORD":8383,"()).":8384,"health":8385,"/.":8386,"NL":8387,"WE":8388,"Ġcate":8389,"ILD":8390,"TZ":8391,"setattr":8392,"velopers":8393,"TLS":8394,"UUID":8395,"istic":8396,"Ġrepresents":8397,"#:":8398,"MAN":8399,"UX":8400,"Replay":8401,"ĠVAL":8402,"does":8403,"ople":8404,"Ġ21":8405,"spli":8406,"bat":8407,"uk":8408,"lator":8409,"JO":8410,"croll":8411,"ĠEnsure":8412,"caten":8413,"Ġqual":8414,"signals":8415,"adoop":8416,"Ġoslo":8417,"OBJECT":8418,"See":8419,"izing":8420,"Authentication":8421,"itation":8422,"ĠMax":8423,"levels":8424,"cenario":8425,"idmap":8426,"proj":8427,"CCESS":8428,"Ġiteration":8429,"Ġtools":8430,"mtime":8431,"Ġjs":8432,"LIG":8433,"guid":8434,"Ġstati":8435,"Zone":8436,"ĠSchema":8437,"negative":8438,"modifi":8439,"Ġworkspace":8440,"ĠARE":8441,"ĠVER":8442,"Ġpositive":8443,"Ġ28":8444,"Ġprobably":8445,"ATOR":8446,"Ġliter":8447,"creator":8448,"land":8449,"pin":8450,"Ġfakes":8451,"neighb":8452,"('')":8453,"bootstrap":8454,"ĠDocumentation":8455,"TRAN":8456,"Ġlogged":8457,"Ġunderlying":8458,"Val":8459,"sigma":8460,"ĠMay":8461,"][\"":8462,"ĠNEG":8463,"bounds":8464,"allation":8465,"ĠDIRECT":8466,"Ġdirname":8467,"ilo":8468,"pow":8469,"lio":8470,"Ġfloating":8471,"Save":8472,"Ġactivity":8473,"ysical":8474,"LANG":8475,"Ġrepe":8476,"cycle":8477,"125":8478,"Ġchecked":8479,"ĠINDIRECT":8480,"ĠFirst":8481,"842":8482,"SIB":8483,"limits":8484,"Ġstrict":8485,"JK":8486,"udo":8487,"Ġinline":8488,"MSG":8489,"+\"":8490,"las":8491,"eros":8492,"Ġrng":8493,"__:":8494,"rappe":8495,"fx":8496,"jY":8497,"roperly":8498,"RA":8499,"sentinel":8500,"ToOne":8501,"|'":8502,"Ġbash":8503,"(\".":8504,"Json":8505,"Single":8506,"ulated":8507,"padding":8508,"through":8509,"copi":8510,"clip":8511,"WRITE":8512,"ĠSite":8513,"addon":8514,"FRING":8515,"Ġhidden":8516,"qn":8517,"Ġreplacement":8518,".'),":8519,"fu":8520,"Ġprepare":8521,"Ġflush":8522,"Fetch":8523,"texinfo":8524,"ĠDISCLAI":8525,"FRINGEMENT":8526,"LB":8527,"ocus":8528,"Ġred":8529,"blems":8530,"Sets":8531,"getcwd":8532,"ĠPOS":8533,"achine":8534,"sensitive":8535,"Ġscalar":8536,"dynamic":8537,"sto":8538,"WX":8539,"Ġ\\'":8540,"bus":8541,"Limit":8542,"Ġredis":8543,"Objects":8544,"Ġframework":8545,"\",),":8546,"10000":8547,"Fo":8548,"Scale":8549,"swift":8550,"chemas":8551,"PROJECT":8552,"Ġ26":8553,"ACTION":8554,"aign":8555,"Ġ2009":8556,"ĠArguments":8557,"LIGENCE":8558,"ĠCONSEQUENTIAL":8559,"Ġ{}\".":8560,"ĠPROFITS":8561,"antial":8562,"=======":8563,"bitrary":8564,"uous":8565,"trunc":8566,"ĠPri":8567,"edu":8568,"MODULE":8569,"authenticated":8570,"RUP":8571,"Ġobtaining":8572,"Registry":8573,"Ġretrie":8574,"Ġprecision":8575,"otas":8576,"INDEX":8577,"DP":8578,"FK":8579,"Normal":8580,"Cookie":8581,"Windows":8582,"ĠCor":8583,"ĠExtra":8584,"cms":8585,"queries":8586,"beat":8587,"Ġportions":8588,"GU":8589,"ĠAuto":8590,"rgb":8591,"Ġtrove":8592,"putVarInt":8593,"_=":8594,"Ġvalidator":8595,"DL":8596,"ĠNEGLIGENCE":8597,"Eu":8598,"Sample":8599,"Ġmaterials":8600,"Ġannotation":8601,"Ġlimitation":8602,"/*":8603,"ĠInst":8604,"VR":8605,"214":8606,"wp":8607,"ĠLOSS":8608,"decorator":8609,"Ġcancel":8610,"dhcp":8611,"El":8612,"'](":8613,"MESS":8614,"ana":8615,"Conver":8616,"ĠFIXME":8617,"Global":8618,"ium":8619,"loy":8620,"cx":8621,"erce":8622,"ifier":8623,"Win":8624,"\"/>":8625,"andidates":8626,"objs":8627,"Ġlatest":8628,"Ġfamily":8629,"answer":8630,"Setup":8631,"vpn":8632,"hr":8633,"BAD":8634,"vv":8635,"kwds":8636,"cuda":8637,"effs":8638,"Connect":8639,"scriber":8640,"Ġ'{}":8641,"Constant":8642,"hu":8643,"ĠGit":8644,"patcher":8645,"ĠCloud":8646,"Ġdetail":8647,"Mar":8648,"Ġcatch":8649,"Ġdefines":8650,"Ġcid":8651,"bla":8652,"decla":8653,"continue":8654,"Ġpersons":8655,"bz":8656,"']\"})":8657,"ĠWhether":8658,"uniform":8659,"ridden":8660,"ĠCompute":8661,"QP":8662,"selector":8663,"theta":8664,"Next":8665,"kv":8666,"attemp":8667,"defs":8668,"Ġmuch":8669,"FILES":8670,"building":8671,"iteral":8672,"HY":8673,"Ġsparse":8674,"irror":8675,"')):":8676,"INFRINGEMENT":8677,"Information":8678,"Ġpercent":8679,"pend":8680,"Ġwhom":8681,"Net":8682,"ji":8683,"Ġsteps":8684,"requirements":8685,"Ġtt":8686,"Ġsubclasses":8687,"EMPL":8688,"nm":8689,"major":8690,":],":8691,"memo":8692,"dao":8693,"Ġgu":8694,"Ġmanifest":8695,"Ġactor":8696,"allenge":8697,"Br":8698,"xpath":8699,"sublime":8700,"Ġmatched":8701,"etree":8702,"KW":8703,"Ġconsume":8704,"sions":8705,"resolvers":8706,"Ġftype":8707,"ĠColor":8708,"Null":8709,"Ġxs":8710,"Ġreproduce":8711,"ĠSource":8712,"asc":8713,"REF":8714,"topo":8715,"BA":8716,"gun":8717,"UC":8718,"wm":8719,"Ġxfsm":8720,"Pay":8721,"seudo":8722,"],\\":8723,"annotations":8724,"qp":8725,"vered":8726,"fileno":8727,"lify":8728,")?":8729,"Scene":8730,"mid":8731,"cidr":8732,"daemon":8733,"reat":8734,"COD":8735,"nor":8736,"ĠGenerate":8737,"plt":8738,"Ġshare":8739,"Ġcoordinates":8740,"([],":8741,"Ġplain":8742,"mesh":8743,"Ġenough":8744,"Ġexecutable":8745,"union":8746,"MN":8747,"imation":8748,"Ġvol":8749,"marks":8750,"CHOIC":8751,"istribution":8752,"QV":8753,"ssue":8754,"Ġfinish":8755,"clause":8756,"SETTINGS":8757,"rsync":8758,"etrieve":8759,"kt":8760,"Ġformatter":8761,"Ġinterfaces":8762,"ENTAL":8763,"Ġbra":8764,"Ġ*=":8765,"ĠRFC":8766,"ea":8767,"Structure":8768,"ĠProtocolBuffer":8769,"WID":8770,"ECore":8771,"formset":8772,"Validator":8773,"datasets":8774,"ĠVariable":8775,"FW":8776,"ĠĠĠĠĠĠĠĠĠĠĠĠĠĠĠĠĠĠĠĠĠĠĠĠĠĠĠĠĠĠĠĠĠĠĠĠĠĠĠĠĠĠĠĠĠĠĠĠĠĠĠĠĠĠĠ":8777,"pts":8778,"Ġloading":8779,"))))":8780,"Ġvo":8781,"smart":8782,"SN":8783,"STY":8784,"Ġ27":8785,"MX":8786,"oned":8787,"ĠFrame":8788,"Ġruntime":8789,"unlink":8790,"ĠCLA":8791,"Ġroom":8792,"expires":8793,"Jy":8794,"rmtree":8795,"ĠDEAL":8796,"stage":8797,"currency":8798,"assertIsNot":8799,"MIS":8800,"Zero":8801,"mobile":8802,"Ġsymbols":8803,"entities":8804,"focus":8805,"swap":8806,"ĠCLAIM":8807,"svn":8808,"Ġweak":8809,"disconnect":8810,"Any":8811,"GY":8812,"Ġrecip":8813,"workspace":8814,"ĠNONINFRINGEMENT":8815,"|\\":8816,"deri":8817,"QI":8818,"Ġindicating":8819,"dead":8820,"csrf":8821,"\\\"\\":8822,"titions":8823,"Ġsubstantial":8824,"ĠĠĠĠĠĠĠĠĠĠĠĠĠĠĠĠĠĠĠĠĠĠĠĠĠĠĠĠĠĠĠĠĠĠĠĠĠĠĠĠĠĠĠĠĠĠĠĠĠĠĠĠĠ":8825,"exclu":8826,"ventory":8827,"xb":8828,"STIT":8829,"Lost":8830,"Geometry":8831,"QUERY":8832,"Relation":8833,"ĠDEALINGS":8834,"Collector":8835,"gge":8836,"pip":8837,"Ġprocesses":8838,"DK":8839,"PX":8840,"Gen":8841,"Snapshot":8842,"]\\":8843,"jpg":8844,"sider":8845,"\"\"\")":8846,"collector":8847,"HV":8848,"rees":8849,"FFFF":8850,"jj":8851,"Ġenter":8852,"weet":8853,"hl":8854,"xm":8855,"Ġregard":8856,"Setting":8857,"ĠAssertionError":8858,"ĠConfiguration":8859,"ArgumentParser":8860,"roke":8861,"checked":8862,"ĠLink":8863,"ERT":8864,"native":8865,"Ġfire":8866,"Ġ|=":8867,"RB":8868,"Ġdeli":8869,"ODS":8870,"chr":8871,"\"][":8872,"Ġspeed":8873,"hide":8874,"ey":8875,"lst":8876,"mgr":8877,"keystone":8878,"ReplayAll":8879,"HI":8880,"bulk":8881,"Ġdefinitions":8882,"Ġstmt":8883,"ESSION":8884,"scr":8885,"Section":8886,"algorithm":8887,"Adapter":8888,"tifier":8889,"roperlyConfigured":8890,"APPS":8891,"dialog":8892,"sually":8893,"CHAN":8894,"atter":8895,"adapter":8896,"andbox":8897,"Ġlinear":8898,"ĠTe":8899,"LIMIT":8900,"ARCH":8901,"DataFrame":8902,"thumbnail":8903,"Ġrank":8904,"ĠNotes":8905,"presented":8906,"STITUTE":8907,"published":8908,"Pattern":8909,"WB":8910,"Ġ256":8911,"Ġve":8912,"Ġsever":8913,"what":8914,"Running":8915,"mn":8916,"Ġordered":8917,"ttl":8918,"Accept":8919,"tls":8920,"xyz":8921,"Arch":8922,"FloatField":8923,"Ġndarray":8924,"SIBILITY":8925,"vtk":8926,"ought":8927,"Ġsublicense":8928,"Ġfunctionality":8929,"Ġsigma":8930,"gamma":8931,"ino":8932,"COLOR":8933,"Ġleading":8934,"%%":8935,"VL":8936,"elf":8937,"QY":8938,"ACCESS":8939,"11111111":8940,"mpaign":8941,"needs":8942,"QUE":8943,"ĠSTRICT":8944,"tially":8945,"(\"<":8946,"GK":8947,"routes":8948,"Ġfiltered":8949,"Ġhandled":8950,"bly":8951,"Ġhighlight":8952,"bn":8953,"Ġpip":8954,"INESS":8955,"Ġsignals":8956,"bian":8957,"Hz":8958,"interpre":8959,"urnished":8960,"Az":8961,"TW":8962,"VB":8963,"jam":8964,"removed":8965,"Ġbi":8966,"ĠBUS":8967,"ĠEVEN":8968,"JI":8969,"ippet":8970,"mplementation":8971,"amble":8972,"SERVICE":8973,"DecimalField":8974,"Tools":8975,"Ġindicates":8976,"HR":8977,"Convert":8978,"Ġaggregate":8979,"Byte":8980,"Ġtf":8981,"Ġlocations":8982,"Ġformats":8983,"Ġrecipient":8984,"bold":8985,"Const":8986,"CIDENTAL":8987,"Ġplease":8988,"alect":8989,"eu":8990,"ov":8991,"rfc":8992,"Ġlikel":8993,"VISED":8994,"Ġclause":8995,"dry":8996,"ecome":8997,"ĠDataFrame":8998,"morphic":8999,"ĠINCIDENTAL":9000,"ĠConstruct":9001,"sudo":9002,"ggreg":9003,"Ġplaces":9004,"ĠSUCH":9005,"Ġcycle":9006,"ĠSERVICES":9007,"kze":9008,"Ġmouse":9009,"bases":9010,"Ġsigned":9011,"ico":9012,"ĠBasic":9013,"ĠPOSSIBILITY":9014,"Ġrval":9015,"ĠWAY":9016,"deferred":9017,"Merge":9018,"extended":9019,"staff":9020,"Dest":9021,"ĠĠĠĊ":9022,"ĠDAMAGE":9023,"dates":9024,"illing":9025,"POINTER":9026,"RUPTION":9027,"ina":9028,"istent":9029,"ĠADVISED":9030,"Ġscripts":9031,"Functions":9032,"Interval":9033,"UCT":9034,"hot":9035,"ĠArticle":9036,"\\\"$":9037,"Ġfurther":9038,"ctrl":9039,"Ġconside":9040,"Symbol":9041,"gri":9042,"generated":9043,"Ġnetworks":9044,"ĠEngine":9045,"kzeug":9046,"cade":9047,"validators":9048,"Ġticket":9049,"erry":9050,"('{":9051,"postgres":9052,"MJ":9053,"Ġpredicate":9054,"ĠBUSINESS":9055,"VK":9056,"ĠPerson":9057,"NONE":9058,"ropy":9059,"OAuth":9060,"Ġwhole":9061,"ĠDISCLAIMED":9062,"IME":9063,"EMPLARY":9064,"Ġinserted":9065,"Ġbr":9066,"ĠTABLE":9067,"DOWN":9068,"ya":9069,"ulator":9070,"ĠSp":9071,"ĠPlugin":9072,"ihood":9073,"Ġ=>":9074,"Ġintera":9075,"loading":9076,"lk":9077,"cha":9078,"urlpatterns":9079,"CUREMENT":9080,"gray":9081,"semb":9082,"Ġdc":9083,"Ġxmlns":9084,"WARNING":9085,"ĠCurrent":9086,"tis":9087,"Ġcpu":9088,"Ġfun":9089,"Mz":9090,"ĠHOW":9091,"VA":9092,"Ġmigration":9093,"odb":9094,"Ġgc":9095,"symbols":9096,"ĠEXEMPLARY":9097,"Ġfragment":9098,"ĠSUBSTITUTE":9099,"iB":9100,"ĠTHEORY":9101,"ĠResult":9102,"Scal":9103,"dj":9104,"hint":9105,"Ġrand":9106,"enerated":9107,"Left":9108,"Ġdevices":9109,"0000000000000000":9110,"ĠPROCUREMENT":9111,"NOR":9112,"bw":9113,"cells":9114,"ĠINTERRUPTION":9115,"Ġ||":9116,"mitive":9117,"Ġgeometry":9118,"Ġsklearn":9119,"LW":9120,"Nz":9121,"ighted":9122,"pointer":9123,"tracker":9124,"hexdigest":9125,"alert":9126,"ĠBack":9127,"Ġopenstack":9128,"Ġsucce":9129,"ĠDevelopment":9130,"ĠDeleting":9131,"obs":9132,"mooth":9133,"ircu":9134,"Ġ'?":9135,"quent":9136,"minute":9137,"111":9138,"Ġstarts":9139,"Ġreceive":9140,"levant":9141,"alive":9142,"=='":9143,"recipient":9144,"ĠDEBUG":9145,"OX":9146,"Ġpprint":9147,"LEV":9148,"domains":9149,"riteria":9150,"ĠHOWEVER":9151,"Ġinherit":9152,"consume":9153,"RGB":9154,"neg":9155,"Bound":9156,"Ġspecifies":9157,"Ġaverage":9158,"Ġshouldn":9159,"ĠGOODS":9160,"ĠCAUSED":9161,"mv":9162,"ĠTree":9163,"ĠMap":9164,"general":9165,"Groups":9166,"GQ":9167,"LOCAL":9168,"Detail":9169,"Ġcard":9170,"Ġtick":9171,"containers":9172,"Lj":9173,"andatory":9174,"Ġsimply":9175,"Ġpreserve":9176,"ĠMAX":9177,"fully":9178,"Ġpublished":9179,"Done":9180,"Tick":9181,"EF":9182,"geometry":9183,"Ġtile":9184,"variant":9185,"Ġsol":9186,"RM":9187,"ALLED":9188,"finder":9189,"Ġgeo":9190,"reet":9191,"Ġ'%(":9192,"Ġhandles":9193,"Related":9194,"Ġradius":9195,"Area":9196,"Ġful":9197,"ĠGiven":9198,"Za":9199,"rating":9200,"Ġdirs":9201,"Ġretval":9202,"IDD":9203,"'\")":9204,"vY":9205,"deps":9206,"Named":9207,"Part":9208,"twitter":9209,"\"')":9210,"ginx":9211,"PropertyType":9212,"candidate":9213,"Ġoutside":9214,"randn":9215,"issues":9216,"Ġspaces":9217,"Inte":9218,"Ġcast":9219,"Ġ([":9220,"Ġeas":9221,"Ġattached":9222,"=''):":9223,"encoded":9224,"Align":9225,"!')":9226,"Actor":9227,"/{}":9228,"ONT":9229,"cas":9230,"lid":9231,"Cs":9232,"TEXTNS":9233,"Fin":9234,"Ġangle":9235,"Tr":9236,"Ġ[{":9237,"Ġxl":9238,"\"',":9239,"FAIL":9240,"rollback":9241,"Total":9242,"HP":9243,"Ġcallbacks":9244,"Ġevalu":9245,"Ġrs":9246,"ĠAbstract":9247,"LK":9248,"SITE":9249,"atural":9250,"Ġsphinx":9251,"']):":9252,"Batch":9253,"bindings":9254,"ĠAccess":9255,"Enter":9256,"RequestHandler":9257,"];":9258,"Ġhit":9259,"vey":9260,"Ġserialized":9261,"Virtual":9262,"Rect":9263,"migrate":9264,"Ġ{{":9265,"broadcast":9266,"qi":9267,"Ġscene":9268,"Ġstub":9269,"Hook":9270,"zed":9271,"Ġclients":9272,"WY":9273,"portal":9274,"DateField":9275,"Ġplaceholder":9276,"average":9277,"lsx":9278,"MULTI":9279,"hours":9280,"xa":9281,"Ġanaly":9282,"guest":9283,"STATIC":9284,"Click":9285,"Route":9286,"VG":9287,"strs":9288,"arest":9289,"coverage":9290,"Ġ(?":9291,"STEM":9292,"Ġtaken":9293,"ĠDeferred":9294,"Ass":9295,"meter":9296,"Ġmac":9297,"ĠKEY":9298,"Ġdigest":9299,"ĠFla":9300,"ponent":9301,"ticles":9302,"drive":9303,"EK":9304,"Ġfore":9305,"TEGER":9306,"Fy":9307,"callbacks":9308,"flask":9309,"margin":9310,"artist":9311,"Ġhist":9312,"NB":9313,"MEDIA":9314,"Zh":9315,"aper":9316,"unity":9317,"rg":9318,"digit":9319,"predi":9320,"vx":9321,"confirm":9322,"tempdir":9323,"META":9324,"checks":9325,"UPDATE":9326,"rdf":9327,"Ġcandidate":9328,"ĠGNU":9329,"Ġcompleted":9330,"Pickle":9331,"ĠFree":9332,"ĠChar":9333,"Almost":9334,"Ġautos":9335,"illa":9336,"={\"":9337,"Ġintern":9338,"rac":9339,"Ġgs":9340,"quation":9341,"FromString":9342,"ĠBlock":9343,"Ġpassing":9344,"Certificate":9345,"Ġstatements":9346,"Ġframes":9347,"CLIENT":9348,"pur":9349,"Optional":9350,"Shape":9351,"editable":9352,"Exists":9353,"'ve":9354,"NX":9355,"Ġ-----":9356,"pedia":9357,"workers":9358,"Ġdescribed":9359,"take":9360,"Ġwar":9361,"6666":9362,"perform":9363,"ĠHost":9364,"Utils":9365,"vX":9366,"Ġrhs":9367,"SyntaxError":9368,"JB":9369,"Ġdeclar":9370,"Ġlaunch":9371,"]\"":9372,"artbeat":9373,"ĠAllow":9374,"Ġtimer":9375,"bench":9376,"wg":9377,"ĠSets":9378,"ZK":9379,"ĠOP":9380,"Ġabort":9381,"retries":9382,"=\"\"\"":9383,"MF":9384,"WV":9385,"ĠĠĠĠĠĠĠĠĠĠĠĠĠĠĠĠĠĠĠĠĊ":9386,"tency":9387,"udience":9388,"Oc":9389,"QH":9390,"Ġdoing":9391,"!\"":9392,"Slug":9393,"Zm":9394,"Init":9395,"Ġ128":9396,"WF":9397,"Ġnumeric":9398,"OTE":9399,"AlmostEqual":9400,"UG":9401,"park":9402,"Ġnewline":9403,"-+-+":9404,"CG":9405,"bidden":9406,"arc":9407,"atrices":9408,"Af":9409,",%":9410,"ĠDef":9411,"ranges":9412,"MPTY":9413,"SSH":9414,"CMD":9415,"uni":9416,"ĠCreates":9417,"restart":9418,"ands":9419,"Ġlogic":9420,"sect":9421,"RESP":9422,"dices":9423,"Dataset":9424,"Iterator":9425,"izard":9426,"news":9427,"completion":9428,"Ġpeer":9429,"NY":9430,"ĠDict":9431,"Ġfurnished":9432,"encoder":9433,"ipant":9434,"Ids":9435,"Ġear":9436,"Insert":9437,"([])":9438,"Ġvals":9439,"Elements":9440,"Renderer":9441,"Ġprin":9442,"parents":9443,"hm":9444,"qr":9445,"Ġpragma":9446,"apters":9447,"))]":9448,"ĠDoc":9449,"Ġtranslate":9450,"Ġmount":9451,"Queryset":9452,"Ġ----------------":9453,"Ġvoid":9454,"termine":9455,"Ġinvoked":9456,"cg":9457,"horizontal":9458,"quit":9459,"ĠAppro":9460,"spaces":9461,"tabs":9462,"Ġcertain":9463,"Ġlooking":9464,"Ġrecursive":9465,"robot":9466,"Ġdestroy":9467,"ARGS":9468,"quick":9469,"Active":9470,"Points":9471,"ĠIECore":9472,"Ġgdata":9473,"ĠMon":9474,"joined":9475,"bt":9476,"Mj":9477,"Ġga":9478,"Mod":9479,"restore":9480,"ĠBook":9481,"Ġpositional":9482,":\")":9483,"Ġtxt":9484,"ToOneField":9485,"_))":9486,"Si":9487,"ALI":9488,"transfer":9489,"Processor":9490,"Jz":9491,"PD":9492,"253":9493,"~~~~~~~~~~~~~~~~":9494,"dating":9495,"ATTRIBUT":9496,"Register":9497,"Nj":9498,"veloper":9499,"wi":9500,"Ġunused":9501,"Ġacross":9502,"âĶ":9503,"Ġmultip":9504,"Ġtrailing":9505,"Ġdisplayed":9506,"Ġletter":9507,"ĠStopIteration":9508,"Slice":9509,"Xs":9510,"jid":9511,"calendar":9512,"ggle":9513,"EQ":9514,"MAR":9515,"TUR":9516,"UF":9517,"tively":9518,"Tags":9519,"verbosity":9520,"Encoding":9521,"ĠThread":9522,"Hy":9523,"tok":9524,"literal":9525,"Ġtail":9526,"nsup":9527,"LR":9528,"ban":9529,"Ġcmp":9530,"ĠCONF":9531,"Ġtar":9532,"*',":9533,"xz":9534,"Internal":9535,"hared":9536,"LV":9537,"Pop":9538,"Manage":9539,"boto":9540,"bridge":9541,"drag":9542,"Ġestim":9543,"Ġresulting":9544,"Ġlive":9545,"Ġ\"['":9546,"lv":9547,"Ġdom":9548,"cmds":9549,"Ġsqrt":9550,"Bit":9551,"too":9552,"ĠHttpResponseRedirect":9553,"alls":9554,"vicon":9555,"Contents":9556,"Ġbinding":9557,"ĠEnum":9558,"________________":9559,"unnel":9560,"construct":9561,"+',":9562,"Draw":9563,"([^":9564,"written":9565,"precationWarning":9566,"Ġwsgi":9567,"pacity":9568,"mmutable":9569,"Worker":9570,"Ġconsidered":9571,"Ġfrequency":9572,"registered":9573,"Router":9574,"033":9575,"ĠSELECT":9576,"UY":9577,"ency":9578,"Ġpm":9579,"Ġquotes":9580,"14842":9581,"}]":9582,"FFER":9583,"crypto":9584,"ObjectPropertyType":9585,"Ġprocessor":9586,"Ig":9587,"Lib":9588,"Ġ11715":9589,"Ġ11714842":9590,"segments":9591,"Ġgreater":9592,"Ġclassifiers":9593,"Ġcountry":9594,"Ġintegers":9595,"Ġmanagement":9596,"izations":9597,"logged":9598,"LF":9599,"curl":9600,"perms":9601,"Ġcodes":9602,"scopes":9603,"Ġfilepath":9604,"Ġcodecs":9605,"assignment":9606,"hz":9607,"Called":9608,"Ġadds":9609,"Ġadjust":9610,"Ġlight":9611,"CLO":9612,"ĠUUID":9613,"??":9614,"ĉĉĉĉĉĉ":9615,"pf":9616,"extent":9617,"AST":9618,"ym":9619,"Ġpull":9620,"Ġcookies":9621,"ĠWith":9622,"offi":9623,"dictionary":9624,"odoc":9625,"difference":9626,":,":9627,"[%":9628,"202":9629,"DNS":9630,"LEFT":9631,"Keyword":9632,"Ġpointer":9633,"wc":9634,"ĠRule":9635,"shake":9636,"Attach":9637,"SF":9638,"UK":9639,"setLevel":9640,"Ġ2016":9641,"Static":9642,"servable":9643,"=\"\",":9644,"ORD":9645,"Ġdigits":9646,"CQ":9647,"Ġtransfer":9648,"](":9649,"Counter":9650,"Ġsep":9651,"ĠJob":9652,"audio":9653,"Workflow":9654,"BLOCK":9655,"ncy":9656,"ZY":9657,"ami":9658,"openid":9659,"Spa":9660,"qK":9661,"deprecated":9662,"Ġ(('":9663,"cpus":9664,"Ġdelimiter":9665,"Ġ1234":9666,"Ġimmediately":9667,"Ġwhitespace":9668,"ivy":9669,"ĠExtension":9670,"Ġmarkup":9671,"positive":9672,"Ġ/>":9673,"Ġnamespaces":9674,"TODO":9675,"male":9676,"Ġsequences":9677,"hv":9678,"kn":9679,"ĠĠĠĠĠĠĠĠĠĠĠĠĠĠĠĠĠĠĠĠĠĠĠĠĠĠĠĠĠĠĠĠĠĠĠĠĠĠĠĠĠĠĠĠĠĠĠĠĠĠĠĠĠĠ":9680,"Interrupt":9681,"EO":9682,"processes":9683,"README":9684,">/":9685,"benchmark":9686,"aN":9687,"Ġstage":9688,"Ġlst":9689,"Diff":9690,"XB":9691,"pdu":9692,"mpath":9693,"Ġterminal":9694,"99999999":9695,"HB":9696,"erature":9697,"Ġring":9698,"Ġirc":9699,"ĠSeries":9700,"sqlalchemy":9701,"sol":9702,"declar":9703,"locked":9704,"IsA":9705,"Ġtol":9706,"aming":9707,"uide":9708,"Notification":9709,"copia":9710,"Ġgetting":9711,"...\"":9712,"Book":9713,"Ġinf":9714,"pended":9715,"evaluate":9716,"Repository":9717,"pv":9718,"Ġchars":9719,"ĠVERSION":9720,"SCHE":9721,"Ġbecome":9722,"terminal":9723,"receiver":9724,"Sk":9725,"Ġsubmit":9726,"metaclass":9727,"Ret":9728,"ster":9729,"assertIsNotNone":9730,"Io":9731,"()``":9732,"esh":9733,"Alchemy":9734,"]{":9735,"urlencode":9736,"Ġdialog":9737,"IQ":9738,"Sync":9739,"idle":9740,"ĠSu":9741,"ĠEmpty":9742,"cuts":9743,"mf":9744,"existent":9745,"ypes":9746,"polation":9747,"<<":9748,"Au":9749,"fakes":9750,"dicts":9751,"CHOICES":9752,"LEVEL":9753,"HJ":9754,"Ġduplicate":9755,"ĠCalled":9756,"about":9757,"unce":9758,"Ġhaving":9759,"wraps":9760,"blueprint":9761,"SZ":9762,"ADMIN":9763,"matched":9764,"LAB":9765,"Ġfailures":9766,"Ġgevent":9767,"zie":9768,"Ġstrftime":9769,"âĶĢ":9770,"Mu":9771,"Ġind":9772,"OURCE":9773,"readonly":9774,"aterial":9775,"sia":9776,"Ġtok":9777,"ĠRPC":9778,"BinaryProtocol":9779,"ĠImproperlyConfigured":9780,"('#":9781,"Common":9782,"ĠForeignKey":9783,"sistency":9784,"fid":9785,"Ġlisted":9786,"RESULT":9787,"']}":9788,"WIDTH":9789,"CHECK":9790,"into":9791,"pygments":9792,"Ġexpressions":9793,"icrosoft":9794,"Ġmgr":9795,"large":9796,"communicate":9797,"ased":9798,"Ġ-.":9799,"Mis":9800,"wY":9801,"ellow":9802,"Ġissubclass":9803,"Ġlar":9804,"'\"},":9805,"Ġbounds":9806,"VC":9807,"urlopen":9808,"btn":9809,"dif":9810,"Ġmerged":9811,"splitext":9812,"tack":9813,"Ġroles":9814,"////////////////":9815,"silon":9816,"Zz":9817,"Ġ'&":9818,"aching":9819,"jb":9820,"tice":9821,"Ġconversion":9822,"funcs":9823,"orse":9824,"WD":9825,"Operator":9826,"Fixture":9827,"urse":9828,"presentation":9829,"Ġreplaced":9830,"PG":9831,"ĠCho":9832,"Ġevaluate":9833,"CannotContain":9834,"you":9835,"KeyError":9836,"nsupported":9837,"ĠLabel":9838,"periments":9839,"^^":9840,"Ġwa":9841,"rontend":9842,"Ġmapped":9843,"Ġtrunc":9844,"Mi":9845,"human":9846,"yield":9847,"trait":9848,"ĠTwisted":9849,"jd":9850,"Ġfrozenset":9851,"paren":9852,"Ġfooter":9853,"Ġguess":9854,"subset":9855,"Ġoptparse":9856,"slave":9857,"Statement":9858,"Im":9859,"always":9860,"Ġfew":9861,"minimum":9862,"Ġparents":9863,"locator":9864,"Ii":9865,"ntu":9866,"Ġmemo":9867,"150":9868,"realm":9869,"(\"{":9870,"ĠMust":9871,"Ġlocalparam":9872,"Ġsmart":9873,"History":9874,"xies":9875,"Ġremain":9876,"],[":9877,"Ġadapter":9878,"ĠindependentData":9879,"but":9880,"ĠALL":9881,"Ġdetect":9882,"MEM":9883,"XXXX":9884,"Ġpromote":9885,"weak":9886,"ising":9887,"Ġminutes":9888,"party":9889,"former":9890,"Ġol":9891,"ĠGeo":9892,"asource":9893,"Ġassignment":9894,"yr":9895,"ĠSend":9896,"caller":9897,"combin":9898,"Ġsending":9899,"AWS":9900,"nw":9901,"Features":9902,"Ak":9903,"Ġdx":9904,"ĠDOM":9905,"SING":9906,"Ġsin":9907,"album":9908,"REGI":9909,"Ġcompatible":9910,"namespaces":9911,"calculate":9912,".*?":9913,"linalg":9914,"codec":9915,"=\"/":9916,"Ġ2006":9917,"regions":9918,"urations":9919,"Ġshard":9920,"Ġdifference":9921,"Ġappended":9922,"Ġpay":9923,"Ġrobot":9924,"Ġliteral":9925,"AU":9926,"MK":9927,"Ġdescrib":9928,"multip":9929,"Ġcar":9930,"pause":9931,"ĠCase":9932,"TD":9933,"Pl":9934,"repos":9935,"()'":9936,"IPv":9937,"profiler":9938,"Ġmargin":9939,"strail":9940,"TERN":9941,"Move":9942,"Ġprops":9943,"viewer":9944,"Ġprefixes":9945,"OneToOneField":9946,"predicate":9947,"worksheet":9948,"AGES":9949,"Intended":9950,"Ġregistration":9951,"RS":9952,"Qo":9953,"numeric":9954,"âĶĢâĶĢ":9955,"ience":9956,"Ġserve":9957,"QuerysetEqual":9958,"VO":9959,"itable":9960,"326":9961,"LOAT":9962,"Install":9963,"nf":9964,"Ġlb":9965,"([('":9966,"WK":9967,"2009":9968,"ABLED":9969,"[[":9970,"floor":9971,"poses":9972,"ENG":9973,"Ġspecifying":9974,"grees":9975,"Long":9976,"buntu":9977,"both":9978,"tested":9979,"sembly":9980,"VN":9981,"nv":9982,"keeper":9983,"Cleanup":9984,"OUTPUT":9985,"Zo":9986,"Ġresolution":9987,"topics":9988,"Ġgrad":9989,"ĠCH":9990,"strategy":9991,"Compute":9992,"Ġcategories":9993,"Ġasync":9994,"serializers":9995,"TOP":9996,"ĠPort":9997,"Coeffs":9998,"compiled":9999}