#version: 0.2
Ġ Ġ
ĠĠ ĠĠ
ĠĠ Ġ
s e
ĠĠĠĠ ĠĠĠ
r e
i n
o n
t e
o r
s t
d e
Ġ <
Ġ =
Ġ< /
t h
ĠĠĠĠ ĠĠĠĠ
se l
sel f
l e
m e
Ġ a
t i
e r
Ġ i
a l
- -
Ġ c
a r
e n
Ġ f
r o
Ġ self
m p
a n
a t
) :
Ġ re
" "
ĠĠĠĠ ĠĠĠĠĠĠĠ
Ġ th
Ġ '
u r
a s
g e
Ġ p
c e
ti on
Ġ de
# #
Ġ s
Ġ t
se r
l i
in g
u e
Ġth e
or t
Ġ n
Ġde f
Ġ o
a me
Ġ in
c t
a te
l o
Ġ d
-- --
mp ort
u n
Ġ e
' ,
( )
f i
r i
c o
Ġ #
Ġ b
c h
Ġ m
Ġ w
_ _
p e
ur n
ĠĠĠĠĠĠĠĠ ĠĠĠĠĠĠĠĠ
t urn
s i
"" "
u t
n t
ro m
c k
r a
Ġi mport
i s
u l
te r
ge t
i d
( '
Ġi f
n ame
Ġre turn
Ġ "
i t
a d
Ġf or
Ġt o
e l
Ġ T
te st
Ġ """
o t
' )
as s
p a
## ##
on e
ser t
Ġ (
v al
v er
l a
e d
Ġi s
u p
m a
o de
q u
Ġa n
s s
i l
at a
se t
Ġ h
c on
k e
e ct
ĠĠĠĠĠĠĠĠ ĠĠĠĠĠĠĠ
d i
o l
l ass
t y
e s
de r
f rom
---- ----
N one
v i
Ġe x
ul t
p p
Ġ st
o d
e x
g s
a tion
Ġo f
en t
= =
si on
Ġa s
o p
) )
b j
Ġ [
c tion
t a
me nt
Ġ A
re s
Ġ u
' :
Ġ S
Ġc on
b le
Ġ C
. _
i th
an d
a se
a ge
i le
r or
Ġ I
as sert
' ]
i c
h e
e t
Ġ test
l s
val ue
v e
Ġ 1
Ġ L
te d
r ue
Ġn ot
Ġan d
u m
q ue
Ġ g
t o
) ,
ke y
Ġf rom
bj ect
in t
ti me
pa th
[ '
Ġ %
" ,
a m
h t
x t
Ġ F
b u
f or
Ġre s
( "
fi le
Ġc lass
Ġ *
al l
Ġ _
0 0
p tion
u s
Ġ None
t r
e w
en se
R e
ty pe
el d
ar gs
Ġ {
p ar
qu al
p ro
Ġ P
Ġc o
Ġ 2
Ġ or
l in
Ġd i
que st
o w
Ġb e
u b
Ġ 0
Ġ +
O N
Ġ r
en d
p t
Ġ lo
#### ####
e st
li st
r ror
an ce
Ġ= =
Ġ -
E rror
te xt
Ġ M
" )
ch e
p er
Ġ __
Ġ :
i mport
a pp
Ġf ile
Ġw ith
Ġ D
an g
ĠĠĠĠ Ġ
i g
f a
d ata
Ġn ame
f o
Ġ me
al se
p o
E qual
a ck
Ġ un
ic ense
re d
mp le
o ur
Ġm a
a ble
st r
Ġp ro
re ate
fi g
te m
m o
o c
i se
s h
ur l
i z
= '
o ut
assert Equal
y s
p ut
-------- --------
le n
== ==
m m
for m
Ġ O
pe c
Ġ get
li c
ĠL icense
Ġ set
p on
T I
r y
Ġas sert
p y
u re
Ġ @
Ġ B
i eld
Ġ y
Ġd ata
st ance
y pe
co de
u le
ar t
h o
our ce
Ġ se
Ġ value
ad d
t ri
E R
u th
w or
pon se
Ġ E
__ (
o bject
Ġ on
l y
li ent
d ate
f f
p i
Ġth is
g er
ct or
l ate
t p
I N
at ch
T rue
u ser
s c
] )
Ġ N
i st
Ġa r
ode l
ĠĠĠĠĠĠĠĠ ĠĠĠĠĠĠĠĠĠĠĠ
Ġe l
T est
c lass
) .
ce ss
Ġ W
Ġel se
o ck
k w
E S
Ġ x
t ing
Ġ ra
Ġth at
Ġo s
Ġu se
th od
an ge
ce pt
te mp
r int
ĠT he
Ġ U
l l
j ang
p re
in it
lin e
ss age
. .
I n
Ġst r
] ,
j o
jang o
Ġp ar
de x
u ment
b o
te n
re nt
Ġp a
l u
g in
E N
in d
un t
a der
o u
ĠT rue
Ġ v
Ġb y
m l
er ror
ver sion
n e
o m
Ġa t
c a
ĠĠĠĠĠĠĠĠĠĠĠĠĠĠĠĠ ĠĠĠĠĠĠĠĠ
( ):
re ad
lo w
kw args
` `
at or
p h
o k
Ġw h
Ġ G
co l
C on
m in
/ /
d d
ce ption
Ġra ise
Ġ R
i p
and le
Ġres ult
od ule
il d
Ġi t
di r
as k
s on
Ġ en
Ġ key
* *
par am
te nt
ro up
v ent
ta in
> >
li b
p ort
an s
Ġlo g
c al
val id
vi ce
Ġa pp
th on
b er
o re
e c
0 1
res ult
A S
ĠF alse
ar y
Ġ V
Ġc h
" :
Ġ la
mm and
u ti
######## ########
Ġex cept
un ction
Ġ Re
ma ge
Ġ l
o s
re quest
ode ls
w a
' '
Ġ* *
lo g
Ġ )
ex t
b ase
Ġu ser
de f
Ġ list
vi ew
a c
qu i
Ġ time
Ġ H
il l
O R
th er
Ġ 3
g ht
Ġre quest
d s
er y
Ġp y
at us
Ġt ry
Ġo ut
. __
= "
A T
u te
Ġp rint
: //
op y
temp late
in stance
TI ON
d b
st ri
ĠĠĠĠĠĠĠĠĠĠĠĠĠĠĠĠ ĠĠĠĠĠĠĠĠĠĠĠĠĠĠĠĠ
i r
Ġa re
se s
en er
u st
S T
Ġs o
f t
b ack
lo ad
p en
a mple
ti c
fa ult
con fig
Ġp ass
c reate
I C
Ġun der
j son
L E
o g
F alse
Ġo bject
Ġ len
de n
A R
app end
a ve
ri te
Ġw e
sc ri
Ġd jango
Ġs ys
z e
un d
ctor y
D I
a b
de d
up date
re n
ser ver
form at
m s
iz e
E x
ti ve
ma in
co m
ul d
Ġs h
jo in
fi eld
ce s
Ġ ro
p la
c lient
te s
ĉ ĉ
ow n
==== ====
k en
n o
tri bu
Ġn o
a ult
i f
j ect
Ġh e
co unt
ting s
h is
ter s
tion s
a uth
() )
in fo
U T
ri ght
Ġ ('
d a
t tp
Ġpa th
n ing
S E
di ct
Ġdef ault
or m
w w
Ġco mp
qu ery
wor k
at tr
f e
t s
') ,
a g
Ġ }
I T
fi c
Ġ url
co mp
ĠĠĠĠ ĠĠ
Ġs up
se d
P ro
ĠI n
( [
Ġt ype
i es
Ġ[ ]
si ze
Ġc ol
Ġw ill
c or
A N
Ġp re
w ith
F ield
i m
ĠI f
andle r
Ġp er
pec i
Ġres ponse
re turn
re e
ter n
ra y
c ur
de fault
ar d
R E
o st
ate d
um n
m is
um ber
C o
ti al
Ġn p
oc ument
Ġc an
Ġh as
st art
Ġd o
Ġ li
in dex
n d
ne ction
r on
i v
Ġn ew
m it
uti ls
Ġa ll
he ck
Ġcon fig
wor d
. """
m b
---------------- ----------------
Ġ[ '
Ġa l
Ġc reate
d u
ĠT his
ht tp
Ġfor m
Ġma y
str ing
() ,
Ġ{ }
t ra
un c
Ġ k
Ġf ield
ation s
lo ck
ar get
e e
s ub
sion s
i tem
ht ml
n ode
re g
u me
Ġ 4
C ase
i x
ĠT est
Ġme thod
Ġa dd
me thod
stri bu
Ġ .
Ġ{ '
le d
Ġh ttp
S t
res ponse
g n
s p
Ġs ub
ar g
fi x
s ing
a pi
re ss
r un
or y
Ġstr ing
b y
wa re
Ġ K
'] ,
Ġb u
pec ted
i al
i te
TION S
w rite
le ment
Ġo ption
M E
g ing
T ype
st atus
m an
ar ch
b el
ser vice
al ue
t le
* -
it y
Ġf a
ar i
g roup
me ssage
ma il
Ġs peci
Ġdi stribu
A L
le te
Ġy ou
sh a
Ġc ur
g ra
Ġ `
Ġ- *-
ho uld
R es
th e
Ġf unction
Ġ ``
Ġn ode
o bj
Ġ' ''
Ġa c
or g
N ame
Ġar g
per ty
tribu te
m odels
pa ce
fo o
Ġw or
Ġr un
D E
qui red
g th
D e
~ ~
R O
ĠĠĠĠĠĠĠĠĠĠĠĠĠĠĠĠ ĠĠĠĠĠĠĠ
an t
st ate
Ġd ate
fi l
I S
v a
Ġar gs
er s
ader s
Ġm odule
v el
lin k
ho st
1 0
Ġs hould
m d
ti tle
ig n
li t
Test Case
r ame
a ger
() .
pa che
par se
con text
object s
n el
Ġ version
c lu
Ġme ssage
'] )
ul l
ta ble
st a
d o
Ġin stance
as h
ĠE x
re ct
Ġ ..
b s
Ġdistribu ted
I D
ma x
c all
a y
c lo
Ġout put
Ġ error
scri ption
i ch
ma p
r ans
>> >
Ġ line
] .
Ġ \
li f
d ing
n ot
ut f
e y
Ġ le
m odel
lo at
Ġb ase
Ġ >
co re
ang u
Ġp o
angu age
Ġ+ =
s u
M P
Ġm ock
' s
Ġc opy
ig ht
lu gin
od y
') )
lic ense
tr ing
b in
[ "
all y
w e
D ata
Ġis instance
p s
u se
Ġi tem
Ġuse d
' t
Ġm odel
m odule
1 2
ĠC on
Ġsup er
lo b
re am
che ck
ro w
p r
d is
' .
Ġ 5
Ġc a
v ed
Ġc ode
in e
S er
n et
ul ti
o und
Ġm odels
Ġ z
to ken
i me
Ġin t
c l
con tent
m y
it test
u mp
Ġe lif
M odel
Ġn e
pro cess
name s
Ġs u
bu g
Ġst art
Ġg o
s ys
ise s
ol s
Ġo ther
n er
M e
y n
} )
b e
re ctory
Ġa g
Ġc heck
Ġ Y
a ction
o o
Ġc lient
" ]
Ġd b
Ġwh ich
c re
H O
i mage
and om
Ġ >>>
Ġin dex
n ew
i code
le an
ar ray
po int
Ġ /
ar k
me n
s g
or s
re f
Ġd is
si gn
Ġ j
C h
mo ve
ment s
up le
F ile
pa ck
b ar
opy right
el p
ĠU n
u al
Ġcon text
o me
F a
tr ans
A C
a p
c s
Ġcon tain
Ġdi ct
B ase
Ġc all
d oc
Ġlog ging
s ource
ĠD e
Ġ text
ĠS ee
Ġa uth
P I
Ġo pen
type s
le r
ĠI S
: `
f unc
Ġe vent
la ble
Ġ2 01
fil ter
lic ation
ĠĠĠĠĠĠĠĠ Ġ
R L
a x
Ġd ocument
H E
c i
mo ck
ft ware
Ġex pected
S et
ti es
set tings
Ġi d
( (
Ġvalue s
op en
sp lit
ĠRe turn
t ro
y thon
or ted
U p
co mm
co mmand
' ):
Ġ !
ww w
################ ################
ĠC opyright
ĠO R
p atch
Ġst ate
Ġwor k
pla y
on g
Ġ X
Ġs ource
pro ject
Ġre quired
ĠA N
i on
Ġcur rent
a ch
it s
er sion
out put
iv en
Ġ Ċ
fi ed
Ġwh en
Ġh ave
le ction
con n
Ġi mage
vi ron
Ġ |
Ġan y
EN T
Ġ one
Ġc al
se nt
Ġ! =
la y
E D
Ġ end
Ġfile s
que ue
Ġg ener
ind ow
al s
e vent
le ss
i tial
Ex ception
de lete
en v
T P
e p
p rint
Ġt ra
Ġ J
ut ure
Ġa d
ti ty
param s
e qual
ut o
ur ation
M L
assert True
D i
Ġi mp
S I
Ġ json
a k
Ġre g
Ġcon tent
field s
Ġr ange
Ġco mmand
is ter
Ġo bj
c ls
P ar
F orm
p lo
[ :
ch ed
tro l
op tions
tri b
Ġdate time
ta il
la bel
ith er
G E
Ġset tings
** **
ĠC ON
3 2
mis sions
Ġma x
pla ce
Ġform at
ĠO F
U n
} ,
ca che
V i
L ist
Ġ server
ar ning
len gth
t in
clu de
u ct
q l
Ġp age
in ter
IC EN
Ġ query
Ġspeci fic
pa ge
file name
lin es
value s
======== ========
ump y
ICEN SE
p ass
if y
F I
ame ters
Ġ valid
Ġn umber
Ġli mit
ra tion
Ġ up
id get
lo c
Ġpar am
c ri
ĉ Ċ
Ġw ri
s or
ĠM O
ock et
l at
r c
Ġpy thon
ser ial
Ġl anguage
alue Error
Ġ ####
f unction
st ore
Ġoption s
pro perty
che ma
R a
Ġg iven
Ġ template
Ġe ither
R AN
mb da
IC A
Ġb o
d jango
u id
e mp
ari able
Ġname s
: :
Ġ ver
fa ce
at tern
Ġo b
jo b
Ġ --
py thon
l an
st ra
T TP
in put
K ey
Ġm atch
po st
Ġ Q
ad min
ist s
Ġm an
DI F
ad ata
L O
Ġc od
t ask
tr y
Ġ utf
ex ec
Ġ kwargs
to col
u res
Ġon ly
Ġc l
Ġcod ing
li ed
Ġre ad
x y
ses sion
N ot
E n
sha pe
Ġarg ument
U L
l d
an nel
" .
u d
A D
Ġma ke
ĠY ou
Ġ view
clo se
ICA TIONS
r ange
Ġc ls
res ource
ta g
ro ot
un k
p ri
ust om
6 4
Ġto ken
ĠMO DIF
Ġ1 0
lo cal
{ '
( *
ĠMODIF ICATIONS
f uture
S tring
de bug
uti l
fe ren
Ġso ftware
00 00
co ding
key s
Ġb ut
bu ild
at ure
Ġt rans
Ġin put
Ġ ]
il ter
Ġb ack
Ġm sg
Ġt w
ĠC o
item s
Ġt arget
ri ver
ĠAN Y
ĠW AR
Vi ew
id th
ex ception
M A
con f
c cess
ĠP ro
t arget
el l
ĠĠĠĠ Ċ
I d
O T
si tion
G et
col umn
P E
Ġdi rectory
le ase
te ger
at s
IN D
ir st
er r
Ġ update
U ser
r an
la tion
d f
y le
ms g
Ġa ction
co py
m atch
ĠWAR RAN
IN G
Re quest
file s
A B
v ar
1 1
ate g
on ent
n s
gin e
ff er
2 01
a ke
ent ry
license s
TI ES
Ġpro vi
n p
ĠReturn s
Ġdo es
ĠV ersion
a in
or age
Ġg roup
de nt
pre ss
Ġh ost
di tion
Ġu sing
n um
Ġ vi
N A
Ġper missions
ra w
Ra ises
ch ange
f ter
(' /
Ġt able
c y
s ave
Ġm ust
ra ph
Ġ' %
Ġin ter
p k
sel ect
A r
Ġex ception
Ġs ize
Ġt ask
cor d
i mple
ĠP ython
pe ct
s te
ate s
t adata
i ter
ĠĠĠĠĠĠĠĠĠĠĠĠĠĠĠĠĠĠĠĠĠĠĠĠ Ġ
ĠA pache
C ol
Ġp ack
S e
h as
C O
T o
Ġ' /
ĠWARRAN TIES
t op
H andler
f ind
iz er
ĠW IT
C E
L icense
h andler
Ġ2 00
R I
fi r
ur i
o us
ti v
le vel
Ġro w
assert Raises
Ġu ti
Ġpro ject
)) ,
Ġ q
Ġh elp
to ols
Ġ 6
P O
Ġm o
Ġob tain
he re
HO UT
in al
Ġst atus
Ġn umpy
ver se
') .
ex ten
iz ed
)) )
iz ation
Ġapp lic
= [
L og
k er
T ime
Ġy ield
Ġhe re
Ġin to
pe d
as ses
Ġwri ting
con trib
va i
si te
e mail
m ber
fo re
Ġm in
x ml
cur rent
man ager
test s
ma tion
us r
M an
Ġparam s
n der
ĠB AS
D O
Ġcon nection
a pache
or der
ĠĠĠĠĠĠĠĠĠĠĠĠĠĠĠĠ ĠĠĠĠĠĠĠĠĠĠĠ
L ICENSE
s a
ol der
si t
ĠLicense d
Ġpar ser
o te
Ġfile name
Ġgo ver
b i
Ġf irst
Ġin st
ĠK IND
a th
Re turn
~~ ~~
Ġimp lied
Ġo ver
ra p
b ody
mis sion
o f
ES T
Ġex p
qu en
us ter
con nection
ĠWIT HOUT
00 0
i ck
Ġset up
re ed
P o
m on
2 5
li ance
le ar
Ġun ittest
he aders
par ser
o ther
( _
h a
pa rent
p ub
U S
auth or
Ġp ort
ol d
ch ild
") ;
Ġt uple
cri pt
ile d
tribu tes
in x
Ġcomp liance
I O
c md
og le
do main
< /
k ip
Ġapplic able
Ġd oc
Ġex press
ĠCON DI
at ri
" ),
ĠCONDI TIONS
Ġgover ning
ĠA r
ĠBAS IS
bo x
op tion
conn ect
T Y
m t
Ġ lib
ri d
sh ow
pre fix
Ġres ource
d out
reg ister
Ġt rue
et work
ol ume
Ġpa rent
la st
Ġla w
ĠV alueError
at ing
pass word
Ġag reed
ĠUn less
a st
fa il
al t
9 9
f loat
se arch
Ġso me
tern al
Ġch ange
r ate
ph inx
C lient
L o
p lugin
po s
Ġpro cess
C ON
s pec
Ġ' '
Ġfield s
Con fig
Ġne ed
us h
i ve
le t
user name
ĠB E
Ġm ore
Ġlimit ations
g ener
Ġe ach
Ġcol umn
a re
men ted
) ]
vai lable
V alue
b lock
f rame
Res ponse
Ġhe aders
pack age
Ġc ase
Ġun icode
Ġex ec
U N
u g
). __
Ġre t
st ack
scri pt
s o
c ted
U M
O bject
f la
s up
ĠU ser
Ġse s
th ing
0 4
pp er
sta mp
atri x
ex ample
ĠL O
n ext
Ġla bel
C T
Ġlo ad
ma ke
Ġ# !
feren ce
Ġde scription
sta tic
L I
orm al
AT E
Ġwh ile
Ġe lement
it or
ĠĠĠĠĠĠĠĠ ĠĠ
an ts
ĠA dd
st ream
ol ute
Ġresult s
p op
Ġ service
f low
r t
ĠI mport
el per
m ark
ol low
ĠM e
se nd
ab s
l t
] [
Ġp ri
n umber
v o
s pace
date time
Ġc or
fi er
m ary
d own
Ġ 8
yn c
ame ter
A dd
den ti
I L
ver t
Co mmand
f y
Ġo per
m ode
mo te
du ct
de scription
for mation
le s
en viron
Ġm ode
ĠĠĠĠĠĠĠĠĠĠĠĠĠĠĠĠ ĠĠĠĠĠ
Ġses sion
ction ary
vi sion
s um
Ġb ody
F A
Ġor der
f er
Ġs a
assertEqual s
Ġ.. .
Ġ#! /
Ġ: :
le ct
Ġlog ger
o ff
ĠEx ception
N ode
Ġf e
ex p
add ress
Ġma in
Ġ' .
ck et
n ow
M ock
A uth
Ġ title
Ġi mple
r andom
stri p
ĠP ar
re move
u tion
c er
Fa ctory
( __
lob al
un ittest
res sion
i ce
ĠI N
Ġw as
AS E
li ty
Ġa bs
ĠS t
Ġobject s
Ġget attr
si ble
as ter
Ġf loat
Ġcon n
T ML
Ġlo cal
al id
g o
ulti p
Ġf ound
Ġbu ild
i e
Ġs y
me ta
Ġal low
ĠT HE
per ties
Ġpack age
NA ME
ĠF or
V ER
Ġs ign
s with
net work
Ġ link
c ase
Ġto p
ched ule
2 0
Ġth read
U RL
ch o
con tain
Ġa pi
g en
Ġ val
N o
Ġth en
ĠN ot
r ary
lic y
Ġro ot
ig h
IN E
I s
li sh
Ġsh a
lu g
## #
Ġa b
ator s
C H
arg ument
at tribute
Ġla st
E X
A t
c an
n own
Ġat tr
K E
a tive
Ġex tra
di rect
Ġex ten
Ġtest s
pre sent
ur ls
C lass
is ted
et ch
u i
Ġco unt
en tic
Di ct
in st
Ġs ame
Ġt ag
ix in
e lement
3 4
2 00
bo se
_ (
Co mp
A pp
Ġ( "
Ġp art
ti fic
t on
C reate
Ġse e
id s
gra ph
as ic
tail s
Ġp os
on t
Me ssage
ls o
Ġset Up
re ak
Ġpar se
m od
Ġres p
ĠĠĠĠĠĠĠĠ ĠĠĠĠĠ
ĠB ase
bo ok
ser ved
cal led
ex ists
Ġdi ff
A d
Ġco mm
read y
. "
Ġdef in
'' '
ex cept
Ġn um
1 6
Ġa fter
ample s
ĠĠĠĠĠĠĠĠĠĠĠĠĠĠĠĠĠĠĠĠĠĠĠĠ ĠĠĠĠĠ
ĠU RL
able d
h ash
T he
A Y
f g
ĠN O
fir st
{ }
-------------------------------- --------
i o
qui re
Res ource
comm on
Ġch ild
l ask
UL T
B u
T ext
d le
Ġc lo
ĠĠĠĠĠĠĠĠĠĠĠĠĠĠĠĠ Ġ
con d
w ar
di c
col or
Ġf la
Ġ' __
der r
ĠĠĠĠĠĠĠĠ ĠĠĠĠ
Ġe d
Ġh andle
re place
late d
Ġh andler
de s
ok up
T H
de l
tin ue
st op
Ġde l
ĠA PI
Ġf ind
Ġla mbda
f ul
Ġpass word
ĠĠĠĠĠĠĠĠĠĠĠĠĠĠĠĠ ĠĠĠĠ
O P
id dle
w idth
Ġin fo
log ger
Ġco m
MP L
-- -
f s
Ġar ray
ateg ory
i que
sys tem
re q
Ġ temp
trol ler
Ġspeci fied
Ġr andom
error s
A TION
ĠW e
Ġs w
[ -
la tive
Ġs p
r ule
Ġc md
Ġ[ "
Ġf unc
Ġy our
plo t
Ġca che
5 0
c p
__ )
ĠĠĠĠĠĠĠĠĠĠĠĠĠĠĠĠĠĠĠĠĠĠĠĠ ĠĠ
ĠA ll
ĠS tring
f in
ĠĠĠĠĠĠĠĠĠĠĠĠĠĠĠĠ ĠĠ
is h
Ġ" %
ĠĠĠĠĠĠĠĠ ĠĠĠĠĠĠ
form s
mp ty
co mple
Q u
set up
ĠĠĠĠĠĠĠĠĠĠĠĠĠĠĠĠĠĠĠĠĠĠĠĠ ĠĠĠĠ
Ġ ""
Man ager
en gine
p orted
w h
C a
Ch ar
'] .
ĠG et
p c
he ader
en code
Ġf ilter
a v
Ġconfig uration
z er
ext ra
Ġbu il
H TTP
P ath
( {
Ġargument s
Ġv ariable
ver y
de red
ca le
co pe
A P
s ten
comp ile
str uct
. ')
Ġin itial
Ġ qu
Ġin formation
' }
Ġcreate d
1 00
d river
Ġ te
a ctor
Q L
Ġa x
ĠC reate
p attern
o b
Ġf ollow
Ġ right
um my
time out
c li
Ġ 9
res h
ra pper
t xt
Ġre nder
P ER
I mple
Ġfa il
ing s
ter min
Ġa ct
**** ****
ge x
or d
ĠA n
ĠS et
i str
h andle
Ġat tribute
ex pected
ĠT O
Ġb lock
ĠF OR
back end
Ġ 7
at ures
Ser ver
Ġpo int
o uld
Test s
Ġdata base
set s
dition al
st yle
Ġor ig
den tial
pen den
call back
app lication
class method
Ġch ar
Ġo p
quen ce
R un
O C
ĠD ata
Ġabs olute
exec ute
Ġcol lection
" ))
Ġit s
'] ['
n g
du mp
t ree
ultip le
ĠImport Error
i de
Ġcon tinue
i b
I tem
Ġn on
FA ULT
. ")
ĠĠĠĠĠĠĠĠ Ċ
di a
ON E
E vent
Ġde st
low er
Ġn ext
s y
re po
ĠS E
ES S
Ser vice
Ġex ist
g it
ul ar
G IN
u uid
he et
iddle ware
Ġtime out
te ra
Ġi ter
T ER
lo gin
vi der
Ġdi r
Ġf in
-------------------------------- ----------------------------------------
Ġlo c
ĠK ey
Ġex ample
Ġreturn s
me tadata
as si
ig ration
ĠH TML
lat form
z one
Ġa lso
se n
ex it
sha red
sc a
Ġw rite
ĠE X
result s
M ixin
Ġhas attr
ro und
ect or
un icode
Ġc ustom
S ON
D B
S S
Ġhe ader
Ġa uto
Ġthe re
Ġa vailable
SI ON
Ġauth or
Ġof f
Ġc re
re pr
Ġsh ow
s ume
Ġp ub
Ġin clude
Ġp ost
t w
a ct
Ġhas h
2 4
__ ,
Ġpre fix
GE T
con ds
o ver
fa ke
ĠĠĠĠĠĠĠĠĠĠĠĠĠĠĠĠ ĠĠĠĠĠĠ
ĠF I
\ \
v es
s chema
am l
t rue
in k
c en
Con nection
si de
ĠT ype
we b
e ar
m ory
st dout
ch ar
Ġ entry
ĠH TTP
t mp
la mbda
dir name
Ġ serial
arg v
loc ation
U R
lo t
A l
Ġ job
sh ip
el lo
Ġo pt
d ocument
th read
Ġsup port
pp ing
Imple mented
Ġst ream
Ġ1 2
Ġo ld
Ġf rame
Ġen coding
ing le
A G
ol ver
ch annel
ĠA t
arning s
Ġ err
ac tive
user s
Par ser
ption s
Log ger
] ))
Ġcal led
Ġ{ "
on ly
Q U
Ġs ocket
in sert
Ġdocument ation
ker nel
im al
Ġkey s
Ġpar ameters
Ġdi ctionary
cre t
Ġlen gth
http s
ĠC ol
ĠA UT
ĠL ist
L INE
ro p
ĠĠĠĠĠĠĠĠĠĠĠĠĠĠĠĠ ĠĠĠĠĠĠĠĠĠĠĠĠĠĠĠ
li ce
as sed
ge st
= ['
ĠIn c
L Y
comm it
b a
fa ctory
Ġw here
v en
Char Field
TY PE
T rans
i k
ĠG ener
li ter
A PI
Ġbe fore
Ġt a
. ,
ta gs
G roup
ĠĠĠĠĠĠĠĠĠĠĠĠĠĠĠĠĠĠĠĠĠĠĠĠ ĠĠĠĠĠĠ
Ġcall back
start swith
Ġadd ress
Ġli ke
ce iv
Ġe mail
ri de
) ):
0 2
Ġ> =
co der
( ['
plo y
Ġb reak
= {
Ġrequest s
view s
da y
Ġn etwork
T E
Ġitem s
Ġac cess
Ġp la
St ate
di ces
i mp
= (
bo ard
B U
P AT
ĠC h
an el
ĠT H
A c
] :
Ad min
` .
Ġle vel
M O
a ti
Ġmethod s
ac cess
y load
istr y
t uple
o ok
Ġse arch
Ġp lugin
C all
Ġuti ls
Ġth an
ĠE n
DI R
Ġs ix
ĠR es
s rc
as on
te x
Ġa ss
Ġtw o
Ġtype s
Ġcol or
li mit
c lean
Ġen v
stra ct
Ġs cript
t x
z y
ex c
by tes
Ġp attern
assert False
s w
', '
ran ch
a ded
de code
di ff
ĠS er
C L
ĠN o
emp late
ta ch
exception s
ra ises
3 3
Ġf ull
r s
re c
O K
Ġ lines
KE Y
T R
ĠD E
In stance
ĠI t
t ml
t ot
= %
Ġn ow
OR T
Ġbe en
Ġerror s
N D
", "
ph a
T his
Ġ' --
Ġ queue
Ġ' _
S D
w d
g r
ren der
ĠNot Implemented
lan k
s ure
Ġse nd
AT ED
del ta
Ġ license
st ats
Ġ' -
I P
i ces
tra in
pro file
5 6
gra m
/ %
i pe
xt ure
Ġre f
Ġre present
ight s
me mber
P RO
P er
te p
Ġsys tem
1 8
str u
ĠI MP
ol y
.. .
: %
u sed
qui res
T h
de v
F rame
f fix
Ġre q
O G
O ut
E lement
b ind
Ġco mple
per i
u red
Ġimple ment
Con tent
( {'
F or
' ^
U P
group s
Ġ &
te red
ve lo
de vice
Ġ $
Ġt ree
ug h
ĠA pp
Ġm ark
O F
Ġdo main
st orage
node s
Ġma p
In dex
Ca che
( ?
al led
load s
un ter
Ġapp lication
Ġwe b
po ol
l ing
3 0
Ġwith out
s ocket
op er
a uto
f n
C heck
f ull
Qu ery
re t
TI CE
Ġe mpty
ge d
ĠTH IS
w idget
l ue
F rom
ceiv ed
D ate
( **
Ġreturn ed
w indow
le ep
Ġ} ,
Ġde tails
Ġ ON
Ġre po
Ġr ule
liter als
Ġf oo
wor ds
Ġde lete
ĠAr gs
Res ult
T ask
w ner
Ġex c
Ġs pec
E L
ĠNO TICE
ĠP y
Ġe q
1 5
Ġp assed
dential s
assert Is
v olume
cl asses
off set
i ff
s ql
Ġ --------
ac count
Ġre lative
W ith
A ction
me r
__ ':
ĠS e
valid ate
to m
viron ment
Ġb in
ĉĉ ĉ
cl uster
ĠTO DO
Re g
B y
a it
Ġtw isted
i ble
ys tem
P re
add r
message s
ist ory
Ġuser name
re quired
ri es
w ise
Ġp atch
Ġal ready
an o
Ġ1 00
ro ugh
in ce
ith ub
ec ted
com ment
n on
Ġre verse
s age
ser ies
Ġ ###
================ ================
s m
Ġ' \
li ke
Ġs imple
ul ate
den tity
oo lean
Ġre move
sh ot
b ot
bi lity
Con text
si mple
ĠI F
u ter
v ate
Ġst yle
it ch
Ġg raph
Ġi m
Ġat tributes
sit ory
re en
lay er
ra g
re lease
PO ST
Ġs ql
+ )
ti m
Ġprovi ded
Ġs ingle
ca use
PAT H
Ġ ge
ro ute
ĠNotImplemented Error
ok en
pre c
: ]
bu il
emp ty
ĉĉ Ċ
5 5
Ġj ust
h elp
ge s
contain er
Ġch annel
bu ffer
1 4
id x
Ġd on
an not
ĠC heck
ol ve
en coding
pro xy
Ġh tml
si s
ĠDe fault
ok ie
ĠE ND
ut ton
Ġst a
V alid
late x
r and
or ig
m i
w ard
Ġ sel
ĠFI LE
s ue
Ġ< =
ĠS o
denti fier
Ġdiff e
Ġstr uct
F OR
de st
G ener
c ry
c ent
" ],
Ġla y
s v
in itial
Ġme tadata
z ip
le ft
Ġm y
Ġurl lib
child ren
s q
col lection
EN ER
'] :
O r
or ter
p end
8 0
Ġi p
ore ign
ĠA uth
= {'
ti l
D own
E T
t al
ce back
Ġgener ated
D is
module s
oc i
" ):
clo ud
es sion
H e
Ġs ure
g reg
Ġ} )
UM ENT
" ])
st derr
ut able
a il
Ġme ta
al i
I mage
Ġc ho
b it
Ġver bose
ste ad
tri c
di fied
im um
di rectory
ed i
con st
so le
an y
Ġby tes
T able
op ts
w rap
Ġm app
ction s
in valid
C ode
Ġ Z
s kip
get Logger
ĠP er
Ġw indow
Ġfa ke
A nd
Ġpar ameter
ri ter
Ġfollow ing
Ġsha pe
point s
S ta
p l
ĠM ock
al y
ĠF ile
Ġb et
che my
Ġpath s
S ER
e ff
Ġd type
S ub
Ġ' ',
ra tions
ic s
comp onent
s lug
Ġa li
Ġg lobal
Ġx ml
1 9
di st
ang ible
ER R
Ġre cord
Ġd own
wa it
Ġoption al
sume r
L ay
---- ---
s ort
su ccess
Ġd f
LE ASE
################################ ################################
stra int
s ome
par t
Ġra w
] ['
Ġw idget
cur ity
ke ep
Ġinter face
u x
Ġfunction s
s ample
s heet
ic al
) [
D o
test ing
di v
AB LE
ax is
In fo
Ġl ong
Ġpro perty
X X
] ),
ĠI D
ri c
Ġ select
tot al
ĠI P
A MPL
ĠD OC
Ġcontain ing
mo st
A n
po sition
ĠBE GIN
n ap
In valid
Ġ% (
Ġthe y
ĠR un
L oc
AMPL ES
Ġsub process
Ġc lean
r f
Col umn
0 3
M S
W AR
Ġthe m
In teger
and ard
F ilter
Ġad min
v or
s phinx
Ġfor ms
def in
S h
Ġt ri
Ġs orted
L e
ue ue
Ġz ip
attr s
is sing
res p
A s
f etch
ct x
RO PER
DE FAULT
ĠDOC UMENT
Pro perty
ĠSE E
S u
B o
al low
event s
O L
Ġb ar
nt ax
ENER ATED
Ġsw g
1 3
st f
ĠD ONE
Ġswg py
lo op
ĠM AY
~~~~ ~~~~
Ġcor rect
Ġdis play
In ter
Form at
ĠEX AMPLES
Ġs alt
ĠP LEASE
i ft
ste p
c ies
ĠDOCUMENT ATION
ĠON LINE
Ġmessage s
Ġgener ate
OG ENERATED
ĠAUT OGENERATED
2 2
ĠLO ST
ĠIMP ROPER
ctor ies
V ersion
stf Name
ĠIMPROPER LY
ĠH ttp
ĠO pen
ĠCo mp
i tion
w n
ir s
dis play
Ġin clu
Ġbe cause
Ġf il
Ġm on
le ctor
Ġcon st
Con tain
Ġst op
Ġthe se
op t
we en
D es
Ġcomp onent
re p
( -
Ġw ant
abs path
on ce
Ġsta tic
time stamp
ho ok
tic le
Ġs ave
Ġnode s
dump s
Ġs um
AC K
re cord
j a
d type
Ġdi re
ĠN ote
Ġto tal
Ġex ists
vi ous
Ser ial
ĠN ame
N umber
Ġback end
pro tocol
ro le
chedule r
l ush
O S
inst all
g or
j s
Ġdi st
se cret
il y
Ġlo ok
Ġv ar
el se
Ġ' ,
" >
w in
F ound
pub lic
ĠA d
s peci
k nown
un it
Ġin stead
' })
Pro cess
f older
Ġ" /
c le
m aster
Ġp k
g ithub
F unction
p u
g ument
data base
. *
nt ry
Ġch unk
Ġbo ol
N O
Ġde bug
$ ',
Ġin teger
c at
v m
l anguage
che me
pro perties
log ging
Ġ' <
ser v
Ġ ter
Ġdoes n
al og
D S
Ġinst all
li ght
g ger
ĠG o
Ġp ick
At tribute
sh ort
ĠPar ameters
Ġ ),
S tr
h elper
BU G
re st
wa ys
F F
ow er
ĠType Error
d ot
gor ith
T EST
ĠAt tribute
comp ute
a a
V alueError
res ses
Ġp h
po licy
row s
ĠD jango
Ġab out
ĠO r
ĠA s
h en
FI LE
se ction
le x
ot o
fil ters
n ormal
oreign Key
A ll
in s
T O
se e
c c
] ]
L ine
he ther
US ER
app s
ĠD ocument
ab c
Ġpage s
tiv ity
sh ould
mb ol
c lear
Ġuser s
gn ore
Z E
Ġstring s
N S
c ss
di m
Ġcontain er
Ġad ded
le ted
A GE
create d
ĠMe ta
Ġta gs
port s
Ġt mp
Ġthe me
Ġn ormal
ĠĠĠĠĠĠĠĠĠĠĠĠĠĠĠĠĠĠĠĠĠĠĠĠĠĠĠĠĠĠĠĠ Ġ
Ġcon f
id den
ex pr
Ġcl asses
T ra
F e
exten d
m ulti
or k
entic ation
x x
he ad
ti fy
Ġde vice
en ch
c la
Ġw arnings
pro vider
ĠJ SON
u ff
tra ck
Pro tocol
[: ,
Ġdefin ed
column s
ta ct
Ġf lask
ĠCon fig
Ġs pace
lo ader
F O
Ġw idth
'] [
Ġexten sion
Ġex pect
V AL
ĠĠĠĠĠĠĠĠĠĠĠĠĠĠĠĠ ĠĠĠĠĠĠĠĠĠĠĠĠĠĠĠĠĠĠĠ
% (
m k
t c
F la
e q
pro duct
e val
Ġoff set
ch unk
Ġre direct
in ation
er o
Ġth rough
ig rations
Ġun ique
A M
} .
Ġs ite
image s
W idget
Ġs ort
Ġact ual
() [
Ġpro tocol
ĠL ICENSE
ĠN OT
resource s
tem s
Ġst ore
Ġbe ing
Ġ" .
D AT
fla gs
Ġre mote
Me thod
label s
. '
= _
Ġo ur
ag ent
nap shot
In put
s pa
R ES
Ġs rc
s ted
ad o
cur sor
tific ation
") .
Ġse ction
re al
Ġvalid ate
ERR OR
C RE
7 8
y p
Ġorig inal
le m
assert In
ent ries
p id
en tity
Ġuti l
Ġdiffe rent
si tive
S ize
ab el
path s
Ġx range
E d
ĠCol umn
ĠT o
St atus
the me
Ġcollection s
P lugin
at tributes
ten ant
ĠString IO
Ġloc ation
AS S
fi t
vo id
Ġin it
si g
Ġcl uster
ca st
AL L
IT Y
f d
wa y
sa fe
Ġreg ister
ed it
Ġ[ (
Ġsu ccess
penden cies
Ġtime stamp
package s
Ġ2 0
Ġ-------- --
e ction
Ġen ume
Ġpla ce
doc s
W OR
' },
Ġ ):
m ask
Ġ1 6
s cope
EN D
Ġ" \
Ġe very
Ġcontain s
Ġf i
Ġs chema
re set
Ġs m
ro ss
li te
_ ,
Call back
M odule
Ġcolumn s
ĠLO G
e g
Ġ' {
TI C
Ġc li
Return s
s leep
names pace
u ch
war ds
) ])
ĠĠĠĠĠĠĠĠĠĠĠĠĠĠĠĠĠĠĠĠĠĠĠĠĠĠĠĠĠĠĠĠ ĠĠ
ĠRe quest
Ġcur sor
S C
b atch
o auth
Ġpo sition
re l
V er
me d
v ariable
Ġname d
ĠV alid
---- -
re r
P y
Ġt ake
plugin s
g ate
ut ron
lin en
action s
Ġg en
Ġbet ween
Ġse cond
ĠS phinx
SE T
l ong
to ol
Ġpy test
Ġevent s
o se
Ġp lt
st d
si ty
he ight
G I
__ .
g h
return s
Ġsup ported
c r
Ġs kip
C P
Ġ ti
Ġ[ ])
Ġst dout
Ġnames pace
Ġthe ano
Ġv ari
Ġf n
Ġre place
/ '
c fg
m atrix
P ORT
man age
n ull
Ġs tep
Ġm od
Ġbase d
Ġco re
E nd
- %
t od
de cor
p th
Ġde cor
fer red
ĠB SD
s l
or n
Ġg ra
g ress
Ġrun ning
im g
Ġlib rary
bu f
ĠR E
de sc
`` .
d ar
tri cs
da p
Ġs ample
Ġpos sible
T oken
P L
ĠL o
O n
} '.
r type
ver age
bu cket
g ments
t k
(' \
re lated
Ġc tx
jo bs
i ent
ti tem
Ġac count
Ġh ow
fic ation
ĠP o
Ġ201 5
Ġexception s
um b
w er
Ġst ats
Ġcon vert
Ġa ut
B ack
O pen
mo ved
Ġcom ment
/ ',
Ġf alse
ST R
() ))
b ad
ol ution
Ġen tity
ish ed
reg ion
Ġax is
me an
fe atures
Ġfin ally
R o
ut or
p ol
w s
Ġst ack
4 2
Ġpar sed
Ġlink s
P age
ĠG roup
) '
ĠT h
Ġpro b
Ġ# :
EX T
ho me
Ġenume rate
Ġ" __
h ex
(' %
TI ME
cor ds
re mote
IT E
es ted
1 7
f mt
T ree
sg i
Ġm ultiple
de tail
si ve
ĠM y
ĠEx ample
Ġtest ing
re direct
al chemy
ri tems
0 5
S H
s core
Ġ201 4
W indow
r l
U B
Ġdefault s
Ġattr s
b asic
ĠKey Error
ation Error
Ġapp ro
feren ces
pub lish
I G
ĠI mage
Ġpro file
I nt
Ġdocument s
> '
Out put
Ġno va
fi xture
VER SION
O ne
static method
Ġn ull
get text
ra m
Ġtra in
gener ate
N G
Ġgo ogle
Add ress
Ġ keep
h ello
Ġm atrix
for ce
ag ic
ĠGo ogle
Ġc er
se c
SI ZE
li sten
Ġfor ce
ĠSo ftware
c ard
m ar
ra ise
M M
Ġhttp s
lo okup
S ession
or ity
Ġme mber
con troller
Ġle ft
Ġright s
Ġfa iled
li me
ĠCo mmand
inter face
Serial izer
c ustom
re verse
pro to
row ser
Ġman ager
ĠM odel
to re
local host
Ġchar ac
Ġw x
ĠTest Case
u de
page s
6 0
v s
Ġg it
Ġw ait
ver ify
sca le
change d
in dices
` ,
a f
lic it
st at
pattern s
Ġpo ol
Ġcontent s
per mission
Ġh igh
ma c
I M
linen o
St ream
sign al
ĠA l
y ear
n one
v is
yn am
template s
Ġclo se
Ġag ain
en abled
Po int
h er
par ts
se q
ar Down
u ally
du ce
4 04
Ġv olume
Ġsp lit
e ve
Ġd t
o red
ne cted
Ġ join
p latform
par ameters
Ġ- >
g ment
la b
Ġc fg
li ties
P C
) "
4 4
Ġi gnore
sign ed
T emplate
Ġpro perties
W S
ĠU se
Ġexec ute
Ġ ################################################################
E C
F oreignKey
Ġre al
O per
ha vi
d t
content s
Ġass oci
V E
(' .
Ġen code
Ġre served
gorith m
() ),
in clude
Ġcomm on
' re
C lo
Ġd river
pi pe
s alt
Ġmodule s
po se
ver bose
Ġsign al
und le
T ag
Ġin valid
Ġm ulti
pen dent
ta b
Ġst ri
Ġmo di
ser ve
Ġper mission
agic Mock
8 6
go ogle
no red
ong o
c ing
12 34
Up date
bo ol
Ġimplement ation
ĠAttribute Error
c b
Ġre lated
A UT
) ;
Ġpart s
Ġre tri
Ġcal lable
stru ctor
se conds
Ġvariable s
penden cy
Ġre st
M igration
r pc
Ġcommand s
ord in
Ġlo ck
ed s
O ptions
__ __
Ġw hether
ĠT ime
******** ********
Ġthe ir
p g
Ġb atch
ĠD i
re port
default s
') ),
s amples
su ite
g rid
un ch
Ġre ference
ti st
Ġb lank
(" %
an ti
pi ck
ĠM ake
Ġse nt
g round
Ġfla gs
Ġ ],
O ption
Ġu uid
G raph
n umpy
Ġse conds
__ ()
re gex
ĠĠĠĠĠĠĠĠĠĠĠĠĠĠĠĠĠĠĠĠĠĠĠĠĠĠĠĠĠĠĠĠ ĠĠĠĠ
S ource
g f
fa ces
Ġs ince
res pon
ĠS ub
u di
Ġen vironment
0 9
ou ble
Ġconn ect
Not Found
Ġthread ing
ro t
ome try
cs v
co ls
de o
ma tic
Ġwh at
X ML
or iz
Ġw rap
task s
Ġpro duct
ĠO n
Ġ201 3
Ġ ##
Ġ' ')
exten sions
zer os
Ġse quence
own er
ĠS QL
n u
c ategory
Ġsh ort
Ġdi rect
ign ore
peri ment
Ġan other
S QL
O UT
Ġn et
Ġ late
Ġtemp file
ance l
ĠO S
Ġdis able
v ing
Ġc types
Ġfa ctory
Ġver ify
Ġchange s
ix ed
Ġsu ch
2 3
P S
s k
prec ated
ĠQ t
M iddleware
me dia
Ġlo gin
Ġoper ation
f lush
Ġw ho
(' -
Ġset ting
f alse
Ġma th
U E
en ter
Q ueue
bo ve
Ġdi vision
ĠO ptions
:` .
ĠR a
t z
pa re
table s
Ġinstance s
Ch ild
ex pi
ĠN ode
mo unt
ĠO ption
P a
xt ures
Ġse n
Ġg lob
M ap
ĠB u
scri be
25 5
ten sor
Ġcomm it
Ġexist ing
data set
end point
RO M
lo aded
Ġdata set
re quire
Ġ# ------------------------------------------------------------------------
Ġun it
set Up
Ġs k
py test
p b
se curity
ur ing
Ġp lot
ĠS T
Ġpa yload
i ed
ce ll
fi ers
Ġman ual
Ġupdate d
Ġro le
ali as
me di
Ġpre sent
8 8
ĠQ u
di ent
var s
ĉĉ ĉĉ
ute s
li m
ase s
WAR E
' \
Ġlo op
Co unt
pa yload
bin ary
th is
bo ot
v ari
Ġin s
exten sion
Ġre ason
command s
W e
, )
Sta ck
Ġme r
link s
Ġpro xy
AN D
ch ain
V I
Ġre port
ss l
Ġdef er
si x
DE BUG
S ystem
b ed
w arning
ma th
ch ine
Ġp ipe
or ies
mp y
D F
LO C
f name
Ġend point
Ġ uri
i ver
de ploy
G L
d at
Ġs im
Ġfil ters
re ference
Re ad
Ex ec
Ġbo th
mp t
di re
Fa iled
la zy
ust ome
Ġtuple s
comple te
con trol
Ġtemplate s
H ttp
Ġsh util
up load
en ce
De fault
Ġmapp ing
OR S
l int
vi rt
Ġ kw
AN G
Ġst derr
ar ge
Ġr v
Ġid x
Ġvi a
ynam ic
cho ices
Ġw ay
reg istry
trans lation
ĠHttp Response
trans port
Ġst orage
(" /
Th read
Ġi o
Ġc ategory
Ġs ide
Lay er
dis patch
ite ritems
a fter
request s
Ġrow s
ble m
tern et
h istory
m iddleware
Ġhe ight
g lobal
TI NG
Ġwor d
velo p
Ġe val
ĠĠĠĠĠĠĠĠĠĠĠĠĠĠĠĠĠĠĠĠĠĠĠĠĠĠĠĠĠĠĠĠ ĠĠĠĠĠĠĠ
Ġu sage
Ġbuil tin
Ġpri mary
r r
} }
ist ration
Fa il
Ġre p
Ġw ould
ĠS imple
top ic
ti tion
D U
Ġre quire
Ġfe ature
r b
Ġw rapper
Ġi g
ha pe
Ġsu ite
y aml
h s
ĠD o
service s
Ġal pha
M o
c d
i er
g a
Ġbin ary
fa ct
u ted
I f
__ ":
is tered
time Error
FOR M
w ik
Ġex it
MA X
L en
Ġs ig
s ock
in f
Ġcon trol
un ct
copy right
Ġco uld
Ġ[ ],
Ġ_ ('
St art
co un
St orage
Se arch
ur al
Ġbu ffer
ĠB y
Ġ_ ("
Type Error
ce l
lear n
ar ies
is ten
Me ta
Ġ% }
> \
ĠAN D
C S
12 3
inter val
ct ype
u ce
Ġneed s
Ġm issing
ĠĠĠĠĠĠĠĠĠĠĠĠĠĠĠĠĠĠĠĠĠĠĠĠĠĠĠĠĠĠĠĠ ĠĠĠĠĠĠ
handler s
Ġto ol
Ġcon ver
f fic
Ġ( (
Ġ" <
ti cal
tiv es
Ġed it
Ġuse s
run ner
Ġlabel s
AUT H
Ġcomp ile
Ġopt s
ĠU p
ar ted
we ight
Ġpub lic
Ġpattern s
ĠĠĠĠĠĠĠĠĠĠĠĠĠĠĠĠĠĠĠĠĠĠĠĠĠĠĠĠĠĠĠĠ ĠĠĠĠĠ
c u
Ġlo okup
su ffix
6 6
LO G
M IN
es ca
} ".
E ntry
Ġre n
Ġre pr
i a
Ġre lease
B e
Ġ --------------------------------
un ds
C l
Ġcomp ute
server s
Ġapp end
ĠC lient
Pro xy
sup er
Ġallow ed
ĠE vent
Ġre actor
Ġcal ls
Un less
Ġtra ck
Ar gument
P ython
ed ge
Ġexten sions
war n
Ġe tc
b ranch
trans form
host name
Ġview s
Ġex t
Ġkey word
serial ize
ut c
Ġli sten
k s
no te
Ġad ditional
us age
Ġelement s
greg ate
me mory
ĠS h
') (
Ġ ])
base name
P AR
Ġp latform
Ġtra ceback
pro t
N etwork
Ġreg ion
Ġexp ression
ĠW hen
sup port
E CT
Ġm at
D ec
di tions
ĠRe served
a vailable
ustome r
ro ll
ĠAuth or
Ġs cope
Ġ{} )
7 5
li p
mon th
Ġt r
ER S
ex clude
P ack
c imal
ic ro
ee ded
Ġa bove
Ġin dic
Ġo wner
RO OT
o ols
rule s
p ng
Ġcal c
P ort
__ .__
L S
Ġpre vious
() ]
Ex ten
Ġwith in
i dentity
ĠI O
Ġsu ffix
un ique
by te
la ck
Ġal ways
App lication
i tes
up lic
Ġother wise
er ies
Ġb ind
Ch ange
---- --
d ash
f time
y per
Ġper form
ĠL a
Ġb ranch
P RE
men u
O f
mis sing
Ġte arDown
Ġ1 1
U D
n a
Ġk ind
Ġf older
Ġpro gram
LE CT
ci i
per ly
d one
Ġen sure
ĠW indow
tod ay
B ar
ma pping
cli ck
Ġhe ad
ĠR ights
an ization
pro p
L ink
FI G
ĠIn dex
pri vate
fla g
'] ),
edi rect
se cond
Lo ader
w here
velop ment
mo x
S tore
tw o
update d
me th
Ġpub lish
Ġsh own
S chema
3 6
me tric
pa ir
quest ion
mb ed
Ġsu bject
Ġquery set
T e
at tach
res olver
RE AD
a z
Ġspec ify
fe ed
Ġen ti
ĠP RO
'] ))
Ġfla g
ma g
AC E
Ġs q
one s
up per
Ġde sc
P UT
component s
p lan
Ġpick le
Ac count
ST AT
P Y
st ub
de rer
Ex ist
al k
p ush
ĠL og
Lo ad
Ġim g
A g
work er
Ġc op
Ġ1 5
`` ,
co ver
po ch
ba z
4 0
am ily
Ġse par
Ġpoint s
app en
H ER
element s
w sgi
Ġre ceived
c m
ĠO bject
t ten
Ġd one
RE QU
Ġcan not
backend s
IN T
v as
Ġre quires
ME T
resh old
O wner
Ġi tera
ut ing
Ġh elper
assert Not
g t
on s
ss h
di stribu
Ġsql alchemy
Ġtoken s
de pendent
xt ra
t t
re quires
ren ce
ĠT emplate
Ġp op
Ġac tive
Ġsh ell
cal ls
l ash
Ġis sue
gra mm
be fore
Ġc lear
Ġ3 2
HO ST
ati ble
se ed
H ost
R en
le g
Ġb ot
Ar ray
om ment
S A
que sted
C ur
Col or
der s
B O
Ġsy mpy
b utton
M ENT
ĠT ra
Ġex pi
C annot
qu ote
Ġpackage s
ĠD is
is sue
ĠV er
ĠT ext
Ġraise d
ation al
Ġf p
ro y
) *
s ync
Ġ Error
ĠF orm
L L
G ui
Ġex pr
Ġassoci ated
Ġ mp
Ġ" --
Ġimage s
Bo x
D ir
ac tiv
Ġso uth
Ġf ont
w riter
Ġig nored
7 7
Ġw in
b lob
Fla g
r ing
instance s
Ġadd resses
f ree
s pe
ti ce
ĠL oc
CON F
######## ####
cre ment
:` ~
SS L
Ġre set
end swith
g lob
LE D
op s
c ut
> <
name d
Ġmatch es
Ġoper ator
ĠGener al
Do es
s lice
app engine
h older
it ter
host s
ass word
G R
Ġn eeded
Ġo c
(' --
p ted
sh ell
Date Time
ce ive
con vert
co s
Ġme an
ca ched
Ġbuil der
Ġm ask
H T
fi ll
IN FO
Ġcor respon
ĠB e
ces ses
f lat
state s
Ġin dent
Ġst andard
ra ft
k it
Bu ffer
Ġe ven
ĠP O
ex ist
or ary
Ġle t
Q t
201 5
IL ITY
ĠDE FAULT
J SON
S L
ĠT rans
pend ing
b stract
ĠD ate
esca pe
TH ER
. %
ad ded
g b
Ġ' *
Ġinst alled
Ġter ms
Ġ1 000
( \
ĠIn valid
_ .
al pha
2 1
Ġm aster
f ont
Ġ" -
fe ature
eff ect
ench mark
ter m
)) .
re lation
Ġor m
/ ')
C re
me m
Ġpo licy
Ġ >>
if est
Ġp ut
time s
iz ers
: \
p to
down load
orn ado
ar n
Ġ3 0
lay out
Ġover ride
sup ported
pk g
( %
sing le
Ġp d
Ġs pa
m at
un ic
() ):
bo und
Ġman y
b r
b l
us ing
lue print
Ġcopy right
and as
Ġno te
in dent
. ',
ar s
in line
app ly
mo ves
res sed
da ys
a e
Ġme nu
ĠTest s
Ġset attr
config uration
vo ke
M et
Ġm igrations
Ġcre dentials
/ {
ĠF ROM
Ġoper ations
argument s
ron g
Ġh and
Ġinter val
get attr
N ew
over ride
W arning
set default
mo dified
Con troller
dis k
Ġup load
Ġby te
Ġtrans action
Ġchild ren
S imple
an e
Y ou
sw itch
co unter
De lete
dir s
tra ce
CON T
per missions
unk nown
.. ..
p anel
Re f
Ġcon trib
Ġurl parse
Ġ201 2
Ġa p
Ġs lug
d rop
Data Cache
, ))
WOR D
r st
in ja
Ar gs
Ġc ell
Ġe qual
b al
su bject
al le
cor rect
Ġcomple te
as cii
Ġf etch
end ing
Ġon ce
cer t
defin ed
Ġdirect ly
Ġb ad
M atch
al most
FI X
Ġs ci
re lative
d ummy
Ġf inal
g pu
sc al
Ġstate ment
Pro file
ĠT w
C C
T op
ĠRe g
s orted
Ġre moved
S pec
ro ve
Ġman age
Ġlay er
Ġ ------------------------------------------------------------------------
ĠL anguage
Ġbu f
Ġg ot
Ġf low
M ulti
Ġno se
, '
Ġp e
Ġbu cket
Ġac cept
con sumer
M y
AN T
Ġde ploy
Ġ" ,
ces sed
. )
tific ate
Ġm ost
OF T
co okie
Ġfe atures
ne ss
zer o
Le vel
comp at
G e
DAT A
3 5
ĠA c
cal c
0 6
Ġpy lint
ul ation
Ġgroup s
fail ure
Ġcho ices
D ocument
( """
di gest
ĠS ta
Bu ild
ĠS ystem
Ġchange d
Ġin ternal
is instance
P anel
ser tion
la p
Ġ ))
Not Exist
Ġdi men
L isten
F L
Su ite
lib rary
Run ner
Ġapp ly
[: -
ro uter
Ġde termin
token s
String IO
Ġwork s
Ġb it
U ID
Ġbe havi
Ġex ternal
Ġde pendencies
ch ron
red uce
g l
MPL ATE
on y
per m
b b
ar m
ĠThe y
re v
V ariable
Ġb asic
Ġde code
cho ice
Ġst at
Ġprovi des
Ġsetup tools
Ġ -------
Ġraise s
def er
ty le
P ost
Ġwor ld
Ġsub class
Ġ" {
s cheme
Ġst ored
c f
Ġf ig
st one
n n
re ader
pro c
1 000
P T
j ust
s d
ĠF ield
12 7
i od
Ġf ree
ĠX ML
ar is
k ind
se p
Ġarg parse
F oo
R el
Ġcon si
3 7
Ġins pect
g g
ĠO ut
Po ol
ee k
Ġpk g
Does NotExist
') ]
P ri
Ġi denti
re vision
OFT WARE
ab i
dered Dict
cri ption
.. /
J ECT
Ġcase s
Ġ{} ,
" }
contain s
R ange
in ternet
method s
buil der
B oolean
CON FIG
Ġun til
ist ri
S y
ari o
ĠRes ource
speci fic
B lock
Ġin v
Ġs cale
ĠWindow s
ou gh
L EN
Bu il
T arget
ĠCon tent
vi sit
r v
er nel
Ġo wn
Back end
te am
ub lic
ĠH e
Ġh ook
B ad
u ses
Ġch ain
or ds
ĠF ound
ate r
query set
Ġtask s
Ġsel ected
unct ools
R edirect
ti o
ĠPro ject
Fail ure
re try
ume ric
ĠRes ponse
fo und
ix el
Ġf d
ĠRun timeError
Ġco mb
pri ate
Str uct
W riter
z z
wh en
i ti
Ġre view
stra p
Se lect
t d
environ ment
Ġdecor ator
ĠE lement
ĠB o
sc en
ĠMe ssage
ĠC lo
ĠD B
in el
D R
w atch
Ġu gettext
Ġen gine
Inter face
c wd
buil tin
Ġst d
Ġre gex
Ġdire ctories
Ġme mory
Ġrepo sitory
Comp onent
] *
W N
ar a
Ġbuil t
re view
de lay
: '
Ġt ab
Ġinclu ded
Ġo auth
no va
Ġfe ed
len dar
te ration
i ted
n an
25 6
T RI
AB ILITY
plot lib
com ments
set ting
ĠĠĠĠĠĠĠĠĠĠĠĠĠĠĠĠ ĠĠĠĠĠĠĠĠĠĠĠĠĠĠĠĠĠĠĠĠĠĠĠĠ
ĠD ec
) /
W rapper
n orm
ĠM igration
Co mm
Ġse q
Ġm d
ar ds
Ġ_ ,
version s
ĠThe re
Ġwork er
Ġ entries
' "
2 6
s chedule
t ty
Ġg l
S ign
LE TE
Ġat temp
MO DE
matic ally
] ])
cry pt
U SE
ge titem
2 9
Ġsha red
Ġre lation
ac y
a ut
f p
ĠIn itial
p ower
w rapper
M ode
ex pect
ĠM o
run ning
ĠI nt
Ġq s
H ello
am o
Len gth
Par se
H TML
q a
Ġappro priate
OR Y
A ME
O M
Ġ6 0
Ġin te
Ġ( %
option al
process or
Ġdata store
Ġto o
ul a
Ġprovi der
fa ctor
auth entic
ock er
fail Unless
U RE
Ġprovi de
istri bu
Ġd st
Ġbut ton
con sole
Ġ //
red is
gener ator
in teger
UL L
Ġwe re
Ġ ,
Ġtable s
ĠUp date
cess ary
ph er
ĠSer ver
c tive
ul lable
ĠD ummy
ref resh
de tails
B ASE
fi gs
ĠĠĠĠĠĠĠĠĠĠĠĠĠĠĠĠ ĠĠĠĠĠĠĠĠĠĠĠĠĠĠĠĠĠĠĠĠĠĠĠĠĠ
ys ql
yn chron
CO L
ĠS OFTWARE
z en
me trics
o pe
Ġf lat
L abel
ĠC ustom
Ġ- =
Ġt s
Ġtime s
Ġapp en
N OT
/ $',
i dentifier
Ġ[ [
ir d
st ant
la tions
Ġi dentifier
Ġtime delta
cp u
ar r
Ġen able
B utton
([ "
Ġali as
]) .
pi ent
ĠF ake
': '
AC T
Ġgener ator
8 4
Man y
Ġfail ure
2 7
Col lection
D river
manage ment
gramm ing
Ġma il
div id
HER E
H elper
Ġdown load
Ġuse ful
valid ation
in der
play er
abs olute
le nt
ĠT e
ed itor
Integer Field
N ING
Auth or
Ġsci py
Ġv ector
_ %
ĠR ed
ub e
Ġsa fe
Ġrun ner
He ader
. \
as ure
assertIs Instance
helper s
" '
in ternal
== =
A ccess
g res
', )
Set tings
Pro vider
Ġoc cur
Ġresource s
Ġd at
a va
ou ter
Ġed itor
V ENT
Ġb ound
C ore
lo ts
exp and
state ment
mit ted
ve c
ĠV i
_ )
Ġversion s
t angible
ĠĠĠĠĠĠĠĠĠĠĠĠĠĠĠĠĠĠĠĠĠĠĠĠĠĠĠĠĠĠĠĠ ĠĠĠĠĠĠĠĠĠĠĠ
re quen
ĠT angible
ĠM agicMock
ab stract
L ib
Ġvi sit
ri end
w arnings
Par am
Ġiter tools
' %
ut ors
g ame
be ta
ci sion
Pro ject
A pi
D ATE
M app
Ġinclu ding
k ed
all close
ci pient
Ġ5 0
cor ding
trans action
STAT US
w x
(" \
ue st
Ġo k
cre en
Ġmodi fy
ĠBu ild
pa per
open stack
e v
or ator
orig inal
Ġin sert
Ġy aml
Ġen viron
SE LECT
Ġar ch
h n
IN TER
Ġs c
Ġne utron
and id
man ual
FORM AT
as ync
ex ternal
Ġextra ct
3 9
i re
al ity
Ġrepresent ation
d st
fir m
e m
=' ',
Ex p
> </
Ġdistribu tion
ff ect
ul k
ĠThe se
co res
frame work
J ob
= -
Ġsource s
C an
C TION
e ver
) ',
Ġno qa
in es
Ġe st
in c
sub process
Ġspeci al
ra ps
m q
u int
ĠT able
config ure
k a
s napshot
201 4
document s
un i
gener ic
Ġw ell
c red
ĠR o
co me
En coder
ĠW ork
Ġbe gin
Ġrule s
Ġlay out
Ġme ans
) (
/ "
V ar
Ġse cret
ĠQu ery
Ġop tim
cre dentials
b its
ĠM IT
input s
Ġlo aded
Ġnumber s
Ġs ock
Ġb oolean
Re cord
0 8
ĠT ask
divid ual
work flow
N UM
il ar
fi es
h igh
Ġadd r
d r
ler t
ffic ient
b lank
A uto
MA P
Ġf it
member s
Ġag ent
Ġc y
d raw
Ġimport s
h q
se nder
re ason
Ġs cen
(' _
Ġcl assi
Ġtrans form
lo cale
sis tent
repo sitory
ĠL I
ateg y
W ork
> "
Ġ4 2
de leted
ti fact
Ġse nder
// //
ok ies
Ġk now
val s
Ġas sign
pla in
s n
Ġset s
h our
Con trol
i con
as y
LO W
const ants
Ġme tric
sum mary
Ġd uring
Ġd ump
Ġvari ous
ut ation
] ):
o tes
ing er
ĠN umber
si m
si an
clo sed
extra ct
se quence
velo per
a vi
Ġbo x
cen ter
peri od
2 8
Ġcon ditions
project s
l ang
( ('
pe at
Ġst ill
is o
P R
Ġ termin
r up
Ġ ur
Ġ201 1
mer ge
Ġch art
Ġserial izer
Te X
D ES
d ns
ri ft
Ġhttp lib
Ġbe low
Ġz ero
g mail
Ġp ixel
sca pe
] +)
Ġca ched
ra ys
mb ols
Ġcurrent ly
pri mary
f inal
ati bility
Ġpro to
S p
AR T
Ġf uture
ang le
fla vor
ĠM an
i pping
ol l
Ġlo ader
Ġitera ble
\ '
ĠRe ad
um an
bo o
DE D
ĠIO Error
fi xtures
RE CT
Ġth ose
O p
S M
Ġs lice
oper ator
Format ter
aris on
. ",
C ho
S ec
([ [
] +
Ġy et
Ġ ).
Ġauth entication
Ġclo ud
1 99
fa iled
Ġdis patch
Ġmer ge
Ġdis k
Ġsome thing
lay ers
script or
gra de
ateg ories
ed ges
ĠF lask
v ance
Ġde leted
all back
ĠP ost
so ft
S up
Par ameter
ĠIn teger
Model Admin
Ġinput s
HE AD
[: ]
con nected
add ing
Ġal gorithm
De vice
In itial
Ġsub lime
q s
ro id
PI PE
dap ter
Ġaction s
D ER
r m
ex port
Ġg rid
Ġa st
ĠP re
pt ure
u ation
Ġde precated
B UT
ma chine
S o
sq rt
ĠEx amples
I F
Ġd ot
ĠC O
CO MM
r p
__ ),
Ġ-------------------------------- ----------------
ce iver
su ch
ĠWe b
Ġcharac ters
Ġf name
0000 0000
CRE T
si d
change s
an k
Ġsup p
A X
Ġno tice
Ġme dia
Ġ[ ('
Ġdel ta
Trans port
v ector
si z
Ġex clude
process ing
udi o
ĠSer vice
D oc
J o
get value
ful ly
P assword
con dition
ĠLa TeX
te ct
Ġcorrespon ding
m ultiple
et c
s pi
Ġ[' _
Ġvalid ation
Ġper son
MA IL
bo b
Ġtop ic
p oly
rap pe
4 5
REQU EST
Ġ1 3
Buil der
i fied
Contain er
l on
Ġconst ants
M D
Ġv m
sp an
ĠOut put
her it
m as
> ',
Lay out
P ES
en able
for med
OP Y
pe t
Ġor g
uplic ate
Ġtake s
Ġpar tic
Ġz one
Ġos lo
ĠC OPY
s parse
g ative
Ġf ix
Ġauto matically
ĠOr deredDict
0 7
Ġmax imum
Ġhash lib
p n
ĠO ther
('/ ')
Ġagain st
Ġstruct ure
Ġs cheduler
} '
Ġcon straint
De ferred
Ġrepresent ing
Loc ation
ĠC ode
list s
le ting
Ġu s
tex info
Fa ke
ĠCon nection
medi ate
Ġwor ds
decor ators
ĠC re
si red
Ġf unctools
sel ected
lo gs
comple x
amo unt
Ġdoc s
U ti
m u
DI S
c v
col ors
o id
ĠN e
C al
Ex it
man y
Ġ ?
Re ceived
al g
Fe ed
ro ad
Ġs core
ĠC a
Ġdef ine
u ate
M IT
ro zen
Ġ' )
cl ar
Ġco unter
iz es
wik i
Ġlo cale
Ġen abled
con tact
Ġdefin ition
rec v
target s
string s
ar ange
Ġb lob
ma pper
Ġi con
IC E
h one
Ġbehavi or
Ġc v
Ġmatch ing
Ġdist utils
Ġse curity
sy m
time r
ĠA S
Ġdest ination
A A
Ġsy m
g its
en u
Ġallow s
__ ))
Ġi ds
Po licy
in ary
Ġc sv
Ġne cessary
Ġre quested
FI L
Ġt ran
Ġin dependent
__( *
Ġp andas
gra tion
ro les
qui ck
oriz on
Ġd ummy
AR Y
Ġf ill
at om
ten d
res olve
Ġfile names
Pro gramming
Listen er
Ġ1 4
du cer
TE MPLATE
pipe line
Ġ series
de pth
Ġlo wer
Ġle ast
5 9
ut down
ĠĠĠĠĠĠĠĠĠĠĠĠĠĠĠĠ ĠĠĠĠĠĠĠĠĠĠĠĠĠĠĠĠĠĠĠĠĠĠĠĠĠĠ
Ġ[ -
tri es
ĠW S
ĠX XX
ch art
wor ld
Ġde scri
ci pe
ip s
T emp
Re ader
w all
Ġlate r
ĠDocument ation
: -
B ACK
S cript
Ġre cur
w ri
Ġp ush
ĠF a
p tr
time zone
7 6
Ġmo ve
3 1
{ {
ir c
Ġd raw
Ġmat plotlib
Exten sion
p red
Ġto day
) ],
mo re
par ameter
m ble
d uration
ot a
ast ype
5 00
H andle
an aly
Ġis n
as set
Ġpy py
Ġimple mented
I ME
ĠLo ad
ri ve
mo us
Ġren dered
ĠVi ew
Ġs cheme
par sed
ĠU SE
per son
M on
ĠN etwork
let ter
Ġed ge
tera ctive
j or
ti ck
bo sity
f un
Ġp id
Ġin dividual
S tyle
allow ed
c ancel
as sign
Ġb its
Ġlist s
MA IN
= ""
Ġma ps
ep copy
dash board
Ġ' #
Ġpre v
O UR
Ġpro p
ĠFound ation
Ġorig in
sub net
co st
ren cy
ste ps
add Callback
rag ment
R ule
li es
E mail
ĠAUT H
exec ution
Ġre l
Ġm ight
ic ally
c ce
Ġcon sole
count s
fix ed
vel y
Ġbe st
M ES
ĠM odule
back up
Ġwrap ped
G B
Ġimple ments
exp ression
Ġp r
Ġsign ature
We b
ĠP Y
Ġcon troller
4 00
F low
n ail
struct ure
Ġa void
Ġa mount
sq lite
Ġexec ution
e lem
code s
201 3
ten ded
L ock
as te
Data base
Create d
201 6
script s
Ġme m
Ġass ume
Ġde cimal
et ri
ĠF unction
Ġpri vate
Ġre vision
Ġper iod
ial og
Ġp l
Ġtime zone
Ġcomponent s
Ġw arning
Ġ lin
Ġd ay
con straint
Ġreg istered
ame ra
AP P
__ ['
Ġp i
Ġy ear
G ER
ĠS y
Ġn ullable
ĠL ine
p us
Ġc s
Ġcall ing
Ġexp licit
E W
I mport
ĠA R
ĠG e
listen er
li ve
ac cept
be gin
P ASS
Ġco okie
Ġme trics
dic ate
with out
9 0
ĠM ulti
Ġ2 5
_ ):
ra di
Ġex act
Ġconnection s
Ġh ome
Ġco ordin
ĠI mp
ti t
oper ation
/ (?
SI G
, ),
sc reen
sign ature
ĠAd ditional
am ma
re cords
Ġe v
Ġact ually
Ġst uff
Ġbase string
igh b
+ +
Ġhost name
: ])
ti le
comp atible
FI EL
Gener ate
SER VER
Ġp lay
Di ctionary
equal s
P ick
ge o
Ġt x
Ġma de
co very
pol l
G HT
56 78
C I
Ġcon sumer
re es
Ġp lan
Ġl arge
al th
ĠC al
Ġpa ir
h i
U RI
ĠO THER
for um
pre pare
serial izer
Ġc ross
Ġd id
Ġm ime
ĠT EST
res hape
Ġlo w
OR E
i tions
re actor
Ġk ernel
ref s
Ġwri ter
Ġn s
mon itor
Ġenti ties
fi re
e le
Ġ' '.
STR ING
log y
SE CRET
gra d
requen cy
Ġr df
Ġit self
Ch annel
Ġcli ck
g reen
run time
Ġi dentity
ou se
Ġmon th
p x
auth ors
W rite
Ġ201 0
And Return
m igrations
IN ST
Ġat tach
Ġmo dified
ĠAr gument
clean ed
b log
te cted
ch an
ra ble
ĠD AT
g z
lo pen
ag ing
Se quence
al loc
Ġ< <
b reak
{ %
co pi
cal ar
/ <
TY PES
Ġan not
ig rate
[ ^
n ect
Ġin dices
Ġl on
U rl
ul ated
ĠO ne
Ġtrans port
resolver s
Ġc at
vi des
ĠĠ Ċ
re a
UN T
Ġre try
PRE FIX
b ig
C A
ĠH ow
om ial
tw isted
late st
Ġvi m
* .
h y
si tions
Ġpar tial
ĠQ ueue
sub scription
Time out
Ġh istory
Ġ" _
ly ph
ĠIn stance
Ġwork sheet
ĠPer mission
g ation
b ile
I mp
a ys
ĠOn ly
Ġt ornado
Config uration
ĠValid ationError
8 9
m ysql
Re ference
m c
R ow
ĠS ome
O B
reate r
En gine
CL ASS
f ollow
orig in
Ġn orm
Loc al
c ity
d l
Ġre cords
di stance
Ġro ute
Ġsupport s
Ro le
main ing
W or
Ġk nown
ĠF e
Ġwe ight
To ol
base d
Ġwri tten
tific ations
_ :
Ġ urls
log o
Gener ator
line ar
Ġhandler s
se par
Ġa round
len code
source s
Ġc la
Pack age
Ġw atch
AC HE
il ing
in te
ener ated
Type s
arch ive
> `
un pack
variable s
Ġe lem
ke t
n x
Ġgo od
t l
Ġte am
tri gger
Ġ} }
g p
Ġro uter
b ra
umb nail
Ġpipe line
ue ss
Ġauth entic
4 9
Ġap pe
h idden
ĠV ER
iv ar
p df
pri ce
Ġreg istry
Ġsy mbol
ĠNOT E
: ',
11 11
Re gex
s ame
d c
ag raph
ar b
e ded
m ime
Ġover write
serv ation
Ġs leep
ĠM atrix
File s
EN TI
Ġwork ing
ĠI s
Ġ ()
Ġan aly
De fin
function s
Ġco un
Ġcre ating
Ġ1 9
Ġab stract
S ocket
Ġback wards
j ax
ĠOS Error
AG S
Ġcorrect ly
ard own
S ome
d ouble
DI A
f c
std in
li ct
ĠL e
S V
Ġp ur
ĠĠĠĠĠĠĠĠĠĠĠĠĠĠĠĠ ĠĠĠĠĠĠĠĠĠĠĠĠĠĠĠĠĠĠĠĠĠĠĠĠĠĠĠĠ
is dir
# ------------------------------------------------------------------------
de pendency
â Ķ
Ġt z
) ')
Ġd rop
process ors
en sure
d x
Un it
ĠAdd ing
f req
ĠWS GI
exec utable
ĠN ew
Ġa ff
ls x
rep ly
con v
CO MP
Ġfin ished
is file
time delta
8 5
Un known
Ġinitial ize
ĠRa ises
b rowser
g u
DE LETE
la ve
di men
ĠS ession
F i
Ġde ri
ĠP AR
Ġcop ied
O ver
sc an
Co uld
cl assi
r al
qui va
F loat
see k
Ġs amples
ol ved
U I
') ))
gin ator
Ġservice s
TING S
B asic
in v
ĠI tem
ke s
Ġupdate s
Ġsa ved
ca p
ĠG raph
par tial
Ġdi stance
tra ct
inter faces
Ġ ll
Ġcon structor
') [
Met adata
at ar
Ġcon dition
Ġencode d
scal ar
Ġpro blem
Lo op
Ġopen stack
et s
Ġcharac ter
C RI
D ialog
li ck
ĠU RI
Des cription
Po sition
Ġ lineno
ur ity
response s
Ġbot tom
lim iter
Ġde v
ĠPro cess
ra c
Ġsy ntax
an cer
Ġmapp er
C ESS
ise d
ĠO Auth
ĠQt Gui
ĠC lass
g y
ĠP ath
g ot
channel s
L ast
On ly
ri s
Ġd s
M in
a ff
"" )
ites pace
In line
sub mit
di ctions
LO AD
e cho
ou ght
Ġsk learn
' d
sign als
pick le
ony mous
P ACE
Ġse ss
Ġsw itch
======== ====
ff set
Ġ10 24
Ġs imp
Ġstate s
eff s
A li
valid ator
ĠPro tocol
Ag ent
TRI BUT
in ner
Ġs sl
Ġres olve
M ax
T EXT
ĠB ad
cl one
Ġa tom
Ġpa irs
int s
ĠP ublic
ĠN S
Ġclo sed
ĠAd min
abi lity
col lector
Config ured
b um
Ġr ate
s in
DU LE
Ġplugin s
Me mber
ser ted
c us
ul ator
Ġ""" )
In st
ĠĠĠĠĠĠĠĠĠĠĠĠĠĠĠĠ ĠĠĠĠĠĠĠĠĠĠĠĠĠĠĠĠĠĠĠĠĠĠĠĠĠĠĠĠĠ
00 1
Per mission
Ġn x
VAL ID
E xtra
âĶ Ģ
F T
Ġin side
Ġn ested
Ġter m
prec ation
Ġm s
m ongo
12 8
key word
pa ces
tr an
Valid ationError
sub scribe
r aries
ry pto
Or der
r u
ĠIn ter
Ġtri gger
Ed itor
C opyright
\ .
Ġstri p
n b
Ġone s
IC ES
Ġre ferences
Ġfail s
(' <
Ġac tiv
stri ct
sy mbol
ĠPO ST
ĠA nd
Ġt yp
ses sions
pro j
ip v
de li
Ġb oto
RI GHT
Ser ies
CO DE
g on
Cho ice
ĠS H
ON G
Ġiter ator
ĠF oo
rite ri
Ġe p
ĠS chema
spec s
ĠO per
Ġs n
url lib
C lean
____ ____
pri ority
sy ntax
Ġ2 4
de g
b undle
l n
(" -
Ġwork flow
assertNot Equal
} /
un its
h ow
Ġg ame
comp ress
Ġcore hq
Ġcer t
x s
Ġp layer
Ġh appen
h at
Ġde n
ate way
Col lector
Ġcheck s
D jango
n ed
Ġno thing
NA MES
(' .')
IG N
Ġf mt
ĠPar se
k lass
se gment
ĠP age
exist ing
set ter
vis or
quiva lent
mo di
AS T
R PC
Ġfa ctor
LOC K
ĠC LI
7 9
pre v
Ġun known
col lect
Ġcre ation
road cast
F C
Ġapp s
Ġcomp are
e f
od oc
pro gress
âĶĢ âĶĢ
ĠCh ange
n ested
y es
vi sible
pro b
DI RECT
read line
Ġorder ing
S U
S ite
Clo ud
ly ing
Ġro und
Ġ4 04
du ction
we ights
Ġs can
ĠRe move
se mble
sel ection
re cur
ce pted
op tim
vi de
Co mple
Ġtra it
Ġwe ights
Ġ( -
j ar
LI ST
VAL UE
Ġre dis
en ti
pa y
ĠC an
CL UD
d n
ĠM GL
account s
Ġlisten er
am ble
wh ich
: "
= ["
ro perly
ad ap
({ "
U sed
W IT
file path
ĠV alue
Ġpro c
ro u
Ġresponse s
) }
pre vious
Ġca use
tmp dir
thread s
sent ry
ae mon
( ',
no tify
S um
W R
foo bar
Ġc b
ile r
Ġdefault dict
Ġoutput s
Ro ot
O bj
li er
pend s
de pendencies
al ign
w eek
re ceive
network s
ĠGener ic
Ġs pe
g i
ro s
ver s
ĠInitial ize
> ')
c ustomer
Ġde lay
ĠW HERE
A TIC
Ġgener ic
M ake
Ġun its
Lo okup
defin ition
) \
fa st
Ġarg v
dis able
H ash
or ph
ĠS hould
match es
~~~~~~~~ ~~~~~~~~
ĠS up
comp are
############ ###
P TION
Ġstart ing
Ġse ed
add resses
Field s
R C
str ftime
Ġro t
Ġ jobs
pa irs
= ('
C LI
oc ial
sertion Error
Ġse gment
block s
qu are
Ġ2 55
ok ed
C K
Ġcon struct
ĠCon text
ĠLoc al
vi con
0000 00
' ll
R ed
ĠC l
Ġerr no
C ustom
ĠA ction
Cannot Contain
Ġindependent Data
" \
Ġh ref
Ġx s
cs rf
act ual
Ġe scape
T ab
c um
s cheduler
ĠG ET
list dir
pre dict
float ing
Ġretri eve
h ref
ti ces
DateTime Field
M ark
Ġvi deo
Ġpri ority
or ing
Fe ature
tra ceback
ĠSt atus
Ġal ong
En tity
sh ift
Name s
" /
glob als
r ant
ĠC omment
Ġcom ments
N e
Ġ tenant
Di rectory
OK EN
j am
Ġ201 6
Ġ[ {'
ex e
ro om
wa p
Ġs phinx
Ġd ash
Ġreg ular
assertIs None
an tity
Ġpar sing
Ġpro gress
ne utron
h ist
Ġe mit
ab ly
MA G
201 2
T F
Ġde sired
V olume
Ġbo ot
a ws
ol ds
+ '
clean up
activ ate
con figs
St ub
ier arch
Ġstr ftime
th reshold
ment ation
Ġcl one
Ed it
Ġb rowser
(' ',
ĠAn y
bind ing
Ġin ner
al ler
AD DR
ty p
ĠA lso
th ought
cal lable
R andom
Re po
de mo
Ġp oly
Ġ$ {
A bstract
Ġf ixed
ph one
Ġs te
Re port
Ġno tification
p ad
w t
ĠO ver
deploy ment
AP PS
CLUD ING
Ġ' [
I ter
ĠC ur
ĠE d
rid ge
r d
de p
frame s
Ġn d
Pa rent
T OKEN
Ġpartic ular
roperly Configured
f amily
Ġs chedule
it le
} \
ĠM ark
k ing
ĠUn icode
DO MAIN
ĠSt art
Text Field
g le
vi deo
connection s
tit ude
ar ticle
Ġk lass
" %
2 000
Ġ1 8
L D
================================ ================================
e poch
ĠG it
ĠJ o
End point
Ġcontrib utors
d raft
ten ce
I ST
Ġt urn
format ter
normal ize
for ward
mt ree
ja va
hook s
Ġt m
ĠS tr
dest roy
Ġd uration
A F
C ACHE
com ing
di ms
Ġblock s
V ICE
c id
ĠT oken
tic s
im ate
C R
ac l
Ġframe work
ĠVER SION
ĠĠĠĠĠĠĠĠ ĠĠĠĠĊ
') ])
example s
U ST
mo bile
ĠData base
al f
av ing
E MAIL
N U
on ical
ĠVer ify
ĠP a
ĠCo mm
ĠDE BUG
par tition
imp l
ĠF loat
bi lities
Ġback up
andid ate
Ġth ings
sent inel
SET TINGS
MET HO
rup t
Ġse en
Ġtrans lation
diff e
3 00
Do main
Ġcol ors
Ġaut og
Ġthread s
ec tive
lo ss
AN CE
output s
- >
Ġdetermin e
Ġse c
o site
Ġm is
no tification
TIME OUT
Ġs ync
Ġst arted
ĠA D
Ġlo gs
boo lean
p lt
Ġhost s
St ats
n i
ĠS top
I Z
Ġconfig ure
cre te
OC K
Ġ4 00
pre sen
N ESS
ER CH
Ġcomp atibility
6 5
h ave
{ "
er ge
Ġm k
Ġre cent
j ac
T CP
ag gregate
ĠDe lete
Boolean Field
PASS WORD
: ",
data store
AL LED
ERCH ANT
RO UP
map s
3 8
ĠT ag
ĠApp lication
i um
Lib rary
Ġde pth
r n
alle l
M agicMock
w b
=' /
Ġ200 9
get ter
ĠT ry
ou te
Per son
pl us
Ġ ################################
Ġre ader
ten v
k t
Pro duct
RE D
Ġserial ize
Ġan sw
ri des
ĠE ach
Ġ tensor
se titem
ĠData Frame
ĠS ite
url resolvers
Ġra di
s li
st mt
si tes
ĠOption al
Top ic
ch dir
pro gram
tain er
ion s
inger print
H as
Ġfla vor
Me mory
t ar
Ġcomple x
OUR CE
de le
x is
as cript
ĠP ack
99 99
Ġto ols
sub class
Ġfa st
vari ance
w alk
Ġrun s
Un able
fin ished
M ultiple
d om
Ġget s
Ġlocal s
Ġcho ice
Ġfake s
Ġpixel s
author ized
Re p
Contain s
le v
ad ing
Ġvalid ator
Al chemy
Ġex amples
Ġpro mpt
ĠEx ec
ynchron ous
man ifest
UN K
st ar
ro ved
ate ri
ĠS SL
p in
Ġv is
Al low
M T
S end
a lect
la ce
parser s
Valid ator
ntax Error
ado op
utc now
4 8
g ui
Ġreg ard
C HE
Ġserver s
at ype
Reg istry
en um
Ġ5 00
Ġtarget s
case s
Ġkey words
trans late
g un
ĠIndex Error
CONT ENT
Ġma c
av ascript
ĠPo int
> =
Ġc m
Ġdi rec
DAT AB
/ {}
Ġar r
UN D
W E
rand n
ang ing
IT NESS
st o
=" %
b est
Co effs
comple ted
Ġm ar
co gn
ĠE ns
org anization
r ng
C omment
Re actor
=_ ("
Ġtheme s
**************** ****************
a red
ver ter
Ġh ex
pro g
"] ["
Ġali gn
Ġ'* '
Ġt b
ctype s
Ġqu ote
dest ination
i an
ce book
ĠL ib
ca pa
M enu
F R
Ġre c
Ġco ver
ra tio
serv able
let on
decor ator
B inary
ke e
MO DULE
oriz ont
Ġcompile r
al lation
Ġin Coeffs
Exec ution
Ġsq lite
Ġs heet
Ġs creen
ĠD A
En vironment
r df
en sor
Ġne ver
local s
D ummy
rag ma
Ġhand ling
N um
f lask
Ex pected
pro mpt
Ġany thing
G o
sub lime
201 0
Ġ"" ,
rand int
ked irs
d p
h ot
Mapp ing
U sage
V AR
Ġ1 7
P open
ERCHANT ABILITY
L a
Ġre v
us sian
Ex ample
ze ug
Ġglob als
Ġrelation ship
f fi
([ (
window s
Ġma g
Ġpla ces
UL AR
sec ure
T w
Ġg reen
mk dir
Ġd ue
LI ED
Ġside bar
T S
} :
} {
Ġb undle
b lue
k zeug
ur ther
in i
ho od
ĠN ow
spa m
char s
Ġnormal ize
_ {
key words
AS K
v id
ĠĠĠĠĠĠĠĠĠĠĠĠĠĠĠĠ ĠĠĠĠĠĠĠĠĠĠĠĠĠĠĠĠĠĠĠĠĠĠĠĠĠĠĠĠĠĠ
CH AR
t b
in ct
Ġt y
wrap ped
# '
b lack
Ġ' :
Ġvi rt
compile r
widget s
Re quired
By tes
Ġsupp lied
li o
'] ]
St op
e mit
ad ow
Function s
ĠH andle
Ġfoo ter
cut s
. '''
g id
un der
Ġimp orted
) ")
str ument
e k
g gest
nd array
cript or
a mp
g is
Ġreplace ment
Ġg rr
Ġs napshot
format s
Ġle ss
Ġprocess ing
9 5
Ġ{ %
AN Y
Auth entication
M B
Ġqu eries
Ġ" (
post gres
Ar g
ĠOther wise
Re mote
ite rable
fake s
ĠM ERCHANTABILITY
Ġa ctor
Ġconfig ured
s lots
ĠEns ure
th at
/ .
_ '
i fication
ĠĠĠĠĠĠĠĠĠĠĠĠĠĠĠĠĠĠĠĠĠĠĠĠĠĠĠĠĠĠĠĠ ĠĠĠĠĠĠĠĠĠĠĠĠĠĠĠ
Ġsign als
u tions
Ġth ree
po sed
ĠO K
Ġmark er
i denti
T ri
Ġn one
Ġu i
or ation
get cwd
do es
ĠMe thod
Test ing
Ġexp and
IM IT
end or
Result s
fo ot
ran k
ĠPer son
mark er
res sions
den ce
Ġdimen sion
Ġre ST
Ġre duce
o ted
ĠU sage
Ġco st
Ġpro duce
ĠDe leting
inst alled
Trans form
s ur
Ġver y
ĠTw isted
Value s
Ġdir name
ct l
O b
Ġchunk s
M issing
c mp
ĠB oolean
stru ction
c nt
Par ameters
lic ies
Clo se
6 7
u a
us ters
PO SE
l as
fin der
C om
T er
ĠC or
ĠW rite
S Y
u da
ver sed
Tra ck
er ce
ma y
Ġs v
Con straint
iv es
Re move
s yn
Ġpro perly
Ġ'/ '
" ].
st it
iter ator
virt ual
ĠF ilter
Ġhigh light
Owner Id
P oly
] }
ta ched
orizont al
tri p
ma le
ĠD es
Ġ ----------------------------------------
ĠD on
assertIs Not
m time
ee p
Ġpack et
veloper s
Ġg a
ge om
Di ff
Data Frame
go od
Ġsel ection
] ],
ĠR el
Ġmake s
jam as
tes ter
wh ite
Ġdire ction
coun try
A V
S UB
el ls
http lib
Ġin serted
le mb
Ġs sh
Ġtrain ing
ĠP lease
k ill
me s
PRO JECT
in ux
At tr
ge ther
ad ditional
ĠA bstract
Ġautog enerated
ff ff
ĠDe velopment
Ġp ower
authentic ated
Ġc red
Ġcon nected
vai la
Pick le
* (
Ġun pack
initial ize
8 7
ex periment
TH ON
ĠSe arch
de epcopy
Ġs ur
ĠA uto
j id
ch or
Ġcon tact
/ ?
ĠS ign
Ġup per
i co
de cla
is ode
it al
Ġca pa
Item s
h ara
t cp
ĠW or
ĠS kip
Ġcode cs
ĠAr ray
Ġm u
Ġcon v
par k
Ġh our
Ġread y
Ġc r
ĠAdd ress
C HO
le cted
er os
ĠIn put
Ġ{} '.
Ġbu g
Ġc i
ĠS peci
> ,
lemb ic
Ġc c
ation Test
Ġformat ted
Owner Account
` )
Ġp ol
ĠP UR
mo ving
AR D
M atrix
Ġdoc test
volume s
pi x
e fficient
Ġ 64
co okies
ĠP lugin
bot tom
Su ccess
Ġinst anti
boot strap
= {}
M AC
Ġsim ilar
copi a
Ġa v
Ġ" #
Ġr pc
Ġma chine
ID D
uff le
it ude
i dent
update s
ĠConfig uration
r ator
Ġfunction ality
Ġtra ce
flat ten
Ġp anel
Ġbe ta
ub lish
DE X
find all
ĠO UT
En um
F S
P ipe
p m
4 7
ĠL IMIT
pre ter
C UR
m ust
Ġt f
Ġb ig
Ġgener al
vaila bility
re size
Ġback ground
MA GE
ac quire
Ġinitial ized
I R
ali ases
1 0000
E mpty
r mtree
Ġ question
bu s
Ġex port
ĠDec imal
Ġp s
Ġdi m
Up load
Ġrep ly
ĠIP v
WOR K
siz es
v l
ot ype
t n
Ġu id
ist ic
lin ux
ĠAr ticle
19 2
o om
able s
Ġa ble
set attr
ĠImp roperlyConfigured
de c
Ġw rong
il li
init y
client s
quen ces
Oper ation
S tep
reg istration
b and
Ren derer
B C
split lines
P lan
un til
ĠT ree
ĠB asic
iv y
A IN
Cur rent
select or
p ing
in ed
to ur
Ġ serve
og ram
Fi xture
ĠPUR POSE
I teration
p du
Ġres pon
Ġper m
gra dient
Ġsum mary
ex act
Ġl ang
Ġwork book
Des criptor
ĠTe am
Ġp print
ma kedirs
url patterns
ST ATE
Ġle g
spa wn
, -
re ceived
en der
Ġs yn
Ġdimen sions
W ait
vi le
ro ker
icro soft
O Auth
() ).
Ġla zy
eg g
st arted
ne eds
Ġtemp orary
Ġf req
bo unds
Ġexec uted
! !
h and
tr l
TIC ULAR
ĠC all
edi a
N ET
C ategory
Ġ4 0
a gs
() ])
Ġed ges
ĠTh read
Ġattemp t
d y
Ġex periment
Ġref resh
be at
201 1
} ),
ER Y
ir cu
Ġmember s
] '
(" --
fig ure
6 9
ro ken
V M
J ANG
t f
Ġi prot
Sh ow
Ġconst ant
co ords
ME DIA
iz ing
re load
ĠF ITNESS
ĠSt ate
B E
Ġf o
ass oci
Ġadd ing
DataCache Dictionary
ĠPAR TICULAR
} "
ch a
S ee
[ (
Ġf rappe
Ġp ants
Ġr c
valid ators
Ġlib s
di x
ĠO P
CO UNT
() '
n or
l ator
Ġcon ven
content types
ĠSe lect
Ġp ip
Ġb al
Ġfor wards
Ġlog ged
and box
Re play
2 34
TI VE
da e
T uple
Ġw arn
abstract method
et ree
Param s
M ain
Ġd ns
i ke
Ġfor ward
Ġor d
com bin
De tail
fin ish
Ġge vent
k o
ĠB ook
de cimal
ir cle
chunk s
, "
Ġf urther
Ġ' "
ĠClo ud
Ġcalc ulate
uni form
: ')
b la
Ġd ouble
ĠEx p
cu da
ect ors
e lif
ĠDocument s
relation ship
at ter
Ġde le
ac tivity
back ground
ĠM AX
attach ment
U se
mbed ded
Z ero
r strip
a ma
Ġwho se
METHO D
err no
G TH
L ANG
B L
ct ure
gate way
Lo gin
OF F
Ġinter faces
device s
ĠF ind
ĠU sed
S ample
Ġauth ors
Ġclean up
b lueprint
MP LE
c lock
Test Suite
Pro perties
ĠSta tic
JANG O
) ",
co ordin
AT OR
patch er
Ġread ing
Ġmin imum
const ant
Ġarch ive
Ġc wd
Ġpre pare
Ġdoc string
Ġge o
A IL
[ \
ĠC L
ĠG NU
Ġcop ies
n ative
Ġ ~
Ġlanguage s
READ ME
e ys
Ġc enter
od b
ĠOpen Stack
ĠGroup ing
00 01
######## ###
Ġal tern
Po sitive
Ġrepresent s
MAG ES
c as
index es
pack et
ĠKey word
ed u
ast ic
in clu
Uti ls
Ġth row
Ġst o
Set up
comm unic
S cheduler
er kzeug
IT S
Ġmark up
Ġconver ted
s cores
ĠP ri
Ġ" '
Ġsub classes
b ench
C ell
iz ard
ĠB ack
Ġcreate s
Ġb ash
ul ates
def ine
S O
E V
z on
ad s
serial izers
scen e
Ġac cording
"] :
Ġsimple json
j pg
Ar ticle
J son
Ġre pla
meta class
q t
y si
DE F
Var Int
G rid
Ġdefer red
ble ms
==== ===
y ou
=_ ('
hone Number
Ġp ragma
ate n
Ġr and
cat alog
ĠS ource
c ar
h yper
al len
(' ''
A dapter
G ROUP
AT CH
im it
Ġbo ok
P lease
co v
Ġcol s
la unch
E M
L IN
ti cket
P r
Request Handler
Ġansw er
! ")
as array
can vas
Ġopt parse
Trans action
) **
pro ps
V ector
Ġpar tition
Ġ{} ".
Ġ200 7
FIL ES
sha re
r gb
el y
ĠE xtra
Node s
Ġbet ter
) +
_ [
Ġde al
per cent
Ġindex es
6 00
FIEL D
B ind
Ġc t
Ġro om
aa aa
ir t
Ġspecific ation
Ġre ally
AB C
me sh
Ġunder lying
st and
Ġs li
ar tist
ĠEn vironment
l m
re peat
Ġth ing
SC HE
c ategories
ierarch y
R UN
ĠSer ies
Ġdeploy ment
F etch
f h
Gener ic
Ġ#------------------------------------------------------------------------ ---
temp dir
ĠDefault s
dire ction
dae mon
ĠIMP LIED
LEN GTH
Ġ' +
Ġcount s
Ġappen dix
> ",
pi e
ĠCON F
sen sitive
Replay All
v ors
Ver ify
arg types
) -
Ġg u
data sets
Ġar rays
Ġro bot
ĠT E
Ġevery thing
Ġdis abled
Ġsm all
Ġs parse
si st
im ator
ĠCh ar
pi p
Ġwe ak
Ġqu otes
Ġsig ma
Ġb order
ad vance
ĠĠĠĠĠĠĠĠĠĠĠĠĠĠĠĠĠĠĠĠĠĠĠĠĠĠĠĠĠĠĠĠ ĠĠĠĠĠĠĠĠĠĠĠĠĠĠĠĠ
ĠComp ute
Ġnamed tuple
jo int
Ġfig ure
Ġcheck ing
ax es
are a
Ġ8 0
require ments
Ġappen ded
Ġin tera
t m
O ffset
` :
Ġth reshold
Ġpy jamas
ST ART
re et
ar ing
Ġapp lied
Ġac tivity
dis connect
Ġsepar ate
C opy
Ġsub scription
exten ded
Ġmeta var
B Y
distribu tion
} ',
Ġe ffect
Ġsh ift
me ter
> .
b ulk
Ġo prot
4 3
Ġh yper
ĠEx ten
Ġ2 3
n dim
Ġout file
E P
Ġex clu
G S
ra ck
load ing
place holder
Ġhandle s
Ġlate st
st andard
Ġscript s
R outer
si bility
cre ator
rest ype
Ġlet ter
Ġra ther
ĠU N
ĠG iven
cry pted
Ġ'. '
appen dices
rozen set
Ġdescri bed
ĠPro xy
speci al
gorith ms
kw ds
Ġ"" )
Ġr ng
Ġsub net
Ġcol lect
loc ations
Ge ometry
Des c
Ġmanual s
Ġp ad
mo o
ĠCon vert
Ġshould n
ĠE VENT
Ġversion added
LO B
A ctor
hex digest
X Y
in o
v tk
" })
Ġe tree
Ġ200 8
Ġlook ing
tt l
t ol
li hood
Ġd ays
pen ded
Ġenti re
Ġbase s
P rint
Ġtime r
ST ATIC
7 0
B ody
H ook
g ri
Ġd ynamic
op le
10 24
Ġb i
PR ESS
L IC
Ġin line
Ren der
Ġdi alect
Con stant
Process or
Ġsm art
F ind
bal ance
Ġg ran
cur rency
dis abled
ĠAUTH ORS
F unc
te ri
di an
Defin ition
h ass
m ul
De bug
a i
n ick
Ġpro cesses
Ġlib cloud
sm all
Ġp lease
Ġserial izers
l b
Ġax es
Ġ ri
rid den
Cl assi
in crement
He aders
Ġmon itor
__ ',
ĠP oly
ca de
scope s
P ay
Ġhelper s
Ġstd in
etri eve
(' ')
([ ],
ĠR O
AS H
Ġpublish ed
Ġste ps
open id
ĠDi ct
di ag
sp li
build ing
={ "
Ġe poch
ĠA g
oc us
P U
Ġc p
Ġ" )
file no
ĠB UT
= ',
a pon
Ġf s
R F
Ġpre tty
ĠSt orage
tw itter
Ġde pendency
si sten
qu eries
istribu tion
re name
Ġf un
Ġreturn ing
sv n
df s
gener ated
set Level
last ic
E VENT
su do
u ous
Ġlog ic
publish ed
Ġg ive
Ġ2 2
Ġas signed
S ITE
b all
Ġde tail
Ġe as
ti d
Ġinclude s
ri gin
ĠSQL Alchemy
SER T
assertIsNot None
Ġf ab
si b
Ġpla in
Ġexplicit ly
u do
lo bs
on al
MODE L
add on
EN G
CRE ATE
sig ma
Ġfi xtures
CHO ICES
el f
ĠC ho
Ġuti lity
cry pto
In te
50 9
as semble
Ex ists
Ġexec utable
Comm on
re tri
al ice
c ra
n l
ĠL ink
Ġformat s
ma jor
Ġg c
ĠN ULL
ph p
Ġlon ger
ĠL ab
Ġpre vent
Ra w
de scriptor
Ġf lush
Ġfi re
expi res
Ġnd array
" )),
G lobal
Ġw on
j ection
mp a
ĠV ector
ke h
date s
work sheet
OP EN
b p
Ġag ree
ipe dia
Ġload ing
Ġformat ter
IL D
5 4
Ġi teration
ĠT ex
ĠF rame
unc ate
Ġfi xture
T AG
pa ren
F ont
ro py
ra se
mm utable
Ġen um
" },
T C
che mas
sh utdown
Ġf ron
Reg ion
ĠCal c
d jang
CON N
Cl uster
.... ....
ĠM ax
adap ter
B ER
Ġh idden
F lask
Ġab ort
TR ACT
or dered
di gits
Ġvi sible
ur lopen
Ġde clar
Con nect
=[ ],
={ },
Argument Parser
N et
con structor
n c
[' _
art beat
ud it
SH A
Ġappe ar
a uti
an a
us ted
no tes
PO INT
en coder
an ded
Error s
ĠM on
qui et
Ġline ar
ans wer
ĠV ariable
Ġ' {}
Dis play
Ġtermin al
a fe
f ron
DATAB ASE
su ally
UT F
ach ed
OL D
O pt
ĉ ĠĠĠ
sa ved
Ġim mediate
q name
/ (
VI DED
C lick
KE T
Ġsuccess fully
ENG INE
sc r
(_ ('
Ġp ull
log ged
f riend
th en
di alog
Ġevent let
Ġretri e
i lo
as is
tr as
ĠGener ate
ĠE l
xy z
LI MIT
Ġm uch
qu ation
tist ics
w raps
gin ation
con sume
Ġdefin es
ge ometry
on d
ĠZ Z
Ġali ases
Ġprob ably
ĠA pi
he el
Pre fix
short cuts
lo ur
ĠF oreignKey
ĠM ay
Http Request
p w
Con f
cy cle
Ġchar set
Ġchannel s
bit rary
Ġcontrib utor
" ')
I I
Ġde scriptor
ĠS ec
Ġregard ing
Ġs ol
D one
d ynamic
Ġle x
Ġe quivalent
ver bosity
To ols
avi gation
b idden
ĠH ost
termin al
c ross
Ġe asy
Ġst ub
Ġc atch
I X
co verage
Ġ1 0000
b old
Ġ' ':
Ġsy mbols
Ġ12 34
cry ption
! "
S m
Ġas ync
Ġpro cessed
ĠV M
cor der
kee per
Ġ ls
ti p
ĠF irst
Ġdefin itions
f lo
""" )
Ġne gative
ĠCOPY ING
Clean up
se udo
ro po
Ġp ending
ĠCreate s
ĠRes ult
re cipient
(? :
I E
an cy
at t
Ġre cipient
ĠEn gine
V al
Ġcal ler
at ural
Ġre d
ĠLIMIT ED
Ġc ard
is m
ĠS u
Co okie
ret ty
^ ^
": "
fs m
precation Warning
U ES
al ive
Ġowner ship
da o
ĠJ ob
Ġmanage ment
Ġre ct
Ġare a
mi ted
as m
Ġfile path
Name d
Ġport s
Ġv ol
ĠCol or
d m
se g
vi m
Ġnode list
top o
pl ural
E G
pre t
m igration
for mer
ex er
with in
b enchmark
ss ue
ex change
ak er
To Many
EC TION
S heet
Ġn args
Ġw sgi
ĠA P
Wor ker
Ġun i
failUnless Equal
N on
T T
Ġre maining
Ġauto Generate
ĠFI X
Ġsimp ly
Ġcon sume
sql alchemy
ĠAs sertionError
assertNot In
w itch
Exp ression
c aten
Ġn b
Ġw ar
ĠArgument s
mpa ign
G ra
th umbnail
me mo
Ġc StringIO
Ġpy copia
FL AGS
//// ////
C F
C er
f r
Ġre stri
ĠS alt
ĠDA MAGES
T itle
one d
ĠSt ream
W I
AL I
Ġvalid ators
Ġmin imal
Ġwindow s
s ince
Ġs calar
bar s
5 7
_ ('
Ġ licenses
ac ter
ĠIP ython
Callback s
d h
h uman
Ġun less
ĠĠĠĠĠĠĠĠĠĠĠĠĠĠĠĠĠĠĠĠĠĠĠĠĠĠĠĠĠĠĠĠ ĠĠĠĠĠĠĠĠĠĠĠĠĠĠĠĠĠ
top ics
(_ ("
Ġpri or
' m
M Q
P H
l st
ĠE mpty
e red
Ġli ght
Key Error
Dec imal
Y Y
to o
ram id
s f
as c
scri ber
ĠIN ST
Ġsuccess ful
Ġdirec tives
Ġcode s
] ["
Sec urity
Ġ' ?
Ġ{ {
ne gative
S cale
g d
ĠS ER
ĠNo tes
issue s
m r
Ġrun time
ĠPro duct
! ')
Ġ qual
ver ts
Ġtra its
comple tion
Ġstri ct
5678 9
Ġre ceive
"" ,
Ġfloat ing
lev ant
C alled
di ction
UT E
ĠPy gments
cel ls
HEAD ER
ot al
ĠI mple
Ġme asure
ĠU ti
Ġ2 1
Con vert
book s
Ġgra dient
Window s
G it
Ġcheck ed
callback s
An y
a u
op ro
Ġadd s
W idth
Ġ' ..
Ġse ver
serial ization
Ġfin ish
provider s
Ġprefix es
Ġsort ing
at trib
un used
=' '):
Ġcur r
lif y
ĠAl low
d ocker
ĠPack age
Ġ ^
ct ree
Ġm iddleware
S kip
st an
gr ant
M is
P os
key stone
C md
reg istered
Ġclient s
str ategy
ĠB lock
defer red
foot note
Ġf h
table name
DataCache Functions
ĠContent Type
Ġ' $
Ġdi alog
check s
: /
st age
Ġp adding
the ta
Ġmon key
f u
Ġserial ized
r ating
work ers
bi an
WAR NING
Temp orary
U UID
co ord
ĠL abel
ĠSchema Migration
([ ^
Model Form
l r
s ter
Ġ served
se en
de ri
SS H
Ġde g
ĠF ree
AC CESS
AS ES
un e
Ġstart s
ESS AGE
asset te
Ġhandle d
product s
Ġst ati
oper ations
Ġh ist
ES SION
ip pet
ag greg
Ġmock ed
ĠIN CLUDING
Schema Migration
Cur sor
Ġclassi fiers
S peci
Ġloc ations
State ment
some thing
MET A
h orizon
domain s
a jax
Ġn or
ach ine
iter al
ĠSer ial
B R
ĠS p
fo cus
ĠR ule
Ġpass ing
z ed
ĠD IS
ĠH elp
collection s
D el
F inder
F irst
ik i
C or
Data set
Ġf amily
author ization
lap sed
CLI ENT
urn al
Ġbu ff
Set s
distribu ted
pix el
m dao
ĠA LL
log out
Ġor dered
Ġl st
M Y
v pn
re ceiver
al ter
ĠA ccess
ĠS end
limit s
Ġcer tificate
Sy ntaxError
> ]
n y
tra it
scen ario
ĠR PC
ĠQt Core
dire cted
1 01
Ġ ----------------
ĠT ri
per ms
Ġj inja
Ar ch
Ġtitle s
Ġvar s
ce d
Ġ\ \
cre ation
Ġdf p
Ġfunction List
gener al
TER N
ti fier
Ġt ar
ĠR ange
av g
: ],
at temp
ĠM in
Ġsh are
Ġag gregate
Ġprocess or
spe ed
W ID
udi ence
ĠPRO VIDED
Author ization
4 6
b order
d temp
Ġun used
([ ])
ĠCOPY RIGHT
Ġen ough
Ġsystem s
D JANGO
N ormal
N eg
A WS
B SD
tri al
EN CE
Iter ator
Ġstati st
x html
Ġplace holder
se mb
en e
ron ic
ĠDe ferred
Ġin DataCacheDictionary
Be gin
p d
s olver
x path
Ġsu do
ĠGe o
al ls
Ġag greg
ient ation
ĠD O
j inja
Ġper cent
Un icode
cli p
ĠIn st
con firm
ĠE mail
9 6
Ġpo sitive
vo ice
i i
Ġr hs
Ġw raps
ta ke
Ġscen ario
- +
m f
Ġla unch
b g
Ġ= >
ĠMy SQL
er ature
ĠSta ck
Ġ" [
ĠJ ava
bind ings
ĠCre ature
j ected
Re lease
sy mbols
re moved
te ction
Ġre pe
Ġin correct
radi us
Ġin herit
Ġ""" \
real path
I dentifier
At tributes
b f
Ġsu cce
Ġpri ce
contain ers
ime n
! '
lo aders
In it
post s
stub s
ta bs
ca lendar
ĠEn thought
F UN
pre tty
annot ation
ĠD OM
make One
NO WN
h ar
(" .
OR M
encode d
m igrate
Ġf ragment
Ġ* =
S ha
b an
mo use
Ġcl f
Ġ################################ ################
ch at
Ġcomp atible
wh ile
cla use
th rift
ĠDAT A
presen ted
B ook
ĠC H
du ctor
order ing
__ :
ou ch
how to
ct s
view er
ĠSet up
ĠHttpResponse Redirect
Ġwidget s
ĠBy tes
ĠC alled
per form
Ch art
99 9
Ġ################################################################ ###############
super user
g amma
l p
Ġb enchmark
Ġw erkzeug
ĠTex info
M IS
Ġ gs
ĠW hether
vid ing
/ ",
= """
x ies
Ġc ancel
ĠM ain
m id
ro bot
Ġlo ss
UL TI
Rel ation
ircu it
Ġin f
m orph
') ):
16 8
Ġauthor ization
ighb ors
p ow
de clar
Ġpre cision
('/ ',
level s
Ġge ometry
USER NAME
IDD LE
ver i
Ġscen e
P N
w rong
ĠL ay
ce le
M sg
min ute
OP TIONS
inf ra
S ave
f ine
un link
Set ting
authentic ate
enti ties
lin alg
M erge
Ġh ard
let te
ele ry
dimen sion
v lan
(' {
ĠProtocol Buffer
F older
il la
Ġdi gest
py pi
Ġtra iling
Ġxml ns
Ġcer tain
Sp lit
h int
Ġde li
ĠS SH
code c
ĠDate Time
S cen
b c
g c
st or
Ġc Pickle
mp ling
un ity
ĠCa che
l arge
Ġc mp
al ph
F E
Ġen ter
ĠH as
Create s
fin ite
ul ly
po ses
PRO TO
letter paper
ĠM ap
ĠR andom
Ġa verage
pi der
k b
Ġval s
Ġfail ures
Child ren
Ġexact ly
C D
] ',
y y
ĠWIT H
As ync
CLASS ES
Ġderi ved
B atch
an iti
Ġt t
ca y
present ation
Fla vor
Ġb ra
Ġg data
ĠĠĠĠĠĠĠĠĠĠĠĠĠĠĠĠĠĠĠĠĠĠĠĠĠĠĠĠĠĠĠĠ ĠĠĠĠĠĠĠĠĠĠĠĠĠĠĠĠĠĠĠ
P ACK
St at
Ġc pu
Ġsent inel
y ield
ck s
Ac cept
c tivity
mark down
allen ge
ex clu
Ġdi gits
po tify
iz ations
dict s
not ation
Run ning
Ġwho le
Ġf ew
ĠT op
ph i
driver s
Ġdire ctor
o v
Ġp or
RES P
() }
ĠA CTION
Time r
K eys
Ġw s
Ġpy gments
me asure
ĠWARRAN TY
region s
ĠT ABLE
route s
Ġagree ments
de ps
ur lencode
co pg
Ġget ting
OT E
Attribute Error
LE V
En ter
Al most
ĠLab orator
'] }
oc s
Ġweb site
WR ITE
i ence
Ġ( .
Ġg uess
Ġpy g
check ed
DIR S
ĠFIX ME
ĠS im
z a
Ġ ve
Ġde limiter
'] (
tic les
Ġsh ard
bi o
Oper ator
Ġsq rt
, \
B B
N ull
Ġpro ps
we et
Ġtmp dir
( .
M a
h ide
m gr
Ġ latex
Ġs lash
Ġd aemon
cur acy
number s
Ġlay ers
RES ULT
inc ip
Ġfa ce
igh ted
h ub
er ry
Ġb lueprint
el low
Ġvirt ual
/ *
([ ('
tod o
al tern
Ġin tern
Ġe s
Ġ( ('
No tification
Ġli ter
Ġdir s
Ġcallback s
hour s
L imit
M ar
Ġmag ic
C ard
Ġp t
ĠT Y
Ġsub mit
Name space
Ġca st
ĠPar ameter
g anization
qu ota
Ġro les
roll back
Ġe c
Ġ3 00
lat forms
dia lect
ail gun
ĠAs ync
Ed ge
Ġflat ten
z A
Ġpa per
Struct ure
S pace
Ġa m
un ion
ra b
it ation
IN DEX
Ġ################################################################ ###########
Ġcoordin ates
irt ual
th ree
up y
par ame
ĠRe cord
Ġc lock
Ġre presented
ĠM icrosoft
Ġfile system
non ce
i mation
m icro
and ra
Ġli ve
I t
ĠB Y
Ch unk
Ġcustom ize
From String
7 2
Ġp ie
Ġfil tered
5 8
Ġh orizon
E Y
IS ING
Ġman ifest
Ġta il
Almost Equal
de precated
Ġf lex
ĠC ase
ca pt
LANG U
L ost
Ġf ore
vi e
Ġar tifact
Ġrequire ments
k y
Sum mary
po inter
:// %
mag ic
re tries
ĠĠĠĠĠĠĠĠĠĠĠĠĠĠĠĠĠĠĠĠĠĠĠĠĠĠĠĠĠĠĠĠ ĠĠĠĠĠĠĠĠĠĠĠĠĠĠĠĠĠĠ
Ġstate ments
ĠLoc ation
\ "
opro ject
J S
al gorithm
Ġ[ {
ĠM et
Line ar
ep ub
0 33
#### ##
Ġac ross
cer tificate
Query Set
separ ator
s lave
Ġopen mdao
Man age
ĠW ith
Ġproduct s
ĠForm at
ĠSH ALL
loc ate
w as
Test Base
new s
re ports
ass andra
a lert
Ġ2 56
lib s
Ġta ken
profile r
Ġauthentic ate
v in
Ġc uda
Ġsend ing
Ġ------------------------------------------------------------------------ -----
IC T
CC ESS
ĠCur rent
ti ally
Ġp m
Regex p
: ")
S P
x c
ti tions
') ).
Ġse ntry
EN ABLE
A ML
mp p
pro cesses
Ġno tify
ĠSet tings
mi tive
Ġe cho
Ġproject s
T LS
re pos
ch es
do ctype
termin e
Change d
ĠC ategory
dic ates
Ġselect or
rep orter
i py
ar tifact
ad a
Ġbo unds
Ġspe ed
Ġf lash
ĠW HE
Classi fier
Ġ' (
ĠAR ISING
for a
Re st
py gments
ĠPro perty
Ġbuild ing
Ġcom ing
AC TION
Ġrepla cing
ra ction
Ġmin utes
Ġact s
Cre dentials
lo y
con fir
di git
H elp
o bs
Ġf u
Ġn ative
py c
Dec orator
A rea
Ġres olver
sub set
Ġexpi res
D est
Ġm ix
Ġdo ing
Ġinst allation
eval uate
Ġconsi dered
DES CRI
v ol
is ing
ator y
ĠR FC
err ing
? )
st s
(' __
str s
LOC AL
D D
is co
Ġh it
Object s
uest ion
has attr
Ġge om
ĠN on
Ġ( [
Ġpar agraph
Ġren derer
ĠLI ABLE
Ġannot ation
> /
Ġd om
ane ous
Ġur lencode
O O
g re
ma ker
HO ME
proto cols
9 8
m g
Ġre load
un ded
Ġh aving
Ġlo st
Ġover ridden
ĠWHE THER
I dentity
] \
De coder
we apon
R GB
et ry
Ġti cket
ĠExten sion
M AN
t v
tes ted
Ġradi us
re store
te ardown
assert Dict
mis c
S hape
o ffer
read lines
Ġmatch ed
)) ))
bu ff
AG ES
Reg ister
m ixin
Ġp rom
Ġd p
un nel
ĠV AL
tz info
calc ulate
P attern
V S
er iv
range s
ĠSh ow
riteri a
Ġc ustomer
ĠS tore
=" /
con struct
Ġresult ing
ab out
Rel ated
dire ctories
si lon
Ġout side
ĠPro file
T ABLE
] (
Ġ3 1
ĠGet s
char set
Ġ12 3
S ide
Z ip
), (
MS G
Ġaccept s
SIG N
Ġ -----
la in
qu it
QU E
199 7
="" ,
Repo sitory
X ml
ĠG a
Ġso ft
S ingle
} /{
iz able
Ġcomp iled
Ġver bosity
des k
i j
Ġ' \\
ĠU I
Bad Request
ur able
he alth
Ġle arning
Ġbase name
Ġinteger s
L exer
Ġf requency
Ġn n
Ġb el
ĠCON TRACT
spli text
di ctionary
ĠO b
s r
Ġde pends
il low
ĠG E
ĉĉ ĉĉĉ
the ses
Ġreg istration
DO WN
fa ctories
Ġca p
Event s
Sup ported
m ultip
mp ath
ĠU SER
ne g
dir ty
s wap
Ġis subclass
ĠStop Iteration
R oute
Ġde p
Ġde tect
ĠRed is
-------------------------------- --------------------------------
Ġci pher
djang oproject
p ur
Ġdate s
Ġcomple ted
Ġindic ates
c raw
Con sole
Ġcomp at
Ġmulti processing
ter ms
Ġ( _
node list
Res olver
UP PORT
Ġcy cle
N ext
as ource
Ġe ar
pa red
Ġme mo
AD MIN
Ġexten d
)) ]
yn omial
Ġgran ted
in ted
log ical
speci fied
WID TH
L C
Ġb and
sha ke
M ail
qu ent
ĠCon tainer
Ġeval u
Ġd x
Co unter
Ġj s
UR N
Ġrecur sive
d ating
() ['
Ġca lendar
Ali as
Ġc f
ve red
si c
Ġ| =
B lob
ul se
Ġpro per
Ġcomp arison
Ġmodule author
ine ss
Ġinv oked
+ "
en ium
() ``
am ing
fa vicon
sw ift
ua len
P K
Ġo l
ri an
author ize
Sta tic
IDDLE WARE
out ine
com men
5 2
Ġc id
vi sions
ĠS ince
ĠK EY
communic ate
Ġn avigation
pe er
atri ces
schema tic
ĠDo main
spi der
R ST
v endor
no tifications
Ġindic ating
. '),
H ub
M od
Ġc ar
ĠW idget
Ġpre pended
De code
AD D
x lsx
al one
Ġf riend
Ġs in
Ġperform ance
U til
Ġg tk
Ġbe come
AT TR
Ġli sted
ĠCON TRIBUT
Ġup grade
block ing
vo tes
Ġinitial ization
tuple s
R pc
Temporary File
M I
P RI
ti vely
cl usters
rf c
k g
Ġ2 8
form set
cre ase
View Set
ĠAt tributes
5 3
P art
ro uting
(" <
pt s
Ġvis ual
5 12
H istory
P ublish
z ure
in to
ab lish
call y
queue s
Ġnormal ized
ĠValid ationTest
M ULTI
R A
e mbed
in voke
ĠConfig Parser
vari ant
' ve
e ta
h its
l and
Ġissue s
ĠM ongo
obj s
go ing
de coder
sen sor
annot ations
Ġas yn
py plot
thread ing
Ġlook s
an onymous
Ġr s
ĠW h
ca ps
oo keeper
wri tten
ĠIn te
Ġmime type
ĠCONTRIBUT ORS
D NS
G P
m x
Ġre fer
ri t
sm art
} ')
ti s
ta x
ĠE num
inter cept
liter al
Ġtran sition
as ket
ill ing
face book
Ġrelease d
semb ly
I p
al bum
min utes
He ight
Ġst and
Ġst age
ĠCON N
Ġaut os
ch ing
sta ff
Ġmo unt
WS GI
irc ular
Ġg zip
9 7
] {
an other
Ġco s
Ġpro blems
Ġse p
ĠN AME
Ġthrough out
c rop
Ġdistribu te
'] ):
Ġob server
C trl
Z Z
Ġa ge
Ġre peat
An aly
Ġf allback
(" {
bs ocket
ins pect
rot tle
S pa
q os
Ġ lu
ata ble
MP TY
ĠEX PRESS
Mon itor
Ġp g
log ic
Query set
N ote
Ġp oll
Ġme sh
Ch ain
serial ized
assign ment
' <
P ublic
a udio
h d
or ical
Ġin crement
Ġcon version
ĠU UID
Ġsc ra
ĠTY PE
c n
vi ded
Ġar bitrary
Ġsh orter
Ġdiffe rence
Ġt xt
(' #
Ġspa ces
z k
le ts
Ġa dapter
pi ke
TO DO
ĠMan ager
Ġhighlight ing
x form
al ways
Ġro utes
Ġcontext lib
track er
Ġcla use
Ġi de
ĠT CP
mm ar
ff t
Se ction
mod index
Ġsel l
ĠCommand Error
Ġbind ing
re start
py eq
ĠBase Command
b ut
de ad
ti vi
lock ed
Check er
Mapp er
AR CH
Ġz ope
de serialize
Ġab c
Ġdisplay ed
' ")
Ġsub set
Ġtrans late
ĠCol lection
ĠOption Parser
] "
m ut
Ġ" $
Ġframe s
I RED
n umeric
Ġ vec
Ġde mo
to uch
Ġv tk
Ġ200 6
Ġh ack
Ġse quences
ĠPro vider
Run timeError
andid ates
h adoop
Ġf sm
pre amble
ĠInt angible
ualen v
as sets
ĠS ave
tro ls
ĠGener ator
mar gin
A xis
ch r
ren ces
Cal c
Ġre store
IN SERT
Ġfa ctories
be havi
p an
Ġc ategories
En abled
Ġret val
ĠHow ever
B AD
I MAGE
Ġwe bob
Ġcan vas
ĠBytes IO
g uid
Ġm ouse
ĠE T
Ġload s
ĠURL s
4 03
d ry
} ]
', ),
par ty
po licies
ca pture
Ġch r
cred s
ĠP rint
Ġsign ed
200 9
mk dtemp
ĠDis play
diffe rence
F in
th rough
Ġex change
RE AM
Ġtop level
real m
Sign al
" ',
oc ab
Ġread s
Initial ize
postgres ql
LEV EL
st ock
work ing
Ġnew line
Ġexec file
Qt Gui
ToMany Field
a h
f b
Ġo pp
un ix
Ġco okies
add Cleanup
ĠJ son
pos al
Ġcoun try
N ULL
ro me
() ;
el astic
end points
ph ase
: ,
P op
} ):
te e
it able
pro blem
RE GI
Valid ate
T OP
e ach
j it
ĠO p
Le ft
g uest
Ġn umeric
Ġpro g
ĠB ar
ĠRE AD
) ['
P i
f m
ĠThe me
ip ant
Ġapplic ations
Ġexp ressions
inline Callbacks
te arDown
Neg ative
M AR
Ġth ird
am i
XX XX
ĠWor ld
Ġst mt
func s
For ms
P AGE
P UB
ve y
Ġsh all
cen tile
F ACT
b et
Ġb lue
Ġh uman
Ġdi ction
Inst all
pay ment
( .*
comp iled
Ġte ardown
Ġimmediate ly
L ines
S ESSION
ce p
ĠR EST
INE T
R ect
Ġ= =======
Ġ( ?
Ġman ually
CO OK
Ġdevice s
5 1
av es
ĠTime out
N N
Ġc ut
Ġin voke
web app
.* ')
chan ism
b ing
l dap
Ġ" {}
Re vision
ĠM ac
.. ."
def s
Ġmer ged
ĠE OF
In tended
Inter rupt
Ġsepar ator
v c
Ġm ut
fore ign
Ġcom mented
Work flow
dimen sions
moo th
I LED
P A
Ġs izes
Ġd y
Ġdecor ated
Ġanaly sis
Ġd uplicate
ma pp
Ġlib raries
Ġnetwork s
âĶĢâĶĢ âĶĢâĶĢ
ri cal
Ġl ar
Ġtra j
are st
Dis k
S ig
User s
Ġtri p
Ġcoordin ate
l ar
con tinue
gen e
g iven
Ġm ixin
ĠA udience
wh at
Ġm igration
ĠH elper
OR IZ
af ka
INST ALLED
deg ree
ysi cal
ĠEl se
Ġre versed
ĠLI ABILITY
NAMES PACE
Ġdash es
g yp
Ġc ss
Ġm ultip
put VarInt
T RAN
en cy
Con v
Ġtry ing
Ġ12 8
ĠName Error
? ?
ĠP AT
.. .")
Ġz eros
Ġclean ed
wik ipedia
E rr
Ġ ser
Ġi te
Ġin teractive
Ġto do
Ġto uch
Ġg reater
import s
Ġma king
Ġassign ment
E val
Ġc rypto
Ġde velopment
SE D
Ad ditional
expand user
recur sive
Ġc ent
ub y
ph oto
01 234
rou ped
ĠCl uster
Stub Out
ate ver
qu ot
== '
RE F
Ġph one
Ġspecify ing
Ġt tl
si oned
{} '.
ĠEn tity
ĠCor p
S ING
lsx Writer
A b
b am
Ġsheet s
S im
s al
} ))
Ġa lert
") ]
comp any
Option al
aut odoc
Ġth ough
Ġto gether
ĠC om
ĠF rom
Ġaut odoc
ho o
we ak
ĠX lsxWriter
ICA TION
ĠQ Q
ropo ut
Ġpyg let
s ms
SC RI
gg le
Red is
Ġp b
ĠF ail
Ġpa y
ir th
loc ator
static files
assertDict Equal
ĠE ntry
Ġar ticle
script ors
ĠPar ser
t ls
Ġ er
Ġac cepted
xx xx
Ġposition al
ĠFa cebook
ĠR ES
trans fer
En coding
ĠLaborator ies
W ord
Ġ' &
Ġs ing
Ġs olution
Ġlevel s
Tra its
high light
ĠM ust
Ġpre dicate
Ġtext wrap
Ġdebug ging
retri eve
$ ')
Ġdata sets
Ġfe el
modi fy
Ġsever al
