{"!":0,"\"":1,"#":2,"$":3,"%":4,"&":5,"'":6,"(":7,")":8,"*":9,"+":10,",":11,"-":12,".":13,"/":14,"0":15,"1":16,"2":17,"3":18,"4":19,"5":20,"6":21,"7":22,"8":23,"9":24,":":25,";":26,"<":27,"=":28,">":29,"?":30,"@":31,"A":32,"B":33,"C":34,"D":35,"E":36,"F":37,"G":38,"H":39,"I":40,"J":41,"K":42,"L":43,"M":44,"N":45,"O":46,"P":47,"Q":48,"R":49,"S":50,"T":51,"U":52,"V":53,"W":54,"X":55,"Y":56,"Z":57,"[":58,"\\":59,"]":60,"^":61,"_":62,"`":63,"a":64,"b":65,"c":66,"d":67,"e":68,"f":69,"g":70,"h":71,"i":72,"j":73,"k":74,"l":75,"m":76,"n":77,"o":78,"p":79,"q":80,"r":81,"s":82,"t":83,"u":84,"v":85,"w":86,"x":87,"y":88,"z":89,"{":90,"|":91,"}":92,"~":93,"¡":94,"¢":95,"£":96,"¤":97,"¥":98,"¦":99,"§":100,"¨":101,"©":102,"ª":103,"«":104,"¬":105,"®":106,"¯":107,"°":108,"±":109,"²":110,"³":111,"´":112,"µ":113,"¶":114,"·":115,"¸":116,"¹":117,"º":118,"»":119,"¼":120,"½":121,"¾":122,"¿":123,"À":124,"Á":125,"Â":126,"Ã":127,"Ä":128,"Å":129,"Æ":130,"Ç":131,"È":132,"É":133,"Ê":134,"Ë":135,"Ì":136,"Í":137,"Î":138,"Ï":139,"Ð":140,"Ñ":141,"Ò":142,"Ó":143,"Ô":144,"Õ":145,"Ö":146,"×":147,"Ø":148,"Ù":149,"Ú":150,"Û":151,"Ü":152,"Ý":153,"Þ":154,"ß":155,"à":156,"á":157,"â":158,"ã":159,"ä":160,"å":161,"æ":162,"ç":163,"è":164,"é":165,"ê":166,"ë":167,"ì":168,"í":169,"î":170,"ï":171,"ð":172,"ñ":173,"ò":174,"ó":175,"ô":176,"õ":177,"ö":178,"÷":179,"ø":180,"ù":181,"ú":182,"û":183,"ü":184,"ý":185,"þ":186,"ÿ":187,"Ā":188,"ā":189,"Ă":190,"ă":191,"Ą":192,"ą":193,"Ć":194,"ć":195,"Ĉ":196,"ĉ":197,"Ċ":198,"ċ":199,"Č":200,"č":201,"Ď":202,"ď":203,"Đ":204,"đ":205,"Ē":206,"ē":207,"Ĕ":208,"ĕ":209,"Ė":210,"ė":211,"Ę":212,"ę":213,"Ě":214,"ě":215,"Ĝ":216,"ĝ":217,"Ğ":218,"ğ":219,"Ġ":220,"ġ":221,"Ģ":222,"ģ":223,"Ĥ":224,"ĥ":225,"Ħ":226,"ħ":227,"Ĩ":228,"ĩ":229,"Ī":230,"ī":231,"Ĭ":232,"ĭ":233,"Į":234,"į":235,"İ":236,"ı":237,"Ĳ":238,"ĳ":239,"Ĵ":240,"ĵ":241,"Ķ":242,"ķ":243,"ĸ":244,"Ĺ":245,"ĺ":246,"Ļ":247,"ļ":248,"Ľ":249,"ľ":250,"Ŀ":251,"ŀ":252,"Ł":253,"ł":254,"Ń":255,"ĠĠ":256,"ĠĠĠĠ":257,"ĠĠĠ":258,"ĠĠĠĠĠĠĠ":259,"se":260,"in":261,"or":262,"on":263,"re":264,"at":265,"er":266,"en":267,"Ġt":268,"st":269,"de":270,"Ġ=":271,"ĠĠĠĠĠĠĠĠĠĠĠ":272,"Ġi":273,"al":274,"sel":275,"self":276,"an":277,"ro":278,"ion":279,"ar":280,"mp":281,"he":282,"le":283,"ut":284,"Ġf":285,"Ġc":286,"as":287,"it":288,"me":289,"Ġ\"":290,"Ġself":291,"ing":292,"Ġre":293,"ge":294,"ct":295,"Ġp":296,"ce":297,"ort":298,"id":299,"ur":300,"):":301,"Ġin":302,"mport":303,"ed":304,"ode":305,"lo":306,"Ġo":307,"Ġs":308,"Ġn":309,"Ġthe":310,"ch":311,"Ġa":312,"fi":313,"Ġde":314,"ex":315,"rom":316,"Ġm":317,"di":318,"ent":319,"ate":320,"Ġ'":321,"ue":322,"un":323,"el":324,"ĠĠĠĠĠĠĠĠĠĠĠĠĠĠĠ":325,"ad":326,"ame":327,"pe":328,"\"\"":329,"Ġb":330,"Ġimport":331,"li":332,"odel":333,"co":334,"Ġw":335,"from":336,"il":337,"()":338,"pt":339,"ra":340,"urn":341,"iz":342,"turn":343,"ot":344,"ma":345,"ss":346,"Ġdef":347,"Ġ#":348,"__":349,"Ġto":350,"Ġif":351,"ri":352,"--":353,"and":354,"la":355,"Ġreturn":356,"Ġfor":357,"ul":358,"ck":359,"ser":360,"Ġ(":361,"one":362,"Ġd":363,"ation":364,"ass":365,"ĠT":366,"get":367,"\",":368,"Ġis":369,"qu":370,"val":371,"up":372,"con":373,"to":374,"ers":375,"put":376,"name":377,"um":378,"str":379,"',":380,"ken":381,"ext":382,"cl":383,"ata":384,"arg":385,"is":386,"es":387,"th":388,"Ġ\"\"\"":389,"None":390,"ht":391,"ĠĠĠĠĠĠĠĠ":392,"ic":393,"orm":394,"Ġ-":395,"Ġ[":396,"ol":397,"est":398,"Ġof":399,"pro":400,"set":401,"ĠL":402,"ab":403,"ype":404,"der":405,"\")":406,"fig":407,"ath":408,"od":409,"ĠA":410,"Ġand":411,"ve":412,"ith":413,"Ġcon":414,"ption":415,"att":416,"int":417,"ize":418,"ult":419,"model":420,"class":421,"ĠC":422,"orch":423,"args":424,"':":425,"ĠS":426,"Ġnot":427,"po":428,"ke":429,"Ġ_":430,"Ġfi":431,"ĠNone":432,"Ġ*":433,"end":434,"import":435,"ction":436,"Ġ1":437,"res":438,"ta":439,"ig":440,"art":441,"che":442,"ase":443,"mage":444,"vi":445,"value":446,"._":447,"do":448,"Ġco":449,"ĠO":450,"em":451,"pp":452,"able":453,"Ġas":454,"(\"":455,"ense":456,"Ġdi":457,"log":458,"Ġl":459,"age":460,"Ġh":461,"ran":462,"all":463,"ĠP":464,"eld":465,"form":466,"----":467,"am":468,"ĠI":469,"Ġ{":470,"ver":471,"ens":472,"et":473,"ror":474,"Ġth":475,"Ġ)":476,"Ġex":477,"rue":478,"Ġu":479,"Ġor":480,"ment":481,"ĠF":482,"def":483,"\":":484,"py":485,"Ġg":486,"\"]":487,"Ġmodel":488,"token":489,"size":490,"ine":491,"pa":492,"')":493,"type":494,"path":495,"Ġst":496,"ect":497,"utput":498,"pre":499,"ew":500,"Ġ2":501,"Ġe":502,"ime":503,"sert":504,"unt":505,"key":506,"icense":507,"('":508,"ter":509,"data":510,"text":511,"que":512,"))":513,"']":514,"Ġwith":515,"Ġ+":516,"ist":517,"Ġstr":518,"..":519,"ang":520,"Ġ0":521,"Ġel":522,"ask":523,"izer":524,"atch":525,"ding":526,"cess":527,"Ġma":528,"rans":529,"ren":530,"par":531,"alse":532,"Ġpro":533,"Ġli":534,"ids":535,"ils":536,"Ġ`":537,"ĠD":538,"ĠLicense":539,"Ġbe":540,"Ġres":541,"init":542,"),":543,"rain":544,"Ġtorch":545,"ĠR":546,"ĠĠĠĠĠĠĠĠĠĠĠĠĠĠĠĠĠĠĠ":547,"ack":548,"len":549,"['":550,"Er":551,"Error":552,"lay":553,"ip":554,"Ġse":555,"ure":556,"emp":557,"quest":558,"us":559,"om":560,"mple":561,"Ġfrom":562,"config":563,"ci":564,"00":565,"],":566,"Ġfile":567,"ault":568,"count":569,"Ġ==":570,"Ġget":571,"[\"":572,"cor":573,"ha":574,"logg":575,"Ġ__":576,"ry":577,"per":578,"Ġun":579,"du":580,"ance":581,"ensor":582,"file":583,"code":584,"ject":585,"Ġan":586,"qui":587,"__(":588,"state":589,"Ġ->":590,"test":591,"Ġelse":592,"assert":593,"\"\"\"":594,"Ġme":595,"ĠM":596,"rib":597,"==":598,"Con":599,"env":600,"ho":601,"ise":602,"ule":603,"True":604,"idd":605,"=\"":606,"ub":607,"ly":608,"if":609,"Ġon":610,"head":611,"red":612,"ĠB":613,"kw":614,"Ġdata":615,"Ġtoken":616,"load":617,"ep":618,"Ġr":619,"os":620,").":621,"EN":622,"ght":623,"pi":624,"ersion":625,"torch":626,"emb":627,"Ġcl":628,"idden":629,"IN":630,"Ġv":631,"Ġuse":632,"ON":633,"ĠW":634,"Ġvalue":635,"ĠU":636,"odule":637,"ight":638,"ac":639,"SE":640,"fe":641,"user":642,"kwargs":643,"tp":644,"ention":645,"utils":646,"##":647,"out":648,"ptional":649,"url":650,"doo":651,"Model":652,"ribut":653,"ee":654,"ite":655,"im":656,"Ġx":657,"app":658,"Ġy":659,"--------":660,"right":661,"ay":662,"Ġ.":663,"Ġfield":664,"ard":665,"low":666,"Ġpar":667,"input":668,"pon":669,"comp":670,"Ġra":671,"Ġsup":672,"reate":673,"we":674,"Ġtest":675,"mo":676,"hape":677,"http":678,"cal":679,"time":680,"bo":681,"uth":682,"image":683,"ssion":684,"dir":685,"Ġname":686,"add":687,"ca":688,"ĠThe":689,"Ġ**":690,"embed":691,"Ġ@":692,"qual":693,"attention":694,"ransform":695,"lab":696,"Ġinput":697,"ĠV":698,"lic":699,"list":700,"Ġint":701,"fo":702,"Ġconfig":703,"Ġby":704,"//":705,"cept":706,"ave":707,"ctor":708,"ango":709,"ponse":710,"Ġset":711,"jango":712,"late":713,"ail":714,"ces":715,"Ġimage":716,"])":717,"train":718,"duct":719,"Ġ%":720,"gth":721,"ator":722,"ant":723,"ty":724,"TI":725,"thod":726,"date":727,"ĠĠĠĠĠĠĠĠĠĠĠĠĠĠĠĠ":728,"com":729,"ssage":730,"Ġit":731,"Ġos":732,"so":733,"ings":734,"dict":735,"().":736,"Ġraise":737,"num":738,"ile":739,"Ġ:":740,"Ġnum":741,"any":742,"ity":743,"Ġoutput":744,"Ġrequi":745,"ition":746,"js":747,"Ġthis":748,"ated":749,"ener":750,"inst":751,"ore":752,"base":753,"ou":754,"ial":755,"OR":756,"nel":757,"rent":758,"ĠE":759,"back":760,"mask":761,"wor":762,"av":763,"Ġcomp":764,"ber":765,"bject":766,"pl":767,"ive":768,"Ġthat":769,"ĠFalse":770,"roup":771,"Ġso":772,"Ġal":773,"loat":774,"ner":775,"Ġdo":776,"ument":777,"output":778,"Ġ}":779,"Equal":780,"ample":781,"ff":782,"coder":783,"cation":784,"ĠOptional":785,"Ġlogg":786,"ĠN":787,"ER":788,"emplate":789,"Ġwe":790,"ust":791,"ĠG":792,"Ġunder":793,"False":794,"ĠH":795,"ĠTrue":796,"mail":797,"ptions":798,"json":799,"Ġen":800,"Ġpre":801,"peci":802,"Ġ3":803,"te":804,"Ġwh":805,"ool":806,"valid":807,"ag":808,"vice":809,"iv":810,"port":811,"ence":812,"ute":813,"In":814,"():":815,"='":816,"Ġdefault":817,"dim":818,"IC":819,"Ġdist":820,"Ġsuper":821,"ary":822,"states":823,"view":824,"...":825,"ug":826,"jo":827,"Ġcopy":828,"AT":829,"und":830,"ok":831,"rint":832,"param":833,"part":834,"://":835,"vo":836,"Ġch":837,"ĠSee":838,"layer":839,"Ġkey":840,"ĠIn":841,"ations":842,"Ġlen":843,"ailable":844,"line":845,"ft":846,"Re":847,"Ġodoo":848,"label":849,"dex":850,"field":851,"op":852,"ĠRe":853,"assertEqual":854,"Ġexcept":855,"cessor":856,"length":857,"heck":858,"uple":859,"cont":860,"sc":861,"Ġdjango":862,"Ġ>":863,"ull":864,"models":865,"AS":866,"act":867,"error":868,"ES":869,"To":870,"Ġapp":871,"ded":872,"pos":873,"ifi":874,"Ġfields":875,"mpt":876,"cur":877,"Ġlist":878,"ll":879,"Ġlo":880,"Ġnp":881,"read":882,"ml":883,"Ġad":884,"Config":885,"hidden":886,"annel":887,"ix":888,"ery":889,"attr":890,"ENSE":891,"ICENSE":892,"account":893,"point":894,"product":895,"Ġtime":896,"ends":897,"ning":898,"yn":899,"Ġtype":900,"Ġare":901,"*-":902,"ir":903,"create":904,"Pro":905,"Ġ-*-":906,"10":907,"shape":908,"Ġcls":909,"unction":910,"Ġrequest":911,"vent":912,"bs":913,"====":914,"Ġ[\"":915,"arch":916,"info":917,"his":918,"ern":919,"are":920,"with":921,"uld":922,"embedding":923,"max":924,"lock":925,"Ġk":926,"AR":927,"utf":928,"ĠUn":929,"Ġnn":930,"min":931,"ds":932,"Ġresult":933,"append":934,"ne":935,"([":936,"ield":937,"ys":938,"ww":939,"tain":940,"Ġuser":941,"Ġdistribut":942,"da":943,"Ġhas":944,"mb":945,"Ġmay":946,"Ġnew":947,"Ġla":948,"Ġpath":949,"Ġ<":950,"extra":951,"ign":952,"Ġro":953,"Ġtransform":954,"Tensor":955,"version":956,"for":957,"lib":958,"Ġqu":959,"Token":960,"gs":961,"Ġ/":962,"ature":963,"quence":964,"Ġtext":965,"ward":966,"tokens":967,"ill":968,"batch":969,"({":970,"lin":971,"mon":972,"'].":973,"ĠCo":974,"check":975,"Ġ...":976,"no":977,"instance":978,"ast":979,"Ġlogging":980,"ory":981,"Ġhttp":982,"main":983,"Ġspeci":984,"Ġhe":985,"mit":986,"Ġinst":987,"plit":988,"AN":989,"Ġtokenizer":990,"02":991,"Ġprint":992,"``":993,"fix":994,"Ġall":995,"uto":996,"Ġform":997,"ild":998,"ision":999,"col":1000,"trained":1001,"Ġmax":1002,"UT":1003,"ice":1004,"nn":1005,"].":1006,"sen":1007,"wn":1008,"[:":1009,"values":1010,"group":1011,"rect":1012,"Ġcont":1013,"logger":1014,"unc":1015,"context":1016,"Ġdistributed":1017,"Ġsho":1018,"order":1019,"her":1020,"Ġtry":1021,"Ġcheck":1022,"Lo":1023,"Test":1024,"####":1025,"ray":1026,"weight":1027,"Ġargs":1028,"thon":1029,"use":1030,"Ġassert":1031,"range":1032,"ace":1033,"partner":1034,"cy":1035,"Ġle":1036,"For":1037,"default":1038,"not":1039,"method":1040,"channel":1041,"pache":1042,"Ġcan":1043,"St":1044,"join":1045,"Ġca":1046,"template":1047,"norm":1048,"Ġper":1049,".\"\"\"":1050,"DE":1051,"pect":1052,"its":1053,"tails":1054,"Ġhidden":1055,"Se":1056,"gre":1057,"cache":1058,"idth":1059,"rite":1060,"tings":1061,"Ġat":1062,"rame":1063,"message":1064,"Ġac":1065,"tensor":1066,"argument":1067,"rit":1068,"oding":1069,"ĠCon":1070,"request":1071,"----------------":1072,"wer":1073,"Ġcoding":1074,"Ġcol":1075,"available":1076,"vert":1077,"Ġ[]":1078,"Ġclass":1079,"ures":1080,"Ġfull":1081,"start":1082,"yp":1083,"Ġ4":1084,"ĠThis":1085,"Ġtransformers":1086,"ses":1087,"Ġpo":1088,"action":1089,"item":1090,"DI":1091,"Ġresponse":1092,"ther":1093,"Ġcur":1094,"ĠK":1095,"Ġbool":1096,"Ġno":1097,"lat":1098,"Ġspecifi":1099,"tokenizer":1100,"Ġpass":1101,"format":1102,"Ġmodels":1103,"vid":1104,"pen":1105,"company":1106,"uage":1107,"anguage":1108,"module":1109,"Ġlic":1110,"Ġdetails":1111,"urce":1112,"Ġyou":1113,"cs":1114,"alue":1115,"Ġisinstance":1116,"Ġshould":1117,"Ġdate":1118,"ict":1119,"parse":1120,"ias":1121,"backends":1122,"bu":1123,"arget":1124,"inal":1125,"ST":1126,"ler":1127,"ms":1128,"sp":1129,"uration":1130,"})":1131,"move":1132,"stat":1133,".__":1134,"scri":1135,"ception":1136,"TH":1137,"mand":1138,"array":1139,"ies":1140,"Ġline":1141,"ĠLICENSE":1142,"device":1143,"Ġadd":1144,"**":1145,"heads":1146,"Ex":1147,"TION":1148,"update":1149,"ME":1150,"ware":1151,"mi":1152,"Ġstring":1153,"idx":1154,"Ġrequired":1155,"cord":1156,"word":1157,"ref":1158,"01":1159,"Ġpart":1160,"())":1161,"ĠY":1162,"ters":1163,"Ġob":1164,"Ġmodule":1165,"string":1166,"ump":1167,"ron":1168,"ĠOdoo":1169,"float":1170,"Ġobject":1171,"np":1172,"RE":1173,"ĠPart":1174,"ĠList":1175,"by":1176,"params":1177,"Ġtyp":1178,"sed":1179,"AL":1180,"ĠReturn":1181,"Ġload":1182,"ĠĠĠĠĠĠĠĠĠĠĠĠĠĠĠĠĠĠĠĠĠĠĠ":1183,"tri":1184,"cale":1185,"ments":1186,"Ġelif":1187,"api":1188,"oo":1189,"ert":1190,"step":1191,"auth":1192,"index":1193,"try":1194,"org":1195,"Pre":1196,"Ġused":1197,"Ġj":1198,"ib":1199,"Ġout":1200,"Ġmethod":1201,"ange":1202,"Ġatt":1203,"ach":1204,"Tokenizer":1205,"lace":1206,"Ġ``":1207,"Image":1208,"LE":1209,"Ġcopyright":1210,"32":1211,"ING":1212,"Ġid":1213,"result":1214,"Ġtyping":1215,"coding":1216,"ensing":1217,"eg":1218,"Ġlicensing":1219,"ssions":1220,"\"])":1221,"Ġwill":1222,"Ġpip":1223,"perty":1224,"ync":1225,"led":1226,"sing":1227,"lient":1228,"split":1229,"ification":1230,"Ġlog":1231,"sh":1232,"new":1233,"process":1234,"Not":1235,"ind":1236,"umm":1237,"over":1238,"Ġ|":1239,"feren":1240,"ale":1241,"'s":1242,"atures":1243,"ans":1244,"ization":1245,"trans":1246,"bsite":1247,"ging":1248,"]:":1249,"ctory":1250,"LM":1251,"core":1252,"pretrained":1253,"Ġbase":1254,"Ġmo":1255,"Type":1256,"lax":1257,"Ġpos":1258,"the":1259,"andom":1260,"dist":1261,"gra":1262,"lass":1263,"ched":1264,"Ġjson":1265,"embeddings":1266,"write":1267,"pyright":1268,"db":1269,"Ġmask":1270,"Ġparser":1271,"Ġfunction":1272,"Ġmessage":1273,"ec":1274,"rst":1275,"Ġattention":1276,"Ġcode":1277,"ĠAn":1278,"Ġurl":1279,"rop":1280,"(),":1281,"Ġdim":1282,"tra":1283,"Ġpad":1284,"vide":1285,"cls":1286,"Ġcontext":1287,"nection":1288,"tes":1289,"ĠAr":1290,"Ġsys":1291,"yle":1292,"processor":1293,"Ġ+=":1294,"CH":1295,"Ġhead":1296,"sub":1297,"layers":1298,"umpy":1299,"ax":1300,"ream":1301,"ixin":1302,"ateg":1303,"Ġ{}":1304,"Ġgener":1305,"tf":1306,"FOR":1307,"ark":1308,"post":1309,"lp":1310,"Ġpy":1311,"channels":1312,"property":1313,".\"":1314,"Ġvalues":1315,"Ġstate":1316,"pay":1317,"less":1318,"ved":1319,"IS":1320,"work":1321,"ari":1322,"voice":1323,"ree":1324,"Res":1325,"Ġutf":1326,"map":1327,"ound":1328,"ally":1329,"su":1330,"Ġexpre":1331,"place":1332,"uct":1333,"ugging":1334,"ĠCopyright":1335,"tt":1336,"lob":1337,"MA":1338,"labels":1339,"ĠDe":1340,"ropo":1341,"!=":1342,"ropout":1343,"ql":1344,"prompt":1345,"Ġq":1346,"requi":1347,"ference":1348,"vider":1349,"response":1350,"Module":1351,"eam":1352,"Ġsub":1353,"dio":1354,"reg":1355,"Ġ5":1356,"gr":1357,"unk":1358,"Ġ('":1359,"Train":1360,"Ġversion":1361,"otal":1362,"Ġlimit":1363,"Field":1364,"box":1365,"Ġfil":1366,"12":1367,"cab":1368,"Ġbatch":1369,"run":1370,"Ġtrain":1371,"().__":1372,"Ġerror":1373,"Ġwor":1374,"dataset":1375,"vel":1376,"ash":1377,"Ġlanguage":1378,"search":1379,"fil":1380,"inputs":1381,"query":1382,"alueError":1383,"Ġwhen":1384,"PI":1385,"ĠIf":1386,"ual":1387,"lied":1388,"ĠPy":1389,"Ġrange":1390,"'t":1391,">>":1392,"Ġfloat":1393,"itial":1394,"ĠTest":1395,"ized":1396,"ither":1397,"event":1398,"ich":1399,"ĠAN":1400,"Ġformat":1401,"Ġ!=":1402,"ock":1403,"OUT":1404,"Ġz":1405,"16":1406,"FI":1407,"license":1408,"iter":1409,"scription":1410,"Ġ]":1411,"Class":1412,"ps":1413,"conv":1414,"udio":1415,"sent":1416,"En":1417,"vision":1418,"Ġfe":1419,"stri":1420,"Ġparam":1421,"ameters":1422,"save":1423,"Lay":1424,"content":1425,"ions":1426,"position":1427,"ĠQ":1428,"Ġspecific":1429,"mode":1430,"ns":1431,"Ġeither":1432,"ph":1433,"Ġdict":1434,"========":1435,"Ġback":1436,"sole":1437,"\"),":1438,"www":1439,"Ġ})":1440,"UL":1441,"ĠCON":1442,"pter":1443,"Ġim":1444,"Ġbu":1445,"FA":1446,"ĠArgs":1447,"PE":1448,"rectory":1449,"Ġhave":1450,"frame":1451,"Ġwrit":1452,"File":1453,"RAN":1454,"Ġsize":1455,"\"],":1456,"Ġlogger":1457,"doc":1458,"pad":1459,"Ġapplic":1460,"ĠEx":1461,"Ġother":1462,"asses":1463,"amp":1464,"Ġimp":1465,"rc":1466,"64":1467,"Ġopen":1468,"ger":1469,"gener":1470,"((":1471,"idget":1472,"loy":1473,"missions":1474,"ĠYou":1475,"tests":1476,"ak":1477,"Ġsoft":1478,"gn":1479,"open":1480,"vailable":1481,"ĠVersion":1482,"Ġ>>>":1483,"Ġsh":1484,"Ġlin":1485,"De":1486,"Ġone":1487,"[:,":1488,"Ġne":1489,".\")":1490,"ĠOR":1491,"GE":1492,"sample":1493,"~~":1494,"Mixin":1495,"enden":1496,"TIONS":1497,"Ġtf":1498,"pri":1499,"mbda":1500,"Ġcurrent":1501,"Ġdevice":1502,"Ġcreate":1503,"ols":1504,"Ġrequires":1505,"Ġ(`":1506,"common":1507,"mplement":1508,"ctions":1509,"ĠANY":1510,"man":1511,"Base":1512,"Ġshape":1513,"stem":1514,"Output":1515,"block":1516,"ĠValueError":1517,"ob":1518,"location":1519,"List":1520,"arn":1521,"Ġ202":1522,"arning":1523,"ĠOF":1524,"Ġgroup":1525,"},":1526,"iven":1527,"meta":1528,"ĠIS":1529,"adata":1530,"OC":1531,"html":1532,"exp":1533,"Ġobtain":1534,"ĠImage":1535,"Ġvalid":1536,"Ġquery":1537,"Par":1538,"dtype":1539,"call":1540,"'],":1541,"ĠApache":1542,"Ġonly":1543,"Ġnumber":1544,"IND":1545,"ide":1546,"email":1547,"(__":1548,"Ġ{\"":1549,"Ġindex":1550,"compute":1551,"attern":1552,"Data":1553,"indo":1554,"opt":1555,"Ġdtype":1556,"features":1557,"indow":1558,"Ġcom":1559,"Com":1560,"ITH":1561,"ystem":1562,"clu":1563,"Ġrun":1564,"nd":1565,"fa":1566,"width":1567,"]]":1568,"Ġpermissions":1569,"Ġwhich":1570,"transform":1571,"tax":1572,"pected":1573,"License":1574,"\"):":1575,"ĠWAR":1576,"Ġup":1577,"pack":1578,"fields":1579,"Ġsoftware":1580,"Trained":1581,"ze":1582,"our":1583,"FORM":1584,"Ch":1585,"Ġend":1586,"viron":1587,"Ġwriting":1588,"dices":1589,"tr":1590,"modeling":1591,"Ġ['":1592,"Ġstart":1593,"ummy":1594,"object":1595,"licenses":1596,"Ġsupport":1597,"project":1598,"TIES":1599,"struct":1600,"ates":1601,"encoder":1602,"ĠWITH":1603,"Processor":1604,"ĠTuple":1605,"encode":1606,"ons":1607,"ĠWARRAN":1608,"Ġagre":1609,"\");":1610,"EC":1611,"ĠLicensed":1612,"Ġsequence":1613,"ait":1614,"Ġexpress":1615,"Ġread":1616,"ustom":1617,"}\")":1618,"Ġapplicable":1619,"Ġimplied":1620,"eline":1621,"[-":1622,"items":1623,"sale":1624,"ĠAny":1625,"Ġlayer":1626,"Ġcompli":1627,"Ġright":1628,"ĠWARRANTIES":1629,"ĠWITHOUT":1630,"Ġany":1631,"Ġweight":1632,"loss":1633,"keys":1634,"ĠKIND":1635,"Ġgover":1636,"ernal":1637,"Ġcompliance":1638,"settings":1639,"Ġlaw":1640,"LICENSE":1641,"ĠBAS":1642,"ĠCONDI":1643,"spe":1644,"Ġorder":1645,"status":1646,"options":1647,"Ġdatetime":1648,"ĠUnless":1649,"Ġagreed":1650,"Ġgoverning":1651,"ĠBASIS":1652,"ĠCONDITIONS":1653,"apache":1654,"Ġlimitations":1655,"PT":1656,"ĠBase":1657,"Ġcontent":1658,"Ġtensor":1659,"Ġhttps":1660,"row":1661,"Ġhelp":1662,"__)":1663,"Ġtemplate":1664,"zer":1665,"tadata":1666,"link":1667,"old":1668,"Ġkwargs":1669,"Ġmin":1670,"pace":1671,"Ġtarget":1672,"func":1673,"}\"":1674,"Ġval":1675,"ĠReturns":1676,"ultip":1677,"\"{":1678,"Ġtrans":1679,"########":1680,"Ġextra":1681,"25":1682,"'),":1683,"ceptions":1684,"install":1685,"Ġdataset":1686,"cores":1687,"website":1688,"return":1689,"Ġact":1690,"eval":1691,"Ġoutputs":1692,"ager":1693,"Ġprompt":1694,"Ġmust":1695,"Face":1696,"Ġgiven":1697,"Ġproduct":1698,"fg":1699,"ister":1700,"ey":1701,"face":1702,"ists":1703,"`,":1704,"ote":1705,"loyee":1706,"Ca":1707,"Dict":1708,"pu":1709,"prefix":1710,"Ġrequire":1711,"ches":1712,"okup":1713,"ĠHugging":1714,"iginal":1715,"Ġwhe":1716,"SI":1717,"ULT":1718,"lean":1719,"https":1720,"ead":1721,"herit":1722,"ĠĠĠĠĊ":1723,"ribute":1724,"payment":1725,"select":1726,"be":1727,"Ġusing":1728,"ld":1729,"rol":1730,"names":1731,"FORMAT":1732,"xml":1733,"ĠSe":1734,"Ġposition":1735,"lable":1736,"ody":1737,"tag":1738,"cking":1739,"Layer":1740,"FAULT":1741,"TE":1742,"Ġinter":1743,"rial":1744,"andler":1745,"Ġpa":1746,"ĠHuggingFace":1747,"ible":1748,"Ġforward":1749,"tx":1750,"invoice":1751,"io":1752,"ride":1753,"question":1754,"RL":1755,"Log":1756,"mat":1757,"lobal":1758,"`.":1759,"Object":1760,"Ġcontain":1761,"Form":1762,"ATE":1763,"pping":1764,"lower":1765,"internal":1766,"Vi":1767,"Ġ[`":1768,"RO":1769,"Ġtuple":1770,"Auth":1771,"The":1772,"ating":1773,"Ġmatch":1774,"color":1775,"Ġargument":1776,"alled":1777,"ome":1778,"bias":1779,"function":1780,"description":1781,"pth":1782,"Co":1783,"inter":1784,"Ġoptions":1785,"AB":1786,"Ġdoes":1787,"LI":1788,"net":1789,"ify":1790,"lines":1791,"Ġbut":1792,"attn":1793,"ong":1794,"table":1795,"Ġcor":1796,"python":1797,"Ġyield":1798,"stra":1799,"Line":1800,"ĠDict":1801,"ĠUnion":1802,"lip":1803,")]":1804,"session":1805,"endency":1806,"cre":1807,"ulti":1808,"Text":1809,"Up":1810,"ernel":1811,"util":1812,"Ġiter":1813,"TO":1814,"Ġarg":1815,"Ġeach":1816,"Ġitem":1817,"speci":1818,"steps":1819,"ĠTF":1820,"Ġtokens":1821,"Ġrandom":1822,"video":1823,"Ġnumpy":1824,"older":1825,"Ġwidth":1826,"ices":1827,"seq":1828,"Ġmat":1829,"only":1830,"lease":1831,"proj":1832,"Ġnorm":1833,"types":1834,"Ġsu":1835,"Ġaction":1836,"Ġfirst":1837,"print":1838,"points":1839,"dropout":1840,"Ġlast":1841,"fter":1842,"task":1843,"Ġinputs":1844,"Ġ):":1845,"ĠAuto":1846,"Ġpadding":1847,"Ġrecord":1848,"ID":1849,"gment":1850,"Ġcall":1851,"__()":1852,"CO":1853,"apter":1854,"ĠJ":1855,"cri":1856,"Ġover":1857,"Ġopt":1858,"addons":1859,"Ġreg":1860,"Ġdoc":1861,"decode":1862,"bin":1863,"Ar":1864,"pare":1865,"img":1866,"ĠPro":1867,"classes":1868,"Att":1869,"Net":1870,"bert":1871,"vocab":1872,"cket":1873,"tools":1874,"ĠModel":1875,"umn":1876,"served":1877,"ĠData":1878,"Ġview":1879,"lot":1880,"Ġinstance":1881,"lta":1882,"Ġparams":1883,"Ġtag":1884,"ged":1885,"of":1886,"decoder":1887,"Ġapi":1888,"Case":1889,"rm":1890,"ution":1891,"cat":1892,"Ġax":1893,"wait":1894,"fault":1895,"pose":1896,"sk":1897,"andle":1898,"splay":1899,"parent":1900,"={":1901,"Ġsettings":1902,"char":1903,"usal":1904,"ipeline":1905,"\".":1906,"xy":1907,"files":1908,"layout":1909,"rency":1910,"Ġ8":1911,"Ġtemp":1912,"PreTrained":1913,"ĠAll":1914,"ategory":1915,"`):":1916,"tmp":1917,"target":1918,"bool":1919,"replace":1920,"exceptions":1921,"Dep":1922,"allable":1923,"outputs":1924,"Ġans":1925,"Set":1926,"stock":1927,"Ġfiles":1928,"Ġneed":1929,"istr":1930,"clude":1931,"lation":1932,"99":1933,"NotA":1934,"Un":1935,"weights":1936,"style":1937,"Ġ10":1938,"Ġchar":1939,"Ġgetattr":1940,"Ġconfiguration":1941,"last":1942,"ĠĠĠĠĠ":1943,"Ġ--":1944,"sg":1945,"lete":1946,"Ġimg":1947,"Ġlength":1948,"chedul":1949,"Ġsave":1950,"lambda":1951,"itle":1952,"Dependency":1953,"Ġblock":1954,"pass":1955,"current":1956,"Ġ(\"":1957,"obj":1958,"000":1959,"Norm":1960,"Ġ//":1961,"ress":1962,"Ġren":1963,"direct":1964,"ous":1965,"build":1966,"grad":1967,"NotAvailable":1968,"edi":1969,"á´":1970,"ĠOptionalDependency":1971,"ĠOptionalDependencyNotAvailable":1972,"down":1973,"ays":1974,"cond":1975,"ename":1976,"IL":1977,"ox":1978,"Ġsample":1979,"Ġ\"%":1980,"Ġconv":1981,"node":1982,"off":1983,"roll":1984,"ai":1985,"cial":1986,"Me":1987,"Ġevent":1988,"dd":1989,"ader":1990,"Dummy":1991,"Ġcache":1992,"cho":1993,"Ġimages":1994,"round":1995,"assertTrue":1996,"Ġtra":1997,"copy":1998,"afe":1999,"ting":2000,"ccess":2001,"filter":2002,"normal":2003,"strip":2004,"PO":2005,"pr":2006,"client":2007,"metaclass":2008,"sum":2009,"clo":2010,"Ġauth":2011,"ultiple":2012,"Ġwork":2013,"zy":2014,"Path":2015,"lama":2016,"=',":2017,"Ġpack":2018,"Ġexpected":2019,"scale":2020,"ble":2021,"checkpoint":2022,"patch":2023,"izers":2024,"ameter":2025,"verse":2026,"'])":2027,"Ġallow":2028,"pped":2029,"Ġprocess":2030,"record":2031,"Widget":2032,"cent":2033,"DummyObject":2034,"YPE":2035,"va":2036,"quant":2037,"ĠPre":2038,"bar":2039,"Ġ6":2040,"web":2041,"df":2042,"--------------------------------":2043,"users":2044,"Ġcount":2045,"Ġteam":2046,"oth":2047,"match":2048,"ĠInc":2049,"rate":2050,"endor":2051,"AD":2052,"fore":2053,"Ġtotal":2054,"inherit":2055,"register":2056,"itional":2057,"Ġmode":2058,"activ":2059,"Ġrights":2060,"Ġ\\":2061,"Ġent":2062,"ake":2063,"raw":2064,"alid":2065,"sequence":2066,"ĠWe":2067,"root":2068,"Ġ{'":2069,"mark":2070,"LO":2071,"NA":2072,"Ġcase":2073,"TT":2074,"dep":2075,"mean":2076,"employee":2077,"ccount":2078,"encoding":2079,"angle":2080,"ifier":2081,"height":2082,"Ġsame":2083,"pop":2084,"ension":2085,"Ġmore":2086,"Ġreserved":2087,"usion":2088,"cu":2089,"Ġmake":2090,"ross":2091,"has":2092,"ĠPython":2093,"auto":2094,"tuple":2095,"=[":2096,"require":2097,"(*":2098,"({'":2099,"Ġstyle":2100,"Ġfunc":2101,"CON":2102,"rix":2103,"Linear":2104,"Ġconvert":2105,"Ġ],":2106,"`]":2107,"lated":2108,"'):":2109,"ĠĠĠĠĠĠĠĠĠĠĠĠĠĠĠĠĠĠĠĠĠĠĠĠ":2110,"Ġinitial":2111,"atter":2112,"Ġvari":2113,"formation":2114,"fer":2115,"images":2116,"\"))":2117,"ages":2118,"very":2119,"Ġsource":2120,"dump":2121,"Ġstat":2122,"ĠLo":2123,"gram":2124,"views":2125,"olution":2126,"20":2127,"MP":2128,"rary":2129,"level":2130,"ints":2131,"Ġconnection":2132,"''":2133,"optional":2134,"CT":2135,"active":2136,"ECK":2137,"domain":2138,"Ġcolor":2139,"uid":2140,"contrib":2141,"ical":2142,"Ġtask":2143,"price":2144,"(_":2145,"Ġfound":2146,"example":2147,"ĠNot":2148,"poch":2149,"exists":2150,"loc":2151,"cheduler":2152,"ffer":2153,"ection":2154,"Ġeval":2155,"lauth":2156,"CHECK":2157,"ap":2158,"urch":2159,"coded":2160,"Cont":2161,"number":2162,"Ġ..":2163,"Ġheight":2164,"ools":2165,"UN":2166,"Response":2167,"keep":2168,"dent":2169,"indices":2170,"urchase":2171,"Ġdirectory":2172,"Ġcolle":2173,"Ġemp":2174,"sql":2175,"Ġmsg":2176,"attentions":2177,"adapter":2178,"ulate":2179,"Ġpartner":2180,"ech":2181,"ord":2182,"Ġ'=',":2183,"ility":2184,"ensure":2185,"req":2186,"Ġoper":2187,"fl":2188,"bytes":2189,"ource":2190,"Ġpatch":2191,"Ġencoding":2192,"classmethod":2193,"rid":2194,"Ġstream":2195,"delta":2196,"Ġloss":2197,"OS":2198,"login":2199,"spect":2200,"ĠĊ":2201,"Ġinto":2202,"KEN":2203,"ted":2204,"Ġpi":2205,"arnings":2206,"ĠUser":2207,"she":2208,"pattern":2209,"chunk":2210,"ents":2211,"local":2212,"sudo":2213,"andid":2214,"ĠDefault":2215,"sign":2216,"bug":2217,"lative":2218,"msg":2219,"gle":2220,"sets":2221,"resh":2222,"View":2223,"gments":2224,"ĠPath":2225,"forward":2226,"flow":2227,"Ġfilename":2228,"Ġallauth":2229,"special":2230,"entic":2231,"ling":2232,"Ġoriginal":2233,"(-":2234,"cfg":2235,"Ġinit":2236,"dm":2237,"Ġcompany":2238,"feature":2239,"Ġresults":2240,"Float":2241,"nect":2242,"RA":2243,"ĠFlax":2244,"scores":2245,"initial":2246,"server":2247,"answer":2248,"\"].":2249,"Ġoff":2250,"iss":2251,"ĠDE":2252,"lename":2253,"configuration":2254,"11":2255,"Ġinformation":2256,"unit":2257,"provider":2258,"Ġemail":2259,"latform":2260,"30":2261,"vendor":2262,"Ġign":2263,"itor":2264,"igr":2265,"With":2266,"ĠCheck":2267,"MO":2268,"Ġrow":2269,"var":2270,"Ġ),":2271,"Ġvo":2272,"Ġoptional":2273,"results":2274,"embeds":2275,"=-":2276,"Ġframe":2277,"Ġlines":2278,"vis":2279,"Ġchannel":2280,"ĠCom":2281,"Ġexist":2282,"Gener":2283,"imple":2284,"Ġhasattr":2285,"dirname":2286,"irs":2287,"bit":2288,"Col":2289,"nt":2290,"Ġass":2291,"environ":2292,"stream":2293,"Ġtraining":2294,"Classification":2295,"cript":2296,"ithub":2297,"Ġho":2298,"Exception":2299,"</":2300,"Char":2301,"Common":2302,"body":2303,"chat":2304,"messages":2305,"SL":2306,"PreTrainedModel":2307,"Ġsession":2308,"source":2309,"Ġlabel":2310,"Ġwhile":2311,"strings":2312,"modules":2313,"ĠSet":2314,"Ġcre":2315,"}.":2316,"Str":2317,":`":2318,"Ġnode":2319,"qdm":2320,"ollow":2321,"ĠFor":2322,"TTP":2323,"Logger":2324,"ĠType":2325,"fn":2326,"cuda":2327,"pat":2328,"convert":2329,"Ġsome":2330,"Ġbuild":2331,":%":2332,"github":2333,"sup":2334,"medi":2335,"Ġaxis":2336,"ĠTo":2337,"Ġcontin":2338,"mory":2339,"ĠĠĠĠĠĠĠĠĊ":2340,"filename":2341,"connection":2342,"cle":2343,"Ġparse":2344,"soft":2345,"abs":2346,"ĠRes":2347,"ton":2348,"password":2349,"Ġawait":2350,"uom":2351,"mplemented":2352,"Ġ\"\\":2353,"Ġver":2354,"change":2355,"ometry":2356,"Ġcompute":2357,"Ġtop":2358,"oogle":2359,"processing":2360,"sys":2361,"numpy":2362,"tensors":2363,"ont":2364,"Ġpl":2365,"Ġext":2366,"Ġweights":2367,"LA":2368,"currency":2369,"txt":2370,"aded":2371,"top":2372,"...,":2373,"Ġattn":2374,"sche":2375,"fet":2376,"Ġexample":2377,"django":2378,"Ġpri":2379,"Ġits":2380,"stant":2381,"riter":2382,"ĠException":2383,"TOKEN":2384,"present":2385,"gument":2386,"gt":2387,"ĠĠĠĠĠĠ":2388,"Ġargparse":2389,"flax":2390,"Ġsplit":2391,"lement":2392,"parameters":2393,"Ġwas":2394,"Ġlib":2395,"total":2396,"imum":2397,"Ġnormal":2398,"Ġrender":2399,"Ġscale":2400,"first":2401,"ank":2402,"static":2403,"lead":2404,"rich":2405,"ĠX":2406,"ative":2407,"ribution":2408,"Ġnames":2409,"Ġobj":2410,"attrs":2411,"random":2412,"Ġsee":2413,"PP":2414,"Ġ},":2415,"ics":2416,"book":2417,"Ġmove":2418,"pper":2419,"Ġmath":2420,"ĠSt":2421,"Ġ\"__":2422,"][":2423,"manager":2424,"Conv":2425,"Ġ12":2426,"Ġenum":2427,"qa":2428,"Ġparameters":2429,"ndarray":2430,"aise":2431,"ential":2432,"void":2433,"ain":2434,"logits":2435,"Ġseq":2436,"headers":2437,"Ġupdate":2438,"Ġunit":2439,"ĠInitial":2440,"TER":2441,"Ġbytes":2442,"folder":2443,"Attention":2444,"Ġpay":2445,"mbed":2446,"sor":2447,"Ġkernel":2448,"Ġasync":2449,"wh":2450,"lava":2451,"Ġnext":2452,"groups":2453,".\",":2454,"Ġaccount":2455,"Ġmain":2456,"Ġcontinue":2457,"EL":2458,"orage":2459,"').":2460,"Request":2461,"metadata":2462,"Ġmessages":2463,"ie":2464,"Ġsql":2465,"Ġab":2466,"================":2467,"Name":2468,"unct":2469,"Ġ25":2470,"EX":2471,"~~~~":2472,"(**":2473,"audio":2474,"Ġarguments":2475,"comple":2476,"parser":2477,"Bert":2478,"odoo":2479,"Tester":2480,"wra":2481,"Ġstep":2482,"ĠURL":2483,"This":2484,"next":2485,"Ġdocument":2486,"TIME":2487,"Ġfeature":2488,"(\"--":2489,"seed":2490,"Ġfilter":2491,"lang":2492,"Ġprocessor":2493,"Ġglobal":2494,"Ġspecified":2495,"wo":2496,"other":2497,"command":2498,"aly":2499,"hr":2500,"Ġwarnings":2501,"prepare":2502,"Ġexp":2503,"Ġ7":2504,"Ġclient":2505,"quee":2506,"zeros":2507,"category":2508,"Return":2509,"prob":2510,"RI":2511,"atio":2512,"queeze":2513,"src":2514,"'.":2515,"bot":2516,"ries":2517,"Ġ200":2518,"Ġafter":2519,"wise":2520,"ĠText":2521,"KE":2522,"reak":2523,"uest":2524,"lm":2525,"Ġtqdm":2526,"vided":2527,"Ġlayout":2528,"Ġlink":2529,"ationError":2530,"render":2531,"page":2532,"exec":2533,"Many":2534,"ĠPar":2535,"100":2536,"temp":2537,"host":2538,"score":2539,"Ġencoder":2540,"04":2541,"Ġparent":2542,"DATE":2543,"ities":2544,"Ġembeddings":2545,"serial":2546,"vector":2547,"Ġcollections":2548,"cpu":2549,"sable":2550,"::":2551,"Ġprefix":2552,"DO":2553,")),":2554,"Ġdown":2555,"rt":2556,"FloatTensor":2557,"ĠTYPE":2558,"izard":2559,"async":2560,"factor":2561,"mm":2562,"ng":2563,"delete":2564,"usalLM":2565,"ready":2566,"hash":2567,"social":2568,"ush":2569,"Ġinstall":2570,"ĠCh":2571,"ttp":2572,"ingle":2573,"Ġcho":2574,"Ġcorrect":2575,"Ġbias":2576,"arm":2577,"Ġsk":2578,"berta":2579,"Ġwra":2580,"mer":2581,"Ġfollow":2582,"ENT":2583,"Ġquant":2584,"Ġaudio":2585,"Ġembedding":2586,"Ġidx":2587,"Time":2588,"Do":2589,"Key":2590,"script":2591,"mbedding":2592,"Ġheaders":2593,"ui":2594,"rank":2595,"CHECKING":2596,"ique":2597,"ĠGener":2598,"gex":2599,"ĠIter":2600,"ason":2601,"except":2602,"Found":2603,"50":2604,"iled":2605,"LIP":2606,"Ġsign":2607,"pred":2608,"ĠĠĠĠĠĠĠĠĠĠĠĠĠĠĠĠĠĠĠĠĠĠĠĠĠĠĠĠĠĠĠĠ":2609,"ins":2610,"Ġbet":2611,"generate":2612,"Ġvocab":2613,"vari":2614,"otion":2615,"Ġanswer":2616,"Ġignore":2617,"author":2618,"Fe":2619,"Get":2620,"mt":2621,"Ġ>=":2622,"DEL":2623,"admin":2624,"cr":2625,"full":2626,"Ġnon":2627,"Ġaccess":2628,"Ġkeys":2629,"gress":2630,"Ġdecoder":2631,"ilt":2632,"emo":2633,"'))":2634,"Ġ%(":2635,"docs":2636,"igh":2637,"DEFAULT":2638,"prec":2639,"Ġlabels":2640,"Ġpost":2641,"ales":2642,"day":2643,"Ġmetadata":2644,"Parser":2645,"gpt":2646,"Ġarch":2647,"fy":2648,"ĠIt":2649,"Ġman":2650,"sho":2651,"difi":2652,"squeeze":2653,"imizer":2654,"Ġbox":2655,"Ġprovided":2656,"ĠCommand":2657,"24":2658,"starts":2659,"diff":2660,"lect":2661,"amo":2662,"Ġbackend":2663,"ublic":2664,"drop":2665,"Ġfa":2666,"Ġproject":2667,"=(":2668,"ables":2669,"ĠConfig":2670,"conf":2671,"uation":2672,")))":2673,"Ġhash":2674,"Trans":2675,"find":2676,"scal":2677,"ume":2678,"Ġlocal":2679,"docstrings":2680,"User":2681,"kv":2682,"API":2683,"Ro":2684,"ĠDEFAULT":2685,"qty":2686,"stract":2687,"()._":2688,"Ġrot":2689,"like":2690,"âĶ":2691,"case":2692,"Ġstride":2693,"fp":2694,"title":2695,"ined":2696,"access":2697,"ular":2698,"Ġbefore":2699,"whe":2700,"Implemented":2701,"Ġmethods":2702,"ĠAPI":2703,"allow":2704,"Ġ\"\"":2705,"else":2706,"Ġkeep":2707,"ĠNotImplemented":2708,"istory":2709,"quen":2710,"amount":2711,"getLogger":2712,"ffix":2713,"ĠCreate":2714,"role":2715,"hook":2716,"Ġyour":2717,"display":2718,".%":2719,"close":2720,"icro":2721,"acy":2722,"ĠPIL":2723,"endar":2724,"Ġchunk":2725,"send":2726,"enu":2727,"Argument":2728,"nown":2729,"plat":2730,"vals":2731,"Ġtimeout":2732,"ster":2733,"Ġthan":2734,"alidationError":2735,"ML":2736,"ose":2737,"celer":2738,"Ġrequests":2739,"QL":2740,"CausalLM":2741,"country":2742,"Ġselect":2743,"ctionary":2744,"ĠImport":2745,"Ġ_,":2746,"Ġdefaults":2747,"mod":2748,"safe":2749,"Ġsort":2750,"Ġsystem":2751,"Ġcommand":2752,"Ġroot":2753,"An":2754,"Ġsche":2755,"compile":2756,"Ġencoded":2757,"Ġgenerate":2758,"pha":2759,"Ġ100":2760,"win":2761,"assed":2762,"Ġreplace":2763,"Ġdep":2764,")):":2765,"Ġdomain":2766,"rer":2767,"ges":2768,"Ġbreak":2769,"ixel":2770,"Py":2771,"USE":2772,"PUT":2773,"window":2774,"Ġjnp":2775,"ummary":2776,"aises":2777,"gest":2778,"mall":2779,"iddle":2780,"trics":2781,"Code":2782,"ora":2783,"ators":2784,"Ġfind":2785,"zero":2786,"testing":2787,"rot":2788,"cope":2789,"Ġ\".":2790,"AI":2791,"reshape":2792,"loader":2793,"uture":2794,"NAME":2795,"Ġfl":2796,"ĠCallable":2797,"Ġwhere":2798,"roller":2799,"startswith":2800,"system":2801,"ors":2802,"cords":2803,"logging":2804,"Ġret":2805,"Ġspe":2806,":]":2807,"dic":2808,"ĠĠĠĠĠĠĠĠĠĠĠĠĠĠĠĠĠĠĠĠĠĠĠĠĠĠĠ":2809,"ĠInitialize":2810,"light":2811,"tyle":2812,"_(":2813,"structure":2814,"ful":2815,"istry":2816,"VER":2817,"hs":2818,"erature":2819,"Ġchange":2820,"Ġjo":2821,"extractor":2822,"[...,":2823,"ear":2824,"Ġold":2825,"curity":2826,"KEY":2827,"\"][\"":2828,"rypt":2829,"Ġcomple":2830,"transpose":2831,"ForCausalLM":2832,"Ġcharact":2833,"ffe":2834,"DIR":2835,"Encoder":2836,"](":2837,"Ġag":2838,"md":2839,"Ġreturned":2840,"Ġdatabase":2841,"Ġzip":2842,"Ġpackage":2843,"atern":2844,"vironment":2845,"atten":2846,"mplementation":2847,"ia":2848,"Ġinspect":2849,"ributes":2850,"200":2851,"Ġoption":2852,"sli":2853,"Ġinvoice":2854,"now":2855,"epoch":2856,"dered":2857,"Torch":2858,"tered":2859,"DOC":2860,"Provider":2861,"Ġcustom":2862,"Ġinfo":2863,"picking":2864,"Ġbeen":2865,"spec":2866,"lr":2867,"make":2868,"empty":2869,"ImageProcessor":2870,"Ġfin":2871,"depends":2872,"Ġunittest":2873,"debug":2874,"document":2875,"Account":2876,"ĠDjango":2877,"Ġinstead":2878,"ModelOutput":2879,"ĠMe":2880,"oper":2881,"child":2882,"duction":2883,"Ġge":2884,"Ġserial":2885,"pytorch":2886,"cause":2887,"Embedding":2888,"Ġhere":2889,"14":2890,"Ġthen":2891,"Ser":2892,"datetime":2893,"unctools":2894,"hed":2895,"Ġfinal":2896,"graph":2897,"Ġheader":2898,"blocks":2899,"202":2900,"34":2901,"Ada":2902,"zone":2903,"err":2904,"pix":2905,"IO":2906,"ĠForm":2907,"ĠGet":2908,"iteral":2909,"former":2910,"ell":2911,"SSL":2912,"Ġmark":2913,"Ġthread":2914,"esca":2915,"Ġstrings":2916,"Ġpassed":2917,"erate":2918,"Ġfeatures":2919,"Ġclo":2920,"ĠNotImplementedError":2921,"Ġconsole":2922,"Ġsingle":2923,"Tuple":2924,"column":2925,"ampling":2926,"side":2927,"FIG":2928,"################":2929,"Transform":2930,"training":2931,"gine":2932,"Ġalso":2933,"LayerNorm":2934,"Date":2935,"ilter":2936,"Ġmail":2937,"alo":2938,"Ġ<=":2939,"Ġpattern":2940,"card":2941,"sync":2942,"ĠAtt":2943,")[":2944,"('/":2945,"Sequence":2946,"frames":2947,"ensions":2948,"03":2949,"ĠDefaults":2950,"std":2951,"alc":2952,"tags":2953,"duce":2954,"/%":2955,"MES":2956,"pied":2957,"Ġlevel":2958,"sheet":2959,"ites":2960,"Ġhandle":2961,"andidate":2962,"Po":2963,"sl":2964,"report":2965,"socialaccount":2966,"directory":2967,"dirs":2968,"Ġ\",":2969,"linear":2970,"Ġwebsite":2971,"Ġthere":2972,"ĠTeam":2973,"OT":2974,"depth":2975,"paths":2976,"many":2977,"trainedConfig":2978,"Ġtable":2979,"izes":2980,"\").":2981,"validate":2982,"conds":2983,"Ġwithout":2984,"Ġerrors":2985,"UP":2986,"Ġenumerate":2987,"Ġpython":2988,"med":2989,"Ġgr":2990,"Ġpassword":2991,"Fast":2992,"Ġvideo":2993,"Ġids":2994,"foo":2995,"Ġempty":2996,"*,":2997,"Ġpred":2998,"lag":2999,"Ġdiff":3000,"ĠFile":3001,"Ġ9":3002,"Ġavailable":3003,"Ġalready":3004,"Ġreturns":3005,"icode":3006,"ĠKey":3007,"Ġobjects":3008,"SON":3009,"Ġstatus":3010,"Qu":3011,"Ġrepresent":3012,"Ġpixel":3013,"Ġwrite":3014,"UpClass":3015,"Block":3016,"language":3017,"padding":3018,"repr":3019,"Ġremove":3020,"Ġlambda":3021,"purchase":3022,"expand":3023,"gor":3024,"remove":3025,"store":3026,"15":3027,"functional":3028,"warning":3029,"Ġtwo":3030,"Ġ`(":3031,"oolean":3032,"gorith":3033,"enable":3034,"Ġsrc":3035,"ud":3036,"Ġdon":3037,"ween":3038,"tion":3039,"connect":3040,"alyt":3041,"Ġrelative":3042,"hf":3043,"portal":3044,"rel":3045,"uestion":3046,"offset":3047,"demo":3048,"Ġ\"--":3049,"lookup":3050,"olve":3051,"Ġexec":3052,"Ġ16":3053,"transformers":3054,"words":3055,"uggingface":3056,"custom":3057,"asic":3058,"Prompt":3059,"Ġoffset":3060,"Adapter":3061,"eras":3062,"ĠTensor":3063,"header":3064,"Ġsin":3065,"tokenization":3066,"ffi":3067,"201":3068,"Ġlayers":3069,"tower":3070,"Ġlookup":3071,"Ġlike":3072,"buffer":3073,"17":3074,"Result":3075,"hen":3076,"Ġrelated":3077,"SH":3078,"Ġextract":3079,"ĠImportError":3080,"route":3081,"Ġ[(":3082,"ported":3083,"Value":3084,"__\":":3085,"cies":3086,"choices":3087,"UM":3088,"itive":3089,"icrosoft":3090,"It":3091,"pk":3092,"stack":3093,"required":3094,"Ġinstalled":3095,"sentence":3096,"No":3097,"Input":3098,"achment":3099,"Handler":3100,",)":3101,"rand":3102,"firm":3103,"tric":3104,"platform":3105,"andard":3106,"Ġmodules":3107,"Ġauto":3108,"Ġpast":3109,"fferent":3110,"derer":3111,"utton":3112,"Ġcheckpoint":3113,"Ġtr":3114,"([('":3115,"ĠDo":3116,"__,":3117,"MS":3118,"tree":3119,"IT":3120,"Ġquestion":3121,"Message":3122,")],":3123,"uring":3124,"Raises":3125,"imp":3126,"limit":3127,"Ġapply":3128,"issing":3129,"ift":3130,"CL":3131,"fin":3132,"option":3133,"edit":3134,"Ġwant":3135,"Ġmultiple":3136,"pool":3137,"correct":3138,"US":3139,"lection":3140,"stru":3141,"\\\\":3142,"ceiv":3143,"Ġstore":3144,"Ġsearch":3145,"axis":3146,"Ġcreated":3147,"urnal":3148,"Ġsent":3149,"Command":3150,"pixel":3151,"dout":3152,"Ġ&":3153,"Ġref":3154,"Ġdisplay":3155,"iddleware":3156,"olver":3157,"Ġident":3158,"Ġforce":3159,"Ġresp":3160,"plan":3161,"Ġenv":3162,"assertRaises":3163,"space":3164,"umns":3165,"Ġvals":3166,"Ġinclude":3167,"Feature":3168,"Ġlogits":3169,"dot":3170,"Ġpage":3171,"viders":3172,"Dataset":3173,"quences":3174,"global":3175,"MODEL":3176,"ĠToken":3177,"ĠAdd":3178,"Fa":3179,"au":3180,"can":3181,"ĠValidationError":3182,"mediate":3183,"Ġembed":3184,"Ġlat":3185,"IM":3186,"SION":3187,"escape":3188,"stamp":3189,"ATA":3190,"sq":3191,"Ġbased":3192,"pol":3193,"UR":3194,"redirect":3195,"pert":3196,"TokenizerFast":3197,"AC":3198,"Ġwindow":3199,"urls":3200,"Ġcv":3201,"HE":3202,"ilar":3203,"Ġnet":3204,"Event":3205,"imilar":3206,"igin":3207,"Ġmatrix":3208,"Ġpayment":3209,"Ġskip":3210,"Dist":3211,"probs":3212,"allback":3213,"eger":3214,"String":3215,"ured":3216,"ĠEn":3217,"cast":3218,"ĠQt":3219,"ĠIterable":3220,"urve":3221,"bl":3222,"Ġbecause":3223,"loads":3224,"Ġactiv":3225,"bone":3226,"Context":3227,"bose":3228,"hub":3229,"ratio":3230,"deta":3231,"mute":3232,"Ġlead":3233,"OAuth":3234,"ĠTO":3235,"STR":3236,"original":3237,"Ġdescription":3238,"Ġdictionary":3239,"Extra":3240,"ĠHTTP":3241,"dified":3242,"]):":3243,"google":3244,"ender":3245,"left":3246,"Ġgra":3247,"Ġscores":3248,"Invalid":3249,"CONFIG":3250,"clip":3251,"dat":3252,"ines":3253,"18":3254,"atic":3255,"ract":3256,"sd":3257,"sage":3258,"feat":3259,"Ġdisable":3260,"termin":3261,"iff":3262,"yntax":3263,"Warning":3264,"Ġ\"<":3265,"cos":3266,"OL":3267,"eps":3268,"filtered":3269,"Ans":3270,"ED":3271,"Ġthem":3272,"Ġgroups":3273,"final":3274,"pipeline":3275,"umber":3276,"ABLE":3277,"HT":3278,"Pipeline":3279,"dec":3280,"lazy":3281,"Ġ20":3282,"vious":3283,"kernel":3284,"Ġfollowing":3285,"OP":3286,"Ġsupported":3287,"Ġ'/":3288,"ORT":3289,"Ġcontrol":3290,"Filter":3291,"Ġbetween":3292,"ero":3293,"FF":3294,"rp":3295,"}\\":3296,"utom":3297,"handler":3298,"urvey":3299,"ĠHttp":3300,"Ġdifferent":3301,"ners":3302,"rest":3303,"Ġpathlib":3304,"Version":3305,"extract":3306,"requires":3307,"ĠOpen":3308,"Ġcached":3309,"multi":3310,"}/":3311,"Ġexception":3312,"ink":3313,"rag":3314,"used":3315,"ĠQu":3316,"thread":3317,"State":3318,"ampler":3319,"gorithm":3320,"ĠAl":3321,"Ġ14":3322,"ĠComp":3323,"Mask":3324,"llama":3325,"ĠRo":3326,"bers":3327,"EP":3328,"GB":3329,"reference":3330,"atches":3331,"Ġannot":3332,"Loss":3333,"Ġpoint":3334,"(?":3335,"ĠZ":3336,"19":3337,"Info":3338,"Question":3339,"plot":3340,"quire":3341,"INPUT":3342,"Ġfunctools":3343,"expre":3344,"Ġ'.":3345,"address":3346,"Ġsetup":3347,"llm":3348,"ĠDist":3349,"Ġchild":3350,"MAGE":3351,"Ġtypes":3352,"\"}":3353,"brow":3354,"56":3355,"untime":3356,"ERT":3357,"assertFalse":3358,"alle":3359,"teger":3360,"Inst":3361,"ending":3362,"TesterMixin":3363,"cut":3364,"Ġprovide":3365,"DS":3366,"tokenizers":3367,"matrix":3368,"Ġcontains":3369,"Ġjust":3370,"ĠUserError":3371,"WOR":3372,"Ġavoid":3373,"ish":3374,"calendar":3375,"Widgets":3376,"ident":3377,"mailing":3378,"dest":3379,"Ġsp":3380,"Ġ\"_":3381,"eometry":3382,"alias":3383,"ĠOr":3384,"applic":3385,"Al":3386,"ways":3387,"âĸ":3388,"ĠCopied":3389,"exception":3390,"diction":3391,"entry":3392,"objects":3393,"Answer":3394,"ves":3395,"console":3396,"Ġattribute":3397,"Oper":3398,"(\"\\":3399,"framework":3400,"IG":3401,"You":3402,"Ġensure":3403,"rection":3404,"sms":3405,"Ġlibrary":3406,"skip":3407,"pg":3408,"Ġretri":3409,"queue":3410,"ĠPyTorch":3411,"pip":3412,"unsqueeze":3413,"CA":3414,"errors":3415,"URL":3416,"Ġprob":3417,"tact":3418,"ET":3419,"We":3420,"thing":3421,"ian":3422,"Ġrest":3423,"cii":3424,"Ġnoqa":3425,"']._":3426,"reset":3427,"control":3428,"Head":3429,"Mo":3430,"vec":3431,"Ġexc":3432,"iler":3433,"Ġraw":3434,"Ġchannels":3435,"'})":3436,"Ġdepth":3437,"aml":3438,"okie":3439,"ts":3440,"boxes":3441,"PU":3442,"Ġindices":3443,").__":3444,"DER":3445,"oauth":3446,"Ġdoesn":3447,"Ġmer":3448,"ĠLay":3449,"256":3450,"Ġcfg":3451,"mock":3452,"Ġattrs":3453,"ategy":3454,"gis":3455,"}'":3456,"reshold":3457,"timeout":3458,"mission":3459,"grid":3460,"Check":3461,"Ġremo":3462,"compat":3463,"By":3464,"Vision":3465,"dis":3466,"Ġreference":3467,"armup":3468,"ĠPo":3469,"Ġleft":3470,")])":3471,"Client":3472,"GR":3473,"La":3474,"cert":3475,"Ġcompat":3476,"TF":3477,"ored":3478,"Ġcalled":3479,"itect":3480,"Ġsav":3481,"ĠApp":3482,"ĠUse":3483,"Ġparameter":3484,"Former":3485,"Cache":3486,"tect":3487,"ĠRun":3488,"Ġclasses":3489,"ibility":3490,"lex":3491,"Ġmemory":3492,"mapping":3493,"rf":3494,"ras":3495,"site":3496,"Ġtri":3497,"Ġfree":3498,"Ġap":3499,"Ġthey":3500,"ĠOAuth":3501,"0000":3502,"Ġcontaining":3503,"ĠTransform":3504,"Comp":3505,"_{":3506,"tz":3507,"Ġour":3508,"Ġsure":3509,"providers":3510,"true":3511,"Ref":3512,"attribute":3513,"(\"/":3514,"team":3515,"Ġvi":3516,"Is":3517,"leave":3518,"Ġfp":3519,"ĠĠĠĠĠĠĠĠĠ":3520,"Ġmean":3521,"='_":3522,"samples":3523,"parts":3524,"patial":3525,"loaded":3526,"cio":3527,"release":3528,"Ġter":3529,"Ġ\"/":3530,"tocol":3531,"cached":3532,"track":3533,"__.__":3534,"CE":3535,"asure":3536,"INT":3537,"Ġ:,":3538,"Ġlocation":3539,"Ġexpression":3540,"handle":3541,"sha":3542,"tmpdirname":3543,"cogn":3544,"igration":3545,"sa":3546,"Ġscript":3547,"olid":3548,"licy":3549,"Ġsorted":3550,"Ġentry":3551,"actions":3552,"Ġcomput":3553,"hat":3554,"ven":3555,"Ġport":3556,"Ġdropout":3557,"yncio":3558,"Ġcannot":3559,"igrations":3560,"\"\\":3561,"Di":3562,"vers":3563,"Ġprovider":3564,"AND":3565,"Ġ2024":3566,"DA":3567,"ather":3568,"Item":3569,"ient":3570,"Ġdrop":3571,"ĠAccount":3572,"Man":3573,"sy":3574,"wers":3575,"ability":3576,"Stat":3577,"Ġtempfile":3578,"dataclass":3579,"Vec":3580,"etun":3581,"Ġbody":3582,"ece":3583,"ĠID":3584,"ributed":3585,"expected":3586,"Ġusers":3587,"PPING":3588,"\"][":3589,"Le":3590,"arge":3591,"Ġdirect":3592,"Ġpoints":3593,"USER":3594,")}":3595,"hes":3596,"future":3597,"username":3598,"Ġpaths":3599,"Ġqs":3600,"havi":3601,"Ġenvironment":3602,"-%":3603,"Id":3604,"ĠIN":3605,"MAPPING":3606,"none":3607,"idual":3608,"Ġgenerated":3609,"Ġarray":3610,"Ġsum":3611,"ones":3612,"term":3613,"Console":3614,"zip":3615,"[:-":3616,"]))":3617,"lain":3618,"Ġshort":3619,"sin":3620,"Ġdir":3621,"Loader":3622,"Ġlogin":3623,"backend":3624,">\"":3625,"lack":3626,"Ġ201":3627,"05":3628,"`].":3629,"sort":3630,"repo":3631,"Ġcalc":3632,"respon":3633,"ancel":3634,"Ġsetting":3635,"ĠNote":3636,"bos":3637,"Ġpe":3638,"bn":3639,"utable":3640,"Ġdest":3641,"Ġwhether":3642,"ĠSequence":3643,"service":3644,"ĠAutoTokenizer":3645,"fast":3646,"gin":3647,"upt":3648,"uff":3649,"memory":3650,"corator":3651,"authentic":3652,"rule":3653,"Ġ'\\":3654,"ssible":3655,"acc":3656,"EST":3657,"tagged":3658,"sep":3659,"ypes":3660,"endencies":3661,"patterns":3662,"ĠTypeError":3663,"ĠAuth":3664,"house":3665,"Back":3666,"board":3667,"execute":3668,"06":3669,"13":3670,"after":3671,"Ġemb":3672,"reward":3673,"parator":3674,"Ġscore":3675,"gen":3676,"public":3677,"constant":3678,"tester":3679,"alf":3680,"Template":3681,"Ġcolumn":3682,"cei":3683,"chart":3684,"cc":3685,"angles":3686,"Ġpick":3687,"Ġ'''":3688,"widget":3689,"Ġbin":3690,"Ġdb":3691,"FO":3692,"Ġserver":3693,"cost":3694,"ugh":3695,"done":3696,"Ġ2023":3697,"browse":3698,"Ġimplementation":3699,"Ġstd":3700,"ordin":3701,"vit":3702,"Ġtheir":3703,"abc":3704,"dule":3705,"Ġurllib":3706,"clear":3707,"XT":3708,"undle":3709,"cording":3710,"just":3711,"ually":3712,"validation":3713,"mal":3714,"show":3715,"eries":3716,"ä¸":3717,"Ġlicense":3718,"ground":3719,"Ġutils":3720,"peech":3721,"stop":3722,"Ġio":3723,"Ġplatform":3724,"ĠWhe":3725,"translation":3726,"Ġword":3727,"ighlight":3728,"%(":3729,"shot":3730,"Ġreadonly":3731,"ĠAutoModel":3732,"Or":3733,"Ġ'-":3734,"Ġvis":3735,"Ġprepare":3736,"Ġ255":3737,"Ġarchitect":3738,".,":3739,"raise":3740,"tool":3741,"rec":3742,"codes":3743,"choice":3744,"itespace":3745,"warn":3746,"ĠGPT":3747,"apt":3748,"export":3749,"Ġsegment":3750,"assertList":3751,"Ġdataclasses":3752,"download":3753,"ĠPreTrained":3754,"sizes":3755,"Options":3756,"PAT":3757,"Ġ_(\"":3758,"QU":3759,"ench":3760,"Ġclean":3761,"Ġgo":3762,"registry":3763,"hone":3764,"Ġheads":3765,"Ġ).":3766,"huggingface":3767,"Ġdel":3768,"ptr":3769,"Ġstri":3770,"Ġshow":3771,"sqrt":3772,"assertListEqual":3773,"Ġreverse":3774,"Ġparts":3775,"ĠTime":3776,"ific":3777,"ĠCont":3778,"sig":3779,"lags":3780,"past":3781,"ĠBy":3782,"cessed":3783,"Mode":3784,"zen":3785,"ĠOS":3786,"âķ":3787,"Ġredirect":3788,"INE":3789,"callback":3790,"Ġcharacters":3791,"ba":3792,"masks":3793,"PL":3794,"rough":3795,"setup":3796,"Ġprice":3797,"unding":3798,"unlink":3799,"Ġcond":3800,"Ġeps":3801,"PretrainedConfig":3802,"Ġcast":3803,"ely":3804,"fetch":3805,"mote":3806,"Boolean":3807,"bits":3808,"Ġ--------------------------------":3809,"Ġpartial":3810,"package":3811,"Ġsupports":3812,"related":3813,"reason":3814,"={\"":3815,"PAR":3816,"game":3817,"Layout":3818,"ï¼":3819,"initializer":3820,"dient":3821,"Ġ''":3822,"inference":3823,"ĠCLIP":3824,"Ġsecond":3825,"ĠGE":3826,"*):":3827,"long":3828,"aging":3829,"endswith":3830,"Ġspecial":3831,"Ġretry":3832,"Ġlr":3833,"alytic":3834,"('--":3835,"iffusion":3836,"crypt":3837,"uate":3838,"Ġerr":3839,"apping":3840,"apply":3841,"crm":3842,"Ġquatern":3843,"activation":3844,"ynam":3845,".')":3846,"DATA":3847,"ĠField":3848,"Ġtags":3849,"Ġhf":3850,"``.":3851,"staticmethod":3852,"Ġstruct":3853,"distribution":3854,"menu":3855,"Ġinvalid":3856,"piece":3857,"Ġtests":3858,"gpu":3859,"summary":3860,"relative":3861,"normalize":3862,"TA":3863,"insert":3864,"ater":3865,"mlp":3866,"Ġattributes":3867,"invalid":3868,"Seq":3869,"]),":3870,"cli":3871,"non":3872,"mem":3873,"Pool":3874,"Ġet":3875,"ĠAd":3876,"templates":3877,"known":3878,"alet":3879,"worker":3880,"quirement":3881,"Auto":3882,"BU":3883,"dense":3884,"scope":3885,"force":3886,"END":3887,"ĠTODO":3888,"Ġsale":3889,"specifi":3890,"59":3891,"Ġchat":3892,"div":3893,"ops":3894,"single":3895,"+)":3896,"segment":3897,"ĠName":3898,"Ġenable":3899,"rust":3900,"Ġtitle":3901,"lear":3902,"Ġdataclass":3903,"Ġallowed":3904,"gate":3905,"Ġvision":3906,"Ġdocumentation":3907,"Ġ\"{":3908,"Ġboth":3909,"Ġwizard":3910,"Integer":3911,"utomatic":3912,"Ġwheel":3913,"wheel":3914,"SequenceClassification":3915,"go":3916,"metrics":3917,"Ġrecords":3918,"Ġpool":3919,"Ġqueryset":3920,"Ġdesc":3921,"Ġduring":3922,"ERS":3923,"Index":3924,"notification":3925,"dumps":3926,"22":3927,"Cho":3928,"dated":3929,"ude":3930,"pair":3931,"Ġparsed":3932,"Ġzero":3933,"Ġarchitecture":3934,"Ġnow":3935,"NotFound":3936,">\",":3937,"SA":3938,"button":3939,"assets":3940,"Segment":3941,"precated":3942,"ĠBert":3943,"Ġexists":3944,"Ġcaption":3945,"Decoder":3946,"Ġhand":3947,"Status":3948,"PRO":3949,"VI":3950,"ĠNo":3951,"aloader":3952,"PRE":3953,"ĠConvert":3954,"Group":3955,"Ġ\"-":3956,"ified":3957,"Ġannotations":3958,"dev":3959,"perly":3960,"avg":3961,"ĠConsole":3962,"alette":3963,"Ġtemperature":3964,"celerate":3965,":\\":3966,"Ġmissing":3967,"live":3968,"Ġinteger":3969,"straint":3970,"ynamic":3971,"Ġtax":3972,"Ġslow":3973,"wrap":3974,"FeatureExtra":3975,"see":3976,"enter":3977,"quential":3978,"cimal":3979,"contract":3980,"annot":3981,"Ġctx":3982,"ĠOn":3983,"transformer":3984,"Ġindic":3985,"positions":3986,"leep":3987,"ĠTrans":3988,"Ġpretrained":3989,"FORMATS":3990,"ZE":3991,"forms":3992,"Ġprevious":3993,"Ġ32":3994,"ArgumentParser":3995,"categ":3996,"Ġ[('":3997,"proxy":3998,"Ġfix":3999,"Iter":4000,"uous":4001,"Ġdefined":4002,"uplic":4003,"LU":4004,"TED":4005,"Ġ'%":4006,"storage":4007,"rozen":4008,"joint":4009,"rl":4010,"journal":4011,"andidates":4012,"sales":4013,"Ġvector":4014,"mount":4015,"ORS":4016,"Ġfunctions":4017,"ideo":4018,"ASE":4019,"ATION":4020,"Ġindent":4021,"../":4022,"assertIs":4023,"mixin":4024,"stdout":4025,"dictions":4026,"slide":4027,"Cond":4028,"ĠInvalid":4029,"derr":4030,"Ġcorrespon":4031,"Ġoptimizer":4032,"Ġ[{":4033,"havior":4034,"Ġsig":4035,"40":4036,"exc":4037,"exit":4038,"ĠUp":4039,"Tag":4040,"ForSequenceClassification":4041,"Ġtagged":4042,"HTTP":4043,"retry":4044,"Ġmon":4045,"Ġmulti":4046,"ĠMask":4047,"peat":4048,"Ġmap":4049,"Ġselected":4050,"->":4051,"gb":4052,"Ġasyncio":4053,"Ġdownload":4054,"hip":4055,"Ġadded":4056,"Ġalpha":4057,"ART":4058,"Ġ2022":4059,"equal":4060,"Ġtimedelta":4061,"jax":4062,"Ġ[[":4063,"TestCase":4064,"built":4065,"cription":4066,")\"":4067,"Parameter":4068,"short":4069,"quantity":4070,"IMAGE":4071,"Ġusage":4072,"Hel":4073,"let":4074,"ializer":4075,"Node":4076,"png":4077,"Ġti":4078,"attachment":4079,"eeded":4080,"Ġoperator":4081,"arange":4082,"Ġequal":4083,"Ġpipeline":4084,"DAL":4085,"ĠCa":4086,"Ġhost":4087,"dal":4088,"hot":4089,"uter":4090,"Ġstop":4091,"FIL":4092,"expi":4093,"Ġhandler":4094,"INTER":4095,"Ġusername":4096,"Ġremoved":4097,"Add":4098,"fill":4099,"progress":4100,"Ġuses":4101,"crop":4102,"ĠSQL":4103,"']:":4104,"ĠVi":4105,"mul":4106,"ĠOption":4107,"ĠPO":4108,"Ġpop":4109,"istant":4110,"Transformer":4111,"ti":4112,"ĠPer":4113,"Ġdistribution":4114,"Ġoverride":4115,"][\"":4116,"ixed":4117,"Ġinherit":4118,"eek":4119,"Any":4120,"Size":4121,"orary":4122,"Ġalways":4123,"Ġshutil":4124,")).":4125,"ret":4126,"ene":4127,"anti":4128,"Ġ:]":4129,"signature":4130,"diffusion":4131,"regex":4132,"Ġsha":4133,"ĠExample":4134,"Bu":4135,"contain":4136,"resolution":4137,"tern":4138,"({\"":4139,"ĠQtWidgets":4140,"clean":4141,"pan":4142,"ropy":4143,"help":4144,"78":4145,"ested":4146,"\"]:":4147,"Ġdimension":4148,"expense":4149,"SIZE":4150,"68":4151,"isode":4152,"resize":4153,"Ġrate":4154,"cure":4155,"Ġcs":4156,"ABC":4157,"Ġwo":4158,"etri":4159,"Ġelement":4160,"Content":4161,"Ġexisting":4162,"GPT":4163,"lora":4164,"istic":4165,"stride":4166,"cret":4167,"lu":4168,"Ġjax":4169,"binary":4170,"Ġboxes":4171,"Ġsafe":4172,"Ġcons":4173,"masked":4174,"bank":4175,"sm":4176,"ĠJSON":4177,"App":4178,"scheduler":4179,"als":4180,"verage":4181,"month":4182,"application":4183,"Answering":4184,"arding":4185,"ubli":4186,"Formatter":4187,"uble":4188,"Ġ])":4189,"extend":4190,"ĠĠĠĠĠĠĠĠĠĠĠĠ":4191,"Ġfast":4192,"Generation":4193,"RGB":4194,"cross":4195,"edge":4196,"river":4197,"tok":4198,"Ġrule":4199,"encoded":4200,"Ġitems":4201,"tot":4202,"Ġattr":4203,"chain":4204,"come":4205,"confirm":4206,"Ġactive":4207,"Ġrotation":4208,"ino":4209,"stage":4210,"generation":4211,"PR":4212,"`:":4213,"Ġcat":4214,"ascii":4215,"Ġreport":4216,"Ġsy":4217,"Ġperform":4218,"Ġ[],":4219,"Dropout":4220,"days":4221,"Ġ[`~":4222,"scheme":4223,"named":4224,"ĠStyle":4225,"ffect":4226,"Ġpossible":4227,"generator":4228,"]],":4229,"bstract":4230,"Ġbo":4231,"Ġtrack":4232,"POINT":4233,"Style":4234,"git":4235,"wd":4236,"Ġ'{":4237,"Ġevery":4238,"Ġtx":4239,"ssl":4240,"Ġsuch":4241,"ural":4242,"Ġ15":4243,"Ġlang":4244,"CF":4245,"cv":4246,"math":4247,"coll":4248,"Manager":4249,"selection":4250,"Ġsuffix":4251,"NAMES":4252,"CLAS":4253,"lements":4254,"andbox":4255,"indows":4256,"STRING":4257,"ĠWhen":4258,"Session":4259,"riteria":4260,"alpha":4261,"ĠRemo":4262,"'}":4263,"si":4264,"agent":4265,"'{":4266,"ĠSo":4267,"empt":4268,"activity":4269,"enabled":4270,"Ġgpt":4271,"Ġhtml":4272,"80":4273,"wizard":4274,"abel":4275,"Ġloaded":4276,"requests":4277,"optim":4278,"ten":4279,"mapped":4280,"Ġsend":4281,"Ġotherwise":4282,"~~~~~~~~":4283,"ROR":4284,"csv":4285,"Ġflax":4286,"TYPE":4287,"queryset":4288,"uptools":4289,"ðŁ":4290,"ĠNO":4291,"Ġitertools":4292,"slow":4293,"questions":4294,"permute":4295,"ViT":4296,"flatten":4297,"where":4298,"Ġgrid":4299,"transaction":4300,"Ġfail":4301,"Ġ\"\",":4302,"__.":4303,"Ġappend":4304,"DB":4305,"microsoft":4306,"()}":4307,"DATETIME":4308,"alt":4309,"ceback":4310,"ished":4311,"socket":4312,"ferences":4313,"Ġvariable":4314,"WAR":4315,"pdf":4316,"eno":4317,"olute":4318,"filters":4319,"Ġcommon":4320,"vices":4321,"Ġepoch":4322,"Ġunique":4323,"Ġsuccess":4324,"onent":4325,"Ġdot":4326,"Lazy":4327,"ues":4328,"Ġabout":4329,"(['":4330,"way":4331,"SET":4332,"ĠWhether":4333,"Ġwould":4334,"small":4335,"cient":4336,"Ġdatasets":4337,"deep":4338,"lier":4339,"ĠĠĠĠĠĠĠĠĠĠ":4340,"Ġgenerator":4341,"my":4342,"Ġcert":4343,"unique":4344,"Ġdefaultdict":4345,"SD":4346,"warmup":4347,"ĠSub":4348,"fr":4349,"sses":4350,"survey":4351,"Ġar":4352,"ĠMO":4353,"apps":4354,"simple":4355,"Ġsimilar":4356,"variant":4357,"Run":4358,"free":4359,"Ġtmp":4360,"Ġproxy":4361,"ĠConv":4362,"Var":4363,"Ġstack":4364,"cred":4365,"Ġdelete":4366,"Ġnormalize":4367,"CI":4368,"Ġsli":4369,"Ġabs":4370,"paces":4371,"speech":4372,"FeatureExtractor":4373,"ValueError":4374,"Reg":4375,"Ġchoices":4376,"Ġdone":4377,"Ġinstanti":4378,"ccessError":4379,"Arguments":4380,"Ġappro":4381,"aa":4382,"gg":4383,"geos":4384,"Ġop":4385,"mak":4386,"ugin":4387,"packages":4388,"23":4389,"Open":4390,"engine":4391,"Ġiss":4392,"Ġtools":4393,"Ġcomb":4394,"INFO":4395,"Controller":4396,"Qt":4397,"cmd":4398,"Ġsn":4399,"istration":4400,"ving":4401,"wav":4402,"reverse":4403,"ESS":4404,"obile":4405,"Ġspec":4406,"Choice":4407,"Ġpt":4408,"resource":4409,"library":4410,"Ġcursor":4411,"cla":4412,"hel":4413,"UTH":4414,"suffix":4415,"ftime":4416,"alty":4417,"Ġmapping":4418,"projection":4419,"Ġassign":4420,"60":4421,"uuid":4422,"analytic":4423,"world":4424,"expr":4425,"ributeError":4426,"Ġ'_":4427,"ĠStr":4428,"distributed":4429,".{":4430,"mis":4431,"Ġneeded":4432,"concat":4433,"mbers":4434,"ignore":4435,"actionCase":4436,"patches":4437,"Ġsince":4438,"jection":4439,"dims":4440,"speed":4441,"Ġplt":4442,"ĠLiteral":4443,"allowed":4444,"Create":4445,"onical":4446,"Ġadapter":4447,"Ġverbose":4448,"Ad":4449,"Ġsite":4450,"Ġaccording":4451,"Frame":4452,"OM":4453,"Ġreset":4454,"Ġmock":4455,"Diffusion":4456,"Ġrec":4457,"ALL":4458,"celerator":4459,"FIEL":4460,"area":4461,"database":4462,"sequences":4463,"Ġinclu":4464,"ĠRequest":4465,"Ġvalidate":4466,"Ġemployee":4467,"QuestionAnswering":4468,"Wra":4469,"inner":4470,"retri":4471,"curs":4472,"Ġ```":4473,"peri":4474,"play":4475,"}\",":4476,"Ġrepo":4477,"licit":4478,"Ġ30":4479,"complete":4480,"Pos":4481,"VAL":4482,"Valid":4483,"iguous":4484,"ĠInst":4485,"itude":4486,"Ġimportlib":4487,"ĠBatch":4488,"editable":4489,"AGE":4490,"mary":4491,"Ġsimple":4492,"Ġmetrics":4493,"ĠsetUpClass":4494,"Dirs":4495,"Ġfn":4496,"Ġcategory":4497,"Ġpd":4498,"Ġ({":4499,"EXT":4500,"Th":4501,"ered":4502,"gdal":4503,"utes":4504,"caption":4505,"blob":4506,"history":4507,"Ġtree":4508,"Ġaccept":4509,"Ġrunning":4510,"br":4511,"}:":4512,"Ġfont":4513,"Ġthrough":4514,"Control":4515,"Connection":4516,"ĠValue":4517,"Ġmaximum":4518,"Ġcurrency":4519,"phone":4520,"center":4521,"Distribution":4522,"]).":4523,"Ġkeras":4524,"neg":4525,"unittest":4526,"sentencepiece":4527,"ĠÐ":4528,"Ġconf":4529,"Ġthose":4530,"trainer":4531,"ĠOrdered":4532,"quote":4533,"GI":4534,"iny":4535,"Platform":4536,"gits":4537,"Ġrich":4538,"ĠMock":4539,"PATH":4540,"gent":4541,"vg":4542,"Ġsyntax":4543,"program":4544,"ĠNumber":4545,"ĠKeyError":4546,"strict":4547,"Ġtensors":4548,"Instance":4549,"setUpClass":4550,"etry":4551,"Serializer":4552,"lst":4553,"Ġmetric":4554,"Ġrequirement":4555,"ĠLoad":4556,"NO":4557,"lers":4558,"xx":4559,"ords":4560,"ĠCore":4561,"Ġkeyword":4562,"eo":4563,"tn":4564,"elf":4565,"Tests":4566,"Ġlet":4567,"Ġmatches":4568,"Union":4569,"Ġbar":4570,"Ġ_('":4571,"commit":4572,"events":4573,"uffle":4574,"27":4575,"Dense":4576,"ĠTemplate":4577,"emotion":4578,"usr":4579,"ĠWav":4580,"Ġsubprocess":4581,"Ġcallable":4582,"configs":4583,"booth":4584,"curacy":4585,"Python":4586,"CLIP":4587,"eos":4588,"ram":4589,"Ġnamed":4590,"addWidget":4591,"CHE":4592,"WE":4593,"Ġ._":4594,"editor":4595,"Ġdeep":4596,"()[":4597,"ĠCol":4598,"Foundation":4599,"beam":4600,"cision":4601,"oci":4602,"Ġwidget":4603,"Ġalgorithm":4604,"Ġscal":4605,"Ġformatt":4606,"Ġbuffer":4607,"(\\":4608,"Long":4609,"real":4610,"bound":4611,"lengths":4612,"LOG":4613,"fficient":4614,"=[\"":4615,"ulated":4616,"Ġflag":4617,"Ġstates":4618,"flash":4619,"cancel":4620,"leg":4621,"Ġdelta":4622,"getenv":4623,"dicted":4624,"Temp":4625,"Ġneg":4626,"tom":4627,"Ġsegments":4628,"Ġweb":4629,"ux":4630,"Ġdf":4631,"Element":4632,"ãģ":4633,"Ġ$":4634,"installed":4635,"Ġpicking":4636,"45":4637,"include":4638,"Ġbeing":4639,"ĠRE":4640,"ayment":4641,"maining":4642,"Range":4643,"pick":4644,"uman":4645,"Ġaddress":4646,"Ġauthentic":4647,"ĠGEOS":4648,"MON":4649,"On":4650,"large":4651,"Ġmany":4652,"ĠLine":4653,"ĠSeg":4654,"ImageFile":4655,"Ġmasks":4656,"Settings":4657,"timesteps":4658,"Ġverify":4659,".*":4660,"vat":4661,"Ġreal":4662,"Ġsocket":4663,"formed":4664,"Ġ2021":4665,"supported":4666,"36":4667,"77":4668,"fail":4669,"Ġtimezone":4670,"/{":4671,"Ġhook":4672,"hand":4673,"origin":4674,"enc":4675,"Method":4676,"Color":4677,"#!":4678,"Ġexceptions":4679,"ector":4680,"ĠMulti":4681,"Requirement":4682,"egg":4683,"Ġneeds":4684,"columns":4685,"uint":4686,"serve":4687,"tolist":4688,"parameter":4689,"timezone":4690,"astype":4691,"Ġdiffusers":4692,"Ġscheduler":4693,"Roberta":4694,"LINE":4695,"ination":4696,"Ġtrue":4697,"Ġnumbers":4698,"Inter":4699,"ATOR":4700,"ĠReg":4701,"Ġrole":4702,"Ġ*,":4703,"etch":4704,"Ġbyte":4705,"eni":4706,"Ġthese":4707,"profile":4708,"span":4709,"çļ":4710,"tokenize":4711,"Ġgrad":4712,"HEAD":4713,"motion":4714,"wen":4715,"wit":4716,"Ġbl":4717,"çļĦ":4718,")\",":4719,"=_":4720,"lations":4721,"font":4722,"Ġamount":4723,"livery":4724,"Ġloop":4725,"Ġmost":4726,"Ġregister":4727,"WORD":4728,"vate":4729,"Ġreq":4730,"Ġadditional":4731,"completion":4732,"ality":4733,"Ġpurchase":4734,"Ġstorage":4735,"ĠSecurity":4736,"ĠDatabase":4737,"Len":4738,"null":4739,"ãĢ":4740,"anded":4741,"stats":4742,":.":4743,"assign":4744,"resolve":4745,"optimizer":4746,"examples":4747,"================================":4748,"Ġscheme":4749,"security":4750,"agement":4751,"Sec":4752,"Ġwords":4753,"ow":4754,"records":4755,"ctx":4756,"edirs":4757,"ssing":4758,"until":4759,"hour":4760,"Ġarea":4761,"ources":4762,"facebook":4763,"Ali":4764,"threshold":4765,"Ġstandard":4766,"Ġchecks":4767,"DEX":4768,"rune":4769,"DAY":4770,"ificate":4771,"year":4772,"era":4773,"Ġtransaction":4774,"LazyModule":4775,"eve":4776,"fc":4777,"inf":4778,"raft":4779,":\",":4780,"Ed":4781,"tail":4782,"Ġllava":4783,"]]:":4784,"Ġserializer":4785,"detach":4786,"uit":4787,"izing":4788,"Ġprev":4789,"temperature":4790,"lacklist":4791,"FT":4792,"cessary":4793,"using":4794,"Ġfeat":4795,"Ġactivation":4796,"]['":4797,"sr":4798,"ĠRead":4799,"Ġgeneration":4800,"Ġpositions":4801,"perties":4802,"Query":4803,"Sale":4804,"Url":4805,"receiv":4806,"aries":4807,"Ġdeprecated":4808,"prev":4809,"']['":4810,"Ġsubclass":4811,"PreTrainedTokenizer":4812,"Ġexamples":4813,"gres":4814,"Ġpk":4815,"Ġmeta":4816,"home":4817,"ird":4818,"warehouse":4819,"tracking":4820,"akes":4821,"Ġoperation":4822,"stderr":4823,"Flax":4824,"Ġtre":4825,"Ġseconds":4826,"Ġalign":4827,"Ġcountry":4828,"Dis":4829,"Sub":4830,"multiple":4831,"Ġsepar":4832,"indent":4833,"bundle":4834,"Ġvariables":4835,"Det":4836,"freq":4837,"Ð°":4838,"Ġtgt":4839,"Default":4840,"Ġthreading":4841,"Box":4842,"section":4843,"Ġclear":4844,"success":4845,"Ġgt":4846,"Ġvar":4847,"tesIO":4848,"FILE":4849,"OCAB":4850,"softmax":4851,")`,":4852,"wk":4853,"}{":4854,"Ġ\"\")":4855,"ckpt":4856,"Ġ1000":4857,"Configured":4858,"THO":4859,"before":4860,"Ident":4861,"SR":4862,"Ġctypes":4863,"ĠTrain":4864,"precation":4865,"ceiver":4866,"bom":4867,"hi":4868,"æľ":4869,"andb":4870,"Ġ{})":4871,"feed":4872,"comm":4873,"Ġloc":4874,"wards":4875,"Ġworld":4876,"2006":4877,"BO":4878,"iform":4879,"uri":4880,"Ġbs":4881,"ily":4882,"scu":4883,"Directory":4884,"Ġresource":4885,"Int":4886,"``,":4887,"```":4888,"Ġsa":4889,"ĠAs":4890,"ĠDis":4891,"rollers":4892,"Ġoperations":4893,"48":4894,"istent":4895,"ĠDataset":4896,"Ġsentence":4897,"rep":4898,"ulation":4899,"oly":4900,"Ġmeans":4901,"á´ĩ":4902,"precision":4903,"Ġcharacter":4904,"Ġiterable":4905,"Ġvia":4906,"ĠCoreFoundation":4907,"Ġsc":4908,"verify":4909,"Ġexpi":4910,"ANG":4911,"ForQuestionAnswering":4912,"MAX":4913,"And":4914,"mpro":4915,"metric":4916,"Ġprogram":4917,"Ġencode":4918,"contiguous":4919,"Ġapps":4920,"ness":4921,"Ġnoise":4922,"spatch":4923,"Ġloading":4924,"ROM":4925,"shed":4926,"Ġsaved":4927,"MENT":4928,"ĠTask":4929,"SES":4930,"Ġleave":4931,"opts":4932,"Ġdirectly":4933,"bosity":4934,"33":4935,"const":4936,"Selection":4937,"Exist":4938,"Ġcontextlib":4939,"OCK":4940,"TEXT":4941,"Format":4942,"Batch":4943,"Http":4944,"cing":4945,"Ġ64":4946,"Ġcandidate":4947,"Ġdecoded":4948,"adding":4949,"Ġcould":4950,"scre":4951,"TokenClassification":4952,"ckets":4953,"expressions":4954,"Cur":4955,"]\",":4956,"Ġway":4957,"iling":4958,"Ġdat":4959,"payload":4960,"Ġreason":4961,"Ġsl":4962,"Ġautomatic":4963,"Ġ'__":4964,"Ġbest":4965,"Ġsen":4966,"Ġdistutils":4967,"enderable":4968,"makedirs":4969,"contact":4970,"Ġnotification":4971,"Ġwithin":4972,"terministic":4973,"Masked":4974,"lator":4975,"Ġdecode":4976,"rong":4977,"HO":4978,"Ġproble":4979,"ribe":4980,"jsonl":4981,"ĠAttributeError":4982,"TR":4983,"master":4984,"Ġbehavior":4985,"Ġ</":4986,"beta":4987,"MPLE":4988,"pricelist":4989,"One":4990,"ders":4991,"ĠMapping":4992,"SEPAR":4993,"Ġlook":4994,"START":4995,"missing":4996,"misc":4997,"NUM":4998,"inv":4999,"ider":5000,"Ġorigin":5001,"accept":5002,"Generator":5003,"epochs":5004,"Audio":5005,"GPL":5006,"kze":5007,"sampling":5008,"ws":5009,"ERROR":5010,"Ġmasked":5011,"intermediate":5012,"Ġcompatibility":5013,"MONTH":5014,"kzeug":5015,"Ġutil":5016,"Ġcomplete":5017,"IP":5018,"ograph":5019,"unch":5020,"openai":5021,"}')":5022,"ended":5023,"hain":5024,"Ġpresent":5025,"perlyConfigured":5026,"FILES":5027,"mproperlyConfigured":5028,"09":5029,"imm":5030,"ĠNOT":5031,"Count":5032,"Ġratio":5033,"=['":5034,"workers":5035,"Encoding":5036,"Ġ2020":5037,"Ġwrapper":5038,"Point":5039,"Geometry":5040,"eq":5041,"Ġ*_":5042,"Ġprecision":5043,"Ġopenai":5044,"stractmethod":5045,"SHORT":5046,"struction":5047,"Ġfreeze":5048,"21":5049,"seconds":5050,"Ġsampling":5051,"amma":5052,"ĠFunction":5053,"backbone":5054,"datasets":5055,"ped":5056,"sn":5057,"padded":5058,"âĶĢ":5059,"ĠMeta":5060,"aug":5061,"âĢ":5062,"Ġlower":5063,"upper":5064,"Ġlong":5065,"Ġvalidation":5066,"Per":5067,"Ġcos":5068,"ĠPlease":5069,"curren":5070,"need":5071,"Ġbuilt":5072,"slice":5073,"Abstract":5074,"Func":5075,"TY":5076,"(\".":5077,"Convert":5078,"Ġblocks":5079,"nodes":5080,"Ġworker":5081,"Ġprocessing":5082,"ModelOutputWith":5083,"Multiple":5084,"mrp":5085,"tab":5086,"remote":5087,"---":5088,"Ġstock":5089,"Database":5090,"Ġassoci":5091,"oid":5092,"Ġmod":5093,"corer":5094,"LECT":5095,"Function":5096,"Has":5097,"ĠAS":5098,"verter":5099,"Ġspecify":5100,"ForTokenClassification":5101,"factory":5102,"Ġforms":5103,"Ġoptim":5104,"schema":5105,"Ġcorresponding":5106,"Mail":5107,"ĠsetUp":5108,"Does":5109,"specific":5110,"Sto":5111,"VE":5112,"lector":5113,"amera":5114,"Ġapplied":5115,"Ġattentions":5116,"Ġrenderable":5117,"Ġcross":5118,"Ġcapi":5119,"chunks":5120,"ðĿ":5121,"roid":5122,"ilities":5123,"ĠImproperlyConfigured":5124,"urllib":5125,"note":5126,"answers":5127,"ĠUpdate":5128,"publi":5129,"son":5130,"urse":5131,"Ġsmall":5132,"ĠClass":5133,"Conditional":5134,"39":5135,"tiny":5136,"Ġdis":5137,"Ġeos":5138,"Ġquaternion":5139,"WK":5140,"classifier":5141,"ranch":5142,"extraction":5143,"distance":5144,"'re":5145,"42":5146,"Ġssl":5147,"Ġglob":5148,"PEC":5149,"Cert":5150,"Ġgettext":5151,"cursor":5152,"Ġ50":5153,"flush":5154,"Ġsteps":5155,"SEPARATOR":5156,"Scheduler":5157,"ĠError":5158,"Ġsr":5159,"Ġmight":5160,"Ġllm":5161,"transforms":5162,"Ġcorrectly":5163,"#!/":5164,"55":5165,"()]":5166,"Ġeven":5167,"Ġqueries":5168,"Ġlex":5169,"Ġcallback":5170,"Ġpackages":5171,"dataloader":5172,"restype":5173,"nx":5174,"unet":5175,"getattr":5176,"ĠLayout":5177,"sleep":5178,"secret":5179,"decay":5180,"31":5181,"JSON":5182,"Ġwarning":5183,"Ġseed":5184,"Ġunicode":5185,"POST":5186,"ĠPost":5187,"BUG":5188,")._":5189,"Ġ-=":5190,"pardir":5191,"ĠParameters":5192,"Ġcondition":5193,"Ġ'<":5194,"production":5195,"ĠGeometry":5196,"sens":5197,"chars":5198,"SQL":5199,"]])":5200,"bbox":5201,"yaml":5202,"Ġá´":5203,"LOW":5204,"Ġclose":5205,"Ġpickle":5206,"Fin":5207,"allen":5208,"found":5209,"COL":5210,"NotFoundError":5211,"ls":5212,"second":5213,"hex":5214,"Ġmigrations":5215,"entries":5216,"Ġsequences":5217,"circ":5218,"ives":5219,"Ġintern":5220,"assertIn":5221,"ĠMark":5222,"hisper":5223,"Load":5224,"Ġactual":5225,"Down":5226,"member":5227,"Bar":5228,"Whe":5229,"ema":5230,"Ġreceiv":5231,"Ġdecorator":5232,"ĠPlatform":5233,"Ġnecessary":5234,"ĠTransformer":5235,"Please":5236,"Process":5237,"without":5238,"Ġrequirements":5239,"Ġevaluate":5240,"\">":5241,"ration":5242,"getitem":5243,"chema":5244,"Quant":5245,"ĠOrderedDict":5246,"LGPL":5247,"Speech":5248,"Video":5249,"tour":5250,"DF":5251,"udent":5252,"Ġdebug":5253,"Ġwin":5254,"ersation":5255,"Ġprogress":5256,"001":5257,"HER":5258,"holid":5259,"ik":5260,"construct":5261,"argtypes":5262,"INDEX":5263,"Stream":5264,"theta":5265,"straints":5266,"Ġchoice":5267,"37":5268,"dt":5269,"Ġ\"[":5270,"()))":5271,"proble":5272,"trace":5273,"Ġdocstring":5274,"Ġvariant":5275,"serializer":5276,"rating":5277,"()),":5278,"Ġ11":5279,"Ġconverted":5280,"vars":5281,"children":5282,"SU":5283,"fra":5284,"visitor":5285,"dotenv":5286,"Operation":5287,"_,":5288,"Ð¸":5289,"Ġrefer":5290,"Ġsync":5291,"ĠĠĠĠĠĠĠĠĠĠĠĠĠ":5292,"Ġresidual":5293,"Ġmedi":5294,"Ġxml":5295,"Training":5296,"GEOS":5297,"tmpl":5298,"marker":5299,"Cre":5300,"Des":5301,"Ġbound":5302,"renderer":5303,"Lookup":5304,"****":5305,"normalized":5306,"merge":5307,"FN":5308,"QA":5309,"rgb":5310,"Ġir":5311,"()`":5312,"press":5313,"ALI":5314,"Ġfactor":5315,"Failed":5316,"constants":5317,"collator":5318,"Wrapper":5319,"__}":5320,"amb":5321,"ĠGDAL":5322,"wrapper":5323,"ĠString":5324,"38":5325,"flag":5326,"Ġclip":5327,"__(**":5328,"Change":5329,"etune":5330,"Ð°Ð":5331,"Sup":5332,"olo":5333,"Ġip":5334,"Ġinitialize":5335,"Part":5336,"ring":5337,"srid":5338,"copg":5339,"irst":5340,"Ġ128":5341,"Multi":5342,"Ġ([":5343,"###":5344,"aving":5345,"ĠConfiguration":5346,"formatter":5347,"Ġbeta":5348,"gradient":5349,"VERSION":5350,"uf":5351,"arma":5352,"Ġspace":5353,"Ġbot":5354,"otation":5355,"Ġcoordin":5356,"percent":5357,"antic":5358,"comment":5359,"ForConditional":5360,"Ġlinear":5361,"Ġassociated":5362,"ForConditionalGeneration":5363,"basic":5364,"ĠCustom":5365,"Reader":5366,"024":5367,"videos":5368,"Ġchunks":5369,"btn":5370,"ping":5371,"velo":5372,"Ġpygame":5373,"MPL":5374,"Ġmonth":5375,"Hello":5376,"ipping":5377,"digest":5378,"clone":5379,"Ġconnect":5380,"Ġdimensions":5381,"dummy":5382,"lt":5383,"Ġoc":5384,"Ġwait":5385,"ĠMo":5386,"urlpatterns":5387,"Ġmatching":5388,"DirsABC":5389,"duration":5390,"causal":5391,"[[":5392,"city":5393,"gon":5394,"gger":5395,"reduce":5396,"()):":5397,"TIC":5398,"Logits":5399,"Ġframes":5400,"operator":5401,"Factory":5402,"512":5403,"erkzeug":5404,"SER":5405,"uncate":5406,"Ġrenderer":5407,"half":5408,"mult":5409,"Ġround":5410,"Ġsamples":5411,"encodings":5412,"DoesNot":5413,"rip":5414,"Ġ((":5415,"ĠBe":5416,"Ent":5417,"expression":5418,"404":5419,"90":5420,"middleware":5421,"enate":5422,"fiscal":5423,"modified":5424,"ĠRole":5425,"Action":5426,"today":5427,"ĠFI":5428,"boarding":5429,"Ġwhat":5430,"requirements":5431,"Ġcalculate":5432,"Backend":5433,"DoesNotExist":5434,"Self":5435,"Ġdele":5436,"Ġbits":5437,"herits":5438,"ForMasked":5439,"methods":5440,"Ġresponses":5441,"visible":5442,"enchmark":5443,"ography":5444,"OK":5445,"PY":5446,"Ġown":5447,"Ġtool":5448,"ĠTh":5449,"erson":5450,"Ġproperty":5451,"Sequential":5452,"Ġrepresentation":5453,"ga":5454,"qr":5455,"onents":5456,"added":5457,"Ġelements":5458,"Ġraised":5459,"valuation":5460,"ĠLLM":5461,"Ġcompiler":5462,"DOCSTRING":5463,"atched":5464,"geom":5465,"\"\",":5466,"ĠFROM":5467,"GET":5468,"ĠResponse":5469,"ĠInstall":5470,"bad":5471,"rtype":5472,"128":5473,"Parse":5474,"Column":5475,"################################":5476,"allel":5477,"ĠLayer":5478,"counter":5479,"Ġnormalized":5480,"Ġdependencies":5481,"ae":5482,"keras":5483,"Ġregex":5484,"look":5485,"cards":5486,"platformdirs":5487,"discount":5488,"ining":5489,"Ġrelease":5490,"Ġsandbox":5491,"ĠMake":5492,"Ġalias":5493,"partial":5494,"Ġattachment":5495,"Ġpayload":5496,"ï¼Į":5497,"=%":5498,"GER":5499,"les":5500,"setting":5501,"ĠOther":5502,"jectory":5503,"Ġ----------------------------------------------------------------":5504,"multip":5505,"atam":5506,"Files":5507,"Middleware":5508,"ellow":5509,"mac":5510,"based":5511,"Ġregular":5512,"rb":5513,"alendar":5514,"ĠPEP":5515,"mob":5516,"bsz":5517,"123":5518,"Ġtranslation":5519,"returns":5520,"Ġsignature":5521,"ĠAutoModelForCausalLM":5522,"Ġangle":5523,"ĠMobile":5524,"ForImage":5525,"grade":5526,"Ġupdated":5527,"Args":5528,"08":5529,"Llama":5530,"mk":5531,"qkv":5532,"addr":5533,"Read":5534,"changed":5535,"PECTED":5536,"Vector":5537,"segments":5538,"strftime":5539,"Ġanother":5540,"how":5541,"ĠEns":5542,"Product":5543,"packaging":5544,"projector":5545,"ĠPreTrainedModel":5546,"LongTensor":5547,"CRE":5548,"llava":5549,"raph":5550,"cks":5551,"loading":5552,"prompts":5553,"PlatformDirsABC":5554,"'\\":5555,"NING":5556,"Tra":5557,"inary":5558,"mesh":5559,"Ġwerkzeug":5560,"__(*":5561,"ĠWindows":5562,"Ġschema":5563,"BERT":5564,"Ġinference":5565,"lap":5566,"ĠTra":5567,"ĠOver":5568,"verbose":5569,"Ġaccelerate":5570,"Ġallows":5571,"entials":5572,"]*":5573,"migrations":5574,"Ġsetattr":5575,"Ġtransforms":5576,"Ġauthor":5577,"ĠĠĠĠĠĠĠĠĠĠĠĠĠĠĠĠĠĠĠĠĠĠĠĠĠĠĠĠ":5578,"Hasher":5579,"repeat":5580,"appname":5581,"ĠHT":5582,"Ġcanonical":5583,"Ġinterface":5584,"Array":5585,"ĠOSError":5586,"Ġpopulate":5587,"Ġable":5588,"dius":5589,"ĠSimple":5590,"ĠDataLoader":5591,"URE":5592,"cell":5593,"Ġmm":5594,"extras":5595,"latest":5596,"controller":5597,"PIL":5598,"HERE":5599,"extensions":5600,"resp":5601,"ĠDet":5602,"usic":5603,"ĠRemove":5604,"76":5605,"ilder":5606,"ĠPipeline":5607,"ĠHTML":5608,"Number":5609,"tty":5610,"aris":5611,"Ġcell":5612,"Ġinv":5613,"ĠCode":5614,"Ġorig":5615,"ĠDate":5616,"Ġleast":5617,"Ġoutfile":5618,"Min":5619,"Next":5620,"ainst":5621,"Ġscope":5622,"Ġ[-":5623,"Ġ1024":5624,"vertices":5625,"Ġpairs":5626,"Ġstatic":5627,"Enum":5628,"OF":5629,"setdefault":5630,"Ġhistory":5631,"1024":5632,"customer":5633,"IGHT":5634,".\\":5635,"What":5636,"hu":5637,"Ġimplement":5638,"aming":5639,"ĠPretrainedConfig":5640,"Writer":5641,"entity":5642,"Ġexpr":5643,"ĠNorm":5644,"Ġprediction":5645,"ĠPrompt":5646,"Ġfailed":5647,"ĠQuery":5648,"predictions":5649,"Ġcolumns":5650,"(_(\"":5651,"fety":5652,"\"},":5653,"arx":5654,"utor":5655,"Ġisn":5656,"bove":5657,"latent":5658,"subject":5659,"ĠSegment":5660,"AG":5661,"Flow":5662,"fs":5663,"align":5664,"dify":5665,"Ġbit":5666,"ĠAc":5667,"ĠSE":5668,"poses":5669,"ĠDi":5670,"edirect":5671,"Order":5672,"standard":5673,"timestamp":5674,"oug":5675,"Trainer":5676,"iase":5677,"jor":5678,"details":5679,"pygments":5680,"ĠBu":5681,"Param":5682,"UNT":5683,"scaling":5684,"86":5685,"eed":5686,"Ġcred":5687,"Ġwho":5688,"voices":5689,"Ġpytest":5690,"schedule":5691,"livechat":5692,"ilon":5693,"ĠACT":5694,"policy":5695,"Ġloader":5696,"ULL":5697,"sensitive":5698,"cum":5699,"most":5700,"additional":5701,"ĠĠĠĠĠĠĠĠĠĠĠĠĠĠĠĠĠĠĠĠ":5702,"CHECKPOINT":5703,"ffili":5704,"asurement":5705,"arxiv":5706,"AA":5707,"Ġtz":5708,"Ġflags":5709,"ĠCF":5710,"manual":5711,"Ġescape":5712,"direction":5713,"Ġstage":5714,"Ġpytorch":5715,"}\".":5716,"ferred":5717,"Ġexpand":5718,"Ġautomatically":5719,"\"[":5720,"Ġaffili":5721,"formatt":5722,"ĠNew":5723,"ĠGoogle":5724,"Ġviews":5725,"rtual":5726,"Ġetc":5727,"ned":5728,"Ġtakes":5729,"pture":5730,"rices":5731,"checks":5732,"runcation":5733,"Temporary":5734,"*.":5735,"He":5736,"tun":5737,"Ġ()":5738,"plus":5739,"Classifier":5740,"PTR":5741,"Ġtargets":5742,"Ġgraph":5743,"Ġsnake":5744,"Ġaffiliates":5745,"Ġfmt":5746,"mel":5747,"quatern":5748,"partition":5749,"Ġpose":5750,"Ġgeneric":5751,"Ġhashlib":5752,"Ġrelativedelta":5753,"35":5754,"Rep":5755,"cbo":5756,"rins":5757,"ork":5758,"ories":5759,"Ġflow":5760,"pecifi":5761,"ĠAttention":5762,"assertIsInstance":5763,"NOR":5764,"Ġrank":5765,"argin":5766,"Ġsupp":5767,"Unknown":5768,"dependencies":5769,"impli":5770,"detail":5771,"ForMaskedLM":5772,"player":5773,"atial":5774,"disable":5775,"Ġ199":5776,"ENG":5777,"Ġinstances":5778,"Ġabove":5779,"ueue":5780,"lict":5781,"ulary":5782,"spatial":5783,"07":5784,"uted":5785,"Ġcrop":5786,"Ġbom":5787,"ĠCan":5788,"Ġunpack":5789,"ĠGPU":5790,"Ġversions":5791,"spection":5792,"djangoproject":5793,"Source":5794,"alys":5795,"geometry":5796,"Ġ24":5797,"istics":5798,"Ġsep":5799,"Ġlengths":5800,"fully":5801,"Ġgeometry":5802,"GRA":5803,"links":5804,"ĠProduct":5805,"Ġkeepdim":5806,":-":5807,"Ġcookie":5808,"Ġtimestamp":5809,"css":5810,"ever":5811,"element":5812,"yellow":5813,"Ġcard":5814,"uniform":5815,"ensors":5816,"ĠParse":5817,"Length":5818,"ĠEnsure":5819,"stable":5820,"Ġchain":5821,"Ġrecogn":5822,"ĠSer":5823,"defined":5824,"usage":5825,"Ġcodes":5826,"COUNT":5827,"Ġquantity":5828,"relu":5829,"Ġbinary":5830,">`.":5831,"bart":5832,"rhs":5833,"Ġtake":5834,"utm":5835,"alog":5836,"ĠHttpResponse":5837,"]+":5838,"under":5839,"Ġdirection":5840,"ĠMail":5841,"Ġ256":5842,"expanduser":5843,"Ġnetwork":5844,"Ġprobab":5845,"Ġå":5846,"rector":5847,"timesheet":5848,"ĠĠĠĠĠĠĠĠĠĠĠĠĠĠĠĠĠĠĠĠĠĠĠĠĠĠĠĠĠĠĠ":5849,"Ġwere":5850,"generated":5851,"Ġfinally":5852,"randint":5853,"orig":5854,"Ġnull":5855,"Ġdisk":5856,"ĠEX":5857,"Ġsigma":5858,")`":5859,"implementation":5860,"assistant":5861,"icrop":5862,"texts":5863,"Ġidentifier":5864,"Ġslice":5865,"26":5866,"Rel":5867,"Ġ\")":5868,"unity":5869,"argv":5870,"ĠLlama":5871,"Ġhalf":5872,"csrf":5873,"netloc":5874,"ĠAutoConfig":5875,"icrophone":5876,"WS":5877,"('.":5878,"mbol":5879,"egin":5880,"ĠOpenAI":5881,"draft":5882,"flat":5883,"gl":5884,"writer":5885,"9999":5886,"Ġconnections":5887,"Move":5888,"inov":5889,"onchange":5890,"conci":5891,"Ġstored":5892,"Ġrust":5893,"Ġ512":5894,"Ġfeed":5895,"auss":5896,"tected":5897,"Over":5898,"candidate":5899,"gab":5900,"Ġfolder":5901,"Ġ',":5902,"kele":5903,"posit":5904,"override":5905,"Retry":5906,"Tool":5907,"jpg":5908,"Ġtab":5909,"Ġ[])":5910,"hould":5911,"compare":5912,"Ġtimes":5913,"translate":5914,"registration":5915,"condition":5916,"requirement":5917,"WN":5918,"Ġprocessed":5919,"ports":5920,"MultipleChoice":5921,"98":5922,"alg":5923,"Ġinside":5924,"Ġnote":5925,"spin":5926,"'''":5927,"Ġhow":5928,"Level":5929,"seek":5930,"uplicate":5931,"BER":5932,"Ġconn":5933,"('-":5934,"beat":5935,"Meta":5936,"alysis":5937,"CC":5938,"Callback":5939,"GHT":5940,"Sta":5941,"alance":5942,"Ġplace":5943,"ĠTag":5944,"ĠLO":5945,"ĠInstant":5946,"Record":5947,"Ġformatter":5948,"ibrary":5949,"ĠĠĠĠĠĠĠĠĠĠĠĠĠĠĠĠĠĠĠĠĠĠĠĠĠĠ":5950,"visual":5951,"alytics":5952,"ĠMODEL":5953,"NI":5954,"lev":5955,"ĠAND":5956,"Ġanswers":5957,"CharField":5958,">\\":5959,"chor":5960,"Ġmy":5961,"(\"%":5962,"Ġgot":5963,"Ġsetuptools":5964,"ĠEval":5965,"acter":5966,"TransactionCase":5967,"âĸģ":5968,"âĸĪ":5969,"Call":5970,"oc":5971,"Ġcandidates":5972,"Ġinsert":5973,"romo":5974,"ĠĠĠĠĠĠĠĠĠĠĠĠĊ":5975,"ĠRep":5976,"tection":5977,"DEBUG":5978,"ĠConstruct":5979,"255":5980,"selected":5981,"Website":5982,"Ġmerge":5983,"compatible":5984,"ĠPOINTER":5985,"published":5986,"CS":5987,"Max":5988,"Ġqueue":5989,"Ġmak":5990,"Ġapplication":5991,"BaseModel":5992,"Ġtensorflow":5993,"Ġjoint":5994,"batches":5995,"nan":5996,"anit":5997,"olved":5998,"ĠĠĠĠĠĠĠĠĠĠĠĠĠĠĠĠĠ":5999,"byte":6000,"Ġplan":6001,"jnp":6002,"delivery":6003,"__\",":6004,"reader":6005,"matmul":6006,"colors":6007,"tasks":6008,"Ġevaluation":6009,"Ġspeech":6010,"ĠOnly":6011,"Ġinstantiate":6012,"Ġfew":6013,"Ġresize":6014,"quat":6015,"('\\":6016,"tract":6017,"Ġcommit":6018,"Ġcases":6019,"ji":6020,"Ġpublic":6021,"Ġdetail":6022,"istered":6023,"Ġcheckpoints":6024,"shift":6025,"Ġjob":6026,"pository":6027,"EM":6028,"cument":6029,"ire":6030,"Ġnested":6031,"cons":6032,"cycle":6033,"Note":6034,"Ġcustomer":6035,"polate":6036,"OPEN":6037,"\"})":6038,"APP":6039,"AccessError":6040,"cookie":6041,"Ġbegin":6042,"ront":6043,"Ġexplicit":6044,"66":6045,"fit":6046,"room":6047,"Ġbad":6048,"()[\"":6049,"Ġdummy":6050,"icing":6051,"Ġpair":6052,"Embeddings":6053,"Ġlatent":6054,"rectories":6055,"If":6056,"mes":6057,"classification":6058,"Ġondelete":6059,"crement":6060,"Ġtasks":6061,"should":6062,"termine":6063,"/#":6064,"BL":6065,"sampler":6066,"Ġprevent":6067,"Ġ42":6068,"created":6069,"Ġcreating":6070,"Timeout":6071,"Ġagent":6072,"ĠInstanti":6073,"GIS":6074,"qs":6075,"ĉĉ":6076,"Ġuntil":6077,"alize":6078,"gelu":6079,"pet":6080,"identifier":6081,"Ġcompatible":6082,"Validator":6083,"ForImageClassification":6084,"Optional":6085,"reed":6086,"Ġaround":6087,"Ġmu":6088,"Ġonce":6089,"Ġshift":6090,"033":6091,"releases":6092,"sorted":6093,"AbstractModel":6094,"arison":6095,"'\"":6096,"cron":6097,"}]":6098,"ä»":6099,"Ġdec":6100,"lies":6101,"abstractmethod":6102,"Ġregistry":6103,"Ġ60":6104,"Ġpipe":6105,"xies":6106,"adapt":6107,"Ġdefining":6108,"anding":6109,"ĠWHERE":6110,"------------------------":6111,"FIX":6112,"closed":6113,"ĠGenerator":6114,"Ġstrict":6115,"hello":6116,"circuit":6117,");":6118,")`):":6119,"70":6120,"Past":6121,"aw":6122,"}_":6123,"Ġplayer":6124,"loop":6125,"peft":6126,"Ġ`[":6127,"Ġresolve":6128,"dimension":6129,"ĠInput":6130,"Ġadapt":6131,"Ġportal":6132,"Ġinternal":6133,"75":6134,"Ġopts":6135,">',":6136,"Bart":6137,"false":6138,"Ġcenter":6139,"Ġtoo":6140,"Ġminimum":6141,"fetensors":6142,"ientModel":6143,"credit":6144,"driver":6145,"holder":6146,"eric":6147,"Ġ\"\"\",":6148,"ĠLlava":6149,"cesses":6150,"Ġadmin":6151,"Ġbackground":6152,"Ġglobals":6153,"ĠIterator":6154,"structor":6155,"/<":6156,"losses":6157,"Ġast":6158,"\"\"\",":6159,"Ġday":6160,"intypes":6161,"resources":6162,"validators":6163,"Login":6164,"Ġentries":6165,"TransientModel":6166,"begin":6167,"}}":6168,"quival":6169,"compiler":6170,"matches":6171,"Strategy":6172,"Ġflatten":6173,"concatenate":6174,"Ġaverage":6175,"Ġmem":6176,"voicing":6177,"finished":6178,"authenticate":6179,"bill":6180,"pages":6181,"Ġ\"\".":6182,"Ġdt":6183,"ĠOutput":6184,"ĠModule":6185,"episode":6186,"Ġactually":6187,"Ġmanager":6188,"Ġformatted":6189,"best":6190,"Ġwell":6191,"assword":6192,"mplements":6193,"populate":6194,"currence":6195,"af":6196,"ick":6197,"tk":6198,"members":6199,"Ġshe":6200,"setUp":6201,"Ġcover":6202,"Ġhuggingface":6203,"ĠPack":6204,"Ġlazy":6205,"ĠRunCode":6206,"etuning":6207,"Ġnegative":6208,"scuss":6209,"LS":6210,"yter":6211,"oral":6212,"exist":6213,"upyter":6214,"ĠSup":6215,"Ġlon":6216,"ĠĠĠĠĠĠĠĠĠĠĠĠĠĠĠĠĠĠ":6217,")',":6218,".)":6219,"Sign":6220,"draw":6221,"this":6222,"emory":6223,"ĠIndex":6224,"noise":6225,"Ġmatrices":6226,"whitespace":6227,"Install":6228,"ĠIDs":6229,")(":6230,"Cross":6231,"åı":6232,"urces":6233,"disk":6234,"1234":6235,"Only":6236,"BatchNorm":6237,"gather":6238,"Ġquestions":6239,"Ġtlist":6240,"Ġinherits":6241,"Ġspatial":6242,"Ġbbox":6243,"attributes":6244,"ĠBack":6245,"Ġyear":6246,"Ġretries":6247,"-{":6248,"RST":6249,"VA":6250,"iap":6251,"digits":6252,"ĠSpeech":6253,"Ġstill":6254,"ĠGL":6255,"ĠGroup":6256,"controllers":6257,"super":6258,"Ġ2006":6259,"Ġgeom":6260,"2023":6261,"sired":6262,"witch":6263,"LLM":6264,"blog":6265,"week":6266,"ĠEmail":6267,"Ġcausal":6268,"TIMEOUT":6269,".'":6270,"plain":6271,"pisode":6272,"Ġcr":6273,"Ġhighlight":6274,"Ġ{}\".":6275,"functions":6276,"([\"":6277,"Button":6278,"ĠPos":6279,"environment":6280,"leads":6281,"Pa":6282,"reet":6283,"Ġrename":6284,"Ġ'--":6285,"ilding":6286,"ĠTool":6287,"Ġexpect":6288,"'][":6289,"network":6290,"media":6291,"Ġquantization":6292,"ĠGenerate":6293,"Datetime":6294,"Ġprovides":6295,"keleton":6296,"28":6297,"MT":6298,"MIN":6299,"New":6300,"Ġengine":6301,"Ġlatents":6302,"ĠCompute":6303,"oled":6304,"van":6305,"icle":6306,"ĠAB":6307,"verbosity":6308,"Ġknow":6309,"Ġrouter":6310,"Start":6311,"MAIL":6312,"Collator":6313,"abspath":6314,"ANGU":6315,"ough":6316,"Be":6317,"Sampler":6318,"runtime":6319,"edges":6320,"andas":6321,"uler":6322,"gether":6323,"versions":6324,"Tokens":6325,"spans":6326,"Act":6327,"Ġest":6328,"rounding":6329,"Ġsummary":6330,"ĠĠĠĠĠĠĠĠĠĠĠĠĠĠ":6331,"ĠOGR":6332,"quired":6333,"Ġroute":6334,"Ġevents":6335,"uidance":6336,"ĠAuthors":6337,"ĠView":6338,"mobile":6339,"DL":6340,"latam":6341,"wave":6342,"Ġdue":6343,"ĠAI":6344,"(\"_":6345,"etadata":6346,"Ġexport":6347,"Ġtokenizers":6348,"numbers":6349,"minal":6350,"LMv":6351,"click":6352,"224":6353,"[/":6354,"karma":6355,"ĠSO":6356,"ĠIO":6357,"versed":6358,"irseq":6359,"priate":6360,"operations":6361,"sycopg":6362,"blacklist":6363,"fname":6364,"Ġfill":6365,"Ġreduce":6366,"endpoint":6367,"imation":6368,"ively":6369,"Ġ{},":6370,"Ġfloats":6371,"activations":6372,"Ġschedule":6373,"dicate":6374,"GRO":6375,"Su":6376,"hy":6377,"sessions":6378,"ĠAda":6379,"inition":6380,"latents":6381,"Chat":6382,"TEMPL":6383,"Ġassume":6384,"enderableType":6385,"><":6386,"na":6387,"assertNot":6388,"ynch":6389,"Ġsaving":6390,"96":6391,"ĠðŁ":6392,"algorithm":6393,"Ġpot":6394,"exclude":6395,"double":6396,"pared":6397,"prediction":6398,"reqs":6399,"Returns":6400,"cf":6401,"pending":6402,"road":6403,"elines":6404,"Ġconstant":6405,"ressed":6406,"counts":6407,"moid":6408,"archive":6409,"Ġworks":6410,"ĠTypeVar":6411,"Ġmarker":6412,"âķĲ":6413,"periment":6414,"RID":6415,"lhs":6416,"uting":6417,"ifest":6418,"green":6419,"CHAR":6420,"hostname":6421,"Ġpatterns":6422,"Ġrepresenting":6423,"Ġlexer":6424,")`.":6425,":,":6426,"æĸ":6427,"Ġjoin":6428,"Ġrel":6429,"Ġtok":6430,"Ġduration":6431,"(\"-":6432,"Ġprofile":6433,"ĠRuntime":6434,"cipy":6435,"Ġxy":6436,"unknown":6437,"ashboard":6438,"ĠTestCase":6439,"Ġcurrently":6440,"Ġcalling":6441,"supp":6442,"ĠConfigTester":6443,"accum":6444,"Ġappropriate":6445,"ynchron":6446,">'":6447,"Task":6448,"fine":6449,"sv":6450,"Ġ13":6451,"Ġlora":6452,"Ġhour":6453,"layernorm":6454,"RECT":6455,"subprocess":6456,"trf":6457,"blue":6458,"EK":6459,"OLO":6460,"Ġmute":6461,"pytest":6462,"Ġproducts":6463,"={'":6464,"Ġtraceback":6465,"Ġinitialization":6466,"Ġcolors":6467,"ĠAdded":6468,"AUTH":6469,"EW":6470,"ĠSSL":6471,"Ġhome":6472,"kwarg":6473,"partment":6474,"ĠArgument":6475,"Could":6476,"CODE":6477,"Ġsignal":6478,"Ġcomputation":6479,"nb":6480,"atCode":6481,"Ġface":6482,"coco":6483,"Ġdefine":6484,"integer":6485,"Ġprojection":6486,"ĠMigration":6487,"ĠBSD":6488,"defaults":6489,"quantization":6490,"Ġabsolute":6491,"Wheel":6492,"iases":6493,"kit":6494,"Ġ?":6495,"Ġlow":6496,"seen":6497,"extension":6498,"cap":6499,"ĠĠĠĠĠĠĠĠĠĠĠĠĠĠĠĠĠĠĠĠĠ":6500,"Ġmodified":6501,"Ġagainst":6502,"ĠQuant":6503,"Ġenabled":6504,"Payment":6505,"cker":6506,"ĠLink":6507,"ĠAsync":6508,"Ġresolution":6509,"0002":6510,"Ġquot":6511,"streaming":6512,"ceipt":6513,"Tip":6514,"cer":6515,"uide":6516,"dee":6517,"Ġ(...,":6518,"Ġsuperclass":6519,"Ġquote":6520,"PyTorch":6521,"Web":6522,"Ġpeft":6523,"freeze":6524,"bb":6525,"ios":6526,"jit":6527,"kpt":6528,"Éª":6529,"Ġimplemented":6530,"alized":6531,"ĠStable":6532,"utoff":6533,"yped":6534,"})\"":6535,"management":6536,"Ġwrap":6537,"Ġtrust":6538,"Ġstrip":6539,"Changed":6540,"58":6541,"Sh":6542,"ier":6543,"åĪ":6544,"ority":6545,"Ġttype":6546,"Ġrep":6547,"queries":6548,"Ġtorchvision":6549,"Project":6550,"Ġcontents":6551,"Ġignored":6552,"variance":6553,"Ġmailing":6554,"kip":6555,"Ġedge":6556,"into":6557,"arrange":6558,"asp":6559,"Ġbasic":6560,"Ġdistance":6561,"greg":6562,":`~":6563,"ĠCache":6564,"beams":6565,"Custom":6566,"_.":6567,"Ġservice":6568,"enum":6569,"Ġ\".\"":6570,"unicode":6571,"Ġcost":6572,"permissions":6573,"ASS":6574,"LED":6575,"contents":6576,"Ġcomment":6577,"creen":6578,"Ġextension":6579,"plotlib":6580,"contains":6581,"Ġmedia":6582,"mid":6583,"alk":6584,"roberta":6585,"Ġspaces":6586,"Ġdeterministic":6587,"Ġuuid":6588,"quality":6589,"ship":6590,"Attribute":6591,"executable":6592,"ĠChat":6593,"ClassifierOutput":6594,"Drop":6595,"Ġred":6596,"Ġinner":6597,"moves":6598,"olders":6599,"bins":6600,"UNK":6601,"Ġnamespace":6602,"Eval":6603,"Vis":6604,"bine":6605,"Ġdid":6606,"forum":6607,"checkpointing":6608,"Ġrows":6609,"ĠContent":6610,"Ġ[{\"":6611,"Address":6612,"FIELDS":6613,":])":6614,"NN":6615,"tile":6616,"Ġplot":6617,"Ġdetermine":6618,"quare":6619,"ights":6620,"Ġpredicted":6621,"buf":6622,"issues":6623,"IF":6624,"(\"<":6625,"Ġsens":6626,"polation":6627,"EAR":6628,"Schema":6629,"VOCAB":6630,"rad":6631,"odal":6632,"Ġgamma":6633,"Ġenc":6634,"Initial":6635,"rows":6636,"Ġnodes":6637,"WORK":6638,"Edit":6639,"Ġband":6640,"ĠCross":6641,"aved":6642,"Ġadjust":6643,"interval":6644,"Ġcompletion":6645,"Ġshortcut":6646,"widgets":6647,"DiffusionPipeline":6648,"negative":6649,"Django":6650,"finit":6651,"pil":6652,"rev":6653,"Ġcmd":6654,"dispatch":6655,"entence":6656,"strategy":6657,"Ġcontact":6658,"Ġdirectories":6659,"Ġthreshold":6660,"Ġchart":6661,"Ġincluded":6662,"Align":6663,"rinsics":6664,"Spe":6665,"[__":6666,"ele":6667,"lint":6668,"writ":6669,"allocation":6670,"Ġside":6671,"maging":6672,"resnet":6673,"Ġuseful":6674,"nnx":6675,"Ġpadded":6676,"Ġfilters":6677,"iterable":6678,"ĠChannel":6679,"Ġmarkup":6680,"ragma":6681,"BE":6682,"Dim":6683,"LANGU":6684,"az":6685,"eck":6686,"invalidate":6687,"Ġremote":6688,"Ġsim":6689,"upon":6690,"Ġhapp":6691,"Ġsection":6692,"ĠBaseModelOutputWith":6693,"Ġcalls":6694,"Ġlinked":6695,"ĠLinear":6696,"Scale":6697,"rospection":6698,"izations":6699,"Ġcoords":6700,"Ġstdout":6701,"mbols":6702,"arguments":6703,"Ġqkv":6704,"Ġfilenames":6705,"commands":6706,"operation":6707,"CACHE":6708,"'},":6709,"ValidationError":6710,"ÑĢ":6711,"ane":6712,"Ġremaining":6713,"Ġwandb":6714,"Ġds":6715,"Ġbelow":6716,"Ġpredictions":6717,"Ġquat":6718,"fixt":6719,"Storage":6720,"Ġshuffle":6721,"rewards":6722,"ĠControl":6723,"Tags":6724,"handlers":6725,"cas":6726,"hparams":6727,"sil":6728,"vp":6729,"æĹ":6730,"Ġ##":6731,"__]":6732,"Ġ18":6733,"preter":6734,"listdir":6735,"arehouse":6736,"Ġhashed":6737,"Ġcreation":6738,"builtins":6739,"RES":6740,"ially":6741,"sim":6742,"atis":6743,"Ġfuture":6744,"()).":6745,"Ġconstruct":6746,"Ġexclude":6747,"basename":6748,"Role":6749,"Ġquaternions":6750,"Ġ([`":6751,"500":6752,"Callable":6753,"typing":6754,"}/{":6755,"Ġstructure":6756,"Match":6757,"System":6758,"TEST":6759,"aken":6760,"µÐ":6761,"åĲ":6762,"Ġcla":6763,"Ġreward":6764,"combin":6765,"partners":6766,"Ġgeneral":6767,"activate":6768,"Ġterm":6769,"XX":6770,"bold":6771,"geo":6772,"loor":6773,"codeError":6774,"ĠIndices":6775,"Ġpartners":6776,"postgres":6777,"Ġtrainer":6778,"Caption":6779,"Author":6780,"Ġjournal":6781,"Ġincluding":6782,"allenge":6783,"/\",":6784,"BAC":6785,"dynamic":6786,"pm":6787,"Ġcy":6788,"Ġpragma":6789,"jected":6790,"callable":6791,"Proxy":6792,"processors":6793,"orders":6794,"FIELD":6795,"Big":6796,"Language":6797,"glob":6798,"oser":6799,"Ġrev":6800,"Ġwave":6801,"ĠSale":6802,"lender":6803,"curr":6804,"ECE":6805,"ĠMarkup":6806,"GL":6807,"MPT":6808,"bet":6809,"each":6810,"onnx":6811,"ency":6812,"roq":6813,"Ġpsycopg":6814,"ppol":6815,"linen":6816,"Ġclassification":6817,"running":6818,"ĠFormat":6819,"totypes":6820,"?)":6821,"yolo":6822,"è¯":6823,"here":6824,"Ġfake":6825,"Ġfetch":6826,"olume":6827,"ĠThese":6828,"Ġinteg":6829,"job":6830,"ummar":6831,"Ġsubject":6832,"merges":6833,"ĠDoes":6834,"Identity":6835,"ambda":6836,"warnings":6837,"Ġemotion":6838,"Ġrelation":6839,"Ġsm":6840,"Ġ'')":6841,"Ġ19":6842,"Ġexpert":6843,"ĠFirst":6844,"ĠWK":6845,"builder":6846,"primary":6847,"taxes":6848,"authentication":6849,"aussian":6850,">\")":6851,"GS":6852,"palette":6853,"raries":6854,"inspect":6855,"Ġsurvey":6856,"accelerate":6857,"ĠHo":6858,"Ġsuite":6859,"ĠGeneric":6860,"WARNING":6861,"SelfAttention":6862,"Ke":6863,"Trust":6864,"ĠPip":6865,"Ġproj":6866,"...\")":6867,"Ġregion":6868,"UNDER":6869,"Ġsomething":6870,"COLOR":6871,"bus":6872,"Ġfra":6873,"cade":6874,"joints":6875,"READ":6876,"offsets":6877,"absolute":6878,"BertModel":6879,"Ġvocabulary":6880,"documents":6881,"CUR":6882,"bright":6883,"infer":6884,"Ġdynamic":6885,"ĠSh":6886,"Ġexit":6887,"preprocess":6888,"Ġchecking":6889,"Ġsoftmax":6890,"Ġwrapped":6891,"lru":6892,"yntaxError":6893,"Ġseparate":6894,"ĠOtherwise":6895,"ĠPipelineTesterMixin":6896,"From":6897,"UE":6898,"big":6899,"push":6900,"sw":6901,"reater":6902,"Ġpandas":6903,"Ġeffect":6904,"ifted":6905,"ĠNode":6906,"Ġtimesteps":6907,"Ġargtypes":6908,"windows":6909,"Ġindicates":6910,"Ġfixed":6911,"ĠValues":6912,"enied":6913,"Ġreceived":6914,"Created":6915,"Ġdeleted":6916,"SY":6917,"mfa":6918,"qweb":6919,"similar":6920,"vance":6921,"É´":6922,"devices":6923,"peg":6924,"')]":6925,"Ġseparator":6926,"omic":6927,"called":6928,"uster":6929,"ĠInt":6930,"ModuleList":6931,"Ġendpoint":6932,"LAMA":6933,"ĠRuntimeError":6934,",))":6935,"95":6936,"rogram":6937,"ric":6938,"Ġproduction":6939,"uncated":6940,"á´ı":6941,"rotation":6942,"lexer":6943,"Ġtreetune":6944,"TEMPLATE":6945,"BT":6946,"detr":6947,"Ġactions":6948,"Ġwhitespace":6949,"Local":6950,"Ġlearning":6951,"PIECE":6952,"Authentic":6953,"ĠTensorFlow":6954,"\"/":6955,"human":6956,"ĠâĶ":6957,"onboarding":6958,"ced":6959,"Ġmultip":6960,"ĠFace":6961,"Ġlight":6962,"Ġunet":6963,"scribe":6964,"Ġpointer":6965,"shard":6966,"ĠĠĠĠĠĠĠĠĠĠĠĠĠĠĠĠĠĠĠĠĠĠĠĠĠ":6967,"roles":6968,"alculate":6969,"Ġmerged":6970,"Cursor":6971,"47":6972,"Import":6973,"eft":6974,"å¤":6975,"Ġput":6976,"uess":6977,"ReLU":6978,"([])":6979,"OUTPUT":6980,"Ġtied":6981,"Ġproblem":6982,"ufact":6983,"\"<":6984,"=__":6985,"Pl":6986,"candidates":6987,"}',":6988,"ãĤ":6989,"æĺ":6990,"Ġ~":6991,"atype":6992,"Ġimplements":6993,"Ġweek":6994,"Ġwintypes":6995,"iso":6996,"Ġparsing":6997,"Ġ<<":6998,"DIA":6999,"Ġexpressions":7000,"vae":7001,"annotation":7002,"problems":7003,"Menu":7004,"cd":7005,"hore":7006,"mass":7007,"Ġfrozen":7008,"Ġdecimal":7009,"emma":7010,"Ġgen":7011,"Ġcurr":7012,"maphore":7013,"phas":7014,"ĠWebsite":7015,"emoji":7016,"Ġchildren":7017,"Ġcomputed":7018,"Ġperformance":7019,"ĠNOQA":7020,"olygon":7021,"UNDERLINE":7022,"Option":7023,"`)":7024,"Ġdemo":7025,"Ġdesired":7026,"pread":7027,"Ġrather":7028,"SELECT":7029,"Ġyet":7030,"dicts":7031,"ĠUnicode":7032,"Ġwraps":7033,"shortcut":7034,"screen":7035,"Blip":7036,"Spatial":7037,"Uns":7038,"cm":7039,"ptime":7040,"Ġtexts":7041,"Ġleg":7042,"ForMultipleChoice":7043,"ALLOW":7044,"Update":7045,"epsilon":7046,"Ġbsz":7047,":\")":7048,"MM":7049,"fference":7050,"gi":7051,"hing":7052,"ndim":7053,"rat":7054,"anies":7055,"ros":7056,"asset":7057,"fied":7058,"Ġ'',":7059,"protocol":7060,"Ġrhs":7061,"linalg":7062,"egacy":7063,"Struct":7064,"unctuation":7065,"SSLContext":7066,"Ġexecute":7067,"deepcopy":7068,"400":7069,"DING":7070,"mg":7071,"Ġes":7072,"Ġprune":7073,"Ġmesh":7074,"Ġadding":7075,"Ġcharset":7076,"ĠPoint":7077,"Ġissue":7078,"Admin":7079,"Ġcanonicalize":7080,"ĠBuild":7081,"hn":7082,"highlight":7083,"Ġsel":7084,"utc":7085,"Ġfname":7086,"Ġfallback":7087,"Ġbundle":7088,"ĠPadding":7089,"ĠUsed":7090,"Ġyaml":7091,"Ġ:=":7092,"ĠNULL":7093,"ĠHidden":7094,"Ġfunctionality":7095,"Environment":7096,"Ġcounter":7097,"Ġbounding":7098,"Ġpkg":7099,"levant":7100,"MAR":7101,"aign":7102,"functools":7103,"kb":7104,"Ġckpt":7105,"conn":7106,"parsing":7107,"imit":7108,"Ġtracking":7109,"ĠParser":7110,"](../":7111,"57":7112,"PS":7113,"SO":7114,"]{":7115,"Ð¾":7116,"measure":7117,"rier":7118,"Ġconst":7119,"Ġraster":7120,"ĠYOLO":7121,"MAG":7122,"ĠSession":7123,"Ġstreaming":7124,"Ġchanged":7125,"ALIAS":7126,"(\",":7127,"ln":7128,"Ġwrong":7129,"__\"],":7130,"properties":7131,"ĠAUTH":7132,"Testing":7133,"Ġpermission":7134,"Engine":7135,"ĠBytesIO":7136,"TemporaryDirectory":7137,">=":7138,"As":7139,"IME":7140,"PES":7141,"asarray":7142,"Ġwarmup":7143,"Ġconstraint":7144,"ĠSample":7145,"ĠSpatial":7146,"ĠimageUrl":7147,"ĠEvent":7148,"lineno":7149,"Ġiterator":7150,"Post":7151,"Ġrules":7152,"CERT":7153,"bg":7154,"vt":7155,"Ġtidx":7156,"Ġcore":7157,"Ġrepository":7158,"exer":7159,"constraint":7160,"raises":7161,"Ġhandling":7162,"QtWidgets":7163,"rontend":7164,"preadsheet":7165,"Queue":7166,"dTuple":7167,"ees":7168,"fd":7169,"flags":7170,"mas":7171,"äº":7172,"reconci":7173,"ceive":7174,"Ġsd":7175,"ĠSec":7176,"ĠDon":7177,"Ġknown":7178,"Ġentity":7179,"Ġframework":7180,"slug":7181,"Ġdiffusion":7182,"rpc":7183,"share":7184,"Ġ2018":7185,"pecifier":7186,"\\.":7187,"online":7188,"delay":7189,"qubits":7190,"ĠMan":7191,"Ġvendor":7192,"coming":7193,"ASH":7194,"hasher":7195,"ĠDistutils":7196,"Iterable":7197,"1000":7198,"[^":7199,"fallback":7200,"salt":7201,"Ġselection":7202,"ars":7203,"Ġrearrange":7204,"ĠLanguage":7205,"Ġmembers":7206,"Ġmegab":7207,"mooth":7208,"ĠContext":7209,"crease":7210,"offload":7211,"signup":7212,"Ġabc":7213,"SRF":7214,"]}":7215,"Ġdecoding":7216,"Ġ(-":7217,"ĠAss":7218,"ĠShape":7219,"Ġask":7220,"allclose":7221,"amba":7222,"Ġseen":7223,"RIGHT":7224,"ĠPreTrainedTokenizer":7225,"SAMPLE":7226,"()[\"__":7227,"EMAIL":7228,"PASS":7229,"Width":7230,"criteria":7231,"icon":7232,"pin":7233,"tlist":7234,"erm":7235,"__':":7236,"\")]":7237,"ĠSP":7238,"accelerator":7239,"cloud":7240,"ĠSoft":7241,"Entropy":7242,"CrossAttention":7243,"lenderbot":7244,"Link":7245,"requen":7246,"recogn":7247,"Ġ\"âĸģ":7248,"Ġ###":7249,"isfile":7250,"igrate":7251,"===":7252,"calc":7253,"Ġperm":7254,"Ġpartic":7255,"Ġiteration":7256,"EXPECTED":7257,"udge":7258,"aux":7259,"container":7260,"Of":7261,"Redirect":7262,"bf":7263,"mega":7264,"Ġpur":7265,"raid":7266,"Ġ*=":7267,"ĠIMAGE":7268,"ĠMicrosoft":7269,"ubl":7270,"ocket":7271,"Ġpositional":7272,"Ġmatplotlib":7273,"ĠĠĠĠĠĠĠĠĠĠĠĠĠĠĠĠĠĠĠĠĠĠĠĠĠĠĠĠĠĠĠĠĠĠ":7274,"DateTime":7275,"Ġleads":7276,"Ġgradient":7277,"Iterator":7278,"BASE":7279,"Email":7280,"Neo":7281,"inds":7282,"anizer":7283,"utions":7284,"Ġlm":7285,"Ġhaving":7286,"imodal":7287,"ĠVideo":7288,"ĠHe":7289,"Ġcap":7290,"Ġupper":7291,"2024":7292,"Ġnetloc":7293,"(\"/\")":7294,"cascade":7295,"EntropyLoss":7296,"!\")":7297,"ently":7298,"strptime":7299,"Ġconfirm":7300,"Ġlists":7301,"Exec":7302,"Ġlogic":7303,"ROOT":7304,"Ġinitialized":7305,"Ġprimary":7306,"scripts":7307,"structions":7308,"Ġlater":7309,"Ġlicensed":7310,"legacy":7311,"HOST":7312,"bench":7313,"Ġpalette":7314,"entropy":7315,"lish":7316,"ĠAccessError":7317,"doptions":7318,"ople":7319,"([[":7320,"refresh":7321,"Ġshot":7322,"Ġshard":7323,"crete":7324,"edia":7325,"riterion":7326,"Values":7327,"Ġpricelist":7328,"Finder":7329,"SS":7330,"}</":7331,"unpack":7332,"upload":7333,"Ġground":7334,"')],":7335,"ĠRich":7336,"aves":7337,"Ġlot":7338,"Ġkv":7339,"CLASSES":7340,"Ġoccur":7341,"adapters":7342,"Jo":7343,"Slot":7344,"solution":7345,"vh":7346,"ÑĤ":7347,"ĠOper":7348,"Ġhigh":7349,"Ġgui":7350,"Ġrag":7351,"cyan":7352,"STD":7353,"traj":7354,"Ġones":7355,"Ġnever":7356,"trust":7357,"Ġfuncs":7358,"renderable":7359,"planes":7360,"WEEK":7361,"ENGTH":7362,"ĠInstantiating":7363,"FR":7364,"Split":7365,"Ġ,":7366,"Ġtimm":7367,"Ġrepeat":7368,"Ġinfer":7369,"Ġboolean":7370,"gettext":7371,"ENTI":7372,"Ġtesting":7373,"Ġpreprocess":7374,"Ġrout":7375,"parsed":7376,"Ġformats":7377,"Ġintermediate":7378,"Ġpaper":7379,"IMAL":7380,"ĠDistribution":7381,"Ġblank":7382,"\"^":7383,"PORT":7384,"Remo":7385,"Win":7386,"scorer":7387,"Ġ\"'":7388,"ortal":7389,"chine":7390,"Ġmigration":7391,"coe":7392,"ãĢĤ":7393,"Ġdataloader":7394,"LANGUAGE":7395,"History":7396,"mime":7397,"Ġsales":7398,"ĠSto":7399,"Invoicing":7400,"failed":7401,"ĠDataCollator":7402,"istral":7403,"Ġcompleted":7404,"?\\":7405,"Label":7406,"det":7407,"Ġmac":7408,"ĠUNet":7409,"decoded":7410,"chedulers":7411,"MOD":7412,"Generic":7413,"terminal":7414,"ĠAssert":7415,"LoginView":7416,"inion":7417,"del":7418,"urak":7419,"Ġmenu":7420,"racle":7421,"(\".\")":7422,"Ġdilation":7423,"preview":7424,"osv":7425,"ĠEmp":7426,"Ġ...]":7427,"loyees":7428,"Ġtranslate":7429,"999":7430,"Ġconvention":7431,"Pooling":7432,"CLASS":7433,"clamp":7434,"GRAM":7435,"CrossAttentions":7436,"TRA":7437,"gloss":7438,"ili":7439,"pport":7440,"Ġstrategy":7441,"permission":7442,"okies":7443,"Store":7444,"Ġwriter":7445,"depend":7446,"holiday":7447,"glossary":7448,"LENGTH":7449,"Missing":7450,"Save":7451,"TRI":7452,"VAR":7453,"fmt":7454,"rng":7455,"fir":7456,"ĠSign":7457,"verified":7458,"keyword":7459,"Ġprotocol":7460,"appauthor":7461,"plugin":7462,"ĠGiven":7463,"ForPre":7464,"buckets":7465,"ĠDefine":7466,"Ġarchive":7467,"hours":7468,"TYPES":7469,")\")":7470,"DP":7471,"XLM":7472,"Ġcpu":7473,"Ġmlp":7474,"rays":7475,"upported":7476,"proc":7477,"Ġdiv":7478,"ĠPri":7479,"Ġus":7480,"Reference":7481,"Ġacross":7482,"`]):":7483,"chatbot":7484,"vectors":7485,"5678":7486,"Unsupported":7487,"84":7488,"FC":7489,"Mapping":7490,"å®":7491,"constraints":7492,"processed":7493,"Ġeas":7494,"trainable":7495,"Ġmodify":7496,"rstrip":7497,"Ġpylint":7498,"iterator":7499,"locity":7500,"Ġrefresh":7501,"ĠApply":7502,"Ġdeepcopy":7503,"Keys":7504,"AIN":7505,"Map":7506,"Send":7507,"ralytics":7508,"mpl":7509,"Ġmis":7510,"Ġimports":7511,"ultralytics":7512,"ĠCO":7513,"Ġ17":7514,"Ġhig":7515,"Ġexact":7516,"')])":7517,"002":7518,"Ġrand":7519,"avat":7520,"Ext":7521,"medium":7522,"Ġquantized":7523,"ĠCommandError":7524,"scaled":7525,"ĠMessage":7526,"BytesIO":7527,"Ġslug":7528,"ĠPlatforms":7529,"nnxConfig":7530,"?\"":7531,"åħ":7532,"ametr":7533,"__`]":7534,"LAY":7535,"Ġfinder":7536,"ĠOrder":7537,"Ġdownloading":7538,"retries":7539,"SC":7540,"_%":7541,"oriz":7542,"rename":7543,"Ġ=>":7544,"discuss":7545,"ĠAudio":7546,"Ġllama":7547,"ĠPayment":7548,"Ġ{{":7549,"eting":7550,"Ġthree":7551,"plt":7552,"Ġcause":7553,"METHO":7554,"Ġprompts":7555,"Ġconvolution":7556,"ĠHttpCase":7557,"sigma":7558,"Ġvectors":7559,"Processing":7560,"quaternion":7561,"ĠLOG":7562,",),":7563,"AX":7564,"Table":7565,"bfloat":7566,"Ġreferences":7567,"ĠBox":7568,"backward":7569,"uggest":7570,"ĠCount":7571,"á´Ľ":7572,"umel":7573,"requency":7574,"LP":7575,"Mark":7576,"secure":7577,"relation":7578,"Ġturn":7579,"asus":7580,"ĠFast":7581,"corators":7582,"Conf":7583,"Ġitself":7584,"ived":7585,"checkpoints":7586,"Forward":7587,"Ġlinks":7588,"variables":7589,"Ġmember":7590,"GROUP":7591,"Ac":7592,"ITE":7593,"crit":7594,"guest":7595,"Ġtk":7596,"Ġcrypt":7597,"chk":7598,"Ġbos":7599,"ĠRaises":7600,"ugment":7601,"sence":7602,"distutils":7603,"Ġtrailing":7604,"Ġbetter":7605,"(?:":7606,"ĠTransformers":7607,"ĠOverride":7608,"KER":7609,"ÊĢ":7610,"çĶ":7611,"Ġ--------":7612,"Ġ\":":7613,"Ġrepr":7614,"Ġplain":7615,"ically":7616,"Ġfig":7617,"ĠRender":7618,"ĠMy":7619,"outine":7620,"FIRST":7621,"truth":7622,"Ġentire":7623,"ĠFileNotFoundError":7624,"ĠTransactionCase":7625,"âķĲâķĲ":7626,"Font":7627,"Ġkw":7628,"ionError":7629,"Ġmixed":7630,"Ġwarehouse":7631,"Ġdump":7632,"predict":7633,"preds":7634,"']),":7635,"scan":7636,"([{":7637,"Select":7638,"idxs":7639,"conversation":7640,"Ġchanges":7641,"supplier":7642,"(%":7643,"\"\")":7644,"olding":7645,"perm":7646,"ĠMax":7647,"ĠHf":7648,"ventory":7649,"gregate":7650,"fake":7651,"Ġupload":7652,"CONT":7653,"Ġshared":7654,"Ġauthentication":7655,"AP":7656,"lens":7657,"Ġart":7658,"Ġsimp":7659,"peppol":7660,"ĠLe":7661,"ĠLibrary":7662,"ĠSU":7663,"checker":7664,"latitude":7665,"REQU":7666,"maps":7667,"variable":7668,"ĠViT":7669,"vanta":7670,"88":7671,":],":7672,"All":7673,"SW":7674,"margin":7675,"tb":7676,"Ġur":7677,"Ġsix":7678,"logit":7679,"Search":7680,"shuffle":7681,"}.{":7682,"connections":7683,"retch":7684,"Ġbeginning":7685,"every":7686,"åĬ":7687,"ropped":7688,"mpaign":7689,"Ġpers":7690,"Ġphone":7691,"Ġlosses":7692,"Ġaccelerator":7693,"overwrite":7694,"Ġzone":7695,"Ġbackbone":7696,"EPGRAM":7697,"Ġvisitor":7698,"expiry":7699,"rtualenv":7700,"implify":7701,"29":7702,"At":7703,"wt":7704,"anel":7705,"Ġcli":7706,"Ġrevision":7707,"ĠTemp":7708,"pairs":7709,"ĠRetri":7710,"ĠInter":7711,"Tokenization":7712,"TestInvoicing":7713,"Ġurlparse":7714,"subTest":7715,"Ġtrainable":7716,"Ġ....":7717,"serializers":7718,"lecture":7719,"Ġzipfile":7720,"See":7721,"Windows":7722,"numel":7723,"same":7724,"sure":7725,"uator":7726,"ä½":7727,"separator":7728,"oring":7729,"Ġtruncation":7730,"Ġtaken":7731,"learn":7732,"Ġcare":7733,"ashes":7734,"Ġpatches":7735,"prod":7736,"Ġequ":7737,"Ġcomponent":7738,"Ġappauthor":7739,"transcript":7740,"Ġstarting":7741,"skill":7742,"hasattr":7743,"Keyword":7744,"Ġterms":7745,"avatar":7746,"Core":7747,"CFA":7748,"tgt":7749,"ĠIP":7750,"ĠFBT":7751,"ĠEng":7752,"Ġhel":7753,"ĠStream":7754,"CII":7755,"LY":7756,"decorator":7757,"parametr":7758,"ONE":7759,"imal":7760,"sender":7761,"contextmanager":7762,"Ġattempt":7763,"Ġbackward":7764,"Ġdocuments":7765,"ĠsystemPrompt":7766,"Ġcommands":7767,"ĠDown":7768,"IntegerField":7769,"Ġcoordinates":7770,"ĠCrossEntropyLoss":7771,"46":7772,"GDAL":7773,"Sales":7774,"branch":7775,"sites":7776,"ÐµÐ":7777,"Ġvert":7778,"Ġavg":7779,"ĠIs":7780,"ava":7781,"Ġcontroller":7782,"Ġworking":7783,"serialization":7784,"Server":7785,"sigmoid":7786,"PREFIX":7787,"âĸĪâĸĪ":7788,"?](../":7789,"Fore":7790,"Gui":7791,"Window":7792,"gui":7793,"oe":7794,"prune":7795,"saved":7796,"learning":7797,"Ġborder":7798,"ĠOne":7799,"mini":7800,"Ġpositive":7801,"locations":7802,"Partner":7803,"AM":7804,"My":7805,"ceil":7806,"Ġsalt":7807,"quot":7808,"Ġ\"\"\":":7809,"setuptools":7810,"Ġproduce":7811,"Export":7812,"RED":7813,"wrapped":7814,"Ġserializers":7815,"ĠTokenizer":7816,"Condition":7817,"totp":7818,"Quantizer":7819,"TestInvoicingCommon":7820,"Emp":7821,"nested":7822,"Ġph":7823,"Ġplease":7824,"rig":7825,"Ġden":7826,"ĠAct":7827,"Ġegg":7828,"compress":7829,"lication":7830,"readthe":7831,"ĠStart":7832,"Ġmanage":7833,"Accounting":7834,"Ġdisabled":7835,"Operator":7836,"Ġdescrib":7837,"receivable":7838,"readthedocs":7839,"Password":7840,"_()":7841,"Ñĥ":7842,"ĠCalculate":7843,"Ġhard":7844,"ĠEach":7845,"ĠHandle":7846,"[:]":7847,"Ġclosd":7848,"NUMBER":7849,"ypedDict":7850,"Clo":7851,"LOC":7852,"Pri":7853,"So":7854,"ached":7855,"war":7856,"ression":7857,"Ġful":7858,"ceed":7859,"Ġdays":7860,"Ġconversion":7861,"formance":7862,"))))":7863,"addHandler":7864,"ICE":7865,"Ġrequested":7866,"Ġclassifier":7867,"Ġpooled":7868,"refund":7869,"when":7870,"Ġchosen":7871,"Ġcats":7872,"Ġnamedtuple":7873,"Ġlonger":7874,"Dimension":7875,">`":7876,"Cannot":7877,"SMS":7878,"mix":7879,"|\\":7880,"ç»":7881,"è¿":7882,"edu":7883,"olutions":7884,"setLevel":7885,"logs":7886,"Ġlarge":7887,"usoid":7888,"Ġunknown":7889,"ifact":7890,"ĠEnum":7891,"ordering":7892,"Depth":7893,"Ġsqlparse":7894,"serialize":7895,"Ġspeed":7896,"PROMPT":7897,"ND":7898,"gm":7899,"æķ":7900,"Ġedit":7901,"Ġfalse":7902,"Ġcateg":7903,"Ġreduction":7904,"Ġmid":7905,"Ġreturning":7906,"residual":7907,"Ġlhs":7908,"Ġord":7909,"ĠBasic":7910,"collection":7911,"Example":7912,"Ġtransformed":7913,"charset":7914,"styles":7915,"signal":7916,"Ġsuccessfully":7917,"Notebook":7918,"Ġparticular":7919,"aut":7920,"ja":7921,"debit":7922,"aring":7923,"Ġfine":7924,"Ġpp":7925,"Ġbas":7926,"Ġtransformer":7927,"Ġ|=":7928,"MAP":7929,"NetModel":7930,"ĠModelTesterMixin":7931,"ĠXLM":7932,"completed":7933,"ternal":7934,"Ġdotenv":7935,"NS":7936,"ban":7937,"ttype":7938,"enderer":7939,"ali":7940,"Ġsrid":7941,"Ġscan":7942,"ĠTable":7943,"Ġdiag":7944,"\"]]":7945,"Ġ`.":7946,"ipv":7947,"loaders":7948,"accuracy":7949,"imate":7950,"tegr":7951,"minimum":7952,"ĠKe":7953,"0120":7954,"Enable":7955,"Ġordering":7956,"ĠLog":7957,"bottom":7958,"ĠGeneration":7959,"lectra":7960,"Ġflush":7961,"cursive":7962,"Thread":7963,"ĠTrainer":7964,"precationWarning":7965,"CallbackView":7966,"Ge":7967,"nor":7968,"Ġtw":7969,"Ġdetect":7970,"adline":7971,"coords":7972,"major":7973,"iles":7974,"scene":7975,"DED":7976,"Ġurls":7977,"barcode":7978,"Ġagain":7979,"MESTA":7980,"TestsMixin":7981,"Ġscene":7982,"Certificate":7983,"></":7984,"Ut":7985,"]\"":7986,"rray":7987,"yy":7988,"remaining":7989,"Ġsampler":7990,"Ġscipy":7991,"setColumn":7992,"ĠLi":7993,"Ġconsu":7994,"ĠSave":7995,"ĠSPIECE":7996,"')[":7997,"Ġrgb":7998,"Ġcomponents":7999,"Ġaccuracy":8000,"ĠDeep":8001,"Ġexecutable":8002,"tracker":8003,"ForPreTraining":8004,"Ġflat":8005,"Ġinverse":8006,"Ġmult":8007,"Ġmix":8008,"umb":8009,"Ġlate":8010,"wever":8011,"ffn":8012,"ivers":8013,"Ġvalidator":8014,"lots":8015,"Ġassistant":8016,"HTML":8017,"ĠAllow":8018,"Ġterminal":8019,"Stock":8020,"Description":8021,"fixtures":8022,"YEAR":8023,"gy":8024,"hw":8025,"opping":8026,"Ġcamera":8027,"Ġmicrophone":8028,"Ġbrow":8029,"copyright":8030,"Ġ(%":8031,"ĠOP":8032,"previous":8033,"moder":8034,"Ġdouble":8035,"Ġmoves":8036,"Entry":8037,"Ġtemporary":8038,"Ġflash":8039,"VisionModel":8040,"safetensors":8041,"mkdir":8042,"IGHTS":8043,"MESTAMP":8044,"44":8045,"?\",":8046,"Write":8047,"bidden":8048,"è®":8049,"\",\"":8050,"velocity":8051,"ĠCard":8052,"codebook":8053,"ĠĠĠĠĠĠĠĠĠĠĠĠĠĠĠĠĠĠĠĠĠĠ":8054,"background":8055,"aster":8056,"transcription":8057,"ĠWeb":8058,"MScheduler":8059,"Ġretrieve":8060,"helper":8061,"ĠMocked":8062,"Ġ------------------------------------------------------------------------":8063,"Criteria":8064,"LIC":8065,"MAS":8066,"frozen":8067,"land":8068,"digit":8069,"covery":8070,"resume":8071,"Ġepisode":8072,"quires":8073,"ĠVision":8074,"Stretch":8075,"Ġpercent":8076,"penalty":8077,"Ġpygments":8078,"Ġtemplates":8079,"sgi":8080,"pkg":8081,"Ġletter":8082,"pickle":8083,"ĠLayoutLMv":8084,"Ġrecognizer":8085,"000200":8086,"/*":8087,"nl":8088,"sur":8089,"å¹":8090,"Ġbatched":8091,"logy":8092,"Ġ21":8093,"formats":8094,"grams":8095,"submit":8096,"subcontract":8097,"Layers":8098,"manage":8099,"]]]":8100,"DOWN":8101,"2016":8102,"Ġtruncate":8103,"Header":8104,"Ġsender":8105,"Ġbottom":8106,"<|":8107,"_)":8108,"cp":8109,"ridden":8110,"rew":8111,"Ġcut":8112,"Ġnone":8113,"Ġdev":8114,"rant":8115,"imgs":8116,"caps":8117,"Ġosp":8118,"Protocol":8119,"DecodeError":8120,"Policy":8121,"2017":8122,"'ll":8123,">{":8124,"FLA":8125,"Literal":8126,"bboxes":8127,"ĠTry":8128,"\")),":8129,"resolver":8130,"Ġdocs":8131,"Ġfiltered":8132,"Ġregistered":8133,"Ġjoints":8134,"EncoderDecoder":8135,"identity":8136,"quivalent":8137,"Hidden":8138,"Metadata":8139,"cwd":8140,"orbert":8141,"decimal":8142,"router":8143,"Ġdigest":8144,"Ġrespon":8145,"0001":8146,"acle":8147,"ĠThere":8148,"Ġintrinsics":8149,"Ġalong":8150,"Ġmodifi":8151,"CHAIN":8152,"Ġqty":8153,"aking":8154,"Ġshifted":8155,"ĠProcess":8156,"parents":8157,"Ġpackaging":8158,"hashes":8159,"which":8160,"Ġrotations":8161,"ĠAuthentic":8162,"Ġcsrf":8163,"Ġconsider":8164,"Ġwhole":8165,"54":8166,"Denied":8167,"Pack":8168,"UDA":8169,"Ġangles":8170,"Ġfoo":8171,"Ġremain":8172,"prog":8173,"endance":8174,"ĠVOCAB":8175,"DIRECT":8176,"organizer":8177,"Ġobtained":8178,"Features":8179,"heng":8180,"limiter":8181,"Bytes":8182,"ĠMockedResponse":8183,"FE":8184,"literal":8185,"heart":8186,"setter":8187,"ĠAli":8188,"Ġusu":8189,"Ġear":8190,"quick":8191,"findall":8192,"baz":8193,"Ġetree":8194,"ticket":8195,"/\"":8196,"TS":8197,"Use":8198,"ared":8199,"car":8200,"lbl":8201,"person":8202,"seg":8203,"Ġsleep":8204,"Ġ'\"":8205,"prototypes":8206,"imports":8207,"Ġhr":8208,"Ġunits":8209,"ĠWra":8210,"Ġnewer":8211,"Ġpolicy":8212,"ĠImageFile":8213,"ious":8214,"tables":8215,"NetConfig":8216,"Ġvariance":8217,"Generate":8218,"Ġactivity":8219,"datas":8220,"DATASET":8221,"HEADER":8222,"ĠInstallRequirement":8223,"IST":8224,"Portal":8225,"[_":8226,"åĽ":8227,"semaphore":8228,"ince":8229,"atural":8230,"Ġimported":8231,"course":8232,"Ġliteral":8233,"ĠFilter":8234,"Ġgoogle":8235,"\"]),":8236,"ĠWord":8237,"some":8238,"ĠModelOutput":8239,"offi":8240,"Ġfinetuning":8241,"Ġdirs":8242,"ĠPermission":8243,"roadcast":8244,"Async":8245,"Ho":8246,"Page":8247,"SPE":8248,"Wav":8249,"og":8250,"ences":8251,"Ġct":8252,"Ġrect":8253,"ada":8254,"ĠTHE":8255,"integ":8256,"ĠSw":8257,"ĠStri":8258,"Ġbeam":8259,"Regex":8260,"Ġbuilding":8261,"RANS":8262,"CTC":8263,"ĠUsers":8264,"Ġdependency":8265,"blank":8266,"ĠZheng":8267,"Loading":8268,"Wh":8269,"cash":8270,"tlib":8271,"wb":8272,"stmt":8273,"Ġ'!=":8274,"cover":8275,"pted":8276,"clus":8277,"ĠPRO":8278,"ĠIr":8279,"headless":8280,"Ġconfigured":8281,"contra":8282,"THON":8283,"LOAD":8284,"Ġexpense":8285,"ĠMeasurement":8286,"VIDIA":8287,"ĠRemoved":8288,"Ġexplicitly":8289,"=\",":8290,"XL":8291,"hicle":8292,"lon":8293,"Ã©":8294,"orn":8295,"remo":8296,"department":8297,"Ġcu":8298,"Ġcalendar":8299,"locale":8300,"Ġcopied":8301,"installable":8302,"ĠNorbert":8303,"ĠRequirement":8304,"Ġ500":8305,"ĠSeparator":8306,"Ġoverwrite":8307,"ĠRoberta":8308,"Report":8309,"ĠPackage":8310,"AME":8311,"Sc":8312,"Total":8313,"alter":8314,"Ġplay":8315,"fics":8316,"isinstance":8317,"')),":8318,"fixed":8319,"lessM":8320,"runner":8321,"private":8322,"Ġanything":8323,"quantized":8324,"Ġstats":8325,"ĠThread":8326,"Ġdecay":8327,"bind":8328,"balance":8329,"eved":8330,"gp":8331,"xl":8332,"detect":8333,"rope":8334,"ĠAL":8335,"Ġnothing":8336,"ĠRetry":8337,"ĠBinary":8338,"ENSION":8339,"ĠEmbedding":8340,"ivity":8341,"maxsize":8342,"minor":8343,"shipping":8344,"Ġcontainer":8345,"SESSION":8346,"Ġlegacy":8347,"uke":8348,"Ġ----":8349,"cebn":8350,"Ġdispatch":8351,"ĠPool":8352,"Ġmel":8353,"ĠValid":8354,"Ġbackends":8355,"loyalty":8356,"OCO":8357,"namespace":8358,"syscebn":8359,"randn":8360,"Operations":8361,"Ġaccepted":8362,"ĠParserElement":8363,"critical":8364,"syscebnl":8365,"Json":8366,"Rect":8367,"dst":8368,"more":8369,"td":8370,"yes":8371,"}).":8372,"street":8373,"rott":8374,"ctime":8375,"Ġinvoices":8376,"Ġbranch":8377,"lim":8378,"ĠCur":8379,"posed":8380,"Ġproxies":8381,"ĠMon":8382,"Ġsets":8383,"ilest":8384,"ĠNet":8385,"ĠHel":8386,"PText":8387,"marks":8388,"Ġbetas":8389,"rotary":8390,"Ġspan":8391,"ĠREAD":8392,"Ġproblems":8393,"orizont":8394,"401":8395,"Random":8396,"SOR":8397,"Ġsolution":8398,"unic":8399,"mable":8400,"external":8401,"ĠCOR":8402,"predicted":8403,"Ġproperties":8404,"Ġacc":8405,"ĠArray":8406,"ĠPygments":8407,"Ġprivate":8408,"Document":8409,"ĠTensorType":8410,"OpenAI":8411,"holidays":8412,"Agent":8413,"CTION":8414,"Mac":8415,"tlen":8416,"xpath":8417,"Ġser":8418,"ats":8419,"Ġsanit":8420,"lis":8421,"radius":8422,"olated":8423,"Ġconstraints":8424,"ĠSkip":8425,"))]":8426,"Ġ`_":8427,"Ġresolver":8428,"lying":8429,"Ġappname":8430,"Ġhashes":8431,"ĠĠĠĠĠĠĠĠĠĠĠĠĠĠĠĠĠĠĠĠĠĠĠĠĠĠĠĠĠ":8432,"Ġvarious":8433,"(_('":8434,"SHA":8435,"feats":8436,"VisionConfig":8437,"Renderer":8438,"brid":8439,"landed":8440,"spi":8441,"ĠSwin":8442,"ipi":8443,"Ġlock":8444,"Ġdistributions":8445,"Location":8446,"stripe":8447,"ĠExtract":8448,"LIPText":8449,"downsample":8450,"Ġcollection":8451,"Service":8452,"Ġlevels":8453,"USAND":8454,"Buffer":8455,"Ġbooth":8456,"SecTrust":8457,"ermine":8458,"tleneck":8459,")}\")":8460,"LR":8461,"Llava":8462,"SP":8463,"]`":8464,"band":8465,"tar":8466,"tqdm":8467,"wik":8468,"}.\"":8469,"Ġem":8470,"utation":8471,"Ġfo":8472,"Ġrelations":8473,"Ġreversed":8474,"Ġmotion":8475,"Ġ')":8476,"__).":8477,"stral":8478,"Ġgive":8479,"Ġ23":8480,"ĠRGB":8481,"filepath":8482,"imated":8483,"Ġkind":8484,"Ġdateutil":8485,"indexes":8486,"splitlines":8487,"overflow":8488,"á´Ģ":8489,"signals":8490,"Ġ768":8491,"Ġhandlers":8492,"Ġslide":8493,"$\",":8494,".',":8495,"Small":8496,"Work":8497,"ama":8498,"Ñģ":8499,"inverse":8500,"Ġtables":8501,"student":8502,"Ġche":8503,"ĠLegacy":8504,"Ġdigits":8505,"Ġclone":8506,"Ġlocale":8507,"ĠUnraid":8508,"Step":8509,"achments":8510,"Ġstatement":8511,"such":8512,"iteration":8513,"Ġbuf":8514,".\"))":8515,"Ġreader":8516,"Ġreading":8517,"ĠSearch":8518,"Ġprobability":8519,"Ġconflict":8520,"LogitsProcessor":8521,"Height":8522,"Remove":8523,"parametrize":8524,"LOCAL":8525,"CK":8526,"Hash":8527,"VIS":8528,"åº":8529,"ĠĠĊ":8530,"Ġcm":8531,"attempt":8532,"ĠIF":8533,"Ġproperly":8534,"ĠWhisper":8535,"Ġfunctional":8536,"CHAN":8537,"Ġoptparse":8538,"UND":8539,"Ġcombined":8540,"Ġformatting":8541,"Binary":8542,"NG":8543,"RENT":8544,"iod":8545,"mixed":8546,"tions":8547,"ued":8548,"roy":8549,"__))":8550,"consu":8551,"Ġorders":8552,"Ġstable":8553,"Ġmade":8554,"ĠĠĠĠĠĠĠĠĠĠĠĠĠĠĠĠĠĠĠĠĠĠĠĠĠĠĠĠĠĠĠĠĠĠĠ":8555,"Preset":8556,"Chart":8557,"Ġtuples":8558,"normalization":8559,"lookups":8560,"pipelines":8561,"hips":8562,"period":8563,"Stack":8564,"Vari":8565,"tic":8566,"Ġvery":8567,"means":8568,"Ġindi":8569,"Ġincorrect":8570,"resses":8571,"ĠFOR":8572,"ĠFrozen":8573,"astic":8574,"Ġless":8575,"generic":8576,"ĠLookup":8577,"Ġ\",\"":8578,"UPER":8579,"IGNOR":8580,"ĠLayerNorm":8581,"Params":8582,"ĠArguments":8583,"usoidal":8584,"-\\":8585,"/$":8586,"Render":8587,"tan":8588,"coroutine":8589,"eye":8590,"signed":8591,"relativedelta":8592,"Ġcsv":8593,"Ġscaling":8594,"Identifier":8595,"constrain":8596,"ambdaLayer":8597,"=\"\",":8598,"Migration":8599,"Top":8600,"cx":8601,"cam":8602,"migrate":8603,"references":8604,"Ġpush":8605,"iding":8606,"Ġinp":8607,"Ġsol":8608,"oney":8609,"Ġconcat":8610,"ĠSH":8611,"times":8612,"Ġconfigs":8613,"Ġcapture":8614,"ULTI":8615,"ĠCONFIG":8616,"recordset":8617,"Ġserialize":8618,"HttpCase":8619,"badge":8620,"ocus":8621,"ĠAUTHORS":8622,"Ġoccurred":8623,"orizontal":8624,"517":8625,"Lexer":8626,"Mobile":8627,"camera":8628,"dashboard":8629,"rally":8630,"wandb":8631,"çĲ":8632,"Ġæ":8633,"Ġmp":8634,"Ġquality":8635,"ony":8636,"research":8637,"repair":8638,"Ġreceiver":8639,"otDict":8640,"ollama":8641,"ĠLa":8642,"Ġconstructor":8643,"ĠSplit":8644,"Ġhint":8645,"Converter":8646,"Ġpassing":8647,"trajectory":8648,"Ġsysconfig":8649,"behavior":8650,"hooks":8651,"QLabel":8652,"pooler":8653,"Ġsymbols":8654,"deepspeed":8655,"ĠColor":8656,"ĠFIX":8657,"/**":8658,"vic":8659,"deterministic":8660,"Ġrelevant":8661,"idi":8662,"exact":8663,"dients":8664,"iline":8665,"Ġdst":8666,"ĠOut":8667,"ĠPa":8668,"Ġstrftime":8669,"Ġruntime":8670,"accent":8671,"atory":8672,"MET":8673,"transfer":8674,"theme":8675,"docstring":8676,"ĠProvider":8677,"Ġrendered":8678,"CONST":8679,"Ġrendering":8680,"ĠURLs":8681,"Ġinstallation":8682,"alleli":8683,"ternative":8684,"RangeField":8685,"Ġprobabilities":8686,"ĠSoftware":8687,"GROUPING":8688,"ĠRemovedIn":8689,"ipients":8690,"85":8691,"]`:":8692,"ao":8693,"ÊŁ":8694,"Ġ^":8695,"income":8696,"expert":8697,"ĠShould":8698,"ĠPeft":8699,"([(":8700,"UTF":8701,"Lock":8702,"DEC":8703,"cluded":8704,"locator":8705,"localhost":8706,"Ġmakes":8707,"Ġsimply":8708,"ĠSeparatorStyle":8709,"Ass":8710,"Bird":8711,"FIC":8712,"ZER":8713,"chan":8714,"chive":8715,"ulator":8716,"ĠStop":8717,"Ġdisc":8718,"ĠDPR":8719,"Ġseem":8720,"Ġsecret":8721,"Ġrating":8722,"evaluate":8723,"Ġbutton":8724,"creation":8725,"Ġconversation":8726,"levelname":8727,"2020":8728,"impl":8729,"CCESS":8730,"49":8731,":**":8732,"floor":8733,"vote":8734,"recurrence":8735,"argmax":8736,"ipFile":8737,"=\"_":8738,"ĠBart":8739,"ouse":8740,"Ġcompile":8741,"collector":8742,"Ġatol":8743,"Ġaccum":8744,"character":8745,"UserError":8746,"ĠGEOSGeometry":8747,"srs":8748,"QueryCount":8749,"formatted":8750,"ĠREADME":8751,"DECIMAL":8752,"Access":8753,"Padding":8754,"frontend":8755,"gan":8756,"ipped":8757,"dele":8758,"ĠTABLE":8759,"ĠCUR":8760,"ĠPatch":8761,"Ġmaster":8762,"ĠDATE":8763,"ĠRel":8764,"Ġradius":8765,"foot":8766,"ĠGRID":8767,"Ġgenerating":8768,"ĠBased":8769,"Ġcounts":8770,"Ġ\"\\\\":8771,"Row":8772,"ĠRunStatus":8773,"Ġgoing":8774,"Alias":8775,"Ġfewshot":8776,"UPERUSER":8777,"EG":8778,"qwen":8779,"wi":8780,"enus":8781,"Ġcc":8782,"Ġtheta":8783,"mentum":8784,"ĠFind":8785,"pacity":8786,"Ġ22":8787,"codec":8788,"ĠWh":8789,"Ġsources":8790,"Ġ/=":8791,"subscribe":8792,"allet":8793,"crypted":8794,"VALID":8795,"TRAIN":8796,"Can":8797,"Retri":8798,"Ġ))":8799,"Ġanchor":8800,"=\"{":8801,"pies":8802,"component":8803,"qualname":8804,"ORD":8805,"ĠNVIDIA":8806,"ifiers":8807,"Ġtimestep":8808,"ĠKE":8809,"OutputWith":8810,"Ġcomments":8811,"Ġplus":8812,"poly":8813,"utomation":8814,"ĠAlso":8815,"Ġscaled":8816,"NeoX":8817,"ConditionModel":8818,"]\\":8819,"ections":8820,"Ġultralytics":8821,"Ġtb":8822,"arr":8823,"asctime":8824,"itable":8825,"pep":8826,"Ġder":8827,"ĠON":8828,"assertQueryCount":8829,"ĠJo":8830,"Ġclosed":8831,"Company":8832,"Ġindicating":8833,"panel":8834,"ĠSocial":8835,"ĠTraining":8836,"âĶĢâĶĢ":8837,"needs":8838,"Ġcredentials":8839,"\"'":8840,"BUT":8841,"dw":8842,"revision":8843,"Ġdelay":8844,"Ġmime":8845,"Ġwon":8846,"()``":8847,"Ġdurak":8848,"than":8849,"Ġuom":8850,"Ġstory":8851,"hop":8852,"lists":8853,"Ġaliases":8854,"products":8855,"linspace":8856,"Ġposes":8857,"faces":8858,"Ġvoid":8859,"ACCOUNT":8860,"INPUTS":8861,"Modified":8862,"Ġmerges":8863,"Ġgood":8864,"velop":8865,":\"":8866,"DES":8867,"Folder":8868,"dantic":8869,"sandbox":8870,"two":8871,"meth":8872,"ĠOracle":8873,"ĠFe":8874,"Ġresolved":8875,"Contain":8876,"ubert":8877,"outlook":8878,"components":8879,"Ġpreserve":8880,"Ġupgrade":8881,"Ġinterval":8882,"finder":8883,"OPTIONS":8884,"Ġeverything":8885,"Ġcryptography":8886,"Lead":8887,"Memory":8888,"SCHE":8889,"åŃ":8890,"stive":8891,"Ġcancel":8892,"ptimizer":8893,"produ":8894,"(\"[":8895,"amification":8896,"))[":8897,"parallel":8898,"SEQ":8899,"Ġsound":8900,"Required":8901,"Ġchecked":8902,"THER":8903,"INDO":8904,"Ġoverflow":8905,"levels":8906,"Ġappe":8907,"assertIsNot":8908,"curement":8909,"ĠNOTE":8910,"EXTENSION":8911,"ĠSignal":8912,"Ġ'!=',":8913,"Op":8914,"bugging":8915,"ef":8916,"pic":8917,"deprecation":8918,"alphas":8919,"Ġtogether":8920,"Ġfore":8921,"Ġduplic":8922,"intain":8923,"amily":8924,"ĠFeed":8925,"('_":8926,"ponential":8927,"TImage":8928,"notify":8929,"GEOM":8930,"manifest":8931,"Ġgroupby":8932,"ppingCriteria":8933,"interpolate":8934,"Ġmanually":8935,"Ġdepending":8936,"2022":8937,"ientation":8938,"Ġbytearray":8939,"enium":8940,"firmed":8941,"(.*":8942,"UB":8943,"Using":8944,"iT":8945,"æĪ":8946,"receiver":8947,"eng":8948,"Ġpdf":8949,"isdir":8950,"prop":8951,"ĠLive":8952,"ĠFa":8953,"ĠRotation":8954,"ips":8955,"ippet":8956,"empts":8957,"gression":8958,"Ġextractor":8959,"interface":8960,"Ġtrigger":8961,"ĠConsoleOptions":8962,"THOUSAND":8963,"CHARS":8964,"Ġfully":8965,"Ġlatest":8966,"mu":8967,"yper":8968,"}_{":8969,"alic":8970,"Ġdelivery":8971,"izable":8972,"Ġsecure":8973,"countries":8974,"captions":8975,"readonly":8976,"Ġtimesheet":8977,"checkbox":8978,"Ġ40":8979,"initialized":8980,"ĠChar":8981,"merged":8982,"canonical":8983,"Ġtaxes":8984,"æĸĩ":8985,"ĠStock":8986,"SWER":8987,"LLAMA":8988,"Site":8989,"kind":8990,"swin":8991,"vq":8992,"Ġens":8993,"Ġcf":8994,"otions":8995,"ĠAgent":8996,"ĠClient":8997,"pression":8998,"('%":8999,"Ġlive":9000,"ipher":9001,"outer":9002,"rights":9003,"addMessage":9004,"Ġenough":9005,"Ġhasher":9006,"LMHead":9007,"Ġtrace":9008,"Ġplugin":9009,"ĠChart":9010,"relations":9011,"certification":9012,"Ġfastapi":9013,"WARE":9014,"velope":9015,"PYTHON":9016,"usicgen":9017,"OPENAI":9018,"ĠcheatCode":9019,"BR":9020,"SV":9021,"ein":9022,"ru":9023,"square":9024,"yen":9025,"Ġscreen":9026,"mails":9027,"ĠOff":9028,"ĠFrom":9029,"configure":9030,"ĠHead":9031,"positive":9032,"accounts":9033,"ĠConnection":9034,"DataFrame":9035,"ECT":9036,"ĠMethod":9037,"sidered":9038,"symbol":9039,"Ġsym":9040,"similarity":9041,"ĠFIXME":9042,">``":9043,"AV":9044,"Should":9045,"Ver":9046,"follow":9047,"}),":9048,"restrict":9049,"roken":9050,"ĠTr":9051,"getter":9052,"ĠSome":9053,"ĠSyntaxError":9054,"allery":9055,"veral":9056,"pagin":9057,"ipment":9058,"imer":9059,"collect":9060,"Ġperiod":9061,"Ġversionadded":9062,"Ġregistration":9063,"Ġabstract":9064,"authorize":9065,"Ġindicate":9066,"ĠRunCodeRequest":9067,")\\":9068,"Bind":9069,"Candidate":9070,"MY":9071,"Span":9072,"]`):":9073,"grow":9074,"å¼":9075,"sec":9076,"Ġpromo":9077,"vehicle":9078,"Ġconsidered":9079,"ĠCat":9080,"ĠCPU":9081,"corners":9082,"INST":9083,"SEP":9084,"ORTED":9085,"Ġsocial":9086,"Ġadds":9087,"101":9088,"ANSWER":9089,"ranges":9090,"Selector":9091,"Ġaddition":9092,"tries":9093,"LEFT":9094,"egasus":9095,"Ġoverridden":9096,"xyz":9097,"initialize":9098,"WithUser":9099,"support":9100,"Almost":9101,"Segmentation":9102,"Ġhelper":9103,"âĻ":9104,"è§":9105,"alization":9106,"Ġcp":9107,"Ġdetermin":9108,"ĠBlip":9109,"ĠWill":9110,"tensorflow":9111,"MEAN":9112,"vides":9113,"GELU":9114,"Ġinterpreter":9115,"matched":9116,"NetV":9117,"appro":9118,"ĠForward":9119,"Ġverbosity":9120,"ĠXML":9121,"Ġleading":9122,"Ġshare":9123,"Ġhours":9124,"AlmostEqual":9125,"ION":9126,"desc":9127,"exchange":9128,"diag":9129,"Ġstderr":9130,"Ġequivalent":9131,"ĠHE":9132,"teel":9133,"ATCH":9134,"Real":9135,"grasp":9136,"runed":9137,"chosen":9138,"Ġencodings":9139,"ĠOpenSSL":9140,"Ġconditional":9141,"segmentation":9142,"Build":9143,"Ġapprox":9144,"ĠMobileViT":9145,"ĠSELECT":9146,"coroutinefunction":9147,"AY":9148,"TC":9149,"UID":9150,"ior":9151,"px":9152,"rupt":9153,"vn":9154,"want":9155,"Ġeditable":9156,"Ġasset":9157,"Ġstudent":9158,"ĠDWORD":9159,"filelist":9160,"Ġcompress":9161,"ĠGeo":9162,"Ġkeywords":9163,"Ġtextwrap":9164,"Ġhex":9165,"ĠQuestion":9166,"PPORTED":9167,"BertConfig":9168,"Ġ--------------------------------------------------------":9169,"VIEW":9170,"toks":9171,"Ġissues":9172,"witter":9173,")},":9174,"Purchase":9175,"Script":9176,"gmail":9177,"orpay":9178,"orld":9179,"ertain":9180,"asyncio":9181,"laces":9182,"getcwd":9183,"ĠAbstract":9184,"pyplot":9185,"('''":9186,"ĠRFC":9187,"STAT":9188,"MAIN":9189,"ĠDepth":9190,"responses":9191,"ĠSelect":9192,"apane":9193,"Ġextracted":9194,"Ġannotation":9195,"Ġvisual":9196,"ĠDetermine":9197,"pportunity":9198,"Geom":9199,"assertIsNotNone":9200,"apanese":9201,".\"),":9202,"87":9203,"Category":9204,"spreadsheet":9205,"Ġten":9206,"Ġbatches":9207,"ĠSentence":9208,"Ġ204":9209,"Ġ`\"":9210,"ĠDiffusion":9211,"ENET":9212,"ĠWin":9213,"ĠVER":9214,"Ġprereleases":9215,"ĠInteger":9216,"greater":9217,"splitext":9218,"overload":9219,"Ġtrained":9220,"Ġweighted":9221,"filenames":9222,"Ġpreds":9223,"HeadAttention":9224,"etric":9225,"LOGGER":9226,"problem":9227,"existing":9228,"Authorization":9229,"Rule":9230,"Side":9231,"gamma":9232,"wl":9233,"Ġperson":9234,"union":9235,"Ġdefinition":9236,"Ġduplicate":9237,"Ġuid":9238,"keywords":9239,"Ġrescale":9240,"ĠMer":9241,"ponsor":9242,"contin":9243,"Ġatten":9244,"Ġsubclasses":9245,"RAG":9246,"Ġfails":9247,"2021":9248,"ĠDistributed":9249,"ordinates":9250,"Position":9251,"ĠEmailAddress":9252,"ratios":9253,"clusive":9254,"./":9255,"DConditionModel":9256,"MULTI":9257,"break":9258,"kely":9259,"ming":9260,"utter":9261,"Ġcent":9262,"raster":9263,"Ġcourse":9264,"Ġseveral":9265,"ENCO":9266,"Modeling":9267,"ĠVis":9268,"Ġcomparison":9269,"UTO":9270,"vidual":9271,"bucket":9272,"Ġoutside":9273,"arian":9274,"ĠBaseDatabase":9275,"Ġ80":9276,"ĠĠĠĠĠĠĠĠĠĠĠĠĠĠĠĠĠĠĠĠĠĠĠĠĠĠĠĠĠĠ":9277,"Ġlibraries":9278,"Ġaggreg":9279,"ĠGetPrompt":9280,"gorithms":9281,"datatype":9282,"receivers":9283,"ĠIndexError":9284,"Dual":9285,"Make":9286,"PC":9287,"Simple":9288,"effect":9289,"whisper":9290,"Ġpag":9291,"Ġsil":9292,"Ġsolver":9293,"();":9294,"vie":9295,"Ġhis":9296,"-----":9297,"Ġgl":9298,"assertRecord":9299,"combine":9300,"ORY":9301,"Ġcompare":9302,"viewer":9303,"ĠPartner":9304,"distil":9305,"distribut":9306,"FORMERS":9307,"ĠBaseModelOutput":9308,"Ġreplacement":9309,"Ġpixels":9310,"Ġwindows":9311,"safety":9312,"Ġsupplied":9313,"Ġ1997":9314,"Ġhappen":9315,"setColumnStretch":9316,"assertRecordValues":9317,"!\"":9318,"Demo":9319,"Mat":9320,"Tree":9321,"bc":9322,"dating":9323,"gge":9324,"sible":9325,"tle":9326,"ught":9327,"|>":9328,"leet":9329,"Ġfps":9330,"Ġinf":9331,"eli":9332,"ado":9333,"Ġbel":9334,"Ġ#:":9335,"Ġdraw":9336,"quis":9337,"ĠLora":9338,"Ġgpu":9339,"ONG":9340,"listen":9341,"``).":9342,"ForSeq":9343,"ansion":9344,"traceback":9345,"Ġcontextmanager":9346,"ĠQwen":9347,"Ġvalidated":9348,"wraps":9349,"SeqLM":9350,"AutoModel":9351,"livered":9352,"letter":9353,"~~~~~~~~~~~~~~~~":9354,"credentials":9355,"Ġboundary":9356,"ĠABC":9357,"ĠAddedToken":9358,"Ġroutines":9359,"ĠKEY":9360,"TImageProcessor":9361,")')":9362,"JWK":9363,"dri":9364,"ess":9365,"elements":9366,"few":9367,"pc":9368,"analy":9369,"Ġrewards":9370,"Ġ'#":9371,"adjust":9372,"olation":9373,"Ġgc":9374,"ĠHow":9375,"Ġtypeof":9376,"shapes":9377,"Ġcontract":9378,"BaseModelOutputWith":9379,"ĠSeq":9380,"ĠState":9381,"Ġ[{'":9382,"ĠPerform":9383,"reconcile":9384,"DX":9385,"Dest":9386,"GRE":9387,"Num":9388,"RenderableType":9389,"]+)":9390,"hint":9391,"solver":9392,"Ġreceive":9393,"Ġdecor":9394,"uninstall":9395,"Ġbill":9396,"','":9397,"clar":9398,"ased":9399,"Ġunlink":9400,"assertAlmostEqual":9401,"campaign":9402,"Ġ:-":9403,"ĠUnsupported":9404,"region":9405,"Ġbackwards":9406,"RANK":9407,"OCESS":9408,"Ġstarts":9409,"Ġinterpolation":9410,"webhook":9411,"websocket":9412,"cosine":9413,"Success":9414,"Ġwaveform":9415,"Authentication":9416,"ĠFacebook":9417,"Ð¾Ð":9418,"ĠLOGGER":9419,"FER":9420,"Graph":9421,"Highlight":9422,"POR":9423,"PER":9424,"Single":9425,"standing":9426,"Ġcriterion":9427,"Ġincoming":9428,"Ġaugment":9429,"coupon":9430,"\")[":9431,"(\"{":9432,"Ġdivisible":9433,"ĠFl":9434,"ĠUsing":9435,"Ġ%}":9436,"AST":9437,"([],":9438,"Ġcodecs":9439,"Ġcreates":9440,"ADATA":9441,"planation":9442,"lexers":9443,"AutoField":9444,"Ġprobably":9445,"Ġbrowser":9446,"\"`":9447,"Cl":9448,"ECH":9449,"Live":9450,"eded":9451,"pb":9452,"promo":9453,"inux":9454,"ores":9455,"reduction":9456,"routing":9457,"Ġincrement":9458,"Ġdriver":9459,"ism":9460,"ĠCre":9461,"pow":9462,"Ġhub":9463,"Ġthings":9464,"Ġguidance":9465,"keypoints":9466,"ĠBad":9467,"Ġtokenize":9468,"Unable":9469,"populated":9470,"supports":9471,"icsr":9472,"ighb":9473,"ffered":9474,"Ġvisible":9475,"Ġgoal":9476,"Current":9477,"emails":9478,"frac":9479,"Ag":9480,"Basic":9481,"HAND":9482,"NOT":9483,"TypedDict":9484,"inja":9485,"analysis":9486,"Ġ\"@":9487,"loom":9488,"Ġol":9489,"unded":9490,"Ġcomodel":9491,"pretrain":9492,"eway":9493,"Ġmapped":9494,"],[":9495,"Comple":9496,"SetConsole":9497,"markdown":9498,"suppress":9499,"Ġspans":9500,"going":9501,"Ġdeepspeed":9502,"ĠRunCodeResponse":9503,"alizedName":9504,"Ġlightrag":9505,"ĠSPDX":9506,"72":9507,"CRI":9508,"Li":9509,"Qwen":9510,"Tab":9511,"holding":9512,"ka":9513,"âĤ":9514,"inator":9515,"receipt":9516,"decorators":9517,"het":9518,"Ġsw":9519,"Ġmixin":9520,"Ġbank":9521,"ĠFn":9522,"ĠBY":9523,"ĠExp":9524,"Ġtransfer":9525,"COOK":9526,"istrations":9527,"Ġcollect":9528,"Ġpeople":9529,"ĠWheel":9530,"ĠTimeout":9531,"Ġmultiprocessing":9532,"scussion":9533,"tuning":9534,"æĹ¥":9535,"combination":9536,"çĶ¨":9537,"COOKI":9538,"62":9539,"79":9540,"Ob":9541,"[]":9542,"actor":9543,"benchmark":9544,"pull":9545,"instruction":9546,"rome":9547,"ching":9548,"exe":9549,"mag":9550,"ĠCSRF":9551,"ĠMain":9552,"ĠER":9553,"Ġcontrollers":9554,"ledge":9555,"Ġtranspose":9556,"Ġchatbot":9557,"confirmation":9558,"Ġarrays":9559,"ĠBatchEncoding":9560,"ĠYOLOv":9561,"MAGENET":9562,")'":9563,"Microsoft":9564,"Push":9565,"Scal":9566,"ilike":9567,"ny":9568,"slots":9569,"detection":9570,"Ġcriteria":9571,"Ġcertain":9572,"Ġ\"*":9573,"Ġrecomm":9574,"Ġsqa":9575,"cha":9576,"ĠPrint":9577,"ĠDotDict":9578,"Ġresume":9579,"ĠWith":9580,"timedelta":9581,"Ġintro":9582,"TIVE":9583,"Ġroom":9584,"mitted":9585,"sps":9586,"Ġlogs":9587,"Ġlogged":9588,"ĠModelType":9589,"Helper":9590,"ConnectionError":9591,"AndCrossAttentions":9592,"Ġtzinfo":9593,"CFArray":9594,"Ġcmdoptions":9595,"65":9596,"Crop":9597,"Sw":9598,"eu":9599,"stages":9600,"defics":9601,"cture":9602,"Ġpoly":9603,"Ġmiddleware":9604,"unnel":9605,"elist":9606,"converter":9607,"power":9608,"Ġdims":9609,"prep":9610,"('.')":9611,"Ġmajor":9612,"ĠRaise":9613,"ModelType":9614,"ityError":9615,"({})":9616,"statistics":9617,"subtype":9618,"10000":9619,"Ġfairseq":9620,"ĠFormatter":9621,"Ġhandles":9622,"Ġidentity":9623,"Ġticket":9624,"ĠExamples":9625,"Ġmaking":9626,"ufacturing":9627,"vantages":9628,"ChartTemplate":9629,"Patch":9630,"Title":9631,"cutoff":9632,"dp":9633,"ral":9634,"una":9635,"pts":9636,"iscal":9637,"Ġlxml":9638,"ĠImaging":9639,"paid":9640,"ĠRenderableType":9641,"Ġseries":9642,"haped":9643,"Ġconfigure":9644,"ĠNum":9645,"agraph":9646,"Tower":9647,"PreLayerNorm":9648,"translations":9649,"Types":9650,"calls":9651,"Ġcomm":9652,"]]]:":9653,"Ġminor":9654,"Ġinterpolate":9655,"markup":9656,"ĠLocal":9657,"Ġaccounts":9658,"Ġtruth":9659,"Ġtruncated":9660,"ĠAccountChartTemplate":9661,"Editor":9662,"ä»¶":9663,"dependent":9664,"æķ°":9665,"ĠCORPOR":9666,"DD":9667,"aur":9668,"bvh":9669,"efficient":9670,"fw":9671,"separ":9672,"invoices":9673,"rosa":9674,"aspect":9675,"itch":9676,"met":9677,"Ġreview":9678,"Ġsizes":9679,"ĠFound":9680,"angular":9681,"omial":9682,"Ġunless":9683,"Connect":9684,"TIMESTAMP":9685,"Ġraises":9686,"ĠNUM":9687,"ĠBaseDistribution":9688,"initializers":9689,"Ġextras":9690,"Ġsqlite":9691,"Ġgeo":9692,"Results":9693,"sdp":9694,"identification":9695,"Ġscripts":9696,"accumulation":9697,"ĠChannelDimension":9698,"æĺ¯":9699,"ĠCORPORATION":9700,"++":9701,"768":9702,"Dec":9703,"PH":9704,"cpp":9705,"}'.":9706,"deadline":9707,"arded":9708,"utures":9709,"Ġrenamed":9710,"ising":9711,"tach":9712,"Ġ224":9713,"Constraint":9714,"ĠBlock":9715,"composer":9716,"Reset":9717,"ĠRegex":9718,"ARD":9719,"nnot":9720,"uncased":9721,"STEM":9722,"RECO":9723,"subclasses":9724,"Ġminutes":9725,"Ġ\"%(":9726,"sociallogin":9727,"EncoderModel":9728,"Ġexecution":9729,"Ġincludes":9730,"ĠEnvironment":9731,"Ġ''',":9732,"ĠNetwork":9733,"ggered":9734,"Bo":9735,"Handle":9736,"Player":9737,"PLA":9738,"Rot":9739,"}%":9740,"inct":9741,"mester":9742,"Ġnb":9743,"Ġns":9744,"ĠSince":9745,"Ġproviders":9746,"Ġfilepath":9747,"ĠVer":9748,"Ġ:],":9749,"Ġcaptions":9750,"DEEPGRAM":9751,"ĠProject":9752,"Ġstatistics":9753,"APIView":9754,"RoFormer":9755,"limited":9756,"ĠCompany":9757,"ĠNamedTuple":9758,"Ġconsistent":9759,"æľĪ":9760,"BOSE":9761,"finite":9762,"Ġcycle":9763,"ĠWKB":9764,"accents":9765,"'^":9766,"74":9767,"Calendar":9768,"First":9769,"[(":9770,"must":9771,"reen":9772,"Ġbig":9773,"Ġ####":9774,"ĠWrite":9775,"acters":9776,"Ġ``<":9777,"TypeError":9778,"ĠAnsi":9779,"ĠChecks":9780,"completions":9781,"scales":9782,"ĠDocument":9783,"Ġcorresponds":9784,"ĠStringIO":9785,"ĠEXPECTED":9786,"assertNotIn":9787,"Executor":9788,"INDOWS":9789,"distributions":9790,":',":9791,"Edi":9792,"Socket":9793,"Word":9794,"bra":9795,"fps":9796,"pid":9797,"erce":9798,"rod":9799,"Ġcutoff":9800,"andbytes":9801,"setFormatter":9802,"ĠFinal":9803,"Ġste":9804,"ĠDes":9805,"lencode":9806,"ĠMIT":9807,"ENABLE":9808,"REGI":9809,"LIST":9810,"á´ľ":9811,"=[('":9812,"Collection":9813,"ĠEncoder":9814,"rasp":9815,"assetsbundle":9816,"ĠPOST":9817,"accepted":9818,"hexdigest":9819,"********":9820,"ĠConstructs":9821,"elem":9822,"Ġmegabatch":9823,"longest":9824,"((\"":9825,"Pie":9826,"Sha":9827,"Usage":9828,"bpe":9829,"dy":9830,"tre":9831,"oracle":9832,"ĠSUPERUSER":9833,"formers":9834,"Ġguide":9835,"Ġguess":9836,"']))":9837,"ĠDrop":9838,"uspic":9839,"ĠEXT":9840,"fft":9841,"Ġweak":9842,"META":9843,"Ġjit":9844,"Resource":9845,"Ġruns":9846,"Ġtrajectory":9847,"hashed":9848,"mercial":9849,"uick":9850,"Backbone":9851,"Ġerrcheck":9852,"ĠPostGIS":9853,"BACK":9854,"Ġfrozenset":9855,")?":9856,"Greater":9857,"din":9858,"mbert":9859,"tw":9860,"wsgi":9861,"inplace":9862,"Ġsq":9863,"importlib":9864,"Ġein":9865,"Ġprocesses":9866,"Ġuninstall":9867,"ĠVari":9868,"Ġ}}":9869,"voke":9870,"Stable":9871,"Ġspecifies":9872,"ResNet":9873,"priority":9874,"xmlid":9875,"TextDual":9876,"Ġupdates":9877,"ĠCaption":9878,"reply":9879,"Supported":9880,"formatters":9881,"assertNotEqual":9882,"Ġpotential":9883,"(\"\"\"":9884,"Fil":9885,"Out":9886,"TMP":9887,"cnt":9888,"nc":9889,"pot":9890,"svg":9891,"skeleton":9892,"deps":9893,"utt":9894,"Ġreally":9895,"Ġpubli":9896,"urther":9897,"Ġoat":9898,"Ġsyn":9899,"Ġtheme":9900,"Ġbenchmark":9901,"quad":9902,"paint":9903,"Ġrespect":9904,"Ġanalysis":9905,"Ġsuppress":9906,"])]":9907,"pointer":9908,"ANY":9909,"Ġcontra":9910,"umprod":9911,"Prediction":9912,"ĠDeberta":9913,"aker":9914,"selector":9915,"attendee":9916,"Ġlru":9917,"Ġsigning":9918,"letters":9919,"Ġfailure":9920,"Ġletters":9921,"Initialize":9922,"Ġintegers":9923,"ĠRetrieve":9924,"ĠLazy":9925,"Piece":9926,"AF":9927,"GN":9928,"OnnxConfig":9929,"Swin":9930,"WT":9931,"mc":9932,"tell":9933,"Ġ----------------":9934,"stand":9935,"dilation":9936,"Ġbug":9937,"alls":9938,"\"]}":9939,"Ġele":9940,"ĠMSE":9941,"sound":9942,"sources":9943,"ĠGroq":9944,"pecial":9945,"Exp":9946,"refore":9947,"Ġqtlib":9948,"Channel":9949,"structBlip":9950,"matching":9951,"ĠParam":9952,"fetchall":9953,"ĠBertTokenizer":9954,"Ġoverrides":9955,"failure":9956,"coeff":9957,"ĠRemovedInDjango":9958,":{":9959,"Cla":9960,"GPU":9961,"Raw":9962,"dr":9963,"iou":9964,"êľ":9965,"Ġri":9966,"Ġinstructions":9967,"lopen":9968,"Ġsatis":9969,"Ġland":9970,"ĠRandom":9971,"Ġ===":9972,"arer":9973,"axes":9974,"Ġregarding":9975,"Ġoffsets":9976,"precate":9977,"iftFormer":9978,"âĸĳ":9979,"Ġcombination":9980,"Ġdiscount":9981,"membership":9982,"ALLOWED":9983,"Ġcategories":9984,"SPEECH":9985,"Ġensures":9986,"uspicious":9987,"AE":9988,"Mon":9989,"`],":9990,"judge":9991,"kt":9992,"ktoken":9993,"æŀ":9994,"arily":9995,"Ġwarn":9996,"cluster":9997,"pponent":9998,"Ġdifference":9999}