#version: 0.2
Ġ Ġ
ĠĠ ĠĠ
ĠĠ Ġ
ĠĠĠĠ ĠĠĠĠ
s e
ĠĠĠĠ ĠĠĠ
i n
r e
o n
t e
o r
d e
s t
Ġ =
t h
se l
sel f
l e
m e
Ġ a
t i
e r
a l
ĠĠĠĠĠĠĠĠ ĠĠĠ
Ġ i
Ġ '
a r
Ġ c
a n
Ġ self
e n
- -
Ġ f
r o
a t
Ġ re
Ġ th
u r
g e
c e
Ġ p
) :
ti on
" "
a s
m p
u e
' ,
ĠĠĠĠĠĠĠĠ ĠĠĠĠĠĠĠĠ
Ġ t
Ġ n
Ġ s
# #
e l
de f
a me
in g
Ġ in
Ġ o
Ġth e
a te
e c
se r
l i
f i
l o
n t
Ġ d
r i
Ġ b
( )
c o
Ġ def
' :
c h
Ġ (
Ġ m
e x
Ġ "
Ġ w
or t
Ġi f
s i
u t
ur n
-- --
u n
t urn
i d
u l
r a
Ġ #
_ _
ĠĠĠĠĠĠĠĠ ĠĠĠĠĠĠĠ
n ame
i s
te r
ge t
p e
"" "
o de
o t
a d
Ġre turn
Ġf or
i t
) ,
c k
Ġt o
on e
m a
mp ort
Ġ T
( '
c t
v al
e d
Ġi s
p a
## ##
l a
u p
Ġ [
v er
ro m
Ġa n
Ġ """
as s
e s
i l
y pe
el d
ec t
se t
d i
' )
k e
at a
q u
Ġ h
c on
ser t
te st
N one
o l
s s
e t
Ġ {
c l
ul t
Ġ st
r ue
Ġo f
o p
= =
b j
v i
g s
de r
Ġ ex
' ]
. _
a tion
o d
a p
" ,
me nt
en t
Ġ 1
b le
) )
Ġc on
l s
0 0
Ġi mport
Ġ u
si on
val ue
f rom
Ġ A
t a
r or
an d
Ġn ot
v e
Ġ S
---- ----
re s
u m
i le
Ġ %
Ġan d
Ġa s
[ '
Ġ C
Ġ I
a ge
i th
ke y
t o
te d
Ġ 0
a se
c tion
in t
as sert
Ġ None
q ue
bj ect
ĠĠĠĠ Ġ
( "
t ype
a m
ĠĠĠĠĠĠĠĠ ĠĠĠĠĠĠĠĠĠĠĠ
h e
Ġ g
ti me
or m
i eld
] ,
t r
Ġ e
Ġ +
Ġ _
b u
x t
fi le
cl ass
p ro
u s
Ġ F
al l
Ġ test
an g
p ar
Ġ el
en d
pa th
p tion
Ġ= =
Ġre s
i c
o w
T rue
l in
Ġ de
Ġ :
e w
Ġ *
p er
an ce
Ġ -
i g
h t
Ġ L
le n
u b
Ġ or
li st
ar gs
Ġc o
R e
Ġ 2
#### ####
Ġb e
m ode
Ġ P
te xt
Ġ r
d b
i f
p t
al se
que st
E r
i st
f o
Er ror
Ġ( '
Ġn ame
qu al
Ġ lo
" )
ap p
Ġ me
r y
p o
d ata
fi eld
te m
= '
a ult
O N
a ble
a ck
Ġw ith
o ut
E R
p ut
st r
Ġ{ '
i se
Ġ D
j ang
o ur
m o
jang o
t y
Ġp ro
st ance
Ġf ile
re d
Ġ O
i z
s h
== ==
ĠĠĠĠĠĠĠĠĠĠĠĠĠĠĠĠ ĠĠĠĠĠĠĠĠĠĠĠĠĠĠĠĠ
Ġ M
re ate
p ec
I N
o c
Ġel se
fi g
m m
i mport
F ield
mp le
d ate
E qual
ar t
Ġ value
h o
f orm
ad d
e st
y s
Ġ __
u le
l y
t ri
ur l
Ġ se
w or
Ġd ata
Ġm a
I n
our ce
Ġa r
co de
assert Equal
Ġ get
mode ls
Ġc h
Ġ set
g er
p on
s c
u re
Ġ un
i p
" :
] )
field s
at ch
o bject
l ate
li c
Ġ y
Ġ E
Ġ on
Ġth is
' }
Ġ ra
Ġ N
f f
b o
< /
Ġ v
en se
Ġas sert
pon se
an ge
re nt
-------- --------
E S
p y
Ġst r
Ġ x
Ġa l
Ġd i
T I
u th
ch e
Ġ B
or y
__ (
Ġp ar
Ġf rom
u ser
Ġth at
de x
u nt
ce ss
li ent
in d
r int
d jango
) .
k w
t p
j o
. .
lin e
th od
ar y
te n
Ġ @
ce pt
ro up
ĉ ĉ
p re
Ġu se
Ġp a
Ġ W
Ġ[ ],
E N
a der
u ment
ĠĠĠĠĠĠĠĠĠĠĠĠĠĠĠĠ ĠĠĠĠĠĠĠĠ
ĠT rue
er ror
C on
il d
ĠT he
p p
Ġra ise
b er
ĠĠĠĠĠĠĠĠĠĠĠĠĠĠĠĠ ĠĠĠĠĠĠĠ
o re
f a
o ck
co l
Ġ )
Ġa t
` `
lo w
g in
Ġw h
ec k
d d
re ad
p ort
Ġ U
ver sion
par am
O R
Ġ 3
Ġ en
te nt
o m
od ule
Ġo s
Ġi t
t ing
Ġ key
ic ense
te mp
in it
vi ce
c al
0 1
ma ge
th er
* *
ex t
= "
o k
m in
ĠĠĠĠ ĠĠ
> >
Ġb y
c a
kw args
Ġ <
an s
in stance
Ġres ult
Ġm ode
R E
Ġ }
ĠF alse
S T
Ġ G
di r
at or
ce ption
m l
T est
/ /
Ġ list
######## ########
ss age
o s
. __
i r
g th
val id
o u
te s
p h
F alse
as k
le r
v ent
def ault
lo g
( ):
app end
a c
S E
ma x
er y
A T
de d
il l
Ġc l
' '
un d
C h
Ġ R
Ġo ut
Ġex cept
Ġ l
tion s
mm and
Ġ len
' ),
ĠL icense
Ġ la
Ġa re
li b
un ction
u st
at us
re ct
s on
w a
ri te
f e
Ġt ry
d s
re quest
Ġlo g
b ack
ta in
sc ri
Ġ V
'} ),
z e
Ġ* *
Ġp rint
A R
m s
up date
in fo
f or
Ġw e
ce s
Ġ Re
Ġu ser
L E
iz e
a ve
I T
p la
c reate
Ġ time
Ġre quest
re n
Ġo bject
qu i
Ġ ro
ti ve
Ġ H
lo ad
de n
a g
b ase
an t
tri bu
form at
a b
con fig
um ber
E x
co unt
th on
n o
res ult
g ht
se s
==== ====
ser ver
ow n
ul l
wor k
ma in
jo in
ter s
qu ery
en er
ĠĠĠĠ Ċ
ti c
ul d
n ode
di ct
ĠĠĠĠĠĠĠĠ Ġ
Ġt ype
len gth
A L
i m
Ġs o
s p
P ro
U T
at tr
vi ew
Ġs h
u te
f t
Ġn o
T ype
Ġp ass
l an
Ġp re
Ġn ew
p en
Ġh e
1 2
a mple
si ze
se d
k en
c ur
Ġdef ault
ar get
Ġn ode
o g
n ec
Ġa pp
ra y
A N
Ġc ol
Ġ[ ]
st art
Ġpa th
u ti
um n
j ect
Ġd o
in dex
co m
n d
Ġw ill
() )
l u
ter n
op y
Ġ 4
: //
ig n
g roup
h is
C o
( [
lo ck
j son
Ġh as
Ġel if
K e
v el
i es
co mp
str ing
temp late
a uth
i fi
TI ON
ate d
u me
g n
re e
1 0
p i
s ub
Ġs ys
o st
m b
Ġal l
c lient
I D
N ame
Ġc an
d a
I C
re ss
b el
Ġf ield
Ġp y
fi x
g ument
Ġs pec
Ġcl ass
Ġp er
Ġco mp
S t
u ct
ri ght
i tem
Ġ k
i v
w rite
w ith
Ġfor m
ar d
Ġ{ }
ĠI f
t ra
al ue
Ġs up
ti al
wor d
b y
Ġs ub
r on
le ment
it y
n ing
Ġstr ing
() ,
Ġo ption
ĠI n
i al
ting s
Ġ Ċ
Ke y
pa ce
m it
Ġa dd
re turn
] .
le d
Ġres ponse
un c
M E
O D
m is
Ġ[ '
[ "
A S
c or
a ct
and ler
Ġme thod
l l
Ġc ur
Ġ url
Ġ \
'] ,
t s
ar i
R O
re g
1 1
Ġn p
ma p
s ing
cl u
st ate
nec tion
Ġ+ =
ar ch
ht tp
Ġ li
ta ble
t tp
me thod
in e
Ġin stance
Ġcon fig
ĠT his
Ġb u
i x
ser vice
le te
m d
i me
r un
3 2
Ġ >
Ġc reate
st atus
Ġ `
Ġ ``
o bj
Ġar gs
per ty
c ation
pec ted
Ġ le
w w
lin k
n et
ho st
00 00
E D
. """
lan k
i te
ut o
ĠĠĠĠĠĠĠĠĠĠĠĠĠĠĠĠ ĠĠĠĠĠĠĠĠĠĠĠ
wa re
t le
res ponse
ho uld
lo at
Ġd oc
le an
Ġa c
u mp
o o
g ra
sh a
Ġis instance
ap i
Ġ line
Ġ .
m odule
Ch ar
tribu te
H E
e e
' s
n ot
Ġp o
Ġ 5
R es
me ssage
li t
d o
scri ption
Ġf unction
mis sion
m an
D e
se nt
" ]
I S
d oc
ro w
A C
r ame
---------------- ----------------
v a
fi l
Ġ error
Ġi tem
Ġun der
ig ht
er s
r ans
Ġin t
ma il
Ġ' ''
Ġme ssage
Ġ /
a k
d is
Ġo ther
as h
c all
Ġs hould
con text
ader s
p r
bu g
i ch
'] )
Ġ !
Ġ >>
ri bu
Ġd ist
el p
Ġw or
' t
() .
od y
a y
mode l
c lo
Char Field
6 4
name s
object s
Ġ version
Ġd jango
st a
Ġout put
ĠE x
2 5
ĠC on
p ri
S tr
Ġr un
o und
uti ls
re f
con tent
d ing
b s
ti tle
u se
i mage
Ġspec ifi
all y
ch eck
a ction
Ġuse d
Ġ! =
par se
IN G
Ġd is
v ed
ation s
9 9
Ġ z
n el
Ġm odule
ht ml
Ġma y
w e
s g
M P
y n
n ew
a ger
g ing
D ata
si gn
Ġ |
S et
s u
Ġst art
mo ve
ĠO R
' .
ra p
ul ti
F ile
Ġs u
t ro
lo b
Ġb ase
Ġch eck
Ġh ttp
Ġn e
a ch
ĠT est
qui red
ar g
ĠĠĠĠĠĠĠĠ Ċ
re am
Ġc ode
et a
Ġi d
fo o
b lank
Ġf a
Ġ end
s ys
( (
Ġmode l
Ġwh ich
Ġy ou
or g
') )
D E
Ġd ate
Ġ>> >
U R
ĠA N
Ġ j
C ase
te ger
ar ray
a x
or s
ar k
A B
' ):
lu gin
EN T
late d
Ġc all
b in
Ġ text
up le
c re
Ġdi ct
Ġd b
Ġc opy
la bel
po int
S I
Ġmode ls
i on
ment s
to ken
ode l
ti es
Ġin dex
s ource
me n
ol s
n e
T T
sp lit
ti fi
G E
pa ck
tr ans
co re
Ġcon text
Ġvalue s
.. .
S er
Ġcur rent
Ġh ave
rect ory
Ġma x
n s
c s
pro cess
out put
on g
u id
th e
tro l
Ġm ock
b e
Ġs ource
u al
e p
Ġst ate
clu de
Ġi mage
m ary
l d
ĠO F
pla y
D I
Ġ} ,
M A
Ġan y
################ ################
L ist
ĠRe turn
L O
n er
i code
o me
t in
T o
type s
Ġc lient
Ġcon tain
A D
Ġo bj
fil ter
Ġ one
F I
Ġc al
la ble
f unc
" ),
co mm
[ :
or ted
p rint
Ġsup er
ti ty
V alue
it s
m y
and le
Ġa d
pla ce
ind ow
ang u
O T
P I
angu age
P ar
I d
Ġn umber
r c
in put
0 2
Ġwh en
ame ters
Ġco mmand
id th
: `
U n
pro ject
param s
in ter
Ġ X
op en
and om
Ġe vent
op tions
ari able
Ġex p
Ġdist ribu
U L
lic ation
ise s
n ull
iv en
s pec
la y
p s
de lete
0 4
P E
ĠP y
Ġex pected
t arget
lin es
Ġr ange
value s
Ġar gument
s pace
co mmand
vi ron
Ġ ver
T ime
Ġpar am
A A
Ġm atch
e vent
ĠĠĠĠĠĠĠĠ ĠĠ
** **
Ġ query
ff er
fe ren
ĠI N
de bug
Ġ up
} )
ad ata
Ġoption s
p atch
Ġa uth
c i
Ġ server
Test Case
Ġo pen
M odel
Ġwor k
======== ========
file name
id get
b ar
c ri
i tial
ft ware
1 6
n um
ur ation
or der
Ġon ly
Ġcon tent
ta g
Ġform at
ĠD e
G et
con n
U p
s age
TION S
v ar
st ore
Ġt ra
ĠĠĠĠĠĠĠĠ ĠĠĠĠ
st ri
0 3
Ġ Q
at tern
if y
P o
Str ing
D i
Ġre g
Ġm ust
le ction
c ate
Ġ 6
ex ec
mo ck
Ġm sg
p ass
Ġt arget
F orm
Ġ --
ut f
T R
Ġb o
Ġh elp
M L
s or
P O
Ġ valid
Ġb ut
} ,
set tings
Ġfile s
Ġa ction
Ġg ener
Ġa g
B ase
ar ning
Ġc a
q l
ca che
c y
ent ry
ms g
* -
Ġin put
A r
ir st
que ue
re lated
er r
jo b
ro ot
si tion
al s
Ġg iven
U S
ten sion
C T
cl s
un k
I L
Ex ception
1 5
m atch
N A
Ġ kwargs
sha pe
to col
ser ial
st ra
el l
at ure
Ġ- *-
ock et
p lo
clo se
Ġ Y
Ġg roup
~ ~
: :
C H
Ġt rans
mb da
Ġ ]
l at
3 4
key s
ch ed
ist s
Ġt able
u d
ĠĠĠĠĠĠĠĠ ĠĠĠĠĠ
00 0
op tion
h as
il ter
1 4
x y
Ġ K
E n
assert True
o f
Ġto ken
bu ild
pro perty
T H
is ter
N ode
U ser
fa ce
o ver
Ġ J
Ġ' %
Ġre ad
r ange
an nel
tri b
TT P
Ġdoc ument
item s
( _
pa ge
en v
f unction
de nt
tribu tes
col umn
M an
lo cal
" .
Ġlog ging
at s
ĠC ON
P a
c cess
Ġ vi
U N
R a
po s
t ask
ra tion
O bject
ĠI S
ch ild
ĠT HE
e mp
t adata
Ġb ack
f s
Ġm o
L I
Ġ update
V i
he re
lic ense
Ġf ol
pa rent
it test
ses sion
C ol
er sion
pa che
n umber
Ġ 8
ch ange
che ma
r an
b i
ĠĠĠĠĠĠĠĠĠĠĠĠĠĠĠĠ Ġ
fo re
ĠĠĠĠĠĠĠĠ ĠĠĠĠĠĠ
ĠV alue
Ġpro vi
Ġre quired
ĠU n
ra w
Ġro w
u res
a in
( *
Ġdo es
e qual
date time
1 9
T Y
ol ume
2 0
res ource
) ),
tr y
ĠĠĠĠĠĠĠĠĠĠĠĠĠĠĠĠ ĠĠĠĠĠ
l ass
H O
po st
le vel
in al
st ant
co py
Ġs ize
] [
qu en
Ġ( "
T ext
Ġh ost
C O
Ġdistribu ted
ex p
d u
sel ect
ump y
file s
Ġ1 0
ĠĠĠĠĠĠĠĠĠĠĠĠĠĠĠĠ ĠĠĠĠĠĠĠĠĠĠĠĠĠĠĠ
i que
ad min
N ot
Ġf irst
Ġp ort
s te
{ '
)) )
S e
Ġpar ser
ĠReturn s
le ase
E X
co ding
fi r
Ġm an
Ġin ter
bo x
ed it
m ber
Ġ json
y le
pre fix
p k
Ġ template
o te
n p
n ow
f ter
ĠĠĠĠĠĠĠĠĠĠĠĠĠĠĠĠĠĠĠĠĠĠĠĠ Ġ
opy right
ma tion
Ġparam s
f ind
Re quest
Ġm in
ww w
cur rent
Ġp age
i ter
Ġc ls
us ter
or age
Ġ2 01
ta il
ĠS ee
3 3
Ġset tings
2 01
Ġcol umn
ile d
t op
1 8
o us
1 7
5 0
pe d
on ent
le ct
la st
Ġ' /
ol d
et work
k ip
I F
la tion
= [
Ġdate time
Ġar g
ith er
Ġma ke
ri ver
Ġpa rent
A t
2 4
ĠAN Y
str uct
Ġ q
Ġex ception
C E
iz ed
Ġo ver
f la
le ss
scri pt
at ri
x ml
di tion
ore ign
ĠC o
ĠValue Error
Ġst atus
b ody
ust om
feren ce
A dd
Ġu sing
fa ct
ex ception
R AN
ĠĠĠĠĠĠĠĠĠĠĠĠĠĠĠĠ ĠĠ
a st
) ]
f loat
or d
u i
do main
ot al
O P
Ġch ange
ri d
Ġli mit
t on
m t
Ġ: :
Ġfile name
b lock
ur i
Ġ view
o ther
iz ation
bo se
s ave
f y
a ke
Ġp ack
ver t
Re turn
si t
ti v
a re
Ġre t
\ \
ĠP ro
r t
r ate
ĠPy thon
d f
s a
ĠC opyright
ĠĠĠĠĠĠĠĠĠĠĠĠĠĠĠĠ ĠĠĠĠ
Ġla bel
tern al
m on
D ate
ra ph
p ub
Ġw ri
va i
to ols
1 3
net work
Ġin st
Ġwh ile
c md
Ġi mp
Ġe lement
C ON
ver se
de scription
Ġy ield
con f
Ġt ask
oo lean
Ġin to
c er
Ġt uple
p op
Ġc ase
In teger
T he
Ġp ri
py thon
1 00
R I
Ġper mission
i ck
at ing
Ġt w
5 6
oreign Key
res sion
'} ,
si ble
tin ue
Ġf la
i e
ame ter
re ak
d out
on t
atri x
O F
par ser
us h
cri pt
us r
ĠC h
v o
orm al
read y
ro u
ES S
Ġfield s
o ff
Ġ 7
Ġname s
f er
le ar
B u
F A
ut ure
add ress
h a
he aders
uti l
Ġdi rectory
e mail
Ġne ed
Ġres ource
Ġe ach
Ġo per
se arch
g h
in st
ĠW AR
man ager
Ġp os
s o
s um
h andler
2 2
es sage
lic y
ES T
Ġw as
si te
g ener
i ve
as ses
V ER
v m
Vi ew
Ġco unt
Ra ises
C L
c p
AT E
fa il
Ġresult s
ĠA r
5 5
mo te
Ġpy thon
L o
Ġu ti
pass word
Con fig
F oreignKey
') .
Ġ val
Ġe ither
2 00
per ties
act ory
Ġso me
f rame
Ġfol low
Ġ ""
Ġpro cess
Ġor der
yn c
3 0
n ext
ĉĉ ĉ
Ġch ild
le s
Ġf loat
lu g
gin e
lob al
ck et
Ġspecifi ed
stri p
M e
Ġ' .
ĠWAR RAN
cor d
Ġhe aders
Ġo b
d own
K E
ĠEx ception
Ġlo cal
able d
for mation
N o
m ark
Ġt ag
ar gument
8 6
se nd
Res ponse
Ġpro ject
f low
conn ect
s with
Ġhe re
u uid
th ing
vai lable
Ġat tr
Ġc or
con nection
li ed
assert Raises
Ġch ar
w idth
re q
iz er
I O
re move
(' /
H andler
ate s
col or
Ġ service
Ġal low
Ġcon tinue
Ġla st
Ġf ound
Ġde st
Ġex ec
Ġs a
Ġ2 00
Ġth en
di fi
pack age
st ream
p c
sta mp
li ty
U M
Ġs i
f g
Ġobject s
Ġ ..
Ġ' '
Ġ 9
me ta
Ġb ody
Ġm ore
n der
M eta
reg ister
8 4
ction ary
Ġspecifi c
ĉ Ċ
ig h
Ġsh a
T ER
Pa th
s up
id s
Ġcon nection
Ġex tra
d uct
al t
s y
Ġo p
c an
G roup
ĠĠĠĠĠĠĠĠĠĠĠĠĠĠĠĠ ĠĠĠĠĠĠ
ma ke
Ġs ign
k er
pri mary
g en
Ġn umpy
i ce
user name
ulti p
u tion
Q U
Ġso ftware
sh ow
TI ES
g o
8 0
as ter
C lient
Ġl anguage
L og
Ġlog ger
[ -
st ack
t mp
p lugin
Ġro ot
Ġde l
men ted
A uto
he ader
Ġm ap
'} )
Ġd if
r ule
S S
Ġ" %
f ault
in ed
p attern
A G
Ġde scription
Ġs ame
Q u
Ġ ...
Ġse s
fir st
n own
B o
Ġ lib
Ġs y
e lement
IN D
Ġ link
Ġses sion
EN SE
ol der
w h
vi sion
Ġf e
Ġget attr
c ase
I s
a il
Ġcon n
et ch
A P
Ġbu ild
di rect
ĠĠĠĠĠĠĠĠĠĠĠĠĠĠĠĠĠĠĠĠĠĠĠĠ ĠĠĠĠ
r s
Ġlo ad
pre sent
ch ar
ĠY ou
ĠWARRAN TIES
a v
8 9
6 6
l t
NA ME
R L
Ġb lock
Ġargument s
re place
ĠS t
Co mmand
ĠP ar
auth or
act or
li sh
ĠĠĠĠĠĠĠĠĠĠĠĠĠĠĠĠĠĠĠĠĠĠĠĠ ĠĠ
re c
den tifi
U P
log ger
Ġar ray
Ġa ct
2 7
en viron
A d
ro und
ĠĠĠĠĠĠĠĠĠĠĠĠĠĠĠĠĠĠĠĠĠĠĠĠ ĠĠĠĠĠ
I P
'' '
ab s
ample s
li ce
Di ct
sta tic
Ġp art
IC ENSE
M essage
C reate
IC A
Ġin fo
I tem
Ġn um
con tain
Ġc md
Ġv ariable
E L
b r
quen ce
Ġ &
h ash
C lass
lo cation
z er
a tive
is h
s w
sys tem
Ġn ext
Ġpack age
Ġ ),
Ġb reak
m od
Co mp
Integer Field
r andom
ĠA dd
3 7
Ġs p
'] ['
O L
sent ry
Ġhe ader
A uth
n g
Ġ% (
ls o
Ġf ilter
Ġat tribute
Ġpo int
le t
UR L
'] .
qui re
mp ty
ĠW IT
Ġof f
con d
o b
F F
Ġpar se
ext ra
comm on
f uture
O G
Ġt rue
Q L
= %
ing s
P y
Ġma in
. "
test s
co pe
od ing
). __
sel ec
ex ists
Ġa x
Ġ right
Ġa b
gra ph
st op
ed ge
in i
Ġa fter
ĠM OD
i o
ĠL I
f ul
ok up
Ġco mm
al id
A Y
Ġ< =
Ġo pt
der r
D B
Ġo ld
) ):
el per
ter min
Ġun icode
Ġc lo
res h
Ġto p
ĠW e
ca le
de vice
Ġ title
8 8
Ġle vel
g ory
Ġ utf
Ġf ind
mple mented
co mple
" }
c en
', '
Ġ qu
3 6
w ar
Ġ" '
T E
Ġthe re
de l
low er
Ġth read
ĠG et
Ġc oding
Ġex ist
B oolean
time out
trol ler
ĠS tr
ched ule
me tadata
en tic
IT Y
Ġco m
ĠF or
E vent
p orted
UL T
im al
Ġpre fix
Ġres p
og le
w rap
ER R
de s
exec ute
pre ss
. ')
A l
7 7
ĠĠĠĠĠĠĠĠĠĠĠĠĠĠĠĠ ĠĠĠĠĠĠĠĠĠĠĠĠĠĠĠĠĠĠĠ
Ġor ig
comp ile
module s
ĠN ot
Ġit s
] :
H TTP
t rue
assertEqual s
Ġ[ "
Ġwith out
Ġla mbda
as ic
ex pected
Ġen v
Ġh andler
si s
Ġw here
ĠS et
Ġ entry
call back
" >
Ġhas attr
A pp
4 4
Ġn on
2 9
= {
Auto Field
di st
ing le
**** ****
a uto
ICA TIONS
Ġfa il
Ġn etwork
( {
Ġob tain
ĠT ype
Ġ err
2 3
Ġf unc
si de
Ġ Key
Ġg o
Ġfollow ing
ator s
Ġa pi
Ġset up
O C
ĠV ersion
en code
ĠU ser
il der
ul ar
set s
Ġin itial
ect or
ĠMOD IF
Ġse e
ĠMODIF ICATIONS
E T
Ġpermission s
ultip le
_ (
E lement
ĠF OR
un icode
Ġ> =
ge x
A SE
" ))
M S
op er
% (
Ġ temp
set up
GE T
-- -
Ġreturn s
result s
ten d
OR T
un ique
P er
t x
Ġa ss
ĠB E
cal led
Ġin formation
ĠU RL
TY PE
Ġpass word
M ock
Ġca che
con trib
0 5
Ġf in
HO UT
ex ample
0 9
L icense
ser ved
h andle
Ġcreate d
m ory
lo t
Ser ver
Con tent
Ġin clude
", "
] ))
error s
B y
st yle
c li
Ġcall back
Ġ{ "
F actory
Ġp ub
## #
H e
ro p
Ġa uto
e ar
ver y
ol ute
at ures
f n
group s
Ġadd ress
W A
in k
lat form
V AL
A c
Ġal ready
O ption
b a
g or
license s
Ġ' __
Ġlen gth
start swith
Ġpar ameters
st dout
Ġ job
Ġf rame
Ġun ittest
v es
g r
Ġth an
Ġdi ctionary
at tribute
d ump
ex it
lo c
Ġw rite
Ġin di
on ly
ĠA t
ĠWIT HOUT
ut ton
H T
7 5
. ")
B U
ac tive
Ġh andle
sh ip
ĠK IND
C a
N S
Ġtime out
Ġapp lic
bo ok
re pr
di a
F rom
ĠA n
as on
Boolean Field
con ds
AB LE
ĠĠĠĠĠĠĠĠĠĠĠĠĠĠĠĠĠĠĠĠĠĠĠĠ ĠĠĠĠĠĠ
i k
Ġa bs
Ġkey s
node s
T h
id x
S h
Date Time
ĠS o
Ġcal led
Ġitem s
pen den
ch o
R un
2 6
ĠA pache
tail s
Ġbe fore
= (
In stance
off set
Ġse arch
ta ch
FA ULT
o uld
d river
Ġwri ting
Ġ lines
3 5
b l
as sed
O K
te ra
per mission
In dex
g ment
Ġconfig uration
Ġ' _
Con nection
Ġa lso
app lication
ĠStr ing
Ġi ter
IN E
Ġsh ow
Ġtest s
plo t
E C
Ġb in
la mbda
In fo
I mage
' ",
ĠC reate
Ġ' \
Ġ' -
Ġbe en
de v
ĠE X
P RO
ĉĉ ĉĉ
'] :
sh ot
Ġco mple
U E
n ap
z one
s m
( ?
St ate
v olume
Ġs w
se n
Ġ' --
3 9
Ġver bose
t w
Ġdata base
Ġex ample
Res ource
al i
Ġy our
th read
me tri
w d
__ ,
ĠI mport
~~ ~~
ch annel
Ġst ream
by tes
0 6
C all
un ittest
si tive
Ġprovi ded
Ġdo main
Ġr andom
A n
Ġa p
mple ment
Ġcol or
-------------------------------- --------------------------------
r ary
T rans
w ise
ex c
dentifi er
li mit
D is
port s
fa ke
Ġreturn ed
Ġp ost
Ġre q
") ;
ta gs
s rc
O r
re ed
v en
t xt
ERR OR
ĠA PI
2 8
a pache
Ġhas h
st ats
Ġa vailable
Man ager
SI ON
in x
Ser vice
p l
me mber
t ree
um my
] ),
S ub
ri es
Ġimp lied
le x
dition al
op ts
m i
ys tem
oc i
we b
den tial
A TION
L ICENSE
comm it
Ġc re
c c
lo gin
. ,
Ġw rap
0 7
pro file
r ge
de st
li ance
ix in
ĠAN D
ĠN O
vi der
le ft
G L
O ut
s chema
per i
U D
s ume
ĠH TTP
ge st
ĠN OT
b ind
ac cess
Ġg over
la tive
Ġ te
ĠD ata
OD O
Ġre f
( __
de red
P re
b ot
back end
O S
f in
ran ch
ph inx
Ġapplic able
pro t
ur ls
X X
plo y
he et
po ol
iv ed
T his
Par ser
add r
re po
in sert
Ġ $
Ġn ow
D es
as si
V ersion
Ġre nder
x x
Ġs ocket
c lean
im um
Ġf ull
Qu ery
{ }
ĠĠĠĠĠĠĠĠĠĠĠĠĠĠĠĠĠĠĠĠĠĠĠĠĠĠĠĠĠĠĠĠ Ġ
t uple
y load
25 5
Ġerror s
in ce
difi ed
te red
Ġ serial
Ġr ule
Ġre present
Res ult
a a
c ted
Ġat tributes
class method
KE Y
" ):
Ġex press
re en
Ch eck
` .
Ġex tension
A ction
Ġs ingle
S ON
te p
Ġe mpty
v ate
ĠA ll
f ull
f l
z y
ĠB AS
Ġcomp liance
child ren
di ff
Ġre move
ph a
Ġde lete
ĠCON DI
ol y
8 5
ec a
ĠCONDI TIONS
ĠLicense d
Ġac cess
h elp
to m
Ġauth or
Ġgover ning
N umber
IL ITY
ĠBAS IS
# !
re t
Ġtw o
da y
: ]
Ġoption al
8 7
Ġla w
AL L
bu ffer
ex tension
Ġse nd
Ġs cript
F or
fact ory
ic al
form s
Ġag reed
12 0
u sed
i ces
bi lity
F OR
cl uster
Ġp assed
ex cept
Ġtype s
__ )
Ġdocument ation
MP L
W idget
ri de
ti l
: %
Ġex c
\ "
it or
bin ary
Ġme tadata
L e
TH ER
a ti
I G
is ted
Ġpro perty
a ded
end ing
O W
de code
d le
ĠC ol
A s
( ['
s ort
Ġen coding
am l
Ġj ust
Ġpar ameter
it ch
g it
4 9
Ġd on
Ġlimit ations
ĠI t
Con text
D o
t otal
Ġi m
================ ================
Ġuti ls
di rectory
un ter
Ġp lugin
Ġa li
I mplemented
an not
eca use
ĠB ase
arg v
c ent
S C
w indow
en gine
n on
doc ument
" ],
T able
create d
) [
s ocket
Ġi p
ĠN o
Ġsys tem
c la
DateTime Field
com ment
Ġnode s
ĠUn less
valid ate
Ġcol lection
O n
c ul
id dle
an el
Ġdi r
Ġstr uct
op t
F rame
st orage
Pro perty
Ġset Up
S ize
qui res
S u
Ġmethod s
/ %
M M
sc a
Ġ ####
b it
WA RE
Ġc ustom
P AT
v or
s kip
viron ment
Ġli ke
g g
s ten
Ġm ark
http s
or ig
cre t
user s
D ec
] ['
P ER
ĠE n
wor ds
oc ument
A M
ĠI D
a it
Ġsha pe
sha red
ic s
stra int
PO ST
h er
c ry
Ġ" ,
Man y
Ġra w
= ['
Ġt a
z ip
"} ),
ĠCh eck
se ction
par t
po sition
ti m
rou gh
f fix
U B
nap shot
Ġla y
ok ie
( -
Ġin clu
Ġ1 00
ip el
al led
ON E
Ġp la
s q
ĠI MP
Ġv ar
re p
A PI
Ġ ):
ST R
fla gs
V E
cur ity
p u
EX T
Ġw ant
Ġc ho
Ġdi rect
Ġme ta
at tributes
ĠT ODO
le ted
k s
#! /
Ġ' ,
s ql
Ġb et
re quired
f d
w n
ok en
ten ant
di tions
F O
arning s
if t
) ;
u x
gra m
di m
ist ry
vi ous
Ġch annel
ist ory
s ue
ĠR es
Ġp attern
Ġd own
Test s
Ġe mail
S ER
Ġst op
Ġde vice
ĠĠĠĠĠĠĠĠĠĠĠĠĠĠĠĠĠĠĠĠĠĠĠĠĠĠĠĠĠĠĠĠ ĠĠ
bo ve
m ask
Re g
M ap
te x
4 5
R ec
ĠĠĠĠĠĠĠĠ ĠĠĠĠĊ
C ode
del ta
ce ived
ac count
Ġ --------
Ġl ong
ax is
+ )
D S
ste ad
P L
ir s
Z E
in clude
dis play
i ble
Ġre cord
al y
bo ard
al low
Ġd type
ab el
Ġg lobal
ĠT H
OD E
u red
ig ration
pro xy
ro le
cl asses
AA AA
po licy
Ġbo ol
ipel ine
In valid
and ard
2 1
T ask
de sc
ca st
Ġ queue
Form at
ĠSo ftware
A nd
d type
is sing
---------------------------------------------------------------- --------
] ]
emp late
7 9
Ġlo cation
Ġby tes
Ġthe y
S H
ke ep
emp ty
le ep
dir name
ĠD E
point s
st derr
L oc
ĠAr gs
Ġ ],
Ġapp lication
In ter
s ure
w idget
Ġb ecause
Ġ' <
_ ,
Ġ et
M ixin
es s
stant s
ĠP er
f etch
j s
Ġ' ',
7 6
pro perties
Ġoff set
W ith
load s
ĠNot Implemented
ĠS er
OF T
N D
( **
g l
Ġf il
Ġst yle
ĠO ption
re lease
w ard
Ġt ri
Ġm y
P R
attr s
ol ve
Ġname space
bo ol
Ġi mplement
l ong
he ther
s v
DI R
Ġw idth
contain er
ex tend
ĠDe fault
ut able
ren der
ed i
Ġx ml
assert False
AC K
Ġg raph
Ġt ree
ce back
pub lic
Ġthe m
ĠG ener
UT H
f fi
lay er
stra ct
Ġno ti
row s
sit ory
'] "}),
in itial
ĠN ame
Col umn
5 9
ex pr
Ġsup port
' ^
ste p
Ġs ure
ĠType Error
OFT WARE
wa it
Ġ" /
L ay
Ġde bug
lin en
l ing
en tity
G ener
ff ect
Ġmessage s
AB ILITY
( {'
we en
w s
" ])
j a
Ġs um
F la
s ted
app ing
L INE
ol ver
ĠL ist
in ation
Ġdis play
Ġa bove
AT A
F a
F ilter
ĠImport Error
he ight
P C
TI C
ĠP RO
F e
il y
Ġ select
S D
co der
Ġrequest s
p th
Text Field
r v
h i
Ġex ists
i mp
T O
ĠĠĠĠĠĠĠĠĠĠĠĠĠĠĠĠĠĠĠĠĠĠĠĠĠĠĠĠĠĠĠĠ ĠĠĠĠĠĠĠ
Ġuser name
Ġre po
ĠS OFTWARE
den tity
Ġin teger
mb ol
s l
ta ct
At tribute
s lug
Ġs pace
k nown
en coding
inst all
el lo
il tin
Ġ ti
################################ ################################
par ameters
so le
Ġs ave
message s
ver bose
ow er
selec ted
su ccess
Ġs orted
S ta
DE FAULT
comp onent
Ġ ge
n ormal
an y
ĠR un
R o
Ġt otal
M IT
re cord
ight s
Ġ1 6
Ġt mp
tra in
3 8
Ġn ull
Ġb lank
tifi cation
Ġabs olute
le m
es ca
ĠF I
Ġ1 2
wa y
d t
r f
h en
ter m
time stamp
7 4
= _
C P
an o
L Y
'] [
t G
ot o
gn ore
S Y
ra tions
own er
in valid
ĠH T
Ġfor ms
Ġre verse
g ress
Ġm on
Ġc lean
ra ises
column s
Ca che
ini tion
t ml
ser ies
ct x
PAT H
Ġin stead
li ke
EN D
v ariable
ĠTH IS
Ġw indow
s ample
E d
FI LE
V alid
c le
iddle ware
ĠAt tribute
Ġcomp onent
Ġz ip
Ġcontain ing
Ġcl uster
wa ys
= {'
Ġpos sible
o ok
ĠHT ML
ĠĠĠĠĠĠĠĠĠĠĠĠĠĠĠĠĠĠĠĠĠĠĠĠĠĠĠĠĠĠĠĠ ĠĠĠĠ
y p
Ġs rc
l anguage
i b
w in
ge d
Ġsu ccess
se e
Ġ edit
Ġpo sition
re st
W indow
Ġs ix
E nd
dential s
ate gory
0 8
fer red
. '
Ġs ql
pp ing
g ate
Pro tocol
Ġ" .
Ġ} )
0000 0000
d ot
ag ent
Ġf l
Ġp k
Ġad ded
In put
Ġcon ditions
c lear
ST AT
Ġwe b
I B
w ner
Ġthe se
cur sor
Ġch unk
names pace
6 9
c ies
Ġinter face
Ġfla g
Ġdef ined
Ġdoes n
ume rate
Ġw idget
Ġde tails
Ġse ction
mo st
lo op
view s
Ġ" \
linen o
ĠI P
A ll
ou ble
ri c
ser v
he ad
el se
Co unt
i mple
Add ress
Ġn ormal
in di
Ġ Z
Ad min
c ro
g round
e val
w ri
vo id
ti cal
Ġcolumn s
L ine
Ġre mote
ent ries
s pa
col lection
ĠNotImplemented Error
Ġ ON
A GE
nt ry
c fg
tem s
[: ,
Ġf oo
ĠS e
T ra
tra ck
M o
ith ub
5 4
Log ger
Ġax is
che me
re al
al og
c ip
ĠF ile
E E
fe rent
tiv ity
a f
comp ute
ker nel
Ġchar ac
T ag
clo ud
__ ':
C K
c ap
tic le
m aster
nt ax
St atus
o se
Ġv olume
O ne
c r
Ġst a
---- ---
es sion
ĠN ote
ch unk
t k
I nt
Ġstring s
ĠĠĠĠĠĠĠĠĠĠĠĠĠĠĠĠĠĠĠĠĠĠĠĠĠĠĠĠĠĠĠĠ ĠĠĠĠĠ
Ġcor rect
c d
c at
E M
r and
f older
si mple
R ES
') ),
exception s
G I
b atch
(' \
G IN
assert Is
n u
li ght
() [
Ġun ique
F L
Ġcon f
m ulti
ĠA pp
Ġcontain er
s cope
D ER
D own
image s
Ġs kip
c b
un it
p id
Ġp atch
var s
Ġass oci
g f
C S
Pro cess
dis k
pro tocol
re l
4 2
N O
(' -
Ġre lative
ra g
un ded
Ġgener ate
ti fy
v s
Ġorig inal
. *
Ġfunction s
Ġen umerate
Ġbet ween
or ies
Ġact ual
F unction
Ġp h
m k
t d
Ġfa ke
reg ion
m atrix
r l
ish ed
Ġen tity
Ġse cond
if f
men sion
Ġc tx
bo und
action s
or ter
Ġpath s
Call back
Ġfla gs
ue ue
Ġab out
Ġsi mple
sume r
'] ",
Ġm od
Ġta gs
ĠIn c
Ġle ft
(' %
mo ved
ant s
W OR
> <
Ġnoti ce
id den
ĠCo mp
S A
O f
Ġcon trol
res p
Po int
Ġpro tocol
F ound
ĠĠĠĠĠĠĠĠĠĠĠĠĠĠĠĠĠĠĠĠĠĠĠĠĠĠĠĠĠĠĠĠ ĠĠĠĠĠĠ
ten ded
US ER
M odule
er o
ation al
p b
xt ure
Ġbe ing
O ST
Ġdif ferent
e q
on ce
i ent
RO M
Ġbin ary
) '
t t
g ger
Ġfa iled
dump s
Ġs ort
ĠPar ameters
Ġopt s
Ġc er
re mote
C C
$ ',
__ __
Ġac count
Ġg ra
Ġm ultiple
event s
si ve
con vert
Ġre place
) "
me d
s heet
gor ith
li ter
Ġback end
Me thod
W e
I M
st at
v is
se c
Ġattr s
si ty
im g
Ġc y
Ġlo ok
B e
Ġw ho
c m
4 0
- %
re ction
or ity
bu f
6 0
Ġh tml
se q
OR S
Ġcur sor
Ġinst all
6 7
se cret
b b
L en
fil ters
Ġe q
c ated
P S
Ġfin ally
// //
du ce
label s
esca pe
' \
s ome
Ġx range
IN T
re set
Return s
tG ui
Ġ </
Ġo ur
D R
T oken
ĠI F
u ff
S ec
Col or
pro vider
Ġ[ (
a u
w er
: '
lic it
Ġgener ated
st d
ho ok
P ORT
Ġs tep
Ġ- >
sh ort
S pec
Con tain
c ard
Ġ2 0
I f
a th
data base
Ġad min
Ġurl lib
ist ribu
or k
. ',
ĠKey Error
Ġexp ression
P T
Ġoper ation
Ġth rough
di fy
r type
ri tems
sca le
) ",
ali as
c ing
ĠA s
6 5
e ve
ver age
sign ed
Ġw x
3 1
Up date
} '.
Ġp ick
ĠCon stant
CL UD
ord in
Ġm atrix
res ses
log ging
O per
Ġcontain s
m ar
g y
assi fi
Ġw hether
ĠA uth
app s
C l
(" %
ig rations
Ġg en
Ġf ix
Ġst ack
Ġuser s
ol ution
Value Error
n a
AT ED
path s
) ])
Ġ late
si g
en abled
Ġ RE
ra ise
sa fe
ĠO THER
Ġcom ment
ĉĉ Ċ
P AR
d r
. \
Ġs chema
Ġfor ce
Ġsub process
li p
IN TER
Ġs alt
und le
11 11
resource s
ĠA d
T EST
Ch ange
feren ces
u ally
Ġrun ning
Ġi gnore
Ġid x
me an
Ġ license
ro ute
BU G
ĠL OG
CLUD ING
J E
AS S
8 3
Ġs m
D O
pro duct
change d
( ('
ĠH ttp
sy m
Ġ-------- --
Ġcopy right
sp ect
s core
u int
g t
S ystem
Ġ' {
Ġse quence
P ort
Ġst dout
f p
h s
X ML
di v
L L
() ))
Out put
r pc
y ear
ak es
> '
Ġb ar
Ġsup ported
} .
Ġme mber
entic ation
Ġre ference
g reg
STAT US
Ġpar sed
Ġ[ ])
VAL UE
Ġbase d
bu cket
re port
con nec
Ġst ore
me di
Ch ild
Ġexist ing
Ġf n
P age
Ġ keep
en ter
> \
g ithub
Ġright s
Ġ( (
AN T
re r
W S
ĠCON TR
Ġbe gin
T ree
data set
Ġe very
Re ad
s leep
ee ded
to ol
SI ZE
TI ME
Ġcontent s
Ġsta tic
P Y
w arning
ten sor
penden cies
tifi cate
S L
ĠO pen
Ġdefault s
Ġcl asses
content s
t ty
LO G
St art
Ġclo se
Ġvariable s
D F
s lice
p ol
`` .
ch ine
fi t
n i
Ġre lated
gener ate
mo unt
ĠO r
S QL
Ġs ince
U I
Ġvalid ate
Ġin it
for ce
Ġpro file
b ad
Ġre direct
Ġcon vert
chedule r
ĠR ed
") .
Ġ' #
Ġ join
h elper
ik i
jo bs
() ),
5 7
Ġpro perties
p ing
B O
Str uct
Ġexp ect
g ments
G R
ma tic
Ġwh at
ta b
Ġw ait
P lugin
h y
inter face
ti tem
doc s
in es
con troller
p tr
f ont
g lobal
Ġn et
De fault
ut ron
u ter
Ġinstance s
VER SION
lo okup
res pon
p g
ĠJ SON
O pen
B ack
S ource
ti tion
yn am
Ġap pro
ĠM ock
Ġe val
g rid
g b
Ġsu bject
se conds
cer t
pro to
Ġre al
package s
Ġag ain
Ġdata set
SE T
Ġh ow
ĠCol umn
Ġs ite
C RE
MA X
Ar ray
Ġpla ce
V I
ĠCon fig
C ur
par ts
C I
__ .
default s
return s
' re
C lo
L abel
Ser ial
Ġpri mary
f ree
ance l
t z
Ġme rge
re verse
Ġset ting
co ls
man age
es ted
ĠAttribute Error
V er
AN D
Ġm ulti
Ġassoci ated
bo ot
\ '
a e
v ing
de o
Bo x
Ġv ari
Option s
IT E
test ing
Ġtime stamp
lo ader
.. ..
vel op
um b
Ġ ,
ss l
Ġs ample
en ch
ab c
Ġst ri
Ġc op
Ġst ats
c ustom
fe atures
ĠT O
u ch
an ization
4 7
ase s
Ġthe ir
) *
Ġ_ ('
cate gory
v ari
ho me
zer os
ra m
op s
Ġre tri
h ex
Ġevent s
b asic
cor ds
---- -
Ġin valid
fs m
se curity
che my
D ir
Ġre port
ĠV alid
12 34
ĠL o
ss h
Ġ edge
o red
me r
S M
Ġsu ch
Ġrow s
4 6
Ġbu ffer
Ġc fg
Ġpo ol
9 5
(' --
ign ore
Ġre p
ĠP o
AC E
gorith m
Ġlo ck
ĠO n
L S
r b
_ .
u de
ĠU se
M OD
p latform
ces sed
Ġuti l
Ġ kw
Ġpre vious
Ġtw isted
Ġbo th
ite ritems
pub lish
pro p
Ġ" __
th is
ur al
G HT
static method
Ġw arnings
u ted
no red
indi ces
d at
ĠE V
Ġcomp ute
f alse
Ġco uld
Ar gument
ĠU SE
Ġname d
ma th
Ġallow ed
ĠF ROM
Ġ ###
Ġre ason
Ġw ould
_ )
abs path
ĠĠĠĠĠĠĠĠĠĠĠĠĠĠĠĠĠĠĠĠĠĠĠĠĠĠĠĠĠĠĠĠ ĠĠĠĠĠĠĠĠ
t ten
Ġse conds
Ġpart s
sh ould
ĠE ND
ĠI mage
` ,
con trol
ur ing
re direct
ut or
Ġsp lit
ver ify
U RE
un ch
d ar
Ġb atch
O UT
ter ms
Ġchange s
Ġkey word
war n
mo dified
ge ther
mon th
99 99
li te
ĠT o
i re
Ġf alse
ĠG a
sup er
re ference
or iz
Ġspec ify
Fa iled
di ent
Ġlib rary
Ġpro duct
fla g
St ream
u tes
P h
******** ********
9 6
>> >
Ġreg ion
n one
i ver
Ġ1 5
Ġhe ight
B utton
us age
Ġb ound
c ss
ser ve
lect or
Ġh and
li ties
Ex ec
__ ()
vi rt
Ġcon ver
O B
ĠĠĠĠĠĠĠĠĠĠĠĠĠĠĠĠĠĠĠĠĠĠĠĠĠĠĠĠĠĠĠĠ ĠĠĠĠĠĠĠĠĠĠĠ
( %
M D
Ġd t
Ġcomm on
table s
ĠT h
p x
to re
Ġ' ')
Ġ_ ("
H ER
Po sitive
S y
c imal
ct or
Ġelement s
service s
Py thon
li m
/ ',
ĠFI LE
Ġm issing
po se
Ġex it
Ġtra ck
7 8
UL L
ad ded
T A
link s
Ġcon nec
LE CT
Ġpro b
Ġpre sent
Ġcal lable
E ntry
AC T
quest ion
Ġh igh
Ġexception s
ap t
Ġse nt
Ġst orage
serial ize
Ġm apping
4 8
de ploy
N etwork
b utton
ĠRe quest
inter val
, )
C A
Ġfe ature
c u
TI CE
Ġother wise
s k
Ġfil ters
' "
s alt
f mt
local host
cs v
get Logger
row ser
sg i
assert In
v t
re gex
le g
Ġme tri
de tail
ch ain
pa re
Ġman ager
liter als
as ure
M IN
peri ment
k es
Ġk ind
/ '
ĠO S
ar ge
str u
li sten
s d
Ġw ay
a z
me dia
time Error
M y
T EXT
Bu ild
f name
RE CT
ifi c
fl ush
N ew
ifi ed
ĠĠĠĠĠĠĠĠĠĠĠĠĠĠĠĠĠĠĠĠĠĠĠĠĠĠĠĠĠĠĠĠ ĠĠĠĠĠĠĠĠĠ
Ġd river
R el
end s
Ġdis k
ti st
Ġd f
ĠG o
a fter
ad o
Ġ1 1
Ġen code
Ġen vironment
i de
Ġsign al
pri vate
pre cated
ĠT ime
Ġre served
') (
Ġde sc
ti ties
Ġcan not
in dent
N OT
ome try
`` ,
Ġupdate d
O M
ĠD jango
am ily
Ġco re
ed s
L ink
e m
penden cy
ha vi
S ession
en ce
ĠS ub
plugin s
ma pping
G raph
g z
fa ces
A MA
Ġre pr
V ar
que sted
pa yload
EN ER
war ds
Ġde cor
ation Error
Ġ" -
Ġcon st
Ġb ind
) ',
ĠN ode
25 6
RI GHT
me mory
ĠNO TICE
Ġwith in
ro y
resh old
Ġver ify
Ġlabel s
Ġm ask
Ġ" --
U SE
RE AD
we ight
w here
la b
Ġpro xy
Ġu uid
Ġan other
selec tion
comple te
Ġlo op
N E
+ +
ĠM eta
Ġf p
time s
ĠA l
T emplate
Ġtra in
: \
ynam ic
Ġthe ano
RE QU
Ġro le
k ind
gra mm
Ġ uri
e g
W I
Ġd one
pi ck
Ġpoint s
ĠW hen
Ġex t
O bj
Ġal ways
u g
re quire
UM ENT
s ock
Pro ject
E V
Ġpa yload
Ġb el
M ENT
ce ll
lo aded
task s
ach ed
p lan
sign al
J o
Ġp lot
Ġconn ect
ha pe
ĠA R
ĠM y
Ġu sage
Ġpub lic
w x
ĠLI MIT
men u
P UT
di o
Ġdef er
Ġper son
me m
S o
host name
rule s
Ġcomple te
9 7
Ex p
Ġwor d
O p
F R
update d
in f
mit ted
o auth
4 04
V IC
ĠU p
LI ED
n umpy
b ranch
j ec
IN FO
FOR M
Ġcomm it
Ġreg ister
se cond
Ġin dent
Q ueue
pen dent
Ġc types
Ġ{} )
Len gth
ap ter
Ġcommand s
ex pi
F T
instance s
Ġs cope
up per
H ost
Ġbu f
} }
Th read
Ġse par
12 8
Ġpub lish
and id
ma c
Ġre st
ar ted
struct or
ĠR a
up load
lob als
Ġs im
qu ote
ĠD AMA
Ġdif f
ĠM odel
Not Found
Ġsh ort
cho ices
il t
U ID
ĠD o
up lic
s amples
Re f
M et
trans form
, '
c f
Con trol
sub net
ĠString IO
P ack
ro ve
Ġs ig
ist ration
Ġp latform
at tach
OP Y
Ġp lt
ĠD i
"] ["
Ġmodule s
ro t
h istory
b ed
end swith
rou ter
0000 00
if est
ar ies
Ġal pha
server s
A g
ĠCo mmand
F ail
is c
Ġvi a
ĠC OPY
() ]
################################################################ ########
Ġex pr
val s
pa ir
scri be
in s
ct ype
lay out
C om
s ync
Ġlo okup
ĠM ake
Ġexec ute
Ġc li
Ġun it
P RE
. %
( \
p ending
Ġtoken s
p ted
Ġ ])
ction s
A b
A UTH
input s
a vailable
Ġc lear
B lock
__ .__
Ġ ##
Ġmatch es
dis patch
no te
late x
cen ter
page s
zer o
Ġ"" ,
Ġdis able
trans port
P ri
ĠIMP LIED
Ġf actory
9 8
7 0
me rge
Ġtest ing
ro ss
Ġ# :
v id
Ġimplement ation
Se arch
Ġp i
su bject
l on
ĠEx ample
M ode
or ds
DE BUG
G e
Ġp op
n n
ĠB UT
se ed
mp t
Ġpage s
Ġ% }
cul ate
CO L
'] ),
ĠQ tGui
Ġ( %
ang ible
Ġim g
Ġma th
d c
OC UMENT
fi ll
Ġ selected
V ID
Ġ' *
ĠP AR
ĠB y
Ġcomp ile
po ch
s phinx
:` .
" ].
i od
ĠD ocument
ĠL anguage
by te
D ATA
H ttp
end point
F C
Ġre quire
G B
ĠI O
Ġf ont
A I
Bu ffer
v as
pa ces
LE ASE
ĠD ec
u ce
ex clude
V ariable
Ġst derr
ix el
p ng
} ".
de cor
s n
Q t
Ġpo licy
Ġfol der
al le
OR Y
Ġn eeded
Ġcal ls
JE CT
ĠLIMIT ED
S p
t od
Ġcor respon
cri ption
Ġf inal
Lo ad
extension s
j ust
Ġf ree
Ġc ategory
ag ic
(" /
Ġo c
Ġuse s
Ġi g
Ġr v
mis sing
Ġinclu ded
Ġimage s
Ġs lice
Ġtrans action
Ġ ))
ĠĠ Ċ
sing le
Ġcollection s
fe ature
m at
4 3
order ing
top ic
Ġchange d
, ))
al k
ust ome
reg istry
~~~~ ~~~~
Ġg it
li me
[: -
r p
] *
Ġhttp s
con st
Ġo prot
Ġis sue
down load
L EN
ĠGa ffer
ĠIn dex
Ġm igrations
ĠS h
Ġ mp
Ġper form
command s
Ġa ut
Ġc ell
ce l
Le vel
element s
W rap
state s
Ġapp ly
Ġchild ren
OW N
ar n
is tered
Ġto ol
me th
> </
7 2
Ġwrap per
ĠB u
er ies
T op
Ġme an
Ġgroup s
per m
Ġlink s
ul ate
tra ce
Ġneed s
T e
S O
base name
Ġ" <
Ġac tive
or n
L A
12 3
ĠM e
6 8
De lete
Ġstate ment
argument s
su ite
d one
option al
Ġst andard
ic ro
AN G
metri c
add ing
9 0
To Many
MPL ES
ĠA UT
Ġ- =
script or
ex ist
Ġg l
ca ched
i ed
() ):
ĠBE GIN
Ġde termin
N UM
Ġb ranch
get text
pk g
Ġo wner
z z
Ġt r
Ġend point
D ocument
ĠS QL
ĠG roup
pro c
Ġsha red
bu ilder
host s
Ġre moved
Ġre lease
ĠĠĠĠĠĠĠĠĠĠĠĠĠĠĠĠĠĠĠĠĠĠĠĠĠĠĠĠĠĠĠĠ ĠĠĠĠĠĠĠĠĠĠ
re lation
Ġbu cket
ĠS H
Ġ3 0
an ti
ser tion
': '
Type Error
go ogle
su ffix
Ġset attr
dir s
r m
Ġthe me
ex port
SS L
i a
ĠD B
i dentifier
Ġad ditional
h older
IB UT
is sue
si x
M T
permission s
ty le
g a
il s
J ob
C R
ĠT ext
Ġi tera
Ġbu ilder
ut ing
) /
- >
f c
se p
de leted
cli ck
C ore
co unter
'] ))
Ġin v
be fore
Ġb it
s napshot
ĠLI ABILITY
R en
al pha
A MPLES
Ġ3 2
> ',
u ses
cal ls
p ush
template s
ĠL og
Ġme nu
def ined
Sta ck
P ass
la ck
the me
h n
ma g
gramm ing
tiv es
Per mission
R ange
ĠQ u
Ġdistribu tion
Ġw in
Un less
Ġas sign
M atch
AR Y
Lay out
Ġlo gin
T arget
ĠD OCUMENT
sc al
ĠS EE
HO ST
d n
Ġlay er
5 8
ĠD ONE
al chemy
C TION
ĠM AY
fe ed
w iki
Ġre quires
Ġm aster
5 3
c ity
ENER ATED
set default
vm ware
_ %
st f
FI X
Ġi prot
token s
b al
Ġtra ceback
y aml
A ME
g py
Pro xy
B ar
W R
S P
Positive IntegerField
cre en
App lication
A F
Ġoper ator
ĠEX AMPLES
ustome r
request s
Ġre set
Ġsi de
Ġe qual
Ġmo dify
ro ll
Ġg ot
Ġat trib
Ġ[ [
Ġsu ffix
Ġsw gpy
h ello
Ġb ad
)) .
re quires
is instance
config uration
ĠRed istribu
Ġdi mension
fix ed
Ġp ut
12 7
Ġby te
ĠW indow
q s
se quence
ĠL OST
ĠP LEASE
Ġup load
Ġspec ial
ĠDOCUMENT ATION
mo x
Ġ Error
. )
ĠM o
ĠON LINE
pe ed
mb ed
M ax
He ader
OG ENERATED
Ġm ost
ĠAUT OGENERATED
LE TE
ble m
RO PER
ci i
stf Name
Ġe ven
": "
ĠIMP ROPER
Par am
agic Mock
ĠIMPROPER LY
cre ment
ĠS T
handler s
Ġex pi
Ġman y
ti o
G ES
one s
app en
app ly
ĠD is
ci sion
or ary
S ign
un ct
S tore
F loat
Ġprovi der
ron g
Ġin ternal
FI G
9 2
Ġfl ask
Ġsh ell
Ġcho ices
= \"
Ġ //
v p
ToMany Field
Ġun til
Ġac cept
re vision
d rop
G N
Ġet c
sp an
ĠRun timeError
Ġraise d
ĠHttp Response
Ġp e
W arning
fi xture
i er
Ġ201 4
Ġi dentifier
si d
7 3
A x
xt ra
Ġat temp
f tp
ex ternal
] +
da ys
ong o
03 5
Ġpackage s
Serial izer
Ġre ceived
Ġb ot
Ġs cale
Ġsu ite
e ffect
MA P
c v
ue st
is ten
ab i
St orage
Ġli sten
Ġm at
ut c
i dentity
Fla g
res sed
AR T
tw o
] ])
en u
C re
edi rect
ĠGo ogle
Ġhe ad
ar Down
Ġv m
sh ell
to gether
Ġse n
z en
Y ou
Ġme mory
ĠĠĠĠĠĠĠĠĠĠĠĠĠĠĠĠĠĠĠĠĠĠĠĠĠĠĠĠĠĠĠĠ ĠĠĠĠĠĠĠĠĠĠĠĠ
M in
Ġno te
n b
pattern s
Ġ{} ,
get attr
di cate
Ġpro gram
sum mary
ume ric
ou gh
la p
cho ice
Ġali as
de pth
e ff
f lat
9 4
ĠT ra
run ning
L D
ces ses
sup port
cp u
N R
n an
De f
an e
Ġinst alled
W ri
Ġar ch
vi sit
Ġwe re
STR ING
G S
n orm
it ter
component s
Ġoper ations
n ess
Ġno va
(' .
method s
Ġbut ton
Ġ201 5
re ce
ĠO UT
Ġig nored
co s
Ġde leted
l b
re quen
fail ure
ti le
ar m
OL DER
Ġto o
di gest
Ġinput s
Ġen sure
Par se
ĠS ystem
] ):
mp y
Ġpy test
Ġinclu ding
LE D
ot a
:` ~
De vice
Ġle t
N ESS
C annot
h q
on y
Ġthread ing
sw itch
) (
Ġcon stants
ĠF IT
Ġover ride
M O
Ġ entries
gener ator
M ulti
Ġtuple s
Ġtemp file
Ġdown load
Ġtime s
p ower
ĠF orm
te ration
Ġon ce
SY S
Ġre n
__ ":
unk nown
, -
ang le
m q
L i
Many ToManyField
FL AG
tern et
Ġde ploy
work er
ĠCOPY RIGHT
ĠIn valid
1 000
in teger
ar s
1 01
ac tiv
Ġi o
Ġre ce
in line
Ġauto matic
re ason
UL AR
un ic
" '
ĠF ield
5 2
Pro gramming
B ad
er nel
8 2
Ġ" {
ER CH
Ġpk g
Comp onent
Ġgo ogle
ch ron
ERCH ANT
o pe
ffi ci
ro id
ĠL ICENSE
fo und
Ġsh util
Ġre actor
Ġre lation
Ġ ?
D ATE
Ġz ero
lo ts
Ġst ored
en able
co okie
HER E
S U
Ġs q
la zy
d st
Ex ist
(" \
Ġdocument s
Ġex clude
Ġf etch
Ġf i
Ġre l
De ferred
, ),
. ",
Ġ --------------------------------
Ġme ans
Ġoc cur
PO SE
s cheme
l int
1 99
Ġquery set
) ],
i tes
al th
Ġst at
Ġb oolean
} /
xt ures
WOR D
RO OT
lib rary
ee k
ro ad
b g
isc si
Lay er
ĠX ML
Ġf ig
Ġco mb
Ġd at
is on
run ner
Ġd st
Ġc p
co res
S chema
m u
ĠM ERCHANT
ock er
ar r
f time
d l
cess ary
I R
SE LECT
ĠC lient
Ġth ose
v l
de tails
de pendent
k a
V M
PR ESS
Ġ1 4
CON F
ul lable
st one
wrap per
---- --
6 3
per ly
g i
Ġcase s
am o
g pu
Ġse q
ate ri
Ġen able
Ġapp end
name d
Ac count
w sgi
red uce
Se lect
Ġfail ure
=' ',
Ġt ake
== =
ING S
Ġcharac ters
dist ribu
Ġ -------
an k
Ġ1 3
ĠT rans
work flow
p to
D oc
r n
N C
ĠE vent
Ġo wn
ac y
B E
ĠB SD
ĠN umber
ac cept
te am
Ġt ab
Ġ[ ('
ĠS pec
ip s
target s
in ary
u ation
wri ter
B R
c tive
in ternal
con stants
d raw
st ub
ĠV er
d ns
Ġview s
par ameter
ĠP UR
as sign
re v
B ASE
b lob
ĠO bject
Ġdata store
e f
ĠRe g
s orted
J SON
Ġsup p
Ġf low
Ġdirect ly
ec ho
ati ble
re ader
cor rect
Ar gs
Ġwri tten
velop ment
sis tent
Ġvi sit
i con
ut down
fla vor
l ang
l n
l ue
) \
p oly
o id
mo ves
ff ff
C F
ĠFIT NESS
ĠĠĠĠĠĠĠĠĠĠĠĠĠĠĠĠ Ċ
Ġde ri
ĠPUR POSE
de lay
h igh
Ġst ill
as cii
Ġen viron
TIC ULAR
ĠĠĠĠĠĠĠĠĠĠĠĠĠĠĠĠĠĠĠĠĠĠĠĠĠĠĠĠĠĠĠĠ ĠĠĠĠĠĠĠĠĠĠĠĠĠ
assert Not
change s
bl ue
Po licy
ĠPAR TICULAR
r up
pri ate
p anel
A X
set Up
' d
HE AD
Set tings
Ġgener ator
ĠUp date
( """
Ġre gex
exp and
H andle
Ġcurrent ly
de rer
ol low
ĠĠĠĠĠĠĠĠĠĠĠĠĠĠĠĠĠĠĠĠĠĠĠĠĠĠĠĠĠĠĠĠ ĠĠĠĠĠĠĠĠĠĠĠĠĠĠĠ
Ġde code
ĠA S
Pro file
Ġ1 000
M B
Ġlo c
ĠN e
E G
Par ameter
com ments
greg ate
s chedule
Ġmo difi
con sole
Co mm
us ing
CON T
peri od
g u
S tyle
di g
def er
Ġcop ies
le nt
g ative
ma chine
de p
Ġfe atures
w b
ĠS phinx
Ġch ain
sign ature
Ġw ell
h our
Ġindi ces
Wrap per
Ġsub class
D IS
Do es
ou ter
Ġmax imum
Ġman age
Po ol
E mail
Ġbe havi
bu iltin
T S
Ġd uring
ĠS imple
LO W
version s
ler t
ok ies
f inal
Ġ sel
= -
on d
Con troller
Ġrule s
Loc ation
201 5
Ġstruct ure
Ġlay out
Ġ_ ,
Ġst d
N e
P H
Ġin sert
ĠT emplate
m c
Ġmatch ing
EN TI
Ġadd r
Ġwork s
C an
d ouble
Re ference
Ġag ent
exp ression
') ]
py test
gor ies
co ver
Ġresource s
Ġfe ed
trans action
be gin
Ġn s
Ġf d
contain s
Fail ure
CON FIG
Ġdest ination
r r
lex ible
orig inal
Ġre quested
extra ct
P ost
c ut
medi ate
Ġdi vision
ub e
Ġh elper
S V
ench mark
no va
ba z
ĠEV ENT
ĠMERCHANT ABILITY
Ġ terms
Ġnumber s
ffici ent
Ġex ternal
Ġsuccess ful
te ct
bo o
ĠO ther
st rap
d ash
Ġm d
Ġextension s
Rec ord
q a
ge titem
Ġappro priate
Ġprovi de
Ġpick le
G ER
r al
w atch
Ġ6 0
Ġp ixel
not ation
ro zen
Ġde p
p ipeline
d x
B L
Ġset s
si z
at om
for med
M I
ĠH e
Ġ ------------------------------------------------------------------------
fi gs
ar ison
v g
il ar
Ġ< <
si red
Ġle ast
ri ft
Ġcon trib
Ġ[ -
string s
Ġre cur
Type s
LO CK
sq rt
Ġse curity
Ġversion s
B Y
9 3
environ ment
Ġv ector
ip v
A ccess
yn chron
Ġk now
6 2
in v
Ġrepo sitory
_ ):
Ġtrans form
F S
fir m
ĠL oc
N ING
ar ds
Ġbel ow
r ing
ul k
Ġe st
Ġbe st
d ummy
ĠE lement
Ġsy m
C al
R edirect
) ')
Inter face
Ġen abled
[: ]
Ġ201 3
sub process
Ġpro p
O ff
sub scription
REQU EST
c ce
Ġb asic
Ġ3 00
t b
Ġm ight
oper ator
Ġsign ature
Col lection
Ġq s
ĠDAMA GES
ĠTest Case
trans lation
PI PE
Ġin te
Ġsy mpy
" /
Ġtemplate s
W ork
igh b
K N
ra ft
sc en
Ġcre dentials
Ġp ipeline
pe at
fa iled
S imple
Ġd a
set ting
VID ED
cry pt
P anel
Ġd raw
cen e
ref resh
ra ys
a va
Ġrepresent ing
la tions
Y Y
le v
Ġf name
al most
et c
Ġadd resses
f ra
Ġcharac ter
Ġaction s
Ġp d
Ġy et
OR E
Ġinter val
fact or
u ate
wh en
oper ation
C D
A li
} ',
Ġtask s
+ '
ĠWindow s
Ġ termin
con tact
Ġbu iltin
Ġop tim
Met adata
ĠIN CLUDING
di us
aly sis
, \
fore ign
Ġen gine
Ġdel ta
CO MM
Ġextra ct
Ġt s
M iddleware
VAL ID
con dition
over ride
Ġo k
Ġex act
Auth or
Ġd id
5 1
S R
Ġf it
Ġbo x
Ġ1 02
ĠH OLDER
p ad
: "
Ġ5 0
t n
C B
e v
ri ve
o ols
5 00
is o
ĠP re
Ġat tach
Ġraise s
Ġcorrespon ding
config ure
clo sed
play er
ri ca
Ġass ume
Ġ' )
f req
201 4
e lem
backend s
len dar
Ġcon straint
du cer
Ġrepresent ation
con sumer
ol l
Ex it
ge s
# ------------------------------------------------------------------------
u a
ĠPRO VIDED
re try
lo cale
ĠAuth or
Ġlo wer
mb ols
Ġtable s
{ {
} '
IS ING
andid ate
comple x
Ġs k
ys ql
cla ime
A V
ĠOption s
on s
Ġpattern s
ĠC lo
ĠX XX
ĠIO Error
> "
ĠD ate
Ġdef inition
ĠF ake
S cript
Ġh ook
Ġautomatic ally
On ly
S up
Ġuse ful
H ash
d p
uplic ate
Pass word
DI RECT
Bu ilder
Contain er
/ $',
Ġexp licit
Des cription
8 1
a ce
ĠSH ALL
ĠW HE
lear n
* .
ĠB o
w o
Ġpri vate
M igration
in ja
R ule
Ġpre v
vo ke
ĠAR ISING
i i
co st
Ġap pe
n x
metri cal
ub lic
Name s
Ġne cessary
d uration
ĠDE FAULT
d h
Ġde pendencies
R ow
Des c
Ġlist s
si m
ĠLI ABLE
Lo ader
amo unt
Ex tension
Ġf lat
Does Not
b reak
F lexible
Ġ series
Ġp lan
state ment
: ])
Ġin spect
Ġs ock
ad ing
A W
String IO
cor ding
gra de
Ġco okie
ĠWHE THER
Ġfix ed
Ġc ached
connec ted
ĠM essage
metri cs
ĠĠĠĠĠĠĠĠĠĠĠĠĠĠĠĠĠĠĠĠĠĠĠĠĠĠĠĠĠĠĠĠ ĠĠĠĠĠĠĠĠĠĠĠĠĠĠ
Config uration
M enu
al ign
exp ect
Ġbu ilt
Ġ ).
I E
Ġro uter
vel y
ĠCONTR ACT
i ted
: -
FORM AT
Ġs cal
her it
Ġwork er
ro les
m iddleware
ut ors
Ġpre tty
Ġs core
ou se
Ġitera ble
Ġf actor
Ġlate r
Flexible ForeignKey
Ġout file
4 1
d m
ĠA UTH
ĠC om
Ġsome thing
member s
ĠCon tent
Ġa mount
HT ML
v c
si tions
iz ers
ĠRes ponse
Ġu s
v ector
ten ce
con straint
AT TR
h ref
Ġcon troller
Ġ lineno
query set
ul ation
ifi cation
Ġf ill
main ing
add Callback
b ig
{ %
Ġte arDown
e ver
_ :
c wd
b its
per son
g re
pla in
= ""
(' _
Ġco ordin
di c
ĠSer ver
si an
output s
r u
L isten
re lative
ma k
D D
WI SE
dered Dict
allow ed
ĠQ t
File s
Ġpar tic
Me mber
ĠEX PRESS
([ "
I Z
process or
vis or
Ġsa fe
ĠPer mission
v ance
map per
Ġ" _
t f
Ġ term
Ġc la
Ġp r
Ġal gorithm
requen cy
di stance
ĠO ut
x C
.. /
Ġen um
Ġre stri
sup ported
ĠThe re
k it
DoesNot Exist
ir d
ix ed
sc an
F oo
Ġ4 2
abs olute
g c
C ho
Or der
SER VER
Ġcy box
count s
up s
Ġg rid
ĠR ec
ial og
t l
auth entic
' %
Ġa void
d y
Ġi ds
Ġt akes
li ct
C M
P ES
Ġd ay
Ġact ually
Ġwor ld
so ft
//// ////
Ġsource s
Bo unded
am ma
ing er
repo sitory
tod ay
Ġdef ine
i ti
valid ation
re view
h d
Ġt b
([ [
] +)
Ġtop ic
s rv
ar a
____ ____
Ġme dia
__ ['
Ġ2 4
bo unded
all back
log y
To ol
Ġman ual
Ġs pa
Ġb its
road cast
ir c
CO MP
ĠIn itial
Ġsy mbol
dig its
se nder
ĠOTHER WISE
S m
rec v
ti t
if orm
pro gress
y per
li es
G o
ĠT ORT
m as
g ame
Ġis n
FI L
e k
claime r
s in
UN D
oriz ont
Ġmon th
b c
D river
tr an
Ġl on
Ġdecor ator
script s
Su ite
S w
Ġn ullable
Ġro und
serv ation
7 1
c id
VIC E
: ',
ĠQu ery
ari o
Ġp l
t c
ep copy
Ġy ear
Ġt ran
assifi er
edge s
function s
19 2
Ġprovi des
W rite
in der
Ġwor ds
mon itor
network s
Ġs lug
(' <
ul a
Dec imal
ĠRes ource
ĠA c
source s
gener ic
orn ado
ut ation
ĠThe se
Ġmo ve
4 00
Ġ" (('
spec ific
it le
se gment
B ig
Ġvalid ation
B B
U rl
Ġlo aded
6 1
N ET
$ {
Ġa st
') [
ĠV i
" })
Ġz one
Ġpy lint
Ġdis claimer
Ġse gment
B ACK
Ġlo w
url lib
sc reen
Un known
ĠOn ly
N N
Ġb oto
'), )",
sym metrical
b eta
ati bility
ti ck
IN CLUDING
n ail
Ġf uture
fail Unless
O ver
y e
ĠRedistribu tions
Ġper iod
LI ST
IBUT ORS
', ),
w k
Ġh ref
Ġd rop
man y
Ġcall ing
Ġc at
un pack
re a
Ġre view
process ing
um an
Ġp id
F ont
Ġmeta var
ĠD ummy
x s
h and
RE D
Value s
Ġde precated
one Number
A pi
DE LETE
x el
Ġ 64
(' __
Ġpro to
Ġbase string
Ġ1 17
Ġm ime
Ġedit or
Co uld
L ock
Ġmetri c
P P
LO C
Ġagain st
res olver
j or
il ing
iz es
tra ct
Ġmo dified
ĠRe ad
Ġpa irs
K S
Ġoutput s
Ġallow s
ly ph
vi sible
pri ce
L a
Ġd ump
ĠM an
Ġ lin
as y
fa st
te cted
edit or
as ync
ĠCONTR IBUTORS
al g
Do main
c red
and as
ĠTest s
no tification
a ut
Ġs cheme
ct l
copy right
Ġorig in
IN ST
In itial
n c
l ask
f un
Ġcon dition
r st
Ġdist ance
clean ed
Ġ2 5
Ġde v
E P
U ST
MPL ATE
, "
UR I
I ST
c ancel
ĠGener al
G RO
org anization
ste ps
ĠL a
Se quence
Ġ( -
201 3
Ġcomponent s
Po sition
M on
V olume
H elper
arch ive
[ ^
rep ly
W AR
channel s
Ġsub st
At tr
O b
Ġe lem
ĠS ta
all close
b order
Ġsh own
orizont al
Ġurl parse
f b
Ġwe ight
see k
Ġw arning
Trans port
k el
ĠT ask
M ES
Ġexec ution
orig in
Ġt x
]) .
Ġro ute
ab stract
Ġd ot
project s
56 7
R H
} \
Ed it
ĠM odule
T F
m or
re tri
pla ces
CL ASS
Ġde scri
N um
En coder
B inary
Ġ tenant
ig rate
ER S
O wner
sub class
Wri ter
P lan
x c
b undle
C ESS
m ultiple
ĠW HERE
ĠT able
Run ner
Ġs napshot
ren ce
Ġdirect ories
manage ment
ti fact
col ors
variable s
F E
Ġsql alchemy
qui va
Ġn orm
Ġse nder
Ġl l
Ġdis patch
re cords
At tributes
list s
F i
par tial
ĠS y
v r
And Return
Ġhost name
" \
D ialog
Ġarg parse
FI EL
Back end
We b
AAAA AAAA
Ġsw itch
run time
/ ')
Ġre cords
w arnings
IT S
Re ceived
Ġdi rection
Ġh appen
Ġsub net
(" -
Ġpa ir
I mport
Ġno tification
v ec
Ġauth entication
(? :
Pack age
ur ity
C Y
ĠAr gument
Ġs sl
W idth
g anization
LO AD
is file
Ġit self
W IT
Loc al
Ch annel
9 1
I I
ĠRe served
ĠBu ild
res olve
pa irs
N U
UT E
Ġt yp
Ġre vision
cre dentials
Ġma il
cl ar
( ':
di mension
#### ###
ot ype
Ġfla vor
ĠNOT E
IC T
Ġpro c
E W
trans late
( ',
ca pa
exec utable
Result s
St ats
Ġs can
ame ra
abi lity
par sed
Ġma de
Ġco unter
Ġsa ved
Ġcer t
gra d
C ODE
UN T
de li
ER Y
M Y
Ġk ernel
Ġk nown
Ro le
Ġi mplemented
p m
Ġpro gress
> `
T P
Ġex port
br l
pri ority
D Q
umb nail
ĠP O
as set
Ġro t
ate gy
plot lib
c mp
key word
lo gs
le ting
Ġlo cale
Ġ201 2
Ġ orm
g reen
ch or
in el
Ġde al
ast ype
Ġback ground
ĠF ound
stru ction
MA IN
ĠRe move
=" %
Ġi con
time r
se par
In st
in ner
ate r
ĠĠĠĠĠĠĠĠĠĠĠĠĠĠĠĠĠĠĠĠĠĠĠĠĠĠĠĠĠĠĠĠ ĠĠĠĠĠĠĠĠĠĠĠĠĠĠĠĠĠ
T C
P U
h idden
de cimal
Ġme m
Ġre try
y y
T emp
tes ter
Di rectory
D AT
rid ge
h at
p df
n ect
Data base
w all
SH A
te ri
ag ing
code s
ES C
a i
pe t
no tify
D el
ol ved
ĠSer vice
g le
rite ri
CH AR
Ġo auth
Pro vider
Be gin
pre pare
St op
Ġtarget s
ar ange
! !
/ "
W W
Ġmap per
comp at
Ġ' '.
on ical
Ġbehavi or
c n
ok ed
Ag ent
s li
mo us
g res
Ġ2 55
o tes
tera ctive
Ġt z
Ġd ig
bo sity
Time out
r d
un its
Un it
ld ap
/ {
ch an
res hape
IG N
Ġch art
reate r
Z Z
s parse
Ġc s
app engine
se g
ce d
sh ift
ĠPro tocol
st mt
get value
10 24
mo re
cip y
ĠHOLDER S
Ġp lay
ĠEx amples
Ġp ush
ĉĉ ĉĉĉ
X Y
00 1
time zone
Re gex
N G
br ary
Ġvi rt
EN CE
A me
ĠR ights
f amily
m g
ren cy
ate way
ref s
b um
red is
Ġconnec tions
ĠIn teger
is dir
Ġali gn
* (
spec s
Ġde cimal
Ġclo sed
iv ar
std in
P i
ĠIn stance
U ti
Ġindi cate
b d
Ġ' "
ĠT Type
et ri
TH OD
exist ing
ĠS ec
in ternet
iv es
si st
TY PES
match es
Ġ es
Ro ot
vid ual
{ "
Ġ ()
Ġc ap
Node s
Ġrun ner
Format ter
pre v
Ġa round
C UR
Ġpar tial
Ġtime delta
ĠB Y
Ġ{} ),
Ġwork flow
E Y
mple ments
b log
m ul
th reshold
en um
ĠN ew
quiva lent
late st
cl one
ĠPro ject
y es
unct ools
P r
AN CE
al ity
ĠWe b
lo cate
Ġse cret
H ello
wor ld
e mit
Ġs creen
bo b
Ġtrans port
assertIs Instance
AD DR
TE MPLATE
w t
bi lities
################ ########
W or
g p
ne utron
N a
ony mous
Ġhttp lib
L ast
Ġf act
Ġde pth
q t
Ġa tom
) +
2 000
ĠC al
Ġlo ader
f ollow
Ġh istory
ĠĠĠĠĠĠĠĠĠĠĠĠĠĠĠĠĠĠĠĠĠĠĠĠĠĠĠĠĠĠĠĠ ĠĠĠĠĠĠĠĠĠĠĠĠĠĠĠĠ
Ġstart ing
Ġencode d
Ġi dentity
AP P
thread s
D U
ta ched
Ġstri p
Re ader
Ġper m
re cur
boo lean
le cted
Ġlocal s
frame work
b f
v n
(" --
Ġbo ot
ĠR o
', )
P F
ue ss
Ġe p
U sage
Ġ tensor
at trib
B ER
b ra
scal ar
I p
ĠF unction
li ve
Ġfile names
S ocket
D eta
Ġp ur
read line
Re move
ini tions
PRE FIX
den ce
Re port
sub mit
Top ic
T a
M atrix
Ġne utron
dest roy
I t
di ms
Ġcon sole
f h
par tition
ĠRa ises
Al low
__( *
Ġg lob
Ġauth entic
ĠOS Error
p w
Ġde sired
Fe ed
m ime
Con straint
Ġwrap ped
Ġcre ating
Ġ qui
Ġno thing
ĠLo ad
ĠEx p
V S
R PC
Ġserial ize
Ġf ra
bot tom
ĠThe y
Pa rent
f r
/ (?
alle l
pre vious
Ame rica
pro ps
ra ble
Ġreg istered
stri ct
Dis play
fi re
Ġdi m
pol l
[ (
c um
n l
EC TION
dest ination
ĠOut put
Ġsi mp
om ial
Ġcon sumer
Ġmark er
Ġy aml
Ġwork ing
ĠCon nection
ir t
/ <
M Q
at ype
Ġse en
Ġin ner
p us
Ġiter ator
ĠDec imal
ex er
MA IL
Ġgo od
Ġupdate s
Ġwri ter
ĠC ustom
ĠU RI
a j
Ġc v
sy mbol
g id
Ġpri or
el ls
al f
ic ally
base d
imp l
u z
der s
ĠM ulti
: ",
Ġd ummy
Ke ys
open stack
in c
def inition
float ing
Ġb lob
exec ution
E B
r ator
ch art
201 2
Var Int
a ff
ex e
w eek
Ġ" #
im ate
I MA
Ġs cipy
ns ure
fi xtures
Data Cache
S UB
R Y
an tity
Ġ& &
c us
Ġ1 7
p red
Ġin side
pro cessed
3 00
Ġcheck s
content types
I X
Ġfa st
connec tions
ĠP ost
Cur rent
mark er
op tim
en sure
Ġ ur
Param s
F ake
Ġs amples
Ġ102 4
T L
ĠS ome
k g
Ġ1 8
Oper ation
] '
Ġa ff
Ġd ouble
Ġal ong
m ysql
ma y
=_ ("
z A
el if
En tity
Ġc sv
tra ceback
Ġarg v
ab ly
inter faces
are a
B ind
En vironment
jec tion
g ui
Ġn ested
ĠS SL
j k
Ġma chine
se m
an cer
ĠI s
Ġun its
ĠOr deredDict
ĠN etwork
Ġdetermin e
n y
rup t
Ġ' +
T ab
Dec ode
Ġcon struct
s ur
wh ich
Ġs cheduler
Ġsetup tools
Ph oneNumber
d array
Ġg ran
Ġun known
str ftime
Ġclo ud
pro g
Ġpri ority
) }
or ing
ar b
Ġreg ular
Ġiter tools
Ġso uth
al ler
ri des
back ground
ĠG e
Ġcon tact
N V
Ġ selection
ĠIn ter
M ain
ĠI nt
il li
Ġdoc s
ĠPar se
int s
la ve
gate way
Ġcomple x
pro b
Ġstate s
I mp
Ġc b
g on
cre te
50 9
Ġcli ck
with out
Ġd s
Ġretri eve
C V
ri end
Ġ} }
a ws
man ifest
ĠO ne
> =
ON G
block s
C AC
Ġpack et
k lass
U LE
Ġ escape
qu are
SE D
ateri als
lim iter
Ġexp and
Co mple
ĠOther wise
OK EN
P A
ĠSt atus
Gener ator
te ction
Ġb undle
Ġserial izer
Re p
D T
P K
di rection
T AG
lay ers
ly ing
ites pace
Q Q
g ree
Ġsupp lied
listen er
al loc
ĠI tem
Ġ$ {
vi deo
0000 0
ĠAr ray
Off set
u c
ĠA lso
W H
it al
Item s
Ġ[ {'
Ġwe ights
FLAG S
b p
') ))
======== ====
Create d
================================ ================================
Ġs ur
de scriptor
Ġan sw
line ar
Ġm s
x f
ĠT w
ĠP ath
Ġl arge
Ġcal cul
Ġhandler s
k y
de le
s mp
pre sen
ge o
Con s
char s
Ġcl one
back up
Pro perties
vari ance
i q
'] ]
ĠW S
Un able
ĠA D
add resses
' ll
li er
ĠC an
Ġsy ntax
Ġb order
ĠS E
NA MES
Ġrelation ship
P ick
ST ATE
comp are
aa aa
Y PE
UR CE
AN Y
M issing
Ġvari ous
con ver
Ġcre ation
init y
Ġu gettext
Ġsup ports
pi pe
N ECTION
P ASS
normal ize
n dim
er ge
ĠS ER
ĠL O
se en
> ')
Ġres olve
me asure
Ġ question
Ġren dered
ĠOption al
ĠIndex Error
n ational
Ġfail s
sq lite
Ġc m
di rec
vi de
Ġr ate
C ustom
T ri
in ct
En gine
Ġ201 1
g m
I ter
Ġre ferences
Ġcon structor
ĠC ode
ĠPro cess
Ġtri gger
Ġno se
B asic
Ġd uration
du ction
GRO UP
ĠC ur
Ġindi vidual
R R
a h
Ġe mit
count ry
t m
Ġm ar
Ġmetri cs
re actor
Ġreg istry
L IN
s ame
Ġcorrect ly
Ġw atch
dis able
Z W
no tes
d om
Ġapp en
Ġst uff
M ark
C or
con v
pa y
R ed
Ġpro blem
y si
({ "
ti ces
ĠM atrix
ĠS top
DE X
Ġplugin s
ĠL ine
DE F
ion s
in te
de pendencies
Ġsub lime
Ġas k
Sh ow
Ġre cent
Ġp oly
Ġdi rec
ĠN ULL
diff e
Ġcer tificate
Clo ud
Ġkey words
d k
Ġcomp are
spec ial
li ck
ce pted
dir ty
ry pto
z a
pick le
Listen er
(' .')
Ġget s
po sed
C er
ĠC O
Ġ jobs
Ġh ome
Ġmodifi cation
act ual
Ġs ync
E xtra
D J
Ex pected
Ġcom ments
D A
Ġf mt
Ġse c
ou te
Ġservice s
Ġpartic ular
S ite
s lots
ĠB e
at ar
Ġprocess ing
F low
Ġpar sing
.... ....
l p
Ġc enter
Ġbot tom
('/ ')
u da
la ce
we ights
P N
Ġn or
G a
n ested
v f
P TION
ĠĠĠĠĠĠĠĠĠĠĠĠĠĠĠĠĠĠĠĠĠĠĠĠĠĠĠĠĠĠĠĠ ĠĠĠĠĠĠĠĠĠĠĠĠĠĠĠĠĠĠĠ
Par ameters
E num
ĠH ow
) ")
urn al
Ġde lay
b ile
re size
Ġtra ce
pi xel
virt ual
h g
Ġc ross
o ted
ran k
V AR
ja va
Ġorder ing
00 01
Ar g
Ġexec uted
serial izer
Ġimport s
OC K
M ake
e poch
ME THOD
Gener ate
tri gger
F N
Ġ1 9
Me mory
') ])
M apping
c nt
ash es
S W
A K
Ax is
Ġfin ished
U U
l r
pack et
Lo op
Ġg ame
col lect
2 34
Z X
ĠM agicMock
Ġca use
Ġattemp t
PE CI
ĠD ATA
clean up
D H
Ġst arted
ec tive
AR D
Ġne ver
ro ker
ĠL i
__ ))
struct ure
F n
Ġre c
Ġs c
Ġany thing
for ward
ver sed
n ed
Ġp or
ile r
me s
man ual
T CP
ĠS up
vai la
k o
Ġar r
201 1
Ġindi c
co very
ĠO per
C y
Q R
com ing
cry pted
' m
ĠIP v
L im
mo o
quen ces
"] :
Ġac tiv
S um
_ {
] |
Lo okup
comp ress
device s
g lobals
ĠM IT
a mp
ĠE ach
Ġle ss
at ory
ac quire
ĠW ork
ĠUn icode
k ill
document s
b est
Ġinitial ize
equal s
Ġen tities
Ġs sh
Ġsum mary
ĠD IS
Ġp ad
Ġ' [
T er
ĠA nd
frame s
Cho ice
L exer
arg types
= ('
m x
z o
ac tivity
ĠWIT H
S pace
st ar
Ġtime zone
Ġse ed
CONT ENT
file path
ntax Error
p d
key words
sertion Error
len code
C lean
- +
E mpty
G G
Ser ies
tw isted
uff le
ĠDe lete
or ation
Ġt urn
Ġup per
vaila bility
] ],
fin ished
ĠC LI
Ġvi sible
F D
Change d
h ist
pl us
av ing
if s
response s
ĠS TR
tit ude
g mail
ĠSt art
) -
time delta
Ġcal ler
St ub
l m
local s
Ġcontrib utors
z on
} ),
e b
C LI
tri p
ti d
33 33
Ġappe ar
T itle
Fe ature
a cl
x i
ĠP OST
Ġthread s
25 0
\ .
us ters
Ġderi ved
Ġk lass
h w
Ġre ader
Ġse ss
ĠAn y
Ġd ue
us ted
gra tion
ĠB ad
sec ure
lo ur
ctype s
Ġ( _
ag raph
Ġwho se
B C
per cent
Ġblock s
bind ing
Ġ" (
xx xx
P oly
R C
ma cro
can vas
pre cation
Ġcho ice
helper s
Ġconnec ted
Ġc c
co ordin
ra tio
comp atible
Ġe ffect
f q
Ġex clu
S ome
deploy ment
> %
R T
U se
ĠC A
" %
ser ted
Exp ression
ĠT ry
M AC
f k
Ġmap s
ĠS hould
list dir
ĠL e
Ġhash lib
de epcopy
con stant
TI VE
ĠCh ange
ĠO ver
Ġ4 0
g ot
ali ases
} "
ge om
Ch art
( ""
ĠU N
Ġi den
Ġle g
PhoneNumber Desc
U sed
By tes
b and
Ġth ings
ĠĠĠĠĠĠĠĠĠĠĠĠĠĠĠĠĠĠĠĠĠĠĠĠĠĠĠĠĠĠĠĠ ĠĠĠĠĠĠĠĠĠĠĠĠĠĠĠĠĠĠ
Ġ' :
Ġs n
Ġrep ly
Ġover write
m r
Re po
Ġ ec
as te
I V
ĠC re
Di ctionary
cry ption
def ine
cript or
D C
t cp
Ġre duce
lo pen
WOR K
Ġ\ \
TI T
} {
Ġg lobals
volume s
r x
Ġs chedule
ĠT EST
g ation
b rowser
__ ),
Ġno qa
Ġs li
M a
Ġd ns
Ġapp lied
Ġmat plotlib
G P
M ODE
a red
Ġs leep
F B
IMA GE
P ACE
t ar
ri s
L P
c ustomer
li fe
Ab stract
data store
Ġarch ive
S end
Ġhand ling
Ġformat ted
Ġvi deo
Ġqu ote
Ġinter pre
S K
Ġ urls
Tra ck
Ġedge s
j ar
Ġt y
v y
AS K
Valid ationError
ĠI mp
G V
f w
ex act
oriz on
Ġsim ilar
M AL
ti re
Ġco st
Ġme t
con figs
ĠA b
w alk
it ude
N ULL
o site
z k
str ument
pa per
" },
ĠM igration
l c
ĠC lass
Ġp ower
te ps
co v
16 8
v lan
mo ving
W N
ise d
ty p
ĠO K
Bounded Big
Ġp layer
Ġconver ted
H H
vi le
ĠWARRAN TY
s r
ar ticle
. '''
D a
O k
in ux
Ġ{ %
ag gregate
P os
ph p
Ġcon stant
Ġw rong
an aly
Ġde scriptor
Ġor d
Ġun pack
si tes
201 6
ĠA CTION
ĠT ag
ĠN ow
ST ART
Ġ'/ '
a vi
Re quired
F UN
Clo se
ĠCom ment
irt ual
Com ment
PECI AL
ĠF ind
ENTI AL
T uple
pro mpt
e le
Ġca pa
J J
` :
Ġte am
t angible
al len
rest ype
Q A
Ġh our
lic ies
annot ation
P open
rozen set
ph one
vo ice
ap s
sh utdown
format s
b m
Ġc t
ĠQ ueue
ĠDefault s
Ġmin imum
ae mon
ĠA ction
Ġco ver
([ (
ĠValid ationError
dash board
d w
l g
Ġu id
Trans form
inger print
T K
Ġc apt
Ed itor
te e
SE QU
tic s
En abled
Child ren
Ġfa ce
dis abled
C ategory
ĠQt Core
Ġi dentifi
Ġr c
Ġb ig
Ġbase s
O pt
su ch
OF F
Ġone s
Ġ2 2
D N
C opy
Ġn one
ĠVi ew
ang ing
M ultiple
Ġ2 3
pre dict
s yn
Ġh ex
cal c
ĠG ET
Ra w
USE D
si bility
Ġback wards
G H
ct ure
Ġp andas
Ġgran ted
ad ow
e ded
r ng
Ġnormal ize
CRE ATE
s z
as cript
G l
ĠWS GI
p n
at t
D b
I teration
Fla gs
edi a
Ġback up
ĠVer ify
to ur
Re mote
pro gram
x l
ap pro
Ġp ie
Ġpro mpt
V ector
Ġp rom
6 00
Ġf req
u dio
Ġresponse s
Ġin dependent
window s
Ġre tain
Exec ution
ra se
ass oci
ĠP Y
AT CH
k i
Ġcomp atibility
get ter
Ġmon itor
BoundedBig AutoField
Ġn x
P e
Ġpixel s
Ġhost s
ĠCo mm
ĠW or
Ġdis abled
Ġp anel
map s
co ord
as array
wh ite
Q tGui
ma zon
ĠGener ic
Ġ" +
able s
set ter
Ġme asure
foreign key
Ġchar set
Ġde n
6 86
arch y
let ter
] }
activ ate
= ["
th at
Ġth ree
Ġde le
un der
G rid
Ġ ^
Ġb rowser
iter ator
) **
Ġb lue
se titem
end or
Ġdimension s
ro om
__ ',
nd array
CAC HE
Ġc r
Ġcl assifi
av ascript
Ġl ang
Ġver y
Ġf unctools
DO MAIN
Ġpi pe
x p
K K
P B
i j
m igration
in ing
Ġconfig ured
Ġvi m
relation ship
Content Type
ex periment
W h
st and
Ġ' ':
ud it
Ġsub scription
S a
err no
Ġ ~
Ġb eta
cal lable
Ġerr no
Ġi mplements
ci pe
R andom
Ġ4 04
ĠJ o
[' _
CO UNT
ĠFound ation
ol ds
or ator
lo ss
ĠC l
y thon
en sor
co okies
#### ##
Error s
mk dir
g w
Ar ticle
ĠData base
h ave
Ġ'* '
spa wn
C ell
G A
di an
KE T
UT F
201 0
T w
ect ors
I dentifier
de pendency
sha re
Ġqu eries
**************** ****************
Ġ4 00
siz es
C HE
an cy
sm all
Su ccess
Ġgener al
KN OWN
p pro
co ords
Ġr pc
Ġsh all
Ġbu g
ĉ ĠĠĠ
th rift
Ġ" )
TIME OUT
Li brary
c ifs
Field s
Des criptor
c ar
Ġpre di
m ust
Model Admin
Ġgra dient
Ġpar tition
Ġrun s
s cheduler
( %(
ĠPO INTER
x d
Ġre ct
Ġconfig ure
fin ite
Te X
Ġ ri
ĠD es
Ġre ally
client s
Ġtemp orary
Ġcop ied
ME D
Ġsepar ate
L IC
v ol
Ġs l
ke t
author ized
comple ted
vi des
out file
SI GN
567 89
lo or
Ġserver s
ĠS UB
") ),
sp i
Ġchunk s
. "),
U ES
ynchron ous
N T
Ġac cording
() ;
Ġpy py
find all
Ġma kes
De bug
ĠPo int
Ġ5 00
r ant
jo int
Ġdist utils
Ġinitial ized
In line
b ld
ĠH andle
_ ='
Ġgener ic
M C
oc ial
99 9
Per son
r strip
ĠS ession
Ġax es
Cl uster
compile r
ĠC a
i dent
s al
} :
s ince
ch dir
Ġlo gs
Con f
Ġcount s
Ġapp s
Ġcol ors
ed irs
Ġab stract
Pro duct
G D
M agicMock
ti cket
ĠM ark
stra ils
assertNot Equal
F ind
Ġansw er
Ġcol s
cate gories
t v
pe ak
S tep
######################################################################## #######
ĠP ublic
ec h
L C
R UN
B ody
pre tty
Er r
ĠN S
ifi es
H A
ĠS ign
AD D
Ġde pendency
ĠS U
P lug
us sian
f m
Ġper mitted
P ACK
Ġsel l
Ġun less
foo bar
is ual
ient ation
Ġlisten er
case s
R F
Ġm u
ĠAdd ing
T OKEN
Ġf o
or th
Ġf id
go od
Ġlon ger
_ '
co un
F unc
st andard
tr as
hy per
Ġg reen
jec ted
Ġadd ing
S kip
ĠD on
ast ic
Pre fix
e fficient
st arted
Ġre v
format ter
av g
ĠAUTH ORS
sy ntax
Ġ-------------------------------- ----------------
split lines
ĠO Auth
valid ator
Q k
b lack
m icro
Ġport s
di ag
G ra
MP LE
Ġ201 0
Ġproduct s
+ =
u v
H as
ex amples
index es
cer tificate
u tions
ho od
W M
Ġp adding
ST A
CH O
pe er
SE TT
lo bs
Ġpro perly
pro duce
ĠR el
de c
m ongo
e gg
h ow
Ġne gative
J S
ĠIN TER
T X
ard own
Ġe v
G TH
co gn
Ġfor ward
=_ ('
ax es
on al
Ġn b
G O
Ex ample
update s
call y
s cores
PO INT
Ġpa gin
Ġu i
q q
Dis k
u f
O ri
Ġinclude s
fin ish
ĠF lask
Y X
[ \
Ġw arn
cap t
Ġmember s
ĠG raph
h h
Sec urity
Ġ' \\
E MAIL
IN VALID
C md
H elp
Ġ# ------------------------------------------------------------------------
char set
Up load
Ġth reshold
Ġchannel s
Gener ic
T ABLE
E VER
_ [
SE CRE
tr l
ĠAd ditional
ra dius
k ing
Ġal tern
Ġare a
sub scribe
Ġ8 0
Ġen tire
decor ators
Def inition
hook s
Ver ify
q name
auth ors
parser s
an ded
ĠInitial ize
v d
K T
Ġg ive
a w
Ġa ble
Ġsh ift
FIEL D
u di
bal ance
OF P
m igrations
ĠF e
HEAD ER
ME DI
Ġcompile r
Ġsm all
ĠG L
t ol
Ġali ases
ten v
rand int
reg istration
P lease
Ġp t
Ġex amples
K B
qu ota
Ġr df
Ren der
ĠT oken
oper ations
Ġ" [
Un icode
Ġto day
inst alled
gen e
NUM BER
mbed ded
ro ken
Ġ'. '
let te
x e
D ESC
e per
Ġchar ge
V V
N ODE
ar ing
og ram
gra dient
s b
lin ux
ĠAd min
Ġ{} '.
> ,
re peat
ĠT angible
location s
M GL
p ect
Ġda ys
Ġt ornado
flat ten
A Q
Ġre maining
LO B
mt ree
Ġrestri ction
sem ble
ĠS Cons
tain er
G F
Ġs heet
ĠSt ate
; \
() ])
ap sed
C URE
n r
= ',
ĠD I
Ġar rays
ime n
re ceived
co me
D ist
+ /
ite rable
A E
Ġbet ter
rece ive
Ġp ending
ĠP lease
ĠSt orage
ĠKey word
Ġsuccessful ly
n ick
Ġ' (
Ġ""" )
in clu
(_ ('
Ġ"" )
Fla vor
spa m
P ub
account s
or dered
End point
ac ter
g lob
con s
ĠCon text
Contain s
i an
(' ',
Ġtrain ing
pre ad
d ocker
Ġdoc test
ns or
M sg
Ġs yn
O O
} ):
ĠS PECIAL
la unch
Ġvirt ual
process ors
He aders
attach ment
Ġe poch
initial ize
> ",
g gest
ĠW rite
Ġref resh
M R
Ġ ls
ĠCON NECTION
G C
Ġle x
for um
Ġexact ly
j ac
Ġcal culate
pl ural
Ġread y
i pe
SECRE T
jo urnal
Ġdoc string
Ġtrans lation
N on
ĠU sed
Ġf s
k b
Ġla zy
tmp dir
Ġ3 4
X z
TH ON
Reg ion
So ftware
X brl
tist ics
ĠB oolean
P RI
F older
Ġvar s
Ġim mediate
Ġex periment
Ġcon v
VIC ES
Ġfig ure
Ġp ol
Ġreturn ing
log o
MOD EL
Ġexplicit ly
as is
Ġor g
Re lease
Ġf h
code name
Ġh yper
ĠP a
ir cle
widget s
ff e
B S
PRO TO
de mo
=[ ],
pa gin
Ġpro duce
j u
Ġan not
Ġspecifi cation
Ġn args
ĠS kip
G T
Ġc red
U V
h p
ip ient
ĠE d
ĠEx ec
Ġimp orted
DAT AB
g is
log ical
5 12
ĠMe thod
g d
Ġc wd
Ġra ther
fig ure
comm unic
F Y
fo ot
ip her
place holder
k k
is m
He ight
T rove
c rop
AS H
P rint
U til
Ġm k
Ġcol lect
ĠSe lect
mor ph
mo use
ra ck
(_ ("
F irst
ĠP ass
write Field
Ġdistribu te
Ġy fsm
Ġas signed
v ors
Ġhere by
EV ENT
scen e
P M
Ġres pon
C ID
f v
M UL
Ġpre vent
LEN GTH
` )
CL AI
ĠN ON
ĠFI X
ĠCon vert
O w
re load
st or
Ġcore hq
Cur sor
N ote
r aries
pi e
Ġdefer red
] ',
Ġtra it
c lock
W ait
http lib
assertIs None
ron t
Trans action
(' ''
Ġe quivalent
Ġcheck ing
tro ls
rag ma
un til
SER T
D jango
Ġversion added
Ġbo ok
mak edirs
Ġm is
ad ditional
ĠP ack
Ġper mit
is ode
Test ing
Ġet ree
F H
S UP
ĠF loat
ni i
Ġma g
Ġar c
Name space
ti p
ĠLa TeX
Re actor
OP EN
Ġevery thing
da e
Ġcon ven
table name
2 04
cat alog
D ummy
=' /
ĠSe arch
Ġdeploy ment
WIT H
v b
Ġp s
Ġread ing
Ġ[' _
Ġwork sheet
X ml
Ġ2 9
Ġcur r
chunk s
ĠEn vironment
sa ved
Ġinst anti
wh ile
I A
S Q
Ġh ard
Ġt m
Ġw on
ĠG O
r w
st ics
ĠC all
ĠP age
ĠV M
super user
Ġth row
EM ENT
Se lection
C opyright
ĠF ilter
and roid
! ")
ĠF oo
utc now
Ġb al
Lo gin
cro ss
8 00
wrap ped
Ġ' $
SI G
SEQU ENTIAL
> .
en der
d raft
Ġdefault dict
Ġcreate s
session s
ĠĠĠĠĠĠĠĠĠĠĠĠĠĠĠĠĠĠĠĠĠĠĠĠĠĠĠĠĠĠĠĠ ĠĠĠĠĠĠĠĠĠĠĠĠĠĠĠĠĠĠĠĠ
={ },
Http Request
distribu tion
Ġsq lite
S B
s peed
number s
Ġth ing
Ġ3 1
Ġpro cessed
iv ing
he el
ĠP h
ur ther
ĠAdd ress
cre ation
mi ted
F ITS
ĠApp lication
Ġcomp arison
D Y
s f
/ (
F l
re name
vance d
Ġstd in
in crement
Ġ ################################
Ġindex es
/ ?
RI PT
Ġclean up
Ġd ynamic
ĠLoc al
ĠIn put
Config ured
serial ized
PASS WORD
() ).
he alth
/ .
N L
W E
Ġc ate
IL D
T Z
set attr
velop ers
T LS
U UID
ist ic
Ġrepresent s
# :
M AN
U X
Re play
ĠV AL
do es
op le
Ġ2 1
sp li
b at
u k
l ator
J O
cro ll
ĠE nsure
cate n
Ġ qual
sign als
ado op
Ġos lo
OB JECT
S ee
iz ing
Auth entication
it ation
ĠM ax
level s
cen ario
id map
pro j
CC ESS
Ġi teration
Ġto ols
m time
Ġj s
LI G
g uid
Ġst ati
Z one
ĠS chema
ne gative
mo difi
Ġwork space
ĠA RE
ĠV ER
Ġpo sitive
Ġ2 8
Ġprob ably
AT OR
Ġli ter
cre ator
l and
p in
Ġf akes
ne ighb
(' ')
boot strap
ĠDocument ation
TR AN
Ġlog ged
Ġunder lying
V al
sig ma
ĠM ay
] ["
ĠN EG
bound s
al lation
ĠDI RECT
Ġdir name
i lo
p ow
li o
Ġfloat ing
S ave
Ġac tivity
ysi cal
L ANG
Ġre pe
cy cle
12 5
Ġcheck ed
ĠIN DIRECT
ĠF irst
84 2
SI B
limit s
Ġstri ct
J K
u do
Ġin line
MS G
+ "
l as
er os
Ġr ng
__ :
rap pe
f x
j Y
ro perly
R A
sent inel
To One
| '
Ġb ash
(" .
J son
S ingle
ul ated
p adding
th rough
co pi
cli p
WR ITE
ĠS ite
add on
FR ING
Ġh idden
q n
Ġreplace ment
. '),
f u
Ġpre pare
Ġfl ush
F etch
tex info
ĠDIS CLAI
FRING EMENT
L B
oc us
Ġre d
ble ms
Set s
get cwd
ĠP OS
ach ine
sen sitive
Ġscal ar
d ynamic
st o
W X
Ġ\ '
bu s
Lim it
Ġre dis
Object s
Ġframe work
", ),
1 0000
F o
S cale
sw ift
che mas
PRO JECT
Ġ2 6
AC TION
a ign
Ġ200 9
ĠArgument s
LIG ENCE
ĠCON SEQUENTIAL
Ġ{} ".
ĠPRO FITS
an tial
==== ===
bit rary
u ous
tr unc
ĠP ri
ed u
MOD ULE
authentic ated
R UP
Ġobtain ing
Reg istry
Ġretri e
Ġpre cision
ot as
IN DEX
D P
F K
N ormal
Co okie
Window s
ĠC or
ĠE xtra
c ms
qu eries
be at
Ġpor tions
G U
ĠA uto
r gb
Ġt rove
put VarInt
_ =
Ġvalid ator
D L
ĠNEG LIGENCE
E u
S ample
Ġm aterials
Ġan notation
Ġlimit ation
/ *
ĠIn st
V R
2 14
w p
ĠLO SS
decor ator
Ġc ancel
dh cp
E l
'] (
M ESS
an a
Con ver
ĠFIX ME
G lobal
i um
lo y
c x
er ce
ifi er
W in
"/ >
andid ates
obj s
Ġlate st
Ġf amily
ans wer
Set up
vp n
h r
B AD
v v
kw ds
cu da
eff s
Con nect
scri ber
Ġ' {}
Con stant
h u
ĠG it
patch er
ĠClo ud
Ġde tail
M ar
Ġc atch
Ġdef ines
Ġc id
b la
de cla
con tinue
Ġperson s
b z
'] "})
ĠW hether
un iform
rid den
ĠComp ute
Q P
select or
th eta
N ext
k v
at temp
def s
Ġm uch
FIL ES
build ing
iter al
H Y
Ġs parse
ir ror
') ):
IN FRINGEMENT
In formation
Ġper cent
p end
Ġwho m
N et
j i
Ġs teps
require ments
Ġt t
Ġsub classes
E MPL
n m
ma jor
: ],
me mo
da o
Ġg u
Ġman ifest
Ġact or
allen ge
B r
x path
sub lime
Ġmatch ed
et ree
K W
Ġcon sume
sion s
resolver s
Ġf type
ĠCol or
N ull
Ġx s
Ġre produce
ĠS ource
as c
RE F
top o
B A
g un
U C
w m
Ġx fsm
P ay
se udo
], \
annot ations
q p
ve red
file no
li fy
) ?
S cene
m id
cid r
dae mon
re at
C OD
n or
ĠGener ate
p lt
Ġsh are
Ġcoordin ates
([ ],
Ġpla in
me sh
Ġen ough
Ġexec utable
un ion
M N
i mation
Ġv ol
mark s
CHO IC
istribu tion
Q V
ss ue
Ġfin ish
cla use
SETT INGS
rs ync
etri eve
k t
Ġformat ter
Ġinter faces
ENT AL
Ġb ra
Ġ* =
ĠR FC
e a
Struct ure
ĠProtocol Buffer
W ID
EC ore
form set
Valid ator
data sets
ĠV ariable
F W
ĠĠĠĠĠĠĠĠĠĠĠĠĠĠĠĠĠĠĠĠĠĠĠĠĠĠĠĠĠĠĠĠ ĠĠĠĠĠĠĠĠĠĠĠĠĠĠĠĠĠĠĠĠĠĠĠ
pt s
Ġload ing
)) ))
Ġv o
sm art
S N
ST Y
Ġ2 7
M X
one d
ĠF rame
Ġrun time
un link
ĠC LA
Ġro om
expi res
J y
r mtree
ĠDE AL
st age
cur rency
assertIs Not
M IS
Z ero
mo bile
Ġsy mbols
en tities
fo cus
sw ap
ĠCLA IM
sv n
Ġwe ak
dis connect
An y
G Y
Ġre cip
work space
ĠNON INFRINGEMENT
| \
de ri
Q I
Ġindic ating
de ad
cs rf
\" \
ti tions
Ġsubst antial
ĠĠĠĠĠĠĠĠĠĠĠĠĠĠĠĠĠĠĠĠĠĠĠĠĠĠĠĠĠĠĠĠ ĠĠĠĠĠĠĠĠĠĠĠĠĠĠĠĠĠĠĠĠĠ
ex clu
vent ory
x b
S TIT
L ost
Ge ometry
QU ERY
Rel ation
ĠDEAL INGS
Col lector
g ge
p ip
Ġpro cesses
D K
P X
G en
S napshot
] \
j pg
si der
""" )
col lector
H V
re es
FF FF
j j
Ġen ter
we et
h l
x m
Ġreg ard
Set ting
ĠAs sertionError
ĠConfig uration
Argument Parser
ro ke
check ed
ĠL ink
ER T
n ative
Ġf ire
Ġ| =
R B
Ġde li
OD S
ch r
"] [
Ġs peed
hi de
e y
l st
m gr
key stone
Replay All
H I
b ulk
Ġdef initions
Ġst mt
ES SION
sc r
Sec tion
al gorithm
Ad apter
tifi er
roperly Configured
AP PS
di alog
su ally
CH AN
at ter
ad apter
and box
Ġline ar
ĠT e
LI MIT
AR CH
Data Frame
th umbnail
Ġr ank
ĠNo tes
presen ted
STIT UTE
publish ed
P attern
W B
Ġ2 56
Ġ ve
Ġse ver
wh at
Run ning
m n
Ġor dered
tt l
Ac cept
t ls
xy z
Ar ch
Float Field
Ġn darray
SIB ILITY
v tk
ou ght
Ġsub license
Ġfunction ality
Ġsig ma
g amma
in o
COL OR
Ġle ading
% %
V L
el f
Q Y
AC CESS
1111 1111
mp aign
ne eds
QU E
ĠSTR ICT
ti ally
(" <
G K
rou tes
Ġfil tered
Ġhand led
b ly
Ġhigh light
b n
Ġp ip
IN ESS
Ġsign als
bi an
H z
inter pre
urn ished
A z
T W
V B
j am
re moved
Ġb i
ĠB US
ĠEV EN
J I
ip pet
mplement ation
am ble
SER VICE
Decimal Field
To ols
Ġindicate s
H R
Con vert
Ġag gregate
By te
Ġt f
Ġlocation s
Ġformat s
Ġrecip ient
b old
Con st
CID ENTAL
Ġp lease
a lect
e u
o v
rf c
Ġli kel
VI SED
Ġcla use
d ry
ec ome
ĠData Frame
morph ic
ĠIN CIDENTAL
ĠCon struct
su do
gg reg
Ġpla ces
ĠSU CH
Ġcy cle
ĠSER VICES
k ze
Ġm ouse
base s
Ġsign ed
i co
ĠB asic
ĠPOS SIBILITY
Ġr val
ĠW AY
defer red
M erge
ex tended
sta ff
D est
ĠĠĠ Ċ
ĠDAMA GE
date s
ill ing
PO INTER
RUP TION
in a
is tent
ĠAD VISED
Ġscript s
Function s
Inter val
U CT
h ot
ĠAr ticle
\" $
Ġf urther
ct rl
Ġcon side
Sy mbol
g ri
gener ated
Ġnetwork s
ĠEn gine
kze ug
ca de
valid ators
Ġti cket
er ry
(' {
post gres
M J
Ġpre dicate
ĠBUS INESS
V K
ĠPer son
N ONE
ro py
O Auth
Ġwho le
ĠDISCLAI MED
I ME
EMPL ARY
Ġin serted
Ġb r
ĠT ABLE
D OWN
y a
ul ator
ĠS p
ĠP lugin
i hood
Ġ= >
Ġin tera
load ing
l k
ch a
url patterns
CURE MENT
g ray
se mb
Ġd c
Ġxml ns
WAR NING
ĠCur rent
ti s
Ġc pu
Ġf un
M z
ĠH OW
V A
Ġm igration
od b
Ġg c
sy mbols
ĠEX EMPLARY
Ġfra gment
ĠSUB STITUTE
i B
ĠTHE ORY
ĠRes ult
S cal
d j
h int
Ġr and
ener ated
Le ft
Ġdevice s
00000000 00000000
ĠPRO CUREMENT
N OR
b w
cel ls
ĠINTER RUPTION
Ġ| |
mi tive
Ġge ometry
Ġsk learn
L W
N z
igh ted
po inter
track er
hex digest
a lert
ĠB ack
Ġopen stack
Ġsu cce
ĠDe velopment
ĠDe leting
o bs
moo th
ir cu
Ġ' ?
qu ent
min ute
11 1
Ġstart s
Ġrece ive
lev ant
al ive
== '
rec ipient
ĠDE BUG
O X
Ġp print
LE V
domain s
riteri a
ĠHOW EVER
Ġin herit
con sume
R GB
ne g
B ound
Ġspecifi es
Ġa verage
Ġshould n
ĠGO ODS
ĠCA USED
m v
ĠT ree
ĠM ap
gener al
Group s
G Q
LOC AL
Deta il
Ġc ard
Ġti ck
contain ers
L j
and atory
Ġsimp ly
Ġpre serve
ĠM AX
ful ly
Ġpublish ed
D one
T ick
E F
ge ometry
Ġti le
vari ant
Ġs ol
R M
AL LED
fin der
Ġge o
re et
Ġ'% (
Ġhandle s
Rel ated
Ġra dius
A rea
Ġf ul
ĠG iven
Z a
r ating
Ġdi rs
Ġret val
ID D
' ")
v Y
de ps
Name d
P art
tw itter
" ')
gin x
Property Type
c andidate
Ġout side
rand n
issue s
Ġs paces
In te
Ġca st
Ġ( [
Ġe as
Ġat tached
=' '):
encode d
Ali gn
! ')
A ctor
/ {}
ON T
c as
li d
C s
TEXT NS
F in
Ġan gle
T r
Ġ[ {
Ġx l
" ',
FA IL
roll back
T otal
H P
Ġcallback s
Ġeval u
Ġr s
ĠAb stract
L K
S ITE
at ural
Ġs phinx
'] ):
B atch
bind ings
ĠA ccess
En ter
Request Handler
] ;
Ġh it
ve y
Ġserial ized
V irtual
R ect
m igrate
Ġ{ {
b roadcast
q i
Ġs cene
Ġst ub
H ook
z ed
Ġclient s
W Y
port al
Date Field
Ġplace holder
a verage
ls x
MUL TI
hour s
x a
Ġan aly
g uest
STA TIC
C lick
R oute
V G
str s
are st
co verage
Ġ( ?
ST EM
Ġta ken
ĠDe ferred
A ss
me ter
Ġma c
ĠK EY
Ġdi gest
ĠF la
pon ent
tic les
d rive
E K
Ġf ore
TE GER
F y
callback s
fl ask
mar gin
ar tist
Ġh ist
N B
MEDI A
Z h
ap er
un ity
r g
di git
pre di
v x
con firm
temp dir
ME TA
check s
UP DATE
r df
Ġc andidate
ĠG NU
Ġcomple ted
Pick le
ĠF ree
ĠCh ar
Al most
Ġaut os
il la
={ "
Ġin tern
ra c
Ġ gs
qu ation
From String
ĠB lock
Ġpass ing
Cer tificate
Ġstate ments
Ġframe s
CLI ENT
p ur
Option al
S hape
edit able
Ex ists
' ve
N X
Ġ -----
pe dia
work ers
Ġdescri bed
ta ke
Ġw ar
66 66
per form
ĠH ost
Uti ls
v X
Ġr hs
Sy ntaxError
J B
Ġde clar
Ġla unch
] "
art beat
ĠAl low
Ġtime r
b ench
w g
ĠSet s
Z K
ĠO P
Ġab ort
retri es
= """
M F
W V
ĠĠĠĠĠĠĠĠĠĠĠĠĠĠĠĠ ĠĠĠĠĊ
ten cy
udi ence
O c
Q H
Ġdo ing
! "
S lug
Z m
In it
Ġ1 28
W F
Ġn umeric
OT E
Almost Equal
U G
par k
Ġnew line
-+ -+
C G
b idden
ar c
atri ces
A f
, %
ĠDe f
range s
MP TY
SS H
C MD
un i
ĠCreate s
re start
and s
Ġlog ic
se ct
RES P
di ces
Data set
Iter ator
iz ard
new s
comple tion
Ġpe er
N Y
ĠDi ct
Ġf urnished
en coder
ip ant
I ds
Ġe ar
In sert
([ ])
Ġval s
Element s
Ren derer
Ġpr in
parent s
h m
q r
Ġp ragma
ap ters
)) ]
ĠD oc
Ġtrans late
Ġmo unt
Query set
Ġ ----------------
Ġv oid
termin e
Ġinv oked
c g
h orizontal
qu it
ĠA ppro
spa ces
ta bs
Ġcer tain
Ġlook ing
Ġrecur sive
ro bot
Ġdest roy
AR GS
qui ck
Ac tive
Point s
ĠI ECore
Ġg data
ĠM on
join ed
b t
M j
Ġg a
M od
re store
ĠB ook
Ġposition al
: ")
Ġt xt
ToOne Field
_ ))
S i
AL I
trans fer
Process or
J z
P D
25 3
~~~~~~~~ ~~~~~~~~
d ating
ATTR IBUT
Reg ister
N j
vel oper
w i
Ġun used
Ġac ross
â Ķ
Ġm ultip
Ġtra iling
Ġdisplay ed
Ġlet ter
ĠStop Iteration
S lice
X s
j id
ca lendar
gg le
E Q
M AR
T UR
U F
ti vely
Ta gs
ver bosity
En coding
ĠTh read
H y
to k
liter al
Ġt ail
ns up
L R
b an
Ġc mp
ĠCON F
Ġt ar
* ',
x z
In ternal
ha red
L V
P op
Man age
bot o
b ridge
d rag
Ġest im
Ġresult ing
Ġli ve
Ġ" ['
l v
Ġd om
cm ds
Ġsq rt
B it
to o
ĠHttpResponse Redirect
al ls
vi con
Content s
Ġbind ing
ĠE num
________ ________
un nel
con struct
+ ',
D raw
([ ^
wri tten
precation Warning
Ġw sgi
pa city
mm utable
Wor ker
Ġconside red
Ġf requency
reg istered
R outer
03 3
ĠSE LECT
U Y
en cy
Ġp m
Ġqu otes
14 842
} ]
FF ER
cry pto
Object PropertyType
Ġprocess or
I g
L ib
Ġ117 15
Ġ117 14842
se gments
Ġg reater
Ġclassifi ers
Ġcount ry
Ġinteger s
Ġmanage ment
iz ations
log ged
L F
c url
per ms
Ġcode s
scope s
Ġfile path
Ġcode cs
assign ment
h z
C alled
Ġadd s
Ġad just
Ġli ght
C LO
ĠU UID
? ?
ĉĉĉĉ ĉĉ
p f
ex tent
A ST
y m
Ġp ull
Ġco okies
ĠW ith
of fi
di ctionary
od oc
diffe rence
: ,
[ %
2 02
D NS
LE FT
Key word
Ġpo inter
w c
ĠR ule
sha ke
At tach
S F
U K
set Level
Ġ201 6
Sta tic
serv able
="" ,
OR D
Ġdig its
C Q
Ġtrans fer
] (
Co unter
Ġse p
ĠJ ob
au dio
Work flow
B LOCK
n cy
Z Y
am i
open id
S pa
q K
de precated
Ġ( ('
cp us
Ġde limiter
Ġ12 34
Ġimmediate ly
Ġwh itespace
iv y
ĠEx tension
Ġmark up
po sitive
Ġ/ >
Ġnames paces
T ODO
ma le
Ġse quences
h v
k n
ĠĠĠĠĠĠĠĠĠĠĠĠĠĠĠĠĠĠĠĠĠĠĠĠĠĠĠĠĠĠĠĠ ĠĠĠĠĠĠĠĠĠĠĠĠĠĠĠĠĠĠĠĠĠĠ
Inter rupt
E O
pro cesses
READ ME
> /
b enchmark
a N
Ġst age
Ġl st
D iff
X B
p du
mp ath
Ġtermin al
9999 9999
H B
er ature
Ġr ing
Ġi rc
ĠSer ies
sql alchemy
s ol
de clar
lock ed
Is A
Ġto l
am ing
ui de
No tification
copi a
Ġget ting
... "
Bo ok
Ġin f
pen ded
eval uate
Repo sitory
p v
Ġchar s
ĠVER SION
SC HE
Ġb ecome
termin al
rece iver
S k
Ġsub mit
meta class
R et
s ter
assertIsNot None
I o
() ``
es h
Al chemy
] {
ur lencode
Ġdi alog
I Q
S ync
id le
ĠS u
ĠE mpty
cut s
m f
ex istent
ype s
po lation
< <
A u
fa kes
dict s
CHOIC ES
LEV EL
H J
Ġd uplicate
ĠC alled
ab out
un ce
Ġh aving
wrap s
blue print
S Z
AD MIN
match ed
L AB
Ġfail ures
Ġge vent
z ie
Ġstr ftime
âĶ Ģ
M u
Ġin d
O URCE
read only
ateri al
si a
Ġto k
ĠR PC
Binary Protocol
ĠImp roperlyConfigured
(' #
Comm on
ĠF oreignKey
sis tency
fi d
Ġli sted
RES ULT
'] }
WID TH
CHE CK
in to
py gments
Ġexpression s
icro soft
Ġm gr
l arge
communic ate
ase d
Ġ- .
M is
w Y
el low
Ġis subclass
Ġl ar
'" },
Ġbound s
V C
ur lopen
b tn
di f
Ġmerge d
spli text
ta ck
Ġro les
//////// ////////
si lon
Z z
Ġ' &
ach ing
j b
ti ce
Ġcon version
func s
or se
W D
Oper ator
Fi xture
ur se
present ation
Ġreplace d
P G
ĠC ho
Ġeval uate
Cannot Contain
y ou
Key Error
nsup ported
ĠL abel
peri ments
^ ^
Ġw a
ron tend
Ġmap ped
Ġtr unc
M i
h uman
y ield
tra it
ĠTw isted
j d
Ġf rozenset
pa ren
Ġfoo ter
Ġg uess
sub set
Ġopt parse
s lave
State ment
I m
al ways
Ġf ew
min imum
Ġparent s
loc ator
I i
nt u
Ġme mo
15 0
real m
(" {
ĠM ust
Ġlocal param
Ġsm art
H istory
x ies
Ġre main
], [
Ġad apter
Ġindependent Data
b ut
ĠA LL
Ġde tect
ME M
XX XX
Ġprom ote
we ak
is ing
Ġmin utes
par ty
for mer
Ġo l
ĠGe o
as ource
Ġassign ment
y r
ĠS end
cal ler
com bin
Ġsend ing
A WS
n w
Fe atures
A k
Ġd x
ĠD OM
S ING
Ġs in
al bum
RE GI
Ġcomp atible
names paces
cal culate
.* ?
lin alg
code c
=" /
Ġ200 6
region s
ur ations
Ġsh ard
Ġdif ference
Ġappen ded
Ġpa y
Ġro bot
Ġliter al
A U
M K
Ġdescri b
m ultip
Ġc ar
pa use
ĠC ase
T D
P l
re pos
() '
IP v
profile r
Ġmar gin
stra il
TER N
Mo ve
Ġpro ps
view er
Ġprefix es
One ToOneField
pre dicate
work sheet
AG ES
In tended
Ġreg istration
R S
Q o
n umeric
âĶĢ âĶĢ
i ence
Ġ serve
Queryset Equal
V O
it able
32 6
LO AT
Inst all
n f
Ġl b
([ ('
W K
200 9
ABLE D
[ [
f loor
po ses
EN G
Ġspecify ing
gre es
L ong
bu ntu
bo th
tes ted
semb ly
V N
n v
ke eper
Clean up
OUT PUT
Z o
Ġres olution
top ics
Ġgra d
ĠC H
str ategy
Comp ute
Ġcate gories
Ġas ync
serial izers
T OP
ĠP ort
Co effs
comp iled
