#version: 0.2
Ġ Ġ
ĠĠ ĠĠ
ĠĠ Ġ
ĠĠĠĠ ĠĠĠ
i n
s e
o n
a t
o r
e r
e n
Ġ =
Ġ t
ĠĠĠĠ ĠĠĠĠĠĠĠ
r e
s t
) <
d e
a r
a l
a n
l e
r o
Ġ i
> <
: <
u t
i on
l f
se lf
c h
i t
ĠĠĠĠ ĠĠĠĠ
, <
m p
g e
m e
Ġ p
Ġ f
l o
a s
c t
e d
d i
Ġ self
c e
Ġ n
h e
Ġ c
Ġ "
Ġ in
in g
Ġ s
Ġ re
en t
e x
r a
p e
o de
Ġ m
ĠĠĠĠ ĠĠĠĠĠĠĠĠĠĠĠ
Ġ a
u r
i d
Ġ o
i z
Ġ b
i g
Ġt he
Ġ #
at e
a d
a ge
u n
) :<
u e
Ġi f
on e
de f
l a
u m
p ut
o t
c k
Ġ w
s s
e l
ode l
at a
p t
Ġt o
or t
an d
iz e
ar g
ex t
Ġf or
l i
u l
Ġ d
Ġ (
st r
t o
c on
p o
N one
en s
. <
" "
in t
ur n
c o
or ch
t urn
se r
ro m
a me
e m
arg s
ge t
Ġ -
mp ort
Ġi s
se t
] <
or m
Ġ None
Ġ def
( <
u p
r an
s ize
v al
v i
i l
Ġre turn
Ġ as
t h
at ion
Ġ 1
y pe
at h
at t
e p
p ro
h t
ĠĠĠĠĠĠĠĠ ĠĠĠĠĠĠĠĠ
l en
er s
p ar
( )<
- -
i m
Ġc on
Ġ T
s h
Ġt orch
Ġ '
o l
q u
f rom
Ġ *
( )
Ġ [
e t
_ _
i c
k e
Ġ g
Ġ di
= =
at ch
v e
ens or
m a
o ut
m odel
( "
f ig
t ext
i s
Ġ h
Ġ lo
o d
d ata
Ġi mport
e s
st ate
i me
as k
em b
a m
Ġ and
Ġ {
mp le
# #
ct ion
Ġ" ""
v er
" <
Ġn ot
Ġ +
Ġ 0
Ġo f
Ġ )<
" )<
d er
a b
it h
ul t
n ame
al l
" ,
t ype
i le
ig ht
f f
ĠĠĠĠĠĠĠĠ ĠĠĠĠĠĠĠĠĠĠĠ
Ġ el
la y
p ath
ra in
Ġ A
Ġ= =
st ep
p p
in e
emb ed
a mple
f orm
pt ion
re s
d ing
ch e
to k
mp t
r i
Ġ e
Ġ <
Ġ C
u s
as s
Ġ ex
ke y
[ "
Ġ S
Ġ me
Ġ de
r ue
> #
a pe
en d
c l
p re
Ġ L
) .
di ct
Ġ 2
Ġp ro
Ġm odel
Ġ x
Ġ str
Ġt h
" ]
Ġp ar
s c
ser t
Ġo ut
Ġ `
Ġel se
al le
. _
Ġ P
n um
" :
t er
Ġm a
val ue
ran s
w a
e st
s p
i f
Ġ se
Ġ""" <
Ġ- >
p er
Ġd ata
vi ce
Ġ F
) )<
q ue
in put
ar d
ent ion
Ġas sert
u se
li st
in it
e w
sh ape
Ġn um
ab le
Ġw ith
Ġ l
Ġ args
ct or
o w
che ck
i st
con fig
di m
. .
m ask
Ġc o
d en
Ġ or
Ġ D
alle l
Ġ get
t ime
r or
ce ss
al se
en ce
an ce
Ġ _
Ġ R
] ,
or e
Ġ I
i se
== ==
iz er
g ra
Ġ r
t rain
id den
wa it
att ention
lay er
lo at
it ion
Ġi m
g th
po int
m ent
o s
he ad
e ight
out put
r int
lo ck
l y
len gth
o c
u le
Ġ st
a se
i mport
t ensor
co der
lo ad
-- --
" ,<
p y
Ġb e
de x
a ck
im age
' ,
id s
## ##
0 0
Ġin put
p i
cl ass
Ġout put
) ,
Ġlo g
( '
el s
rans form
T rue
Ġs h
Ġ en
Ġ /
de d
Ġ O
que st
en er
at or
Ġp re
w ard
y n
Ġa wait
od ule
b atch
la b
an n
t orch
= "
a pp
di r
Ġp age
ro up
tok en
t a
u b
l ine
Ġto k
b ut
ar t
par allel
ran k
Ġ an
step s
embed ding
a ve
i al
Ġf rom
Ġt ime
par am
) ,<
pro mpt
s ample
f ile
lo g
b o
[ '
Ġp rint
Ġ M
u re
Ġ v
c al
Ġ :
d a
po s
Ġre s
str i
en se
yn c
w or
Ġ un
qu er
Ġim age
ma x
on se
ent s
Ġ on
mp l
Ġn p
Ġ U
o m
n orm
Ġ use
Ġ >
ce s
ption al
c ode
p s
Ġ ch
state s
Ġ len
o b
Ġin t
quer y
r ror
ss age
E rror
in f
Ġcon fig
ch ed
c a
g at
Ġ 3
[ :
ar get
de vice
j e
i ve
data set
r on
i x
C on
w eight
a ult
Ġ j
ad d
check point
Ġ k
Ġ y
th od
Ġdi m
ut e
Ġ ro
il s
} <
' ]
w args
con t
d s
app end
st ance
g er
Ġ E
ran ge
Ġ W
ic ense
i as
pe c
it y
Ġ B
li c
t r
pro cess
Ġ ra
tok ens
p a
att n
() .
un ction
ĠĠĠĠĠĠĠĠ ĠĠĠĠĠĠĠĠĠĠĠĠĠĠĠ
Ġb atch
t e
Ġt ext
b u
c u
l it
lo w
f or
F alse
Ġ N
o k
un k
f loat
Ġ __
"" "<
in dex
Ġma x
h idden
e at
' )<
Ġp o
an g
Ġw h
ch ann
( ):<
T ensor
Ġ value
Ġn n
i r
Ġ V
Ġf ile
i p
an t
k wargs
ra me
o ur
Ġt est
Ġ all
stri but
ĠL icense
) :
re d
lo b
ht t
b lock
Ġt ensor
ro w
c or
s on
Ġpro mpt
in d
" )
] )<
g roup
s w
Ġ G
n ion
y p
Ġ key
Ġt rain
f t
pe line
co m
u ser
Ġcon text
u mp
' :
n n
p h
ransform er
Ġ state
ar y
a v
.. .
Ġde vice
ow n
m o
pe ct
b er
n e
Ġtok en
/ /
ched ul
gra d
ce pt
o p
e val
l at
o ol
Ġn e
sc al
Ġth is
us ion
Ġs ample
pt im
con text
f a
] .
re ct
qu ence
Ġi t
Ġ* *
b s
ĠF alse
Ġ list
ur l
chann els
==== ====
ĠT he
lo ss
je ct
__ (
Ġs up
ra y
: //
ĠĠĠĠĠĠĠĠĠĠĠĠĠĠĠĠ ĠĠĠĠĠĠĠĠĠĠĠĠĠĠĠĠ
ser ver
b ack
ĠT rue
embed s
stribut ed
Ġb y
qu i
Ġpar am
id x
m b
I N
] ,<
( [
st art
Ġ( <
param s
Ġo s
Ġ al
yp ing
Ġra ise
gat ron
t est
inf o
in al
ur r
Ġ set
i v
ut ils
â ķ
ar ray
Ġth at
lob al
j o
ĠR e
ul d
r it
Ġh idden
Ġre sp
m l
it s
il l
val id
Ġdata set
Ġn o
chedul er
d ro
ff usion
un t
it em
i ct
in stance
Ġ la
ump y
Ġn ame
or y
vi ew
o u
#### ####
O N
Ġresp onse
Ġ attention
embedding s
um ent
âķ Ĳ
o uld
Ġ[ ]<
at ed
en coder
a c
z er
Ġt ype
[: ,
con d
g s
l l
u al
âķĲ âķĲ
Ġg ener
d type
t ers
ation s
er ror
' <
Ġm ask
p ort
po ut
per t
n p
Ġa re
Ġ+ =
u st
Ġ 4
cu da
Ġd o
lay ers
er ence
r y
Ġ range
ĠO ptional
Ġcon t
T E
m odule
Ġ %
Ġt yping
Ġ @
Ġres ult
lo c
f eat
se s
p age
un d
up le
il d
ers ion
b ias
Ġa d
---- ----
p u
d ate
re ate
vi s
un c
Ġc l
= '
i es
Ġd type
v el
s o
l d
m in
me thod
Ġc a
cont ent
sp lit
le ment
our ce
ame ters
a ct
a i
Ġh as
Ġel if
c li
Ġp os
Ġ \
n t
Ġin it
f g
form at
" ]<
m at
3 2
and om
ro t
Ġis instance
Ġlo ad
htt ps
ext ra
Ġlo ss
scal e
Ġco mp
Ġb ool
Ġdef ault
f ix
er n
R A
E N
le ct
n ing
re e
di ces
Ġ H
Ġas ync
1 6
Ġfor ward
Ġs ize
od y
t arget
Ġw e
Ġp ad
Ġb u
se q
p onse
ion s
ch unk
me ssage
r ight
Ġme gatron
Ġlog ger
n d
p en
lab le
it er
M odel
ma in
ptim izer
Ġ{ <
t on
n et
R E
wor k
n o
c at
c ore
ot al
urr ent
g ener
Ġw or
res ult
P T
ir st
Ġsup er
po se
head s
g ing
sc ri
Ġg ra
o ff
Ġs o
ĠĠĠĠ Ġ
Ġa c
S E
S t
al ue
row ser
sw er
Ġn orm
Ġn ew
ar i
a ch
Ġin dex
Ġt arget
ig n
a y
Ġ layer
* *
Ġw eight
Ġp er
Ġex cept
Ġ )
re t
jo in
Ġf loat
en v
ver t
la ce
co l
co unt
0 2
Ġre qui
Ġre quest
Ġ query
b ase
á ´
T I
ff er
Ġ q
" :<
ind ow
n ew
e c
se d
a f
j son
Ġme ssage
i o
re ad
turn s
ar ded
f rame
ĠA r
. """<
Ġ up
u res
l er
v ent
i peline
pos ition
Ġ .
er e
L I
D ata
me an
x is
a ction
Ġc or
b e
ĠI n
re p
Ġp ath
D E
b le
ro ss
sample s
I n
Ġg roup
att r
Ġtok ens
Ġs pec
} ")<
Ġi d
ine ar
ĠU nion
ĠC o
p ad
lab els
po ch
im g
ctor y
h is
Ġun der
lo cal
ma p
( (
vi de
Ġme thod
h o
># <
co mp
and le
token izer
u g
w ith
t ra
m s
1 2
Ġ !
ta in
i mpl
re quest
] :<
b y
ad ata
f unction
Ġ rank
Ġdi ct
s ave
Ġo b
st at
ĠRe turns
M odule
ĠV alue
a g
Ġf unction
oc ab
ar ch
R e
y s
d f
Con fig
Ġ he
Ġ! =
s pec
as ync
() )<
Ġ le
Ġl at
i de
Ġw ill
po st
Ġs cal
O R
id th
Ġa pp
li b
Ġ at
ce ption
Ġ checkpoint
ĠL ist
s ub
com m
Ġ server
t rans
g lobal
o us
s um
ĠE x
ĠValue Error
d oc
o ad
dro pout
m age
res ponse
le ctor
image s
pp ing
P ar
` `
on g
[ -
Ġm o
u ate
m m
iz ed
Ġst art
t ransformer
Ġad d
train ing
di stributed
qu at
ut ion
ĠS e
lab el
g re
ĠAr gs
Ġ 5
) )
Ġt ry
D I
train ed
Ġs ub
Ġ step
Ġe lement
arg ument
Ġtoken izer
Ġb lock
con v
... ,
a st
tr ic
th er
r un
Ġsh ape
f erence
ĠT his
pre d
t t
ĠĠĠĠ ĠĠ
n y
value s
c all
ss ion
if i
a mpl
b ody
P I
Ġ us
Ġim g
Ġc ol
Ġn umpy
m ory
ro l
mb da
n ode
d own
ob s
Ġ check
a ce
( -
u age
ang uage
f il
ep s
pi peline
Ġ\ <
z e
l p
Ġ/ /
Ġc an
se ed
ĠI f
o g
Ġ{ }
ro p
Ġr un
Ġy ou
> >
A S
f n
Ġ }<
ht ml
Ġon ly
] )
Ġtime out
u id
Ġb ias
ĠC on
O ptional
Ġcl ass
' )
f unc
Ġpos ition
int er
t adata
w w
Ġt e
t ask
Ġ attn
c fg
Ġro t
bo x
c pu
di v
Ġa ction
l in
ri x
an ge
Ġ z
et a
n g
la st
Ġre t
i el
Ġuse d
gat ive
in dices
. ")<
" {
L E
Ġparam s
w e
iz ation
key s
S T
Ġb ut
bo ol
ul l
Ġ ):<
Ġs p
A R
ic ro
Ġ[ <
Ġ K
Ġcor rect
ig inal
s cheduler
u c
ex p
se quence
Ġen coder
T ype
Ġo pen
e f
zer os
6 4
um ents
Ġc all
if ic
rit e
u d
gra m
Ġpar allel
Ġm atch
is ode
Ġj son
< /
Ġ ...
u me
Ġ head
vis ion
c lo
ig h
âķĲâķĲ âķĲâķĲ
Ġ[ "
Ġe val
eval uate
for ward
P ro
Ġnum ber
Ġno ise
] ]
Ġc ode
o f
o und
v a
p atch
E R
Ġto p
= -
Ġtrain ing
Ġ> >>
l r
def ault
> )
str ing
wor ld
Ġse quence
Ġh ave
Ġch unk
Ġm odule
s q
' ,<
L inear
P A
u ce
ĠP age
Ġ error
Ġe ach
(). __
__ ()<
S e
Ġdi stributed
ol d
Ġsh ould
str u
Ġma y
Ġin ter
) .<
par t
ĠĠĠĠĠĠĠĠĠĠĠĠĠĠĠĠ ĠĠĠĠĠĠĠĠ
t ransform
feat ures
n umpy
or g
> @
o ver
zer o
st er
em a
ĠA ny
Data set
[ ...,
i ss
r t
er ver
g pt
G E
m it
ĠĠĠĠĠĠĠĠĠĠĠĠĠĠĠĠ ĠĠĠĠĠĠĠĠĠĠĠ
ep isode
pect ed
ath er
weight s
item s
ck et
' s
Ġ length
======== ========
ing le
e poch
Ġpro cess
p rint
" .
Ġa ct
Ġ end
ĠD ict
uid ance
Ġd oc
re f
w ar
Ġt otal
htt p
ot ion
Ġwh en
A L
int s
lic y
v ersion
a pi
Ġs ave
Ġ valid
ca che
T H
ĠS t
Ġm in
l u
ex pert
n ot
re g
= {
um n
loc ator
le s
vide o
ob j
ult i
ut o
th on
Ġf irst
sh ould
Ġc urrent
1 0
F I
v ed
"] )<
Ġt ransform
D i
Ġg lobal
ay er
se nt
re am
dro p
ph a
E S
pre fix
wor d
Ġstr ing
Ġpar t
P U
m ode
ig ma
Ġp y
Ġ user
b in
all y
Ġ one
time steps
o i
t he
mpt y
a k
######## ########
quest ion
Ġ ]<
a re
en ame
Ġ arg
Ġpar ser
Ġb ase
} "<
ro ot
} .
Ġf eat
Ġ extra
b ar
\ "
Ġus ing
Ġ li
ri e
_ (
; <
Ġi ter
di ffusion
Ġt ask
iel d
scri ption
Ġla st
point s
r andom
pa che
Ġsp lit
af et
ĉ ĉ
ar k
it le
que e
Ġm at
ai lable
i ble
quee ze
la ma
Ġn ode
r id
as ses
time out
ot o
to p
fa ctor
` ,
Ġscal e
Ġ embedding
en c
ke ep
mpl ate
group s
or es
up date
oad er
norm al
off set
() ,
if t
Ġc li
Ġcon d
E x
s queeze
' ]<
R es
Ġp ass
sp ace
pre trained
model s
cl s
Ġrequi red
an swer
Ġpad ding
Ġlo cal
Ġa xis
Ġo ptimizer
un et
st em
d o
er nion
Ġco py
' .
Ġinit ial
M A
u de
log its
00 0
' :<
re shape
l m
mple ment
Ġ` ``
block s
Ġex ist
rep lace
n er
ret ro
TI ON
re ctory
w indow
g ent
v ar
bu ffer
Ġc reate
Ġimage s
d b
Ġd own
input s
k v
ame ter
Ġen um
or der
le vel
vi ron
pt h
par se
i ch
di ction
Ġs c
Ġco mm
Ġt ra
de coder
ult ip
r c
v ocab
he ck
ĠS erver
Ġr andom
ern el
pro bs
id ual
Ġse q
ist er
Ġ https
Ġinput s
ĠN ot
y stem
ro pout
Ġ url
Ġcont ent
pro j
a u
f o
t es
> )<
"] ,<
er ate
P ipeline
quat ernion
D ict
= [
Ġf rame
cor rect
L O
Ġ{ "
result s
ut put
N orm
n s
O U
lat ents
ft max
alle d
se lect
d m
ri but
Ġvalue s
Ġlat ents
par ameters
name s
init ial
afet y
Ġ |
gra ph
at ure
f p
ate g
tensor s
ĠP ath
num ber
a ded
g oto
ĠS h
Ġin to
a mp
di st
ve ctor
Ġf a
ot h
Ġ embeddings
Ġ= >
Ġdi ff
ĠP ar
ĠD ef
Ġ Y
co py
Ġbu ild
co ding
ption s
L ist
w rite
le ase
ok en
Ġb ack
u ous
and ler
Ġ }
inf erence
il ity
Ġ{ }<
g n
L M
ens ion
tric s
Ġm ust
Ġb rowser
ed ge
ol low
Ġpo st
Ġsup port
A tt
y le
() ,<
Ġenum erate
ur ation
"] ,
Ġ 8
Ġgra d
att ern
Ġo ver
Ġ mp
ol ution
but ton
ml p
Ġne ed
le ction
c reate
Ġwh ich
line ar
Ġv ari
op en
w idth
ro ute
al lable
I mage
k ip
Ġne gative
Ġid x
Ġc fg
as h
cor d
clo se
va e
02 4
. __
ĠD ata
Ġb et
iv ation
ca y
ĠCo py
" ):<
at io
sc ores
Ġlog ging
g ine
Ġp ipeline
lin es
Ġwor k
Ġ" /
re q
Ġf il
le an
Ġ" <
trans pose
a p
c urrent
o ptimizer
ut h
wa re
le d
Ġin st
or s
re turn
to ol
. "<
ĠU n
ĠEx ception
Ġ( `
a x
id er
se arch
lo t
able d
stri p
h at
Ġen v
w right
re sh
le ss
Ġla mbda
st ack
me mory
lay wright
se lector
sh ot
} ,
d d
i sh
ex ample
] [
Ġgener ate
Ġt r
Ġw indow
Ġ Q
t ing
ra w
mo ve
Di ffusion
Ġro ot
A I
iv en
ab s
Ġex p
l ation
en code
Ġlog its
RA N
Ġin dices
ith er
a in
u ff
Ġl ine
Ġan y
Ġn ext
IN G
q dm
Ġmodel s
Ġme an
ro und
Ġa v
scri pt
de ta
Ġs ame
Ġan swer
m atch
E M
F loat
Ġex ample
h andle
t otal
Ġma pping
f irst
Ġit em
mb ed
Ġ labels
ile d
Ġ> =
s ource
Ġpar ameters
Ġo ther
ob ject
f l
B lock
m icro
cli p
f ore
g ment
s ync
ĠCopy right
Ġre f
Ġma ke
module s
Ġp i
dataset s
e mpty
Ġof f
Ġweight s
c ross
ct x
ll m
Ġresult s
ifi er
L ayer
m an
m ark
e ad
Ġw idth
w o
ig uous
so le
N et
n ext
ent ity
Ġex pre
mat rix
Ġrequi res
A T
Ġ keep
al c
fa ce
ent ial
ĠT ensor
ce ler
use d
lo s
Ġfor mat
Ġdi s
P E
( *
ed it
nd array
stat us
in s
low er
"] .
-------- --------
ex ist
Ġas s
message s
de code
Ġf in
te mp
lic ense
un squeeze
is ion
C H
Ġs ource
\ \
D O
h en
st d
Ġcon v
Ġe ither
te mplate
' t
g ather
r ate
one s
ut il
att en
t itle
Ġs um
5 6
2 0
Ġcon tain
Ġhe lp
M E
c ur
load er
Ġdo es
` .<
Ġ J
Ġ val
Ġor iginal
ck pt
a xis
Ġob ject
ĠDef ault
Float Tensor
Ġch ann
pa re
di ent
" ).
m otion
a it
ampl ing
S cheduler
pro b
Ġg iven
t uple
Ġt uple
Ġw rit
r and
Ġm ode
ĠF or
ition al
M e
O utput
en der
et un
f ter
or a
Ġ 6
me tadata
Ġs ys
py thon
at al
er ge
ex ec
Ġnorm al
ol der
p lace
re qui
Ġme tadata
Ġspec ific
ww w
C EN
t k
Ġf ollow
reg ister
v ari
user s
gener ator
Ġpre d
A U
P RE
se nd
st age
O DE
type s
Ġmessage s
in ue
Ġin ference
im ers
ft ware
Ġte mp
Ġ att
cl asses
per m
av g
Ġl anguage
Ġhe ight
Ġmp u
l an
en gine
_ {
Ġt qdm
ra c
Ġ< =
a ke
di o
ent ype
ith ub
no ise
r atio
Ġto ol
av ailable
gener ate
red uce
ĠSe e
w ise
pe at
mple t
Ġ: ,
g t
] (
file s
y z
Ġ1 2
bu g
L U
gre ss
CEN SE
Con text
Ġm ath
Ġs ingle
ĠC heck
Ġma in
cont iguous
att er
Ġn on
= (
m iss
ac c
de scription
Ġb ody
I S
Ġ layers
as set
g ithub
us al
v ider
it ies
ag ent
e vent
frame s
ifi ed
l anguage
er ature
Ġe vent
Ġsample s
) ]<
st able
comp ute
la mbda
Ġse lector
ul ate
ser v
T rain
T oken
if y
fil ter
g uidance
Ġdi ffusion
ĠM odel
ĠT ransformer
Ġf ound
po licy
Ġdi rectory
cli ck
ch oi
qu ant
Ġde coder
Ġcomp ute
av ed
it e
Ġpre fix
) ):<
bu f
Ġca ption
Ġup date
Ġi mp
po p
Con v
Ġme mory
" ),<
m up
er t
Ġk ernel
e y
re ward
Ġo bs
ca st
} \
li ed
c v
Ġin stance
ampl er
stru ction
Ġwor ld
H T
ĠT uple
FI X
ar ning
st ant
__ (<
r g
vi ded
g rid
di s
ultip le
T O
( {
pro pert
ne ction
me ta
Ġtime step
Ġ http
ĠY ou
Ġse lect
F or
x t
f ree
Ġex ec
la x
Ġh andle
Ġsh arded
igh b
Ġv ocab
) [
L A
u ct
bu ild
E n
Ġre ad
de cay
ateg y
Ġj o
me di
doc s
viron ment
ho ok
Ġwh ile
uc cess
g o
at ing
check er
ug ging
Pro cess
Ġ quaternion
je ction
Ġgener ator
so ftmax
ema il
Ġin s
ĠI mage
atal oader
PRE FIX
F ore
ver y
o id
t able
Ġs cheduler
w ra
c ent
sw ith
on ly
Ġso ftware
- <
Ġt wo
c s
m y
ĠĠĠĠĠĠĠĠĠĠĠĠĠĠĠĠĠĠĠĠĠĠĠĠĠĠĠĠĠĠĠĠ ĠĠĠĠĠĠĠĠ
Ġiter ation
) ))<
chann el
OU T
ĠP ro
fil ename
R O
ro le
f ul
bo ok
ĠG PT
sq rt
Ġhas attr
Ġd ropout
ĠV ersion
mbed ding
ĠW e
s m
pro d
a ger
Ġt ransformer
Ġse nt
log ger
Ġli mit
l lama
Ġr ight
Ġtime steps
cli ent
ul ar
Ġstr ide
n ow
Ġ steps
off load
ĠO R
Ġasync io
} )<
Ġ eps
Ġlo w
ar r
ĠA pache
f inal
ut ure
Ġ1 0
batch es
rie ver
Ġt rans
li ke
Ġdi st
Ġex pect
âķĲâķĲâķĲâķĲ âķĲâķĲâķĲâķĲ
ĠĠĠĠĠĠĠĠĠĠĠĠĠĠĠĠ ĠĠĠĠĠĠ
Ġpro b
sc ore
Ġapp lic
pp ed
v ant
1 1
o se
St ate
ist ory
D e
I TH
o x
pre v
Ġex pected
Ġ 7
ch at
ĠC ON
app ly
Ġi gn
output s
ched ule
P ath
am er
Ġmat rix
() `
Ġ ent
Ġs igma
" ))<
Ġ ),<
Ġkey s
P O
Ġlo c
P re
C o
Ġpro vided
Ġun et
qu al
p ass
ct ed
ĠPar ameters
Ġor der
M ix
ĠO F
Ġrequest s
C T
li ce
back ward
ĠA N
Ġz ip
Ġfollow ing
Ġa pi
Ġoutput s
Ġf inal
al pha
ate s
Ġk wargs
pi pe
Ġpo ints
Ġcl s
T he
Ġp atch
Ġst at
exist s
9 9
an s
Ġd rop
con ds
ve c
Ġob tain
pp er
en ch
Ġcont inue
S I
Ġ label
L T
Ġ zero
Ġc alc
re ak
ad a
Ġan g
sh arded
Ġre g
Ġex pert
>< /
cont rol
Ġs in
co s
end s
we en
. ,
ĠI S
Ġ embed
ke le
ĠA PI
ĠD i
Ġtransform ers
f in
i e
pt er
ĠR et
ä ¸
'] )<
U nion
as on
s igma
"] [
Ġal pha
kele ton
â Ķ
pre diction
Con t
resh old
ĠP y
process or
we b
t xt
Ġ- -
Ġc ase
TION S
he ther
h ave
Ġro ute
1 00
f c
cl ude
tr y
ang le
in ed
ust om
re peat
feat ure
Ġstr ict
Ġdim ension
par ser
ĠW AR
st op
ĠA tt
). __
or age
Ġ1 00
Ġspec ified
ss i
Ġfor m
af ter
chunk s
Ġdoc ument
v ents
ol ver
iter ation
by tes
perm ute
Ġs cor
process ing
b rowser
Ġoff set
t ils
able Diffusion
Att ention
fl atten
or iginal
Ġth en
s afety
lo aded
Ġv ersion
Ġapp ly
ann ot
Ġdiff users
Ġre d
tok entype
'] .
work ers
stat ic
f ull
Ġe poch
episode s
c ision
Mix in
E X
ODE L
ĠAN Y
Ġexpre ss
b i
o pt
vis ible
o ptim
ol ve
Ġi mplement
qu ential
ĠM e
Ġtensor s
ck er
le te
ab ility
pad ding
m ul
PT Y
ribut e
miss ions
f i
Ġcond ition
EM PTY
Ġwrit ing
ĠP re
Ġbet ween
Ġg pt
Ġch ange
ĠW ITH
Ġfile s
ĠWAR RAN
' '
Ġw as
Token izer
3 0
u ation
st amp
ĠS et
Ġse ed
li ance
n on
IN D
) ).
T ext
l t
Ġs q
Ġs core
TI ES
gre ed
PA GE
A N
pe ed
ri pt
Ġ[ `
jo int
Ġper missions
ĠSh arded
Ġ- --------
um an
ne gative
ĠWARRAN TIES
deta ch
propert y
: .
de bug
la g
uff le
Ġapplic able
F AU
as sed
ort ed
Ġg uidance
Ġde ta
FAU LT
1 4
l ong
ĠA ll
Ġ``` <
b one
} /
Ġal low
LI CENSE
d p
ver age
"] ["
L oc
k l
Ġm lp
la p
Ġla w
L icense
") ;<
cat en
[: -
sw ers
ĠA uto
Ġl r
h f
ma y
f low
ut f
Ġm ore
ĠK IND
ĠWITH OUT
h andler
comm on
part ition
Ġex c
Ġfeat ure
M ODEL
license s
Ġa fter
Ġcomp liance
read y
he ight
ma pping
ĠR es
ang les
col umn
A PI
Ġ" \
Ġo ptional
po ol
Ġde l
t yping
(' --
ume l
ar ange
di ff
Ġa greed
Ġg over
Ġth an
ĠLicense d
Ġlimit ations
a pache
q a
vi ous
ĠB AS
Ġimp lied
ur ing
DI TIONS
ĠCON DITIONS
Ġgover ning
ĠBAS IS
Ġca che
offset s
ĠUn less
r ng
Ġj np
ĠB ase
( \"
Par allel
celer ate
5 5
cond ition
Ġs ure
ic s
may be
in v
Ġcon vert
ĠC LI
Ġpy test
a red
Ġs rc
Ġb reak
ĠĠĠĠĠĠĠĠĠĠĠĠĠĠĠĠ ĠĠĠĠĠĠĠĠĠĠĠĠĠĠĠ
im um
al og
ro ad
ĠW hen
R L
i que
(" --
ms g
Ġlat ent
Ġ vector
Ġget attr
in k
p df
Ġpo int
Ġign ore
s im
x yz
or d
le ft
Ġst ream
I L
l ate
ĠDefault s
ĠG et
down load
ĠĠĠĠĠĠĠĠ ĠĠĠĠ
Ġc ur
ĠT O
ĠB rowser
ise s
call back
Ġ ..
Ġa b
head ers
Ġa gent
B ase
ro py
st ream
) }
Ġ video
pro vider
le ar
ex pected
Ġme trics
mask s
Ġbe fore
Ġcont rol
ĠNot e
medi ate
col or
de pth
Ġs kip
` <
Ġ question
in st
Ġcall back
p on
Ġ" "<
ver se
Ġit s
G ener
e ded
sh ift
var s
Ġdataset s
al f
exp and
war mup
Ġvari able
p ack
di c
E mbedding
Ġb s
ic al
enc y
Ġwor d
ra g
Ġen coding
ĠG PU
ĠCo mp
expert s
Ġarg uments
t p
cl one
Ġres idual
Ġmo ck
static method
d ump
en able
Ġwh ere
Ġw ait
ri er
Ġrot ation
transform ers
M P
Ġcomm and
au ssi
u ch
action s
Ġ--------- -<
Ġpo ol
c re
sc re
Ġc urr
Ġcon sole
f er
o ption
Ġt imers
do main
st yle
ro ll
Ġo ptim
war ning
um ber
rot ation
AT A
Ġpre dict
Ġ} ,<
Ġbut ton
T ransformer
que ue
mask ed
h ar
me trics
Ġm ultiple
G HT
um ul
lat ent
c ase
h as
m ary
ĠC allable
N A
de v
Ġs ystem
Ġ' <
loc ation
Ġp assed
Ġd one
function s
p lot
Ġt able
spec ial
Ġen code
] ["
Ġa x
Ġ* ,<
(" /
á´ ĩ
caten ate
: ]<
Ġper form
los ses
Ġins pect
S tr
Ġm ulti
av ing
Ġf p
function al
comm and
a uto
Ġp a
ĠR un
length s
wor ds
C K
L oader
Ġfor ce
Ġd uring
Ġsh ard
Ġcli p
ri es
ĠC reate
class ifier
Ġgener ated
t ree
act ivation
road cast
path s
rot ary
DI R
choi ce
Process or
0 1
h ot
s ystem
ĠU tils
B u
t rue
Ġpre v
Ġy our
Loc ator
ï ¼
Ġro w
e ff
Ġ" .
Ġdown load
Ġ array
Re quest
V I
] ):<
i b
re cord
Ġf ind
dim s
3 4
s rc
F a
f e
} ,<
Ġ emb
di rect
F orm
F rame
Ġun cond
' ):<
Ġc re
un ch
con vert
Ġ ext
are a
p ri
pi ed
class method
ac y
s in
an k
le g
Ġen vironment
Ġchann els
L o
st ra
Ġst d
Ġch ar
> """<
g pu
scal ing
Ġhead ers
Res ponse
C ON
Ġre p
ĠTO DO
d ataloader
Ġ[ '
form ation
Ġre cord
time step
Ġ $
Ġgener ation
n umel
o ptions
f w
m ath
w h
Ġt k
Ġm an
Ġ ctx
Ġt p
ffer ent
f ind
f ill
et ch
4 8
ĠE n
Ġt mp
Ġc alled
un ter
pre sent
ob serv
f req
res pon
ces sed
Ġse arch
T o
am s
ut ed
par ent
start swith
Ġal ready
Ġt er
Ġg t
Ġ_ ,
stru ct
S h
epoch s
c alled
ĠĠĠĠĠĠĠĠ Ġ
Ġf ree
ser ved
Ġ{ '
Ġbase d
Ġpi pe
re ss
Ġst op
Ġc lean
ho st
etun e
5 0
it ial
ble m
age s
ir s
bo ard
it ude
Ġ argument
se ction
Ġo ption
Ġreturn s
Ġsh ift
" \
g round
Ġ á´
re ction
ix ed
lat ive
ĠP IL
gra ms
l ens
Ġact ivation
Ġcol umn
Ġrank s
' ],
e lement
Ġ ).
at ive
Ġc ustom
Ġres net
ĠG ener
Ġ &
Ġh ere
ta g
ign ore
Ġrot ary
Ġfil ter
Layer Norm
and b
lat form
tra ce
T ime
attention s
iter al
ud ent
Me ssage
ĠRet ro
Ġc ross
Par ameter
################ ################
Ġse ssion
pipe lines
K E
d one
re move
it ive
ul er
s ingle
den se
Ġtemp erature
Ġfil ename
Ġscor es
D P
re set
Ġi ds
ot e
ction ary
I mplement
i mple
ð Ŀ
Ġ1 6
Ġ' .
Ġde pth
Ġcon s
Ġde scription
Ġsupport ed
Ġb in
ting s
requi res
A rg
b it
Ġm erge
ĠData set
ada pter
c ut
Ġ ver
U n
PA RA
ighb or
ĠT est
rit er
Ġdis able
Ġsent ence
( **
c urr
Ġs aved
row s
s ign
Ġdi sp
2 2
P o
] ))<
Ġf ull
Ġf ield
Ġl lm
Ġfeat ures
C allable
h er
Ġmask ed
Ġcor respon
ish ed
G PT
L e
size s
Ġjo int
b ot
m as
s ig
Ġpre vious
back ends
N O
g en
} )
Ġ( "
: \
bu cket
Ġbu ffer
ag ster
A n
C li
D ATA
ro d
K ey
l ora
Ġ edge
Ġch at
ca ption
mplet ion
L LE
Ġ 9
ist ant
W e
a ctor
Ġ X
Ġprompt s
Ġextra ct
me tric
Ġm icro
Ġpre diction
position s
in ner
Ġre move
tool s
p l
ra ises
Ġ' {
od al
ribut es
in o
Ġgra dient
up port
Ġ view
Ġb oth
prompt s
K EN
en viron
Ġ< /
Ġco unt
1 5
or ed
ĠD e
cu rac
Ġexist s
N ame
(" .
Ġh o
Ġ: ]<
f older
st om
cu stom
C A
R I
ment s
time s
Ġch oi
c la
pro jection
Ġtr unc
ed Error
ĠL ayer
KE Y
PARA LLE
Ġp ast
ck le
Ġs k
Ġs ign
Ġth ere
Ġpre trained
m ult
Ġ states
ĠT ool
checkpoint s
Ġso me
( _
k pt
de c
Ġl inear
M L
m d
he l
Ġs afety
Ġo pt
Ġra w
[ <
` ]
en e
th reshold
ĠM o
ĠNot Implement
TO KEN
H ead
Ġbu cket
ĠNotImplement edError
c amer
s g
t en
Ġdi fferent
Ġright s
Ġde code
res net
TE R
Ġblock s
Ġcli ent
led ge
c an
Ġp ack
Ġp laywright
our ces
C O
E D
I d
S et
ex it
Ġen c
================ ================
ç ļ
st ore
as sert
pro ject
St ableDiffusion
çļ Ħ
b eta
Ġ ],<
or ig
Ġm otion
Ġa verage
Ġ2 0
Ġ3 2
' ).
` ):<
se gment
Ġin fo
ent ropy
aussi an
un cond
initial ize
Ġconfig uration
Ġac ross
m ulti
Ġ vi
Ġn et
Ġre ward
Ġpar se
ĠCo pied
inter val
Ġang le
a e
con nection
PARALLE L
] ).
t mp
ph as
Ġselect ed
un ic
ri eval
C ol
w d
Ġs im
Ġlo aded
Ġgroup s
P age
` :
i str
se ssion
ar x
layer norm
Ġ ge
Ġo per
C E
S o
Ġre served
Ġle vel
di fi
Ġin formation
res olution
Ġchunk s
Ġarg parse
normal ize
t s
in es
p end
at ial
Ġdi ctionary
Ġ2 02
le vant
ĠA dd
y per
Ġf l
Ġj ust
` .
gra ds
ĠU se
je ctor
i ent
Ġre set
Ġre ference
"] :<
ĠP lease
Ġinst ead
S H
comp ile
con cept
(" \
extra ctor
Ġma p
arx iv
B AL
de lete
Ġs orted
ex pect
gra dient
Ġne eded
] ]<
k ernel
m id
Ġt ake
Ġre present
load s
D A
h istory
Ġp lt
Ġc lo
ma ke
Ġpar ameter
bo se
4 0
av ig
ĠMe gatron
pa c
ber t
Ġinst all
curac y
s lice
py test
ĠU p
ar s
Ġs ampling
sh ard
ter min
Ġchann el
6 8
b et
q kv
s ys
y m
pi x
quest ions
stribut ion
ast ype
LO BAL
or k
Ġ utils
Ġco s
Ġo ld
um my
ext end
" [
mp rod
Ġa ut
mple te
pa ce
cu mprod
ĠH ugging
Ġelement s
vari ance
now ledge
p ng
Ġc kpt
Ġas set
rt ual
Ġfa iled
i ck
Ġb eta
stat s
Ġass ign
M ask
a vi
Ġthe ir
con stant
bar rier
s ampling
la gs
Ġd on
Ġd en
Ġd ate
Ġmethod s
ĠCon vert
Ex ception
g ic
s kip
time stamp
leg acy
en abled
chedul ers
sent ence
str ategy
pre pare
per im
gener ation
a ut
Ġ" ,
con catenate
F ile
N ot
c i
p laywright
Ġ" {
Ġse cond
au dio
V alue
pad ded
Ġloc ator
ĠT e
shape s
lic ate
ib ility
C heck
r ary
di stance
Ġex act
2 5
: %
M S
pre dict
Ġst age
bin s
âĶ Ģ
NA ME
} :
checkpoint ing
mo e
iter ator
C a
j ust
Ġm sg
Ġa p
Ġw ant
ĠC h
Ġposition s
Ġav ailable
etun ing
li p
Ġo p
Ġse gment
Ġrun ning
| >
il ar
Ġma gic
tr uth
R un
} ",
li sm
Ġ edit
Ġc pu
iss ing
example s
) ),
8 0
ent er
tokentype s
se conds
Ġen able
Ġpo p
Ġca st
Ġindex ed
] ],
Ġt rue
pa st
pen AI
ns fw
Ġback ward
G et
Ġ ar
(" <
Ġvalid ation
b f
h ash
s keleton
pre c
alle lism
Cont rol
ĠSharded Tensor
8 4
_ ,
s mpl
ar ge
Ġs chedule
Ġw ra
Ġg rid
DE FAULT
T P
ĠT ask
Ġpro d
log ging
T est
n own
t d
Ġt f
Ġ" _
Ġac cept
ugging face
b lob
at er
er y
Ġpro gress
Ġname s
Ġtype s
l ing
o ptional
Ġsh uffle
ret riever
lu sh
p attern
ri de
patch es
k ed
Ġ episode
ĠĠĠĠĠĠĠĠ ĠĠ
Ġco mb
w s
Ġt itle
Ġin v
Ġre place
co pe
S pec
r ender
ĠI D
je ctory
env s
Module List
ud ge
p c
ge x
con ne
quer ies
ĠSe quence
We b
` ):
e ct
Ġc los
Ġr ender
Ġsc ript
c lean
i form
n one
al t
Ġh andler
A s
E lement
b ench
f lat
Ġh n
h uman
ĠI t
dir name
ĠĠĠĠĠĠĠĠĠĠĠĠĠĠĠĠĠĠĠĠĠĠĠĠĠĠĠĠĠĠĠĠ ĠĠĠĠĠĠĠĠĠĠĠĠĠĠĠĠ
Ġ\ "
ch ild
man ual
2 56
l ass
ut er
ĠD E
Ġbe en
Ġcol lection
1 7
Ġp p
ens ions
pa int
doc ument
\ ")<
h alf
Ġ quant
ens ure
---- --
code s
perim ent
D ropout
u ally
an swers
ff ers
ar range
clo ud
T Y
s uccess
v q
ĠT ext
token ize
ĠN umber
Ġdo main
loc ity
s n
={ "
Train ed
} '
ch ange
Ġ1 024
py torch
Se quential
A ny
ent ry
th is
Ġor ig
Ġ{} ".
Ġ heads
fo o
reward s
ch ain
Ġf ew
Ġn ow
ĠT ype
ific ation
Ġtask s
Ġt ree
sh ort
Ġg o
Ġra di
wra p
C h
Ġ vision
me l
Ġse nd
Ġst yle
> ):<
di sp
el y
str ong
Ġdi rect
ĠQ u
( __
I D
P RO
] ],<
di rectory
N o
Ġt re
sp an
Ġwith out
Ġq kv
i k
m erge
t ed
feat s
Ġgra ph
lib rary
cla mp
in struction
og le
M Scheduler
f usion
} ')<
Ġin clude
() )
yn am
p ers
Ġd b
il on
out e
ĠA n
ĠL o
Ġy ield
Ġaction s
Ġ Error
ĉĉ ĉĉ
man ager
E vent
Y ou
c ing
p g
Ġ' '
res idual
for ce
Ġmatch ing
Ġeval uate
Ġpart ial
: ]
f y
} {
Ġ 64
re cv
Ġlo op
LI GHT
b ers
Ġthe y
data class
") ).
T A
W ith
p lit
Ġ" --
Ġre lative
Ġme tric
Ġret ro
Att n
Ġstat us
f ew
de g
ĠL iteral
Ġres olve
Ġkeep dim
observ ation
i ces
s ide
Ġeval uation
G S
e os
g in
ge lu
Ġf req
pro gram
Ġdi r
L oad
as ic
Ġs aving
Ġdi sc
ne ss
dic ate
" >
F ace
Ġs uccess
Ġpar allelism
Ġse conds
Ġinitial ize
Ġo ptions
Ġe mpty
ari a
ĠCon v
" ),
3 6
C LI
Ġre ason
Ġb o
ve locity
SE T
Ġ{} '.
iel ds
object s
stra ct
head er
00 00
ces ses
Ġload ing
me gatron
Ġdi stance
Ġh igh
est ed
ap shot
Ġab out
P attern
Ġs m
so ft
tra cker
Ġ5 12
F F
W OR
up per
cent er
I TE
Ġ Z
de l
ma ster
stri de
Ġcontain ing
' ))<
s chedule
u dio
Ġpre pare
StableDiffusion Pipeline
" ><
Ġ ),
lo ps
im ing
temp erature
ï¼ Į
w er
Ġw rite
ĠT ime
ĠL og
ĠComp ute
umul ation
ra d
ĠF lax
Ġ: ]
stri ct
fa il
al ize
un ds
arg uments
wa ys
'] ['
Ġscal ed
ighb ors
itial ize
C hat
g or
Ġint e
ac count
vis ual
json l
exec ution
j it
de st
Ġa g
Ġ( (
ĠT rain
ĠL oad
ĠN O
Ġpath lib
gor ith
# <
9 6
U M
s k
Ġg ather
Ġro le
Ġcol or
Ġpredict ed
p il
al y
ĠA pp
res ource
Ġe ff
Ġ12 8
Ġf lush
Ġ" __
Ġre cv
be fore
Ġcorrespon ding
/ {
d ot
s ampler
z ip
ĠĠĠĠĠĠĠĠ ĠĠĠĠĠ
Ġin ner
ic ally
Ġret riever
ume d
select ed
celer ator
Ġcalc ulate
a ug
Ġ u
di ents
ran script
ma ked
inf os
Ġexpre ssion
L og
or iz
Ġm id
id get
.< /
Ġg r
log probs
Ġal so
Ġset up
Ġcomp at
jo ints
min i
Ġexec ution
Ġcre ated
: :
ar ding
el l
ĠP er
Ġsh ort
ug h
micro batches
control net
f uture
Ġthe m
Ġdata base
B A
G R
[ [
un ct
ĠW hether
sq l
âķĲâķĲâķĲâķĲâķĲâķĲâķĲâķĲ âķĲâķĲâķĲâķĲâķĲâķĲâķĲâķĲ
0 5
T uple
on t
lo op
Ġver bose
S S
] ['
É ª
Ġp attern
co ok
Ġby tes
Ġcomp ut
Par ser
ĠĠĠĠĠĠĠĠĠĠĠĠĠĠĠĠĠĠĠĠĠĠĠĠ ĠĠĠĠĠ
ĠHugging Face
B O
C U
o led
re ason
Ġf lag
il li
á´ ı
ĠSt ep
M an
Ġin d
Ġw hether
ĠS ample
Ġ` `
Ġl m
tr f
In valid
t imers
fa ctory
Ġother wise
Gener ator
t ri
sh ow
ĠA d
ri ces
ca use
ach er
node s
Ġli ke
1 3
5 12
s d
s l
me d
ng ine
Ġm y
to list
IN E
EN D
open ai
Ġquaternion s
Ġdate time
i a
Ġp ers
Ġd agster
ĠR ot
Ġso ftmax
Ex ec
Ġbet as
1 8
Ġc ore
"" "
pro gress
Ġpro vide
Ġpro gram
Ġtest s
al phas
Ġw andb
Ġ( {
Ġpo licy
Ġpad ded
Ġh istory
ĠA l
Ġus age
Ġred uce
Ġdeta ils
Ġencode d
b l
e ar
f rac
Ġ ensure
la va
len d
Ġr ate
Ġst and
Ġac c
vert ices
Ġexample s
dump s
S c
T his
e very
Ġdi alog
Ġpro ject
Ġl ang
Ġpo se
Ġad ded
FI G
ose n
Ġ202 3
+ +
Ġ license
Ġex ception
cl u
ĠL I
Ġne g
iv ations
rand n
Ġnormal ize
maked irs
A d
u ction
Ġc rop
mo ck
Ġac celerate
G LOBAL
O r
z y
me m
di sc
sh ared
ĠD own
ĠI mport
(' .
Ġac count
Par ams
ĠĠĠĠĠĠĠĠĠĠĠĠĠĠĠĠĠĠĠĠĠĠĠĠ ĠĠ
fin ished
hel lo
> }<
F unction
c y
al id
ro ugh
ge st
Ġpi ckle
O b
s df
tra j
rg b
prediction s
) ]
U p
m i
å ı
vi rtual
ĠCon fig
' {
c ed
Ġpro bs
ĠI ter
work er
In ter
Ġcontrol net
del ta
N ode
c c
Ġw ar
co unter
Ġwith in
Ġav g
({ "
b n
É ´
Ġth read
sc atter
Se quence
choi ces
Ġlow er
> _
t f
Ġ æ
ann er
Ġv ae
ĠN o
Ġret rie
c rop
li ca
th read
Ġsplit s
usal LM
i ce
r u
en ded
al ys
Ġp d
ta ct
alys is
7 0
v it
} _
Ġh f
ĠM ake
work space
sub set
lin k
Ġtra ck
CH E
Ġcontain s
Ġimplement ation
M o
e ed
Ġm issing
v ing
Ġp ix
Ġb roadcast
th rop
text s
ise d
D is
r en
u int
re size
uff ix
Time out
throp ic
A gent
s ses
Ġf ill
ic ient
pre ss
ac cess
ĠAr g
\ <
h ub
in sert
Ġm illi
Ġd s
Ġpar ent
ĠU RL
global s
Ġav oid
(" {
am l
Ġmean s
ĠAtt ention
Ġ[` ~
Fa ctory
S erver
U S
e le
pt s
par ameter
ĠA s
Ġde prec
ĠO utput
Ġdefault s
ĠData Loader
---------------- ----------------
Co mp
âĶĢ âĶĢ
Ġ'' '<
Ġmilli seconds
1 024
> ")<
c am
Ġt ri
it ers
Ġre al
Ġ* =
rank s
mo ved
rit ic
Ġfa ctor
Ġw arning
Ġh ref
Ġ2 024
eps peed
Ġact ual
ĠTransformer Config
Ġreg ister
Ġpa per
O P
S ource
e qual
Ġ episodes
at as
Ġt emb
Ġatt ribute
En coder
1 9
Ġa ff
il der
Ġ1 000
us age
check ed
pac ity
A D
] +
å Ĭ
re al
ĠM L
Con d
Me gatron
Re turn
Ġcomm on
Ġvari ance
ĠBrowser Context
Cli ent
an h
con sole
ĠĠĠĠĠĠĠĠĠĠĠĠĠĠĠĠ ĠĠĠĠĠĠĠĠĠĠĠĠĠĠĠĠĠĠĠ
ĠĠĠĠĠĠĠĠĠĠĠĠĠĠĠĠ ĠĠĠĠĠ
() ))<
Ġbe cause
Ġdi v
Ġopen ai
Ġinter mediate
bin ary
Str ing
avig ation
pix el
% %
F O
en coding
ed uce
ĠL LM
"] )
Ġen abled
Lo ss
Ġ quat
le ep
Ġex it
time Error
yn ch
** **
vari able
* ,
Ê Ģ
re lu
Ġre arrange
em o
Ġstr uct
ĠF ile
Ġl ines
cur s
'' '<
h uggingface
n ed
Ġa ctor
ur se
Ġ( ...,
Ġreturn ed
ĠS ave
Ġde cay
ĠD P
ĠPy thon
ynch ron
B U
ex ception
ĠC ol
end swith
ant ic
ool s
ĠIn put
AL L
f lag
m ultip
â Ģ
Ġ" ")<
__ ":<
all back
back bone
micro batch
) ),<
r im
r nn
} "
iz ers
ĠE ns
Ġne ighbor
Ġla unch
Ġte mplate
requi red
Ġsm all
Man ager
E L
v en
Ġ eta
Ġp ri
pro blem
head ing
Ġan swers
Ġtime s
cal c
={ <
Ġtool s
sig mas
) }")<
U RL
Ġ( '
Ġe vents
Ġse e
Ġk v
Res ource
ord in
Ca usalLM
H el
d of
p lan
re c
de te
Ġlo sses
Ġl ink
Ġpre cision
ĠM ulti
ĠB u
tr unc
ne g
TE D
af e
! ]
P P
n ly
Ġ et
Ġf unc
Ġre port
test s
Ġle ft
part s
Ġtra j
For CausalLM
ynam ic
o le
re ference
ĠT o
url s
Ġtarget s
sm all
ĠCLI P
CON FIG
Q u
se c
ut ton
Ġs ig
Ġcon nection
Ġe very
Ġpop up
S ub
T h
] ):
Ġs lice
Ġ2 00
pi p
ĠK ey
unic ation
f ra
Ġc enter
un ique
Ġg round
ve lo
ter m
'] :<
extra ct
Ġchoi ces
T orch
] ),
a ched
l ight
s upport
en gth
Ġb one
ĠIn c
Ġinitial ized
mplet ed
Cont ent
g ri
re direct
ro uter
Ġd ataloader
code book
'] ,<
ac celerate
In dex
ĠEx ample
Ġcli ck
ilar ity
ĠML P
2 4
Z E
f s
Ġ library
Ġ' ''
ol ute
sp atial
ist ic
lat ed
ĠĠĠĠĠĠĠĠĠĠĠĠĠĠĠĠĠĠĠĠĠĠĠĠĠĠĠĠĠĠĠĠ ĠĠ
RE D
** /
spec s
Ġte am
Ġvi a
ĠImport Error
7 8
f name
o ps
ch ar
Ġb est
li sh
ran ch
ĠA gent
Ġ2 55
Ġfunction s
scre te
" `
: ",
f etch
Ġs uch
Ġun ique
Ġcomb ined
ĠDE FAULT
------ <
S ampler
_ [
co mplete
ers ation
ĠC PU
Ġde sc
inal g
ĠRun timeError
t ab
z en
rom ise
up load
sh uffle
ĠC or
Ġr ng
cor ding
ument Parser
ĠĠĠĠĠĠĠĠĠĠĠĠĠĠĠĠĠĠĠĠĠĠĠĠ ĠĠĠĠ
Ġtre etune
b os
r b
v els
Ġ= ================================
Ġs n
il la
Ġr and
Ġgra dients
Ġclass ifier
fl ash
Ġfin etuning
Ġdisp lay
Ġnet work
Ġcollection s
R et
\ ",
lo y
Ġs uc
un it
Ġmask s
Ġlength s
acc umulation
Ob ject
0 3
] :
l ang
re compute
Ġb ox
Ġmat rices
Ġjo ints
Ġang les
j pg
con s
Ġ2 56
Ġse par
Ġcl asses
Ġpath s
Ġob serv
ful ly
alt y
g r
ã Ģ
al low
ĠĠĠĠĠĠĠĠĠĠĠĠĠĠĠĠ ĠĠĠĠĠĠĠĠĠĠĠĠĠĠĠĠĠĠĠĠĠĠĠ
Ġg en
ca usal
Ġal ways
Ġsize s
down sample
lap sed
istr y
gorith m
me s
un iform
cess ary
DI A
cs v
pool er
Ġclos d
, )
: ,
I T
j ang
j np
k it
Ġ queue
ĠĠĠĠĠĠĠĠĠĠĠĠĠĠĠĠĠĠĠĠĠĠĠĠ Ġ
ĠAtt n
0 4
m on
t il
Ġ ser
ro gram
ro zen
Ġc v
arg v
ĠP o
Ġmatch es
Mask Type
jang o
. ",<
W H
m od
di date
name d
check box
(' /
á´ Ľ
Ġle arning
icro soft
initial ized
Arg uments
b its
} ",<
Ġf uture
Ġo ur
Ġ1 5
idx s
inst all
wh ere
C ode
f used
p or
get env
up licate
Ġ[ {
Ġal ong
uc ed
RAN K
deta ils
Form atter
P lease
ä »
Ġe qual
ĠU Net
mo oth
Ġcheck s
Ġprob ab
bet as
Ġap pro
F ield
a w
i li
r ic
Ġ ]
Ġi p
Ġp h
li m
set up
config ure
net work
12 8
l on
} ".
it es
() [
ĠL lama
St orage
inter po
task s
Ġsin ce
ĠDi ffusion
deg ree
F ound
ut or
Ġb ar
co st
Ġcon stant
ist ent
rand int
GR OU
S ON
æ ľ
al len
all reduce
pre cision
ub lic
MA GE
go ogle
web page
, )<
l inalg
Ġn grams
Ġre levant
Ġm d
co ll
Ġch ild
ĠIn dex
oth er
Bu ild
WH ITE
e ft
Ġin struction
ss ible
ĠI N
ĠM odule
om at
Ġj ax
transform s
Ġtake s
2 00
~ ~
å Ī
Ġ queries
Ġth rough
Ġco ver
EN T
ĠH T
OR T
sum mary
Pre Trained
B LE
G roup
L ong
U N
] ]:<
f id
w riter
Ġ attr
li er
ĠO penAI
ob ot
Ġbatch es
Ġmax imum
([ <
In put
Ġob j
Ġtransform s
Ġatt ributes
camer a
e ctor
en um
Ġpro cessed
s ing
s leep
er ial
ot ions
Ġ- ------<
ep copy
ĠM ax
ĠM icrosoft
'] [
act ive
Re g
Ġrot ations
Res ult
Ġconv ention
: `
> ]<
ĠD o
Ġuse s
col lection
ER T
}. "<
vant ages
Ġchar act
Sh arded
Cond ition
A r
H E
H andle
Ġp c
ass istant
Ġl ora
Ġbu il
ĠIn itialize
Ġcheckpoint s
ĠCon t
top k
Ġbin ary
ĠLI CENSE
- {
B utton
I O
f ps
re port
ĠĠĠĠĠĠĠĠĠĠĠĠĠĠĠĠ Ġ
Ġal ign
iv ed
Ġle t
Ġsum mary
exec ute
}/ {
T RA
\ .
a gram
se en
ut es
Ġf used
ĠP ass
tra ck
Ġdoc uments
ĠUp date
b float
di a
Ġin f
Ġm u
ue s
to col
ĠSt ableDiffusion
GROU P
G B
l st
m t
st orage
Ġf lops
Ġa bs
Ġw ay
Ġth reshold
.. /
train er
', '
lic ation
Ġca usal
" }
h avi
à ¸
Ġn ested
ator s
ub le
Ġload er
á´ Ģ
Ġscal ing
scre en
ĠBu ild
c lock
Ġ âĶ
re po
Ġc u
con tain
Ġ[ -
eps ilon
Ġvalid ate
edge s
As sert
E ngine
V A
h igh
on al
(" #
os ition
Ġan s
comm it
Ġprocess or
For ward
Po licy
. {
F T
S ize
U ser
h and
it ch
di alog
Ġ[ ],
Ġth rows
ne ed
Ġsequence s
ĠModel Type
Str ategy
VI DIA
Ġaccept s
Ġstand ard
. ')<
1 000
T e
W ork
e vents
} _{
Ê Ł
se quential
ĠN orm
fa iled
part ial
M et
d le
d ated
l n
s olver
st udent
Ġp ort
Ġp lace
am ma
Ġbe ing
Ġres olution
bu ffers
inter le
oriz on
ab el
ment um
tra ct
ST R
Ġpart ition
S cal
a ff
g u
i red
j ob
m ote
o ised
Ġf ast
ve s
ĠR ep
Re LU
E T
N S
Ġ" -
il ter
Ġ\ \
action ability
request s
') [
= ["
g buf
it or
Ġw ould
Ġ- =
key words
ne ighbors
Ġset tings
valid ation
ĠPy Torch
Ġsq rt
allen ge
7 7
C lass
Ġ email
an el
ho me
ĠĠĠĠĠĠĠĠĠĠĠĠĠĠĠĠĠĠĠĠĠĠĠĠ ĠĠĠĠĠĠ
PU T
Long Tensor
M PT
T rans
U SE
] .<
n gram
u lf
or al
Ġf ix
Ġthe se
ue st
Ġl on
Ġch ain
Ġdim ensions
mo use
Ġne cessary
Ġad just
normal izer
ĠDi stributed
L INE
Ġ arch
ed Dict
Ġ" [
li mit
Ġg buf
Ġadd itional
_ )<
a uth
Ġdef ined
att ribute
rep ly
Ġ-- >
3 5
M eta
c ss
h older
l s
p kl
se par
Ġc amer
Ġs l
im ation
ĠĠĠĠĠĠĠĠĠĠĠĠĠĠĠĠĠĠĠĠĠĠĠĠĠĠĠĠĠĠĠĠ ĠĠĠĠĠ
Ġdo ing
Ġcall s
Ġdel ta
ĠGener ate
ĠDown load
in ation
re gex
il ities
Ġdi rection
Ġdi stribution
emb d
Ġtime stamp
ern al
rep r
Ġvariable s
Ġdisp atch
So cket
ĠTe am
B y
i um
q pos
se lection
me ster
Ġs ync
art ic
log s
Ġmo e
Ġret rieval
ĠCor por
ĠCorpor ation
N D
S A
å ¤
re ments
ch o
Ġ" ",
all close
ĠD DP
Ġen gine
Ġhead er
unct ools
- >
D Condition
O ptimizer
æ ķ
le t
par ents
ĠL inear
Ġhas h
Ġmodule s
PA TH
alc ulate
Ġwrit er
- %
f lax
Ġt ar
Ġa ug
Ġtorch vision
Ġh and
Ġtok entype
ĠĠĠĠĠĠĠĠĠĠĠĠĠĠĠĠĠĠĠĠĠĠĠĠĠĠĠĠĠĠĠĠ ĠĠĠĠĠĠ
back end
ĠEns ure
Hel lo
4 2
= \"
_ <
g a
n c
u sh
x x
x y
Ġre q
bo und
Ġon ce
reg ion
Ġpy thon
' \
L LM
Ġre ce
State Dict
Ġent ry
SI ZE
A dd
g ame
h y
i re
k nown
ro ps
Ġa udio
Ġd t
ĠT oken
Ġ' \
ĠO r
======== ====
mat mul
Ġsc re
camer as
Ġwarning s
0 6
B atch
V i
r l
se g
de mo
la in
im odal
Ġpro jection
Ġsh util
Ġle ast
Ġsub process
Ġchange d
Ġfreq s
= _
O p
P ool
on d
an y
ro y
Ġb ins
ĠĠĠĠĠĠĠĠĠĠĠĠĠĠĠĠ ĠĠĠĠ
Ġcon ne
ĠT h
Ġpre sent
mo id
ĠRe quest
error s
St at
last ic
Train er
ĠPre pare
trunc ated
C L
D F
V ER
z illa
de velo
Ġf unctools
Ġm m
Ġg pu
Ġde c
Ġpro pert
per i
Ġconfig ure
ject ed
Ġspec ial
Ġmo difi
Ġwork er
Ġitem s
or ds
Ġre main
ran t
() ).
Ġl arge
Par am
Ġinte ger
4 5
m k
æ ĺ
Ġ questions
Ġf lags
Ġs at
Ġm ark
la unch
Ġframe s
dis abled
ĠPro cess
ĠCLI PT
conne ct
human oid
ĠNO TE
b t
Ġt urn
lat itude
pen alty
N umber
Ġre moved
th ing
qu are
list dir
Ġ: -
ide o
Ġform att
ĠAuto Model
ĠAuto Tokenizer
Ġmerge d
" }<
M ulti
O M
i ps
t ar
u x
Ġi ss
Ġre size
to wer
() }<
ĠS o
Ġexist ing
Ġcondition ing
Parallel Linear
Ġwar mup
: -
c p
n x
s y
er r
Ġp t
di rection
Ġd p
Ġdata classes
Ġun it
Ġtext s
12 3
trans lation
the ta
Ġnode s
ateg ory
prod uct
Ġoffset s
= <
_ .
m antic
mp u
Ġp asses
Ġin clu
pt ed
Ġg lob
Ġk nowledge
... ")<
Ġbu f
war n
Arg umentParser
Ġoper ation
ater mark
A fter
M ES
j udge
ce ll
pro cessed
Ġ' --
scal er
TE S
lan ation
pass word
m ultiple
n dim
p lay
q l
} .")<
å Ĳ
Ġ ep
in to
in ator
Ġt tk
iz ing
arg in
cor n
St art
wra pped
Ġho ok
ĠLayer Norm
child ren
ĠHT TP
develo per
i mp
m u
ut ions
Ġf etch
sh arding
Ġimport lib
Ġpro vider
Ġac cess
Ġtra jectory
ulf ill
Q L
c le
r as
Ġ html
Ġg u
da pter
Ġper m
inter mediate
Ġter ms
9 5
Ġi o
Ġ# <
ensor s
Ġst udent
pa y
ne ighbor
ai ss
Ġinitial ization
MA X
Ġchoi ce
Ġfl atten
) ")<
b roadcast
en u
Ġre try
() ):<
per cent
lic it
index ed
Ġset ting
ou g
string s
initial ization
Ġprod uct
P S
i ated
Ġ entity
Ġg re
res sed
Ġ/ =
Ġpre dicate
Ġpo ssible
ĠĠĠĠĠĠĠĠĠĠĠĠĠĠĠĠĠĠĠĠĠĠĠĠĠĠĠĠĠĠĠĠ ĠĠĠĠ
local host
div idual
ĠSh ape
gn itude
) (
I f
s olution
w hen
al loc
Ġs df
Ġm ight
get item
out er
Ġlo ok
Ġwe b
base d
late st
Fa iled
Ġdirect ly
Exec ution
O T
Ġp lot
ex c
ex cept
Ġd f
em ent
Ġh ow
ĠC OR
ĠC hat
Ġco ordin
ac curacy
arr as
auto grad
ĠPer form
BA SE
Ġsig mas
havi or
V ision
Ġw ere
ĠR oute
dir s
Ġpart s
c um
in ds
Ġt ag
le x
ĠĠĠĠĠĠĠĠ ĠĠĠĠĠĠ
ur er
len ded
Ġg ot
ĠO llama
mo zilla
split s
ay load
Ġid ent
Ġstruct ure
DCondition Model
R OR
n al
Ġp l
ce il
pe t
up er
Ġh yper
ab stract
ĠD is
user name
ac cept
Re ad
Ġexp and
Not Found
ĠQu ery
2 7
: {
S C
s imple
Ġf ig
pt ure
Ġco uld
bo ve
Ġpo oled
Ġgra ds
vert s
local s
miss ing
Ġreg ular
Ġpix el
5 00
e od
k s
Ġf n
em ory
Ġ* <
res ume
pre ds
IN FO
view port
act ivations
run ning
encode d
æķ °
D B
H and
h params
y aml
Ġ# #
Ġh alf
ĠD DI
Ġpad x
Ġ5 0
Ġcall ing
2 8
9 8
h ide
l ator
è ¯
st ar
set tings
Ġ1 3
ff n
oc ast
Ġsh ow
ĠE mbedding
ĠN VIDIA
Ġsc ene
Ġwork flow
LA GS
uest ion
) ;<
X T
c lear
s chedulers
ar m
Ġp rag
po ses
rom ium
Ġg ive
Ġ{ :.
Ġpro blem
Ġst o
") [
asset s
plot lib
f lags
Ġf lat
Ġre lease
Ġre peat
Ġst orage
ĠO ther
Ġv ar
Ġj ob
Ġdim s
sub ject
top ic
bl ue
Ġprag ma
I ter
[ ["
e ach
f ield
j s
è ¿
Ġt gt
Ġa bove
"" ",<
co mpletion
fa ct
Ġset attr
AR T
Diffusion Pipeline
Ġobject s
ĠĠĠĠĠĠĠĠĠĠĠĠĠĠĠĠĠĠĠĠĠĠĠĠĠĠĠĠĠĠĠĠĠĠĠĠĠĠĠĠ ĠĠĠĠĠ
W ait
e mpt
k nowledge
w andb
Ġc am
Ġr atio
stru ctor
dd p
wra pper
PO ST
mk dir
" },<
D own
e uler
g it
g ym
é Ģ
Ġs y
pe ft
ue ss
es c
sc or
Ġst ore
Ġst ill
(' <
ĠG aussian
Ġspec ify
afet ensors
ins pect
Ġprediction s
Ġradi us
CLI P
Ġlicense d
c ritic
:< /
Ġde pend
ĠF unction
ĠD oc
pect rogram
tra cing
unet s
Ġorig in
T R
d c
se p
er o
en vironment
Ġp lease
Ġf older
Ġex ce
ĠL oc
ĠP laywright
da y
IN T
ĠRe turn
valid ate
date time
Ġposition al
Ġstring s
tes IO
ĠJ SON
propert ies
De coder
NO TE
Ġind ent
ĠAs set
B rowser
H O
n ull
ch k
ex port
Ġ[ [
ĠA sync
ĠS plit
Ġdata class
iv ely
AS S
thread s
. *
2 024
å Ľ
ê ľ
Ġ util
Ġf ixed
ra di
co eff
Ġpro cesses
ret rieval
vert ex
Ġle ar
dest roy
Ġeff ect
gri pper
omat ically
C annot
a graph
f ields
f ulfill
m g
s aved
æ Ī
in uous
Ġh uman
ĠR a
run e
Ġcol lect
Ġinter po
ĠDef ine
observ ations
Ġtrunc ation
ĠCol umn
( ["
d ra
i ally
l b
n py
on ents
me sh
Ġs ampler
Ġs olver
model ing
Ġh s
ance l
Ġpre process
scal ed
RA G
Ġac curacy
ret rie
DE R
ST A
over lap
ino v
) ])<
M IN
d it
ç Ķ
Ġ ,
he x
Ġre c
ul ary
Ġ1 1
ol ved
Ġco m
oc us
av a
mo v
Ġdo f
mean s
Ġass istant
ĠApp ly
Ġbar rier
ĠMax imum
scor er
C om
G EN
O D
O S
b ind
d ri
Ġm ult
ens hot
Ġde coding
Ġ` <
ix up
RA TION
lan k
short cut
Ġ ct
ut ing
me t
Ġa uto
ul ation
text area
Ġnum bers
Ġl ight
ĠB y
Ġtrain er
? <
F OR
I t
b est
ä º
re levant
al ign
Ġst ack
ĠW ork
vide os
trans fer
Stat us
3 84
A ll
I F
R N
Y PE
a ging
ut able
Ġf e
Ġf ps
fa st
ac celerator
Ġac cording
Pre processing
trace back
disp atch
) ",
n an
le vels
Ġc annot
Ġin sert
arg max
Ġreturn ing
pro jector
__ }
ĠA c
Ġco ok
gre en
PI PE
ER ROR
Ġvari ant
go al
Ġprob ability
Ġuncond itional
cons umed
STR ING
NotFound Error
3 7
Ġw ell
bo ur
om ic
Ġal gorithm
TE ST
Ġmo di
igh bour
Ġtra ce
ĠWe b
ĠRes ponse
sentence s
Ġpri or
Ġprobab ilities
Preprocessing Config
. \
c nt
d t
o per
Ġ å
re st
ge o
Ġf alse
Ġn ull
Ġm args
im ate
ma il
"] ),<
Ġl ong
train able
Ġch osen
Ġ3 0
Ġk l
TE MP
cat ing
St ream
Ġcheck ed
]] ]
LO G
Ġover lap
Ġdis abled
inst agram
Ġtri al
emo ve
2 1
L D
s v
x ic
ch ema
Ġre direct
data base
Ġde lay
pre ssion
Ġbe am
Ġlog s
log ps
Ġj udge
sn apshot
aly ze
Ġcompat ibility
ĠArg uments
Ġsn apshot
ites pace
artic le
ĠOther wise
Wait After
2 02
= ""
S plit
W AR
] ),<
d atas
e ck
v as
Ġt ranscript
emb s
Ġex port
Ġde s
Ġde lete
Ġpar sed
ow er
ca ched
bs z
MP LE
Col umn
PRO MPT
coll ate
4 7
Q A
c r
g ab
n avigation
v id
pe s
Ġd ot
Ġde te
ĠP latform
ĠM ask
Ġra g
IN DE
base name
Ġover ride
Ġneed s
Ġfin ish
dis able
constant s
disp lay
Log ger
ĠRot ation
INDE X
C ross
C ES
f ound
Ġ arr
ser ial
ran ular
Ġ' ,
ol utions
ri b
Ġbe havior
Ġwh ole
Ġsample d
Ġresponse s
abs path
Ġstat s
An swer
ranular ity
b al
c md
f ollow
s orted
ä ½
Ġh params
ri ch
ĠM eta
cont inue
cept ed
Ġpos itive
12 34
ĠSe ssion
Ġhead ing
filter ed
Le vel
! !
) }"<
P ORT
U T
s li
Ġ qu
me ga
Ġre po
Ġh app
## #
Ġex periment
for med
chedul ing
St ep
`` `
over ride
quaternion s
Ġdocument ation
Ġfl ash
CU DA
dete cted
ĠCOR PO
G ra
R GB
S peed
Ġ ~
Ġs keleton
un ding
up sample
ĠĠĠĠĠĠĠĠĠĠĠĠĠĠĠĠ ĠĠ
() ]<
is ing
Ġbe gin
run time
vari ant
ĠĠĠĠĠĠĠĠĠĠĠĠĠĠĠĠĠĠĠĠĠĠĠĠĠĠĠĠĠĠĠĠĠĠĠĠĠĠĠĠ ĠĠ
sign ature
termin istic
Ġfew shot
cook ies
fra ction
ĠâĶ Ĥ
> `
p us
t anh
w b
Ġ= ========
Ġro und
ĠE vent
te acher
abs olute
En v
Ġins ide
ox el
fin ish
sig moid
ino ps
TY PE
Ġsuccess fully
Ġsepar ate
ĠCORPO RATION
" })<
A pp
E val
f allback
re lative
st and
Ġm on
ep Speed
Ġme l
sc roll
wa y
oc iated
ĠO nly
ĠH ow
ampl ers
GE T
Ġcomm unication
Ġfa il
pl us
Ġclo se
Execution Context
TEMP LA
G RE
m om
z z
} '<
in verse
ig id
val s
pro c
ĠT able
ĠS core
Ġme m
Ġstr ategy
Ġbe low
ĠEx tract
run ner
Ġcurrent ly
ak en
Pipeline Output
can didate
Ġcamer a
F ilter
d uration
g ster
m otions
r al
de epspeed
Ġp lan
la ck
sh are
der r
Ġco mpletion
Ġst ory
da gster
Ġun truncated
ust er
ema ils
Ġallow ed
ci i
Ġet c
R oute
d rant
n grams
t ure
ut ation
as array
ad ded
att ributes
Ġ' _
(" %
ĠC alculate
ĠD et
add r
Ġno qa
EN AI
Ġerror s
LO W
lation sh
Ġimplement ed
Ġsentence s
Id entity
orig in
Ġaut omatically
LIGHT WHITE
' ),
V AL
g lob
i or
__ .__
is y
Ġe uler
Ġex clude
ĠS c
"] ]
Ġsh are
off loaded
PI L
Ġsupport s
std out
ĠCheck point
Ġrand n
Ġobserv ation
3 1
V alid
d ers
h a
he lp
Ġs he
ex periment
Ġm ixed
Ġ' -
Ġ* ,
ver sed
Ġco unter
Ġno WaitAfter
so me
Ġwork space
Ġlow res
Control Net
dri ver
D o
H andler
I MAGE
c ard
s cheduling
w idget
ra pper
Ġd jango
__ <
Ġe ven
ist ics
ub e
Ġ4 0
Ġpy torch
Ġloc ation
Ġmulti processing
Loader Mixin
ĠID s
E mbed
s amplers
à °
Ġin her
ol ding
end point
num bers
ment ation
Ġy et
á´ ľ
ble ms
Ġass ociated
ĠPro mpt
SI ON
Ġred uction
ĠDownload Source
7 68
> =
F uture
R andom
p r
æ Ĺ
in p
en ding
as cii
ed Dataset
ex pression
id ent
ĠS ub
Ġde scri
Ġse lection
ition s
cor r
cor ds
back ground
ern els
target s
Ġwor ds
Ġsub ject
Ġinter nal
mit ted
Ġpart ic
Ġreason ing
ĠAutoModel ForCausalLM
corn ers
T ask
t iming
é ¢
se ns
Ġf name
Ġre st
ra st
ul lable
il y
Ġ' %
ĠN ame
ores ume
edit able
pop up
Ġag ain
cook ie
Ġaff ili
Ġaffili ates
S er
f r
p latform
s lot
w in
Ġin valid
Ġb lend
to e
if act
load ing
ĠV Q
tra jectory
Ġtmp dir
ML P
bt n
D ING
W hat
b ank
c red
j ax
de pend
ar ies
he s
Ġs uffix
Ġe st
Ġ2 4
ter n
if rame
Ġst ick
context s
pen ding
iter ations
OR CH
Ġsq l
diff users
pattern s
Ġcomput ation
: ],
: ])<
L L
L EN
L abel
N ING
W E
a wait
h id
i py
t ranscript
è ®
on ce
re mote
Ġb ert
im ag
ĠL e
Ġpar ents
pa ir
Ġca p
with out
Ġapp end
Ġ5 00
=[ <
Ġvector s
PreTrained Model
N E
N UM
k le
s cope
æ į
in valid
Ġdi visible
ĠC ross
app lication
Ġ> >
add ress
ĠB atch
ir d
Ġ% .
Ġpad y
Ġup dated
Ġsub set
({ '
web kit
cre te
Ġperform ance
Ġcons ist
hel per
I GHT
v ers
} ]
on ent
or ies
lo ut
Ġre ject
ra ble
ad am
def ics
po w
co urse
Ġcon st
load ers
Ġwh at
ry pt
Ġte acher
Ġtop k
Ġfa ke
Ġbet ter
eff icient
################################ ################
ĠMo ck
assert ions
bench mark
traceback hide
PIPE LINE
Ġstick y
i ver
o lean
t qdm
Ġs cope
Ġre search
co ver
im al
im ic
Ġnot e
ĠS tr
dict s
index es
ĠV alid
lect urer
sub modules
ĠĠĠĠĠĠĠĠĠĠĠĠĠĠĠĠĠĠĠĠĠĠĠĠĠĠĠĠĠĠĠĠĠĠĠĠĠĠĠĠ Ġ
Element Handle
**/ *
' %
, ),
- \
. )<
O penAI
g ranularity
p anel
w rit
st o
ge mini
Ġc ert
ma z
ma gen
Ġh y
Ġme gab
dim ension
group ed
Ġtrain able
be gin
Ġapp lied
comm end
ST ART
Dataset Config
Ġtr im
ĠSharded StateDict
Ġcompat ible
Sc ript
4 3
B ert
h orizon
å ħ
al ong
Ġf o
Ġd ue
Ġde st
ĠR educe
ĠR emove
red uced
fe a
Ġrepresent ation
Ġar ound
Ġpartic ular
( \
) /
0 8
A v
g ers
Ġin dividual
Ġ` '
mo mentum
mb ol
gener ated
ug in
Ġmo st
Ġprocess ing
Ġass ume
Ġman y
Ġho st
( ?
) *
2 3
K V
P ie
_ ()<
p d
p id
ce iver
Ġin p
co ords
ame tr
Ġ1 9
Ġ: ].
fa ke
gener ations
TI ME
Ġmessage box
Ġtr uth
Ġdoes n
> {
A l
I M
c rops
d ummy
h i
m imic
r m
Ġ vis
at i
Ġc lear
Ġs pace
Ġre gex
Ġm od
Ġo ps
li s
am ond
## #<
ĠC om
gener al
lin space
Ġwork ing
Ġ7 68
ĠRet rie
ĠLo ss
CHE CK
ele m
7 5
D ef
L iteral
T ool
b a
l lava
p isode
r sp
s afetensors
} [
æ ĸ
an thropic
Ġn s
Ġin fer
Ġe inops
pre process
alle t
Ġl lama
lock s
art ifact
Ġun til
Ġdefault dict
Ġmo ve
Ġcheck er
au x
Ġnormal izer
ench mark
Ġdeta il
ĠEn coder
Ġter min
Ġtrunc ated
multip lier
b ranch
s uffix
ð Ł
Ġ rich
Ġs d
Ġs w
Ġb ot
ext ras
Ġd st
(" ()
(' \
log in
Ġwh itespace
Train ing
Ġpa ir
sign al
B I
s ame
Ġt iming
Ġs mpl
Ġre lated
iz able
ul der
Ġd ummy
int e
ff t
ĠC ustom
ub lish
bu il
stribut e
Ġkey word
TE NS
pu sh
Ġmat plotlib
Scheduler Mixin
Ġscor er
Ġrep lica
ðĿ Ĺ
abstract method
retrie ved
TENS OR
' ),<
) "<
> "<
D ep
Ġp ublic
Ġm ultip
ig lu
Ġw a
Ġd uplicate
Ġdef ine
is match
Ġ2 5
Ġma ster
ĠW h
com ment
mo difi
á´ ħ
over load
Norm al
HT ML
condition ing
Ġcorrespon ds
Ġedge s
ĠCont rol
It em
Pie ce
2 6
L ow
O ptions
p x
ro pe
ch osen
Ġp s
Ġf ields
Ġre con
__ .
form s
Ġse en
pi ckle
app ing
our se
seq lens
Ġrequest ed
Ġsp atial
Pro mpt
aussi ans
Ġfree ze
Ġge o
Load ing
fid ence
enum s
! ")<
3 0000
A C
A c
Q U
S ave
e ver
t ic
å º
Ġ âķ
Ġ" )<
Ġin verse
Ġin cre
Ġb ound
def ined
el se
li ent
Ġca ched
FI LE
ĉĉ ĉ
Ġlocal s
match es
face book
ential s
Ġnormal ization
Ġcase s
pri or
Ġcos ine
predict ed
WOR K
maz on
Ġ velocity
Ġt en
Ġn c
Ġs imple
Ġ- ----------------
Ġdi screte
Ġe os
Ġde epcopy
Ġco mpleted
Ġpre vent
bo mimic
pa ces
qui red
fix ed
RE SET
count s
window s
PE C
Ġconv ersation
Ġcre ating
Sub modules
USE R
Ġdescri b
: ].
K L
e ce
m c
p lain
an alysis
ge d
Ġp latform
di es
Ġo c
ĠB e
cor ator
fil ters
Ġfin ished
flatten ed
column s
Ġdecode d
%% %%
curs ive
Qu ery
ĠPlatform s
= ['
A nd
R ank
R educe
i ate
p k
se n
Ġf id
ur al
Ġw s
Ġ( [
Ġ' __
Ġlo ck
## <
Ġe lapsed
ĠS pec
Ġv q
port ion
Ġeval u
ax es
DO C
Ġnormal ized
quant ize
Ġent ries
Head er
jector ies
Dis crete
Ġconstant s
Ġcharact er
Ġjudge ment
/ #
G NO
P osition
d ens
Ê ľ
Ġt a
Ġb l
par ametr
im er
ĠL a
ĠD OM
device s
so cket
Ġca use
Ġbu ffers
rep lica
Ġlat er
sequence s
Se lect
ref ox
fo ot
medi a
Ġconvert ed
Assert ions
radi us
5 000
Q uestion
T ransform
U P
] *
b box
m ine
s a
s age
ro me
Ġp e
Ġc nt
der edDict
form ers
ĠE uler
([ -
iv ity
ĠRe g
view er
ĠSe lf
Ġwra pper
Met adata
============ <
imag en
5 8
9 0
> ')<
S P
b x
b lend
g ate
g amma
h n
s ort
s lic
se e
Ġa uth
id ing
ri st
Ġ` (
Ġco mplete
Ġr g
ĠO pen
Ġres ume
ĠV A
Ġgener ating
Ġ% (
Data Parallel
Ġsub modules
are st
ĠPar allel
Bu ffer
Ġcons ider
merge d
Ad am
Ġinclu ding
D oc
I mg
b old
b lank
m se
de s
it ing
Ġin paint
Ġb el
Ġd ynamic
att ached
() ),
Ġco st
Ġv llm
Ġtoken ize
Ġac celerator
rep lay
Ġ{} ,
Ġexp lanation
Ġchange s
fe ed
upport ed
aly zer
ĠAttn MaskType
interle ave
æĺ ¯
Ġlight rag
GNO RE
C ho
L lama
W rapper
in place
to m
ĠT E
ab c
lay out
pre vious
ter adata
ĠF rame
Ġst ored
Ġad ding
min us
right ness
Image Processor
Ġent ire
ank le
Ġsign ature
Check point
Ġlet ter
aff ine
Read er
çĶ ¨
IGHT S
> __
N N
R ight
i er
i pped
t ur
æ ł
in paint
ion Error
un its
Ġd uration
Ġ- --------------------------------
ĠF ind
ĠI d
ĠO ff
)) ))<
call s
Ġign ored
ä¸ ª
Ġcondition s
Un known
resnet s
C ODE
d om
g aussian
é Ĺ
Ġ ])<
de lay
al go
le arning
ge om
Ġp ush
Ġs olution
Ġs chedulers
Ġb its
con tact
tok s
config uration
pos itive
bu ilder
mo unt
Ġal phas
ac ross
TE XT
LU M
ĠTransformer Block
Ġext ension
ĠMo E
Ġoper ations
âķĲâķĲâķĲâķĲâķĲâķĲâķĲâķĲâķĲâķĲâķĲâķĲâķĲâķĲâķĲâķĲ âķĲâķĲâķĲâķĲâķĲâķĲâķĲâķĲâķĲâķĲâķĲâķĲâķĲâķĲâķĲâķĲ
reason ing
. ,<
3 00
C ase
R T
U tils
c ert
e ch
g old
j pe
} $
re ject
Ġp il
Ġp ol
di screte
Ġb i
po oled
vi dia
ĠC U
us oid
Ġde d
ĠF ield
range s
ĠĠĠĠĠĠĠĠĠĠĠĠĠĠĠĠĠĠĠĠĠĠĠĠĠĠĠĠĠĠĠĠ ĠĠĠĠĠĠĠĠĠĠĠĠĠĠĠ
Ġmo ved
Ġpatch es
Ġsign al
segment s
ĠPo licy
Ġmegab locks
. '<
7 9
F E
G rad
g g
â ĸ
re con
ch romium
to xic
Ġe od
den oised
pect ive
Ġcheckpoint ing
enc ies
Ġback ground
template s
free ze
umul ative
Ġresolve s
Ġretrie ved
ĠModule Spec
' .<
G PU
l arge
p po
r igid
s afe
at map
de an
al yz
ad vantages
Ġ[ (
res olve
ĠR andom
ase d
In version
Ġdown sample
place holder
requi rements
sim ilarity
Ġcoordin ates
parametr ize
I ON
k ing
se cond
ar p
an ded
id entity
Ġw ave
co gn
Ġg old
Ġse p
cu um
unt il
Ġid entity
Ġchunk ed
Ġiter ator
find all
Ġformatt ed
êľ ±
ighbour s
A X
Y S
m ix
u cli
Ġre verse
pe ech
con f
Ġ[ ],<
wa ve
ĠF l
log y
Ġcode book
Se q
Ġinter cepted
ak y
normal ized
Ġseq len
Ġinst alled
ĠSet up
Ġ.. .<
Ġax es
Ġshift ed
can vas
Ch unk
ĠLo RA
ynchron ous
TRA IN
cum sum
ati os
ucli dean
` "<
s ite
y es
Ġs li
Ġa mp
one y
em it
Ġ' '<
list box
ann el
add itional
Ġtrain ed
IN TER
Ġ) [
Ġrequi re
Ġadd ress
Ġent ities
100 00
aut ocast
Attn MaskType
Ġshort cut
Ġip db
Ġbuil ding
Ġfe et
Gra ph
: ")<
] }
] ])<
b rid
c ategory
n b
p loy
r ench
s il
Ġt aken
Ġb enchmark
un ing
arg er
Ġcon catenate
Ġdi d
Ġpro j
Ġth row
ĠF ace
init e
code cs
ĠN ew
cos ine
Cli ck
Ġpack age
ĠConv Block
mem ber
OP ENAI
pay load
3 8
4 00
h s
Ê ı
ç »
at an
en g
re l
Ġf lip
Ġin correct
Ġs afe
ext Model
up lic
Ġ1 7
Ġcon n
ri a
Ġex pi
ĠS cal
Ġde epspeed
ĠP attern
(' -
Ġpre processing
bo dies
ĠE ach
low res
ok up
eval uation
ER S
Ġcontain er
ĠFor ward
ĠPre Trained
non zero
ĠRetro PreprocessingConfig
BU G
fs dp
Te mplate
U L
V ar
\ '
d raw
l ers
s uper
t b
t len
t wo
Ġs mooth
ent ities
po wer
Ġcon tact
ri end
ĠC lient
Ġma gnitude
Ġl er
ĠU ser
ip her
seq len
Ġgra de
Ġq k
comp at
sub mit
Ġ} )<
exist ing
Ġexec ute
ãĢ Ĥ
contain er
ĠOr deredDict
Batch Norm
é¢ ĺ
ĠControl Net
tlen eck
B C
M M
a a
f lip
m er
p ly
t an
v llm
à ¦
ç Ń
è §
an ced
Ġs paces
pro p
Ġe le
Ġme ta
"] ]<
Ġco urse
Ġpre train
ta gs
ca p
ĠN ode
act ual
fix ture
ug gest
EM B
Sh ift
Po st
Key board
Ġclo ud
sn r
variable s
Vi ew
6 0
M ode
V ector
W ord
s ources
t gt
è ¡
Ġ visible
on ion
ch ars
Ġ" @
Ġre call
th row
Ġe as
Ġan alysis
Ġno isy
extra ction
St yle
doc uments
old ers
Ġact ivations
match ing
Ġvocab ulary
ðĿ Ĵ
CA CHE
Ġsim ilarity
ĠTe mp
Ġradi ans
Ġbo unds
Chat Message
ĠIter able
ĠIter ator
Ġretrie ve
Ġcook ies
Ġler obot
) `
2 20
C reate
D et
E nd
F AI
I I
T ra
h ip
} '.
Ġ vertices
and box
Ġd ense
qu ent
ĠC a
sample d
ĠB lock
ĠG ra
scal es
Ġstart ing
PI mage
ĠK arras
Ġiter ations
shot s
Ġeps ilon
Bu ilder
Ġcolumn s
Un expected
Ġ20 48
shard s
Ġthread ing
U ns
f ar
f alse
g an
t re
x start
in sum
on nx
Ġf f
di stribution
Ġs peed
Ġ# ################
el low
pt r
Ġ( -
et s
ĠA I
key board
sc ene
ĠD B
ase s
ĠIn ter
sub process
Ġmatch ed
Se lector
ä¸ Ģ
bi encoder
Ġreward s
ĠRa ises
EMB ED
7 6
> ",
i pping
o ising
{ "
å ¼
Ġ annot
Ġ visual
re turns
Ġs r
Ġd inov
int ernal
Ġ1 8
ass ign
Ġun wrapped
ĠB ert
([ ])<
=' ',
rot ate
ret ries
Ġend point
ĠSt ate
Ġtransform ation
Browser Context
Ġdes ired
slot s
slic ing
ĠCU DA
! "<
F rom
e lapsed
u uid
ro bot
to uch
im gs
is file
Ġx s
Ġnum er
log it
ĠE val
ĠB lended
IN ST
12 4
Ġfunction al
AS K
Ġcode s
not e
Ġpass ing
cur ity
mplet ions
kl s
Ġman ager
segment ation
exception s
rim inator
WAR NING
GRE EN
Discrete Scheduler
Ġwave form
2 9
R ep
] {
{ {
re ssion
Ġn gram
Ġd raw
qu ation
Ġdi lation
mple x
Ġde bug
ĠD ropout
inf er
Ġca pture
Ġlayer norm
col s
LE D
GE LU
20 48
ĠMe ssage
pri ate
Ġá´ Ľ
Ġpack aging
åı ĸ
ĠConfig Mixin
met as
. "
T RI
V ersion
k y
r atios
z A
se mester
re lease
Ġp ayload
Ġf act
Ġn one
Ġa z
un padded
Ġ1 4
ĠA da
wa v
[: :-
Ġ} """<
Ġinstance s
99 9
ĠRes ult
Ġoptim ization
Ġpipe lines
Ġaverage d
Ġpers on
hand s
separ ator
oug ht
Low dim
m enu
o pacity
Ġf fn
Ġin place
Ġs ources
un finished
Ġd er
(" -
(" _
Ġstr ength
ĠM emory
Ġch allenge
") )
Ġlist s
qui val
unt ie
encoder KL
ĠH ere
async io
default s
Ġmp s
Ġ6 0
Ġepoch s
Ġenvironment s
Ġver ify
termin ation
âĶĢâĶĢ âĶĢâĶĢ
~~ ~~
sens itive
Ġwa its
ĠVA E
âĸ Ī
EMBED DING
) \
C har
P er
S U
o ser
s parse
an cing
Ġp ur
he el
Ġs ay
Ġre tain
Ġm odal
Ġcon structor
Ġ' /
ĠS keleton
ĠN e
Ġcont iguous
Ġup sample
Ġrun time
uc ing
reg istry
Ġuser name
normal ization
Ġback end
Ġneed le
Ġallow s
lear n
Run time
Ġinv ok
conne cted
Web Socket
multip ly
interpo late
ĠNorm alize
Ġpropert ies
Ġgu ide
F lax
G TH
L S
O nly
V ideo
b da
m odal
u ge
ce ived
Ġc la
Ġb py
and as
() ])<
Ġl arger
ĠD agster
Ġun less
Con nection
ĠE mitted
ĠG LOBAL
ĠĠĠĠĠĠĠĠĠĠĠĠĠĠĠĠĠĠĠĠĠĠĠĠĠĠĠĠĠĠĠĠ Ġ
Ġ4 8
Ġup per
Ġscal er
ĠSt yle
Ġfeat s
Ġpass word
Context Manager
ĠGPT Model
Co mpletion
Ġstream ing
Le ft
ick s
Ġden om
skeleton s
support ed
Ret ro
Ġappro priate
ĠIndex edDataset
Ġcu da
ava Script
Ġmon itor
. ",
A uto
C AL
P ass
S df
Y EL
m args
m ixed
} }
de ep
Ġp k
Ġp in
Ġp eft
Ġc p
Ġs yn
ue ue
ul ator
Ġ( )
orm alize
ĠT ra
am o
ĠC lass
us ing
ĠS ingle
Ġth ose
Ġse ction
Ġse mantic
ĠR o
Ġj it
######## ####
ual Inversion
Ġcol ors
do uble
Ġcomm it
MODEL S
shift ed
Ġshard s
Ġdownload ing
Ġter m
Ġvi rtual
ĠMegatron Module
lationsh ips
Uns upported
YEL LOW
ualInversion LoaderMixin
g al
n se
z arr
or n
Ġf aiss
Ġn obs
Ġ" `
ent ries
Ġa da
Ġb ranch
Ġd at
Ġd atas
att ach
par agraph
qu ared
Ġh op
Ġme dia
ĠL O
ĠP i
Con vert
ĠG roup
ĠThe se
Ġad vantages
02 5
)) ]<
Ġcol late
fn s
ĠCon text
') ;<
linear ity
Ġexp r
handle s
temp oral
Ġexec uted
ĠGPU s
element s
mid dle
pers on
Timeout Error
Ġdeprec ated
ynchron ize
Ġmodi fy
LEN GTH
Ġta gs
amo unt
3 3
W riter
c is
f path
in clude
ro q
it ed
as c
di lation
Ġn avigation
Ġb f
Ġto o
ser ve
ser vice
ĠT arget
Ġg uess
point er
class ification
ĠO ptimizer
Ġres ources
ĠW ait
Ġtest ing
Ġcont rast
Ġup load
Ġmay be
\" ).
Ġurl lib
De code
AN D
case s
Ġsign ific
Ġprovide s
Ġbuil t
peri ence
esc ape
Ġinher its
P y
P ASS
b lack
f ont
j or
Ð °
de sc
ut ures
Ġf eed
Ġc y
Ġ" #
Ġ" ":<
Ġre compute
Ġ' ',
__ ).
Ġx yz
ĠF eed
Ġst able
mo st
Ġli k
ĠModel Config
freq s
Ġcons umed
pl anner
So ftmax
Ġquant ized
ik token
) ],
D S
D DP
U Net
h w
x ml
å ®
Ġp ot
Ġf lax
Ġf riend
Ġc ot
Ġin di
con st
ĠT rans
(' _
Ġk now
row th
ne e
Ġne ighbors
In fo
Ġinter face
Ġglobal s
Ġfa ils
ĠY our
vq vae
Ġcharact ers
alloc ate
wave form
Ġsignific ant
) },
> """,<
A b
A CT
C all
E nt
b asic
de epcopy
Ġp ip
Ġ" %
ing s
ot ing
Ġw in
con cat
Ġh uggingface
Ġ{ :
"< |
ĠF LAGS
bo unds
ob ar
ca pacity
TE M
be g
Ġ{} :
}. {
MA GEN
acc um
VI CE
concept s
Ġrepresent ing
access ible
interpo lation
Scal e
Ġrece ive
ĠDDI MScheduler
Ġindi cating
! <
* ]
: ',
> -
S ample
a mazon
c ot
s quare
Ġp ut
ate st
pro blems
Ġde g
---- <
ĠB asic
fa ces
Ġ4 2
Ġmat erial
Ġsc ipy
Ġexpert s
ĠGener ator
ĠLlama Factory
By tesIO
Ġhand ling
ĠLa zy
PImage Processor
B ox
G M
P ES
U RE
h op
k h
m argin
å Ń
Ġ cell
ch ans
he st
Ġb it
path lib
Ġe ar
ĠL ight
Ġse c
ann ing
Ġun iform
ĠV i
") [-
ph one
IN PUT
jo co
Data Frame
comp uted
clo sed
Ġtop ic
ĠSt able
ĠSt ore
Ġfin ally
En ter
Ġperform ing
Check er
smpl lib
As set
Ġ[{ "
Ġexce ed
0 7
? ",
_ %
er c
ro les
Ġs imp
Ġre vision
ul ly
Ġ( *,
co uple
att empt
ĠT ransform
ic ode
Ġh i
ĠA fter
Ġl lava
pi ck
Ġan other
pa irs
ĠG lobal
ĠRe set
16 384
be am
Ġrot s
Ġextra cted
Ex pected
Ġ100 00
Ġperform s
pers istent
Ġsaving s
BO S
**** ****
peri od
ĠCLIPT extModel
Ġhuman oid
TEMPLA TE
Ġinvok ed
) }<
. '
L R
V E
a ive
e ef
f it
i ded
re qu
Ġm ixup
ort ho
att ing
Ġcon cept
ver bose
ĠA ss
res ources
Ġth ree
Ġ` [
Ġassert ion
Ġcomp onents
new line
conv ention
inter face
Ġact ive
HT TP
Transformer Layer
pri o
wh ite
Ġclo sed
clean ed
Ġhigh er
Ġpropert y
B e
M id
] [-
u ator
} -{
Ġ very
in u
Ġt s
re try
st derr
Ġp bar
ed ia
Ġc ritic
im m
Ġ[ ]
data path
Ġ+ <
ĠS imple
Ġth resh
Ġ: ],
Ġres ource
ron g
ON E
á´ į
be ams
ĠSe arch
Ġcorrect ly
Se arch
Ġback bone
script s
ĠĠĠĠĠĠĠĠĠĠĠĠĠĠĠĠĠĠĠĠĠĠĠĠĠĠĠĠĠĠĠĠĠĠĠĠĠĠĠĠ ĠĠĠĠĠĠ
De vice
fi refox
Ġden oised
æľ ī
Work space
VER SION
pet ition
ĠWeb Socket
Column ParallelLinear
ĠDet er
Ġoc cur
8 8
9 4
B ack
a h
e ol
k nn
m ar
o cket
s mooth
mp y
lo or
ĠT HE
sh a
Ġde vi
pre dicate
Ġse g
ĠF I
ĠF rozen
Ġsh ared
ĠO n
ĠG E
bs ocket
Ġname d
Ġca re
ag ents
mode s
Ġref er
gress ive
Ġtrans fer
pack age
bucket s
istr al
h ere
z one
æ ŀ
ch allenge
Ġf ont
di amond
Ġn umel
Ġc ent
Ġc sv
Ġ" ",<
Ġs an
Ġa mount
la zy
co mpleted
pro x
ĠT er
Ġg ym
ĠA ct
ĠS TA
end of
ĠF irst
eight s
Ġst ar
Ġro l
ĠV ideo
([ [
Ġdict s
post process
Ġrun s
ĠK e
Ġhelp ful
Ġgenerator s
ĠBrowser Type
Ġsim ilar
SH andle
WOR LD
BO X
mi mp
Ġdeprec ation
Ġhash lib
Ġtokentype s
Ġscre enshot
Ġsat is
RN G
usoid al
couple d
( ""
P rune
_ ):<
c f
r strip
t i
w rench
ge mm
Ġre versed
vi sed
att rib
pro file
Ġg amma
Ġ< <
ĠS cheduler
cl uster
ĠP RO
ĠF orm
ĠD ATA
Ġget s
wait able
rot ations
SE S
OR S
vant age
roll er
Ġext ended
DATA SET
Megatron Module
Ġsmall er
Ġobserv ations
RANK S
ĠLoc al
Ġlear ned
Ġhy dra
Normal izer
Ġfriend ly
B o
E vents
N on
T otal
[ _
b ig
m cs
Ġ ema
se mantic
re ci
Ġc at
Ġc od
Ġ" $
Ġm uch
Ġw atermark
ext ension
co mpletions
() [:-
Ġe quival
ĠC O
ĠP eft
Ġl atest
Ġuse ful
Con f
Ġy aml
fa iss
Ġcont ents
page s
In itialize
lin ing
locator s
fo obar
oken izer
NA MES
ĠDe epSpeed
Ġpack ed
ĠTask State
ĠĠĠĠĠĠĠĠĠĠĠĠĠĠĠĠĠĠĠĠĠĠĠĠĠĠĠĠĠĠĠĠĠĠĠĠĠĠĠĠĠĠĠĠĠĠĠĠ Ġ
ĠText ualInversionLoaderMixin
Ġcomput ing
Av ailable
Ġded up
ĠBlended Megatron
endof text
G ather
L N
S W
W arning
a verage
c nn
ç º
Ġ ^
re search
Ġc r
ort h
ol lama
Ġdi vide
ĠP rint
ly ing
Ġtoken ized
ĠĠĠĠĠĠĠĠĠĠĠĠĠĠĠĠĠĠĠĠĠĠĠĠĠĠĠĠĠĠĠĠ ĠĠĠĠĠĠĠĠĠĠĠ
Ġby te
read er
Ġle ave
Ġte ch
Se lection
TH ER
Ġref resh
table s
Ġtrans lation
Ġrow s
Ġman age
Ġappro x
Assert ionError
Ġconne cted
Ġcom ment
cred entials
) ')<
6 6
8 9
G RA
M O
[ (
h yper
i od
l ue
m q
v h
w atermark
in correct
Ġ= ================
Ġc ard
Ġre scale
Ġa ux
Ġ( :
(" ,
Ġh p
ĠS df
wa xis
init y
ĠR E
00 1
unk nown
ir cle
ne waxis
DE BUG
post er
)) [
Ġurl s
({ <
qual ity
ĠAuto encoderKL
MP L
Ġ$ \\
Ġá´ Ģ
Name d
40 4
aut oresume
ĠType Error
Scal er
ĠId entity
éĹ ®
' re
) [:,
3 9
A MPLE
C lo
W rite
h ist
h yp
o v
w n
x l
å °
å ĩ
é ĩ
Ġp ower
Ġf oc
Ġcon f
embed der
oc ent
Ġch o
ĠRe ad
Ġgener al
Ġcomp ress
PT ION
Ġper cent
col ors
á´ Ħ
ĠEx pected
response s
Ġ{} )<
Ġ... ')<
ĠJ avaScript
ä¸ º
Ġimplement s
Gener ate
riter ia
22 4
"[ !]
timestamp s
oriz ont
Ġregister ed
String Formatter
ĠAgent Prune
PreTrained Tokenizer
Ġmodifi ed
Ġsat uration
åĽ ŀ
Ġinterpo lation
Ġrg b
Ġdevi ation
éĹ® é¢ĺ
A dapter
D Model
J o
S ay
b ine
i mplement
p drop
r s
u an
w ik
» åĬ
al s
Ġs sim
ur ses
um mary
(" [
ĠS in
den ormalize
work flow
comm unication
conv ersation
Ġcan didate
Ġ... ]<
iss ues
oth ers
Ġinst ant
Ġdis k
dis k
Ġread er
ĠĠĠĠĠĠĠĠĠĠĠĠĠĠĠĠĠĠĠĠĠĠĠĠĠĠĠĠĠĠĠĠĠĠĠĠĠĠĠĠ ĠĠĠĠ
Ġdeta ched
Locator Assertions
Le aky
ear ly
ĠCLIP Vision
Ġscre en
Ġeffect ive
LUM N
Leaky ReLU
D M
p lex
w allet
Ġ ...,
Ġn d
con struct
Ġh ar
). """<
Ġ` "
Ġpre ds
") ]<
Ġcontext lib
scal ar
Ġattention s
col lis
ĠIn ference
Ġsub mit
Ġus ually
Se ssion
Ġtra jectories
Diffusion S
EX P
Ġclos ure
account s
++ ++
ĠDiffusion Pipeline
Ġremain ing
Ġiss ues
Ġgive s
æĸ ĩ
C ore
L a
[ ~
b mm
f lops
g acy
or ary
Ġp andas
ing er
Ġw on
co me
co ef
pro cesses
Ġcon current
__ )<
Ġ""" ()
ĠS p
wa p
ĠI magen
os itional
yp edDict
Ġgener ic
np z
Ġcomp uted
RE CT
ifi ers
ific ate
Pro vide
Ġtra cker
CH AN
ckpt s
quant ization
Ġred ucing
ĠCLI PImageProcessor
Ġmicro batch
ĠRot ary
lim iter
Reg ion
ĠDistributed DataParallel
Ġarch ive
Ġconne ct
buil t
Ġrol lout
W w
c ancel
d ino
h m
Î ·
er un
Ġn b
Ġc allable
Ġs olve
ex act
co ders
ĠT YPE
ab out
ĠC all
pre training
Ġlog it
Ġsh arding
token ized
Ġro les
ĠE mbed
pose d
12 7
Pro jection
oi ce
Ġexp licit
gment ation
fin etune
fin etuning
ĠRes idual
eff ect
mult imodal
Ġwra p
Ġwra pped
dest ination
ĠDP M
Ġser vice
ĠCLIPT okenizer
Ġns fw
çŃ Ķ
ĠLight RAG
DiffusionS chedulers
L DER
P H
S olver
] ")<
f ocus
g its
l tk
Ġt iktoken
ce ive
he atmap
Ġ" \\
Ġb anner
ig ger
Ġcon cat
__ ':<
ic ation
pre view
Ġout er
wa i
ĠF in
Ġco eff
ĠV ae
chunk ed
col on
Re turns
Ġ... '.
war m
Ġtr ust
exec utable
Po int
audio set
Ġeff icient
Sharded Strategy
need le
Ġrece ived
HO ST
STA TE
mov ement
vid ence
ĠCheckpoint ing
Ġagain st
ĠRetrie ve
Ġ([ `
ĠPreTrained Model
Ġcod ing
ocent ric
plex ity
ĠVae ImageProcessor
. '.
2 55
B E
E num
F unc
M PU
V Q
W idget
` ].
g onal
h olders
n v
s at
} `
Ġ ],
de terministic
Ġn ullable
() `.<
Ġ[ ])<
== <
Ġh ad
ĠL anguage
ĠW indow
te ger
comp ress
Re quired
Ġclass ification
Ġcond itional
graph s
Ġfin etune
ite ct
stant iate
Ġstride s
Ġchar set
Ġfilter ed
Ġprod uce
ĠAd am
ĠConfig uration
Ġser ial
æĪ Ĳ
WE IGHTS
requ ency
* .
. '''<
E VAL
F in
] `
e lastic
f user
or ing
re ach
an e
Ġp romise
Ġin dic
Ġa dapter
th resh
ĠF used
oc ap
Ġlog probs
for k
float ing
net Block
RE A
** *
deta il
util ities
ĠJ o
Ġread ing
ĠSharded Object
rim ary
Ġtimestamp s
let ter
ĠDDI M
CHECK ING
> """
C TION
F LAGS
M UL
a ces
c atch
c pp
s uch
w ner
} }<
on s
de t
Ġp m
Ġf mt
Ġn pt
Ġa m
ur ations
ul ated
to do
ĠT ORCH
Ġg aussians
(" `
ab ort
ĠA SC
ĠS top
Ġse ver
per form
Ġan alyze
file path
ĠB ack
ĠV ision
com bin
av asc
iv ative
In paint
Ġiter tools
Ġurl parse
Ġ"< |
acc ard
PO INT
Base Model
mediate ly
Ġwait ing
Ġdisable s
ĠLayer Type
few shot
Ġdeprec ate
Ġmodifi ers
writ ing
ĠDeter mine
avasc ript
) ],<
/ %
R ow
b il
b all
i ed
i LU
r atch
r ins
v oxel
w en
y les
y ellow
Ġ es
Ġ lib
al th
Ġp db
Ġf ace
Ġ" ".
Ġs andbox
Ġre petition
Ġo sp
li es
ĠT RA
is m
Ġ{ {
Ġe quation
Ġde term
ĠP osition
ĠI defics
Ġan kle
log var
cont inuous
ĠE ngine
ĠW rite
ĠB ERT
block ing
Ġal loc
mat erial
Ġsuper class
Ġper iod
join path
Ġrequi rements
ĠIn struction
dis pose
LA Y
Parallel Region
lear ned
pack ages
Ġpa irs
ðĿ ĳ
pl ugin
ĠUp load
ĠTrain ing
cy an
oug h
æį ®
Dep end
åº ¦
sil u
ĠASC II
" (
+ )
/ ",
A G
I GNORE
V e
Z ero
b log
d uct
h am
m map
t emb
re lation
de ploy
Ġs quare
ur face
ad min
Ġw idget
Ġh ard
Ġh orizon
cl us
ĠI gn
ule s
ĠM et
Ġro bot
lic ies
Ġal tern
iv ers
seq s
arch ive
OR Y
Ġmo v
LA MA
RO OT
CT YPE
avi ate
Ġsuccess ful
Ġbo olean
Ġdistance s
BA CK
ru pt
lb ow
sli ces
ĠHow ever
ControlNet Model
Ġoccur red
ĠTRA IN
C rop
D ate
M ax
P l
T ok
b ad
e insum
f loor
æ İ
Ġt anh
re ctor
re moved
re lated
lo o
Ġc umulative
Ġre l
pe ction
un used
res olutions
config s
Ġco v
ĠI F
oc ation
pi ece
(' >
gat ed
ĠN et
view less
Ġindex map
Ġle ss
ĠEx ec
conv s
Ġz arr
AR K
Ġone s
exec utor
description s
click ed
partition s
Ġarray s
To e
Col ors
Ġabs olute
Ġ"[ !]
CES S
candidate s
ĠKarras DiffusionSchedulers
Ġmodal ity
ortho gonal
ĠGE LU
poster ior
orizont al
) -
/ <
4 4
7 2
A ction
D ir
F eat
G ER
H o
M at
M issing
O pen
] [:
b ed
f utures
h ard
x z
x formers
z h
É ¢
è ½
in ria
re main
re write
re cords
it ting
mp s
Ġp r
Ġs il
Ġm argin
Ġb al
use s
Ġst ages
=" #
Ġun expected
process ors
Ġpo ster
sw iglu
yp ass
eval s
split ext
work s
Ġindex es
by te
Ġscal es
exp r
Ġcall er
Pro tocol
ĠSt art
Att ribute
ap ed
Ġatt empt
ĠTime out
Exec utor
('. ')[
PP ING
gu ide
ND MScheduler
SA GE
Ġformatt ing
pr ime
Ġevalu ated
Ġequival ent
E dit
P ayload
S ystem
f mt
s pect
v t
æ ¡
Ĵ Į
Ġs ide
get her
ĠS end
ĠS QL
pre ference
ĠL ear
ĠP ad
sp aces
ĠF aiss
tensor board
Ġlog var
Ġimage codecs
Ġbatch ed
ĠV ocab
ĠG o
Ġdo uble
ĠH andle
ho od
ag onal
Ġmo mentum
Ġact ually
MA P
MA T
db l
ateg ies
AT CH
Ġtrans ition
pack ed
Ġfilename s
unic ate
StableDiffusionPipeline Output
Éª É´
('. /
Ġpix els
access ibility
gri p
redirect s
ĠDDP MScheduler
Iter ation
dispatch er
Ser vice
Word Piece
ĠFeed Forward
Ġsatis fy
Depend ency
R ed
S afety
S YS
W S
d uplicate
g lu
h ing
in cre
re cursive
ar se
Ġn g
ext ended
con da
Ġas ynchronous
ver ify
ĠP ipeline
Ġse n
gra de
token ization
ial og
Ġk ernels
Ġtext area
Ġcontext s
Ġno ins
ĠOptional Dependency
spec ific
post s
') [-
over flow
req s
perm uted
Ġcalc ulation
ä¸ Ń
cre ated
CK ER
Not Available
ĠAn swer
Ġaff ine
âĢ Ļ
ĠDis able
ĠBy tesIO
UT F
Ġshe ar
TIME OUT
jpe g
uplic ated
bil inear
Ġnoins pection
ĠOptionalDependency NotAvailable
. /
6 5
D rop
E pisode
I nt
M emory
X L
` ](
f rozen
r ing
s r
s peed
ä ¹
æ ī
in cr
at ernion
ct ime
di vide
Ġre cover
Ġre commend
ent ence
Ġm b
Ġm ul
Ġm otions
Ġb box
Ġb rightness
ad lr
im it
Ġ' ')<
Ġh ue
name space
ĠL ora
Ġx y
Ġres olved
ĠU sage
ca ps
Ġtext ual
ĠV it
Ġkey words
nn x
off line
ay stack
Ġq s
DE VICE
Ġgroup ed
comp onents
Ġmo ment
Ġinter section
={ '
drop down
initial izer
Ġatt ached
Ġnon local
Ġimp ro
Ġemb s
Run ner
plan es
Ġpc d
Ġhook s
220 5
> "
A PP
C re
D ec
E qual
G O
Q ueue
S uccess
c ip
h it
n ested
s uc
Ġ â
in i
se quent
ge ocentric
Ġf an
Ġf usion
as is
Ġo llama
ad v
get attr
ĠT P
__ __
ma ps
ma gnitude
out ube
Ġh m
Ġde terministic
sc ape
Ġ` {
ta x
Ġv oxel
Ġch k
cor er
Ġdevice s
Ġmask ing
Ġlat s
comm erc
trans itions
Ġsub module
Ġextra ctor
Ġmat mul
Ex tra
button s
Ġfil ters
Ġ12 3
Ġhandle s
Ġversion s
EX AMPLE
optim ization
Ġman ually
ĠEn code
MS Norm
Ġgraph s
tri al
ĠAd just
Ar gs
éĢ ģ
compat ible
SW ER
inger print
ĠASCII Colors
Safety Checker
commerc ial
A sync
S iLU
U AL
W hen
e g
j obs
o ot
r ust
v db
å ĴĮ
ç ®
ro sa
Ġf it
lo okup
Ġc ategory
Ġc ql
Ġre mote
ra p
ad ing
un route
um b
str on
co in
Ġpro per
Ġim gs
(' "
ann y
Ġres pect
Ġun wrap
yp al
ph i
ari able
ler obot
position al
ast ic
MA PPING
Ġpi ck
partition ed
Name space
Ġge lu
ĠCh unk
curs ively
sec ret
Ġlon ger
ĠTh ere
Multi step
MES SAGE
fact s
ĠLoc ator
mega Conf
Ġhapp ens
Reduce Op
âĸĪ âĸĪ
Ġcla mp
ĠPi pes
clus ive
" .<
A uth
F inal
J OR
P Y
P ix
R ot
_ "
b eat
d ones
f ct
k ernels
m oney
s pectrogram
Ġ vertex
at ic
re vision
al one
Ġi de
un bind
la ced
Ġw d
Ġfor ms
Ġd ump
co ord
set default
il ing
Ġcon version
(" **/*
am ing
key A
pre processing
Ġ2 01
Ġpro tocol
om ial
Ġint ent
query Selector
cond itional
ry an
Ġca ptions
DE D
Ġhe l
Ġcheck box
Ġsp an
Ġinitial izer
MA JOR
Ġoptim izable
Transformer Block
istr ation
ummy Object
Ġasset dir
avi er
Value With
TY PES
gorith ms
aug ment
ru pted
19 2
real path
ÊĢ á´ĩ
ĠFile NotFoundError
Th read
lon gest
separ ate
Ġperm uted
Def ault
Query Param
Ġlik ely
EXP ERT
Ġsever al
ValueWith Rank
$ ",
) +
A pi
N T
` :<
b ay
b reak
d ynamic
f b
g ler
p ublic
q drant
s chema
Ê Ļ
Ġ embeds
Ġ ðŁ
ch astic
di gits
Ġs sl
Ġre shape
ex pi
ex pose
Ġthe mes
un ity
(" >
ĠA uth
ĠA CT
ĠC ode
ĠC ourse
Ġme sh
Ġ2 1
Ġma de
ĠI CT
Ġk nn
ĠW ill
pa ypal
red uction
bs ite
Ġ4 00
ĠSe ction
Se gmentation
DO CTYPE
pipe s
bi ased
rag gler
scre enshot
Ġrep lay
Ġresnet s
Col or
Ġrepresent s
ĠCh annel
Attn Processor
Ġu uid
ele ms
ĠKey Error
interle aved
Ġnull context
tur bo
è¡ Į
' `
) [...,
= (<
A waitable
M otion
O wner
T arget
U net
b c
h p
r ho
å ¾
Ġ ))<
Ġt xt
re arrange
ch or
ex e
ur u
con fidence
qu ote
che me
ĠS kip
ore gressive
py plot
te ch
ne ighbours
Ġrange s
Ġso cket
col lect
inter section
fo v
ĠJ son
ĠPro gram
EX T
ĠEn able
Mask ed
render er
pc d
ĠĠĠĠĠĠĠĠĠĠĠĠĠĠĠĠĠĠĠĠĠĠĠĠĠĠĠĠĠĠĠĠĠĠĠĠĠĠĠĠĠĠĠĠĠĠĠĠ ĠĠ
sl ug
Te mp
.* ?
oper ations
Ġbl k
Multistep Scheduler
" ^
> '<
A ss
C ould
J SHandle
M I
S QL
b ryan
g loo
m ismatch
t uning
å ľ
è µ
Ġ err
or ized
Ġt ait
ro ck
Ġn x
Ġs ort
ot es
int ain
get Logger
Ġh q
Ġh ist
ĠC an
ĠS H
num s
Ġma king
Ġco pied
pa use
") ),<
Ġq vec
read lines
Ġup sert
Ġle vels
Ġle gacy
Ġinter val
Ġprocess ors
bin ding
select ive
ĠPar ameter
ins ky
Ġconv olution
AN SWER
past e
ĠQu aternion
Server Config
âĢ Ķ
calc ulate
TRA CKER
TEST S
follow ing
è® ¡
WORK ING
Cho ice
Ġele m
MAGEN TA
MUL TI
' >
) [:
. ".
2 30
A t
B asic
F irst
V ec
[ /
e cho
f time
g uess
k p
w heel
x label
Ġ Ð
in ing
Ġre prod
ra ise
Ġto po
str ftime
() }
Ġdi stribute
ĠF ore
[: ]
lic as
RA TE
exp lanation
Ġpadding s
ateg ories
Ġdiff s
List ener
Ġapplic ation
ä¸ į
ssi b
Ġab stract
warning s
ï¼ ļ
Request Exception
human ml
ĠĠĠĠĠĠĠĠĠĠĠĠĠĠĠĠĠĠĠĠĠĠĠĠĠĠĠĠĠĠĠĠĠĠĠĠĠĠĠĠĠĠĠĠĠĠĠĠ ĠĠĠĠ
Ġinte gers
mi ssion
Work er
Ġinclu ded
Ġmult imodal
FOR M
="" )<
Ġbegin ning
Ġfunctional ity
Ġdeterm ine
( ',
* (
A RE
R ender
U sing
d st
e e
h ml
i an
i ke
u rable
w i
w atch
ä ¿
Ġ videos
an alyze
le ted
ch ine
Ġf ine
Ġf max
Ġm map
el i
pt ive
str ength
() }"<
ĠC ore
key word
pre comp
Ġ2 8
Ġ2 24
Ġout side
Ġr mat
Ġr ather
Ġim mediately
Ġro bomimic
cont ents
stribut ions
mo ving
ĠIn valid
In it
ho ulder
Module Spec
doc strings
ĠCon sole
Ġ... ]
factor s
do cker
ĠPar ams
decode d
Ġrep r
ĠDe coder
Ġassign ed
ĠNO T
loy d
Sharded Tensor
Ar ray
Ġarch itect
cho oser
Vi T
ĠSo ftware
SC RI
Ġtrace back
Ġhapp en
ĠFrozen Dict
implement ation
ĠSin ce
$ $
I Z
] ])
a z
d dim
n q
o ulder
p assed
q vel
x s
{ }
¨ éĢģ
ä ¼
en coders
ch ing
Ġc md
Ġs ol
ra ction
rom a
ĠT r
Ġe lastic
Ġth ink
pi es
Ġan thropic
Con sole
cont rib
ĠE num
mb le
Ġweight ed
á´ ĺ
Ġstart ed
eta ils
ĠSt ream
Di stributed
Ex ample
edit or
atal oad
tk s
Ġfollow ed
Ġsk ipped
CO PE
SH IF
|> \
Ġar p
Or iginal
Mo ck
ĠKey board
Ġ================================= ============<
Ġplace holder
Ġexce eded
LOG PS
ĠStr ing
Ġdest ination
ĠGLOBAL S
Ġdenom inator
MODELS COPE
ĠSTA TES
combin ed
SHIF TED
( #
/ "<
> ################################
B IN
L d
L ay
T op
T RAN
b r
d rag
f lower
n ll
o sp
à ¹
Ġ er
in jected
er tain
re ceived
de corator
Ġf min
Ġre sample
Ġthe ta
Ġif rame
Ġto gether
Ġd ro
con stra
th an
from array
__ ,
Ġg ri
Ġh ml
res ses
ĠD ep
Ġr ename
Ġpre training
ron t
sw itch
start ed
Ġname space
view s
ĠH ead
SE P
Config uration
DI CT
Ġinter le
Ġpy rogram
Ġdown loaded
Ġsc atter
Ġ8 0
stack s
mark er
Ġtemp file
ĠAtt ribute
download s
Ġpool ing
Lo RA
48 7
Ġbucket s
Ġmid dle
ĠAl so
Ġdialog ue
Up date
link s
ĠPo st
Ġprobab ly
ĠOllama ServerConfig
way point
Ġconsist ency
Ġexpi re
) ;
* ):<
, ),<
A da
J E
M ENT
S core
T ree
\ ":
b ones
h u
m ma
m unk
n th
s ynchronize
y ing
å Į
re commend
>< !
ch em
ch dir
Ġp ublish
di gest
pe ak
Ġb asic
co ordin
th ink
() ),<
ĠC urrent
ĠL La
"] ))<
sc ratch
Ġr ho
Ġlog uru
ĠO ver
ĠM an
pos it
ĠN ow
ph ore
content loaded
SE D
LI TY
LE CT
AR GET
Se e
Ġdoc s
Ġdiff erence
prob ability
perm utation
Ġexec utor
fe q
leg al
Run ning
Ġbo ok
Sc atter
Inter rupt
Ġph oto
hy brid
Ġturn s
Ġdepend encies
depend ent
################################################ ####
BI LITY
Ġbel on
dom contentloaded
ĠTransform ers
ĠFI X
ĠTer adata
Ġdedup ed
Ġposter ior
incre ment
ĠQuaternion s
5 7
A BC
P ad
T ORCH
m al
n able
n av
n ullable
v ate
se ud
me try
Ġn avig
Ġin version
Ġre cords
pe ated
set attr
sh oulder
ol den
(" \\
Ġimport ant
Ġma ps
sp l
init ions
mask ing
Ġv ars
Ġun biased
code c
Ġk nown
ĠW ord
ĠN UM
ne ar
method s
LI D
In ference
ĠEx iting
Ġadd ition
down samplers
seed s
Pro duct
Ex p
Ġover la
Ġover head
20 10
ora ma
Ġprefix es
De epSpeed
Form at
struct ure
Ġclean ed
yper Params
Ġ"{ {
Ġthread s
04 47
Group Norm
Ġfast api
æĺ Ł
Ġdepend ency
Ġinterpo late
Ġ40 96
foot er
Doc ument
Img Pipeline
Ġear ly
Ġexceed s
Ġnd array
> ""
? \
B Y
B ERT
F N
S ign
S imple
S houlder
T ypedDict
U RN
d jango
e uclidean
j avascript
n ist
s f
y outube
ç Ľ
in em
se cut
Ġt w
re ch
Ġ" ../
and insky
ext ensions
Ġd ay
th ought
pro ps
Ġcon struct
sh op
Ġg aussian
Ġnot hing
ab ling
ri ption
us ic
ĠS ampling
ĠS upport
Ġde mo
ĠP ool
Ġse mester
ĠF AI
ĠF ilter
ist rable
ĠD rop
ĠI nt
ĠI MAGE
00 5
ĠO nnx
ĠM atch
Ġun used
ĠU sing
ĠThe y
mb ers
Ġcont inuous
Ġq a
Ġmo ving
gent a
Ġwork ers
Ġoff load
Net work
Ġtemp oral
filename s
Ġloc ate
optim izers
Ġcur s
Ġcons istent
(". /
Ġjust ify
Ġaut ocast
Ġden oising
Ġedit or
ĠShardedTensor Factory
Ġag ents
term inal
ĠExample s
bos ity
Reg istry
ĠNorm al
Ġpartition s
nc cl
ĠAsset ExecutionContext
Level Dataset
ĠEvent ContextManager
Ġâķ ĳ
ĠOff loads
secut ive
% (
' ")<
) }."<
6 3
D D
G LU
O I
S p
S DF
[ {
] "
a N
c wd
g rowth
j a
n w
r d
Ġ ._
Ġ zeros
Ł ¥
di ll
ra ft
un a
um ing
ss l
par a
Ġ' )<
is nan
res p
ĠS pectrogram
ĠF rom
ĠR ET
âķĲâķĲ âķ
Ġcl one
Data Loader
ĠIn itial
In stance
tain s
Ġsub folder
conv ersion
âķĲâķĲâķĲâķĲ âķĲâķĲâķ
PA T
Di stribution
Ġcreate s
ĠSh ould
Output With
Ġent ropy
Ġstat ic
padding s
AN T
ĠBase Image
expand user
domain s
Ġ202 2
ĉĉĉĉ ĉĉĉĉ
ĠZ ero
unct uation
á´ı á´ľ
til ing
sy mbol
Ġident ifier
Ġsy mbol
Ġdete ct
Ġdete cted
ĠSc roll
Valid ation
inte gr
ĠKe ep
rins ics
ç® Ĺ
spl atting
( ()
0 9
A udio
C P
C urrent
C ourse
H ip
L anguage
M OD
O f
O ver
P N
P romise
` ."<
d w
m time
m dm
æ Ŀ
æ Ń
Ġ ed
at ype
or ge
er ta
st ory
Ġp rimary
Ġd w
Ġcon caten
ĠT op
qu iz
() ")<
ma jor
out s
res ample
Ġde termin
Ġpro c
Ġpar a
ĠP DF
Ġconfig s
cu d
ĠV er
ĠG EM
': \
Ġgener ations
Ġz s
Di rectory
Co unt
Ġstat istics
ĠSet s
á´ĩ ÊĢ
Ġrep ly
Ġckpt s
MS olver
ĠZ h
aug mentation
Ġadjust ed
Ġgre ater
Ġmodi f
serial ization
%%%% %%%%
feed forward
âķĲâķĲâķĲâķĲâķĲâķĲâķĲâķĲâķĲâķĲâķĲâķĲâķĲâķĲâķĲâķĲâķĲâķĲâķĲâķĲâķĲâķĲâķĲâķĲâķĲâķĲâķĲâķĲâķĲâķĲâķĲâķĲ âķĲâķĲâķĲâķĲâķĲâķĲâķĲâķĲâķĲâķĲâķĲâķĲâķĲâķĲâķĲâķĲ
ĠControlNet Model
accum ulate
è®¡ ç®Ĺ
ssib ly
posit ory
0447 15
ĠGEM M
" ></
C OR
L ike
M ake
O n
g y
m is
z s
Ñ Ĥ
å Ĩ
or ization
re call
it les
Ġp en
Ġp lay
Ġp snr
Ġn ltk
get Header
set s
() .<
Ġ2 3
ĠF a
ĠF inal
'] )
Ġwh ite
Ġal go
ry lib
Ġad ds
Ġcomp ile
Ġso up
ho ver
trans ition
trans lator
gre es
Ġrun ner
ĠSh ort
Ġpost s
En coding
Ġá´ Ħ
bot tom
Ġcount s
Head Attention
uncond itional
Ġscript s
TA BLE
Ġlink s
sec ure
Ġaug ment
ĠHTTP Exception
Ġhyper graph
ĠAsset Key
stand ing
scroll bar
rm tree
}[ +
facebook research
PEC TED
kh rylib
æŀ ľ
" /
' }<
+ ',
/ ")<
C Y
G aussian
N EL
O F
S cope
T able
] ))
a cuum
m core
s yn
s uggest
å ·
å ¹
è ´
Ġ artifact
Ġp id
Ġf ac
Ġs ym
Ġre lationships
ent ially
Ġm se
Ġa w
Ġd dim
ame s
set Level
up samplers
ĠT orch
Ġh our
Ġlo cating
es is
Ġex pose
[" _
ĠS E
Ġpro te
Ġst k
log ical
ĠM AX
Ġ3 00
ĠE pisode
Ġpo ses
nn er
ne arest
IN O
rot s
net s
LI T
Ġunder lying
Ġstart up
Ġshape s
ĠK L
va cuum
ster esis
ref er
Ġuser s
=[ {"
LO CAL
asset dir
meta class
11 487
Ġdeta iled
ĠBase Model
CON TEXT
Ġtk inter
curr ency
An kle
RI GHT
Ġdir s
Ġdisc ret
ĠTrain er
tri p
Ġpers istent
ãĢ ģ
Ġattr s
Ġaug mentation
Ġiss ue
Ġtruth y
ĠSelf Attention
SP LIT
tre etune
Char Field
ĠLO G
rech et
nw l
âķĲâķĲâķĲâķĲâķĲâķĲâķĲâķĲâķĲâķĲâķĲâķĲâķĲâķĲâķĲâķĲâķĲâķĲâķĲâķĲâķĲâķĲâķĲâķĲâķĲâķĲâķĲâķĲâķĲâķĲâķĲâķĲâķĲâķĲâķĲâķĲâķĲâķĲâķĲâķĲâķĲâķĲâķĲâķĲâķĲâķĲâķĲâķĲ âķĲâķĲâķĲâķĲâķĲâķĲâķ
: "<
A ct
C allback
J O
J SON
S Error
W hether
] }<
k ipping
w rist
} -
Ð µ
ç ī
è İ
on ential
on ical
or i
al g
Ġp df
di git
Ġc ir
Ġs peech
ra gent
Ġm enu
Ġm ismatch
Ġo mega
ad ow
ot Product
po licies
co very
co mplex
up sert
th o
ation al
pro cs
(" >=
od on
lay book
ĠP atch
init ion
Ġl l
lock ed
ta k
Ġv el
ĠE X
ĠG iven
ph ys
ĠH o
no logy
read line
Ġup cast
Ġrot ate
ST RI
part ic
version s
Ġexp anded
ĠImage Net
Ġpool er
Ġbutton s
Ġ". "
Ġdepth s
cla ude
Ġpast e
termin ate
"[ \
Ġinclude s
show error
Comp ose
mon itor
ĠPass ing
ĠLinear Normalizer
Ġhand lers
ddp m
override s
pus ht
TEMPLA TES
ĠValid ate
inte ger
bbox es
eng lish
Ġeas y
Ab stract
wik i
ham mer
ĠTimeout Error
dbl click
ĠKeyboard Interrupt
JE CT
}[+ ]{
èİ ·
otProduct Attention
(">= ",
8 6
> \
? ",<
C RO
D ummyObject
M ark
W ITH
] **
c riminator
m and
p in
u la
} %
in stantiate
st ub
Ġi ou
Ġf t
Ġ" ").
ex perience
Ġb float
ig hest
ul ating
co co
() ;<
Ġde que
sp her
ĠF P
Ġlog ged
cor rection
") ))<
ne eded
ĠĠĠĠĠĠĠĠĠĠĠĠĠĠĠĠĠĠĠĠĠĠĠĠĠĠĠĠĠĠĠĠ ĠĠĠĠĠĠĠĠĠĠĠĠĠĠĠĠĠĠĠĠĠĠĠĠĠĠ
St ore
io us
comp are
stat istics
gre g
)) )
LE FT
Ġwork s
micro soft
Scheduler Output
Ġupdate s
ey e
Ġembed ded
Ġab c
Set tings
difi ed
SH OT
Ġaut oregressive
Ġap pe
pers ist
WOR D
stride s
BO T
ĠStep Error
cy c
Comp ute
Ġground truth
ä» ¥
Ġlon s
Ġsl iding
Ġmark er
202 3
ĠâĶĤ <
Ġsubject s
Ġnc cl
dens ity
Ent ropy
ĠCheckpointing Exception
rector ies
ĠLear n
Ġarchitect ure
5 4
7 4
9 1
A lt
D agster
G e
V is
_ (<
f an
f oc
s wap
y ma
} ).
¦ Ĥ
è ¾
Ġt imm
Ġf ully
as ure
he et
Ġc ipher
Ġin qui
un e
pt x
con n
con structor
set Header
Ġ' (
Ġg yma
Ġde comp
Ġde cision
Ġpro p
"] ),
que s
ĠD on
ĠD en
Ġr nn
ĠO ption
ĠO megaConf
Ġan alyz
bo unding
Ġtensor ized
ĠH uman
Ġindex ing
ĠIn st
ĠSe lect
]) [
inter est
Ġpy game
Ġsc roll
Ġ} ,
Pre dict
Ġreg istry
Parallel Config
depth s
Ġtrunc ate
CO L
conne ctor
------ -<
With Projection
Ad ded
Class ification
Ġcamer as
Start ing
Ġcoordin ate
Embed der
Ġinfer red
ĠBe aut
æł ĩ
ãĢĤ <
è§ Ĵ
ĠTemp Named
ĠState Dict
pick ling
åĩ º
ĠIgn ored
ĠFIX ME
Ġgyma pi
ĠTempNamed Dir
) ["
) ",<
) [-
, ))<
2 000
= ("
A BLE
H F
K nee
L imit
S uper
X X
` ")<
d os
d inov
f ine
p ids
r erun
v anced
w as
Ġ vec
or ient
re sent
re jected
st itial
al o
al location
Ġf ocus
Ġn feats
Ġ" "
Ġre peated
Ġa y
Ġa st
str ategies
par dir
is on
Ġ{ (
Ġpro ce
ĠP romise
Ġse curity
Ġco ords
Ġlog in
bo lic
[' %
max imum
ĠU SE
ok ie
ang ular
ĠV ector
Ġstate ment
ĠĠĠĠĠĠĠĠĠĠĠĠĠĠĠĠĠĠĠĠĠĠĠĠĠĠĠĠĠĠĠĠ ĠĠĠĠĠĠĠĠĠĠĠĠĠĠĠĠĠĠĠ
Ġcont ribut
TI C
Ġq vel
In itial
Re f
Ġcheck ing
') `
box ed
exp anded
ap prox
Me an
struction s
Ġhandle d
Path Like
SI G
Ġapply ing
Ġencoding s
ĠEn v
Ġter adata
Ġcomb ine
Ġquant ize
PRO CESS
ĉĉĉĉ ĉ
LIGHT MAGENTA
Ġacc umulation
cy cle
BU FF
lim its
Ġdot s
bal ancing
rypt o
Ġtermin ated
Ġsw iglu
gg le
Ġsli ces
mar ize
stron omic
ataload ers
Ġinqui ries
! --
) $
) ":
. ):<
B ench
C alculate
E VA
I P
M y
M EM
O L
P C
S M
S entence
T LS
W h
d ark
h ref
o ke
o hot
p ressed
t le
w grad
y ear
ç ½
at ural
re verse
re versed
le ts
ch es
Ġf map
ct rl
Ġc red
ad just
co v
ers ations
ĠT ok
Ġh er
ĠA t
ĠC l
ĠL i
num er
Ġse ns
ĠI P
Ġr c
Ġr t
import s
add Event
add Widget
ĠE mpty
Ġwh ose
red dit
ph ra
test ing
min imum
act ivity
In f
Ġmo ves
rol lout
Pro gram
LO CK
SI ST
ĠAtt ributes
case d
To Tensor
bit mq
sign ed
Head ers
40 3
Ġgo ing
Ġaccount s
ĠArg umentParser
åĪ Ĩ
Ġlarge st
alloc ated
Cross Attn
Ġ========= ==
LL a
Êľ á´ĩ
Right Hand
Ġder ivative
Ġ================= ========
spher ical
addEvent Listener
) ',
8 5
C an
E mail
] "],<
c ql
d grad
e vidence
f loyd
p ublish
t ility
ç Ĥ
Ġ art
Ġ layout
at omic
en es
re load
al gorithm
ro unds
mp eg
Ġs low
ex change
ex press
ot tleneck
ss im
po ll
ens ive
im ator
() :
() ._
is dir
ĠC lo
ist ency
head less
class ify
Ġlog ic
Ġsh s
=" /
=" {
ĠM B
ĠN aN
row configure
own er
Ġne arest
__( *
Ġset s
Ġper ceiver
Ġq drant
be low
ble u
post fix
MA NA
man age
LA TION
final ize
Text Dataset
CA SE
predict or
Control Or
Ġgo od
ĠEns ures
allow ed
need les
gu ided
ĠEmbedding s
sto ck
Ġassume s
Ġconsider ed
("" )<
Ġcurs or
çĤ ¹
MANA GER
ControlOr Meta
' [
) (<
= .
C TIONS
F l
U E
` ,<
b ra
d at
h ers
m istral
x p
x avier
y ou
Ñ Ģ
ç ¬
Ġ orthogonal
Ġt l
ar row
Ġf ire
Ġf hs
Ġ" (
Ġ" **/
Ġs lic
Ġs quared
Ġre jected
Ġm it
Ġw av
text Content
us y
ĠS T
ĠS olver
ĠL ow
ĠP ack
if ul
ĠR ed
00 8
ĠM ain
cal e
ca ptions
ĠE lement
ip ating
Ġit self
Ġset Timeout
RE AD
Ġac cessed
SE GM
Ġup loaded
ĠIn sert
attr s
comm ended
not diamond
Ġiter able
Ġlast Event
Ġsc an
Norm alize
Ġwindow s
ĠQ uestion
deta ched
Conv Block
En vironment
ĠPro gress
ĠRes netBlock
column configure
Ġext ernal
ðĿ ļ
cut off
GPT Model
Ġview port
TOKEN IZ
Ġfl ask
40 96
}: {
Ġsegment s
Ġlang chain
åĪ °
Ġturn ed
direction al
êľ °
sen der
DOC STRING
Select ed
arp ness
025 02
IGNORE CASE
Lay out
ĠFAI SS
ĠShort cut
( ['
6 9
< |
A Z
D ialog
M apping
] "<
a o
h ance
i ou
s ol
t pose
} ]<
¦ ģ
Ð ¸
è ¦ģ
Ġ ke
in uation
se gs
se curity
at ile
st ars
al k
Ġc ancel
Ġc ertain
Ġs lot
Ġa ud
ur bo
Ġb len
Ġw rong
Ġto e
and bytes
Ġ( _
__ ))<
__ )),
Ġg uid
(" **/
od er
ine ss
Ġde pending
Ġpro pa
Ġth ird
if est
if ies
Ġco variance
line Keyboard
Ġres olutions
ĠU sed
Ġuse ragent
ĠE MA
ĠB oth
ph oto
ĠĠĠĠĠĠĠĠĠĠĠĠĠĠĠĠĠĠĠĠĠĠĠĠĠĠĠĠĠĠĠĠ ĠĠĠĠĠĠĠĠĠĠĠĠĠĠĠĠĠĠĠĠĠĠĠĠĠ
Ġper plexity
rep licate
gre ssion
Ġcol orama
fil m
Ġ{} ).
Ġdoc string
Ġpy munk
vector s
kip edia
Layer Type
Train Data
ĠModel ParallelConfig
TO DO
RO M
ĠBase Lowdim
umul ator
stra p
fw d
Sh ard
ĠTest Server
tmp dir
ĠConvert s
ĠCol lect
rec ated
UN K
Ġmu joco
Ġfast er
bal ance
cogn ized
Ġnumer ical
deep floyd
Ġdeg ree
ĠGlobal s
ĠGo ogle
SYS TEM
("**/* ",
Console Message
Ġbelon gs
seud o
ĠVer ify
AZ URE
# !
7 3
: ])
D etails
E E
P h
P ri
P ast
T N
` )<
b oth
e al
n est
n obs
p ull
t ile
å į
or ld
Ġf la
as pect
Ġs a
Ġm q
ad vantage
one hot
ep ar
Ġcon fidence
Ġdi agonal
Ġof ten
key points
Ġde v
sp ine
ĠF ollow
Ġst oring
cal lable
'] [:
lat ex
__( **
ml u
Ġdo cker
TE RA
lect ure
Ġup d
DE F
Ġspec s
12 0
comm unicate
`` `<
mm ory
Ġ... ")<
Ġinter rupted
ref lect
000 1
ĠSh ift
ash Attention
gt s
Process Group
OUT PUT
Ġreg ion
ĠPre dict
Ġtable s
}) "<
ĠDe bug
Ġge mini
pac ities
slice able
Ġasset s
Ġexact ly
Ġap ex
Ġpattern s
ĠArg us
Qu ant
hand lers
Trans lator
Ġsl ug
hy dra
Ġsto ck
Bert Model
inpaint ing
Ġbi encoder
Sdf Translator
Ġsignificant ly
challenge s
ĠForm at
CHAN NEL
è½ ¬
MOD U
cud nn
BUFF ER
TERA DATA
" },
' m
' ))
) """<
A cc
R aw
S V
V ocab
\ "<
c ircle
d antic
n vidia
t icks
v env
w t
| \
} ")
Ñ ģ
in der
en o
Ġt imer
re mat
re store
Ġp anel
Ġf low
di stribute
Ġn joints
Ġc ut
Ġc rops
Ġa io
Ġo wn
to dos
il ine
Ġ' [
Ġ' _{
qu ad
Ġg c
Ġdi ction
ma phore
ab a
ri ed
ĠS MPL
ĠS corer
Ġpro blems
Ġstr ong
sc an
Ġst derr
token izers
Ġun pack
Ġun defined
quer ied
checkpoint ed
}< /
ĠG ather
Ġkey points
context manager
qui ck
Ġca pacity
Ġcomp onent
RE T
Ġquery set
sub plot
Ġ5 1
Ġsub sequent
tt p
inter faces
we bsocket
ific ates
stru cted
the me
Ġover all
Ġover write
Ġpi ece
Ġfin ding
CH OI
Ġexpect s
ĠMe thod
CON NE
Ġprevious ly
(". ")[
CO LUMN
`: "<
Ġge om
ĠAd ded
ä» »åĬ
ili ary
Ġinf os
ĠTh read
Ġconfigure d
ĠQuery Param
Iter ator
ĠDoc ument
Ġutil ities
MIN OR
GEN E
æĹ ¶
ĠSub Element
Ġscope s
Ġbot tom
modifi ed
Ġbound ary
Ġsyn the
Ġada pted
ĠWindow s
thresh olding
Inpaint Pipeline
eli hood
ĠDrop Path
ĠRET URN
MSolver MultistepScheduler
partic ipating
Predict or
Ġdiction aries
ä»»åĬ ¡
' ;<
> [
? "<
C ustom
D es
H ub
K it
L ength
O llama
U se
] `):<
c ro
d l
f d
f ingerprint
m ust
p al
p romise
q k
u ite
y label
} ',
å ¯
å ¿
it ter
ed u
Ġs ite
Ġs pac
ur ther
Ġb vh
ig gers
ize s
str s
to bytes
int ern
Ġdef ines
vi es
Ġ' "
() """<
Ġg ate
ĠA lib
ine se
Ġma intain
Ġse em
ĠF loat
Ġl n
ĠO b
Ġan alog
Ġpo ssibly
com ing
ĠH AR
Model Mixin
Ġper tur
rep licas
') ")<
Ġrot ated
we et
ST M
AR D
ĠK V
TH OD
ES TION
LO AD
Ġwrit ten
ĠTransformer Layer
Ġform ula
Frame Locator
Ġcre ation
Ġ9 6
bet ween
ĠShardedTensor s
Ġquant ization
Ch ange
ĠAl low
Ġchild ren
Ġinstruction s
Sharded StateDict
å¤ §
Com mon
Ser ies
Ġ19 2
UP LE
TRAIN ED
FAI LED
Ġpk g
Asset ExecutionContext
çī ĩ
èİ· åıĸ
ĠAlib aba
8 7
: ]:<
A nn
D ense
N e
O ps
P ER
P laywright
T ASK
] (<
] ",
^ \
c df
g pus
h our
l strip
r ms
{ \
Ï Ģ
æ ģ
é Ŀ
Ķ åĽŀ
Ġt ab
Ġp ending
Ġn W
Ġn ll
Ġn aive
Ġs j
Ġm om
iz ations
Ġb w
Ġ# ####################################################
ate Limit
ot strap
Ġto do
Ġd x
Ġ1 50
pro prio
Ġcon c
ma g
Ġh ighest
ult imodal
all ery
key B
ĠS ec
ĠP PO
ĠP hi
Ġ_ :
ĠO ne
log p
om og
code d
Ġ3 5
Con ne
weight ed
low dim
ang ing
ir m
cor res
ind ent
Ġne ighbours
act er
ai ch
Ġ\ \<
mat rices
extra cted
Ġwe ak
work ing
Ġper formed
ĠIn it
ĠCo unter
doc string
ĠCon stant
ĠSt at
Ġmin imum
Res idual
level name
ĠSh ared
ĠPar am
gment s
gather ed
Base d
Lo aded
ĠGener ation
curac ies
Ġchannel map
ĠAn thropic
ĠLog ger
Ġæ ľ
dete ct
ĠMulti HeadAttention
Ġ================================= ================================
ä» ¶
omat ic
Ar row
Ġlet ters
ĠRep licate
Ġreq s
Ġperm ute
Ġflatten ed
è¿ Ļ
è¿ ĶåĽŀ
Ġsy mpy
ĠAc celerate
Ġcook ie
mom s
lationsh ip
card s
Ġtermin ation
Ġsw itch
Graph Storage
ä¸Ģ ä¸ª
Retro PreprocessingConfig
Ġdat atype
ĠDeepSpeed Engine
Mat rix
Ġimpro ve
SCRI PT
ĠBeaut iful
) ].
/ ~
D DI
D esc
S D
S ummary
] ].
` ).<
a ps
c ube
d ret
h in
h df
i ence
k top
p lement
s quared
± è´
æ ®
Ġ ens
Ġ ve
or ax
Ġ= ==
Ġt an
st odon
de limiter
an illa
Ġf c
di fferent
Ġs uggest
ent ication
Ġm ix
Ġm dist
Ġb z
Ġb all
co mes
co arse
get cwd
Ġis n
up press
th rough
ĠT H
Ġh orizontal
"] [-
Ġ` __
list s
ĠR em
ĠI mplement
Ġr ules
oc ial
Ġst ability
ann ed
Ġ: :
pos als
Ġro uter
'] [:,
row n
sw e
ĠG rad
op ener
view point
so ck
ĠH F
ĠCon struct
inter p
Ġjson l
Pro blem
Ġcode c
ĠSt udent
Ġover flow
Ġmake s
(* _
DO T
ME THOD
prob as
Ġhttp x
Process ing
Ġsin usoidal
Ġoptim izers
umul ated
pri ce
An alyzer
Ġview s
ĠMo dified
assert Equal
Ġge orge
So up
Ġaut oresume
Ġschedule d
Ġradi i
tri angles
Up sample
Ġretrie ving
cons istency
Met ric
å¤ ±è´
ĠToken ize
CL S
CL ASS
ĠPerform s
Stream Response
Ġest imation
ba z
QU ESTION
ĠScal e
Det ector
gal ore
Decode Error
ĠVi T
Ġpercent age
collis ion
Ġservice s
Ġindic ates
Ġlib rosa
Ġaltern ate
Ġsatisfy ing
inem atic
tho ok
tak is
ç½ ®
Des ktop
ĠBeautiful Soup
dret takis
å¤±è´ ¥
+ ",
, -
> '''<
E lbow
H i
I o
I ST
M ap
N ODE
R ing
S aving
_ ,<
` ]):<
c dp
m ore
m ocap
n lp
p ing
p cfg
r f
s ft
t ension
Ġ ]:<
Ġ verts
in ux
in omial
ch rome
ge mma
Ġp lain
as ctime
Ġc c
Ġre cursive
Ġre moving
Ġa min
id le
Ġd l
par sed
() ["
Ġg ender
Ġdi vis
ver bosity
ĠA D
Ġex change
Ġx formers
Ġpar sing
Ġout line
ĠP O
Ġor i
ĠD A
Ġ_ ("
ĠR ES
ĠR ole
ĠR aw
Ġr l
Ġun its
ĠU s
'] ]<
ĠW eights
ĠB roadcast
ĠV ariable
sw ish
Ġne ar
[:, :,
read able
ĠIn teger
ag ic
Re ct
Se lf
Ġinter act
Dataset Builder
Ġvari ous
Ġmapping s
Scheduler State
ĠPro ject
Co okie
lt or
kl ass
Gener ic
Form ers
To TextDataset
Ġá´ į
riter ion
ĠIt em
ĠType Var
Ch ild
Ġevaluate s
center ed
fail ure
[[ ],
clu ding
Inter face
Ġæ İ
ĠAs sert
calc ulator
ĠAttn Type
contain s
Vision Transformer
æķ° æį®
Down Block
äº İ
ĠWork er
ĠWork flow
sli des
Ġmem ber
buil ding
Grad Scaler
INTER PO
Ð° Ð
Ġmaterial ize
attempt s
Mid dle
smooth ing
ĠBlendedMegatron DatasetBuilder
remain ing
chem y
coordin ates
ĠTestServer Request
æ® µ
DOT ALL
' d
4 1
5 9
A M
A P
A ug
A GE
C AU
C amer
D im
E poch
L ON
O FF
R ew
S ING
S UM
S FORM
T C
W eights
` )
a ir
b adam
c raft
g m
g mm
i rect
j et
p join
t ik
y e
ç Ĳ
Ġ quality
in vert
al chemy
lf w
ch an
lo th
as se
di stributions
Ġc j
Ġin dependent
Ġs we
Ġ# ############
ss ions
ext ernal
li bs
ul id
Ġ- ----
ol ds
ri ef
ĠC annot
ĠC lear
ĠL R
ĠL lava
ĠL abel
ĠP AI
Ġse quential
Ġdata paths
ĠF OR
ĠD ynamic
ĠI GNORE
Ġr en
Ġpre fer
ĠM erge
Ġun icode
norm s
Ġ3 6
'] }
'] ))<
ĠE lastic
") ):<
ĠG roq
Ġne thook
ĠH el
ĠH igh
Model ParallelRegion
RE G
ĠIn formation
Ġjson ify
PA D
={ },
ak a
OU R
Ġany thing
Ġlow dim
Co py
pipe lining
Ġseed s
Ġexc info
ĠBase Exception
Ġstream er
ï¼ ģ
Set ting
multi choice
Ġinv olve
Ch annel
ynam ically
GS TER
Ġmy json
ĠIter ate
Ġbroadcast ing
("{ }
]+ ",
ÊŁ á´ĩ
direction s
oper ation
Ġest imate
Ġcert ificate
KV Storage
Ac cess
Ġ--------------------------------- ----------------
Ġsan it
ĠSdf Cli
Clo ud
Ass istant
phra se
Ġstrong ly
tik tok
! "
" `,
5 3
9 2
C PU
D one
E P
L ab
N G
N ew
P latform
e th
f lush
g mail
h its
k a
k w
k arras
l or
r ation
å ¥
å ĳ
æ ¶
in dividual
in sensitive
st ft
me ter
Ġf urther
Ġ" **/*
Ġre start
Ġre commended
Ġb x
Ġb os
li ct
Ġ( *
po ly
em ini
Ġ- ----<
vi corn
ĠA R
form atter
ĠS ame
Ġde cor
sp ot
ĠF eat
ĠF ast
oc c
Ġpre vents
prompt ed
ĠM IT
Ġy y
cont rast
ĠW E
ĠB A
ip pet
Ġtensor flow
ĠĠĠĠĠĠĠĠĠĠĠĠĠĠĠĠĠĠĠĠĠĠĠĠĠĠĠĠĠĠĠĠ ĠĠĠĠĠĠĠĠĠĠĠĠĠĠĠĠĠĠĠĠĠĠĠĠĠĠĠĠĠĠ
ĠRe ference
Ġresult ing
iter dir
SE LECT
(( -
ĠEx p
ong o
Ġstart s
Ġsub class
run s
>> >
Ġrandom ize
=[ ],
Me thod
quant ized
Ġexec utable
Ġapplic ations
ĠAN D
Ġred uced
stream ing
Ġcontrol s
("/ ",
command s
Request Error
fe et
wh ich
DATA BASE
Ġmicro batches
Ġsome thing
Ġreference s
pix els
distance s
Ca che
Ġinte gr
SS L
Ġpers pective
ĠAl ways
Mo E
Th orax
coll ator
Ġinf inite
high light
Ġplace holders
Class ifier
game s
ĠOr iginal
Pool Executor
Ġmm cv
Ġpl anner
Ġjob lib
Cross Attention
æĹ ¥
Ġtrim med
modifi er
Ġdescrib ing
imagen et
Ġchallenge s
~~~~ ~~~~
hyper graph
ĠMet ric
BACK END
Ġsil ence
cip hers
230 9
ĠZh ou
Ġprote ct
CONNE CTIONS
ateLimit Error
aich uan
Ġdivis or
INTERPO LATION
3 36
> â
> ',
A rt
T UPLE
c anny
f requency
h ull
n es
o ise
o coder
q f
r n
s cheme
å Ģ
Ġ aria
Ġ è®¡ç®Ĺ
ĥ ½
re lationships
de coupled
Ġf ar
Ġf bx
Ġf rust
Ġs parse
Ġm c
Ġb ra
Ġb ig
ck s
int ent
co urses
Ġ- <
pro tocol
Ġdi vision
(" ="
Ġh ps
Ġimport ed
ver g
Ġde leted
Ġstr ip
per ceiver
ĠF uture
ĠD PT
ĠD INO
ĠR AG
Ġpre pend
bo otstrap
ĠM apping
ob ile
ca pture
Ġj pos
Ġk ind
'] }\
Ġwh y
ĠV is
Ġall reduce
ml ink
instance s
[:, :
TE N
Ġca ching
nt il
Model Arguments
new s
Data Source
down loaded
ĠCon tains
10 3
Ġ} """,<
ĠUn i
ĠUn pickling
ĠCheck s
Ġent er
pass age
ans ion
Ġembed der
fi ber
condition s
inv ocation
inv oke
leg end
section s
Ġho pe
mult iline
ene ous
connection s
unic ode
Col lator
Ġsegment ation
success ful
change s
Ġcomput es
sl iding
Ġpers ist
fra m
ĠStableDiffusion PipelineOutput
artic les
Ġfig ure
Ġoverride s
Ġseparate ly
zz z
æĹ ł
cred it
Ġpair wise
PEC S
å¼ ı
ĠResult s
Ġpur poses
Ġpot ential
ĠTrans pose
ĠBlendedMegatron DatasetConfig
éĩ ı
Jo hn
Episode Generator
Ġreprod uc
mis c
Entropy Loss
Ġproce css
omog eneous
DDI MScheduler
æ¶ Ī
Ġfrust um
) '<
* :
+ \
/ "
/ (
4 6
> ```<
E MA
G D
G ING
P art
P ositional
S DP
U R
a cos
c d
f map
m r
m ixup
n avig
o o
s de
s aving
s peech
t c
u k
æ ĭ
de prec
al gorithms
le u
mp up
Ġf out
Ġf all
Ġf rozen
as y
Ġn est
ra ct
Ġb lack
un load
and er
li mb
args ort
set ting
il ation
ĠT otal
ĠT hen
sh cache
Ġg lfw
Ġ{ **
ĠA verage
ĠA udio
ĠC A
ĠS ystem
Ġpro prio
ĠP ers
ow ParallelLinear
Ġco urses
Ġor gan
ĠR O
Ġst ores
tensor ized
Ġan imation
Ġ: ])<
Ġj seq
Ġro pe
cont roller
cor der
ĠG ot
pect ral
Ġlist ing
ĠĠĠĠĠĠĠĠĠĠĠĠĠĠĠĠĠĠĠĠĠĠĠĠĠĠĠĠĠĠĠĠ ĠĠĠĠĠĠĠĠĠĠĠĠĠĠĠĠĠĠĠĠĠĠĠ
ĠRe quired
Ġresp ons
rot mat
Ġbu g
RE F
RE SU
02 56
comp ression
save fig
Ġat omic
ast er
random izer
order ed
diction ary
Ġ| |
ĠData Frame
Ġfollow s
acc s
Ġselector s
Ġimp licit
Ġread y
cent ers
offload ing
De pth
Pre cision
Ġcur ve
Base Output
Ġoptim al
ĠCreate s
TOKEN S
Ġden oting
ĠCh inese
Ġwra ps
Ad min
parameter ized
Ġcommon s
('/ ')[-
ĠRep lace
Trans pose
hy steresis
Ġperm utation
ĠChat Completion
environment s
æĪ ·
Ġplan e
Ġtrim s
(? :
ĠCom bine
Ġdescrib ed
Êı á´ıá´ľ
Ġthresh olding
ĠCLIPVision Model
ivers ary
Ġbal ancing
ĠAttribute Error
OutputWith Past
Ġæİ ¨éĢģ
verg ence
' +
: '
= \\
F older
I A
M atch
M ASK
O ption
P i
P ush
S PA
U B
U sage
V O
W indow
W ARE
] /
b wd
g lm
h ue
w itch
} +
Ġ Î·
in ja
or med
an alyzer
Ġp ts
Ġp ressed
Ġc rit
Ġ" +
ing ular
Ġs chema
Ġs peak
un check
ue l
ot or
ext ent
Ġd ataloaders
im ations
ma stodon
am in
am bda
ĠC SS
ĠL et
"] ):<
Ġse m
ĠI s
gra dio
train val
Ġst yles
Ġsh a
Ġen counter
Ġpre computed
ann iversary
ta p
Ġv s
Ġres id
Ġ3 20
'] ).
ĠW eight
ĠB E
ĠN on
") ),
ĠG ET
Ġal t
ry ption
Ġgra ding
Ġq pos
Ġsub list
ak ing
ĠNot es
ĠData Source
selector s
filter ing
ĠRes Net
ĠBase d
Ġignore Case
Ġcommand s
ĠRun ning
Bu il
host name
ðĿ ĺ
Ġ'. /
Ġclient ai
assert True
Ġoper ator
ĠMegatron Dataset
Mask Softmax
LIGHT RAG
WOR DS
ĠLog mel
sk ipped
Ġtrack ing
]+ \
Ġ15 36
Ġway s
"} ]<
VA LID
ĠRep resent
ĠToken izer
Ġremain der
Ġgre en
outer HTML
Down load
serial ize
experiment al
Ġsql alchemy
vers al
Ġdescrib es
Ġsli de
ĠClient AI
assign ment
DDP MScheduler
ACT OR
Scale MaskSoftmax
Ġcent ral
cf gs
ĠPRO MPT
çº ¬
Selection Config
Feat ure
Cre ated
Ġide ally
constra int
dill s
ĠDen oising
Ġ##################################################### ###<
" ):
: "
F A
G LM
N OR
O FT
T UN
W rist
\ ")
` ]<
b pe
b and
c una
e ot
f max
f names
i info
p lt
Ò ĵ
â Ī
å Ŀ
Ġ ÊĻ
ar b
al i
ce ed
he mat
Ġc al
Ġ" *
ra pe
ur i
id ated
Ġb ad
Ġ# ##
Ġd dp
to ggle
att ack
Ġcon stra
Ġ' '.
from buffer
ic ial
Ġg ain
Ġg olden
Ġme mbers
Ġde coupled
pre f
ĠF ound
Ġco mplex
ĠD ummy
(' %
Ġen ough
ward s
Ġpage s
log mel
Ġv p
stri pes
Ġun known
Ġconfig urations
ĠE ND
): ,
ĠG RA
ft fy
ĠĠĠĠĠĠĠĠĠĠĠĠĠĠĠĠĠĠĠĠĠĠĠĠĠĠĠĠĠĠĠĠ ĠĠĠĠĠĠĠĠĠĠĠĠĠĠĠĠĠĠĠĠĠĠĠĠĠĠĠĠ
ĠRe size
Ġcomp are
Ġup sampling
trained Config
Ġsub problem
LE S
over la
OU ND
lot ter
Ġdis abling
vari ate
ĠModel s
De bug
99 99
EX PECTED
ink y
sin cos
present ation
ĠGener al
Ġfilter ing
Ġgo al
Ġbo unding
ĠZ L
ĠApp end
dot s
åĬ ł
Ġ================================= =<
æľ Ģ
ĠStableDiffusion SafetyChecker
lst m
../ ..
Ġ:- )')<
sy mpy
Ġlook ing
Ġhyper parameters
ĠDoc string
ĠRa ise
Ġqu iz
stand ard
Ġshe ll
ControlNet Pipeline
Do main
ident ifiers
depend ency
################################################ #<
CHECK POINT
Ġincre ase
see k
Ġbel ong
Chunk Dataset
super vised
ĠCa che
âĶĢâĶĢâĶĢâĶĢ âĶĢâĶĢâĶĢâĶĢ
Runtime Model
ĠVi ew
Ġscreenshot s
Pl ugin
ĠStream ing
Ġinterle aved
DeepSpeed Engine
CRO SS
¦Ĥ æŀľ
ĠTok ens
epar ator
æģ ¯
Ġ================================================================= ============<
ĠRem ote
Self Attention
ĠWE IGHTS
OFT WARE
, )).
< <
= "<
C ert
D ist
G re
H ow
M ultiple
N VIDIA
P NDMScheduler
R obot
S im
V D
V IS
e k
h ps
n r
n aive
o om
p ot
s ized
s loth
u ces
w te
w hat
è Ģ
in struct
ar ing
an c
me me
Ġp g
Ġf i
ed y
ed rock
di visible
Ġn h
Ġs u
Ġs ynchron
Ġs pectrogram
Ġre ach
Ġre ached
Ġm t
Ġo l
Ġ# ################################
un g
Ġw grad
Ġto xic
vi cuna
sh aped
() [:
ve st
fig size
Ġh is
Ġnot es
Ġel s
ĠA v
ĠS pace
ĠL MS
ĠP ositional
Ġdata path
ĠF ROM
.. .<
ĠD I
Ġ_ )
Ġr b
Ġun permuted
add ition
Ġro om
ity scape
item ap
Ġad j
ĠH e
ĠAr ray
Ġcor r
ug ht
Config Mixin
Ġle ading
ref in
Di ff
Ex tract
vector izer
Ġidx s
man y
Ġconv o
Ġunet s
ä¸ ĭ
annot ators
Ġimplement ing
Ġdeta ch
Ġbs z
Transformer Config
ĠEn codes
ground truth
Ġá´ ı
Un able
Ġchat bot
Ġsk learn
short est
ĠQu ant
á´ı É´
Ġacc umulated
mi ps
åı ¯
åĬ Ł
Ġpri ce
dete ctor
ĠMulti ControlNetModel
Th ere
Ġway point
á´Ģ É´
need s
xx xx
mu joco
="" ,
ĠSc ript
ĠValid ation
çĶ¨ æĪ·
ĠFl atten
WebSocket Route
ĠRo PE
Ġpot entially
ĠRotary Embedding
Ġalloc ate
ARK ER
Red irect
Success fully
suc cesses
Ġproper ly
åľ ¨
Ada LN
Fl ashAttention
Ġaio http
ityscape s
, '
6 7
8 192
? ")<
C S
D raw
F LO
I G
N ote
R ON
S de
S uppress
Y es
_ )
i B
i defics
k er
k nee
m ing
o V
p rune
t itles
u pt
y o
y y
} ":
ã ģ
è ĩ
Ġ lecturer
į åĬ
in ary
er al
Ġt ls
Ġt urbo
mp jpe
as ing
di ag
Ġre store
Ġb log
Ġb asis
ad s
un wrap
la ces
Ġ( )<
Ġ- --
set Timeout
th en
Ġ1 80
pro posals
ers ity
Ġcon secutive
is ions
Ġ""" )<
ab ilities
ĠA BC
us r
Ġde al
Ġde grees
pre train
Ġ2 2
Ġth res
Ġpar ity
ĠR MSNorm
ĠI nner
gra dients
Ġr is
lock wise
Ġbe comes
ĠM at
ĠM lp
Ġj accard
'] }")<
son g
ĠG emini
ĠĠĠĠĠĠĠĠĠĠĠĠĠĠĠĠĠĠĠĠĠĠĠĠĠĠĠĠĠĠĠĠ ĠĠĠĠĠĠĠĠĠĠĠĠĠĠĠĠĠĠĠĠĠĠ
iv ing
Ġcomp ression
ĠH O
Ġwe bsocket
scri be
pad s
comp onent
AS H
ĠCon s
ĠCon catenate
lu x
not found
={ "<|
\" >
Ġli m
ĠData base
generator s
Ġatt end
rac le
Ġ12 7
hook s
Ġtrans pose
SI M
ĠPy torch
repeat s
ĠAuto Config
VI RT
Ġrep laced
Ġá´ ĺ
mult inomial
bet ter
"[ *]
etuning Arguments
LIGHT GREEN
Ġhigh light
ĠLog ic
jit ter
disc riminator
ĠURL s
Ġaff ect
Ġ================================= ================
ĠâĶ ľ
aff inity
ĠDistributed Sampler
bound ary
ĠSo me
FOR MAT
Ġredirect s
202 0
Ġclose st
ĠLe arning
æį ¢
Av g
Ġincre ment
è¡ ¨
Py thon
ĠPeft Model
Ġcho ose
++++ ++++
çŃĶ æ¡
ĠNet work
Drop down
caps ule
Ġhel per
expi ry
Ġoverla pping
ĠOption ally
numer ic
Ġslic ed
subplot s
éĿ ¢
ĠSdfCli Resource
ĠUnpickling Error
eparator Style
VIRT UAL
çŃĶæ¡ Ī
) }.
- '
. )
B ig
B ody
E d
F low
L Y
M IT
S l
S olution
S ite
] [:,
a int
b bitmq
c and
d r
e q
f min
f bx
h ints
i recv
s box
v stack
} "]
æ ¯
on line
ro utes
Ġi magen
ch ive
di an
ce l
Ġn ice
ig en
def ine
Ġw allet
ss a
"" ,
co pies
up cast
th ird
pro vided
par allelism
im ize
Ġh l
Ġimport s
am ily
ver ter
Ġe va
us c
ĠS er
ĠS ampler
pre pend
Ġout s
": "
Ġma c
ow d
den om
(' {}
ĠO P
Ġpre ss
Ġan chor
Ġ3 84
ds d
ĠE OS
te am
ĠN um
index map
... ]
iv ate
port s
Ġare a
Ġcl uster
ĠH idden
SE C
Ġfloat ing
Ġq len
comp iled
tra il
Ġscal ar
]] ):
lr s
ĠSt eps
10 1
Ġpy dantic
Ġbase line
order ing
Ġsc en
graph y
mark up
Ġass umed
Ġhelp ers
send line
11 4
()` <
ä¸ İ
optim al
common Post
ĠBase Output
("/ ")[-
Ġmulti part
bot tleneck
ledge hammer
Ġpack ages
Ġassign ment
Ġedit ed
Ġtre es
GR U
ru ption
Cond itional
char acter
Ġph one
åĪ Ĺ
Ġgre at
exc info
Ġsto pping
radi i
Ġaccording ly
geo metry
ä½ ¿
ĠParallel Transformer
Ġbits andbytes
Click ed
è§ £
Ġdebug ging
Ġá´Ľ á´ı
TRI BU
nse w
ĠSimple Namespace
Ġcandidate s
collis ions
Ġam ong
Ġ{{ <
Ġrespect ively
ä¼ ļ
ĠOnnx RuntimeModel
PAT CH
Ġsym bolic
JO INT
alo ha
Shard Id
agic Mock
ĠGRA PH
Sde Ve
" \\
' ):
) `,
. ')[
1 80
8 000
C LO
G o
H uman
M ath
P ack
S ec
S chema
U ntil
_ ())<
b h
b rightness
c ite
f rechet
h ow
m usic
m mlu
p at
t w
} ':
é ľ
Ġ article
Ġ queried
in formation
er f
st yles
de coding
ar ison
al ert
ch ie
me ters
Ġp ly
Ġn w
Ġn args
Ġs ph
Ġs afetensors
Ġre pository
ode tic
Ġa i
Ġb g
un ded
Ġw pt
Ġd Ld
up d
Ġas pect
ype s
ĠT ry
() )[
ic a
fig ure
Ġh yp
ver ge
ff ff
ĠA C
ĠA S
ĠC ho
Ġx k
sc ipy
alle ts
ĠP S
ĠP art
ĠF etch
Ġ_ ]
Ġst ars
pi ssa
ub ic
line age
ob erta
ca re
ĠE nt
attn s
ual ized
feat map
min er
Ġcomp ressed
ĠH ttp
RE TRI
no isy
gre gate
]] :
]] ]:<
AL LED
10 6
Di amond
Ġpost ed
return code
Ġgenerate s
place holders
ĠImage Ops
Ġtrans formed
non toxic
inst alled
pack et
Ġext end
struct ures
Ġthere fore
ater ial
chain ed
mel s
ĠRot ations
Ġ({ })
Ġstand alone
ĠConfig ure
Ġwar p
curs or
network idle
collection s
ĠCont ent
VA E
Ġlon gest
éĢ ī
Ġcom ments
IF Pipeline
geo location
Ġlong itude
some thing
writ ten
modifi ers
ĠTE ST
79 78
FAI L
tre es
INST ALLED
PASS WORD
black list
GM ARKER
åŃ Ĺ
Ġsimp li
Ġsimp ly
åĽŀ çŃĶ
ĠFused ScaleMaskSoftmax
ĠChannel Owner
Ġdro pping
ĠNormal ization
è¾ ĵ
Sentence Piece
SIST ANT
çĲ Ĩ
åĢ ¼
ä½¿ çĶ¨
* ")<
B PE
F lat
F ree
G u
L ine
L ast
M AS
N C
R a
S top
b ic
h l
m vt
o ss
p ct
u lo
v ity
v acy
å İ
er ging
re served
de ad
de em
an a
Ġi mpl
el come
li k
Ġ[ ...,
ke k
Ġh ack
Ġnot ice
type check
lay Buffer
form er
res id
ĠC H
ĠS S
ĠS im
Ġde tokenize
Ġde ploy
end or
end ers
Ġpro file
"] ).
ĠP h
ĠP ick
Ġma genta
Ġl st
check s
ĠD a
ĠD raw
ĠD uplicated
oc s
yn lib
ta ke
Ġan tic
Ġtime d
pos ite
stri ke
'] }"<
stance s
ĠB ias
ĠN eed
ĠN vidia
ind x
ĠRe search
Ġ4 04
Ġcont inuation
cli pped
Ġbu ilder
SE R
vert ical
á´ ł
Data Set
ms a
doc x
Ġmo use
AS SES
') ]<
Ġret ries
ĠK andinsky
Ġinter action
Ġsplit ting
Res Net
Ġ``` """<
ĠPar se
copy sign
Ġback prop
LM S
][ !]
Ġread out
medi um
book s
ĠCON FIG
Ġzip file
ä¸ Ĭ
ĠPy T
AN DB
ĠComp utes
Ġext ensions
Ġpipe lining
CA B
Ġ"{ %
("< |
ĠĠĠĠĠĠĠĠĠĠĠĠĠĠĠĠĠĠĠĠĠĠĠĠĠĠĠĠĠĠĠĠĠĠĠĠĠĠĠĠĠĠĠĠĠĠĠĠ ĠĠĠĠĠ
TA TION
Chat Completion
CU BI
Or m
ĠDown sample
FO LDER
Ġreport ed
Ġclick ed
Ġappro ach
Ġcover ed
enum erate
Ġpresent ation
CL ASSES
Ġunit test
Ġident ify
ĠEmbedding Func
äº º
Ġinsert ed
database s
Ġplan es
è® ¾
Ġannot ation
Pass word
Ent ity
basic Config
Mid Block
ĠCO LUMN
Point Cloud
ĠExec ute
æ¡ £
èµ ¤
ĠDep recated
Ġconcaten ated
COR RECT
å¯ ¹
NOR M
ĠLMS DiscreteScheduler
éľ Ģ
MAS TER
ĠDuplicated Code
CUBI C
$ .
' ll
) ^
) **
8 3
= ((
= (-
> \\
? :
B ATCH
C or
C alc
H AL
I TI
J K
J son
N V
O PTION
S to
T r
U I
b io
c riteria
e cted
f use
g ender
h int
s ac
t y
Ð ½
Ġ âĢ
st ored
de cess
de cision
ar di
ro bomimic
it al
it ation
mp loy
Ġf requency
ed its
Ġs ledgehammer
Ġre cent
Ġo cc
Ġ# ####
int ents
pro grams
() [-
Ġdi rectories
Ġh ub
Ġnot diamond
ĠA nn
key point
ĠS ync
ĠS ummary
ĠL M
Ġpro vid
que t
ise nd
wait ing
ĠO THER
ta u
parallel ization
ĠM ust
ĠM SE
Ġun ion
Ġun finished
tr im
pa per
op le
eval u
Ġne ver
Ġ** {
Ġlist en
back up
ON SE
port ions
unc ate
ĠH ub
In struct
In teger
(( (
comp ressed
ms olver
12 80
Ġhe atmap
Ġhe alth
Ġelement wise
]) ]<
exp onential
Pro vider
Pro jector
]] ).
the verge
\" ))<
enc ed
update s
=[ "<|
dist s
ĠUn icode
Ġtr igger
fl an
Ġfin ds
Ġmode s
Ġtemp orary
Ġimp act
Ġjo in
ĠGPT DataSet
dp m
dp msolver
roll ing
Request Context
ĠRetro Config
Ġho me
KEY WORDS
`] ):
can onical
skip if
|> ",
|> "})<
Ġschedule s
tri u
show warning
Inter val
Comp onent
ĠFile Payload
Ġconnection s
Ret riever
03 3
Ġsepar ator
Ġph i
lon s
\. \
åĲ į
Ġsto chastic
Iter able
follow ers
App ly
Valid ate
Ġfo o
Ġfo v
Ġfo ot
KV Processor
pid ump
Al low
Ġ----------------- -
æł ¼
ĠRandom ly
cogn ition
Ġterm inal
reci pi
Ġexplicit ly
æĪĲ åĬŁ
elastic search
Tok ens
Extra ctor
ĠAuth ors
Ł¥ è¯
å¹ ¶
Ġfac ing
Ġomega conf
Added KVProcessor
TOKENIZ ER
įåĬ ¡
ĠSer vice
ĠOP ENAI
Ġantic lockwise
ĠGPTDataSet V
, :
4 9
: (
A WS
P LA
P laybook
S un
S ampling
T XT
W ANDB
Z ES
[ !]
b ash
b lended
c ategories
f old
h ann
i kipedia
j accard
k nwl
n ique
o gram
p ur
r ename
t ight
u ed
Ð ¾
Ġ ?
Ŀ <
in cluding
se maphore
or qa
re w
re view
an alyz
le v
Ġp ay
Ġp unctuation
lo om
he art
Ġ" '
Ġ" ")
Ġin dicate
Ġs x
Ġs warm
Ġs ingular
Ġm atter
Ġm oney
Ġb order
Ġ( #
up plement
Ġ1 20
att ed
ĠT aken
Ġ' |
Ġg lue
(" *
ĠA ction
ĠC JK
[" @
ĠS m
ĠS um
Ġme t
Ġde ep
ĠL inux
Ġx q
ĠP NDMScheduler
Ġl s
ĠD ate
py game
Ġbe come
batch ed
ial ias
ĠM ultimodal
da mp
Ġres ized
ĠU net
ps nr
Ġ3 3
Ġy es
Ġro uge
ĠE ng
ĠW orld
Ġra ster
ĠN E
ĠN x
ĠG re
Ġsup p
gs m
ll ms
min utes
min imal
RA T
St d
read out
ĠIn lineKeyboard
`` .<
call y
') "<
ef ore
Ġhead less
vision er
iss hu
Ġend s
reg ular
prefix s
Ex pect
Res olution
ich a
Ġref ined
AU TH
Ġ12 34
Ġnon zero
En try
De lete
Ġobtain ed
SI ZES
ĠDi ctionary
Ġscor ing
dp r
Loc ation
Ġmulti step
Ġclip wise
Ġstd out
Ġoption ally
ĠDe pth
40 6
25 4
84 56
Ġrender er
Ġdisc ard
CLI PT
ĠTime step
Ġacc um
Up Block
Dis criminator
Ret ries
Ġser ies
erial izable
Ġalign ment
Trans fer
Ġmark down
latitude s
åĽ ¾
Ġqu otes
Ġrest ored
depend encies
Ġsuffix es
Ġconsist ing
sto pped
Training Arguments
Ġâķ ļ
Adam W
geom s
LUM NS
member Non
ĠGra ph
ĠGra dient
Ġá´Ľ Êľá´ĩ
ĠNe ural
paragraph s
åŃ ĺ
Ġapprox imate
æĸĩ æ¡£
Render er
Sp ine
CY AN
#! /
Ġ'_{ }
Ġ"**/* ",<
Ġbra cket
deprec ated
Ġencounter ed
Ġconstra ints
Redirect s
Sl ider
7978 8456
analyz ers
memberNon activity
' `,
0 70
1 99
8 00
> ",<
E st
P LE
P inky
R R
R MSNorm
S aved
T ab
T ARGET
] }"<
a max
a ws
b asis
c ipher
m ime
m aries
t z
u v
y our
| [
} }",
Î ±
æ ²
è ĥ½
Ĺ <
Ġt ran
Ġt yp
re h
re tain
re ceive
it able
me mmory
Ġp n
Ġp rune
Ġin vert
Ġs dd
Ġm al
Ġm ime
Ġa k
Ġb ank
la ude
to po
po lation
get root
th ers
Ġ' #
Ġ' ':<
Ġ' ').
is instance
Ġh int
Ġlo cally
state ment
Ġ{ ',
Ġ""" ,<
ver aging
ĠS OFTWARE
Ġde corator
Ġth us
ĠP ush
est imator
sp y
ĠF ix
Ġr s
Ġbe at
ĠM C
ĠM ODEL
ĠM ixed
ĠM Core
ĠM agicMock
Ġv ers
Ġv acuum
'] ):<
cont inu
ĠW ith
ĠB ypass
our ier
") )).
Ġtoken ization
IN K
error Message
=' ',<
format s
mat s
Ġload s
af ely
ler ance
ĠIn dices
tain er
request finished
sum ing
Par ameters
DI C
run way
uc er
Ġparallel ization
Ġinter faces
ref resh
ref usal
FI D
OU S
Ġ} }<
mark down
acc umulator
ĠGPT ToTextDataset
LT S
Ġform ated
pon ential
Ġwait Until
Ġchar s
math bf
ĠEn vironment
CO LUMNS
Id ent
================================ ============
Ġ202 1
Ġrepresent ations
Ġop posite
Ġar c
vq gan
}' .")<
ĠTrain Data
Ġeff ort
ĠStep Type
redirect ed
ãĢ Ĳ
ãĢ ĳ
Ġph ase
åĪ Ļ
Ġalign ed
Ġ"[ *]
Ġremain s
Ġgre edy
Ġlook up
Ġcollect ed
hex digest
ĠMask ed
Ġexperiment al
ĠEvent Type
Ġfail ure
help ers
Label Element
ĠCross Attention
lis ion
HTML LabelElement
ĉĉĉ ĠĠ
Ġ----------------- -<
Doc string
ĠDB Dataset
ĠSkeleton State
Ġappropriate ly
const rain
Ġsec ret
compress or
Ġalloc ated
Ho st
Masked WordPiece
ä¿ ¡
ĠCurrent ly
Ġcir cum
Ġanalyz ing
sol ar
DEF INE
GENE RATE
CAU SE
Rew ard
Ġrespons ible
BPE Tokenizer
runway ml
$ ,
' ^
) `):<
* \
+ ]
4 56
5 1
> ]
H y
H idden
H yperParams
M odal
S ingle
S keleton
S MPL
W RI
] =
] \
^ {
b en
g ap
g ru
h q
n coder
p interest
s ym
s urface
t n
t imm
v f
v s
æ µ
é ¡
Ġ :<
in dic
in clusive
se l
or so
Ġt yper
Ġt icks
re cording
st it
de term
ct an
Ġn f
Ġre load
Ġre ci
ex clude
li ers
Ġd g
Ġd ns
vi a
ers atile
im ap
qu ot
() ")
Ġ[ ]).
et te
__ ))))<
Ġg rowth
ve cs
Ġh ide
ĠA G
Ġex perience
ĠS to
pre vent
Ġ2 6
Ġx t
Ġma pped
Ġse ll
Ġco ord
Ġget ting
gra mm
Ġr igid
ition ally
00 2
Ġsh ot
ĠO p
ĠO NN
bo olean
Ġ: ],<
Ġ3 1
Ġj wt
Ġro unds
Ġtest er
Ġtensor board
ĠRe f
ĠRe al
ĠRe cursively
ac ity
-------- ----<
act uator
no ising
Ġgra dio
Ġnorm s
In sert
tra jectories
ĠSe lector
Ġcol lision
]) ))<
inter cepted
we aviate
AR CH
uc ation
GE S
Ġsave s
Ġli ft
do es
Ġ| <
ĠDef initions
man ent
Ġkeep dims
cur ve
requi re
AU TO
Token Type
Conv Transpose
go v
Ġtrans late
annot ations
lt as
Ġpredict or
Str uct
Lo okup
wh ile
Ġsign s
ĠAdd itional
aut y
Ġpop ulate
clean up
Ġquant ity
Ġgo ogle
ITE MS
ĠFlax StableDiffusion
Ġds dd
ĠIndex Error
ĠModule NotFoundError
"} ],<
ĠRep layBuffer
Ġsync ed
å¤ ©
Ġhash ing
play ed
åĲ İ
Ġpl anning
Ġsto pped
mesh grid
sto pping
Ġmultip ly
FILE S
Ġsmooth ing
compat ibility
Ġeas ier
Ġsection s
Ġcell s
******** ********
Ġfoc al
sat uration
LAY ER
Ġpen alty
SIG N
Ġblen ding
ĠPO ST
ĠAssert ionError
RETRI EVAL
bic ubic
Ġcircum stances
ĠONN X
" --
. [/
: ",<
> $
A V
A g
C hest
E mpty
F ast
H ar
O B
R oot
X Y
\ "])<
\ ")).
b order
b vh
c z
e v
f ish
f ront
g c
g aussians
g roq
i j
j i
o dir
s ma
s dd
s olved
w ant
â Ĩ
Ġ escape
ar ctan
al apping
Ġp rng
Ġf s
Ġf path
Ġf ired
Ġre writing
Ġre cursively
pe er
Ġo thers
ig it
Ġfor e
Ġd a
Ġd ynamically
con current
con affinity
vi e
th ree
ĠT ake
Ġ* [
ic i
ic ations
Ġh ot
Ġh aystack
ĠA nd
Ġe insum
ĠC lean
ĠS kipping
"] }<
Ġpar agraph
ĠF SDP
list ing
init s
Ġnum threads
Ġco mple
Ġco mes
time zone
alse nse
ĠR ange
Ġst imer
class ifiers
rank ing
ĠM M
ĠM y
da ys
Con tact
'] ]
ĠB OS
tr al
Ġra dio
row son
com bo
com bine
IN DO
Ġcont inu
TE P
base line
ĠIn clude
ĠSe cond
ĠSe mester
DI O
Ġ{} ,<
AS SISTANT
ST D
AR TI
64 0
ud ents
Ex tension
Ġinitial izing
MA IN
Ġdown sampling
ultip ly
Ġpost process
Ġtr iggers
Ġoff loading
Ġconv ersations
56 78
]( ../
quant izer
dis connected
PO SI
Pre diction
Ġreg istration
âĶ ģ
ĠSet ting
Loc al
mapping s
Ġconvert ing
Gener ating
Ġoptim ize
ï¼ Ľ
To Client
Ġclean up
Ġá´ ľ
ĠGener ic
ðĿ Ĳ
Ġview less
CO M
CO MPLE
Ġlocator s
Ġrender ing
Load ShardedStrategy
Log its
support s
Index edDataset
ĠAgent Meta
ĠDo e
Ġabs l
åĲ ĳ
ĠAsync Event
Ġlear nable
Com bo
Ġdete ction
1234 1234
tern ative
Def inition
AC CE
ĠTransformerBlock Submodules
ĠNew s
ĠBlock Data
Ġpur pose
attach ment
Ġsec ure
HTTP SError
ĠVideo Re
Ġcr ash
Ġfoc used
Ġcompress or
Ġinstant i
ĠInference Params
ĠJo hn
æī Ģ
____ ____
ĠTr uncate
Ġgri pper
ĠMatch es
trip lets
Mark up
TLS v
Ġ=========== =<
ĠShared Memory
Ġ------------------------------------------------- -------<
ToClient Message
HTTPSError s
" ')<
+ '
- ]+
/ ')<
B LOCK
C y
E le
G lobal
L ight
L ora
L LAMA
M edia
P hi
U tility
W N
Y our
\ ']
] -
c mom
e in
g ation
l ms
q id
q wen
s itting
t as
t yp
t inder
v l
v ement
} ãĢĳ
é Ļ
Ġ ):
Ġt ot
Ġt ax
)< /
ar c
al a
an chor
Ġf raction
ed ocs
Ġn an
he al
Ġ" ).
Ġin sp
Ġs light
Ġre ct
Ġre comp
Ġm core
Ġa chie
id f
Ġb pe
Ġb lended
Ġb ypass
Ġb leu
un pack
un normalize
un wrapped
Ġ( %
Ġ( ...
em ents
il led
th edocs
pro fil
-- -\
im show
ĠT EXT
Ġ' ).
__ ,<
ma e
Ġh it
ĠA ut
ĠC enter
ĠS A
Ġde p
ĠL ine
ĠL arge
Ġpro x
est imation
sp hin
ĠF i
Ġco ef
time scale
ĠR GB
Ġr ic
os ine
art ist
Ġv ol
Ġ: =
inf inite
[: :
ĠW ang
ĠB ottleneck
lit eral
Ġmax len
Ġtest ed
:// {
jo hn
ĠRe shape
ĠRe ceive
ry pted
Ġcl on
mat ure
EN TATION
iter able
net loc
read thedocs
Ġ. "<
Data Collator
OR DER
Ġapp lies
DI SA
]) ):<
]) [:,
') ))<
AR GS
Pro pert
transform ation
Ġcopy right
dd pg
Ġmean ing
AT TN
Ġobject ive
Ġexec uting
LA G
ĠPro tocol
Ġorder ing
Ġsin kh
ssi an
Ġform atter
annot ation
ĠAuto Processor
Gener ation
har m
á´ĩ á´ħ
CK ED
Ġbin ding
ĠDe vice
perim ents
MS G
schedule s
ell ig
á´ı ÊĢ
Ġpers onal
Ġfill er
AD D
Ġsepar ated
Ġ[{ '
interpo l
æľ º
ĠIN PUT
havi ors
ÊŁ ÊŁ
USE D
Ġmodifi er
play list
sharding s
Ġident ical
çĶ Ł
Status Code
ĠWeb Kit
WAR D
ä½ į
stand alone
ident ifier
ĠCross EntropyLoss
Ġconsist s
And Events
pk gs
Ġinpaint ing
Ġ--------------------------------- --------------------------------
éĹ ´
ĠPreTrained Tokenizer
hip u
Ġnumer ic
ĠEval uation
Ġcy c
Ġcy cle
ĠLazy Attribute
Ġuniform ly
Ġaux iliary
ĠSupport ing
Ġâķĳ <
foc used
ĠFollow ing
Ġcut off
CHOI CES
ĠAnthropic Resource
Camer as
ĠHel per
mlink s
ĠâĶľ âĶĢ
ĠAnn ot
æ² ¡
ãĢĲ {
sphin x
DISA BLE
Ġsinkh orn
! =
$ ',
( ~
( .*?
) })<
5 2
7 1
8 2
9 3
= \
> ============================================
C SS
E PS
F rozen
H e
L STM
M ust
O PT
P atch
T itle
T uning
U til
V ari
W elcome
[ \
] }.
_ [:,
b m
c b
d po
d get
d ual
l legal
m j
r r
r ics
t l
u cl
v oting
x pos
y ml
z p
± Ĥ
å ī
Ġ em
Ġ emails
Ġ êľ°
Ġ Êıá´ıá´ľ
ı Ĳ
Ġf ish
Ġf ront
ce eded
Ġn iter
Ġc s
Ġc lock
Ġs urface
Ġre v
Ġre write
ra bbitmq
Ġa ble
Ġb nb
un sloth
ort ion
Ġd y
Ġd ri
to All
int rinsics
up dated
th ere
ers ample
ĠT ARGET
() ],<
__ ',
Ġg g
text ure
text box
Ġh ints
ĠA b
ĠA xis
Ġe c
ĠS witch
Ġx shaped
"] [:
sp here
sp ersample
ĠF ull
ĠF lip
list en
Ġco efficient
os ite
Ġprint s
ĠM otion
ĠM ultiply
Ġv ocoder
Ġun filtered
max len
je c
pa ca
Ġtext ure
lit e
ir c
Ġfile path
IN F
start s
Ġraise d
Ġcont roller
Ġad vantage
Ġwe bsite
Ġso ft
LI mage
Re ference
sub module
DI RECT
Ġblock ing
ĠCon d
Ġret ried
AR S
exp licit
[..., :
ĠSt ory
Ġbase name
Ġcopy ing
Ġdown stream
Image PipelineOutput
Ġoff line
Ġkeep ing
tuple s
Ġtuple s
PRE TRAINED
rac ing
En able
Ġread me
chat bot
ĠDi vide
Ġcondition ed
AN CE
API Response
Ġab ide
)} ,<
Gener ated
Ġcurr ency
Lo ck
CON FI
ĠEn coding
Ġremove s
TER MIN
multi part
Ġbackward s
}' "<
Ġdir name
18 2
ĠTo Tensor
Ġevery thing
Ġsn ippet
ĠHT ML
ĠDo main
Ġaccess ible
ĠChat Message
blue print
sv g
202 2
Ġmem ories
ĠName d
Ġest im
ĠLe e
NE W
artifact s
BI CUBIC
Ġmultip lier
Ġâķ Ķ
Ġauth orized
feed back
CODE R
uplic ates
Ġ################# ###<
ĠInter face
Ġjit ter
############ #<
ĠGroup ed
vised Dataset
Inpaint ing
Pl anner
ĠPad ding
Ġsen ds
Auth orization
>################################ #################################################<
ĠTeradata Resource
Ġmodif ication
On StatusCode
greg ator
Ġke eps
Ġaud iting
Desc ription
through put
Generic Response
Ġdecor ated
ĠFuture Warning
ĠVis ual
VO CAB
ĠRemote Server
ĠGemini Resource
è¾ĵ åĩº
Ġsupp lied
Ġaccum ulate
âĶģ âĶģ
ĠAsyncEvent ContextManager
" #
" ({
+ [
> ##
A verage
B i
J ob
M erge
N t
N um
O G
R ole
R UN
S ync
[ @
[ \"
_ (-
d or
f amily
g uid
j ava
k ill
m os
o graphy
p layer
r ray
s u
u vicorn
v c
y view
à §
å ½
Ġ quick
ĺ æĹ¥
in el
on y
de co
de script
de tokenize
ar an
ar mature
an iel
it Hub
Ġn head
Ġn aming
he y
Ġs ched
Ġs ynchronous
Ġre ally
pe ts
ur ity
Ġo mit
Ġb an
Ġb lank
Ġb usy
ig in
Ġto ok
Ġto lerance
Ġd ual
con type
th at
pro pa
() ))
Ġ[ ]:<
__ [
__ `<
Ġg s
Ġg ated
Ġg ift
Ġg ames
Ġg arb
Ġdi vided
Ġh id
Ġh aw
form atting
res olved
us dor
Ġme asure
pre decess
Ġ2 000
Ġpro xy
ĠP E
sp ans
ĠF B
ĠF ully
Ġl shcache
ĠD ist
ĠD ec
train ers
os pec
pi ps
Ġsh arpness
ĠO ptim
Ġpre ced
Ġk len
Ġro uting
ĠW p
ĠB utton
tr igger
index er
Ġpo inter
ip pets
com ments
av or
ber metric
qui et
mb ada
Ġal location
Ġresp ond
rot vec
ĠH f
ĠH p
á´ ĭ
ler p
LI ST
ĠIn ria
DE CO
LE R
Ġ... '.<
clo sd
sent ial
=[ ],<
Ġframe work
graph deco
Ġfa ces
LM Head
ĠQ ueue
Ġref usal
ME AN
mplet ely
Ġexec utes
go od
Ġtrans l
pool ing
diff erence
á´ĩ s
hot s
Lo op
22 5
(". ")
CA LE
CA TION
DA rray
MS A
smpl x
instruction s
CLI CKED
Ġdatabase s
Ġexception s
åı Ĥ
plan e
Ġph ys
User name
åĲ ¦
retrie ve
Com mand
align ment
sli de
``` \
ha ust
Al location
USER S
Cho oser
ier arch
RT S
ĠFl ash
ĠEval uate
025 7
Decode d
MAGEN ET
Ġsan ity
watermark er
Ġinstant iate
ĠStop Iteration
Row ParallelLinear
material s
ĠVocab ulary
MULTI PLE
Ġabstract method
TRAN SFORM
Ġgri p
Scatter To
Language Model
ĠTop K
âķĲâķĲâķĲâķĲâķĲâķĲâķĲâķĲâķĲâķĲâķĲâķĲâķĲâķĲâķĲâķĲâķĲâķĲâķĲâķĲâķĲâķĲâķĲâķĲâķĲâķĲâķĲâķĲâķĲâķĲâķĲâķĲâķĲâķĲâķĲâķĲâķĲâķĲâķĲâķĲâķĲâķĲâķĲâķĲâķĲâķĲâķĲâķĲâķĲâķĲâķĲâķĲâķĲâķĲâķ Ŀ<
âķĲâķĲâķĲâķĲâķĲâķĲâķĲâķĲâķĲâķĲâķĲâķĲâķĲâķĲâķĲâķĲâķĲâķĲâķĲâķĲâķĲâķĲâķĲâķĲâķĲâķĲâķĲâķĲâķĲâķĲâķĲâķĲâķĲâķĲâķĲâķĲâķĲâķĲâķĲâķĲâķĲâķĲâķĲâķĲâķĲâķĲâķĲâķĲâķĲâķĲâķĲâķĲâķĲâķĲâķ Ĺ<
cyc lic
ĠOb ject
ĠElastic Tok
åĳ ĺæĹ¥
ĠFeat ure
Ġintegr ation
Ġimplicit ly
Gre en
çĶ¨æĪ· éĹ®é¢ĺ
èĩ ª
Ġscen ari
ä¼ļ åĳĺæĹ¥
ĠGRAPH DECO
damp ing
Ġâķļ âķĲâķĲâķĲâķĲâķĲâķĲâķĲâķĲâķĲâķĲâķĲâķĲâķĲâķĲâķĲâķĲâķĲâķĲâķĲâķĲâķĲâķĲâķĲâķĲâķĲâķĲâķĲâķĲâķĲâķĲâķĲâķĲâķĲâķĲâķĲâķĲâķĲâķĲâķĲâķĲâķĲâķĲâķĲâķĲâķĲâķĲâķĲâķĲâķĲâķĲâķĲâķĲâķĲâķĲâķĿ<
POSI TION
ĠReceive s
æ²¡ æľī
ĠâķĶ âķĲâķĲâķĲâķĲâķĲâķĲâķĲâķĲâķĲâķĲâķĲâķĲâķĲâķĲâķĲâķĲâķĲâķĲâķĲâķĲâķĲâķĲâķĲâķĲâķĲâķĲâķĲâķĲâķĲâķĲâķĲâķĲâķĲâķĲâķĲâķĲâķĲâķĲâķĲâķĲâķĲâķĲâķĲâķĲâķĲâķĲâķĲâķĲâķĲâķĲâķĲâķĲâķĲâķĲâķĹ<
Ġgarb age
usdor ff
! \
" (\
' ve
' },
) "
) ['
) ):
/ ?
9 7
: ]))<
= %
G AN
I mpl
I MP
L lm
M on
N Locator
P ol
S O
S pace
` ."""<
a il
c m
c rypto
d og
f info
f lex
h d
i contains
l g
l us
m obile
t ls
v ote
x form
} """<
Ã Ĺ
æ ¬
ç §
è ·
Ġ atten
Ġ Éª
Ġ articles
Ġ ä½¿çĶ¨
en et
al ore
Ġp itch
lo ok
ct im
Ġn q
he ll
Ġc and
Ġc ateg
Ġc ircle
Ġs pectral
Ġre map
ad ene
el ta
el vis
Ġ- *
Ġdef ining
Ġas suming
Ġ' *
() }")<
Ġ[ ]):<
Ġh a
Ġh w
Ġh ence
", )<
ĠS ends
ĠS ci
). \<
Ġ2 7
ĠP I
ĠP lot
Ġma jor
rans om
per plexity
ĠD ense
Ġr ule
Ġr erun
Ġst ay
ded up
ĠO racle
Ġpre c
=" \
ĠM ore
Ġv env
Ġres y
Ġon click
Ġ3 36
Ġk seg
Ġk inematic
ĠE V
for d
ĠV ersatile
ne cessary
op in
Ġne ur
Ġ** _
Ġgener ally
Ġad v
vis it
=' ')<
Ġac curacies
Ġq rot
ĠAr chive
Ġhe x
Ġ5 6
Ġ5 0257
call ers
Ġ{} )
Ġ{} .".
') ):<
box es
LE RTS
exp ansion
Ġnoise d
Se cond
Ġextra ction
Res netBlock
Ġcomm unic
initial izers
edit ed
Ġsum marize
rand perm
avg pool
atter y
cent ral
11 1
Ġ7 7
SI LON
Ġcalc ulated
ason ing
Ġ100 000
Embedding s
Fa il
sin ce
Ġ{' -'
Ġá´ ħ
ignore Case
DP MSolverMultistepScheduler
}) '<
An thropic
actor s
(". ")[-
CA TE
multi step
multi processing
ĠUp sample
smpl h
Ġclos ing
Ġgather ed
CU L
ear er
É´ á´ħ
ele v
encoding s
âĢ Ŀ
Hel per
velo p
fs path
Ret rie
mon th
UN I
Ġpartition ed
Ġdirection s
Ġdispatch es
qpos addr
Ġdp r
Ġgu aran
Ġstructure d
è¯ ·
ĠColumn ParallelLinear
MIN S
ĠAc curacy
geo metric
Stream er
Split GPT
Ġ========= =<
ĠCom mon
ĠWh ile
And Grad
Ġauth or
Ġ--------------------------------- ------------<
Ġbi directional
å¼ ķ
ĠDagster SdfTranslator
Ġupper case
Ġlik elihood
Ab out
ĠWebSocket Route
Ġmov ement
Int Tensor
ĠSection Type
Ġsymbol s
æŃ £
%%%%%%%% %%%%%%%%
ĠPatch Embed
Ġappe ar
ĠInst agram
orient ation
MEM ORY
Ġcred it
Ġ========================= <
ĠAllow s
asse mble
OUR CE
Ġprotect ive
ĠPers pective
refin enet
FLO AT
SEC RET
SentencePiece Tokenizer
ĠSS L
HAL F
polation Mode
continu ations
Ġcomple tes
Ġguaran te
AndGrad Buffer
! ",
) ?
) //
) `.<
- ")<
4 01
= $
= ",<
B earer
C F
F ix
G LO
H alf
K e
M U
M ER
O ne
P al
R aster
S hot
T ools
U LL
a stronomic
b pd
c rit
c irc
j k
k g
l int
n Context
n dims
o ve
v ol
¸ ı
¹ æį®
Ð ´
ç ł
ï ¸ı
Ġ ques
in cip
se ssions
Ġt b
Ġt ell
ar mup
an cy
ro uge
Ġp np
Ġc i
Ġ" |
Ġs i
Ġre cognized
Ġm i
Ġm att
Ġa ge
Ġa stronomic
ur istic
Ġo w
Ġb or
Ġb old
la ion
str al
get size
set Formatter
up grade
ĠT ED
ol ded
() },
Ġg lu
is o
Ġh aving
od o
embed ders
ĠC laude
ĠS DF
Ġde cl
Ġde cre
Ġde limiter
ĠL ength
ĠL LAMA
Ġpro jector
Ġpro portion
Ġx z
ĠP RE
ĠP ay
dim ensions
Ġor d
oc clu
(' ()
Ġen h
Ġpre par
Ġpre view
Ġan imations
ĠM a
ĠM ixup
ĠU np
Ġint ra
Ġint ended
ca ches
Ġj obs
ĠE P
tr il
Ġmax Retries
Ġmax Redirects
son net
Ġlist ener
Ġca ret
Ġca ref
mat plotlib
ĠIn spect
local time
tra ces
Re size
ĠEx pert
ĠEx ponential
call ing
ific ial
Ġchunk ing
over write
ref ine
ĠSt and
ĠSt ack
Ġmin i
10 5
Ġpy gments
Ġiter ative
'. "
au di
ĠY ang
Ġbuild ers
Ġ} )
Ġ} );<
Att ack
ĠUn CLIP
ĠTensor s
celer ation
(* ,
20 1
PRE D
lan ations
chat glm
PO SE
Co st
Ġorder ed
optim ized
Text Input
ĠBase Io
Parallel Embedding
condition ed
Ġ". /
direct ly
Form er
pl anning
Ġden oise
Ġ"{ }
Ġenable s
Ġprod uced
Ġreplace ment
clean ing
ĠQu iz
FF USERS
dot env
70 7
Comp Vis
ĠFile s
Ġreport ing
reference s
Ġsig moid
Sub process
Sub mit
configure d
Trans lation
ĠDDP M
Ġdec ide
Ġgu i
éĢ Ł
Ġqu ote
Random State
Ġps util
Rank er
sen ce
Ġlock ed
Ġpol l
toxic ity
emit ter
ĠFace book
Ġexpi ry
ĠScal ed
Ġaz ure
SU B
Connection Error
ĠIdentity Op
}}< |
ĠBack ward
System Writer
umb el
âĸĪâĸĪ âķ
break s
ĠHead ers
phys ics
COL OR
ç¬ ¬
SEGM ENTATION
çīĩ æ®µ
Match ing
vest ig
æ¯ ı
ĠEng lish
ĠSelector s
Ġinsp ired
ĠSA FE
ellig ence
DISABLE D
çł ģ
ĠTED otProductAttention
! ')<
" |
$ <
' "
' -
' `<
( ('
) ').
, "
. ',<
/ .
B efore
C REA
F lag
G iven
H ash
K arras
L ambda
M ain
N R
O ptim
O THER
Q a
R outer
S n
S in
T UM
U ES
W I
W eight
W INDO
b mp
b ul
b len
b quat
c g
d Ld
h aystack
m nist
o sed
o pacities
r w
s it
u ra
v d
v p
w pe
w alk
y a
Ñ ĥ
æ ´
Ġ é
Ġ ut
Ġ É´
Ġ ÃĹ
Ġt aking
st raggler
de cs
Ġi ct
Ġi llegal
ch ance
ch ase
lo pt
Ġn row
Ġc ss
Ġ" "),<
Ġre view
Ġm cc
un expected
Ġd fs
Ġd spy
val i
pro portions
sh adow
Ġ* _
() )]<
Ġg alore
Ġdi c
== =
Ġh ierarch
Ġ{ _
ith met
form atted
res cale
Ġe uclidean
Ġ< |
ĠS erializable
Ġde allocate
end ation
Ġpro grams
"] )]<
value head
Ġse quent
Ġor ient
ĠR ight
point ers
Ġst uff
Ġpre processed
ann s
=" ./
app le
ĠM ark
ĠM EM
ĠM ATCH
Ġres pective
ive s
add c
append Child
ĠE OD
ĠW HE
ang vel
ĠV al
ĠG u
com endation
... "<
... ')<
Ġtoken izers
ac le
Ġad min
Model ForCausalLM
In spect
Ġle ad
Ġle aving
sub str
trans late
ĠEx it
ĠEx pect
Par se
Ġimg x
Ġcol s
') .<
lin eno
over alapping
ref ined
not es
Di ctionary
Ex periment
Ġdown sampler
rc xyz
Ġrandom ly
Ġurl join
ĠQ Message
raw s
Ġformat s
Ġnormal s
AU TUM
Ġ12 80
}\ .\
ĠImage Folder
ĠWe aviate
ĠDi ff
Text box
Ġ--------- --
)} )
)} ",<
has hes
VI CES
pri vate
48 5
bit rary
Ġ9 0
aut omatic
Ġcomb ination
Ġgo lf
ID AUTUM
Sc roll
traj s
Up load
Sequence ParallelRegion
Ġpri vate
PP ER
Th umb
Ġbox es
ĠAttn Processor
Group ed
HE AD
Ġweb kit
Ġpl us
Ġworkflow s
subject s
ĠGaussian Model
Ġlear n
Ġct ypes
Ġprior ity
oper ator
Ġsnapshot s
cmd line
sens or
ĠVQ Model
(? :\
Ġevalu ator
ĠFrame Expect
ĠOff load
cert ificates
FE W
recon struction
ç» ĵ
Vector Storage
ĠBlock Sample
ĠBert Model
Ġfact s
Ġder ived
Sdf Workspace
Ġdat um
ĠAss ign
Be low
Back bone
ĠAct ivation
ĠLocal Non
reci pe
ĠIdentity Layer
å° ı
workflow s
Rot ary
MULTI LINE
Ġnavig ated
>"" ")<
>"" ".
integr ity
JSON DecodeError
STRI KE
Ġft fy
cyc les
Super visedDataset
READ ME
Ġseem s
ĠUs ual
Channel Owner
TUN ING
Cert ificate
Ġris k
usc enes
Ġprovid ing
recipi ents
Ł¥è¯ ¢
ĠNews AndEvents
Ġslight ly
harm ful
ĠAnnot ated
CONFI GS
GLO O
ĠUnp ack
ithmet ic
Ġsequent ially
ĠQMessage Box
IDAUTUM N
$ .<
' (
' },<
( ...,
3 64
3 55
A TH
C I
C lean
C LU
C riteria
F ind
F used
I mport
N CH
N DArray
P os
P LU
S kipping
T ING
V L
V EL
V ariable
] ",<
b rown
d x
k ind
m um
n feats
p f
p ptx
p ulid
s z
t ries
u mpt
v us
w ow
w ho
} &
à ±
å Ļ
æ Ķ
Ġ à¦
en ance
Ġt weet
re build
de tokenizer
al ive
an ford
ge odetic
Ġp x
Ġp rom
Ġf ly
Ġn frames
he alth
Ġc sp
Ġin ds
Ġin jected
Ġs queeze
Ġre id
Ġre stri
Ġo k
un der
one st
def s
ss h
pt ers
ext rinsics
li fe
Ġ( _,
ens ht
Ġdef s
up y
il vus
pro xy
ol ation
() ]
() `,
Ġ[ ""
__ ),
__ ),<
Ġdi ffer
ma genta
ma cro
am ass
ri p
ĠC OM
ĠC osine
Ġde signed
pre proc
ĠL u
ĠL ast
est imate
ĠF ree
ĠD r
ĠR est
Ġr m
00 02
Ġen er
ĠO SError
ĠM on
Ġon line
Ġch anging
Ġint rod
Ġconfig urable
ĠE dit
ĠB UT
tr ust
ĠN NN
unk t
cor ded
") (
sw arm
ĠG e
yp her
cept ual
Ġal gorithms
ml in
unc lip
EN V
Model Scope
cat alog
SE ED
Ġq mul
LI MIT
)) ;<
Ġsub stit
') [:-
AR DED
ĠK im
Ġact u
ĠDict Config
AL LOW
TH INK
Ġmin utes
Ġmin imal
Di T
rc adene
graph ics
Image Policy
ĠQ drant
ĠQ KV
Ġline style
match Media
Ġass ist
DO M
Ġspecific ation
AU S
ĠImage PipelineOutput
PO S
pass ages
ĠAPI Response
ĠDi rectory
ĠRet riever
Ġignore HTTPSErrors
ĠGet s
Ġab ort
ĠComp uter
cre ation
har ness
eff ort
math rm
wh itespace
Ġpipe s
Ġshift s
element wise
Ġdescription s
Ġview er
KEY S
ĠAdd itionally
ĠCh roma
ĠDE BUG
vq bet
PRO JECT
sl ash
bl ur
GLOBAL S
Mo use
Server ToClientMessage
200 6
Reg istrable
ĠCont inu
"} ),<
dialog ue
SA MPLE
Add ress
Ġconne ctor
ĠProcess or
Ġaccess ing
pay ments
Ġweb page
Ġhyper edges
è¿ ĩ
Decoder Layer
STA TES
="" ,<
Eval uation
ĠStr Path
dimension al
Bert WordPiece
æĸ ¹
branch ing
QU EN
ĠReg istrable
ĠParallel Attention
AX ES
ĠFl ask
ĠScal ing
cap ability
assign ed
ĠTra ce
Convert ing
ĠCLIPTextModel WithProjection
ĠAss ume
Ġnamed tuple
Bo ard
Ġmanage ment
GRA PH
Ġ================= ====
Clo se
ov Y
Ġconf lict
Ġcompress ors
ĠSp atial
Fin etuningArguments
ane ous
Ġaltern ative
Max imum
æİ ¥
Dec s
Ġvoxel ized
Basic Node
ViT Model
az ure
TRAN SCRIPT
Ġdro pped
åĨ ħ
syn the
Ġappe ars
TrainData Generator
Pri or
ĠTH IS
Aug mentation
Ġunicode data
æĭ ©
ĠCLIPVisionModel WithProjection
Ġsha res
Ġol der
Ġtoxic ity
Avg Pool
éĢī æĭ©
Ġocc up
Resolution Pipeline
icha el
indic ator
ĠOp ExecutionContext
Ġpreced ence
incip led
iso format
Rotary Embedding
CLU DING
ensht ein
( ...
. :<
/ -
3 000
5 0256
> &
> (
F usion
F oV
K AU
M B
M SE
N eck
P open
Q wen
S PECS
T ip
Y Z
Z a
] }")<
