{"<s>":0,"<pad>":1,"</s>":2,"<unk>":3,"<mask>":4,"<N>":5,"!":6,"\"":7,"#":8,"$":9,"%":10,"&":11,"'":12,"(":13,")":14,"*":15,"+":16,",":17,"-":18,".":19,"/":20,"0":21,"1":22,"2":23,"3":24,"4":25,"5":26,"6":27,"7":28,"8":29,"9":30,":":31,";":32,"<":33,"=":34,">":35,"?":36,"@":37,"A":38,"B":39,"C":40,"D":41,"E":42,"F":43,"G":44,"H":45,"I":46,"J":47,"K":48,"L":49,"M":50,"N":51,"O":52,"P":53,"Q":54,"R":55,"S":56,"T":57,"U":58,"V":59,"W":60,"X":61,"Y":62,"Z":63,"[":64,"\\":65,"]":66,"^":67,"_":68,"`":69,"a":70,"b":71,"c":72,"d":73,"e":74,"f":75,"g":76,"h":77,"i":78,"j":79,"k":80,"l":81,"m":82,"n":83,"o":84,"p":85,"q":86,"r":87,"s":88,"t":89,"u":90,"v":91,"w":92,"x":93,"y":94,"z":95,"{":96,"|":97,"}":98,"~":99,"¡":100,"¢":101,"£":102,"¤":103,"¥":104,"¦":105,"§":106,"¨":107,"©":108,"ª":109,"«":110,"¬":111,"®":112,"¯":113,"°":114,"±":115,"²":116,"³":117,"´":118,"µ":119,"¶":120,"·":121,"¸":122,"¹":123,"º":124,"»":125,"¼":126,"½":127,"¾":128,"¿":129,"À":130,"Á":131,"Â":132,"Ã":133,"Ä":134,"Å":135,"Æ":136,"Ç":137,"È":138,"É":139,"Ê":140,"Ë":141,"Ì":142,"Í":143,"Î":144,"Ï":145,"Ð":146,"Ñ":147,"Ò":148,"Ó":149,"Ô":150,"Õ":151,"Ö":152,"×":153,"Ø":154,"Ù":155,"Ú":156,"Û":157,"Ü":158,"Ý":159,"Þ":160,"ß":161,"à":162,"á":163,"â":164,"ã":165,"ä":166,"å":167,"æ":168,"ç":169,"è":170,"é":171,"ê":172,"ë":173,"ì":174,"í":175,"î":176,"ï":177,"ð":178,"ñ":179,"ò":180,"ó":181,"ô":182,"õ":183,"ö":184,"÷":185,"ø":186,"ù":187,"ú":188,"û":189,"ü":190,"ý":191,"þ":192,"ÿ":193,"Ā":194,"ā":195,"Ă":196,"ă":197,"Ą":198,"ą":199,"Ć":200,"ć":201,"Ĉ":202,"ĉ":203,"Ċ":204,"ċ":205,"Č":206,"č":207,"Ď":208,"ď":209,"Đ":210,"đ":211,"Ē":212,"ē":213,"Ĕ":214,"ĕ":215,"Ė":216,"ė":217,"Ę":218,"ę":219,"Ě":220,"ě":221,"Ĝ":222,"ĝ":223,"Ğ":224,"ğ":225,"Ġ":226,"ġ":227,"Ģ":228,"ģ":229,"Ĥ":230,"ĥ":231,"Ħ":232,"ħ":233,"Ĩ":234,"ĩ":235,"Ī":236,"ī":237,"Ĭ":238,"ĭ":239,"Į":240,"į":241,"İ":242,"ı":243,"Ĳ":244,"ĳ":245,"Ĵ":246,"ĵ":247,"Ķ":248,"ķ":249,"ĸ":250,"Ĺ":251,"ĺ":252,"Ļ":253,"ļ":254,"Ľ":255,"ľ":256,"Ŀ":257,"ŀ":258,"Ł":259,"ł":260,"Ń":261,"ĠĠ":262,"ĠĠĠĠ":263,"ĠĠĠ":264,"ĠĠĠĠĠĠĠ":265,"in":266,"se":267,"on":268,"at":269,"or":270,"er":271,"en":272,"Ġ=":273,"Ġt":274,"ĠĠĠĠĠĠĠĠĠĠĠ":275,"re":276,"st":277,")<":278,"de":279,"ar":280,"al":281,"an":282,"le":283,"ro":284,"Ġi":285,"><":286,":<":287,"ut":288,"ion":289,"lf":290,"self":291,"ch":292,"it":293,"ĠĠĠĠĠĠĠĠ":294,",<":295,"mp":296,"ge":297,"me":298,"Ġp":299,"Ġf":300,"lo":301,"as":302,"ct":303,"ed":304,"di":305,"Ġself":306,"ce":307,"Ġn":308,"he":309,"Ġc":310,"Ġ\"":311,"Ġin":312,"ing":313,"Ġs":314,"Ġre":315,"ent":316,"ex":317,"ra":318,"pe":319,"ode":320,"Ġm":321,"ĠĠĠĠĠĠĠĠĠĠĠĠĠĠĠ":322,"Ġa":323,"ur":324,"id":325,"Ġo":326,"iz":327,"Ġb":328,"ig":329,"Ġthe":330,"Ġ#":331,"ate":332,"ad":333,"age":334,"un":335,"):<":336,"ue":337,"Ġif":338,"one":339,"def":340,"la":341,"um":342,"put":343,"ot":344,"ck":345,"Ġw":346,"ss":347,"el":348,"odel":349,"ata":350,"pt":351,"Ġto":352,"ort":353,"and":354,"ize":355,"arg":356,"ext":357,"Ġfor":358,"li":359,"ul":360,"Ġd":361,"Ġ(":362,"str":363,"to":364,"con":365,"po":366,"None":367,"ens":368,".<":369,"\"\"":370,"int":371,"urn":372,"co":373,"orch":374,"turn":375,"ser":376,"rom":377,"ame":378,"em":379,"args":380,"get":381,"Ġ-":382,"mport":383,"Ġis":384,"set":385,"]<":386,"orm":387,"ĠNone":388,"Ġdef":389,"(<":390,"up":391,"ran":392,"size":393,"val":394,"vi":395,"il":396,"Ġreturn":397,"Ġas":398,"th":399,"ation":400,"Ġ1":401,"ype":402,"ath":403,"att":404,"ep":405,"pro":406,"ht":407,"ĠĠĠĠĠĠĠĠĠĠĠĠĠĠĠĠ":408,"len":409,"ers":410,"par":411,"()<":412,"--":413,"im":414,"Ġcon":415,"ĠT":416,"sh":417,"Ġtorch":418,"Ġ'":419,"ol":420,"qu":421,"from":422,"Ġ*":423,"()":424,"Ġ[":425,"et":426,"__":427,"ic":428,"ke":429,"Ġg":430,"Ġdi":431,"==":432,"atch":433,"ve":434,"ensor":435,"ma":436,"out":437,"model":438,"(\"":439,"fig":440,"text":441,"is":442,"Ġh":443,"Ġlo":444,"od":445,"data":446,"Ġimport":447,"es":448,"state":449,"ime":450,"ask":451,"emb":452,"am":453,"Ġand":454,"Ġ{":455,"mple":456,"##":457,"ction":458,"Ġ\"\"\"":459,"ver":460,"\"<":461,"Ġnot":462,"Ġ+":463,"Ġ0":464,"Ġof":465,"Ġ)<":466,"\")<":467,"der":468,"ab":469,"ith":470,"ult":471,"name":472,"all":473,"\",":474,"type":475,"ile":476,"ight":477,"ff":478,"ĠĠĠĠĠĠĠĠĠĠĠĠĠĠĠĠĠĠĠ":479,"Ġel":480,"lay":481,"path":482,"rain":483,"ĠA":484,"Ġ==":485,"step":486,"pp":487,"ine":488,"embed":489,"ample":490,"form":491,"ption":492,"res":493,"ding":494,"che":495,"tok":496,"mpt":497,"ri":498,"Ġe":499,"Ġ<":500,"ĠC":501,"us":502,"ass":503,"Ġex":504,"key":505,"[\"":506,"ĠS":507,"Ġme":508,"Ġde":509,"rue":510,">#":511,"ape":512,"end":513,"cl":514,"pre":515,"ĠL":516,").":517,"dict":518,"Ġ2":519,"Ġpro":520,"Ġmodel":521,"Ġx":522,"Ġstr":523,"Ġth":524,"\"]":525,"Ġpar":526,"sc":527,"sert":528,"Ġout":529,"Ġ`":530,"Ġelse":531,"alle":532,"._":533,"ĠP":534,"num":535,"\":":536,"ter":537,"Ġma":538,"value":539,"rans":540,"wa":541,"est":542,"sp":543,"if":544,"Ġse":545,"Ġ\"\"\"<":546,"Ġ->":547,"per":548,"Ġdata":549,"vice":550,"ĠF":551,"))<":552,"que":553,"input":554,"ard":555,"ention":556,"Ġassert":557,"use":558,"list":559,"init":560,"ew":561,"shape":562,"Ġnum":563,"able":564,"Ġwith":565,"Ġl":566,"Ġargs":567,"ctor":568,"ow":569,"check":570,"ist":571,"config":572,"dim":573,"..":574,"mask":575,"Ġco":576,"den":577,"Ġor":578,"ĠD":579,"allel":580,"Ġget":581,"time":582,"ror":583,"cess":584,"alse":585,"ence":586,"ance":587,"Ġ_":588,"ĠR":589,"],":590,"ore":591,"ĠI":592,"ise":593,"====":594,"izer":595,"gra":596,"Ġr":597,"train":598,"idden":599,"wait":600,"attention":601,"layer":602,"loat":603,"ition":604,"Ġim":605,"gth":606,"point":607,"ment":608,"os":609,"head":610,"eight":611,"output":612,"rint":613,"lock":614,"ly":615,"length":616,"oc":617,"ule":618,"Ġst":619,"ase":620,"import":621,"tensor":622,"coder":623,"load":624,"----":625,"\",<":626,"py":627,"Ġbe":628,"dex":629,"ack":630,"image":631,"',":632,"ids":633,"####":634,"00":635,"Ġinput":636,"pi":637,"class":638,"Ġoutput":639,"),":640,"Ġlog":641,"('":642,"els":643,"ransform":644,"True":645,"Ġsh":646,"Ġen":647,"Ġ/":648,"ded":649,"ĠO":650,"quest":651,"ener":652,"ator":653,"Ġpre":654,"ward":655,"yn":656,"Ġawait":657,"odule":658,"batch":659,"lab":660,"ann":661,"torch":662,"=\"":663,"app":664,"dir":665,"Ġpage":666,"roup":667,"token":668,"ta":669,"ub":670,"line":671,"Ġtok":672,"but":673,"art":674,"parallel":675,"rank":676,"Ġan":677,"steps":678,"embedding":679,"ave":680,"ial":681,"Ġfrom":682,"Ġtime":683,"param":684,"),<":685,"prompt":686,"sample":687,"file":688,"log":689,"bo":690,"['":691,"Ġprint":692,"ĠM":693,"ure":694,"Ġv":695,"cal":696,"Ġ:":697,"da":698,"pos":699,"Ġres":700,"stri":701,"ense":702,"ync":703,"wor":704,"Ġun":705,"quer":706,"Ġimage":707,"max":708,"onse":709,"ents":710,"Ġon":711,"mpl":712,"Ġnp":713,"ĠU":714,"om":715,"norm":716,"Ġuse":717,"Ġ>":718,"ces":719,"ptional":720,"code":721,"ps":722,"Ġch":723,"states":724,"Ġlen":725,"ob":726,"Ġint":727,"query":728,"rror":729,"ssage":730,"Error":731,"inf":732,"Ġconfig":733,"ched":734,"ca":735,"gat":736,"Ġ3":737,"[:":738,"arget":739,"device":740,"je":741,"ive":742,"dataset":743,"ron":744,"ix":745,"Con":746,"weight":747,"ault":748,"Ġj":749,"add":750,"checkpoint":751,"Ġk":752,"Ġy":753,"thod":754,"Ġdim":755,"ute":756,"Ġro":757,"ils":758,"}<":759,"']":760,"wargs":761,"cont":762,"ds":763,"append":764,"stance":765,"ger":766,"ĠE":767,"range":768,"ĠW":769,"icense":770,"ias":771,"pec":772,"ity":773,"ĠB":774,"lic":775,"tr":776,"process":777,"Ġra":778,"tokens":779,"pa":780,"attn":781,"().":782,"unction":783,"ĠĠĠĠĠĠĠĠĠĠĠĠĠĠĠĠĠĠĠĠĠĠĠ":784,"Ġbatch":785,"te":786,"Ġtext":787,"bu":788,"cu":789,"lit":790,"low":791,"for":792,"False":793,"ĠN":794,"ok":795,"unk":796,"float":797,"Ġ__":798,"\"\"\"<":799,"index":800,"Ġmax":801,"hidden":802,"eat":803,"')<":804,"Ġpo":805,"ang":806,"Ġwh":807,"chann":808,"():<":809,"Tensor":810,"Ġvalue":811,"Ġnn":812,"ir":813,"ĠV":814,"Ġfile":815,"ip":816,"ant":817,"kwargs":818,"rame":819,"our":820,"Ġtest":821,"Ġall":822,"stribut":823,"ĠLicense":824,"):":825,"red":826,"lob":827,"htt":828,"block":829,"Ġtensor":830,"row":831,"cor":832,"son":833,"Ġprompt":834,"ind":835,"\")":836,"])<":837,"group":838,"sw":839,"ĠG":840,"nion":841,"yp":842,"Ġkey":843,"Ġtrain":844,"ft":845,"peline":846,"com":847,"user":848,"Ġcontext":849,"ump":850,"':":851,"nn":852,"ph":853,"ransformer":854,"Ġstate":855,"ary":856,"av":857,"...":858,"Ġdevice":859,"own":860,"mo":861,"pect":862,"ber":863,"ne":864,"Ġtoken":865,"//":866,"chedul":867,"grad":868,"cept":869,"op":870,"eval":871,"lat":872,"ool":873,"Ġne":874,"scal":875,"Ġthis":876,"usion":877,"Ġsample":878,"ptim":879,"context":880,"fa":881,"].":882,"rect":883,"quence":884,"Ġit":885,"Ġ**":886,"bs":887,"ĠFalse":888,"Ġlist":889,"url":890,"channels":891,"========":892,"ĠThe":893,"loss":894,"ject":895,"__(":896,"Ġsup":897,"ray":898,"://":899,"ĠĠĠĠĠĠĠĠĠĠĠĠĠĠĠĠĠĠĠĠĠĠĠĠĠĠĠĠĠĠĠĠ":900,"server":901,"back":902,"ĠTrue":903,"embeds":904,"stributed":905,"Ġby":906,"qui":907,"Ġparam":908,"idx":909,"mb":910,"IN":911,"],<":912,"([":913,"start":914,"Ġ(<":915,"params":916,"Ġos":917,"Ġal":918,"yping":919,"Ġraise":920,"gatron":921,"test":922,"info":923,"inal":924,"urr":925,"Ġset":926,"iv":927,"utils":928,"âķ":929,"array":930,"Ġthat":931,"lobal":932,"jo":933,"ĠRe":934,"uld":935,"rit":936,"Ġhidden":937,"Ġresp":938,"ml":939,"its":940,"ill":941,"valid":942,"Ġdataset":943,"Ġno":944,"cheduler":945,"dro":946,"ffusion":947,"unt":948,"item":949,"ict":950,"instance":951,"Ġla":952,"umpy":953,"Ġname":954,"ory":955,"view":956,"ou":957,"########":958,"ON":959,"Ġresponse":960,"Ġattention":961,"embeddings":962,"ument":963,"âķĲ":964,"ould":965,"Ġ[]<":966,"ated":967,"encoder":968,"ac":969,"zer":970,"Ġtype":971,"[:,":972,"cond":973,"gs":974,"ll":975,"ual":976,"âķĲâķĲ":977,"Ġgener":978,"dtype":979,"ters":980,"ations":981,"error":982,"'<":983,"Ġmask":984,"port":985,"pout":986,"pert":987,"np":988,"Ġare":989,"Ġ+=":990,"ust":991,"Ġ4":992,"cuda":993,"Ġdo":994,"layers":995,"erence":996,"ry":997,"Ġrange":998,"ĠOptional":999,"Ġcont":1000,"TE":1001,"module":1002,"Ġ%":1003,"Ġtyping":1004,"Ġ@":1005,"Ġresult":1006,"loc":1007,"feat":1008,"ses":1009,"page":1010,"und":1011,"uple":1012,"ild":1013,"ersion":1014,"bias":1015,"Ġad":1016,"--------":1017,"pu":1018,"date":1019,"reate":1020,"vis":1021,"unc":1022,"Ġcl":1023,"='":1024,"ies":1025,"Ġdtype":1026,"vel":1027,"so":1028,"ld":1029,"min":1030,"method":1031,"Ġca":1032,"content":1033,"split":1034,"lement":1035,"ource":1036,"ameters":1037,"act":1038,"ai":1039,"Ġhas":1040,"Ġelif":1041,"cli":1042,"Ġpos":1043,"Ġ\\":1044,"nt":1045,"Ġinit":1046,"fg":1047,"format":1048,"\"]<":1049,"mat":1050,"32":1051,"andom":1052,"rot":1053,"Ġisinstance":1054,"Ġload":1055,"https":1056,"extra":1057,"Ġloss":1058,"scale":1059,"Ġcomp":1060,"Ġbool":1061,"Ġdefault":1062,"fix":1063,"ern":1064,"RA":1065,"EN":1066,"lect":1067,"ning":1068,"ree":1069,"dices":1070,"ĠH":1071,"Ġasync":1072,"16":1073,"Ġforward":1074,"Ġsize":1075,"ody":1076,"target":1077,"Ġwe":1078,"Ġpad":1079,"Ġbu":1080,"seq":1081,"ponse":1082,"ions":1083,"chunk":1084,"message":1085,"right":1086,"Ġmegatron":1087,"Ġlogger":1088,"nd":1089,"pen":1090,"lable":1091,"iter":1092,"Model":1093,"main":1094,"ptimizer":1095,"Ġ{<":1096,"ton":1097,"net":1098,"RE":1099,"work":1100,"no":1101,"cat":1102,"core":1103,"otal":1104,"urrent":1105,"gener":1106,"Ġwor":1107,"result":1108,"PT":1109,"irst":1110,"Ġsuper":1111,"pose":1112,"heads":1113,"ging":1114,"scri":1115,"Ġgra":1116,"off":1117,"Ġso":1118,"ĠĠĠĠĠ":1119,"Ġac":1120,"SE":1121,"St":1122,"alue":1123,"rowser":1124,"swer":1125,"Ġnorm":1126,"Ġnew":1127,"ari":1128,"ach":1129,"Ġindex":1130,"Ġtarget":1131,"ign":1132,"ay":1133,"Ġlayer":1134,"**":1135,"Ġweight":1136,"Ġper":1137,"Ġexcept":1138,"Ġ)":1139,"ret":1140,"join":1141,"Ġfloat":1142,"env":1143,"vert":1144,"lace":1145,"col":1146,"count":1147,"02":1148,"Ġrequi":1149,"Ġrequest":1150,"Ġquery":1151,"base":1152,"á´":1153,"TI":1154,"ffer":1155,"Ġq":1156,"\":<":1157,"indow":1158,"new":1159,"ec":1160,"sed":1161,"af":1162,"json":1163,"Ġmessage":1164,"io":1165,"read":1166,"turns":1167,"arded":1168,"frame":1169,"ĠAr":1170,".\"\"\"<":1171,"Ġup":1172,"ures":1173,"ler":1174,"vent":1175,"ipeline":1176,"position":1177,"Ġ.":1178,"ere":1179,"LI":1180,"Data":1181,"mean":1182,"xis":1183,"action":1184,"Ġcor":1185,"be":1186,"ĠIn":1187,"rep":1188,"Ġpath":1189,"DE":1190,"ble":1191,"ross":1192,"samples":1193,"In":1194,"Ġgroup":1195,"attr":1196,"Ġtokens":1197,"Ġspec":1198,"}\")<":1199,"Ġid":1200,"inear":1201,"ĠUnion":1202,"ĠCo":1203,"pad":1204,"labels":1205,"poch":1206,"img":1207,"ctory":1208,"his":1209,"Ġunder":1210,"local":1211,"map":1212,"((":1213,"vide":1214,"Ġmethod":1215,"ho":1216,">#<":1217,"comp":1218,"andle":1219,"tokenizer":1220,"ug":1221,"with":1222,"tra":1223,"ms":1224,"12":1225,"Ġ!":1226,"tain":1227,"impl":1228,"request":1229,"]:<":1230,"by":1231,"adata":1232,"function":1233,"Ġrank":1234,"Ġdict":1235,"save":1236,"Ġob":1237,"stat":1238,"ĠReturns":1239,"Module":1240,"ĠValue":1241,"ag":1242,"Ġfunction":1243,"ocab":1244,"arch":1245,"Re":1246,"ys":1247,"df":1248,"Config":1249,"Ġhe":1250,"Ġ!=":1251,"spec":1252,"async":1253,"())<":1254,"Ġle":1255,"Ġlat":1256,"ide":1257,"Ġwill":1258,"post":1259,"Ġscal":1260,"OR":1261,"idth":1262,"Ġapp":1263,"lib":1264,"Ġat":1265,"ception":1266,"Ġcheckpoint":1267,"ĠList":1268,"sub":1269,"comm":1270,"Ġserver":1271,"trans":1272,"global":1273,"ous":1274,"sum":1275,"ĠEx":1276,"ĠValueError":1277,"doc":1278,"oad":1279,"dropout":1280,"mage":1281,"response":1282,"lector":1283,"images":1284,"pping":1285,"Par":1286,"``":1287,"ong":1288,"[-":1289,"Ġmo":1290,"uate":1291,"mm":1292,"ized":1293,"Ġstart":1294,"transformer":1295,"Ġadd":1296,"training":1297,"distributed":1298,"quat":1299,"ution":1300,"ĠSe":1301,"label":1302,"gre":1303,"ĠArgs":1304,"Ġ5":1305,"))":1306,"Ġtry":1307,"DI":1308,"trained":1309,"Ġsub":1310,"Ġstep":1311,"Ġelement":1312,"argument":1313,"Ġtokenizer":1314,"Ġblock":1315,"conv":1316,"...,":1317,"ast":1318,"tric":1319,"ther":1320,"run":1321,"Ġshape":1322,"ference":1323,"ĠThis":1324,"pred":1325,"tt":1326,"ĠĠĠĠĠĠ":1327,"ny":1328,"values":1329,"call":1330,"ssion":1331,"ifi":1332,"ampl":1333,"body":1334,"PI":1335,"Ġus":1336,"Ġimg":1337,"Ġcol":1338,"Ġnumpy":1339,"mory":1340,"rol":1341,"mbda":1342,"node":1343,"down":1344,"obs":1345,"Ġcheck":1346,"ace":1347,"(-":1348,"uage":1349,"anguage":1350,"fil":1351,"eps":1352,"pipeline":1353,"Ġ\\<":1354,"ze":1355,"lp":1356,"Ġ//":1357,"Ġcan":1358,"seed":1359,"ĠIf":1360,"og":1361,"Ġ{}":1362,"rop":1363,"Ġrun":1364,"Ġyou":1365,">>":1366,"AS":1367,"fn":1368,"Ġ}<":1369,"html":1370,"Ġonly":1371,"])":1372,"Ġtimeout":1373,"uid":1374,"Ġbias":1375,"ĠCon":1376,"Optional":1377,"Ġclass":1378,"')":1379,"func":1380,"Ġposition":1381,"inter":1382,"tadata":1383,"ww":1384,"Ġte":1385,"task":1386,"Ġattn":1387,"cfg":1388,"Ġrot":1389,"box":1390,"cpu":1391,"div":1392,"Ġaction":1393,"lin":1394,"rix":1395,"ange":1396,"Ġz":1397,"eta":1398,"ng":1399,"last":1400,"Ġret":1401,"iel":1402,"Ġused":1403,"gative":1404,"indices":1405,".\")<":1406,"\"{":1407,"LE":1408,"Ġparams":1409,"we":1410,"ization":1411,"keys":1412,"ST":1413,"Ġbut":1414,"bool":1415,"ull":1416,"Ġ):<":1417,"Ġsp":1418,"AR":1419,"icro":1420,"Ġ[<":1421,"ĠK":1422,"Ġcorrect":1423,"iginal":1424,"scheduler":1425,"uc":1426,"exp":1427,"sequence":1428,"Ġencoder":1429,"Type":1430,"Ġopen":1431,"ef":1432,"zeros":1433,"64":1434,"uments":1435,"Ġcall":1436,"ific":1437,"rite":1438,"ud":1439,"gram":1440,"Ġparallel":1441,"Ġmatch":1442,"isode":1443,"Ġjson":1444,"</":1445,"Ġ...":1446,"ume":1447,"Ġhead":1448,"vision":1449,"clo":1450,"igh":1451,"âķĲâķĲâķĲâķĲ":1452,"Ġ[\"":1453,"Ġeval":1454,"evaluate":1455,"forward":1456,"Pro":1457,"Ġnumber":1458,"Ġnoise":1459,"]]":1460,"Ġcode":1461,"of":1462,"ound":1463,"va":1464,"patch":1465,"ER":1466,"Ġtop":1467,"=-":1468,"Ġtraining":1469,"Ġ>>>":1470,"lr":1471,"default":1472,">)":1473,"string":1474,"world":1475,"Ġsequence":1476,"Ġhave":1477,"Ġchunk":1478,"Ġmodule":1479,"sq":1480,"',<":1481,"Linear":1482,"PA":1483,"uce":1484,"ĠPage":1485,"Ġerror":1486,"Ġeach":1487,"().__":1488,"__()<":1489,"Se":1490,"Ġdistributed":1491,"old":1492,"Ġshould":1493,"stru":1494,"Ġmay":1495,"Ġinter":1496,").<":1497,"part":1498,"ĠĠĠĠĠĠĠĠĠĠĠĠĠĠĠĠĠĠĠĠĠĠĠĠ":1499,"transform":1500,"features":1501,"numpy":1502,"org":1503,">@":1504,"over":1505,"zero":1506,"ster":1507,"ema":1508,"ĠAny":1509,"Dataset":1510,"[...,":1511,"iss":1512,"rt":1513,"erver":1514,"gpt":1515,"GE":1516,"mit":1517,"ĠĠĠĠĠĠĠĠĠĠĠĠĠĠĠĠĠĠĠĠĠĠĠĠĠĠĠ":1518,"episode":1519,"pected":1520,"ather":1521,"weights":1522,"items":1523,"cket":1524,"'s":1525,"Ġlength":1526,"================":1527,"ingle":1528,"epoch":1529,"Ġprocess":1530,"print":1531,"\".":1532,"Ġact":1533,"Ġend":1534,"ĠDict":1535,"uidance":1536,"Ġdoc":1537,"ref":1538,"war":1539,"Ġtotal":1540,"http":1541,"otion":1542,"Ġwhen":1543,"AL":1544,"ints":1545,"licy":1546,"version":1547,"api":1548,"Ġsave":1549,"Ġvalid":1550,"cache":1551,"TH":1552,"ĠSt":1553,"Ġmin":1554,"lu":1555,"expert":1556,"not":1557,"reg":1558,"={":1559,"umn":1560,"locator":1561,"les":1562,"video":1563,"obj":1564,"ulti":1565,"uto":1566,"thon":1567,"Ġfirst":1568,"should":1569,"Ġcurrent":1570,"10":1571,"FI":1572,"ved":1573,"\"])<":1574,"Ġtransform":1575,"Di":1576,"Ġglobal":1577,"ayer":1578,"sent":1579,"ream":1580,"drop":1581,"pha":1582,"ES":1583,"prefix":1584,"word":1585,"Ġstring":1586,"Ġpart":1587,"PU":1588,"mode":1589,"igma":1590,"Ġpy":1591,"Ġuser":1592,"bin":1593,"ally":1594,"Ġone":1595,"timesteps":1596,"oi":1597,"the":1598,"mpty":1599,"ak":1600,"################":1601,"question":1602,"Ġ]<":1603,"are":1604,"ename":1605,"Ġarg":1606,"Ġparser":1607,"Ġbase":1608,"}\"<":1609,"root":1610,"}.":1611,"Ġfeat":1612,"Ġextra":1613,"bar":1614,"\\\"":1615,"Ġusing":1616,"Ġli":1617,"rie":1618,"_(":1619,";<":1620,"Ġiter":1621,"diffusion":1622,"Ġtask":1623,"ield":1624,"scription":1625,"Ġlast":1626,"points":1627,"random":1628,"pache":1629,"Ġsplit":1630,"afet":1631,"ĉĉ":1632,"ark":1633,"itle":1634,"quee":1635,"Ġmat":1636,"ailable":1637,"ible":1638,"queeze":1639,"lama":1640,"Ġnode":1641,"rid":1642,"asses":1643,"timeout":1644,"oto":1645,"top":1646,"factor":1647,"`,":1648,"Ġscale":1649,"Ġembedding":1650,"enc":1651,"keep":1652,"mplate":1653,"groups":1654,"ores":1655,"update":1656,"oader":1657,"normal":1658,"offset":1659,"(),":1660,"ift":1661,"Ġcli":1662,"Ġcond":1663,"Ex":1664,"squeeze":1665,"']<":1666,"Res":1667,"Ġpass":1668,"space":1669,"pretrained":1670,"models":1671,"cls":1672,"Ġrequired":1673,"answer":1674,"Ġpadding":1675,"Ġlocal":1676,"Ġaxis":1677,"Ġoptimizer":1678,"unet":1679,"stem":1680,"do":1681,"ernion":1682,"Ġcopy":1683,"'.":1684,"Ġinitial":1685,"MA":1686,"ude":1687,"logits":1688,"000":1689,"':<":1690,"reshape":1691,"lm":1692,"mplement":1693,"Ġ```":1694,"blocks":1695,"Ġexist":1696,"replace":1697,"ner":1698,"retro":1699,"TION":1700,"rectory":1701,"window":1702,"gent":1703,"var":1704,"buffer":1705,"Ġcreate":1706,"Ġimages":1707,"db":1708,"Ġdown":1709,"inputs":1710,"kv":1711,"ameter":1712,"Ġenum":1713,"order":1714,"level":1715,"viron":1716,"pth":1717,"parse":1718,"ich":1719,"diction":1720,"Ġsc":1721,"Ġcomm":1722,"Ġtra":1723,"decoder":1724,"ultip":1725,"rc":1726,"vocab":1727,"heck":1728,"ĠServer":1729,"Ġrandom":1730,"ernel":1731,"probs":1732,"idual":1733,"Ġseq":1734,"ister":1735,"Ġhttps":1736,"Ġinputs":1737,"ĠNot":1738,"ystem":1739,"ropout":1740,"Ġurl":1741,"Ġcontent":1742,"proj":1743,"au":1744,"fo":1745,"tes":1746,">)<":1747,"\"],<":1748,"erate":1749,"Pipeline":1750,"quaternion":1751,"Dict":1752,"=[":1753,"Ġframe":1754,"correct":1755,"LO":1756,"Ġ{\"":1757,"results":1758,"utput":1759,"Norm":1760,"ns":1761,"OU":1762,"latents":1763,"ftmax":1764,"alled":1765,"select":1766,"dm":1767,"ribut":1768,"Ġvalues":1769,"Ġlatents":1770,"parameters":1771,"names":1772,"initial":1773,"afety":1774,"Ġ|":1775,"graph":1776,"ature":1777,"fp":1778,"ateg":1779,"tensors":1780,"ĠPath":1781,"number":1782,"aded":1783,"goto":1784,"ĠSh":1785,"Ġinto":1786,"amp":1787,"dist":1788,"vector":1789,"Ġfa":1790,"oth":1791,"Ġembeddings":1792,"Ġ=>":1793,"Ġdiff":1794,"ĠPar":1795,"ĠDef":1796,"ĠY":1797,"copy":1798,"Ġbuild":1799,"coding":1800,"ptions":1801,"List":1802,"write":1803,"lease":1804,"oken":1805,"Ġback":1806,"uous":1807,"andler":1808,"Ġ}":1809,"inference":1810,"ility":1811,"Ġ{}<":1812,"gn":1813,"LM":1814,"ension":1815,"trics":1816,"Ġmust":1817,"Ġbrowser":1818,"edge":1819,"ollow":1820,"Ġpost":1821,"Ġsupport":1822,"Att":1823,"yle":1824,"(),<":1825,"Ġenumerate":1826,"uration":1827,"\"],":1828,"Ġ8":1829,"Ġgrad":1830,"attern":1831,"Ġover":1832,"Ġmp":1833,"olution":1834,"button":1835,"mlp":1836,"Ġneed":1837,"lection":1838,"create":1839,"Ġwhich":1840,"linear":1841,"Ġvari":1842,"open":1843,"width":1844,"route":1845,"allable":1846,"Image":1847,"kip":1848,"Ġnegative":1849,"Ġidx":1850,"Ġcfg":1851,"ash":1852,"cord":1853,"close":1854,"vae":1855,"024":1856,".__":1857,"ĠData":1858,"Ġbet":1859,"ivation":1860,"cay":1861,"ĠCopy":1862,"\"):<":1863,"atio":1864,"scores":1865,"Ġlogging":1866,"gine":1867,"Ġpipeline":1868,"lines":1869,"Ġwork":1870,"Ġ\"/":1871,"req":1872,"Ġfil":1873,"lean":1874,"Ġ\"<":1875,"transpose":1876,"ap":1877,"current":1878,"optimizer":1879,"uth":1880,"ware":1881,"led":1882,"Ġinst":1883,"ors":1884,"return":1885,"tool":1886,".\"<":1887,"ĠUn":1888,"ĠException":1889,"Ġ(`":1890,"ax":1891,"ider":1892,"search":1893,"lot":1894,"abled":1895,"strip":1896,"hat":1897,"Ġenv":1898,"wright":1899,"resh":1900,"less":1901,"Ġlambda":1902,"stack":1903,"memory":1904,"laywright":1905,"selector":1906,"shot":1907,"},":1908,"dd":1909,"ish":1910,"example":1911,"][":1912,"Ġgenerate":1913,"Ġtr":1914,"Ġwindow":1915,"ĠQ":1916,"ting":1917,"raw":1918,"move":1919,"Diffusion":1920,"Ġroot":1921,"AI":1922,"iven":1923,"abs":1924,"Ġexp":1925,"lation":1926,"encode":1927,"Ġlogits":1928,"RAN":1929,"Ġindices":1930,"ither":1931,"ain":1932,"uff":1933,"Ġline":1934,"Ġany":1935,"Ġnext":1936,"ING":1937,"qdm":1938,"Ġmodels":1939,"Ġmean":1940,"round":1941,"Ġav":1942,"script":1943,"deta":1944,"Ġsame":1945,"Ġanswer":1946,"match":1947,"EM":1948,"Float":1949,"Ġexample":1950,"handle":1951,"total":1952,"Ġmapping":1953,"first":1954,"Ġitem":1955,"mbed":1956,"Ġlabels":1957,"iled":1958,"Ġ>=":1959,"source":1960,"Ġparameters":1961,"Ġother":1962,"object":1963,"fl":1964,"Block":1965,"micro":1966,"clip":1967,"fore":1968,"gment":1969,"sync":1970,"ĠCopyright":1971,"Ġref":1972,"Ġmake":1973,"modules":1974,"Ġpi":1975,"datasets":1976,"empty":1977,"Ġoff":1978,"Ġweights":1979,"cross":1980,"ctx":1981,"llm":1982,"Ġresults":1983,"ifier":1984,"Layer":1985,"man":1986,"mark":1987,"ead":1988,"Ġwidth":1989,"wo":1990,"iguous":1991,"sole":1992,"Net":1993,"next":1994,"entity":1995,"Ġexpre":1996,"matrix":1997,"Ġrequires":1998,"AT":1999,"Ġkeep":2000,"alc":2001,"face":2002,"ential":2003,"ĠTensor":2004,"celer":2005,"used":2006,"los":2007,"Ġformat":2008,"Ġdis":2009,"PE":2010,"(*":2011,"edit":2012,"ndarray":2013,"status":2014,"ins":2015,"lower":2016,"\"].":2017,"----------------":2018,"exist":2019,"Ġass":2020,"messages":2021,"decode":2022,"Ġfin":2023,"temp":2024,"license":2025,"unsqueeze":2026,"ision":2027,"CH":2028,"Ġsource":2029,"\\\\":2030,"DO":2031,"hen":2032,"std":2033,"Ġconv":2034,"Ġeither":2035,"template":2036,"'t":2037,"gather":2038,"rate":2039,"ones":2040,"util":2041,"atten":2042,"title":2043,"Ġsum":2044,"56":2045,"20":2046,"Ġcontain":2047,"Ġhelp":2048,"ME":2049,"cur":2050,"loader":2051,"Ġdoes":2052,"`.<":2053,"ĠJ":2054,"Ġval":2055,"Ġoriginal":2056,"ckpt":2057,"axis":2058,"Ġobject":2059,"ĠDefault":2060,"FloatTensor":2061,"Ġchann":2062,"pare":2063,"dient":2064,"\").":2065,"motion":2066,"ait":2067,"ampling":2068,"Scheduler":2069,"prob":2070,"Ġgiven":2071,"tuple":2072,"Ġtuple":2073,"Ġwrit":2074,"rand":2075,"Ġmode":2076,"ĠFor":2077,"itional":2078,"Me":2079,"Output":2080,"ender":2081,"etun":2082,"fter":2083,"ora":2084,"Ġ6":2085,"metadata":2086,"Ġsys":2087,"python":2088,"atal":2089,"erge":2090,"exec":2091,"Ġnormal":2092,"older":2093,"place":2094,"requi":2095,"Ġmetadata":2096,"Ġspecific":2097,"www":2098,"CEN":2099,"tk":2100,"Ġfollow":2101,"register":2102,"vari":2103,"users":2104,"generator":2105,"Ġpred":2106,"AU":2107,"PRE":2108,"send":2109,"stage":2110,"ODE":2111,"types":2112,"Ġmessages":2113,"inue":2114,"Ġinference":2115,"imers":2116,"ftware":2117,"Ġtemp":2118,"Ġatt":2119,"classes":2120,"perm":2121,"avg":2122,"Ġlanguage":2123,"Ġheight":2124,"Ġmpu":2125,"lan":2126,"engine":2127,"_{":2128,"Ġtqdm":2129,"rac":2130,"Ġ<=":2131,"ake":2132,"dio":2133,"entype":2134,"ithub":2135,"noise":2136,"ratio":2137,"Ġtool":2138,"available":2139,"generate":2140,"reduce":2141,"ĠSee":2142,"wise":2143,"peat":2144,"mplet":2145,"Ġ:,":2146,"gt":2147,"](":2148,"files":2149,"yz":2150,"Ġ12":2151,"bug":2152,"LU":2153,"gress":2154,"CENSE":2155,"Context":2156,"Ġmath":2157,"Ġsingle":2158,"ĠCheck":2159,"Ġmain":2160,"contiguous":2161,"atter":2162,"Ġnon":2163,"=(":2164,"miss":2165,"acc":2166,"description":2167,"Ġbody":2168,"IS":2169,"Ġlayers":2170,"asset":2171,"github":2172,"usal":2173,"vider":2174,"ities":2175,"agent":2176,"event":2177,"frames":2178,"ified":2179,"language":2180,"erature":2181,"Ġevent":2182,"Ġsamples":2183,")]<":2184,"stable":2185,"compute":2186,"lambda":2187,"Ġselector":2188,"ulate":2189,"serv":2190,"Train":2191,"Token":2192,"ify":2193,"filter":2194,"guidance":2195,"Ġdiffusion":2196,"ĠModel":2197,"ĠTransformer":2198,"Ġfound":2199,"policy":2200,"Ġdirectory":2201,"click":2202,"choi":2203,"quant":2204,"Ġdecoder":2205,"Ġcompute":2206,"aved":2207,"ite":2208,"Ġprefix":2209,")):<":2210,"buf":2211,"Ġcaption":2212,"Ġupdate":2213,"Ġimp":2214,"pop":2215,"Conv":2216,"Ġmemory":2217,"\"),<":2218,"mup":2219,"ert":2220,"Ġkernel":2221,"ey":2222,"reward":2223,"Ġobs":2224,"cast":2225,"}\\":2226,"lied":2227,"cv":2228,"Ġinstance":2229,"ampler":2230,"struction":2231,"Ġworld":2232,"HT":2233,"ĠTuple":2234,"FIX":2235,"arning":2236,"stant":2237,"__(<":2238,"rg":2239,"vided":2240,"grid":2241,"dis":2242,"ultiple":2243,"TO":2244,"({":2245,"propert":2246,"nection":2247,"meta":2248,"Ġtimestep":2249,"Ġhttp":2250,"ĠYou":2251,"Ġselect":2252,"For":2253,"xt":2254,"free":2255,"Ġexec":2256,"lax":2257,"Ġhandle":2258,"Ġsharded":2259,"ighb":2260,"Ġvocab":2261,")[":2262,"LA":2263,"uct":2264,"build":2265,"En":2266,"Ġread":2267,"decay":2268,"ategy":2269,"Ġjo":2270,"medi":2271,"docs":2272,"vironment":2273,"hook":2274,"Ġwhile":2275,"uccess":2276,"go":2277,"ating":2278,"checker":2279,"ugging":2280,"Process":2281,"Ġquaternion":2282,"jection":2283,"Ġgenerator":2284,"softmax":2285,"email":2286,"Ġins":2287,"ĠImage":2288,"ataloader":2289,"PREFIX":2290,"Fore":2291,"very":2292,"oid":2293,"table":2294,"Ġscheduler":2295,"wra":2296,"cent":2297,"swith":2298,"only":2299,"Ġsoftware":2300,"-<":2301,"Ġtwo":2302,"cs":2303,"my":2304,"ĠĠĠĠĠĠĠĠĠĠĠĠĠĠĠĠĠĠĠĠĠĠĠĠĠĠĠĠĠĠĠĠĠĠĠĠĠĠĠĠ":2305,"Ġiteration":2306,")))<":2307,"channel":2308,"OUT":2309,"ĠPro":2310,"filename":2311,"RO":2312,"role":2313,"ful":2314,"book":2315,"ĠGPT":2316,"sqrt":2317,"Ġhasattr":2318,"Ġdropout":2319,"ĠVersion":2320,"mbedding":2321,"ĠWe":2322,"sm":2323,"prod":2324,"ager":2325,"Ġtransformer":2326,"Ġsent":2327,"logger":2328,"Ġlimit":2329,"llama":2330,"Ġright":2331,"Ġtimesteps":2332,"client":2333,"ular":2334,"Ġstride":2335,"now":2336,"Ġsteps":2337,"offload":2338,"ĠOR":2339,"Ġasyncio":2340,"})<":2341,"Ġeps":2342,"Ġlow":2343,"arr":2344,"ĠApache":2345,"final":2346,"uture":2347,"Ġ10":2348,"batches":2349,"riever":2350,"Ġtrans":2351,"like":2352,"Ġdist":2353,"Ġexpect":2354,"âķĲâķĲâķĲâķĲâķĲâķĲâķĲâķĲ":2355,"ĠĠĠĠĠĠĠĠĠĠĠĠĠĠĠĠĠĠĠĠĠĠ":2356,"Ġprob":2357,"score":2358,"Ġapplic":2359,"pped":2360,"vant":2361,"11":2362,"ose":2363,"State":2364,"istory":2365,"De":2366,"ITH":2367,"ox":2368,"prev":2369,"Ġexpected":2370,"Ġ7":2371,"chat":2372,"ĠCON":2373,"apply":2374,"Ġign":2375,"outputs":2376,"chedule":2377,"Path":2378,"amer":2379,"Ġmatrix":2380,"()`":2381,"Ġent":2382,"Ġsigma":2383,"\"))<":2384,"Ġ),<":2385,"Ġkeys":2386,"PO":2387,"Ġloc":2388,"Pre":2389,"Co":2390,"Ġprovided":2391,"Ġunet":2392,"qual":2393,"pass":2394,"cted":2395,"ĠParameters":2396,"Ġorder":2397,"Mix":2398,"ĠOF":2399,"Ġrequests":2400,"CT":2401,"lice":2402,"backward":2403,"ĠAN":2404,"Ġzip":2405,"Ġfollowing":2406,"Ġapi":2407,"Ġoutputs":2408,"Ġfinal":2409,"alpha":2410,"ates":2411,"Ġkwargs":2412,"pipe":2413,"Ġpoints":2414,"Ġcls":2415,"The":2416,"Ġpatch":2417,"Ġstat":2418,"exists":2419,"99":2420,"ans":2421,"Ġdrop":2422,"conds":2423,"vec":2424,"Ġobtain":2425,"pper":2426,"ench":2427,"Ġcontinue":2428,"SI":2429,"Ġlabel":2430,"LT":2431,"Ġzero":2432,"Ġcalc":2433,"reak":2434,"ada":2435,"Ġang":2436,"sharded":2437,"Ġreg":2438,"Ġexpert":2439,"></":2440,"control":2441,"Ġsin":2442,"cos":2443,"ends":2444,"ween":2445,".,":2446,"ĠIS":2447,"Ġembed":2448,"kele":2449,"ĠAPI":2450,"ĠDi":2451,"Ġtransformers":2452,"fin":2453,"ie":2454,"pter":2455,"ĠRet":2456,"ä¸":2457,"'])<":2458,"Union":2459,"ason":2460,"sigma":2461,"\"][":2462,"Ġalpha":2463,"keleton":2464,"âĶ":2465,"prediction":2466,"Cont":2467,"reshold":2468,"ĠPy":2469,"processor":2470,"web":2471,"txt":2472,"Ġ--":2473,"Ġcase":2474,"TIONS":2475,"hether":2476,"have":2477,"Ġroute":2478,"100":2479,"fc":2480,"clude":2481,"try":2482,"angle":2483,"ined":2484,"ustom":2485,"repeat":2486,"feature":2487,"Ġstrict":2488,"Ġdimension":2489,"parser":2490,"ĠWAR":2491,"stop":2492,"ĠAtt":2493,").__":2494,"orage":2495,"Ġ100":2496,"Ġspecified":2497,"ssi":2498,"Ġform":2499,"after":2500,"chunks":2501,"Ġdocument":2502,"vents":2503,"olver":2504,"iteration":2505,"bytes":2506,"permute":2507,"Ġscor":2508,"processing":2509,"browser":2510,"Ġoffset":2511,"tils":2512,"ableDiffusion":2513,"Attention":2514,"flatten":2515,"original":2516,"Ġthen":2517,"safety":2518,"loaded":2519,"Ġversion":2520,"Ġapply":2521,"annot":2522,"Ġdiffusers":2523,"Ġred":2524,"tokentype":2525,"'].":2526,"workers":2527,"static":2528,"full":2529,"Ġepoch":2530,"episodes":2531,"cision":2532,"Mixin":2533,"EX":2534,"ODEL":2535,"ĠANY":2536,"Ġexpress":2537,"bi":2538,"opt":2539,"visible":2540,"optim":2541,"olve":2542,"Ġimplement":2543,"quential":2544,"ĠMe":2545,"Ġtensors":2546,"cker":2547,"lete":2548,"ability":2549,"padding":2550,"mul":2551,"PTY":2552,"ribute":2553,"missions":2554,"fi":2555,"Ġcondition":2556,"EMPTY":2557,"Ġwriting":2558,"ĠPre":2559,"Ġbetween":2560,"Ġgpt":2561,"Ġchange":2562,"ĠWITH":2563,"Ġfiles":2564,"ĠWARRAN":2565,"''":2566,"Ġwas":2567,"Tokenizer":2568,"30":2569,"uation":2570,"stamp":2571,"ĠSet":2572,"Ġseed":2573,"liance":2574,"non":2575,"IND":2576,")).":2577,"Text":2578,"lt":2579,"Ġsq":2580,"Ġscore":2581,"TIES":2582,"greed":2583,"PAGE":2584,"AN":2585,"peed":2586,"ript":2587,"Ġ[`":2588,"joint":2589,"Ġpermissions":2590,"ĠSharded":2591,"Ġ---------":2592,"uman":2593,"negative":2594,"ĠWARRANTIES":2595,"detach":2596,"property":2597,":.":2598,"debug":2599,"lag":2600,"uffle":2601,"Ġapplicable":2602,"FAU":2603,"assed":2604,"orted":2605,"Ġguidance":2606,"Ġdeta":2607,"FAULT":2608,"14":2609,"long":2610,"ĠAll":2611,"Ġ```<":2612,"bone":2613,"}/":2614,"Ġallow":2615,"LICENSE":2616,"dp":2617,"verage":2618,"\"][\"":2619,"Loc":2620,"kl":2621,"Ġmlp":2622,"lap":2623,"Ġlaw":2624,"License":2625,"\");<":2626,"caten":2627,"[:-":2628,"swers":2629,"ĠAuto":2630,"Ġlr":2631,"hf":2632,"may":2633,"flow":2634,"utf":2635,"Ġmore":2636,"ĠKIND":2637,"ĠWITHOUT":2638,"handler":2639,"common":2640,"partition":2641,"Ġexc":2642,"Ġfeature":2643,"MODEL":2644,"licenses":2645,"Ġafter":2646,"Ġcompliance":2647,"ready":2648,"height":2649,"mapping":2650,"ĠRes":2651,"angles":2652,"column":2653,"API":2654,"Ġ\"\\":2655,"Ġoptional":2656,"pool":2657,"Ġdel":2658,"typing":2659,"('--":2660,"umel":2661,"arange":2662,"diff":2663,"Ġagreed":2664,"Ġgover":2665,"Ġthan":2666,"ĠLicensed":2667,"Ġlimitations":2668,"apache":2669,"qa":2670,"vious":2671,"ĠBAS":2672,"Ġimplied":2673,"uring":2674,"DITIONS":2675,"ĠCONDITIONS":2676,"Ġgoverning":2677,"ĠBASIS":2678,"Ġcache":2679,"offsets":2680,"ĠUnless":2681,"rng":2682,"Ġjnp":2683,"ĠBase":2684,"(\\\"":2685,"Parallel":2686,"celerate":2687,"55":2688,"condition":2689,"Ġsure":2690,"ics":2691,"maybe":2692,"inv":2693,"Ġconvert":2694,"ĠCLI":2695,"Ġpytest":2696,"ared":2697,"Ġsrc":2698,"Ġbreak":2699,"ĠĠĠĠĠĠĠĠĠĠĠĠĠĠĠĠĠĠĠĠĠĠĠĠĠĠĠĠĠĠĠ":2700,"imum":2701,"alog":2702,"road":2703,"ĠWhen":2704,"RL":2705,"ique":2706,"(\"--":2707,"msg":2708,"Ġlatent":2709,"Ġvector":2710,"Ġgetattr":2711,"ink":2712,"pdf":2713,"Ġpoint":2714,"Ġignore":2715,"sim":2716,"xyz":2717,"ord":2718,"left":2719,"Ġstream":2720,"IL":2721,"late":2722,"ĠDefaults":2723,"ĠGet":2724,"download":2725,"ĠĠĠĠĠĠĠĠĠĠĠĠ":2726,"Ġcur":2727,"ĠTO":2728,"ĠBrowser":2729,"ises":2730,"callback":2731,"Ġ..":2732,"Ġab":2733,"headers":2734,"Ġagent":2735,"Base":2736,"ropy":2737,"stream":2738,")}":2739,"Ġvideo":2740,"provider":2741,"lear":2742,"expected":2743,"Ġmetrics":2744,"masks":2745,"Ġbefore":2746,"Ġcontrol":2747,"ĠNote":2748,"mediate":2749,"color":2750,"depth":2751,"Ġskip":2752,"`<":2753,"Ġquestion":2754,"inst":2755,"Ġcallback":2756,"pon":2757,"Ġ\"\"<":2758,"verse":2759,"Ġits":2760,"Gener":2761,"eded":2762,"shift":2763,"vars":2764,"Ġdatasets":2765,"alf":2766,"expand":2767,"warmup":2768,"Ġvariable":2769,"pack":2770,"dic":2771,"Embedding":2772,"Ġbs":2773,"ical":2774,"ency":2775,"Ġword":2776,"rag":2777,"Ġencoding":2778,"ĠGPU":2779,"ĠComp":2780,"experts":2781,"Ġarguments":2782,"tp":2783,"clone":2784,"Ġresidual":2785,"Ġmock":2786,"staticmethod":2787,"dump":2788,"enable":2789,"Ġwhere":2790,"Ġwait":2791,"rier":2792,"Ġrotation":2793,"transformers":2794,"MP":2795,"Ġcommand":2796,"aussi":2797,"uch":2798,"actions":2799,"Ġ----------<":2800,"Ġpool":2801,"cre":2802,"scre":2803,"Ġcurr":2804,"Ġconsole":2805,"fer":2806,"option":2807,"Ġtimers":2808,"domain":2809,"style":2810,"roll":2811,"Ġoptim":2812,"warning":2813,"umber":2814,"rotation":2815,"ATA":2816,"Ġpredict":2817,"Ġ},<":2818,"Ġbutton":2819,"Transformer":2820,"queue":2821,"masked":2822,"har":2823,"metrics":2824,"Ġmultiple":2825,"GHT":2826,"umul":2827,"latent":2828,"case":2829,"has":2830,"mary":2831,"ĠCallable":2832,"NA":2833,"dev":2834,"Ġsystem":2835,"Ġ'<":2836,"location":2837,"Ġpassed":2838,"Ġdone":2839,"functions":2840,"plot":2841,"Ġtable":2842,"special":2843,"Ġencode":2844,"][\"":2845,"Ġax":2846,"Ġ*,<":2847,"(\"/":2848,"á´ĩ":2849,"catenate":2850,":]<":2851,"Ġperform":2852,"losses":2853,"Ġinspect":2854,"Str":2855,"Ġmulti":2856,"aving":2857,"Ġfp":2858,"functional":2859,"command":2860,"auto":2861,"Ġpa":2862,"ĠRun":2863,"lengths":2864,"words":2865,"CK":2866,"Loader":2867,"Ġforce":2868,"Ġduring":2869,"Ġshard":2870,"Ġclip":2871,"ries":2872,"ĠCreate":2873,"classifier":2874,"Ġgenerated":2875,"tree":2876,"activation":2877,"roadcast":2878,"paths":2879,"rotary":2880,"DIR":2881,"choice":2882,"Processor":2883,"01":2884,"hot":2885,"system":2886,"ĠUtils":2887,"Bu":2888,"true":2889,"Ġprev":2890,"Ġyour":2891,"Locator":2892,"ï¼":2893,"Ġrow":2894,"eff":2895,"Ġ\".":2896,"Ġdownload":2897,"Ġarray":2898,"Request":2899,"VI":2900,"]):<":2901,"ib":2902,"record":2903,"Ġfind":2904,"dims":2905,"34":2906,"src":2907,"Fa":2908,"fe":2909,"},<":2910,"Ġemb":2911,"direct":2912,"Form":2913,"Frame":2914,"Ġuncond":2915,"'):<":2916,"Ġcre":2917,"unch":2918,"convert":2919,"Ġext":2920,"area":2921,"pri":2922,"pied":2923,"classmethod":2924,"acy":2925,"sin":2926,"ank":2927,"leg":2928,"Ġenvironment":2929,"Ġchannels":2930,"Lo":2931,"stra":2932,"Ġstd":2933,"Ġchar":2934,">\"\"\"<":2935,"gpu":2936,"scaling":2937,"Ġheaders":2938,"Response":2939,"CON":2940,"Ġrep":2941,"ĠTODO":2942,"dataloader":2943,"Ġ['":2944,"formation":2945,"Ġrecord":2946,"timestep":2947,"Ġ$":2948,"Ġgeneration":2949,"numel":2950,"options":2951,"fw":2952,"math":2953,"wh":2954,"Ġtk":2955,"Ġman":2956,"Ġctx":2957,"Ġtp":2958,"fferent":2959,"find":2960,"fill":2961,"etch":2962,"48":2963,"ĠEn":2964,"Ġtmp":2965,"Ġcalled":2966,"unter":2967,"present":2968,"observ":2969,"freq":2970,"respon":2971,"cessed":2972,"Ġsearch":2973,"To":2974,"ams":2975,"uted":2976,"parent":2977,"startswith":2978,"Ġalready":2979,"Ġter":2980,"Ġgt":2981,"Ġ_,":2982,"struct":2983,"Sh":2984,"epochs":2985,"called":2986,"ĠĠĠĠĠĠĠĠĠ":2987,"Ġfree":2988,"served":2989,"Ġ{'":2990,"Ġbased":2991,"Ġpipe":2992,"ress":2993,"Ġstop":2994,"Ġclean":2995,"host":2996,"etune":2997,"50":2998,"itial":2999,"blem":3000,"ages":3001,"irs":3002,"board":3003,"itude":3004,"Ġargument":3005,"section":3006,"Ġoption":3007,"Ġreturns":3008,"Ġshift":3009,"\"\\":3010,"ground":3011,"Ġá´":3012,"rection":3013,"ixed":3014,"lative":3015,"ĠPIL":3016,"grams":3017,"lens":3018,"Ġactivation":3019,"Ġcolumn":3020,"Ġranks":3021,"'],":3022,"element":3023,"Ġ).":3024,"ative":3025,"Ġcustom":3026,"Ġresnet":3027,"ĠGener":3028,"Ġ&":3029,"Ġhere":3030,"tag":3031,"ignore":3032,"Ġrotary":3033,"Ġfilter":3034,"LayerNorm":3035,"andb":3036,"latform":3037,"trace":3038,"Time":3039,"attentions":3040,"iteral":3041,"udent":3042,"Message":3043,"ĠRetro":3044,"Ġcross":3045,"Parameter":3046,"################################":3047,"Ġsession":3048,"pipelines":3049,"KE":3050,"done":3051,"remove":3052,"itive":3053,"uler":3054,"single":3055,"dense":3056,"Ġtemperature":3057,"Ġfilename":3058,"Ġscores":3059,"DP":3060,"reset":3061,"Ġids":3062,"ote":3063,"ctionary":3064,"Implement":3065,"imple":3066,"ðĿ":3067,"Ġ16":3068,"Ġ'.":3069,"Ġdepth":3070,"Ġcons":3071,"Ġdescription":3072,"Ġsupported":3073,"Ġbin":3074,"tings":3075,"requires":3076,"Arg":3077,"bit":3078,"Ġmerge":3079,"ĠDataset":3080,"adapter":3081,"cut":3082,"Ġver":3083,"Un":3084,"PARA":3085,"ighbor":3086,"ĠTest":3087,"riter":3088,"Ġdisable":3089,"Ġsentence":3090,"(**":3091,"curr":3092,"Ġsaved":3093,"rows":3094,"sign":3095,"Ġdisp":3096,"22":3097,"Po":3098,"]))<":3099,"Ġfull":3100,"Ġfield":3101,"Ġllm":3102,"Ġfeatures":3103,"Callable":3104,"her":3105,"Ġmasked":3106,"Ġcorrespon":3107,"ished":3108,"GPT":3109,"Le":3110,"sizes":3111,"Ġjoint":3112,"bot":3113,"mas":3114,"sig":3115,"Ġprevious":3116,"backends":3117,"NO":3118,"gen":3119,"})":3120,"Ġ(\"":3121,":\\":3122,"bucket":3123,"Ġbuffer":3124,"agster":3125,"An":3126,"Cli":3127,"DATA":3128,"rod":3129,"Key":3130,"lora":3131,"Ġedge":3132,"Ġchat":3133,"caption":3134,"mpletion":3135,"LLE":3136,"Ġ9":3137,"istant":3138,"We":3139,"actor":3140,"ĠX":3141,"Ġprompts":3142,"Ġextract":3143,"metric":3144,"Ġmicro":3145,"Ġprediction":3146,"positions":3147,"inner":3148,"Ġremove":3149,"tools":3150,"pl":3151,"raises":3152,"Ġ'{":3153,"odal":3154,"ributes":3155,"ino":3156,"Ġgradient":3157,"upport":3158,"Ġview":3159,"Ġboth":3160,"prompts":3161,"KEN":3162,"environ":3163,"Ġ</":3164,"Ġcount":3165,"15":3166,"ored":3167,"ĠDe":3168,"curac":3169,"Ġexists":3170,"Name":3171,"(\".":3172,"Ġho":3173,"Ġ:]<":3174,"folder":3175,"stom":3176,"custom":3177,"CA":3178,"RI":3179,"ments":3180,"times":3181,"Ġchoi":3182,"cla":3183,"projection":3184,"Ġtrunc":3185,"edError":3186,"ĠLayer":3187,"KEY":3188,"PARALLE":3189,"Ġpast":3190,"ckle":3191,"Ġsk":3192,"Ġsign":3193,"Ġthere":3194,"Ġpretrained":3195,"mult":3196,"Ġstates":3197,"ĠTool":3198,"checkpoints":3199,"Ġsome":3200,"(_":3201,"kpt":3202,"dec":3203,"Ġlinear":3204,"ML":3205,"md":3206,"hel":3207,"Ġsafety":3208,"Ġopt":3209,"Ġraw":3210,"[<":3211,"`]":3212,"ene":3213,"threshold":3214,"ĠMo":3215,"ĠNotImplement":3216,"TOKEN":3217,"Head":3218,"Ġbucket":3219,"ĠNotImplementedError":3220,"camer":3221,"sg":3222,"ten":3223,"Ġdifferent":3224,"Ġrights":3225,"Ġdecode":3226,"resnet":3227,"TER":3228,"Ġblocks":3229,"Ġclient":3230,"ledge":3231,"can":3232,"Ġpack":3233,"Ġplaywright":3234,"ources":3235,"CO":3236,"ED":3237,"Id":3238,"Set":3239,"exit":3240,"Ġenc":3241,"================================":3242,"çļ":3243,"store":3244,"assert":3245,"project":3246,"StableDiffusion":3247,"çļĦ":3248,"beta":3249,"Ġ],<":3250,"orig":3251,"Ġmotion":3252,"Ġaverage":3253,"Ġ20":3254,"Ġ32":3255,"').":3256,"`):<":3257,"segment":3258,"Ġinfo":3259,"entropy":3260,"aussian":3261,"uncond":3262,"initialize":3263,"Ġconfiguration":3264,"Ġacross":3265,"multi":3266,"Ġvi":3267,"Ġnet":3268,"Ġreward":3269,"Ġparse":3270,"ĠCopied":3271,"interval":3272,"Ġangle":3273,"ae":3274,"connection":3275,"PARALLEL":3276,"]).":3277,"tmp":3278,"phas":3279,"Ġselected":3280,"unic":3281,"rieval":3282,"Col":3283,"wd":3284,"Ġsim":3285,"Ġloaded":3286,"Ġgroups":3287,"Page":3288,"`:":3289,"istr":3290,"session":3291,"arx":3292,"layernorm":3293,"Ġge":3294,"Ġoper":3295,"CE":3296,"So":3297,"Ġreserved":3298,"Ġlevel":3299,"difi":3300,"Ġinformation":3301,"resolution":3302,"Ġchunks":3303,"Ġargparse":3304,"normalize":3305,"ts":3306,"ines":3307,"pend":3308,"atial":3309,"Ġdictionary":3310,"Ġ202":3311,"levant":3312,"ĠAdd":3313,"yper":3314,"Ġfl":3315,"Ġjust":3316,"`.":3317,"grads":3318,"ĠUse":3319,"jector":3320,"ient":3321,"Ġreset":3322,"Ġreference":3323,"\"]:<":3324,"ĠPlease":3325,"Ġinstead":3326,"SH":3327,"compile":3328,"concept":3329,"(\"\\":3330,"extractor":3331,"Ġmap":3332,"arxiv":3333,"BAL":3334,"delete":3335,"Ġsorted":3336,"expect":3337,"gradient":3338,"Ġneeded":3339,"]]<":3340,"kernel":3341,"mid":3342,"Ġtake":3343,"Ġrepresent":3344,"loads":3345,"DA":3346,"history":3347,"Ġplt":3348,"Ġclo":3349,"make":3350,"Ġparameter":3351,"bose":3352,"40":3353,"avig":3354,"ĠMegatron":3355,"pac":3356,"bert":3357,"Ġinstall":3358,"curacy":3359,"slice":3360,"pytest":3361,"ĠUp":3362,"ars":3363,"Ġsampling":3364,"shard":3365,"termin":3366,"Ġchannel":3367,"68":3368,"bet":3369,"qkv":3370,"sys":3371,"ym":3372,"pix":3373,"questions":3374,"stribution":3375,"astype":3376,"LOBAL":3377,"ork":3378,"Ġutils":3379,"Ġcos":3380,"Ġold":3381,"ummy":3382,"extend":3383,"\"[":3384,"mprod":3385,"Ġaut":3386,"mplete":3387,"pace":3388,"cumprod":3389,"ĠHugging":3390,"Ġelements":3391,"variance":3392,"nowledge":3393,"png":3394,"Ġckpt":3395,"Ġasset":3396,"rtual":3397,"Ġfailed":3398,"ick":3399,"Ġbeta":3400,"stats":3401,"Ġassign":3402,"Mask":3403,"avi":3404,"Ġtheir":3405,"constant":3406,"barrier":3407,"sampling":3408,"lags":3409,"Ġdon":3410,"Ġden":3411,"Ġdate":3412,"Ġmethods":3413,"ĠConvert":3414,"Exception":3415,"gic":3416,"skip":3417,"timestamp":3418,"legacy":3419,"enabled":3420,"chedulers":3421,"sentence":3422,"strategy":3423,"prepare":3424,"perim":3425,"generation":3426,"aut":3427,"Ġ\",":3428,"concatenate":3429,"File":3430,"Not":3431,"ci":3432,"playwright":3433,"Ġ\"{":3434,"Ġsecond":3435,"audio":3436,"Value":3437,"padded":3438,"Ġlocator":3439,"ĠTe":3440,"shapes":3441,"licate":3442,"ibility":3443,"Check":3444,"rary":3445,"distance":3446,"Ġexact":3447,"25":3448,":%":3449,"MS":3450,"predict":3451,"Ġstage":3452,"bins":3453,"âĶĢ":3454,"NAME":3455,"}:":3456,"checkpointing":3457,"moe":3458,"iterator":3459,"Ca":3460,"just":3461,"Ġmsg":3462,"Ġap":3463,"Ġwant":3464,"ĠCh":3465,"Ġpositions":3466,"Ġavailable":3467,"etuning":3468,"lip":3469,"Ġop":3470,"Ġsegment":3471,"Ġrunning":3472,"|>":3473,"ilar":3474,"Ġmagic":3475,"truth":3476,"Run":3477,"}\",":3478,"lism":3479,"Ġedit":3480,"Ġcpu":3481,"issing":3482,"examples":3483,")),":3484,"80":3485,"enter":3486,"tokentypes":3487,"seconds":3488,"Ġenable":3489,"Ġpop":3490,"Ġcast":3491,"Ġindexed":3492,"]],":3493,"Ġtrue":3494,"past":3495,"penAI":3496,"nsfw":3497,"Ġbackward":3498,"Get":3499,"Ġar":3500,"(\"<":3501,"Ġvalidation":3502,"bf":3503,"hash":3504,"skeleton":3505,"prec":3506,"allelism":3507,"Control":3508,"ĠShardedTensor":3509,"84":3510,"_,":3511,"smpl":3512,"arge":3513,"Ġschedule":3514,"Ġwra":3515,"Ġgrid":3516,"DEFAULT":3517,"TP":3518,"ĠTask":3519,"Ġprod":3520,"logging":3521,"Test":3522,"nown":3523,"td":3524,"Ġtf":3525,"Ġ\"_":3526,"Ġaccept":3527,"uggingface":3528,"blob":3529,"ater":3530,"ery":3531,"Ġprogress":3532,"Ġnames":3533,"Ġtypes":3534,"ling":3535,"optional":3536,"Ġshuffle":3537,"retriever":3538,"lush":3539,"pattern":3540,"ride":3541,"patches":3542,"ked":3543,"Ġepisode":3544,"ĠĠĠĠĠĠĠĠĠĠ":3545,"Ġcomb":3546,"ws":3547,"Ġtitle":3548,"Ġinv":3549,"Ġreplace":3550,"cope":3551,"Spec":3552,"render":3553,"ĠID":3554,"jectory":3555,"envs":3556,"ModuleList":3557,"udge":3558,"pc":3559,"gex":3560,"conne":3561,"queries":3562,"ĠSequence":3563,"Web":3564,"`):":3565,"ect":3566,"Ġclos":3567,"Ġrender":3568,"Ġscript":3569,"clean":3570,"iform":3571,"none":3572,"alt":3573,"Ġhandler":3574,"As":3575,"Element":3576,"bench":3577,"flat":3578,"Ġhn":3579,"human":3580,"ĠIt":3581,"dirname":3582,"ĠĠĠĠĠĠĠĠĠĠĠĠĠĠĠĠĠĠĠĠĠĠĠĠĠĠĠĠĠĠĠĠĠĠĠĠĠĠĠĠĠĠĠĠĠĠĠĠ":3583,"Ġ\\\"":3584,"child":3585,"manual":3586,"256":3587,"lass":3588,"uter":3589,"ĠDE":3590,"Ġbeen":3591,"Ġcollection":3592,"17":3593,"Ġpp":3594,"ensions":3595,"paint":3596,"document":3597,"\\\")<":3598,"half":3599,"Ġquant":3600,"ensure":3601,"------":3602,"codes":3603,"periment":3604,"Dropout":3605,"ually":3606,"answers":3607,"ffers":3608,"arrange":3609,"cloud":3610,"TY":3611,"success":3612,"vq":3613,"ĠText":3614,"tokenize":3615,"ĠNumber":3616,"Ġdomain":3617,"locity":3618,"sn":3619,"={\"":3620,"Trained":3621,"}'":3622,"change":3623,"Ġ1024":3624,"pytorch":3625,"Sequential":3626,"Any":3627,"entry":3628,"this":3629,"Ġorig":3630,"Ġ{}\".":3631,"Ġheads":3632,"foo":3633,"rewards":3634,"chain":3635,"Ġfew":3636,"Ġnow":3637,"ĠType":3638,"ification":3639,"Ġtasks":3640,"Ġtree":3641,"short":3642,"Ġgo":3643,"Ġradi":3644,"wrap":3645,"Ch":3646,"Ġvision":3647,"mel":3648,"Ġsend":3649,"Ġstyle":3650,">):<":3651,"disp":3652,"ely":3653,"strong":3654,"Ġdirect":3655,"ĠQu":3656,"(__":3657,"ID":3658,"PRO":3659,"]],<":3660,"directory":3661,"No":3662,"Ġtre":3663,"span":3664,"Ġwithout":3665,"Ġqkv":3666,"ik":3667,"merge":3668,"ted":3669,"feats":3670,"Ġgraph":3671,"library":3672,"clamp":3673,"instruction":3674,"ogle":3675,"MScheduler":3676,"fusion":3677,"}')<":3678,"Ġinclude":3679,"())":3680,"ynam":3681,"pers":3682,"Ġdb":3683,"ilon":3684,"oute":3685,"ĠAn":3686,"ĠLo":3687,"Ġyield":3688,"Ġactions":3689,"ĠError":3690,"ĉĉĉĉ":3691,"manager":3692,"Event":3693,"You":3694,"cing":3695,"pg":3696,"Ġ''":3697,"residual":3698,"force":3699,"Ġmatching":3700,"Ġevaluate":3701,"Ġpartial":3702,":]":3703,"fy":3704,"}{":3705,"Ġ64":3706,"recv":3707,"Ġloop":3708,"LIGHT":3709,"bers":3710,"Ġthey":3711,"dataclass":3712,"\")).":3713,"TA":3714,"With":3715,"plit":3716,"Ġ\"--":3717,"Ġrelative":3718,"Ġmetric":3719,"Ġretro":3720,"Attn":3721,"Ġstatus":3722,"few":3723,"deg":3724,"ĠLiteral":3725,"Ġresolve":3726,"Ġkeepdim":3727,"observation":3728,"ices":3729,"side":3730,"Ġevaluation":3731,"GS":3732,"eos":3733,"gin":3734,"gelu":3735,"Ġfreq":3736,"program":3737,"Ġdir":3738,"Load":3739,"asic":3740,"Ġsaving":3741,"Ġdisc":3742,"ness":3743,"dicate":3744,"\">":3745,"Face":3746,"Ġsuccess":3747,"Ġparallelism":3748,"Ġseconds":3749,"Ġinitialize":3750,"Ġoptions":3751,"Ġempty":3752,"aria":3753,"ĠConv":3754,"\"),":3755,"36":3756,"CLI":3757,"Ġreason":3758,"Ġbo":3759,"velocity":3760,"SET":3761,"Ġ{}'.":3762,"ields":3763,"objects":3764,"stract":3765,"header":3766,"0000":3767,"cesses":3768,"Ġloading":3769,"megatron":3770,"Ġdistance":3771,"Ġhigh":3772,"ested":3773,"apshot":3774,"Ġabout":3775,"Pattern":3776,"Ġsm":3777,"soft":3778,"tracker":3779,"Ġ512":3780,"FF":3781,"WOR":3782,"upper":3783,"center":3784,"ITE":3785,"ĠZ":3786,"del":3787,"master":3788,"stride":3789,"Ġcontaining":3790,"'))<":3791,"schedule":3792,"udio":3793,"Ġprepare":3794,"StableDiffusionPipeline":3795,"\"><":3796,"Ġ),":3797,"lops":3798,"iming":3799,"temperature":3800,"ï¼Į":3801,"wer":3802,"Ġwrite":3803,"ĠTime":3804,"ĠLog":3805,"ĠCompute":3806,"umulation":3807,"rad":3808,"ĠFlax":3809,"Ġ:]":3810,"strict":3811,"fail":3812,"alize":3813,"unds":3814,"arguments":3815,"ways":3816,"']['":3817,"Ġscaled":3818,"ighbors":3819,"itialize":3820,"Chat":3821,"gor":3822,"Ġinte":3823,"account":3824,"visual":3825,"jsonl":3826,"execution":3827,"jit":3828,"dest":3829,"Ġag":3830,"Ġ((":3831,"ĠTrain":3832,"ĠLoad":3833,"ĠNO":3834,"Ġpathlib":3835,"gorith":3836,"#<":3837,"96":3838,"UM":3839,"sk":3840,"Ġgather":3841,"Ġrole":3842,"Ġcolor":3843,"Ġpredicted":3844,"pil":3845,"aly":3846,"ĠApp":3847,"resource":3848,"Ġeff":3849,"Ġ128":3850,"Ġflush":3851,"Ġ\"__":3852,"Ġrecv":3853,"before":3854,"Ġcorresponding":3855,"/{":3856,"dot":3857,"sampler":3858,"zip":3859,"ĠĠĠĠĠĠĠĠĠĠĠĠĠ":3860,"Ġinner":3861,"ically":3862,"Ġretriever":3863,"umed":3864,"selected":3865,"celerator":3866,"Ġcalculate":3867,"aug":3868,"Ġu":3869,"dients":3870,"ranscript":3871,"maked":3872,"infos":3873,"Ġexpression":3874,"Log":3875,"oriz":3876,"Ġmid":3877,"idget":3878,".</":3879,"Ġgr":3880,"logprobs":3881,"Ġalso":3882,"Ġsetup":3883,"Ġcompat":3884,"joints":3885,"mini":3886,"Ġexecution":3887,"Ġcreated":3888,"::":3889,"arding":3890,"ell":3891,"ĠPer":3892,"Ġshort":3893,"ugh":3894,"microbatches":3895,"controlnet":3896,"future":3897,"Ġthem":3898,"Ġdatabase":3899,"BA":3900,"GR":3901,"[[":3902,"unct":3903,"ĠWhether":3904,"sql":3905,"âķĲâķĲâķĲâķĲâķĲâķĲâķĲâķĲâķĲâķĲâķĲâķĲâķĲâķĲâķĲâķĲ":3906,"05":3907,"Tuple":3908,"ont":3909,"loop":3910,"Ġverbose":3911,"SS":3912,"]['":3913,"Éª":3914,"Ġpattern":3915,"cook":3916,"Ġbytes":3917,"Ġcomput":3918,"Parser":3919,"ĠĠĠĠĠĠĠĠĠĠĠĠĠĠĠĠĠĠĠĠĠĠĠĠĠĠĠĠĠ":3920,"ĠHuggingFace":3921,"BO":3922,"CU":3923,"oled":3924,"reason":3925,"Ġflag":3926,"illi":3927,"á´ı":3928,"ĠStep":3929,"Man":3930,"Ġind":3931,"Ġwhether":3932,"ĠSample":3933,"Ġ``":3934,"Ġlm":3935,"trf":3936,"Invalid":3937,"timers":3938,"factory":3939,"Ġotherwise":3940,"Generator":3941,"tri":3942,"show":3943,"ĠAd":3944,"rices":3945,"cause":3946,"acher":3947,"nodes":3948,"Ġlike":3949,"13":3950,"512":3951,"sd":3952,"sl":3953,"med":3954,"ngine":3955,"Ġmy":3956,"tolist":3957,"INE":3958,"END":3959,"openai":3960,"Ġquaternions":3961,"Ġdatetime":3962,"ia":3963,"Ġpers":3964,"Ġdagster":3965,"ĠRot":3966,"Ġsoftmax":3967,"Exec":3968,"Ġbetas":3969,"18":3970,"Ġcore":3971,"\"\"\"":3972,"progress":3973,"Ġprovide":3974,"Ġprogram":3975,"Ġtests":3976,"alphas":3977,"Ġwandb":3978,"Ġ({":3979,"Ġpolicy":3980,"Ġpadded":3981,"Ġhistory":3982,"ĠAl":3983,"Ġusage":3984,"Ġreduce":3985,"Ġdetails":3986,"Ġencoded":3987,"bl":3988,"ear":3989,"frac":3990,"Ġensure":3991,"lava":3992,"lend":3993,"Ġrate":3994,"Ġstand":3995,"Ġacc":3996,"vertices":3997,"Ġexamples":3998,"dumps":3999,"Sc":4000,"This":4001,"every":4002,"Ġdialog":4003,"Ġproject":4004,"Ġlang":4005,"Ġpose":4006,"Ġadded":4007,"FIG":4008,"osen":4009,"Ġ2023":4010,"++":4011,"Ġlicense":4012,"Ġexception":4013,"clu":4014,"ĠLI":4015,"Ġneg":4016,"ivations":4017,"randn":4018,"Ġnormalize":4019,"makedirs":4020,"Ad":4021,"uction":4022,"Ġcrop":4023,"mock":4024,"Ġaccelerate":4025,"GLOBAL":4026,"Or":4027,"zy":4028,"mem":4029,"disc":4030,"shared":4031,"ĠDown":4032,"ĠImport":4033,"('.":4034,"Ġaccount":4035,"Params":4036,"ĠĠĠĠĠĠĠĠĠĠĠĠĠĠĠĠĠĠĠĠĠĠĠĠĠĠ":4037,"finished":4038,"hello":4039,">}<":4040,"Function":4041,"cy":4042,"alid":4043,"rough":4044,"gest":4045,"Ġpickle":4046,"Ob":4047,"sdf":4048,"traj":4049,"rgb":4050,"predictions":4051,")]":4052,"Up":4053,"mi":4054,"åı":4055,"virtual":4056,"ĠConfig":4057,"'{":4058,"ced":4059,"Ġprobs":4060,"ĠIter":4061,"worker":4062,"Inter":4063,"Ġcontrolnet":4064,"delta":4065,"Node":4066,"cc":4067,"Ġwar":4068,"counter":4069,"Ġwithin":4070,"Ġavg":4071,"({\"":4072,"bn":4073,"É´":4074,"Ġthread":4075,"scatter":4076,"Sequence":4077,"choices":4078,"Ġlower":4079,">_":4080,"tf":4081,"Ġæ":4082,"anner":4083,"Ġvae":4084,"ĠNo":4085,"Ġretrie":4086,"crop":4087,"lica":4088,"thread":4089,"Ġsplits":4090,"usalLM":4091,"ice":4092,"ru":4093,"ended":4094,"alys":4095,"Ġpd":4096,"tact":4097,"alysis":4098,"70":4099,"vit":4100,"}_":4101,"Ġhf":4102,"ĠMake":4103,"workspace":4104,"subset":4105,"link":4106,"Ġtrack":4107,"CHE":4108,"Ġcontains":4109,"Ġimplementation":4110,"Mo":4111,"eed":4112,"Ġmissing":4113,"ving":4114,"Ġpix":4115,"Ġbroadcast":4116,"throp":4117,"texts":4118,"ised":4119,"Dis":4120,"ren":4121,"uint":4122,"resize":4123,"uffix":4124,"Timeout":4125,"thropic":4126,"Agent":4127,"sses":4128,"Ġfill":4129,"icient":4130,"press":4131,"access":4132,"ĠArg":4133,"\\<":4134,"hub":4135,"insert":4136,"Ġmilli":4137,"Ġds":4138,"Ġparent":4139,"ĠURL":4140,"globals":4141,"Ġavoid":4142,"(\"{":4143,"aml":4144,"Ġmeans":4145,"ĠAttention":4146,"Ġ[`~":4147,"Factory":4148,"Server":4149,"US":4150,"ele":4151,"pts":4152,"parameter":4153,"ĠAs":4154,"Ġdeprec":4155,"ĠOutput":4156,"Ġdefaults":4157,"ĠDataLoader":4158,"--------------------------------":4159,"Comp":4160,"âĶĢâĶĢ":4161,"Ġ'''<":4162,"Ġmilliseconds":4163,"1024":4164,">\")<":4165,"cam":4166,"Ġtri":4167,"iters":4168,"Ġreal":4169,"Ġ*=":4170,"ranks":4171,"moved":4172,"ritic":4173,"Ġfactor":4174,"Ġwarning":4175,"Ġhref":4176,"Ġ2024":4177,"epspeed":4178,"Ġactual":4179,"ĠTransformerConfig":4180,"Ġregister":4181,"Ġpaper":4182,"OP":4183,"Source":4184,"equal":4185,"Ġepisodes":4186,"atas":4187,"Ġtemb":4188,"Ġattribute":4189,"Encoder":4190,"19":4191,"Ġaff":4192,"ilder":4193,"Ġ1000":4194,"usage":4195,"checked":4196,"pacity":4197,"AD":4198,"]+":4199,"åĬ":4200,"real":4201,"ĠML":4202,"Cond":4203,"Megatron":4204,"Return":4205,"Ġcommon":4206,"Ġvariance":4207,"ĠBrowserContext":4208,"Client":4209,"anh":4210,"console":4211,"ĠĠĠĠĠĠĠĠĠĠĠĠĠĠĠĠĠĠĠĠĠĠĠĠĠĠĠĠĠĠĠĠĠĠĠ":4212,"ĠĠĠĠĠĠĠĠĠĠĠĠĠĠĠĠĠĠĠĠĠ":4213,"()))<":4214,"Ġbecause":4215,"Ġdiv":4216,"Ġopenai":4217,"Ġintermediate":4218,"binary":4219,"String":4220,"avigation":4221,"pixel":4222,"%%":4223,"FO":4224,"encoding":4225,"educe":4226,"ĠLLM":4227,"\"])":4228,"Ġenabled":4229,"Loss":4230,"Ġquat":4231,"leep":4232,"Ġexit":4233,"timeError":4234,"ynch":4235,"****":4236,"variable":4237,"*,":4238,"ÊĢ":4239,"relu":4240,"Ġrearrange":4241,"emo":4242,"Ġstruct":4243,"ĠFile":4244,"Ġlines":4245,"curs":4246,"'''<":4247,"huggingface":4248,"ned":4249,"Ġactor":4250,"urse":4251,"Ġ(...,":4252,"Ġreturned":4253,"ĠSave":4254,"Ġdecay":4255,"ĠDP":4256,"ĠPython":4257,"ynchron":4258,"BU":4259,"exception":4260,"ĠCol":4261,"endswith":4262,"antic":4263,"ools":4264,"ĠInput":4265,"ALL":4266,"flag":4267,"multip":4268,"âĢ":4269,"Ġ\"\")<":4270,"__\":<":4271,"allback":4272,"backbone":4273,"microbatch":4274,")),<":4275,"rim":4276,"rnn":4277,"}\"":4278,"izers":4279,"ĠEns":4280,"Ġneighbor":4281,"Ġlaunch":4282,"Ġtemplate":4283,"required":4284,"Ġsmall":4285,"Manager":4286,"EL":4287,"ven":4288,"Ġeta":4289,"Ġpri":4290,"problem":4291,"heading":4292,"Ġanswers":4293,"Ġtimes":4294,"calc":4295,"={<":4296,"Ġtools":4297,"sigmas":4298,")}\")<":4299,"URL":4300,"Ġ('":4301,"Ġevents":4302,"Ġsee":4303,"Ġkv":4304,"Resource":4305,"ordin":4306,"CausalLM":4307,"Hel":4308,"dof":4309,"plan":4310,"rec":4311,"dete":4312,"Ġlosses":4313,"Ġlink":4314,"Ġprecision":4315,"ĠMulti":4316,"ĠBu":4317,"trunc":4318,"neg":4319,"TED":4320,"afe":4321,"!]":4322,"PP":4323,"nly":4324,"Ġet":4325,"Ġfunc":4326,"Ġreport":4327,"tests":4328,"Ġleft":4329,"parts":4330,"Ġtraj":4331,"ForCausalLM":4332,"ynamic":4333,"ole":4334,"reference":4335,"ĠTo":4336,"urls":4337,"Ġtargets":4338,"small":4339,"ĠCLIP":4340,"CONFIG":4341,"Qu":4342,"sec":4343,"utton":4344,"Ġsig":4345,"Ġconnection":4346,"Ġevery":4347,"Ġpopup":4348,"Sub":4349,"Th":4350,"]):":4351,"Ġslice":4352,"Ġ200":4353,"pip":4354,"ĠKey":4355,"unication":4356,"fra":4357,"Ġcenter":4358,"unique":4359,"Ġground":4360,"velo":4361,"term":4362,"']:<":4363,"extract":4364,"Ġchoices":4365,"Torch":4366,"]),":4367,"ached":4368,"light":4369,"support":4370,"ength":4371,"Ġbone":4372,"ĠInc":4373,"Ġinitialized":4374,"mpleted":4375,"Content":4376,"gri":4377,"redirect":4378,"router":4379,"Ġdataloader":4380,"codebook":4381,"'],<":4382,"accelerate":4383,"Index":4384,"ĠExample":4385,"Ġclick":4386,"ilarity":4387,"ĠMLP":4388,"24":4389,"ZE":4390,"fs":4391,"Ġlibrary":4392,"Ġ'''":4393,"olute":4394,"spatial":4395,"istic":4396,"lated":4397,"ĠĠĠĠĠĠĠĠĠĠĠĠĠĠĠĠĠĠĠĠĠĠĠĠĠĠĠĠĠĠĠĠĠĠ":4398,"RED":4399,"**/":4400,"specs":4401,"Ġteam":4402,"Ġvia":4403,"ĠImportError":4404,"78":4405,"fname":4406,"ops":4407,"char":4408,"Ġbest":4409,"lish":4410,"ranch":4411,"ĠAgent":4412,"Ġ255":4413,"Ġfunctions":4414,"screte":4415,"\"`":4416,":\",":4417,"fetch":4418,"Ġsuch":4419,"Ġunique":4420,"Ġcombined":4421,"ĠDEFAULT":4422,"------<":4423,"Sampler":4424,"_[":4425,"complete":4426,"ersation":4427,"ĠCPU":4428,"Ġdesc":4429,"inalg":4430,"ĠRuntimeError":4431,"tab":4432,"zen":4433,"romise":4434,"upload":4435,"shuffle":4436,"ĠCor":4437,"Ġrng":4438,"cording":4439,"umentParser":4440,"ĠĠĠĠĠĠĠĠĠĠĠĠĠĠĠĠĠĠĠĠĠĠĠĠĠĠĠĠ":4441,"Ġtreetune":4442,"bos":4443,"rb":4444,"vels":4445,"Ġ=================================":4446,"Ġsn":4447,"illa":4448,"Ġrand":4449,"Ġgradients":4450,"Ġclassifier":4451,"flash":4452,"Ġfinetuning":4453,"Ġdisplay":4454,"Ġnetwork":4455,"Ġcollections":4456,"Ret":4457,"\\\",":4458,"loy":4459,"Ġsuc":4460,"unit":4461,"Ġmasks":4462,"Ġlengths":4463,"accumulation":4464,"Object":4465,"03":4466,"]:":4467,"lang":4468,"recompute":4469,"Ġbox":4470,"Ġmatrices":4471,"Ġjoints":4472,"Ġangles":4473,"jpg":4474,"cons":4475,"Ġ256":4476,"Ġsepar":4477,"Ġclasses":4478,"Ġpaths":4479,"Ġobserv":4480,"fully":4481,"alty":4482,"gr":4483,"ãĢ":4484,"allow":4485,"ĠĠĠĠĠĠĠĠĠĠĠĠĠĠĠĠĠĠĠĠĠĠĠĠĠĠĠĠĠĠĠĠĠĠĠĠĠĠĠ":4486,"Ġgen":4487,"causal":4488,"Ġalways":4489,"Ġsizes":4490,"downsample":4491,"lapsed":4492,"istry":4493,"gorithm":4494,"mes":4495,"uniform":4496,"cessary":4497,"DIA":4498,"csv":4499,"pooler":4500,"Ġclosd":4501,",)":4502,":,":4503,"IT":4504,"jang":4505,"jnp":4506,"kit":4507,"Ġqueue":4508,"ĠĠĠĠĠĠĠĠĠĠĠĠĠĠĠĠĠĠĠĠĠĠĠĠĠ":4509,"ĠAttn":4510,"04":4511,"mon":4512,"til":4513,"Ġser":4514,"rogram":4515,"rozen":4516,"Ġcv":4517,"argv":4518,"ĠPo":4519,"Ġmatches":4520,"MaskType":4521,"jango":4522,".\",<":4523,"WH":4524,"mod":4525,"didate":4526,"named":4527,"checkbox":4528,"('/":4529,"á´Ľ":4530,"Ġlearning":4531,"icrosoft":4532,"initialized":4533,"Arguments":4534,"bits":4535,"}\",<":4536,"Ġfuture":4537,"Ġour":4538,"Ġ15":4539,"idxs":4540,"install":4541,"where":4542,"Code":4543,"fused":4544,"por":4545,"getenv":4546,"uplicate":4547,"Ġ[{":4548,"Ġalong":4549,"uced":4550,"RANK":4551,"details":4552,"Formatter":4553,"Please":4554,"ä»":4555,"Ġequal":4556,"ĠUNet":4557,"mooth":4558,"Ġchecks":4559,"Ġprobab":4560,"betas":4561,"Ġappro":4562,"Field":4563,"aw":4564,"ili":4565,"ric":4566,"Ġ]":4567,"Ġip":4568,"Ġph":4569,"lim":4570,"setup":4571,"configure":4572,"network":4573,"128":4574,"lon":4575,"}\".":4576,"ites":4577,"()[":4578,"ĠLlama":4579,"Storage":4580,"interpo":4581,"tasks":4582,"Ġsince":4583,"ĠDiffusion":4584,"degree":4585,"Found":4586,"utor":4587,"Ġbar":4588,"cost":4589,"Ġconstant":4590,"istent":4591,"randint":4592,"GROU":4593,"SON":4594,"æľ":4595,"allen":4596,"allreduce":4597,"precision":4598,"ublic":4599,"MAGE":4600,"google":4601,"webpage":4602,",)<":4603,"linalg":4604,"Ġngrams":4605,"Ġrelevant":4606,"Ġmd":4607,"coll":4608,"Ġchild":4609,"ĠIndex":4610,"other":4611,"Build":4612,"WHITE":4613,"eft":4614,"Ġinstruction":4615,"ssible":4616,"ĠIN":4617,"ĠModule":4618,"omat":4619,"Ġjax":4620,"transforms":4621,"Ġtakes":4622,"200":4623,"~~":4624,"åĪ":4625,"Ġqueries":4626,"Ġthrough":4627,"Ġcover":4628,"ENT":4629,"ĠHT":4630,"ORT":4631,"summary":4632,"PreTrained":4633,"BLE":4634,"Group":4635,"Long":4636,"UN":4637,"]]:<":4638,"fid":4639,"writer":4640,"Ġattr":4641,"lier":4642,"ĠOpenAI":4643,"obot":4644,"Ġbatches":4645,"Ġmaximum":4646,"([<":4647,"Input":4648,"Ġobj":4649,"Ġtransforms":4650,"Ġattributes":4651,"camera":4652,"ector":4653,"enum":4654,"Ġprocessed":4655,"sing":4656,"sleep":4657,"erial":4658,"otions":4659,"Ġ-------<":4660,"epcopy":4661,"ĠMax":4662,"ĠMicrosoft":4663,"'][":4664,"active":4665,"Reg":4666,"Ġrotations":4667,"Result":4668,"Ġconvention":4669,":`":4670,">]<":4671,"ĠDo":4672,"Ġuses":4673,"collection":4674,"ERT":4675,"}.\"<":4676,"vantages":4677,"Ġcharact":4678,"Sharded":4679,"Condition":4680,"Ar":4681,"HE":4682,"Handle":4683,"Ġpc":4684,"assistant":4685,"Ġlora":4686,"Ġbuil":4687,"ĠInitialize":4688,"Ġcheckpoints":4689,"ĠCont":4690,"topk":4691,"Ġbinary":4692,"ĠLICENSE":4693,"-{":4694,"Button":4695,"IO":4696,"fps":4697,"report":4698,"ĠĠĠĠĠĠĠĠĠĠĠĠĠĠĠĠĠ":4699,"Ġalign":4700,"ived":4701,"Ġlet":4702,"Ġsummary":4703,"execute":4704,"}/{":4705,"TRA":4706,"\\.":4707,"agram":4708,"seen":4709,"utes":4710,"Ġfused":4711,"ĠPass":4712,"track":4713,"Ġdocuments":4714,"ĠUpdate":4715,"bfloat":4716,"dia":4717,"Ġinf":4718,"Ġmu":4719,"ues":4720,"tocol":4721,"ĠStableDiffusion":4722,"GROUP":4723,"GB":4724,"lst":4725,"mt":4726,"storage":4727,"Ġflops":4728,"Ġabs":4729,"Ġway":4730,"Ġthreshold":4731,"../":4732,"trainer":4733,"','":4734,"lication":4735,"Ġcausal":4736,"\"}":4737,"havi":4738,"à¸":4739,"Ġnested":4740,"ators":4741,"uble":4742,"Ġloader":4743,"á´Ģ":4744,"Ġscaling":4745,"screen":4746,"ĠBuild":4747,"clock":4748,"ĠâĶ":4749,"repo":4750,"Ġcu":4751,"contain":4752,"Ġ[-":4753,"epsilon":4754,"Ġvalidate":4755,"edges":4756,"Assert":4757,"Engine":4758,"VA":4759,"high":4760,"onal":4761,"(\"#":4762,"osition":4763,"Ġans":4764,"commit":4765,"Ġprocessor":4766,"Forward":4767,"Policy":4768,".{":4769,"FT":4770,"Size":4771,"User":4772,"hand":4773,"itch":4774,"dialog":4775,"Ġ[],":4776,"Ġthrows":4777,"need":4778,"Ġsequences":4779,"ĠModelType":4780,"Strategy":4781,"VIDIA":4782,"Ġaccepts":4783,"Ġstandard":4784,".')<":4785,"1000":4786,"Te":4787,"Work":4788,"events":4789,"}_{":4790,"ÊŁ":4791,"sequential":4792,"ĠNorm":4793,"failed":4794,"partial":4795,"Met":4796,"dle":4797,"dated":4798,"ln":4799,"solver":4800,"student":4801,"Ġport":4802,"Ġplace":4803,"amma":4804,"Ġbeing":4805,"Ġresolution":4806,"buffers":4807,"interle":4808,"orizon":4809,"abel":4810,"mentum":4811,"tract":4812,"STR":4813,"Ġpartition":4814,"Scal":4815,"aff":4816,"gu":4817,"ired":4818,"job":4819,"mote":4820,"oised":4821,"Ġfast":4822,"ves":4823,"ĠRep":4824,"ReLU":4825,"ET":4826,"NS":4827,"Ġ\"-":4828,"ilter":4829,"Ġ\\\\":4830,"actionability":4831,"requests":4832,"')[":4833,"=[\"":4834,"gbuf":4835,"itor":4836,"Ġwould":4837,"Ġ-=":4838,"keywords":4839,"neighbors":4840,"Ġsettings":4841,"validation":4842,"ĠPyTorch":4843,"Ġsqrt":4844,"allenge":4845,"77":4846,"Class":4847,"Ġemail":4848,"anel":4849,"home":4850,"ĠĠĠĠĠĠĠĠĠĠĠĠĠĠĠĠĠĠĠĠĠĠĠĠĠĠĠĠĠĠ":4851,"PUT":4852,"LongTensor":4853,"MPT":4854,"Trans":4855,"USE":4856,"].<":4857,"ngram":4858,"ulf":4859,"oral":4860,"Ġfix":4861,"Ġthese":4862,"uest":4863,"Ġlon":4864,"Ġchain":4865,"Ġdimensions":4866,"mouse":4867,"Ġnecessary":4868,"Ġadjust":4869,"normalizer":4870,"ĠDistributed":4871,"LINE":4872,"Ġarch":4873,"edDict":4874,"Ġ\"[":4875,"limit":4876,"Ġgbuf":4877,"Ġadditional":4878,"_)<":4879,"auth":4880,"Ġdefined":4881,"attribute":4882,"reply":4883,"Ġ-->":4884,"35":4885,"Meta":4886,"css":4887,"holder":4888,"ls":4889,"pkl":4890,"separ":4891,"Ġcamer":4892,"Ġsl":4893,"imation":4894,"ĠĠĠĠĠĠĠĠĠĠĠĠĠĠĠĠĠĠĠĠĠĠĠĠĠĠĠĠĠĠĠĠĠĠĠĠĠ":4895,"Ġdoing":4896,"Ġcalls":4897,"Ġdelta":4898,"ĠGenerate":4899,"ĠDownload":4900,"ination":4901,"regex":4902,"ilities":4903,"Ġdirection":4904,"Ġdistribution":4905,"embd":4906,"Ġtimestamp":4907,"ernal":4908,"repr":4909,"Ġvariables":4910,"Ġdispatch":4911,"Socket":4912,"ĠTeam":4913,"By":4914,"ium":4915,"qpos":4916,"selection":4917,"mester":4918,"Ġsync":4919,"artic":4920,"logs":4921,"Ġmoe":4922,"Ġretrieval":4923,"ĠCorpor":4924,"ĠCorporation":4925,"ND":4926,"SA":4927,"å¤":4928,"rements":4929,"cho":4930,"Ġ\"\",":4931,"allclose":4932,"ĠDDP":4933,"Ġengine":4934,"Ġheader":4935,"unctools":4936,"->":4937,"DCondition":4938,"Optimizer":4939,"æķ":4940,"let":4941,"parents":4942,"ĠLinear":4943,"Ġhash":4944,"Ġmodules":4945,"PATH":4946,"alculate":4947,"Ġwriter":4948,"-%":4949,"flax":4950,"Ġtar":4951,"Ġaug":4952,"Ġtorchvision":4953,"Ġhand":4954,"Ġtokentype":4955,"ĠĠĠĠĠĠĠĠĠĠĠĠĠĠĠĠĠĠĠĠĠĠĠĠĠĠĠĠĠĠĠĠĠĠĠĠĠĠ":4956,"backend":4957,"ĠEnsure":4958,"Hello":4959,"42":4960,"=\\\"":4961,"_<":4962,"ga":4963,"nc":4964,"ush":4965,"xx":4966,"xy":4967,"Ġreq":4968,"bound":4969,"Ġonce":4970,"region":4971,"Ġpython":4972,"'\\":4973,"LLM":4974,"Ġrece":4975,"StateDict":4976,"Ġentry":4977,"SIZE":4978,"Add":4979,"game":4980,"hy":4981,"ire":4982,"known":4983,"rops":4984,"Ġaudio":4985,"Ġdt":4986,"ĠToken":4987,"Ġ'\\":4988,"ĠOr":4989,"============":4990,"matmul":4991,"Ġscre":4992,"cameras":4993,"Ġwarnings":4994,"06":4995,"Batch":4996,"Vi":4997,"rl":4998,"seg":4999,"demo":5000,"lain":5001,"imodal":5002,"Ġprojection":5003,"Ġshutil":5004,"Ġleast":5005,"Ġsubprocess":5006,"Ġchanged":5007,"Ġfreqs":5008,"=_":5009,"Op":5010,"Pool":5011,"ond":5012,"any":5013,"roy":5014,"Ġbins":5015,"ĠĠĠĠĠĠĠĠĠĠĠĠĠĠĠĠĠĠĠĠ":5016,"Ġconne":5017,"ĠTh":5018,"Ġpresent":5019,"moid":5020,"ĠRequest":5021,"errors":5022,"Stat":5023,"lastic":5024,"Trainer":5025,"ĠPrepare":5026,"truncated":5027,"CL":5028,"DF":5029,"VER":5030,"zilla":5031,"develo":5032,"Ġfunctools":5033,"Ġmm":5034,"Ġgpu":5035,"Ġdec":5036,"Ġpropert":5037,"peri":5038,"Ġconfigure":5039,"jected":5040,"Ġspecial":5041,"Ġmodifi":5042,"Ġworker":5043,"Ġitems":5044,"ords":5045,"Ġremain":5046,"rant":5047,"()).":5048,"Ġlarge":5049,"Param":5050,"Ġinteger":5051,"45":5052,"mk":5053,"æĺ":5054,"Ġquestions":5055,"Ġflags":5056,"Ġsat":5057,"Ġmark":5058,"launch":5059,"Ġframes":5060,"disabled":5061,"ĠProcess":5062,"ĠCLIPT":5063,"connect":5064,"humanoid":5065,"ĠNOTE":5066,"bt":5067,"Ġturn":5068,"latitude":5069,"penalty":5070,"Number":5071,"Ġremoved":5072,"thing":5073,"quare":5074,"listdir":5075,"Ġ:-":5076,"ideo":5077,"Ġformatt":5078,"ĠAutoModel":5079,"ĠAutoTokenizer":5080,"Ġmerged":5081,"\"}<":5082,"Multi":5083,"OM":5084,"ips":5085,"tar":5086,"ux":5087,"Ġiss":5088,"Ġresize":5089,"tower":5090,"()}<":5091,"ĠSo":5092,"Ġexisting":5093,"Ġconditioning":5094,"ParallelLinear":5095,"Ġwarmup":5096,":-":5097,"cp":5098,"nx":5099,"sy":5100,"err":5101,"Ġpt":5102,"direction":5103,"Ġdp":5104,"Ġdataclasses":5105,"Ġunit":5106,"Ġtexts":5107,"123":5108,"translation":5109,"theta":5110,"Ġnodes":5111,"ategory":5112,"product":5113,"Ġoffsets":5114,"=<":5115,"_.":5116,"mantic":5117,"mpu":5118,"Ġpasses":5119,"Ġinclu":5120,"pted":5121,"Ġglob":5122,"Ġknowledge":5123,"...\")<":5124,"Ġbuf":5125,"warn":5126,"ArgumentParser":5127,"Ġoperation":5128,"atermark":5129,"After":5130,"MES":5131,"judge":5132,"cell":5133,"processed":5134,"Ġ'--":5135,"scaler":5136,"TES":5137,"lanation":5138,"password":5139,"multiple":5140,"ndim":5141,"play":5142,"ql":5143,"}.\")<":5144,"åĲ":5145,"Ġep":5146,"into":5147,"inator":5148,"Ġttk":5149,"izing":5150,"argin":5151,"corn":5152,"Start":5153,"wrapped":5154,"Ġhook":5155,"ĠLayerNorm":5156,"children":5157,"ĠHTTP":5158,"developer":5159,"imp":5160,"mu":5161,"utions":5162,"Ġfetch":5163,"sharding":5164,"Ġimportlib":5165,"Ġprovider":5166,"Ġaccess":5167,"Ġtrajectory":5168,"ulfill":5169,"QL":5170,"cle":5171,"ras":5172,"Ġhtml":5173,"Ġgu":5174,"dapter":5175,"Ġperm":5176,"intermediate":5177,"Ġterms":5178,"95":5179,"Ġio":5180,"Ġ#<":5181,"ensors":5182,"Ġstudent":5183,"pay":5184,"neighbor":5185,"aiss":5186,"Ġinitialization":5187,"MAX":5188,"Ġchoice":5189,"Ġflatten":5190,")\")<":5191,"broadcast":5192,"enu":5193,"Ġretry":5194,"()):<":5195,"percent":5196,"licit":5197,"indexed":5198,"Ġsetting":5199,"oug":5200,"strings":5201,"initialization":5202,"Ġproduct":5203,"PS":5204,"iated":5205,"Ġentity":5206,"Ġgre":5207,"ressed":5208,"Ġ/=":5209,"Ġpredicate":5210,"Ġpossible":5211,"ĠĠĠĠĠĠĠĠĠĠĠĠĠĠĠĠĠĠĠĠĠĠĠĠĠĠĠĠĠĠĠĠĠĠĠĠ":5212,"localhost":5213,"dividual":5214,"ĠShape":5215,"gnitude":5216,")(":5217,"If":5218,"solution":5219,"when":5220,"alloc":5221,"Ġsdf":5222,"Ġmight":5223,"getitem":5224,"outer":5225,"Ġlook":5226,"Ġweb":5227,"based":5228,"latest":5229,"Failed":5230,"Ġdirectly":5231,"Execution":5232,"OT":5233,"Ġplot":5234,"exc":5235,"except":5236,"Ġdf":5237,"ement":5238,"Ġhow":5239,"ĠCOR":5240,"ĠChat":5241,"Ġcoordin":5242,"accuracy":5243,"arras":5244,"autograd":5245,"ĠPerform":5246,"BASE":5247,"Ġsigmas":5248,"havior":5249,"Vision":5250,"Ġwere":5251,"ĠRoute":5252,"dirs":5253,"Ġparts":5254,"cum":5255,"inds":5256,"Ġtag":5257,"lex":5258,"ĠĠĠĠĠĠĠĠĠĠĠĠĠĠ":5259,"urer":5260,"lended":5261,"Ġgot":5262,"ĠOllama":5263,"mozilla":5264,"splits":5265,"ayload":5266,"Ġident":5267,"Ġstructure":5268,"DConditionModel":5269,"ROR":5270,"nal":5271,"Ġpl":5272,"ceil":5273,"pet":5274,"uper":5275,"Ġhyper":5276,"abstract":5277,"ĠDis":5278,"username":5279,"accept":5280,"Read":5281,"Ġexpand":5282,"NotFound":5283,"ĠQuery":5284,"27":5285,":{":5286,"SC":5287,"simple":5288,"Ġfig":5289,"pture":5290,"Ġcould":5291,"bove":5292,"Ġpooled":5293,"Ġgrads":5294,"verts":5295,"locals":5296,"missing":5297,"Ġregular":5298,"Ġpixel":5299,"500":5300,"eod":5301,"ks":5302,"Ġfn":5303,"emory":5304,"Ġ*<":5305,"resume":5306,"preds":5307,"INFO":5308,"viewport":5309,"activations":5310,"running":5311,"encoded":5312,"æķ°":5313,"DB":5314,"Hand":5315,"hparams":5316,"yaml":5317,"Ġ##":5318,"Ġhalf":5319,"ĠDDI":5320,"Ġpadx":5321,"Ġ50":5322,"Ġcalling":5323,"28":5324,"98":5325,"hide":5326,"lator":5327,"è¯":5328,"star":5329,"settings":5330,"Ġ13":5331,"ffn":5332,"ocast":5333,"Ġshow":5334,"ĠEmbedding":5335,"ĠNVIDIA":5336,"Ġscene":5337,"Ġworkflow":5338,"LAGS":5339,"uestion":5340,");<":5341,"XT":5342,"clear":5343,"schedulers":5344,"arm":5345,"Ġprag":5346,"poses":5347,"romium":5348,"Ġgive":5349,"Ġ{:.":5350,"Ġproblem":5351,"Ġsto":5352,"\")[":5353,"assets":5354,"plotlib":5355,"flags":5356,"Ġflat":5357,"Ġrelease":5358,"Ġrepeat":5359,"Ġstorage":5360,"ĠOther":5361,"Ġvar":5362,"Ġjob":5363,"Ġdims":5364,"subject":5365,"topic":5366,"blue":5367,"Ġpragma":5368,"Iter":5369,"[[\"":5370,"each":5371,"field":5372,"js":5373,"è¿":5374,"Ġtgt":5375,"Ġabove":5376,"\"\"\",<":5377,"completion":5378,"fact":5379,"Ġsetattr":5380,"ART":5381,"DiffusionPipeline":5382,"Ġobjects":5383,"ĠĠĠĠĠĠĠĠĠĠĠĠĠĠĠĠĠĠĠĠĠĠĠĠĠĠĠĠĠĠĠĠĠĠĠĠĠĠĠĠĠĠĠĠĠ":5384,"Wait":5385,"empt":5386,"knowledge":5387,"wandb":5388,"Ġcam":5389,"Ġratio":5390,"structor":5391,"ddp":5392,"wrapper":5393,"POST":5394,"mkdir":5395,"\"},<":5396,"Down":5397,"euler":5398,"git":5399,"gym":5400,"éĢ":5401,"Ġsy":5402,"peft":5403,"uess":5404,"esc":5405,"scor":5406,"Ġstore":5407,"Ġstill":5408,"('<":5409,"ĠGaussian":5410,"Ġspecify":5411,"afetensors":5412,"inspect":5413,"Ġpredictions":5414,"Ġradius":5415,"CLIP":5416,"Ġlicensed":5417,"critic":5418,":</":5419,"Ġdepend":5420,"ĠFunction":5421,"ĠDoc":5422,"pectrogram":5423,"tracing":5424,"unets":5425,"Ġorigin":5426,"TR":5427,"dc":5428,"sep":5429,"ero":5430,"environment":5431,"Ġplease":5432,"Ġfolder":5433,"Ġexce":5434,"ĠLoc":5435,"ĠPlaywright":5436,"day":5437,"INT":5438,"ĠReturn":5439,"validate":5440,"datetime":5441,"Ġpositional":5442,"Ġstrings":5443,"tesIO":5444,"ĠJSON":5445,"properties":5446,"Decoder":5447,"NOTE":5448,"Ġindent":5449,"ĠAsset":5450,"Browser":5451,"HO":5452,"null":5453,"chk":5454,"export":5455,"Ġ[[":5456,"ĠAsync":5457,"ĠSplit":5458,"Ġdataclass":5459,"ively":5460,"ASS":5461,"threads":5462,".*":5463,"2024":5464,"åĽ":5465,"êľ":5466,"Ġutil":5467,"Ġfixed":5468,"radi":5469,"coeff":5470,"Ġprocesses":5471,"retrieval":5472,"vertex":5473,"Ġlear":5474,"destroy":5475,"Ġeffect":5476,"gripper":5477,"omatically":5478,"Cannot":5479,"agraph":5480,"fields":5481,"fulfill":5482,"mg":5483,"saved":5484,"æĪ":5485,"inuous":5486,"Ġhuman":5487,"ĠRa":5488,"rune":5489,"Ġcollect":5490,"Ġinterpo":5491,"ĠDefine":5492,"observations":5493,"Ġtruncation":5494,"ĠColumn":5495,"([\"":5496,"dra":5497,"ially":5498,"lb":5499,"npy":5500,"onents":5501,"mesh":5502,"Ġsampler":5503,"Ġsolver":5504,"modeling":5505,"Ġhs":5506,"ancel":5507,"Ġpreprocess":5508,"scaled":5509,"RAG":5510,"Ġaccuracy":5511,"retrie":5512,"DER":5513,"STA":5514,"overlap":5515,"inov":5516,")])<":5517,"MIN":5518,"dit":5519,"çĶ":5520,"Ġ,":5521,"hex":5522,"Ġrec":5523,"ulary":5524,"Ġ11":5525,"olved":5526,"Ġcom":5527,"ocus":5528,"ava":5529,"mov":5530,"Ġdof":5531,"means":5532,"Ġassistant":5533,"ĠApply":5534,"Ġbarrier":5535,"ĠMaximum":5536,"scorer":5537,"Com":5538,"GEN":5539,"OD":5540,"OS":5541,"bind":5542,"dri":5543,"Ġmult":5544,"enshot":5545,"Ġdecoding":5546,"Ġ`<":5547,"ixup":5548,"RATION":5549,"lank":5550,"shortcut":5551,"Ġct":5552,"uting":5553,"met":5554,"Ġauto":5555,"ulation":5556,"textarea":5557,"Ġnumbers":5558,"Ġlight":5559,"ĠBy":5560,"Ġtrainer":5561,"?<":5562,"FOR":5563,"It":5564,"best":5565,"äº":5566,"relevant":5567,"align":5568,"Ġstack":5569,"ĠWork":5570,"videos":5571,"transfer":5572,"Status":5573,"384":5574,"All":5575,"IF":5576,"RN":5577,"YPE":5578,"aging":5579,"utable":5580,"Ġfe":5581,"Ġfps":5582,"fast":5583,"accelerator":5584,"Ġaccording":5585,"Preprocessing":5586,"traceback":5587,"dispatch":5588,")\",":5589,"nan":5590,"levels":5591,"Ġcannot":5592,"Ġinsert":5593,"argmax":5594,"Ġreturning":5595,"projector":5596,"__}":5597,"ĠAc":5598,"Ġcook":5599,"green":5600,"PIPE":5601,"ERROR":5602,"Ġvariant":5603,"goal":5604,"Ġprobability":5605,"Ġunconditional":5606,"consumed":5607,"STRING":5608,"NotFoundError":5609,"37":5610,"Ġwell":5611,"bour":5612,"omic":5613,"Ġalgorithm":5614,"TEST":5615,"Ġmodi":5616,"ighbour":5617,"Ġtrace":5618,"ĠWeb":5619,"ĠResponse":5620,"sentences":5621,"Ġprior":5622,"Ġprobabilities":5623,"PreprocessingConfig":5624,".\\":5625,"cnt":5626,"dt":5627,"oper":5628,"Ġå":5629,"rest":5630,"geo":5631,"Ġfalse":5632,"Ġnull":5633,"Ġmargs":5634,"imate":5635,"mail":5636,"\"]),<":5637,"Ġlong":5638,"trainable":5639,"Ġchosen":5640,"Ġ30":5641,"Ġkl":5642,"TEMP":5643,"cating":5644,"Stream":5645,"Ġchecked":5646,"]]]":5647,"LOG":5648,"Ġoverlap":5649,"Ġdisabled":5650,"instagram":5651,"Ġtrial":5652,"emove":5653,"21":5654,"LD":5655,"sv":5656,"xic":5657,"chema":5658,"Ġredirect":5659,"database":5660,"Ġdelay":5661,"pression":5662,"Ġbeam":5663,"Ġlogs":5664,"logps":5665,"Ġjudge":5666,"snapshot":5667,"alyze":5668,"Ġcompatibility":5669,"ĠArguments":5670,"Ġsnapshot":5671,"itespace":5672,"article":5673,"ĠOtherwise":5674,"WaitAfter":5675,"202":5676,"=\"\"":5677,"Split":5678,"WAR":5679,"]),<":5680,"datas":5681,"eck":5682,"vas":5683,"Ġtranscript":5684,"embs":5685,"Ġexport":5686,"Ġdes":5687,"Ġdelete":5688,"Ġparsed":5689,"ower":5690,"cached":5691,"bsz":5692,"MPLE":5693,"Column":5694,"PROMPT":5695,"collate":5696,"47":5697,"QA":5698,"cr":5699,"gab":5700,"navigation":5701,"vid":5702,"pes":5703,"Ġdot":5704,"Ġdete":5705,"ĠPlatform":5706,"ĠMask":5707,"Ġrag":5708,"INDE":5709,"basename":5710,"Ġoverride":5711,"Ġneeds":5712,"Ġfinish":5713,"disable":5714,"constants":5715,"display":5716,"Logger":5717,"ĠRotation":5718,"INDEX":5719,"Cross":5720,"CES":5721,"found":5722,"Ġarr":5723,"serial":5724,"ranular":5725,"Ġ',":5726,"olutions":5727,"rib":5728,"Ġbehavior":5729,"Ġwhole":5730,"Ġsampled":5731,"Ġresponses":5732,"abspath":5733,"Ġstats":5734,"Answer":5735,"ranularity":5736,"bal":5737,"cmd":5738,"follow":5739,"sorted":5740,"ä½":5741,"Ġhparams":5742,"rich":5743,"ĠMeta":5744,"continue":5745,"cepted":5746,"Ġpositive":5747,"1234":5748,"ĠSession":5749,"Ġheading":5750,"filtered":5751,"Level":5752,"!!":5753,")}\"<":5754,"PORT":5755,"UT":5756,"sli":5757,"Ġqu":5758,"mega":5759,"Ġrepo":5760,"Ġhapp":5761,"###":5762,"Ġexperiment":5763,"formed":5764,"cheduling":5765,"Step":5766,"```":5767,"override":5768,"quaternions":5769,"Ġdocumentation":5770,"Ġflash":5771,"CUDA":5772,"detected":5773,"ĠCORPO":5774,"Gra":5775,"RGB":5776,"Speed":5777,"Ġ~":5778,"Ġskeleton":5779,"unding":5780,"upsample":5781,"ĠĠĠĠĠĠĠĠĠĠĠĠĠĠĠĠĠĠ":5782,"()]<":5783,"ising":5784,"Ġbegin":5785,"runtime":5786,"variant":5787,"ĠĠĠĠĠĠĠĠĠĠĠĠĠĠĠĠĠĠĠĠĠĠĠĠĠĠĠĠĠĠĠĠĠĠĠĠĠĠĠĠĠĠ":5788,"signature":5789,"terministic":5790,"Ġfewshot":5791,"cookies":5792,"fraction":5793,"ĠâĶĤ":5794,">`":5795,"pus":5796,"tanh":5797,"wb":5798,"Ġ=========":5799,"Ġround":5800,"ĠEvent":5801,"teacher":5802,"absolute":5803,"Env":5804,"Ġinside":5805,"oxel":5806,"finish":5807,"sigmoid":5808,"inops":5809,"TYPE":5810,"Ġsuccessfully":5811,"Ġseparate":5812,"ĠCORPORATION":5813,"\"})<":5814,"App":5815,"Eval":5816,"fallback":5817,"relative":5818,"stand":5819,"Ġmon":5820,"epSpeed":5821,"Ġmel":5822,"scroll":5823,"way":5824,"ociated":5825,"ĠOnly":5826,"ĠHow":5827,"amplers":5828,"GET":5829,"Ġcommunication":5830,"Ġfail":5831,"plus":5832,"Ġclose":5833,"ExecutionContext":5834,"TEMPLA":5835,"GRE":5836,"mom":5837,"zz":5838,"}'<":5839,"inverse":5840,"igid":5841,"vals":5842,"proc":5843,"ĠTable":5844,"ĠScore":5845,"Ġmem":5846,"Ġstrategy":5847,"Ġbelow":5848,"ĠExtract":5849,"runner":5850,"Ġcurrently":5851,"aken":5852,"PipelineOutput":5853,"candidate":5854,"Ġcamera":5855,"Filter":5856,"duration":5857,"gster":5858,"motions":5859,"ral":5860,"deepspeed":5861,"Ġplan":5862,"lack":5863,"share":5864,"derr":5865,"Ġcompletion":5866,"Ġstory":5867,"dagster":5868,"Ġuntruncated":5869,"uster":5870,"emails":5871,"Ġallowed":5872,"cii":5873,"Ġetc":5874,"Route":5875,"drant":5876,"ngrams":5877,"ture":5878,"utation":5879,"asarray":5880,"added":5881,"attributes":5882,"Ġ'_":5883,"(\"%":5884,"ĠCalculate":5885,"ĠDet":5886,"addr":5887,"Ġnoqa":5888,"ENAI":5889,"Ġerrors":5890,"LOW":5891,"lationsh":5892,"Ġimplemented":5893,"Ġsentences":5894,"Identity":5895,"origin":5896,"Ġautomatically":5897,"LIGHTWHITE":5898,"'),":5899,"VAL":5900,"glob":5901,"ior":5902,"__.__":5903,"isy":5904,"Ġeuler":5905,"Ġexclude":5906,"ĠSc":5907,"\"]]":5908,"Ġshare":5909,"offloaded":5910,"PIL":5911,"Ġsupports":5912,"stdout":5913,"ĠCheckpoint":5914,"Ġrandn":5915,"Ġobservation":5916,"31":5917,"Valid":5918,"ders":5919,"ha":5920,"help":5921,"Ġshe":5922,"experiment":5923,"Ġmixed":5924,"Ġ'-":5925,"Ġ*,":5926,"versed":5927,"Ġcounter":5928,"ĠnoWaitAfter":5929,"some":5930,"Ġworkspace":5931,"Ġlowres":5932,"ControlNet":5933,"driver":5934,"Do":5935,"Handler":5936,"IMAGE":5937,"card":5938,"scheduling":5939,"widget":5940,"rapper":5941,"Ġdjango":5942,"__<":5943,"Ġeven":5944,"istics":5945,"ube":5946,"Ġ40":5947,"Ġpytorch":5948,"Ġlocation":5949,"Ġmultiprocessing":5950,"LoaderMixin":5951,"ĠIDs":5952,"Embed":5953,"samplers":5954,"à°":5955,"Ġinher":5956,"olding":5957,"endpoint":5958,"numbers":5959,"mentation":5960,"Ġyet":5961,"á´ľ":5962,"blems":5963,"Ġassociated":5964,"ĠPrompt":5965,"SION":5966,"Ġreduction":5967,"ĠDownloadSource":5968,"768":5969,">=":5970,"Future":5971,"Random":5972,"pr":5973,"æĹ":5974,"inp":5975,"ending":5976,"ascii":5977,"edDataset":5978,"expression":5979,"ident":5980,"ĠSub":5981,"Ġdescri":5982,"Ġselection":5983,"itions":5984,"corr":5985,"cords":5986,"background":5987,"ernels":5988,"targets":5989,"Ġwords":5990,"Ġsubject":5991,"Ġinternal":5992,"mitted":5993,"Ġpartic":5994,"Ġreasoning":5995,"ĠAutoModelForCausalLM":5996,"corners":5997,"Task":5998,"timing":5999,"é¢":6000,"sens":6001,"Ġfname":6002,"Ġrest":6003,"rast":6004,"ullable":6005,"ily":6006,"Ġ'%":6007,"ĠName":6008,"oresume":6009,"editable":6010,"popup":6011,"Ġagain":6012,"cookie":6013,"Ġaffili":6014,"Ġaffiliates":6015,"Ser":6016,"fr":6017,"platform":6018,"slot":6019,"win":6020,"Ġinvalid":6021,"Ġblend":6022,"toe":6023,"ifact":6024,"loading":6025,"ĠVQ":6026,"trajectory":6027,"Ġtmpdir":6028,"MLP":6029,"btn":6030,"DING":6031,"What":6032,"bank":6033,"cred":6034,"jax":6035,"depend":6036,"aries":6037,"hes":6038,"Ġsuffix":6039,"Ġest":6040,"Ġ24":6041,"tern":6042,"iframe":6043,"Ġstick":6044,"contexts":6045,"pending":6046,"iterations":6047,"ORCH":6048,"Ġsql":6049,"diffusers":6050,"patterns":6051,"Ġcomputation":6052,":],":6053,":])<":6054,"LL":6055,"LEN":6056,"Label":6057,"NING":6058,"WE":6059,"await":6060,"hid":6061,"ipy":6062,"transcript":6063,"è®":6064,"once":6065,"remote":6066,"Ġbert":6067,"imag":6068,"ĠLe":6069,"Ġparents":6070,"pair":6071,"Ġcap":6072,"without":6073,"Ġappend":6074,"Ġ500":6075,"=[<":6076,"Ġvectors":6077,"PreTrainedModel":6078,"NE":6079,"NUM":6080,"kle":6081,"scope":6082,"æį":6083,"invalid":6084,"Ġdivisible":6085,"ĠCross":6086,"application":6087,"Ġ>>":6088,"address":6089,"ĠBatch":6090,"ird":6091,"Ġ%.":6092,"Ġpady":6093,"Ġupdated":6094,"Ġsubset":6095,"({'":6096,"webkit":6097,"crete":6098,"Ġperformance":6099,"Ġconsist":6100,"helper":6101,"IGHT":6102,"vers":6103,"}]":6104,"onent":6105,"ories":6106,"lout":6107,"Ġreject":6108,"rable":6109,"adam":6110,"defics":6111,"pow":6112,"course":6113,"Ġconst":6114,"loaders":6115,"Ġwhat":6116,"rypt":6117,"Ġteacher":6118,"Ġtopk":6119,"Ġfake":6120,"Ġbetter":6121,"efficient":6122,"################################################":6123,"ĠMock":6124,"assertions":6125,"benchmark":6126,"tracebackhide":6127,"PIPELINE":6128,"Ġsticky":6129,"iver":6130,"olean":6131,"tqdm":6132,"Ġscope":6133,"Ġresearch":6134,"cover":6135,"imal":6136,"imic":6137,"Ġnote":6138,"ĠStr":6139,"dicts":6140,"indexes":6141,"ĠValid":6142,"lecturer":6143,"submodules":6144,"ĠĠĠĠĠĠĠĠĠĠĠĠĠĠĠĠĠĠĠĠĠĠĠĠĠĠĠĠĠĠĠĠĠĠĠĠĠĠĠĠĠ":6145,"ElementHandle":6146,"**/*":6147,"'%":6148,",),":6149,"-\\":6150,".)<":6151,"OpenAI":6152,"granularity":6153,"panel":6154,"writ":6155,"sto":6156,"gemini":6157,"Ġcert":6158,"maz":6159,"magen":6160,"Ġhy":6161,"Ġmegab":6162,"dimension":6163,"grouped":6164,"Ġtrainable":6165,"begin":6166,"Ġapplied":6167,"commend":6168,"START":6169,"DatasetConfig":6170,"Ġtrim":6171,"ĠShardedStateDict":6172,"Ġcompatible":6173,"Script":6174,"43":6175,"Bert":6176,"horizon":6177,"åħ":6178,"along":6179,"Ġfo":6180,"Ġdue":6181,"Ġdest":6182,"ĠReduce":6183,"ĠRemove":6184,"reduced":6185,"fea":6186,"Ġrepresentation":6187,"Ġaround":6188,"Ġparticular":6189,"(\\":6190,")/":6191,"08":6192,"Av":6193,"gers":6194,"Ġindividual":6195,"Ġ`'":6196,"momentum":6197,"mbol":6198,"generated":6199,"ugin":6200,"Ġmost":6201,"Ġprocessing":6202,"Ġassume":6203,"Ġmany":6204,"Ġhost":6205,"(?":6206,")*":6207,"23":6208,"KV":6209,"Pie":6210,"_()<":6211,"pd":6212,"pid":6213,"ceiver":6214,"Ġinp":6215,"coords":6216,"ametr":6217,"Ġ19":6218,"Ġ:].":6219,"fake":6220,"generations":6221,"TIME":6222,"Ġmessagebox":6223,"Ġtruth":6224,"Ġdoesn":6225,">{":6226,"Al":6227,"IM":6228,"crops":6229,"dummy":6230,"hi":6231,"mimic":6232,"rm":6233,"Ġvis":6234,"ati":6235,"Ġclear":6236,"Ġspace":6237,"Ġregex":6238,"Ġmod":6239,"Ġops":6240,"lis":6241,"amond":6242,"###<":6243,"ĠCom":6244,"general":6245,"linspace":6246,"Ġworking":6247,"Ġ768":6248,"ĠRetrie":6249,"ĠLoss":6250,"CHECK":6251,"elem":6252,"75":6253,"Def":6254,"Literal":6255,"Tool":6256,"ba":6257,"llava":6258,"pisode":6259,"rsp":6260,"safetensors":6261,"}[":6262,"æĸ":6263,"anthropic":6264,"Ġns":6265,"Ġinfer":6266,"Ġeinops":6267,"preprocess":6268,"allet":6269,"Ġllama":6270,"locks":6271,"artifact":6272,"Ġuntil":6273,"Ġdefaultdict":6274,"Ġmove":6275,"Ġchecker":6276,"aux":6277,"Ġnormalizer":6278,"enchmark":6279,"Ġdetail":6280,"ĠEncoder":6281,"Ġtermin":6282,"Ġtruncated":6283,"multiplier":6284,"branch":6285,"suffix":6286,"ðŁ":6287,"Ġrich":6288,"Ġsd":6289,"Ġsw":6290,"Ġbot":6291,"extras":6292,"Ġdst":6293,"(\"()":6294,"('\\":6295,"login":6296,"Ġwhitespace":6297,"Training":6298,"Ġpair":6299,"signal":6300,"BI":6301,"same":6302,"Ġtiming":6303,"Ġsmpl":6304,"Ġrelated":6305,"izable":6306,"ulder":6307,"Ġdummy":6308,"inte":6309,"fft":6310,"ĠCustom":6311,"ublish":6312,"buil":6313,"stribute":6314,"Ġkeyword":6315,"TENS":6316,"push":6317,"Ġmatplotlib":6318,"SchedulerMixin":6319,"Ġscorer":6320,"Ġreplica":6321,"ðĿĹ":6322,"abstractmethod":6323,"retrieved":6324,"TENSOR":6325,"'),<":6326,")\"<":6327,">\"<":6328,"Dep":6329,"Ġpublic":6330,"Ġmultip":6331,"iglu":6332,"Ġwa":6333,"Ġduplicate":6334,"Ġdefine":6335,"ismatch":6336,"Ġ25":6337,"Ġmaster":6338,"ĠWh":6339,"comment":6340,"modifi":6341,"á´ħ":6342,"overload":6343,"Normal":6344,"HTML":6345,"conditioning":6346,"Ġcorresponds":6347,"Ġedges":6348,"ĠControl":6349,"Item":6350,"Piece":6351,"26":6352,"Low":6353,"Options":6354,"px":6355,"rope":6356,"chosen":6357,"Ġps":6358,"Ġfields":6359,"Ġrecon":6360,"__.":6361,"forms":6362,"Ġseen":6363,"pickle":6364,"apping":6365,"ourse":6366,"seqlens":6367,"Ġrequested":6368,"Ġspatial":6369,"Prompt":6370,"aussians":6371,"Ġfreeze":6372,"Ġgeo":6373,"Loading":6374,"fidence":6375,"enums":6376,"!\")<":6377,"30000":6378,"AC":6379,"Ac":6380,"QU":6381,"Save":6382,"ever":6383,"tic":6384,"åº":6385,"Ġâķ":6386,"Ġ\")<":6387,"Ġinverse":6388,"Ġincre":6389,"Ġbound":6390,"defined":6391,"else":6392,"lient":6393,"Ġcached":6394,"FILE":6395,"ĉĉĉ":6396,"Ġlocals":6397,"matches":6398,"facebook":6399,"entials":6400,"Ġnormalization":6401,"Ġcases":6402,"prior":6403,"Ġcosine":6404,"predicted":6405,"WORK":6406,"mazon":6407,"Ġvelocity":6408,"Ġten":6409,"Ġnc":6410,"Ġsimple":6411,"Ġ-----------------":6412,"Ġdiscrete":6413,"Ġeos":6414,"Ġdeepcopy":6415,"Ġcompleted":6416,"Ġprevent":6417,"bomimic":6418,"paces":6419,"quired":6420,"fixed":6421,"RESET":6422,"counts":6423,"windows":6424,"PEC":6425,"Ġconversation":6426,"Ġcreating":6427,"Submodules":6428,"USER":6429,"Ġdescrib":6430,":].":6431,"KL":6432,"ece":6433,"mc":6434,"plain":6435,"analysis":6436,"ged":6437,"Ġplatform":6438,"dies":6439,"Ġoc":6440,"ĠBe":6441,"corator":6442,"filters":6443,"Ġfinished":6444,"flattened":6445,"columns":6446,"Ġdecoded":6447,"%%%%":6448,"cursive":6449,"Query":6450,"ĠPlatforms":6451,"=['":6452,"And":6453,"Rank":6454,"Reduce":6455,"iate":6456,"pk":6457,"sen":6458,"Ġfid":6459,"ural":6460,"Ġws":6461,"Ġ([":6462,"Ġ'__":6463,"Ġlock":6464,"##<":6465,"Ġelapsed":6466,"ĠSpec":6467,"Ġvq":6468,"portion":6469,"Ġevalu":6470,"axes":6471,"DOC":6472,"Ġnormalized":6473,"quantize":6474,"Ġentries":6475,"Header":6476,"jectories":6477,"Discrete":6478,"Ġconstants":6479,"Ġcharacter":6480,"Ġjudgement":6481,"/#":6482,"GNO":6483,"Position":6484,"dens":6485,"Êľ":6486,"Ġta":6487,"Ġbl":6488,"parametr":6489,"imer":6490,"ĠLa":6491,"ĠDOM":6492,"devices":6493,"socket":6494,"Ġcause":6495,"Ġbuffers":6496,"replica":6497,"Ġlater":6498,"sequences":6499,"Select":6500,"refox":6501,"foot":6502,"media":6503,"Ġconverted":6504,"Assertions":6505,"radius":6506,"5000":6507,"Question":6508,"Transform":6509,"UP":6510,"]*":6511,"bbox":6512,"mine":6513,"sa":6514,"sage":6515,"rome":6516,"Ġpe":6517,"Ġcnt":6518,"deredDict":6519,"formers":6520,"ĠEuler":6521,"([-":6522,"ivity":6523,"ĠReg":6524,"viewer":6525,"ĠSelf":6526,"Ġwrapper":6527,"Metadata":6528,"============<":6529,"imagen":6530,"58":6531,"90":6532,">')<":6533,"SP":6534,"bx":6535,"blend":6536,"gate":6537,"gamma":6538,"hn":6539,"sort":6540,"slic":6541,"see":6542,"Ġauth":6543,"iding":6544,"rist":6545,"Ġ`(":6546,"Ġcomplete":6547,"Ġrg":6548,"ĠOpen":6549,"Ġresume":6550,"ĠVA":6551,"Ġgenerating":6552,"Ġ%(":6553,"DataParallel":6554,"Ġsubmodules":6555,"arest":6556,"ĠParallel":6557,"Buffer":6558,"Ġconsider":6559,"merged":6560,"Adam":6561,"Ġincluding":6562,"Doc":6563,"Img":6564,"bold":6565,"blank":6566,"mse":6567,"des":6568,"iting":6569,"Ġinpaint":6570,"Ġbel":6571,"Ġdynamic":6572,"attached":6573,"()),":6574,"Ġcost":6575,"Ġvllm":6576,"Ġtokenize":6577,"Ġaccelerator":6578,"replay":6579,"Ġ{},":6580,"Ġexplanation":6581,"Ġchanges":6582,"feed":6583,"upported":6584,"alyzer":6585,"ĠAttnMaskType":6586,"interleave":6587,"æĺ¯":6588,"Ġlightrag":6589,"GNORE":6590,"Cho":6591,"Llama":6592,"Wrapper":6593,"inplace":6594,"tom":6595,"ĠTE":6596,"abc":6597,"layout":6598,"previous":6599,"teradata":6600,"ĠFrame":6601,"Ġstored":6602,"Ġadding":6603,"minus":6604,"rightness":6605,"ImageProcessor":6606,"Ġentire":6607,"ankle":6608,"Ġsignature":6609,"Checkpoint":6610,"Ġletter":6611,"affine":6612,"Reader":6613,"çĶ¨":6614,"IGHTS":6615,">__":6616,"NN":6617,"Right":6618,"ier":6619,"ipped":6620,"tur":6621,"æł":6622,"inpaint":6623,"ionError":6624,"units":6625,"Ġduration":6626,"Ġ---------------------------------":6627,"ĠFind":6628,"ĠId":6629,"ĠOff":6630,"))))<":6631,"calls":6632,"Ġignored":6633,"ä¸ª":6634,"Ġconditions":6635,"Unknown":6636,"resnets":6637,"CODE":6638,"dom":6639,"gaussian":6640,"éĹ":6641,"Ġ])<":6642,"delay":6643,"algo":6644,"learning":6645,"geom":6646,"Ġpush":6647,"Ġsolution":6648,"Ġschedulers":6649,"Ġbits":6650,"contact":6651,"toks":6652,"configuration":6653,"positive":6654,"builder":6655,"mount":6656,"Ġalphas":6657,"across":6658,"TEXT":6659,"LUM":6660,"ĠTransformerBlock":6661,"Ġextension":6662,"ĠMoE":6663,"Ġoperations":6664,"âķĲâķĲâķĲâķĲâķĲâķĲâķĲâķĲâķĲâķĲâķĲâķĲâķĲâķĲâķĲâķĲâķĲâķĲâķĲâķĲâķĲâķĲâķĲâķĲâķĲâķĲâķĲâķĲâķĲâķĲâķĲâķĲ":6665,"reasoning":6666,".,<":6667,"300":6668,"Case":6669,"RT":6670,"Utils":6671,"cert":6672,"ech":6673,"gold":6674,"jpe":6675,"}$":6676,"reject":6677,"Ġpil":6678,"Ġpol":6679,"discrete":6680,"Ġbi":6681,"pooled":6682,"vidia":6683,"ĠCU":6684,"usoid":6685,"Ġded":6686,"ĠField":6687,"ranges":6688,"ĠĠĠĠĠĠĠĠĠĠĠĠĠĠĠĠĠĠĠĠĠĠĠĠĠĠĠĠĠĠĠĠĠĠĠĠĠĠĠĠĠĠĠĠĠĠĠ":6689,"Ġmoved":6690,"Ġpatches":6691,"Ġsignal":6692,"segments":6693,"ĠPolicy":6694,"Ġmegablocks":6695,".'<":6696,"79":6697,"FE":6698,"Grad":6699,"gg":6700,"âĸ":6701,"recon":6702,"chromium":6703,"toxic":6704,"Ġeod":6705,"denoised":6706,"pective":6707,"Ġcheckpointing":6708,"encies":6709,"Ġbackground":6710,"templates":6711,"freeze":6712,"umulative":6713,"Ġresolves":6714,"Ġretrieved":6715,"ĠModuleSpec":6716,"'.<":6717,"GPU":6718,"large":6719,"ppo":6720,"rigid":6721,"safe":6722,"atmap":6723,"dean":6724,"alyz":6725,"advantages":6726,"Ġ[(":6727,"resolve":6728,"ĠRandom":6729,"ased":6730,"Inversion":6731,"Ġdownsample":6732,"placeholder":6733,"requirements":6734,"similarity":6735,"Ġcoordinates":6736,"parametrize":6737,"ION":6738,"king":6739,"second":6740,"arp":6741,"anded":6742,"identity":6743,"Ġwave":6744,"cogn":6745,"Ġgold":6746,"Ġsep":6747,"cuum":6748,"until":6749,"Ġidentity":6750,"Ġchunked":6751,"Ġiterator":6752,"findall":6753,"Ġformatted":6754,"êľ±":6755,"ighbours":6756,"AX":6757,"YS":6758,"mix":6759,"ucli":6760,"Ġreverse":6761,"peech":6762,"conf":6763,"Ġ[],<":6764,"wave":6765,"ĠFl":6766,"logy":6767,"Ġcodebook":6768,"Seq":6769,"Ġintercepted":6770,"aky":6771,"normalized":6772,"Ġseqlen":6773,"Ġinstalled":6774,"ĠSetup":6775,"Ġ...<":6776,"Ġaxes":6777,"Ġshifted":6778,"canvas":6779,"Chunk":6780,"ĠLoRA":6781,"ynchronous":6782,"TRAIN":6783,"cumsum":6784,"atios":6785,"uclidean":6786,"`\"<":6787,"site":6788,"yes":6789,"Ġsli":6790,"Ġamp":6791,"oney":6792,"emit":6793,"Ġ''<":6794,"listbox":6795,"annel":6796,"additional":6797,"Ġtrained":6798,"INTER":6799,"Ġ)[":6800,"Ġrequire":6801,"Ġaddress":6802,"Ġentities":6803,"10000":6804,"autocast":6805,"AttnMaskType":6806,"Ġshortcut":6807,"Ġipdb":6808,"Ġbuilding":6809,"Ġfeet":6810,"Graph":6811,":\")<":6812,"]}":6813,"]])<":6814,"brid":6815,"category":6816,"nb":6817,"ploy":6818,"rench":6819,"sil":6820,"Ġtaken":6821,"Ġbenchmark":6822,"uning":6823,"arger":6824,"Ġconcatenate":6825,"Ġdid":6826,"Ġproj":6827,"Ġthrow":6828,"ĠFace":6829,"inite":6830,"codecs":6831,"ĠNew":6832,"cosine":6833,"Click":6834,"Ġpackage":6835,"ĠConvBlock":6836,"member":6837,"OPENAI":6838,"payload":6839,"38":6840,"400":6841,"hs":6842,"Êı":6843,"ç»":6844,"atan":6845,"eng":6846,"rel":6847,"Ġflip":6848,"Ġincorrect":6849,"Ġsafe":6850,"extModel":6851,"uplic":6852,"Ġ17":6853,"Ġconn":6854,"ria":6855,"Ġexpi":6856,"ĠScal":6857,"Ġdeepspeed":6858,"ĠPattern":6859,"('-":6860,"Ġpreprocessing":6861,"bodies":6862,"ĠEach":6863,"lowres":6864,"okup":6865,"evaluation":6866,"ERS":6867,"Ġcontainer":6868,"ĠForward":6869,"ĠPreTrained":6870,"nonzero":6871,"ĠRetroPreprocessingConfig":6872,"BUG":6873,"fsdp":6874,"Template":6875,"UL":6876,"Var":6877,"\\'":6878,"draw":6879,"lers":6880,"super":6881,"tb":6882,"tlen":6883,"two":6884,"Ġsmooth":6885,"entities":6886,"power":6887,"Ġcontact":6888,"riend":6889,"ĠClient":6890,"Ġmagnitude":6891,"Ġler":6892,"ĠUser":6893,"ipher":6894,"seqlen":6895,"Ġgrade":6896,"Ġqk":6897,"compat":6898,"submit":6899,"Ġ})<":6900,"existing":6901,"Ġexecute":6902,"ãĢĤ":6903,"container":6904,"ĠOrderedDict":6905,"BatchNorm":6906,"é¢ĺ":6907,"ĠControlNet":6908,"tleneck":6909,"BC":6910,"MM":6911,"aa":6912,"flip":6913,"mer":6914,"ply":6915,"tan":6916,"vllm":6917,"à¦":6918,"çŃ":6919,"è§":6920,"anced":6921,"Ġspaces":6922,"prop":6923,"Ġele":6924,"Ġmeta":6925,"\"]]<":6926,"Ġcourse":6927,"Ġpretrain":6928,"tags":6929,"cap":6930,"ĠNode":6931,"actual":6932,"fixture":6933,"uggest":6934,"EMB":6935,"Shift":6936,"Post":6937,"Keyboard":6938,"Ġcloud":6939,"snr":6940,"variables":6941,"View":6942,"60":6943,"Mode":6944,"Vector":6945,"Word":6946,"sources":6947,"tgt":6948,"è¡":6949,"Ġvisible":6950,"onion":6951,"chars":6952,"Ġ\"@":6953,"Ġrecall":6954,"throw":6955,"Ġeas":6956,"Ġanalysis":6957,"Ġnoisy":6958,"extraction":6959,"Style":6960,"documents":6961,"olders":6962,"Ġactivations":6963,"matching":6964,"Ġvocabulary":6965,"ðĿĴ":6966,"CACHE":6967,"Ġsimilarity":6968,"ĠTemp":6969,"Ġradians":6970,"Ġbounds":6971,"ChatMessage":6972,"ĠIterable":6973,"ĠIterator":6974,"Ġretrieve":6975,"Ġcookies":6976,"Ġlerobot":6977,")`":6978,"220":6979,"Create":6980,"Det":6981,"End":6982,"FAI":6983,"II":6984,"Tra":6985,"hip":6986,"}'.":6987,"Ġvertices":6988,"andbox":6989,"Ġdense":6990,"quent":6991,"ĠCa":6992,"sampled":6993,"ĠBlock":6994,"ĠGra":6995,"scales":6996,"Ġstarting":6997,"PImage":6998,"ĠKarras":6999,"Ġiterations":7000,"shots":7001,"Ġepsilon":7002,"Builder":7003,"Ġcolumns":7004,"Unexpected":7005,"Ġ2048":7006,"shards":7007,"Ġthreading":7008,"Uns":7009,"far":7010,"false":7011,"gan":7012,"tre":7013,"xstart":7014,"insum":7015,"onnx":7016,"Ġff":7017,"distribution":7018,"Ġspeed":7019,"Ġ#################":7020,"ellow":7021,"ptr":7022,"Ġ(-":7023,"ets":7024,"ĠAI":7025,"keyboard":7026,"scene":7027,"ĠDB":7028,"ases":7029,"ĠInter":7030,"subprocess":7031,"Ġmatched":7032,"Selector":7033,"ä¸Ģ":7034,"biencoder":7035,"Ġrewards":7036,"ĠRaises":7037,"EMBED":7038,"76":7039,">\",":7040,"ipping":7041,"oising":7042,"{\"":7043,"å¼":7044,"Ġannot":7045,"Ġvisual":7046,"returns":7047,"Ġsr":7048,"Ġdinov":7049,"internal":7050,"Ġ18":7051,"assign":7052,"Ġunwrapped":7053,"ĠBert":7054,"([])<":7055,"='',":7056,"rotate":7057,"retries":7058,"Ġendpoint":7059,"ĠState":7060,"Ġtransformation":7061,"BrowserContext":7062,"Ġdesired":7063,"slots":7064,"slicing":7065,"ĠCUDA":7066,"!\"<":7067,"From":7068,"elapsed":7069,"uuid":7070,"robot":7071,"touch":7072,"imgs":7073,"isfile":7074,"Ġxs":7075,"Ġnumer":7076,"logit":7077,"ĠEval":7078,"ĠBlended":7079,"INST":7080,"124":7081,"Ġfunctional":7082,"ASK":7083,"Ġcodes":7084,"note":7085,"Ġpassing":7086,"curity":7087,"mpletions":7088,"kls":7089,"Ġmanager":7090,"segmentation":7091,"exceptions":7092,"riminator":7093,"WARNING":7094,"GREEN":7095,"DiscreteScheduler":7096,"Ġwaveform":7097,"29":7098,"Rep":7099,"]{":7100,"{{":7101,"ression":7102,"Ġngram":7103,"Ġdraw":7104,"quation":7105,"Ġdilation":7106,"mplex":7107,"Ġdebug":7108,"ĠDropout":7109,"infer":7110,"Ġcapture":7111,"Ġlayernorm":7112,"cols":7113,"LED":7114,"GELU":7115,"2048":7116,"ĠMessage":7117,"priate":7118,"Ġá´Ľ":7119,"Ġpackaging":7120,"åıĸ":7121,"ĠConfigMixin":7122,"metas":7123,".\"":7124,"TRI":7125,"Version":7126,"ky":7127,"ratios":7128,"zA":7129,"semester":7130,"release":7131,"Ġpayload":7132,"Ġfact":7133,"Ġnone":7134,"Ġaz":7135,"unpadded":7136,"Ġ14":7137,"ĠAda":7138,"wav":7139,"[::-":7140,"Ġ}\"\"\"<":7141,"Ġinstances":7142,"999":7143,"ĠResult":7144,"Ġoptimization":7145,"Ġpipelines":7146,"Ġaveraged":7147,"Ġperson":7148,"hands":7149,"separator":7150,"ought":7151,"Lowdim":7152,"menu":7153,"opacity":7154,"Ġffn":7155,"Ġinplace":7156,"Ġsources":7157,"unfinished":7158,"Ġder":7159,"(\"-":7160,"(\"_":7161,"Ġstrength":7162,"ĠMemory":7163,"Ġchallenge":7164,"\"))":7165,"Ġlists":7166,"quival":7167,"untie":7168,"encoderKL":7169,"ĠHere":7170,"asyncio":7171,"defaults":7172,"Ġmps":7173,"Ġ60":7174,"Ġepochs":7175,"Ġenvironments":7176,"Ġverify":7177,"termination":7178,"âĶĢâĶĢâĶĢâĶĢ":7179,"~~~~":7180,"sensitive":7181,"Ġwaits":7182,"ĠVAE":7183,"âĸĪ":7184,"EMBEDDING":7185,")\\":7186,"Char":7187,"Per":7188,"SU":7189,"oser":7190,"sparse":7191,"ancing":7192,"Ġpur":7193,"heel":7194,"Ġsay":7195,"Ġretain":7196,"Ġmodal":7197,"Ġconstructor":7198,"Ġ'/":7199,"ĠSkeleton":7200,"ĠNe":7201,"Ġcontiguous":7202,"Ġupsample":7203,"Ġruntime":7204,"ucing":7205,"registry":7206,"Ġusername":7207,"normalization":7208,"Ġbackend":7209,"Ġneedle":7210,"Ġallows":7211,"learn":7212,"Runtime":7213,"Ġinvok":7214,"connected":7215,"WebSocket":7216,"multiply":7217,"interpolate":7218,"ĠNormalize":7219,"Ġproperties":7220,"Ġguide":7221,"Flax":7222,"GTH":7223,"LS":7224,"Only":7225,"Video":7226,"bda":7227,"modal":7228,"uge":7229,"ceived":7230,"Ġcla":7231,"Ġbpy":7232,"andas":7233,"()])<":7234,"Ġlarger":7235,"ĠDagster":7236,"Ġunless":7237,"Connection":7238,"ĠEmitted":7239,"ĠGLOBAL":7240,"ĠĠĠĠĠĠĠĠĠĠĠĠĠĠĠĠĠĠĠĠĠĠĠĠĠĠĠĠĠĠĠĠĠ":7241,"Ġ48":7242,"Ġupper":7243,"Ġscaler":7244,"ĠStyle":7245,"Ġfeats":7246,"Ġpassword":7247,"ContextManager":7248,"ĠGPTModel":7249,"Completion":7250,"Ġstreaming":7251,"Left":7252,"icks":7253,"Ġdenom":7254,"skeletons":7255,"supported":7256,"Retro":7257,"Ġappropriate":7258,"ĠIndexedDataset":7259,"Ġcuda":7260,"avaScript":7261,"Ġmonitor":7262,".\",":7263,"Auto":7264,"CAL":7265,"Pass":7266,"Sdf":7267,"YEL":7268,"margs":7269,"mixed":7270,"}}":7271,"deep":7272,"Ġpk":7273,"Ġpin":7274,"Ġpeft":7275,"Ġcp":7276,"Ġsyn":7277,"ueue":7278,"ulator":7279,"Ġ()":7280,"ormalize":7281,"ĠTra":7282,"amo":7283,"ĠClass":7284,"using":7285,"ĠSingle":7286,"Ġthose":7287,"Ġsection":7288,"Ġsemantic":7289,"ĠRo":7290,"Ġjit":7291,"############":7292,"ualInversion":7293,"Ġcolors":7294,"double":7295,"Ġcommit":7296,"MODELS":7297,"shifted":7298,"Ġshards":7299,"Ġdownloading":7300,"Ġterm":7301,"Ġvirtual":7302,"ĠMegatronModule":7303,"lationships":7304,"Unsupported":7305,"YELLOW":7306,"ualInversionLoaderMixin":7307,"gal":7308,"nse":7309,"zarr":7310,"orn":7311,"Ġfaiss":7312,"Ġnobs":7313,"Ġ\"`":7314,"entries":7315,"Ġada":7316,"Ġbranch":7317,"Ġdat":7318,"Ġdatas":7319,"attach":7320,"paragraph":7321,"quared":7322,"Ġhop":7323,"Ġmedia":7324,"ĠLO":7325,"ĠPi":7326,"Convert":7327,"ĠGroup":7328,"ĠThese":7329,"Ġadvantages":7330,"025":7331,"))]<":7332,"Ġcollate":7333,"fns":7334,"ĠContext":7335,"');<":7336,"linearity":7337,"Ġexpr":7338,"handles":7339,"temporal":7340,"Ġexecuted":7341,"ĠGPUs":7342,"elements":7343,"middle":7344,"person":7345,"TimeoutError":7346,"Ġdeprecated":7347,"ynchronize":7348,"Ġmodify":7349,"LENGTH":7350,"Ġtags":7351,"amount":7352,"33":7353,"Writer":7354,"cis":7355,"fpath":7356,"include":7357,"roq":7358,"ited":7359,"asc":7360,"dilation":7361,"Ġnavigation":7362,"Ġbf":7363,"Ġtoo":7364,"serve":7365,"service":7366,"ĠTarget":7367,"Ġguess":7368,"pointer":7369,"classification":7370,"ĠOptimizer":7371,"Ġresources":7372,"ĠWait":7373,"Ġtesting":7374,"Ġcontrast":7375,"Ġupload":7376,"Ġmaybe":7377,"\\\").":7378,"Ġurllib":7379,"Decode":7380,"AND":7381,"cases":7382,"Ġsignific":7383,"Ġprovides":7384,"Ġbuilt":7385,"perience":7386,"escape":7387,"Ġinherits":7388,"Py":7389,"PASS":7390,"black":7391,"font":7392,"jor":7393,"Ð°":7394,"desc":7395,"utures":7396,"Ġfeed":7397,"Ġcy":7398,"Ġ\"#":7399,"Ġ\"\":<":7400,"Ġrecompute":7401,"Ġ'',":7402,"__).":7403,"Ġxyz":7404,"ĠFeed":7405,"Ġstable":7406,"most":7407,"Ġlik":7408,"ĠModelConfig":7409,"freqs":7410,"Ġconsumed":7411,"planner":7412,"Softmax":7413,"Ġquantized":7414,"iktoken":7415,")],":7416,"DS":7417,"DDP":7418,"UNet":7419,"hw":7420,"xml":7421,"å®":7422,"Ġpot":7423,"Ġflax":7424,"Ġfriend":7425,"Ġcot":7426,"Ġindi":7427,"const":7428,"ĠTrans":7429,"('_":7430,"Ġknow":7431,"rowth":7432,"nee":7433,"Ġneighbors":7434,"Info":7435,"Ġinterface":7436,"Ġglobals":7437,"Ġfails":7438,"ĠYour":7439,"vqvae":7440,"Ġcharacters":7441,"allocate":7442,"waveform":7443,"Ġsignificant":7444,")},":7445,">\"\"\",<":7446,"Ab":7447,"ACT":7448,"Call":7449,"Ent":7450,"basic":7451,"deepcopy":7452,"Ġpip":7453,"Ġ\"%":7454,"ings":7455,"oting":7456,"Ġwin":7457,"concat":7458,"Ġhuggingface":7459,"Ġ{:":7460,"\"<|":7461,"ĠFLAGS":7462,"bounds":7463,"obar":7464,"capacity":7465,"TEM":7466,"beg":7467,"Ġ{}:":7468,"}.{":7469,"MAGEN":7470,"accum":7471,"VICE":7472,"concepts":7473,"Ġrepresenting":7474,"accessible":7475,"interpolation":7476,"Scale":7477,"Ġreceive":7478,"ĠDDIMScheduler":7479,"Ġindicating":7480,"!<":7481,"*]":7482,":',":7483,">-":7484,"Sample":7485,"amazon":7486,"cot":7487,"square":7488,"Ġput":7489,"atest":7490,"problems":7491,"Ġdeg":7492,"----<":7493,"ĠBasic":7494,"faces":7495,"Ġ42":7496,"Ġmaterial":7497,"Ġscipy":7498,"Ġexperts":7499,"ĠGenerator":7500,"ĠLlamaFactory":7501,"BytesIO":7502,"Ġhandling":7503,"ĠLazy":7504,"PImageProcessor":7505,"Box":7506,"GM":7507,"PES":7508,"URE":7509,"hop":7510,"kh":7511,"margin":7512,"åŃ":7513,"Ġcell":7514,"chans":7515,"hest":7516,"Ġbit":7517,"pathlib":7518,"Ġear":7519,"ĠLight":7520,"Ġsec":7521,"anning":7522,"Ġuniform":7523,"ĠVi":7524,"\")[-":7525,"phone":7526,"INPUT":7527,"joco":7528,"DataFrame":7529,"computed":7530,"closed":7531,"Ġtopic":7532,"ĠStable":7533,"ĠStore":7534,"Ġfinally":7535,"Enter":7536,"Ġperforming":7537,"Checker":7538,"smpllib":7539,"Asset":7540,"Ġ[{\"":7541,"Ġexceed":7542,"07":7543,"?\",":7544,"_%":7545,"erc":7546,"roles":7547,"Ġsimp":7548,"Ġrevision":7549,"ully":7550,"Ġ(*,":7551,"couple":7552,"attempt":7553,"ĠTransform":7554,"icode":7555,"Ġhi":7556,"ĠAfter":7557,"Ġllava":7558,"pick":7559,"Ġanother":7560,"pairs":7561,"ĠGlobal":7562,"ĠReset":7563,"16384":7564,"beam":7565,"Ġrots":7566,"Ġextracted":7567,"Expected":7568,"Ġ10000":7569,"Ġperforms":7570,"persistent":7571,"Ġsavings":7572,"BOS":7573,"********":7574,"period":7575,"ĠCLIPTextModel":7576,"Ġhumanoid":7577,"TEMPLATE":7578,"Ġinvoked":7579,")}<":7580,".'":7581,"LR":7582,"VE":7583,"aive":7584,"eef":7585,"fit":7586,"ided":7587,"requ":7588,"Ġmixup":7589,"ortho":7590,"atting":7591,"Ġconcept":7592,"verbose":7593,"ĠAss":7594,"resources":7595,"Ġthree":7596,"Ġ`[":7597,"Ġassertion":7598,"Ġcomponents":7599,"newline":7600,"convention":7601,"interface":7602,"Ġactive":7603,"HTTP":7604,"TransformerLayer":7605,"prio":7606,"white":7607,"Ġclosed":7608,"cleaned":7609,"Ġhigher":7610,"Ġproperty":7611,"Be":7612,"Mid":7613,"][-":7614,"uator":7615,"}-{":7616,"Ġvery":7617,"inu":7618,"Ġts":7619,"retry":7620,"stderr":7621,"Ġpbar":7622,"edia":7623,"Ġcritic":7624,"imm":7625,"Ġ[]":7626,"datapath":7627,"Ġ+<":7628,"ĠSimple":7629,"Ġthresh":7630,"Ġ:],":7631,"Ġresource":7632,"rong":7633,"ONE":7634,"á´į":7635,"beams":7636,"ĠSearch":7637,"Ġcorrectly":7638,"Search":7639,"Ġbackbone":7640,"scripts":7641,"ĠĠĠĠĠĠĠĠĠĠĠĠĠĠĠĠĠĠĠĠĠĠĠĠĠĠĠĠĠĠĠĠĠĠĠĠĠĠĠĠĠĠĠĠĠĠ":7642,"Device":7643,"firefox":7644,"Ġdenoised":7645,"æľī":7646,"Workspace":7647,"VERSION":7648,"petition":7649,"ĠWebSocket":7650,"ColumnParallelLinear":7651,"ĠDeter":7652,"Ġoccur":7653,"88":7654,"94":7655,"Back":7656,"ah":7657,"eol":7658,"knn":7659,"mar":7660,"ocket":7661,"smooth":7662,"mpy":7663,"loor":7664,"ĠTHE":7665,"sha":7666,"Ġdevi":7667,"predicate":7668,"Ġseg":7669,"ĠFI":7670,"ĠFrozen":7671,"Ġshared":7672,"ĠOn":7673,"ĠGE":7674,"bsocket":7675,"Ġnamed":7676,"Ġcare":7677,"agents":7678,"modes":7679,"Ġrefer":7680,"gressive":7681,"Ġtransfer":7682,"package":7683,"buckets":7684,"istral":7685,"here":7686,"zone":7687,"æŀ":7688,"challenge":7689,"Ġfont":7690,"diamond":7691,"Ġnumel":7692,"Ġcent":7693,"Ġcsv":7694,"Ġ\"\",<":7695,"Ġsan":7696,"Ġamount":7697,"lazy":7698,"completed":7699,"prox":7700,"ĠTer":7701,"Ġgym":7702,"ĠAct":7703,"ĠSTA":7704,"endof":7705,"ĠFirst":7706,"eights":7707,"Ġstar":7708,"Ġrol":7709,"ĠVideo":7710,"([[":7711,"Ġdicts":7712,"postprocess":7713,"Ġruns":7714,"ĠKe":7715,"Ġhelpful":7716,"Ġgenerators":7717,"ĠBrowserType":7718,"Ġsimilar":7719,"SHandle":7720,"WORLD":7721,"BOX":7722,"mimp":7723,"Ġdeprecation":7724,"Ġhashlib":7725,"Ġtokentypes":7726,"Ġscreenshot":7727,"Ġsatis":7728,"RNG":7729,"usoidal":7730,"coupled":7731,"(\"\"":7732,"Prune":7733,"_):<":7734,"cf":7735,"rstrip":7736,"ti":7737,"wrench":7738,"gemm":7739,"Ġreversed":7740,"vised":7741,"attrib":7742,"profile":7743,"Ġgamma":7744,"Ġ<<":7745,"ĠScheduler":7746,"cluster":7747,"ĠPRO":7748,"ĠForm":7749,"ĠDATA":7750,"Ġgets":7751,"waitable":7752,"rotations":7753,"SES":7754,"ORS":7755,"vantage":7756,"roller":7757,"Ġextended":7758,"DATASET":7759,"MegatronModule":7760,"Ġsmaller":7761,"Ġobservations":7762,"RANKS":7763,"ĠLocal":7764,"Ġlearned":7765,"Ġhydra":7766,"Normalizer":7767,"Ġfriendly":7768,"Bo":7769,"Events":7770,"Non":7771,"Total":7772,"[_":7773,"big":7774,"mcs":7775,"Ġema":7776,"semantic":7777,"reci":7778,"Ġcat":7779,"Ġcod":7780,"Ġ\"$":7781,"Ġmuch":7782,"Ġwatermark":7783,"extension":7784,"completions":7785,"()[:-":7786,"Ġequival":7787,"ĠCO":7788,"ĠPeft":7789,"Ġlatest":7790,"Ġuseful":7791,"Conf":7792,"Ġyaml":7793,"faiss":7794,"Ġcontents":7795,"pages":7796,"Initialize":7797,"lining":7798,"locators":7799,"foobar":7800,"okenizer":7801,"NAMES":7802,"ĠDeepSpeed":7803,"Ġpacked":7804,"ĠTaskState":7805,"ĠĠĠĠĠĠĠĠĠĠĠĠĠĠĠĠĠĠĠĠĠĠĠĠĠĠĠĠĠĠĠĠĠĠĠĠĠĠĠĠĠĠĠĠĠĠĠĠĠ":7806,"ĠTextualInversionLoaderMixin":7807,"Ġcomputing":7808,"Available":7809,"Ġdedup":7810,"ĠBlendedMegatron":7811,"endoftext":7812,"Gather":7813,"LN":7814,"SW":7815,"Warning":7816,"average":7817,"cnn":7818,"çº":7819,"Ġ^":7820,"research":7821,"Ġcr":7822,"orth":7823,"ollama":7824,"Ġdivide":7825,"ĠPrint":7826,"lying":7827,"Ġtokenized":7828,"ĠĠĠĠĠĠĠĠĠĠĠĠĠĠĠĠĠĠĠĠĠĠĠĠĠĠĠĠĠĠĠĠĠĠĠĠĠĠĠĠĠĠĠ":7829,"Ġbyte":7830,"reader":7831,"Ġleave":7832,"Ġtech":7833,"Selection":7834,"THER":7835,"Ġrefresh":7836,"tables":7837,"Ġtranslation":7838,"Ġrows":7839,"Ġmanage":7840,"Ġapprox":7841,"AssertionError":7842,"Ġconnected":7843,"Ġcomment":7844,"credentials":7845,")')<":7846,"66":7847,"89":7848,"GRA":7849,"MO":7850,"[(":7851,"hyper":7852,"iod":7853,"lue":7854,"mq":7855,"vh":7856,"watermark":7857,"incorrect":7858,"Ġ=================":7859,"Ġcard":7860,"Ġrescale":7861,"Ġaux":7862,"Ġ(:":7863,"(\",":7864,"Ġhp":7865,"ĠSdf":7866,"waxis":7867,"inity":7868,"ĠRE":7869,"001":7870,"unknown":7871,"ircle":7872,"newaxis":7873,"DEBUG":7874,"poster":7875,"))[":7876,"Ġurls":7877,"({<":7878,"quality":7879,"ĠAutoencoderKL":7880,"MPL":7881,"Ġ$\\\\":7882,"Ġá´Ģ":7883,"Named":7884,"404":7885,"autoresume":7886,"ĠTypeError":7887,"Scaler":7888,"ĠIdentity":7889,"éĹ®":7890,"'re":7891,")[:,":7892,"39":7893,"AMPLE":7894,"Clo":7895,"Write":7896,"hist":7897,"hyp":7898,"ov":7899,"wn":7900,"xl":7901,"å°":7902,"åĩ":7903,"éĩ":7904,"Ġpower":7905,"Ġfoc":7906,"Ġconf":7907,"embedder":7908,"ocent":7909,"Ġcho":7910,"ĠRead":7911,"Ġgeneral":7912,"Ġcompress":7913,"PTION":7914,"Ġpercent":7915,"colors":7916,"á´Ħ":7917,"ĠExpected":7918,"responses":7919,"Ġ{})<":7920,"Ġ...')<":7921,"ĠJavaScript":7922,"ä¸º":7923,"Ġimplements":7924,"Generate":7925,"riteria":7926,"224":7927,"\"[!]":7928,"timestamps":7929,"orizont":7930,"Ġregistered":7931,"StringFormatter":7932,"ĠAgentPrune":7933,"PreTrainedTokenizer":7934,"Ġmodified":7935,"Ġsaturation":7936,"åĽŀ":7937,"Ġinterpolation":7938,"Ġrgb":7939,"Ġdeviation":7940,"éĹ®é¢ĺ":7941,"Adapter":7942,"DModel":7943,"Jo":7944,"Say":7945,"bine":7946,"implement":7947,"pdrop":7948,"rs":7949,"uan":7950,"wik":7951,"»åĬ":7952,"als":7953,"Ġssim":7954,"urses":7955,"ummary":7956,"(\"[":7957,"ĠSin":7958,"denormalize":7959,"workflow":7960,"communication":7961,"conversation":7962,"Ġcandidate":7963,"Ġ...]<":7964,"issues":7965,"others":7966,"Ġinstant":7967,"Ġdisk":7968,"disk":7969,"Ġreader":7970,"ĠĠĠĠĠĠĠĠĠĠĠĠĠĠĠĠĠĠĠĠĠĠĠĠĠĠĠĠĠĠĠĠĠĠĠĠĠĠĠĠĠĠĠĠ":7971,"Ġdetached":7972,"LocatorAssertions":7973,"Leaky":7974,"early":7975,"ĠCLIPVision":7976,"Ġscreen":7977,"Ġeffective":7978,"LUMN":7979,"LeakyReLU":7980,"DM":7981,"plex":7982,"wallet":7983,"Ġ...,":7984,"Ġnd":7985,"construct":7986,"Ġhar":7987,").\"\"\"<":7988,"Ġ`\"":7989,"Ġpreds":7990,"\")]<":7991,"Ġcontextlib":7992,"scalar":7993,"Ġattentions":7994,"collis":7995,"ĠInference":7996,"Ġsubmit":7997,"Ġusually":7998,"Session":7999,"Ġtrajectories":8000,"DiffusionS":8001,"EXP":8002,"Ġclosure":8003,"accounts":8004,"++++":8005,"ĠDiffusionPipeline":8006,"Ġremaining":8007,"Ġissues":8008,"Ġgives":8009,"æĸĩ":8010,"Core":8011,"La":8012,"[~":8013,"bmm":8014,"flops":8015,"gacy":8016,"orary":8017,"Ġpandas":8018,"inger":8019,"Ġwon":8020,"come":8021,"coef":8022,"processes":8023,"Ġconcurrent":8024,"__)<":8025,"Ġ\"\"\"()":8026,"ĠSp":8027,"wap":8028,"ĠImagen":8029,"ositional":8030,"ypedDict":8031,"Ġgeneric":8032,"npz":8033,"Ġcomputed":8034,"RECT":8035,"ifiers":8036,"ificate":8037,"Provide":8038,"Ġtracker":8039,"CHAN":8040,"ckpts":8041,"quantization":8042,"Ġreducing":8043,"ĠCLIPImageProcessor":8044,"Ġmicrobatch":8045,"ĠRotary":8046,"limiter":8047,"Region":8048,"ĠDistributedDataParallel":8049,"Ġarchive":8050,"Ġconnect":8051,"built":8052,"Ġrollout":8053,"Ww":8054,"cancel":8055,"dino":8056,"hm":8057,"Î·":8058,"erun":8059,"Ġnb":8060,"Ġcallable":8061,"Ġsolve":8062,"exact":8063,"coders":8064,"ĠTYPE":8065,"about":8066,"ĠCall":8067,"pretraining":8068,"Ġlogit":8069,"Ġsharding":8070,"tokenized":8071,"Ġroles":8072,"ĠEmbed":8073,"posed":8074,"127":8075,"Projection":8076,"oice":8077,"Ġexplicit":8078,"gmentation":8079,"finetune":8080,"finetuning":8081,"ĠResidual":8082,"effect":8083,"multimodal":8084,"Ġwrap":8085,"Ġwrapped":8086,"destination":8087,"ĠDPM":8088,"Ġservice":8089,"ĠCLIPTokenizer":8090,"Ġnsfw":8091,"çŃĶ":8092,"ĠLightRAG":8093,"DiffusionSchedulers":8094,"LDER":8095,"PH":8096,"Solver":8097,"]\")<":8098,"focus":8099,"gits":8100,"ltk":8101,"Ġtiktoken":8102,"ceive":8103,"heatmap":8104,"Ġ\"\\\\":8105,"Ġbanner":8106,"igger":8107,"Ġconcat":8108,"__':<":8109,"ication":8110,"preview":8111,"Ġouter":8112,"wai":8113,"ĠFin":8114,"Ġcoeff":8115,"ĠVae":8116,"chunked":8117,"colon":8118,"Returns":8119,"Ġ...'.":8120,"warm":8121,"Ġtrust":8122,"executable":8123,"Point":8124,"audioset":8125,"Ġefficient":8126,"ShardedStrategy":8127,"needle":8128,"Ġreceived":8129,"HOST":8130,"STATE":8131,"movement":8132,"vidence":8133,"ĠCheckpointing":8134,"Ġagainst":8135,"ĠRetrieve":8136,"Ġ([`":8137,"ĠPreTrainedModel":8138,"Ġcoding":8139,"ocentric":8140,"plexity":8141,"ĠVaeImageProcessor":8142,".'.":8143,"255":8144,"BE":8145,"Enum":8146,"Func":8147,"MPU":8148,"VQ":8149,"Widget":8150,"`].":8151,"gonal":8152,"holders":8153,"nv":8154,"sat":8155,"}`":8156,"Ġ],":8157,"deterministic":8158,"Ġnullable":8159,"()`.<":8160,"Ġ[])<":8161,"==<":8162,"Ġhad":8163,"ĠLanguage":8164,"ĠWindow":8165,"teger":8166,"compress":8167,"Required":8168,"Ġclassification":8169,"Ġconditional":8170,"graphs":8171,"Ġfinetune":8172,"itect":8173,"stantiate":8174,"Ġstrides":8175,"Ġcharset":8176,"Ġfiltered":8177,"Ġproduce":8178,"ĠAdam":8179,"ĠConfiguration":8180,"Ġserial":8181,"æĪĲ":8182,"WEIGHTS":8183,"requency":8184,"*.":8185,".'''<":8186,"EVAL":8187,"Fin":8188,"]`":8189,"elastic":8190,"fuser":8191,"oring":8192,"reach":8193,"ane":8194,"Ġpromise":8195,"Ġindic":8196,"Ġadapter":8197,"thresh":8198,"ĠFused":8199,"ocap":8200,"Ġlogprobs":8201,"fork":8202,"floating":8203,"netBlock":8204,"REA":8205,"***":8206,"detail":8207,"utilities":8208,"ĠJo":8209,"Ġreading":8210,"ĠShardedObject":8211,"rimary":8212,"Ġtimestamps":8213,"letter":8214,"ĠDDIM":8215,"CHECKING":8216,">\"\"\"":8217,"CTION":8218,"FLAGS":8219,"MUL":8220,"aces":8221,"catch":8222,"cpp":8223,"such":8224,"wner":8225,"}}<":8226,"ons":8227,"det":8228,"Ġpm":8229,"Ġfmt":8230,"Ġnpt":8231,"Ġam":8232,"urations":8233,"ulated":8234,"todo":8235,"ĠTORCH":8236,"Ġgaussians":8237,"(\"`":8238,"abort":8239,"ĠASC":8240,"ĠStop":8241,"Ġsever":8242,"perform":8243,"Ġanalyze":8244,"filepath":8245,"ĠBack":8246,"ĠVision":8247,"combin":8248,"avasc":8249,"ivative":8250,"Inpaint":8251,"Ġitertools":8252,"Ġurlparse":8253,"Ġ\"<|":8254,"accard":8255,"POINT":8256,"BaseModel":8257,"mediately":8258,"Ġwaiting":8259,"Ġdisables":8260,"ĠLayerType":8261,"fewshot":8262,"Ġdeprecate":8263,"Ġmodifiers":8264,"writing":8265,"ĠDetermine":8266,"avascript":8267,")],<":8268,"/%":8269,"Row":8270,"bil":8271,"ball":8272,"ied":8273,"iLU":8274,"ratch":8275,"rins":8276,"voxel":8277,"wen":8278,"yles":8279,"yellow":8280,"Ġes":8281,"Ġlib":8282,"alth":8283,"Ġpdb":8284,"Ġface":8285,"Ġ\"\".":8286,"Ġsandbox":8287,"Ġrepetition":8288,"Ġosp":8289,"lies":8290,"ĠTRA":8291,"ism":8292,"Ġ{{":8293,"Ġequation":8294,"Ġdeterm":8295,"ĠPosition":8296,"ĠIdefics":8297,"Ġankle":8298,"logvar":8299,"continuous":8300,"ĠEngine":8301,"ĠWrite":8302,"ĠBERT":8303,"blocking":8304,"Ġalloc":8305,"material":8306,"Ġsuperclass":8307,"Ġperiod":8308,"joinpath":8309,"Ġrequirements":8310,"ĠInstruction":8311,"dispose":8312,"LAY":8313,"ParallelRegion":8314,"learned":8315,"packages":8316,"Ġpairs":8317,"ðĿĳ":8318,"plugin":8319,"ĠUpload":8320,"ĠTraining":8321,"cyan":8322,"ough":8323,"æį®":8324,"Depend":8325,"åº¦":8326,"silu":8327,"ĠASCII":8328,"\"(":8329,"+)":8330,"/\",":8331,"AG":8332,"IGNORE":8333,"Ve":8334,"Zero":8335,"blog":8336,"duct":8337,"ham":8338,"mmap":8339,"temb":8340,"relation":8341,"deploy":8342,"Ġsquare":8343,"urface":8344,"admin":8345,"Ġwidget":8346,"Ġhard":8347,"Ġhorizon":8348,"clus":8349,"ĠIgn":8350,"ules":8351,"ĠMet":8352,"Ġrobot":8353,"licies":8354,"Ġaltern":8355,"ivers":8356,"seqs":8357,"archive":8358,"ORY":8359,"Ġmov":8360,"LAMA":8361,"ROOT":8362,"CTYPE":8363,"aviate":8364,"Ġsuccessful":8365,"Ġboolean":8366,"Ġdistances":8367,"BACK":8368,"rupt":8369,"lbow":8370,"slices":8371,"ĠHowever":8372,"ControlNetModel":8373,"Ġoccurred":8374,"ĠTRAIN":8375,"Crop":8376,"Date":8377,"Max":8378,"Pl":8379,"Tok":8380,"bad":8381,"einsum":8382,"floor":8383,"æİ":8384,"Ġtanh":8385,"rector":8386,"removed":8387,"related":8388,"loo":8389,"Ġcumulative":8390,"Ġrel":8391,"pection":8392,"unused":8393,"resolutions":8394,"configs":8395,"Ġcov":8396,"ĠIF":8397,"ocation":8398,"piece":8399,"('>":8400,"gated":8401,"ĠNet":8402,"viewless":8403,"Ġindexmap":8404,"Ġless":8405,"ĠExec":8406,"convs":8407,"Ġzarr":8408,"ARK":8409,"Ġones":8410,"executor":8411,"descriptions":8412,"clicked":8413,"partitions":8414,"Ġarrays":8415,"Toe":8416,"Colors":8417,"Ġabsolute":8418,"Ġ\"[!]":8419,"CESS":8420,"candidates":8421,"ĠKarrasDiffusionSchedulers":8422,"Ġmodality":8423,"orthogonal":8424,"ĠGELU":8425,"posterior":8426,"orizontal":8427,")-":8428,"/<":8429,"44":8430,"72":8431,"Action":8432,"Dir":8433,"Feat":8434,"GER":8435,"Ho":8436,"Mat":8437,"Missing":8438,"Open":8439,"][:":8440,"bed":8441,"futures":8442,"hard":8443,"xz":8444,"xformers":8445,"zh":8446,"É¢":8447,"è½":8448,"inria":8449,"remain":8450,"rewrite":8451,"records":8452,"itting":8453,"mps":8454,"Ġpr":8455,"Ġsil":8456,"Ġmargin":8457,"Ġbal":8458,"uses":8459,"Ġstages":8460,"=\"#":8461,"Ġunexpected":8462,"processors":8463,"Ġposter":8464,"swiglu":8465,"ypass":8466,"evals":8467,"splitext":8468,"works":8469,"Ġindexes":8470,"byte":8471,"Ġscales":8472,"expr":8473,"Ġcaller":8474,"Protocol":8475,"ĠStart":8476,"Attribute":8477,"aped":8478,"Ġattempt":8479,"ĠTimeout":8480,"Executor":8481,"('.')[":8482,"PPING":8483,"guide":8484,"NDMScheduler":8485,"SAGE":8486,"Ġformatting":8487,"prime":8488,"Ġevaluated":8489,"Ġequivalent":8490,"Edit":8491,"Payload":8492,"System":8493,"fmt":8494,"spect":8495,"vt":8496,"æ¡":8497,"ĴĮ":8498,"Ġside":8499,"gether":8500,"ĠSend":8501,"ĠSQL":8502,"preference":8503,"ĠLear":8504,"ĠPad":8505,"spaces":8506,"ĠFaiss":8507,"tensorboard":8508,"Ġlogvar":8509,"Ġimagecodecs":8510,"Ġbatched":8511,"ĠVocab":8512,"ĠGo":8513,"Ġdouble":8514,"ĠHandle":8515,"hood":8516,"agonal":8517,"Ġmomentum":8518,"Ġactually":8519,"MAP":8520,"MAT":8521,"dbl":8522,"ategies":8523,"ATCH":8524,"Ġtransition":8525,"packed":8526,"Ġfilenames":8527,"unicate":8528,"StableDiffusionPipelineOutput":8529,"ÉªÉ´":8530,"('./":8531,"Ġpixels":8532,"accessibility":8533,"grip":8534,"redirects":8535,"ĠDDPMScheduler":8536,"Iteration":8537,"dispatcher":8538,"Service":8539,"WordPiece":8540,"ĠFeedForward":8541,"Ġsatisfy":8542,"Dependency":8543,"Red":8544,"Safety":8545,"SYS":8546,"WS":8547,"duplicate":8548,"glu":8549,"hing":8550,"incre":8551,"recursive":8552,"arse":8553,"Ġng":8554,"extended":8555,"conda":8556,"Ġasynchronous":8557,"verify":8558,"ĠPipeline":8559,"Ġsen":8560,"grade":8561,"tokenization":8562,"ialog":8563,"Ġkernels":8564,"Ġtextarea":8565,"Ġcontexts":8566,"Ġnoins":8567,"ĠOptionalDependency":8568,"specific":8569,"posts":8570,"')[-":8571,"overflow":8572,"reqs":8573,"permuted":8574,"Ġcalculation":8575,"ä¸Ń":8576,"created":8577,"CKER":8578,"NotAvailable":8579,"ĠAnswer":8580,"Ġaffine":8581,"âĢĻ":8582,"ĠDisable":8583,"ĠBytesIO":8584,"UTF":8585,"Ġshear":8586,"TIMEOUT":8587,"jpeg":8588,"uplicated":8589,"bilinear":8590,"Ġnoinspection":8591,"ĠOptionalDependencyNotAvailable":8592,"./":8593,"65":8594,"Drop":8595,"Episode":8596,"Int":8597,"Memory":8598,"XL":8599,"`](":8600,"frozen":8601,"ring":8602,"sr":8603,"speed":8604,"ä¹":8605,"æī":8606,"incr":8607,"aternion":8608,"ctime":8609,"divide":8610,"Ġrecover":8611,"Ġrecommend":8612,"entence":8613,"Ġmb":8614,"Ġmul":8615,"Ġmotions":8616,"Ġbbox":8617,"Ġbrightness":8618,"adlr":8619,"imit":8620,"Ġ'')<":8621,"Ġhue":8622,"namespace":8623,"ĠLora":8624,"Ġxy":8625,"Ġresolved":8626,"ĠUsage":8627,"caps":8628,"Ġtextual":8629,"ĠVit":8630,"Ġkeywords":8631,"nnx":8632,"offline":8633,"aystack":8634,"Ġqs":8635,"DEVICE":8636,"Ġgrouped":8637,"components":8638,"Ġmoment":8639,"Ġintersection":8640,"={'":8641,"dropdown":8642,"initializer":8643,"Ġattached":8644,"Ġnonlocal":8645,"Ġimpro":8646,"Ġembs":8647,"Runner":8648,"planes":8649,"Ġpcd":8650,"Ġhooks":8651,"2205":8652,">\"":8653,"APP":8654,"Cre":8655,"Dec":8656,"Equal":8657,"GO":8658,"Queue":8659,"Success":8660,"cip":8661,"hit":8662,"nested":8663,"suc":8664,"Ġâ":8665,"ini":8666,"sequent":8667,"geocentric":8668,"Ġfan":8669,"Ġfusion":8670,"asis":8671,"Ġollama":8672,"adv":8673,"getattr":8674,"ĠTP":8675,"____":8676,"maps":8677,"magnitude":8678,"outube":8679,"Ġhm":8680,"Ġdeterministic":8681,"scape":8682,"Ġ`{":8683,"tax":8684,"Ġvoxel":8685,"Ġchk":8686,"corer":8687,"Ġdevices":8688,"Ġmasking":8689,"Ġlats":8690,"commerc":8691,"transitions":8692,"Ġsubmodule":8693,"Ġextractor":8694,"Ġmatmul":8695,"Extra":8696,"buttons":8697,"Ġfilters":8698,"Ġ123":8699,"Ġhandles":8700,"Ġversions":8701,"EXAMPLE":8702,"optimization":8703,"Ġmanually":8704,"ĠEncode":8705,"MSNorm":8706,"Ġgraphs":8707,"trial":8708,"ĠAdjust":8709,"Args":8710,"éĢģ":8711,"compatible":8712,"SWER":8713,"ingerprint":8714,"ĠASCIIColors":8715,"SafetyChecker":8716,"commercial":8717,"Async":8718,"SiLU":8719,"UAL":8720,"When":8721,"eg":8722,"jobs":8723,"oot":8724,"rust":8725,"vdb":8726,"åĴĮ":8727,"ç®":8728,"rosa":8729,"Ġfit":8730,"lookup":8731,"Ġcategory":8732,"Ġcql":8733,"Ġremote":8734,"rap":8735,"ading":8736,"unroute":8737,"umb":8738,"stron":8739,"coin":8740,"Ġproper":8741,"Ġimgs":8742,"('\"":8743,"anny":8744,"Ġrespect":8745,"Ġunwrap":8746,"ypal":8747,"phi":8748,"ariable":8749,"lerobot":8750,"positional":8751,"astic":8752,"MAPPING":8753,"Ġpick":8754,"partitioned":8755,"Namespace":8756,"Ġgelu":8757,"ĠChunk":8758,"cursively":8759,"secret":8760,"Ġlonger":8761,"ĠThere":8762,"Multistep":8763,"MESSAGE":8764,"facts":8765,"ĠLocator":8766,"megaConf":8767,"Ġhappens":8768,"ReduceOp":8769,"âĸĪâĸĪ":8770,"Ġclamp":8771,"ĠPipes":8772,"clusive":8773,"\".<":8774,"Auth":8775,"Final":8776,"JOR":8777,"PY":8778,"Pix":8779,"Rot":8780,"_\"":8781,"beat":8782,"dones":8783,"fct":8784,"kernels":8785,"money":8786,"spectrogram":8787,"Ġvertex":8788,"atic":8789,"revision":8790,"alone":8791,"Ġide":8792,"unbind":8793,"laced":8794,"Ġwd":8795,"Ġforms":8796,"Ġdump":8797,"coord":8798,"setdefault":8799,"iling":8800,"Ġconversion":8801,"(\"**/*":8802,"aming":8803,"keyA":8804,"preprocessing":8805,"Ġ201":8806,"Ġprotocol":8807,"omial":8808,"Ġintent":8809,"querySelector":8810,"conditional":8811,"ryan":8812,"Ġcaptions":8813,"DED":8814,"Ġhel":8815,"Ġcheckbox":8816,"Ġspan":8817,"Ġinitializer":8818,"MAJOR":8819,"Ġoptimizable":8820,"TransformerBlock":8821,"istration":8822,"ummyObject":8823,"Ġassetdir":8824,"avier":8825,"ValueWith":8826,"TYPES":8827,"gorithms":8828,"augment":8829,"rupted":8830,"192":8831,"realpath":8832,"ÊĢá´ĩ":8833,"ĠFileNotFoundError":8834,"Thread":8835,"longest":8836,"separate":8837,"Ġpermuted":8838,"Default":8839,"QueryParam":8840,"Ġlikely":8841,"EXPERT":8842,"Ġseveral":8843,"ValueWithRank":8844,"$\",":8845,")+":8846,"Api":8847,"NT":8848,"`:<":8849,"bay":8850,"break":8851,"dynamic":8852,"fb":8853,"gler":8854,"public":8855,"qdrant":8856,"schema":8857,"ÊĻ":8858,"Ġembeds":8859,"ĠðŁ":8860,"chastic":8861,"digits":8862,"Ġssl":8863,"Ġreshape":8864,"expi":8865,"expose":8866,"Ġthemes":8867,"unity":8868,"(\">":8869,"ĠAuth":8870,"ĠACT":8871,"ĠCode":8872,"ĠCourse":8873,"Ġmesh":8874,"Ġ21":8875,"Ġmade":8876,"ĠICT":8877,"Ġknn":8878,"ĠWill":8879,"paypal":8880,"reduction":8881,"bsite":8882,"Ġ400":8883,"ĠSection":8884,"Segmentation":8885,"DOCTYPE":8886,"pipes":8887,"biased":8888,"raggler":8889,"screenshot":8890,"Ġreplay":8891,"Ġresnets":8892,"Color":8893,"Ġrepresents":8894,"ĠChannel":8895,"AttnProcessor":8896,"Ġuuid":8897,"elems":8898,"ĠKeyError":8899,"interleaved":8900,"Ġnullcontext":8901,"turbo":8902,"è¡Į":8903,"'`":8904,")[...,":8905,"=(<":8906,"Awaitable":8907,"Motion":8908,"Owner":8909,"Target":8910,"Unet":8911,"bc":8912,"hp":8913,"rho":8914,"å¾":8915,"Ġ))<":8916,"Ġtxt":8917,"rearrange":8918,"chor":8919,"exe":8920,"uru":8921,"confidence":8922,"quote":8923,"cheme":8924,"ĠSkip":8925,"oregressive":8926,"pyplot":8927,"tech":8928,"neighbours":8929,"Ġranges":8930,"Ġsocket":8931,"collect":8932,"intersection":8933,"fov":8934,"ĠJson":8935,"ĠProgram":8936,"EXT":8937,"ĠEnable":8938,"Masked":8939,"renderer":8940,"pcd":8941,"ĠĠĠĠĠĠĠĠĠĠĠĠĠĠĠĠĠĠĠĠĠĠĠĠĠĠĠĠĠĠĠĠĠĠĠĠĠĠĠĠĠĠĠĠĠĠĠĠĠĠ":8942,"slug":8943,"Temp":8944,".*?":8945,"operations":8946,"Ġblk":8947,"MultistepScheduler":8948,"\"^":8949,">'<":8950,"Ass":8951,"Could":8952,"JSHandle":8953,"MI":8954,"SQL":8955,"bryan":8956,"gloo":8957,"mismatch":8958,"tuning":8959,"åľ":8960,"èµ":8961,"Ġerr":8962,"orized":8963,"Ġtait":8964,"rock":8965,"Ġnx":8966,"Ġsort":8967,"otes":8968,"intain":8969,"getLogger":8970,"Ġhq":8971,"Ġhist":8972,"ĠCan":8973,"ĠSH":8974,"nums":8975,"Ġmaking":8976,"Ġcopied":8977,"pause":8978,"\")),<":8979,"Ġqvec":8980,"readlines":8981,"Ġupsert":8982,"Ġlevels":8983,"Ġlegacy":8984,"Ġinterval":8985,"Ġprocessors":8986,"binding":8987,"selective":8988,"ĠParameter":8989,"insky":8990,"Ġconvolution":8991,"ANSWER":8992,"paste":8993,"ĠQuaternion":8994,"ServerConfig":8995,"âĢĶ":8996,"calculate":8997,"TRACKER":8998,"TESTS":8999,"following":9000,"è®¡":9001,"WORKING":9002,"Choice":9003,"Ġelem":9004,"MAGENTA":9005,"MULTI":9006,"'>":9007,")[:":9008,".\".":9009,"230":9010,"At":9011,"Basic":9012,"First":9013,"Vec":9014,"[/":9015,"echo":9016,"ftime":9017,"guess":9018,"kp":9019,"wheel":9020,"xlabel":9021,"ĠÐ":9022,"ining":9023,"Ġreprod":9024,"raise":9025,"Ġtopo":9026,"strftime":9027,"()}":9028,"Ġdistribute":9029,"ĠFore":9030,"[:]":9031,"licas":9032,"RATE":9033,"explanation":9034,"Ġpaddings":9035,"ategories":9036,"Ġdiffs":9037,"Listener":9038,"Ġapplication":9039,"ä¸į":9040,"ssib":9041,"Ġabstract":9042,"warnings":9043,"ï¼ļ":9044,"RequestException":9045,"humanml":9046,"ĠĠĠĠĠĠĠĠĠĠĠĠĠĠĠĠĠĠĠĠĠĠĠĠĠĠĠĠĠĠĠĠĠĠĠĠĠĠĠĠĠĠĠĠĠĠĠĠĠĠĠĠ":9047,"Ġintegers":9048,"mission":9049,"Worker":9050,"Ġincluded":9051,"Ġmultimodal":9052,"FORM":9053,"=\"\")<":9054,"Ġbeginning":9055,"Ġfunctionality":9056,"Ġdetermine":9057,"(',":9058,"*(":9059,"ARE":9060,"Render":9061,"Using":9062,"dst":9063,"ee":9064,"hml":9065,"ian":9066,"ike":9067,"urable":9068,"wi":9069,"watch":9070,"ä¿":9071,"Ġvideos":9072,"analyze":9073,"leted":9074,"chine":9075,"Ġfine":9076,"Ġfmax":9077,"Ġmmap":9078,"eli":9079,"ptive":9080,"strength":9081,"()}\"<":9082,"ĠCore":9083,"keyword":9084,"precomp":9085,"Ġ28":9086,"Ġ224":9087,"Ġoutside":9088,"Ġrmat":9089,"Ġrather":9090,"Ġimmediately":9091,"Ġrobomimic":9092,"contents":9093,"stributions":9094,"moving":9095,"ĠInvalid":9096,"Init":9097,"houlder":9098,"ModuleSpec":9099,"docstrings":9100,"ĠConsole":9101,"Ġ...]":9102,"factors":9103,"docker":9104,"ĠParams":9105,"decoded":9106,"Ġrepr":9107,"ĠDecoder":9108,"Ġassigned":9109,"ĠNOT":9110,"loyd":9111,"ShardedTensor":9112,"Array":9113,"Ġarchitect":9114,"chooser":9115,"ViT":9116,"ĠSoftware":9117,"SCRI":9118,"Ġtraceback":9119,"Ġhappen":9120,"ĠFrozenDict":9121,"implementation":9122,"ĠSince":9123,"$$":9124,"IZ":9125,"]])":9126,"az":9127,"ddim":9128,"nq":9129,"oulder":9130,"passed":9131,"qvel":9132,"xs":9133,"{}":9134,"¨éĢģ":9135,"ä¼":9136,"encoders":9137,"ching":9138,"Ġcmd":9139,"Ġsol":9140,"raction":9141,"roma":9142,"ĠTr":9143,"Ġelastic":9144,"Ġthink":9145,"pies":9146,"Ġanthropic":9147,"Console":9148,"contrib":9149,"ĠEnum":9150,"mble":9151,"Ġweighted":9152,"á´ĺ":9153,"Ġstarted":9154,"etails":9155,"ĠStream":9156,"Distributed":9157,"Example":9158,"editor":9159,"ataload":9160,"tks":9161,"Ġfollowed":9162,"Ġskipped":9163,"COPE":9164,"SHIF":9165,"|>\\":9166,"Ġarp":9167,"Original":9168,"Mock":9169,"ĠKeyboard":9170,"Ġ=============================================<":9171,"Ġplaceholder":9172,"Ġexceeded":9173,"LOGPS":9174,"ĠString":9175,"Ġdestination":9176,"ĠGLOBALS":9177,"Ġdenominator":9178,"MODELSCOPE":9179,"ĠSTATES":9180,"combined":9181,"SHIFTED":9182,"(#":9183,"/\"<":9184,">################################":9185,"BIN":9186,"Ld":9187,"Lay":9188,"Top":9189,"TRAN":9190,"br":9191,"drag":9192,"flower":9193,"nll":9194,"osp":9195,"à¹":9196,"Ġer":9197,"injected":9198,"ertain":9199,"received":9200,"decorator":9201,"Ġfmin":9202,"Ġresample":9203,"Ġtheta":9204,"Ġiframe":9205,"Ġtogether":9206,"Ġdro":9207,"constra":9208,"than":9209,"fromarray":9210,"__,":9211,"Ġgri":9212,"Ġhml":9213,"resses":9214,"ĠDep":9215,"Ġrename":9216,"Ġpretraining":9217,"ront":9218,"switch":9219,"started":9220,"Ġnamespace":9221,"views":9222,"ĠHead":9223,"SEP":9224,"Configuration":9225,"DICT":9226,"Ġinterle":9227,"Ġpyrogram":9228,"Ġdownloaded":9229,"Ġscatter":9230,"Ġ80":9231,"stacks":9232,"marker":9233,"Ġtempfile":9234,"ĠAttribute":9235,"downloads":9236,"Ġpooling":9237,"LoRA":9238,"487":9239,"Ġbuckets":9240,"Ġmiddle":9241,"ĠAlso":9242,"Ġdialogue":9243,"Update":9244,"links":9245,"ĠPost":9246,"Ġprobably":9247,"ĠOllamaServerConfig":9248,"waypoint":9249,"Ġconsistency":9250,"Ġexpire":9251,");":9252,"*):<":9253,",),<":9254,"Ada":9255,"JE":9256,"MENT":9257,"Score":9258,"Tree":9259,"\\\":":9260,"bones":9261,"hu":9262,"mma":9263,"munk":9264,"nth":9265,"synchronize":9266,"ying":9267,"åĮ":9268,"recommend":9269,"><!":9270,"chem":9271,"chdir":9272,"Ġpublish":9273,"digest":9274,"peak":9275,"Ġbasic":9276,"coordin":9277,"think":9278,"()),<":9279,"ĠCurrent":9280,"ĠLLa":9281,"\"]))<":9282,"scratch":9283,"Ġrho":9284,"Ġloguru":9285,"ĠOver":9286,"ĠMan":9287,"posit":9288,"ĠNow":9289,"phore":9290,"contentloaded":9291,"SED":9292,"LITY":9293,"LECT":9294,"ARGET":9295,"See":9296,"Ġdocs":9297,"Ġdifference":9298,"probability":9299,"permutation":9300,"Ġexecutor":9301,"feq":9302,"legal":9303,"Running":9304,"Ġbook":9305,"Scatter":9306,"Interrupt":9307,"Ġphoto":9308,"hybrid":9309,"Ġturns":9310,"Ġdependencies":9311,"dependent":9312,"####################################################":9313,"BILITY":9314,"Ġbelon":9315,"domcontentloaded":9316,"ĠTransformers":9317,"ĠFIX":9318,"ĠTeradata":9319,"Ġdeduped":9320,"Ġposterior":9321,"increment":9322,"ĠQuaternions":9323,"57":9324,"ABC":9325,"Pad":9326,"TORCH":9327,"mal":9328,"nable":9329,"nav":9330,"nullable":9331,"vate":9332,"seud":9333,"metry":9334,"Ġnavig":9335,"Ġinversion":9336,"Ġrecords":9337,"peated":9338,"setattr":9339,"shoulder":9340,"olden":9341,"(\"\\\\":9342,"Ġimportant":9343,"Ġmaps":9344,"spl":9345,"initions":9346,"masking":9347,"Ġvars":9348,"Ġunbiased":9349,"codec":9350,"Ġknown":9351,"ĠWord":9352,"ĠNUM":9353,"near":9354,"methods":9355,"LID":9356,"Inference":9357,"ĠExiting":9358,"Ġaddition":9359,"downsamplers":9360,"seeds":9361,"Product":9362,"Exp":9363,"Ġoverla":9364,"Ġoverhead":9365,"2010":9366,"orama":9367,"Ġprefixes":9368,"DeepSpeed":9369,"Format":9370,"structure":9371,"Ġcleaned":9372,"yperParams":9373,"Ġ\"{{":9374,"Ġthreads":9375,"0447":9376,"GroupNorm":9377,"Ġfastapi":9378,"æĺŁ":9379,"Ġdependency":9380,"Ġinterpolate":9381,"Ġ4096":9382,"footer":9383,"Document":9384,"ImgPipeline":9385,"Ġearly":9386,"Ġexceeds":9387,"Ġndarray":9388,">\"\"":9389,"?\\":9390,"BY":9391,"BERT":9392,"FN":9393,"Sign":9394,"Simple":9395,"Shoulder":9396,"TypedDict":9397,"URN":9398,"django":9399,"euclidean":9400,"javascript":9401,"nist":9402,"sf":9403,"youtube":9404,"çĽ":9405,"inem":9406,"secut":9407,"Ġtw":9408,"rech":9409,"Ġ\"../":9410,"andinsky":9411,"extensions":9412,"Ġday":9413,"thought":9414,"props":9415,"Ġconstruct":9416,"shop":9417,"Ġgaussian":9418,"Ġnothing":9419,"abling":9420,"ription":9421,"usic":9422,"ĠSampling":9423,"ĠSupport":9424,"Ġdemo":9425,"ĠPool":9426,"Ġsemester":9427,"ĠFAI":9428,"ĠFilter":9429,"istrable":9430,"ĠDrop":9431,"ĠInt":9432,"ĠIMAGE":9433,"005":9434,"ĠOnnx":9435,"ĠMatch":9436,"Ġunused":9437,"ĠUsing":9438,"ĠThey":9439,"mbers":9440,"Ġcontinuous":9441,"Ġqa":9442,"Ġmoving":9443,"genta":9444,"Ġworkers":9445,"Ġoffload":9446,"Network":9447,"Ġtemporal":9448,"filenames":9449,"Ġlocate":9450,"optimizers":9451,"Ġcurs":9452,"Ġconsistent":9453,"(\"./":9454,"Ġjustify":9455,"Ġautocast":9456,"Ġdenoising":9457,"Ġeditor":9458,"ĠShardedTensorFactory":9459,"Ġagents":9460,"terminal":9461,"ĠExamples":9462,"bosity":9463,"Registry":9464,"ĠNormal":9465,"Ġpartitions":9466,"nccl":9467,"ĠAssetExecutionContext":9468,"LevelDataset":9469,"ĠEventContextManager":9470,"Ġâķĳ":9471,"ĠOffloads":9472,"secutive":9473,"%(":9474,"'\")<":9475,")}.\"<":9476,"63":9477,"DD":9478,"GLU":9479,"OI":9480,"Sp":9481,"SDF":9482,"[{":9483,"]\"":9484,"aN":9485,"cwd":9486,"growth":9487,"ja":9488,"nw":9489,"rd":9490,"Ġ._":9491,"Ġzeros":9492,"Ł¥":9493,"dill":9494,"raft":9495,"una":9496,"uming":9497,"ssl":9498,"para":9499,"Ġ')<":9500,"isnan":9501,"resp":9502,"ĠSpectrogram":9503,"ĠFrom":9504,"ĠRET":9505,"âķĲâķĲâķ":9506,"Ġclone":9507,"DataLoader":9508,"ĠInitial":9509,"Instance":9510,"tains":9511,"Ġsubfolder":9512,"conversion":9513,"âķĲâķĲâķĲâķĲâķĲâķĲâķ":9514,"PAT":9515,"Distribution":9516,"Ġcreates":9517,"ĠShould":9518,"OutputWith":9519,"Ġentropy":9520,"Ġstatic":9521,"paddings":9522,"ANT":9523,"ĠBaseImage":9524,"expanduser":9525,"domains":9526,"Ġ2022":9527,"ĉĉĉĉĉĉĉĉ":9528,"ĠZero":9529,"unctuation":9530,"á´ıá´ľ":9531,"tiling":9532,"symbol":9533,"Ġidentifier":9534,"Ġsymbol":9535,"Ġdetect":9536,"Ġdetected":9537,"ĠScroll":9538,"Validation":9539,"integr":9540,"ĠKeep":9541,"rinsics":9542,"ç®Ĺ":9543,"splatting":9544,"(()":9545,"09":9546,"Audio":9547,"CP":9548,"Current":9549,"Course":9550,"Hip":9551,"Language":9552,"MOD":9553,"Of":9554,"Over":9555,"PN":9556,"Promise":9557,"`.\"<":9558,"dw":9559,"mtime":9560,"mdm":9561,"æĿ":9562,"æŃ":9563,"Ġed":9564,"atype":9565,"orge":9566,"erta":9567,"story":9568,"Ġprimary":9569,"Ġdw":9570,"Ġconcaten":9571,"ĠTop":9572,"quiz":9573,"()\")<":9574,"major":9575,"outs":9576,"resample":9577,"Ġdetermin":9578,"Ġproc":9579,"Ġpara":9580,"ĠPDF":9581,"Ġconfigs":9582,"cud":9583,"ĠVer":9584,"ĠGEM":9585,"':\\":9586,"Ġgenerations":9587,"Ġzs":9588,"Directory":9589,"Count":9590,"Ġstatistics":9591,"ĠSets":9592,"á´ĩÊĢ":9593,"Ġreply":9594,"Ġckpts":9595,"MSolver":9596,"ĠZh":9597,"augmentation":9598,"Ġadjusted":9599,"Ġgreater":9600,"Ġmodif":9601,"serialization":9602,"%%%%%%%%":9603,"feedforward":9604,"âķĲâķĲâķĲâķĲâķĲâķĲâķĲâķĲâķĲâķĲâķĲâķĲâķĲâķĲâķĲâķĲâķĲâķĲâķĲâķĲâķĲâķĲâķĲâķĲâķĲâķĲâķĲâķĲâķĲâķĲâķĲâķĲâķĲâķĲâķĲâķĲâķĲâķĲâķĲâķĲâķĲâķĲâķĲâķĲâķĲâķĲâķĲâķĲ":9605,"ĠControlNetModel":9606,"accumulate":9607,"è®¡ç®Ĺ":9608,"ssibly":9609,"pository":9610,"044715":9611,"ĠGEMM":9612,"\"></":9613,"COR":9614,"Like":9615,"Make":9616,"On":9617,"gy":9618,"mis":9619,"zs":9620,"ÑĤ":9621,"åĨ":9622,"orization":9623,"recall":9624,"itles":9625,"Ġpen":9626,"Ġplay":9627,"Ġpsnr":9628,"Ġnltk":9629,"getHeader":9630,"sets":9631,"().<":9632,"Ġ23":9633,"ĠFa":9634,"ĠFinal":9635,"'])":9636,"Ġwhite":9637,"Ġalgo":9638,"rylib":9639,"Ġadds":9640,"Ġcompile":9641,"Ġsoup":9642,"hover":9643,"transition":9644,"translator":9645,"grees":9646,"Ġrunner":9647,"ĠShort":9648,"Ġposts":9649,"Encoding":9650,"Ġá´Ħ":9651,"bottom":9652,"Ġcounts":9653,"HeadAttention":9654,"unconditional":9655,"Ġscripts":9656,"TABLE":9657,"Ġlinks":9658,"secure":9659,"Ġaugment":9660,"ĠHTTPException":9661,"Ġhypergraph":9662,"ĠAssetKey":9663,"standing":9664,"scrollbar":9665,"rmtree":9666,"}[+":9667,"facebookresearch":9668,"PECTED":9669,"khrylib":9670,"æŀľ":9671,"\"/":9672,"'}<":9673,"+',":9674,"/\")<":9675,"CY":9676,"Gaussian":9677,"NEL":9678,"OF":9679,"Scope":9680,"Table":9681,"]))":9682,"acuum":9683,"mcore":9684,"syn":9685,"suggest":9686,"å·":9687,"å¹":9688,"è´":9689,"Ġartifact":9690,"Ġpid":9691,"Ġfac":9692,"Ġsym":9693,"Ġrelationships":9694,"entially":9695,"Ġmse":9696,"Ġaw":9697,"Ġddim":9698,"ames":9699,"setLevel":9700,"upsamplers":9701,"ĠTorch":9702,"Ġhour":9703,"Ġlocating":9704,"esis":9705,"Ġexpose":9706,"[\"_":9707,"ĠSE":9708,"Ġprote":9709,"Ġstk":9710,"logical":9711,"ĠMAX":9712,"Ġ300":9713,"ĠEpisode":9714,"Ġposes":9715,"nner":9716,"nearest":9717,"INO":9718,"rots":9719,"nets":9720,"LIT":9721,"Ġunderlying":9722,"Ġstartup":9723,"Ġshapes":9724,"ĠKL":9725,"vacuum":9726,"steresis":9727,"refer":9728,"Ġusers":9729,"=[{\"":9730,"LOCAL":9731,"assetdir":9732,"metaclass":9733,"11487":9734,"Ġdetailed":9735,"ĠBaseModel":9736,"CONTEXT":9737,"Ġtkinter":9738,"currency":9739,"Ankle":9740,"RIGHT":9741,"Ġdirs":9742,"Ġdiscret":9743,"ĠTrainer":9744,"trip":9745,"Ġpersistent":9746,"ãĢģ":9747,"Ġattrs":9748,"Ġaugmentation":9749,"Ġissue":9750,"Ġtruthy":9751,"ĠSelfAttention":9752,"SPLIT":9753,"treetune":9754,"CharField":9755,"ĠLOG":9756,"rechet":9757,"nwl":9758,"âķĲâķĲâķĲâķĲâķĲâķĲâķĲâķĲâķĲâķĲâķĲâķĲâķĲâķĲâķĲâķĲâķĲâķĲâķĲâķĲâķĲâķĲâķĲâķĲâķĲâķĲâķĲâķĲâķĲâķĲâķĲâķĲâķĲâķĲâķĲâķĲâķĲâķĲâķĲâķĲâķĲâķĲâķĲâķĲâķĲâķĲâķĲâķĲâķĲâķĲâķĲâķĲâķĲâķĲâķ":9759,":\"<":9760,"Act":9761,"Callback":9762,"JO":9763,"JSON":9764,"SError":9765,"Whether":9766,"]}<":9767,"kipping":9768,"wrist":9769,"}-":9770,"Ðµ":9771,"çī":9772,"èİ":9773,"onential":9774,"onical":9775,"ori":9776,"alg":9777,"Ġpdf":9778,"digit":9779,"Ġcir":9780,"Ġspeech":9781,"ragent":9782,"Ġmenu":9783,"Ġmismatch":9784,"Ġomega":9785,"adow":9786,"otProduct":9787,"policies":9788,"covery":9789,"complex":9790,"upsert":9791,"tho":9792,"ational":9793,"procs":9794,"(\">=":9795,"odon":9796,"laybook":9797,"ĠPatch":9798,"inition":9799,"Ġll":9800,"locked":9801,"tak":9802,"Ġvel":9803,"ĠEX":9804,"ĠGiven":9805,"phys":9806,"ĠHo":9807,"nology":9808,"readline":9809,"Ġupcast":9810,"Ġrotate":9811,"STRI":9812,"partic":9813,"versions":9814,"Ġexpanded":9815,"ĠImageNet":9816,"Ġpooler":9817,"Ġbuttons":9818,"Ġ\".\"":9819,"Ġdepths":9820,"claude":9821,"Ġpaste":9822,"terminate":9823,"\"[\\":9824,"Ġincludes":9825,"showerror":9826,"Compose":9827,"monitor":9828,"ĠPassing":9829,"ĠLinearNormalizer":9830,"Ġhandlers":9831,"ddpm":9832,"overrides":9833,"pusht":9834,"TEMPLATES":9835,"ĠValidate":9836,"integer":9837,"bboxes":9838,"english":9839,"Ġeasy":9840,"Abstract":9841,"wiki":9842,"hammer":9843,"ĠTimeoutError":9844,"dblclick":9845,"ĠKeyboardInterrupt":9846,"JECT":9847,"}[+]{":9848,"èİ·":9849,"otProductAttention":9850,"(\">=\",":9851,"86":9852,">\\":9853,"?\",<":9854,"CRO":9855,"DummyObject":9856,"Mark":9857,"WITH":9858,"]**":9859,"criminator":9860,"mand":9861,"pin":9862,"ula":9863,"}%":9864,"instantiate":9865,"stub":9866,"Ġiou":9867,"Ġft":9868,"Ġ\"\").":9869,"experience":9870,"Ġbfloat":9871,"ighest":9872,"ulating":9873,"coco":9874,"();<":9875,"Ġdeque":9876,"spher":9877,"ĠFP":9878,"Ġlogged":9879,"correction":9880,"\")))<":9881,"needed":9882,"ĠĠĠĠĠĠĠĠĠĠĠĠĠĠĠĠĠĠĠĠĠĠĠĠĠĠĠĠĠĠĠĠĠĠĠĠĠĠĠĠĠĠĠĠĠĠĠĠĠĠĠĠĠĠĠĠĠĠ":9883,"Store":9884,"ious":9885,"compare":9886,"statistics":9887,"greg":9888,")))":9889,"LEFT":9890,"Ġworks":9891,"microsoft":9892,"SchedulerOutput":9893,"Ġupdates":9894,"eye":9895,"Ġembedded":9896,"Ġabc":9897,"Settings":9898,"dified":9899,"SHOT":9900,"Ġautoregressive":9901,"Ġappe":9902,"persist":9903,"WORD":9904,"strides":9905,"BOT":9906,"ĠStepError":9907,"cyc":9908,"Compute":9909,"Ġgroundtruth":9910,"ä»¥":9911,"Ġlons":9912,"Ġsliding":9913,"Ġmarker":9914,"2023":9915,"ĠâĶĤ<":9916,"Ġsubjects":9917,"Ġnccl":9918,"density":9919,"Entropy":9920,"ĠCheckpointingException":9921,"rectories":9922,"ĠLearn":9923,"Ġarchitecture":9924,"54":9925,"74":9926,"91":9927,"Alt":9928,"Dagster":9929,"Ge":9930,"Vis":9931,"_(<":9932,"fan":9933,"foc":9934,"swap":9935,"yma":9936,"}).":9937,"¦Ĥ":9938,"è¾":9939,"Ġtimm":9940,"Ġfully":9941,"asure":9942,"heet":9943,"Ġcipher":9944,"Ġinqui":9945,"une":9946,"ptx":9947,"conn":9948,"constructor":9949,"setHeader":9950,"Ġ'(":9951,"Ġgyma":9952,"Ġdecomp":9953,"Ġdecision":9954,"Ġprop":9955,"\"]),":9956,"ques":9957,"ĠDon":9958,"ĠDen":9959,"Ġrnn":9960,"ĠOption":9961,"ĠOmegaConf":9962,"Ġanalyz":9963,"bounding":9964,"Ġtensorized":9965,"ĠHuman":9966,"Ġindexing":9967,"ĠInst":9968,"ĠSelect":9969,"])[":9970,"interest":9971,"Ġpygame":9972,"Ġscroll":9973,"Ġ},":9974,"Predict":9975,"Ġregistry":9976,"ParallelConfig":9977,"depths":9978,"Ġtruncate":9979,"COL":9980,"connector":9981,"-------<":9982,"WithProjection":9983,"Added":9984,"Classification":9985,"Ġcameras":9986,"Starting":9987,"Ġcoordinate":9988,"Embedder":9989,"Ġinferred":9990,"ĠBeaut":9991,"æłĩ":9992,"ãĢĤ<":9993,"è§Ĵ":9994,"ĠTempNamed":9995,"ĠStateDict":9996,"pickling":9997,"åĩº":9998,"ĠIgnored":9999,"ĠFIXME":10000,"Ġgymapi":10001,"ĠTempNamedDir":10002,")[\"":10003,")\",<":10004,")[-":10005,",))<":10006,"2000":10007,"=(\"":10008,"ABLE":10009,"HF":10010,"Knee":10011,"Limit":10012,"Super":10013,"XX":10014,"`\")<":10015,"dos":10016,"dinov":10017,"fine":10018,"pids":10019,"rerun":10020,"vanced":10021,"was":10022,"Ġvec":10023,"orient":10024,"resent":10025,"rejected":10026,"stitial":10027,"alo":10028,"allocation":10029,"Ġfocus":10030,"Ġnfeats":10031,"Ġ\"\"":10032,"Ġrepeated":10033,"Ġay":10034,"Ġast":10035,"strategies":10036,"pardir":10037,"ison":10038,"Ġ{(":10039,"Ġproce":10040,"ĠPromise":10041,"Ġsecurity":10042,"Ġcoords":10043,"Ġlogin":10044,"bolic":10045,"['%":10046,"maximum":10047,"ĠUSE":10048,"okie":10049,"angular":10050,"ĠVector":10051,"Ġstatement":10052,"ĠĠĠĠĠĠĠĠĠĠĠĠĠĠĠĠĠĠĠĠĠĠĠĠĠĠĠĠĠĠĠĠĠĠĠĠĠĠĠĠĠĠĠĠĠĠĠĠĠĠĠ":10053,"Ġcontribut":10054,"TIC":10055,"Ġqvel":10056,"Initial":10057,"Ref":10058,"Ġchecking":10059,"')`":10060,"boxed":10061,"expanded":10062,"approx":10063,"Mean":10064,"structions":10065,"Ġhandled":10066,"PathLike":10067,"SIG":10068,"Ġapplying":10069,"Ġencodings":10070,"ĠEnv":10071,"Ġteradata":10072,"Ġcombine":10073,"Ġquantize":10074,"PROCESS":10075,"ĉĉĉĉĉ":10076,"LIGHTMAGENTA":10077,"Ġaccumulation":10078,"cycle":10079,"BUFF":10080,"limits":10081,"Ġdots":10082,"balancing":10083,"rypto":10084,"Ġterminated":10085,"Ġswiglu":10086,"ggle":10087,"Ġslices":10088,"marize":10089,"stronomic":10090,"ataloaders":10091,"Ġinquiries":10092,"!--":10093,")$":10094,")\":":10095,".):<":10096,"Bench":10097,"Calculate":10098,"EVA":10099,"IP":10100,"My":10101,"MEM":10102,"OL":10103,"PC":10104,"SM":10105,"Sentence":10106,"TLS":10107,"Wh":10108,"dark":10109,"href":10110,"oke":10111,"ohot":10112,"pressed":10113,"tle":10114,"wgrad":10115,"year":10116,"ç½":10117,"atural":10118,"reverse":10119,"reversed":10120,"lets":10121,"ches":10122,"Ġfmap":10123,"ctrl":10124,"Ġcred":10125,"adjust":10126,"cov":10127,"ersations":10128,"ĠTok":10129,"Ġher":10130,"ĠAt":10131,"ĠCl":10132,"ĠLi":10133,"numer":10134,"Ġsens":10135,"ĠIP":10136,"Ġrc":10137,"Ġrt":10138,"imports":10139,"addEvent":10140,"addWidget":10141,"ĠEmpty":10142,"Ġwhose":10143,"reddit":10144,"phra":10145,"testing":10146,"minimum":10147,"activity":10148,"Inf":10149,"Ġmoves":10150,"rollout":10151,"Program":10152,"LOCK":10153,"SIST":10154,"ĠAttributes":10155,"cased":10156,"ToTensor":10157,"bitmq":10158,"signed":10159,"Headers":10160,"403":10161,"Ġgoing":10162,"Ġaccounts":10163,"ĠArgumentParser":10164,"åĪĨ":10165,"Ġlargest":10166,"allocated":10167,"CrossAttn":10168,"Ġ===========":10169,"LLa":10170,"Êľá´ĩ":10171,"RightHand":10172,"Ġderivative":10173,"Ġ=========================":10174,"spherical":10175,"addEventListener":10176,")',":10177,"85":10178,"Can":10179,"Email":10180,"]\"],<":10181,"cql":10182,"dgrad":10183,"evidence":10184,"floyd":10185,"publish":10186,"tility":10187,"çĤ":10188,"Ġart":10189,"Ġlayout":10190,"atomic":10191,"enes":10192,"reload":10193,"algorithm":10194,"rounds":10195,"mpeg":10196,"Ġslow":10197,"exchange":10198,"express":10199,"ottleneck":10200,"ssim":10201,"poll":10202,"ensive":10203,"imator":10204,"():":10205,"()._":10206,"isdir":10207,"ĠClo":10208,"istency":10209,"headless":10210,"classify":10211,"Ġlogic":10212,"Ġshs":10213,"=\"/":10214,"=\"{":10215,"ĠMB":10216,"ĠNaN":10217,"rowconfigure":10218,"owner":10219,"Ġnearest":10220,"__(*":10221,"Ġsets":10222,"Ġperceiver":10223,"Ġqdrant":10224,"below":10225,"bleu":10226,"postfix":10227,"MANA":10228,"manage":10229,"LATION":10230,"finalize":10231,"TextDataset":10232,"CASE":10233,"predictor":10234,"ControlOr":10235,"Ġgood":10236,"ĠEnsures":10237,"allowed":10238,"needles":10239,"guided":10240,"ĠEmbeddings":10241,"stock":10242,"Ġassumes":10243,"Ġconsidered":10244,"(\"\")<":10245,"Ġcursor":10246,"çĤ¹":10247,"MANAGER":10248,"ControlOrMeta":10249,"'[":10250,")(<":10251,"=.":10252,"CTIONS":10253,"Fl":10254,"UE":10255,"`,<":10256,"bra":10257,"dat":10258,"hers":10259,"mistral":10260,"xp":10261,"xavier":10262,"you":10263,"ÑĢ":10264,"ç¬":10265,"Ġorthogonal":10266,"Ġtl":10267,"arrow":10268,"Ġfire":10269,"Ġfhs":10270,"Ġ\"(":10271,"Ġ\"**/":10272,"Ġslic":10273,"Ġsquared":10274,"Ġrejected":10275,"Ġmit":10276,"Ġwav":10277,"textContent":10278,"usy":10279,"ĠST":10280,"ĠSolver":10281,"ĠLow":10282,"ĠPack":10283,"iful":10284,"ĠRed":10285,"008":10286,"ĠMain":10287,"cale":10288,"captions":10289,"ĠElement":10290,"ipating":10291,"Ġitself":10292,"ĠsetTimeout":10293,"READ":10294,"Ġaccessed":10295,"SEGM":10296,"Ġuploaded":10297,"ĠInsert":10298,"attrs":10299,"commended":10300,"notdiamond":10301,"Ġiterable":10302,"ĠlastEvent":10303,"Ġscan":10304,"Normalize":10305,"Ġwindows":10306,"ĠQuestion":10307,"detached":10308,"ConvBlock":10309,"Environment":10310,"ĠProgress":10311,"ĠResnetBlock":10312,"columnconfigure":10313,"Ġexternal":10314,"ðĿļ":10315,"cutoff":10316,"GPTModel":10317,"Ġviewport":10318,"TOKENIZ":10319,"Ġflask":10320,"4096":10321,"}:{":10322,"Ġsegments":10323,"Ġlangchain":10324,"åĪ°":10325,"Ġturned":10326,"directional":10327,"êľ°":10328,"sender":10329,"DOCSTRING":10330,"Selected":10331,"arpness":10332,"02502":10333,"IGNORECASE":10334,"Layout":10335,"ĠFAISS":10336,"ĠShortcut":10337,"(['":10338,"69":10339,"<|":10340,"AZ":10341,"Dialog":10342,"Mapping":10343,"]\"<":10344,"ao":10345,"hance":10346,"iou":10347,"sol":10348,"tpose":10349,"}]<":10350,"¦ģ":10351,"Ð¸":10352,"è¦ģ":10353,"Ġke":10354,"inuation":10355,"segs":10356,"security":10357,"atile":10358,"stars":10359,"alk":10360,"Ġcancel":10361,"Ġcertain":10362,"Ġslot":10363,"Ġaud":10364,"urbo":10365,"Ġblen":10366,"Ġwrong":10367,"Ġtoe":10368,"andbytes":10369,"Ġ(_":10370,"__))<":10371,"__)),":10372,"Ġguid":10373,"(\"**/":10374,"oder":10375,"iness":10376,"Ġdepending":10377,"Ġpropa":10378,"Ġthird":10379,"ifest":10380,"ifies":10381,"Ġcovariance":10382,"lineKeyboard":10383,"Ġresolutions":10384,"ĠUsed":10385,"Ġuseragent":10386,"ĠEMA":10387,"ĠBoth":10388,"photo":10389,"ĠĠĠĠĠĠĠĠĠĠĠĠĠĠĠĠĠĠĠĠĠĠĠĠĠĠĠĠĠĠĠĠĠĠĠĠĠĠĠĠĠĠĠĠĠĠĠĠĠĠĠĠĠĠĠĠĠ":10390,"Ġperplexity":10391,"replicate":10392,"gression":10393,"Ġcolorama":10394,"film":10395,"Ġ{}).":10396,"Ġdocstring":10397,"Ġpymunk":10398,"vectors":10399,"kipedia":10400,"LayerType":10401,"TrainData":10402,"ĠModelParallelConfig":10403,"TODO":10404,"ROM":10405,"ĠBaseLowdim":10406,"umulator":10407,"strap":10408,"fwd":10409,"Shard":10410,"ĠTestServer":10411,"tmpdir":10412,"ĠConverts":10413,"ĠCollect":10414,"recated":10415,"UNK":10416,"Ġmujoco":10417,"Ġfaster":10418,"balance":10419,"cognized":10420,"Ġnumerical":10421,"deepfloyd":10422,"Ġdegree":10423,"ĠGlobals":10424,"ĠGoogle":10425,"SYSTEM":10426,"(\"**/*\",":10427,"ConsoleMessage":10428,"Ġbelongs":10429,"seudo":10430,"ĠVerify":10431,"AZURE":10432,"#!":10433,"73":10434,":])":10435,"Details":10436,"EE":10437,"Ph":10438,"Pri":10439,"Past":10440,"TN":10441,"`)<":10442,"both":10443,"eal":10444,"nest":10445,"nobs":10446,"pull":10447,"tile":10448,"åį":10449,"orld":10450,"Ġfla":10451,"aspect":10452,"Ġsa":10453,"Ġmq":10454,"advantage":10455,"onehot":10456,"epar":10457,"Ġconfidence":10458,"Ġdiagonal":10459,"Ġoften":10460,"keypoints":10461,"Ġdev":10462,"spine":10463,"ĠFollow":10464,"Ġstoring":10465,"callable":10466,"'][:":10467,"latex":10468,"__(**":10469,"mlu":10470,"Ġdocker":10471,"TERA":10472,"lecture":10473,"Ġupd":10474,"DEF":10475,"Ġspecs":10476,"120":10477,"communicate":10478,"```<":10479,"mmory":10480,"Ġ...\")<":10481,"Ġinterrupted":10482,"reflect":10483,"0001":10484,"ĠShift":10485,"ashAttention":10486,"gts":10487,"ProcessGroup":10488,"OUTPUT":10489,"Ġregion":10490,"ĠPredict":10491,"Ġtables":10492,"})\"<":10493,"ĠDebug":10494,"Ġgemini":10495,"pacities":10496,"sliceable":10497,"Ġassets":10498,"Ġexactly":10499,"Ġapex":10500,"Ġpatterns":10501,"ĠArgus":10502,"Quant":10503,"handlers":10504,"Translator":10505,"Ġslug":10506,"hydra":10507,"Ġstock":10508,"BertModel":10509,"inpainting":10510,"Ġbiencoder":10511,"SdfTranslator":10512,"Ġsignificantly":10513,"challenges":10514,"ĠFormat":10515,"CHANNEL":10516,"è½¬":10517,"MODU":10518,"cudnn":10519,"BUFFER":10520,"TERADATA":10521,"\"},":10522,"'m":10523,"'))":10524,")\"\"\"<":10525,"Acc":10526,"Raw":10527,"SV":10528,"Vocab":10529,"\\\"<":10530,"circle":10531,"dantic":10532,"nvidia":10533,"ticks":10534,"venv":10535,"wt":10536,"|\\":10537,"}\")":10538,"Ñģ":10539,"inder":10540,"eno":10541,"Ġtimer":10542,"remat":10543,"restore":10544,"Ġpanel":10545,"Ġflow":10546,"distribute":10547,"Ġnjoints":10548,"Ġcut":10549,"Ġcrops":10550,"Ġaio":10551,"Ġown":10552,"todos":10553,"iline":10554,"Ġ'[":10555,"Ġ'_{":10556,"quad":10557,"Ġgc":10558,"Ġdiction":10559,"maphore":10560,"aba":10561,"ried":10562,"ĠSMPL":10563,"ĠScorer":10564,"Ġproblems":10565,"Ġstrong":10566,"scan":10567,"Ġstderr":10568,"tokenizers":10569,"Ġunpack":10570,"Ġundefined":10571,"queried":10572,"checkpointed":10573,"}</":10574,"ĠGather":10575,"Ġkeypoints":10576,"contextmanager":10577,"quick":10578,"Ġcapacity":10579,"Ġcomponent":10580,"RET":10581,"Ġqueryset":10582,"subplot":10583,"Ġ51":10584,"Ġsubsequent":10585,"ttp":10586,"interfaces":10587,"websocket":10588,"ificates":10589,"structed":10590,"theme":10591,"Ġoverall":10592,"Ġoverwrite":10593,"Ġpiece":10594,"Ġfinding":10595,"CHOI":10596,"Ġexpects":10597,"ĠMethod":10598,"CONNE":10599,"Ġpreviously":10600,"(\".\")[":10601,"COLUMN":10602,"`:\"<":10603,"Ġgeom":10604,"ĠAdded":10605,"ä»»åĬ":10606,"iliary":10607,"Ġinfos":10608,"ĠThread":10609,"Ġconfigured":10610,"ĠQueryParam":10611,"Iterator":10612,"ĠDocument":10613,"Ġutilities":10614,"MINOR":10615,"GENE":10616,"æĹ¶":10617,"ĠSubElement":10618,"Ġscopes":10619,"Ġbottom":10620,"modified":10621,"Ġboundary":10622,"Ġsynthe":10623,"Ġadapted":10624,"ĠWindows":10625,"thresholding":10626,"InpaintPipeline":10627,"elihood":10628,"ĠDropPath":10629,"ĠRETURN":10630,"MSolverMultistepScheduler":10631,"participating":10632,"Predictor":10633,"Ġdictionaries":10634,"ä»»åĬ¡":10635,"';<":10636,">[":10637,"?\"<":10638,"Custom":10639,"Des":10640,"Hub":10641,"Kit":10642,"Length":10643,"Ollama":10644,"Use":10645,"]`):<":10646,"cro":10647,"dl":10648,"fd":10649,"fingerprint":10650,"must":10651,"pal":10652,"promise":10653,"qk":10654,"uite":10655,"ylabel":10656,"}',":10657,"å¯":10658,"å¿":10659,"itter":10660,"edu":10661,"Ġsite":10662,"Ġspac":10663,"urther":10664,"Ġbvh":10665,"iggers":10666,"izes":10667,"strs":10668,"tobytes":10669,"intern":10670,"Ġdefines":10671,"vies":10672,"Ġ'\"":10673,"()\"\"\"<":10674,"Ġgate":10675,"ĠAlib":10676,"inese":10677,"Ġmaintain":10678,"Ġseem":10679,"ĠFloat":10680,"Ġln":10681,"ĠOb":10682,"Ġanalog":10683,"Ġpossibly":10684,"coming":10685,"ĠHAR":10686,"ModelMixin":10687,"Ġpertur":10688,"replicas":10689,"')\")<":10690,"Ġrotated":10691,"weet":10692,"STM":10693,"ARD":10694,"ĠKV":10695,"THOD":10696,"ESTION":10697,"LOAD":10698,"Ġwritten":10699,"ĠTransformerLayer":10700,"Ġformula":10701,"FrameLocator":10702,"Ġcreation":10703,"Ġ96":10704,"between":10705,"ĠShardedTensors":10706,"Ġquantization":10707,"Change":10708,"ĠAllow":10709,"Ġchildren":10710,"Ġinstructions":10711,"ShardedStateDict":10712,"å¤§":10713,"Common":10714,"Series":10715,"Ġ192":10716,"UPLE":10717,"TRAINED":10718,"FAILED":10719,"Ġpkg":10720,"AssetExecutionContext":10721,"çīĩ":10722,"èİ·åıĸ":10723,"ĠAlibaba":10724,"87":10725,":]:<":10726,"Ann":10727,"Dense":10728,"Ne":10729,"Ops":10730,"PER":10731,"Playwright":10732,"TASK":10733,"](<":10734,"]\",":10735,"^\\":10736,"cdf":10737,"gpus":10738,"hour":10739,"lstrip":10740,"rms":10741,"{\\":10742,"ÏĢ":10743,"æģ":10744,"éĿ":10745,"ĶåĽŀ":10746,"Ġtab":10747,"Ġpending":10748,"ĠnW":10749,"Ġnll":10750,"Ġnaive":10751,"Ġsj":10752,"Ġmom":10753,"izations":10754,"Ġbw":10755,"Ġ#####################################################":10756,"ateLimit":10757,"otstrap":10758,"Ġtodo":10759,"Ġdx":10760,"Ġ150":10761,"proprio":10762,"Ġconc":10763,"mag":10764,"Ġhighest":10765,"ultimodal":10766,"allery":10767,"keyB":10768,"ĠSec":10769,"ĠPPO":10770,"ĠPhi":10771,"Ġ_:":10772,"ĠOne":10773,"logp":10774,"omog":10775,"coded":10776,"Ġ35":10777,"Conne":10778,"weighted":10779,"lowdim":10780,"anging":10781,"irm":10782,"corres":10783,"indent":10784,"Ġneighbours":10785,"acter":10786,"aich":10787,"Ġ\\\\<":10788,"matrices":10789,"extracted":10790,"Ġweak":10791,"working":10792,"Ġperformed":10793,"ĠInit":10794,"ĠCounter":10795,"docstring":10796,"ĠConstant":10797,"ĠStat":10798,"Ġminimum":10799,"Residual":10800,"levelname":10801,"ĠShared":10802,"ĠParam":10803,"gments":10804,"gathered":10805,"Based":10806,"Loaded":10807,"ĠGeneration":10808,"curacies":10809,"Ġchannelmap":10810,"ĠAnthropic":10811,"ĠLogger":10812,"Ġæľ":10813,"detect":10814,"ĠMultiHeadAttention":10815,"Ġ=================================================================":10816,"ä»¶":10817,"omatic":10818,"Arrow":10819,"Ġletters":10820,"ĠReplicate":10821,"Ġreqs":10822,"Ġpermute":10823,"Ġflattened":10824,"è¿Ļ":10825,"è¿ĶåĽŀ":10826,"Ġsympy":10827,"ĠAccelerate":10828,"Ġcookie":10829,"moms":10830,"lationship":10831,"cards":10832,"Ġtermination":10833,"Ġswitch":10834,"GraphStorage":10835,"ä¸Ģä¸ª":10836,"RetroPreprocessingConfig":10837,"Ġdatatype":10838,"ĠDeepSpeedEngine":10839,"Matrix":10840,"Ġimprove":10841,"SCRIPT":10842,"ĠBeautiful":10843,")].":10844,"/~":10845,"DDI":10846,"Desc":10847,"SD":10848,"Summary":10849,"]].":10850,"`).<":10851,"aps":10852,"cube":10853,"dret":10854,"hin":10855,"hdf":10856,"ience":10857,"ktop":10858,"plement":10859,"squared":10860,"±è´":10861,"æ®":10862,"Ġens":10863,"Ġve":10864,"orax":10865,"Ġ===":10866,"Ġtan":10867,"stodon":10868,"delimiter":10869,"anilla":10870,"Ġfc":10871,"different":10872,"Ġsuggest":10873,"entication":10874,"Ġmix":10875,"Ġmdist":10876,"Ġbz":10877,"Ġball":10878,"comes":10879,"coarse":10880,"getcwd":10881,"Ġisn":10882,"uppress":10883,"through":10884,"ĠTH":10885,"Ġhorizontal":10886,"\"][-":10887,"Ġ`__":10888,"lists":10889,"ĠRem":10890,"ĠImplement":10891,"Ġrules":10892,"ocial":10893,"Ġstability":10894,"anned":10895,"Ġ::":10896,"posals":10897,"Ġrouter":10898,"'][:,":10899,"rown":10900,"swe":10901,"ĠGrad":10902,"opener":10903,"viewpoint":10904,"sock":10905,"ĠHF":10906,"ĠConstruct":10907,"interp":10908,"Ġjsonl":10909,"Problem":10910,"Ġcodec":10911,"ĠStudent":10912,"Ġoverflow":10913,"Ġmakes":10914,"(*_":10915,"DOT":10916,"METHOD":10917,"probas":10918,"Ġhttpx":10919,"Processing":10920,"Ġsinusoidal":10921,"Ġoptimizers":10922,"umulated":10923,"price":10924,"Analyzer":10925,"Ġviews":10926,"ĠModified":10927,"assertEqual":10928,"Ġgeorge":10929,"Soup":10930,"Ġautoresume":10931,"Ġscheduled":10932,"Ġradii":10933,"triangles":10934,"Upsample":10935,"Ġretrieving":10936,"consistency":10937,"Metric":10938,"å¤±è´":10939,"ĠTokenize":10940,"CLS":10941,"CLASS":10942,"ĠPerforms":10943,"StreamResponse":10944,"Ġestimation":10945,"baz":10946,"QUESTION":10947,"ĠScale":10948,"Detector":10949,"galore":10950,"DecodeError":10951,"ĠViT":10952,"Ġpercentage":10953,"collision":10954,"Ġservices":10955,"Ġindicates":10956,"Ġlibrosa":10957,"Ġalternate":10958,"Ġsatisfying":10959,"inematic":10960,"thook":10961,"takis":10962,"ç½®":10963,"Desktop":10964,"ĠBeautifulSoup":10965,"drettakis":10966,"å¤±è´¥":10967,"+\",":10968,",-":10969,">'''<":10970,"Elbow":10971,"Hi":10972,"Io":10973,"IST":10974,"Map":10975,"NODE":10976,"Ring":10977,"Saving":10978,"_,<":10979,"`]):<":10980,"cdp":10981,"more":10982,"mocap":10983,"nlp":10984,"ping":10985,"pcfg":10986,"rf":10987,"sft":10988,"tension":10989,"Ġ]:<":10990,"Ġverts":10991,"inux":10992,"inomial":10993,"chrome":10994,"gemma":10995,"Ġplain":10996,"asctime":10997,"Ġcc":10998,"Ġrecursive":10999,"Ġremoving":11000,"Ġamin":11001,"idle":11002,"Ġdl":11003,"parsed":11004,"()[\"":11005,"Ġgender":11006,"Ġdivis":11007,"verbosity":11008,"ĠAD":11009,"Ġexchange":11010,"Ġxformers":11011,"Ġparsing":11012,"Ġoutline":11013,"ĠPO":11014,"Ġori":11015,"ĠDA":11016,"Ġ_(\"":11017,"ĠRES":11018,"ĠRole":11019,"ĠRaw":11020,"Ġrl":11021,"Ġunits":11022,"ĠUs":11023,"']]<":11024,"ĠWeights":11025,"ĠBroadcast":11026,"ĠVariable":11027,"swish":11028,"Ġnear":11029,"[:,:,":11030,"readable":11031,"ĠInteger":11032,"agic":11033,"Rect":11034,"Self":11035,"Ġinteract":11036,"DatasetBuilder":11037,"Ġvarious":11038,"Ġmappings":11039,"SchedulerState":11040,"ĠProject":11041,"Cookie":11042,"ltor":11043,"klass":11044,"Generic":11045,"Formers":11046,"ToTextDataset":11047,"Ġá´į":11048,"riterion":11049,"ĠItem":11050,"ĠTypeVar":11051,"Child":11052,"Ġevaluates":11053,"centered":11054,"failure":11055,"[[],":11056,"cluding":11057,"Interface":11058,"Ġæİ":11059,"ĠAssert":11060,"calculator":11061,"ĠAttnType":11062,"contains":11063,"VisionTransformer":11064,"æķ°æį®":11065,"DownBlock":11066,"äºİ":11067,"ĠWorker":11068,"ĠWorkflow":11069,"slides":11070,"Ġmember":11071,"building":11072,"GradScaler":11073,"INTERPO":11074,"Ð°Ð":11075,"Ġmaterialize":11076,"attempts":11077,"Middle":11078,"smoothing":11079,"ĠBlendedMegatronDatasetBuilder":11080,"remaining":11081,"chemy":11082,"coordinates":11083,"ĠTestServerRequest":11084,"æ®µ":11085,"DOTALL":11086,"'d":11087,"41":11088,"59":11089,"AM":11090,"AP":11091,"Aug":11092,"AGE":11093,"CAU":11094,"Camer":11095,"Dim":11096,"Epoch":11097,"LON":11098,"OFF":11099,"Rew":11100,"SING":11101,"SUM":11102,"SFORM":11103,"TC":11104,"Weights":11105,"`)":11106,"air":11107,"badam":11108,"craft":11109,"gm":11110,"gmm":11111,"irect":11112,"jet":11113,"pjoin":11114,"tik":11115,"ye":11116,"çĲ":11117,"Ġquality":11118,"invert":11119,"alchemy":11120,"lfw":11121,"chan":11122,"loth":11123,"asse":11124,"distributions":11125,"Ġcj":11126,"Ġindependent":11127,"Ġswe":11128,"Ġ#############":11129,"ssions":11130,"external":11131,"libs":11132,"ulid":11133,"Ġ-----":11134,"olds":11135,"rief":11136,"ĠCannot":11137,"ĠClear":11138,"ĠLR":11139,"ĠLlava":11140,"ĠLabel":11141,"ĠPAI":11142,"Ġsequential":11143,"Ġdatapaths":11144,"ĠFOR":11145,"ĠDynamic":11146,"ĠIGNORE":11147,"Ġren":11148,"Ġprefer":11149,"ĠMerge":11150,"Ġunicode":11151,"norms":11152,"Ġ36":11153,"']}":11154,"']))<":11155,"ĠElastic":11156,"\")):<":11157,"ĠGroq":11158,"Ġnethook":11159,"ĠHel":11160,"ĠHigh":11161,"ModelParallelRegion":11162,"REG":11163,"ĠInformation":11164,"Ġjsonify":11165,"PAD":11166,"={},":11167,"aka":11168,"OUR":11169,"Ġanything":11170,"Ġlowdim":11171,"Copy":11172,"pipelining":11173,"Ġseeds":11174,"Ġexcinfo":11175,"ĠBaseException":11176,"Ġstreamer":11177,"ï¼ģ":11178,"Setting":11179,"multichoice":11180,"Ġinvolve":11181,"Channel":11182,"ynamically":11183,"GSTER":11184,"Ġmyjson":11185,"ĠIterate":11186,"Ġbroadcasting":11187,"(\"{}":11188,"]+\",":11189,"ÊŁá´ĩ":11190,"directions":11191,"operation":11192,"Ġestimate":11193,"Ġcertificate":11194,"KVStorage":11195,"Access":11196,"Ġ-------------------------------------------------":11197,"Ġsanit":11198,"ĠSdfCli":11199,"Cloud":11200,"Assistant":11201,"phrase":11202,"Ġstrongly":11203,"tiktok":11204,"!\"":11205,"\"`,":11206,"53":11207,"92":11208,"CPU":11209,"Done":11210,"EP":11211,"Lab":11212,"NG":11213,"New":11214,"Platform":11215,"eth":11216,"flush":11217,"gmail":11218,"hits":11219,"ka":11220,"kw":11221,"karras":11222,"lor":11223,"ration":11224,"å¥":11225,"åĳ":11226,"æ¶":11227,"individual":11228,"insensitive":11229,"stft":11230,"meter":11231,"Ġfurther":11232,"Ġ\"**/*":11233,"Ġrestart":11234,"Ġrecommended":11235,"Ġbx":11236,"Ġbos":11237,"lict":11238,"Ġ(*":11239,"poly":11240,"emini":11241,"Ġ-----<":11242,"vicorn":11243,"ĠAR":11244,"formatter":11245,"ĠSame":11246,"Ġdecor":11247,"spot":11248,"ĠFeat":11249,"ĠFast":11250,"occ":11251,"Ġprevents":11252,"prompted":11253,"ĠMIT":11254,"Ġyy":11255,"contrast":11256,"ĠWE":11257,"ĠBA":11258,"ippet":11259,"Ġtensorflow":11260,"ĠĠĠĠĠĠĠĠĠĠĠĠĠĠĠĠĠĠĠĠĠĠĠĠĠĠĠĠĠĠĠĠĠĠĠĠĠĠĠĠĠĠĠĠĠĠĠĠĠĠĠĠĠĠĠĠĠĠĠĠĠĠ":11261,"ĠReference":11262,"Ġresulting":11263,"iterdir":11264,"SELECT":11265,"((-":11266,"ĠExp":11267,"ongo":11268,"Ġstarts":11269,"Ġsubclass":11270,"runs":11271,">>>":11272,"Ġrandomize":11273,"=[],":11274,"Method":11275,"quantized":11276,"Ġexecutable":11277,"Ġapplications":11278,"ĠAND":11279,"Ġreduced":11280,"streaming":11281,"Ġcontrols":11282,"(\"/\",":11283,"commands":11284,"RequestError":11285,"feet":11286,"which":11287,"DATABASE":11288,"Ġmicrobatches":11289,"Ġsomething":11290,"Ġreferences":11291,"pixels":11292,"distances":11293,"Cache":11294,"Ġintegr":11295,"SSL":11296,"Ġperspective":11297,"ĠAlways":11298,"MoE":11299,"Thorax":11300,"collator":11301,"Ġinfinite":11302,"highlight":11303,"Ġplaceholders":11304,"Classifier":11305,"games":11306,"ĠOriginal":11307,"PoolExecutor":11308,"Ġmmcv":11309,"Ġplanner":11310,"Ġjoblib":11311,"CrossAttention":11312,"æĹ¥":11313,"Ġtrimmed":11314,"modifier":11315,"Ġdescribing":11316,"imagenet":11317,"Ġchallenges":11318,"~~~~~~~~":11319,"hypergraph":11320,"ĠMetric":11321,"BACKEND":11322,"Ġsilence":11323,"ciphers":11324,"2309":11325,"ĠZhou":11326,"Ġprotect":11327,"CONNECTIONS":11328,"ateLimitError":11329,"aichuan":11330,"Ġdivisor":11331,"INTERPOLATION":11332,"336":11333,">â":11334,">',":11335,"Art":11336,"TUPLE":11337,"canny":11338,"frequency":11339,"hull":11340,"nes":11341,"oise":11342,"ocoder":11343,"qf":11344,"rn":11345,"scheme":11346,"åĢ":11347,"Ġaria":11348,"Ġè®¡ç®Ĺ":11349,"ĥ½":11350,"relationships":11351,"decoupled":11352,"Ġfar":11353,"Ġfbx":11354,"Ġfrust":11355,"Ġsparse":11356,"Ġmc":11357,"Ġbra":11358,"Ġbig":11359,"cks":11360,"intent":11361,"courses":11362,"Ġ-<":11363,"protocol":11364,"Ġdivision":11365,"(\"=\"":11366,"Ġhps":11367,"Ġimported":11368,"verg":11369,"Ġdeleted":11370,"Ġstrip":11371,"perceiver":11372,"ĠFuture":11373,"ĠDPT":11374,"ĠDINO":11375,"ĠRAG":11376,"Ġprepend":11377,"bootstrap":11378,"ĠMapping":11379,"obile":11380,"capture":11381,"Ġjpos":11382,"Ġkind":11383,"']}\\":11384,"Ġwhy":11385,"ĠVis":11386,"Ġallreduce":11387,"mlink":11388,"instances":11389,"[:,:":11390,"TEN":11391,"Ġcaching":11392,"ntil":11393,"ModelArguments":11394,"news":11395,"DataSource":11396,"downloaded":11397,"ĠContains":11398,"103":11399,"Ġ}\"\"\",<":11400,"ĠUni":11401,"ĠUnpickling":11402,"ĠChecks":11403,"Ġenter":11404,"passage":11405,"ansion":11406,"Ġembedder":11407,"fiber":11408,"conditions":11409,"invocation":11410,"invoke":11411,"legend":11412,"sections":11413,"Ġhope":11414,"multiline":11415,"eneous":11416,"connections":11417,"unicode":11418,"Collator":11419,"Ġsegmentation":11420,"successful":11421,"changes":11422,"Ġcomputes":11423,"sliding":11424,"Ġpersist":11425,"fram":11426,"ĠStableDiffusionPipelineOutput":11427,"articles":11428,"Ġfigure":11429,"Ġoverrides":11430,"Ġseparately":11431,"zzz":11432,"æĹł":11433,"credit":11434,"Ġpairwise":11435,"PECS":11436,"å¼ı":11437,"ĠResults":11438,"Ġpurposes":11439,"Ġpotential":11440,"ĠTranspose":11441,"ĠBlendedMegatronDatasetConfig":11442,"éĩı":11443,"John":11444,"EpisodeGenerator":11445,"Ġreproduc":11446,"misc":11447,"EntropyLoss":11448,"Ġprocecss":11449,"omogeneous":11450,"DDIMScheduler":11451,"æ¶Ī":11452,"Ġfrustum":11453,")'<":11454,"*:":11455,"+\\":11456,"/\"":11457,"/(":11458,"46":11459,">```<":11460,"EMA":11461,"GD":11462,"GING":11463,"Part":11464,"Positional":11465,"SDP":11466,"UR":11467,"acos":11468,"cd":11469,"fmap":11470,"mr":11471,"mixup":11472,"navig":11473,"oo":11474,"sde":11475,"saving":11476,"speech":11477,"tc":11478,"uk":11479,"æĭ":11480,"deprec":11481,"algorithms":11482,"leu":11483,"mpup":11484,"Ġfout":11485,"Ġfall":11486,"Ġfrozen":11487,"asy":11488,"Ġnest":11489,"ract":11490,"Ġblack":11491,"unload":11492,"ander":11493,"limb":11494,"argsort":11495,"setting":11496,"ilation":11497,"ĠTotal":11498,"ĠThen":11499,"shcache":11500,"Ġglfw":11501,"Ġ{**":11502,"ĠAverage":11503,"ĠAudio":11504,"ĠCA":11505,"ĠSystem":11506,"Ġproprio":11507,"ĠPers":11508,"owParallelLinear":11509,"Ġcourses":11510,"Ġorgan":11511,"ĠRO":11512,"Ġstores":11513,"tensorized":11514,"Ġanimation":11515,"Ġ:])<":11516,"Ġjseq":11517,"Ġrope":11518,"controller":11519,"corder":11520,"ĠGot":11521,"pectral":11522,"Ġlisting":11523,"ĠĠĠĠĠĠĠĠĠĠĠĠĠĠĠĠĠĠĠĠĠĠĠĠĠĠĠĠĠĠĠĠĠĠĠĠĠĠĠĠĠĠĠĠĠĠĠĠĠĠĠĠĠĠĠ":11524,"ĠRequired":11525,"Ġrespons":11526,"rotmat":11527,"Ġbug":11528,"REF":11529,"RESU":11530,"0256":11531,"compression":11532,"savefig":11533,"Ġatomic":11534,"aster":11535,"randomizer":11536,"ordered":11537,"dictionary":11538,"Ġ||":11539,"ĠDataFrame":11540,"Ġfollows":11541,"accs":11542,"Ġselectors":11543,"Ġimplicit":11544,"Ġready":11545,"centers":11546,"offloading":11547,"Depth":11548,"Precision":11549,"Ġcurve":11550,"BaseOutput":11551,"Ġoptimal":11552,"ĠCreates":11553,"TOKENS":11554,"Ġdenoting":11555,"ĠChinese":11556,"Ġwraps":11557,"Admin":11558,"parameterized":11559,"Ġcommons":11560,"('/')[-":11561,"ĠReplace":11562,"Transpose":11563,"hysteresis":11564,"Ġpermutation":11565,"ĠChatCompletion":11566,"environments":11567,"æĪ·":11568,"Ġplane":11569,"Ġtrims":11570,"(?:":11571,"ĠCombine":11572,"Ġdescribed":11573,"Êıá´ıá´ľ":11574,"Ġthresholding":11575,"ĠCLIPVisionModel":11576,"iversary":11577,"Ġbalancing":11578,"ĠAttributeError":11579,"OutputWithPast":11580,"Ġæİ¨éĢģ":11581,"vergence":11582,"'+":11583,":'":11584,"=\\\\":11585,"Folder":11586,"IA":11587,"Match":11588,"MASK":11589,"Option":11590,"Pi":11591,"Push":11592,"SPA":11593,"UB":11594,"Usage":11595,"VO":11596,"Window":11597,"WARE":11598,"]/":11599,"bwd":11600,"glm":11601,"hue":11602,"witch":11603,"}+":11604,"ĠÎ·":11605,"inja":11606,"ormed":11607,"analyzer":11608,"Ġpts":11609,"Ġpressed":11610,"Ġcrit":11611,"Ġ\"+":11612,"ingular":11613,"Ġschema":11614,"Ġspeak":11615,"uncheck":11616,"uel":11617,"otor":11618,"extent":11619,"Ġdataloaders":11620,"imations":11621,"mastodon":11622,"amin":11623,"ambda":11624,"ĠCSS":11625,"ĠLet":11626,"\"]):<":11627,"Ġsem":11628,"ĠIs":11629,"gradio":11630,"trainval":11631,"Ġstyles":11632,"Ġsha":11633,"Ġencounter":11634,"Ġprecomputed":11635,"anniversary":11636,"tap":11637,"Ġvs":11638,"Ġresid":11639,"Ġ320":11640,"']).":11641,"ĠWeight":11642,"ĠBE":11643,"ĠNon":11644,"\")),":11645,"ĠGET":11646,"Ġalt":11647,"ryption":11648,"Ġgrading":11649,"Ġqpos":11650,"Ġsublist":11651,"aking":11652,"ĠNotes":11653,"ĠDataSource":11654,"selectors":11655,"filtering":11656,"ĠResNet":11657,"ĠBased":11658,"ĠignoreCase":11659,"Ġcommands":11660,"ĠRunning":11661,"Buil":11662,"hostname":11663,"ðĿĺ":11664,"Ġ'./":11665,"Ġclientai":11666,"assertTrue":11667,"Ġoperator":11668,"ĠMegatronDataset":11669,"MaskSoftmax":11670,"LIGHTRAG":11671,"WORDS":11672,"ĠLogmel":11673,"skipped":11674,"Ġtracking":11675,"]+\\":11676,"Ġ1536":11677,"Ġways":11678,"\"}]<":11679,"VALID":11680,"ĠRepresent":11681,"ĠTokenizer":11682,"Ġremainder":11683,"Ġgreen":11684,"outerHTML":11685,"Download":11686,"serialize":11687,"experimental":11688,"Ġsqlalchemy":11689,"versal":11690,"Ġdescribes":11691,"Ġslide":11692,"ĠClientAI":11693,"assignment":11694,"DDPMScheduler":11695,"ACTOR":11696,"ScaleMaskSoftmax":11697,"Ġcentral":11698,"cfgs":11699,"ĠPROMPT":11700,"çº¬":11701,"SelectionConfig":11702,"Feature":11703,"Created":11704,"Ġideally":11705,"constraint":11706,"dills":11707,"ĠDenoising":11708,"Ġ########################################################<":11709,"\"):":11710,":\"":11711,"FA":11712,"GLM":11713,"NOR":11714,"OFT":11715,"TUN":11716,"Wrist":11717,"\\\")":11718,"`]<":11719,"bpe":11720,"band":11721,"cuna":11722,"eot":11723,"fmax":11724,"fnames":11725,"iinfo":11726,"plt":11727,"Òĵ":11728,"âĪ":11729,"åĿ":11730,"ĠÊĻ":11731,"arb":11732,"ali":11733,"ceed":11734,"hemat":11735,"Ġcal":11736,"Ġ\"*":11737,"rape":11738,"uri":11739,"idated":11740,"Ġbad":11741,"Ġ###":11742,"Ġddp":11743,"toggle":11744,"attack":11745,"Ġconstra":11746,"Ġ''.":11747,"frombuffer":11748,"icial":11749,"Ġgain":11750,"Ġgolden":11751,"Ġmembers":11752,"Ġdecoupled":11753,"pref":11754,"ĠFound":11755,"Ġcomplex":11756,"ĠDummy":11757,"('%":11758,"Ġenough":11759,"wards":11760,"Ġpages":11761,"logmel":11762,"Ġvp":11763,"stripes":11764,"Ġunknown":11765,"Ġconfigurations":11766,"ĠEND":11767,"):,":11768,"ĠGRA":11769,"ftfy":11770,"ĠĠĠĠĠĠĠĠĠĠĠĠĠĠĠĠĠĠĠĠĠĠĠĠĠĠĠĠĠĠĠĠĠĠĠĠĠĠĠĠĠĠĠĠĠĠĠĠĠĠĠĠĠĠĠĠĠĠĠĠ":11771,"ĠResize":11772,"Ġcompare":11773,"Ġupsampling":11774,"trainedConfig":11775,"Ġsubproblem":11776,"LES":11777,"overla":11778,"OUND":11779,"lotter":11780,"Ġdisabling":11781,"variate":11782,"ĠModels":11783,"Debug":11784,"9999":11785,"EXPECTED":11786,"inky":11787,"sincos":11788,"presentation":11789,"ĠGeneral":11790,"Ġfiltering":11791,"Ġgoal":11792,"Ġbounding":11793,"ĠZL":11794,"ĠAppend":11795,"dots":11796,"åĬł":11797,"Ġ==================================<":11798,"æľĢ":11799,"ĠStableDiffusionSafetyChecker":11800,"lstm":11801,"../..":11802,"Ġ:-)')<":11803,"sympy":11804,"Ġlooking":11805,"Ġhyperparameters":11806,"ĠDocstring":11807,"ĠRaise":11808,"Ġquiz":11809,"standard":11810,"Ġshell":11811,"ControlNetPipeline":11812,"Domain":11813,"identifiers":11814,"dependency":11815,"#################################################<":11816,"CHECKPOINT":11817,"Ġincrease":11818,"seek":11819,"Ġbelong":11820,"ChunkDataset":11821,"supervised":11822,"ĠCache":11823,"âĶĢâĶĢâĶĢâĶĢâĶĢâĶĢâĶĢâĶĢ":11824,"RuntimeModel":11825,"ĠView":11826,"Ġscreenshots":11827,"Plugin":11828,"ĠStreaming":11829,"Ġinterleaved":11830,"DeepSpeedEngine":11831,"CROSS":11832,"¦Ĥæŀľ":11833,"ĠTokens":11834,"eparator":11835,"æģ¯":11836,"Ġ=============================================================================<":11837,"ĠRemote":11838,"SelfAttention":11839,"ĠWEIGHTS":11840,"OFTWARE":11841,",)).":11842,"<<":11843,"=\"<":11844,"Cert":11845,"Dist":11846,"Gre":11847,"How":11848,"Multiple":11849,"NVIDIA":11850,"PNDMScheduler":11851,"Robot":11852,"Sim":11853,"VD":11854,"VIS":11855,"ek":11856,"hps":11857,"nr":11858,"naive":11859,"oom":11860,"pot":11861,"sized":11862,"sloth":11863,"uces":11864,"wte":11865,"what":11866,"èĢ":11867,"instruct":11868,"aring":11869,"anc":11870,"meme":11871,"Ġpg":11872,"Ġfi":11873,"edy":11874,"edrock":11875,"divisible":11876,"Ġnh":11877,"Ġsu":11878,"Ġsynchron":11879,"Ġspectrogram":11880,"Ġreach":11881,"Ġreached":11882,"Ġmt":11883,"Ġol":11884,"Ġ#################################":11885,"ung":11886,"Ġwgrad":11887,"Ġtoxic":11888,"vicuna":11889,"shaped":11890,"()[:":11891,"vest":11892,"figsize":11893,"Ġhis":11894,"Ġnotes":11895,"Ġels":11896,"ĠAv":11897,"ĠSpace":11898,"ĠLMS":11899,"ĠPositional":11900,"Ġdatapath":11901,"ĠFROM":11902,"...<":11903,"ĠDI":11904,"Ġ_)":11905,"Ġrb":11906,"Ġunpermuted":11907,"addition":11908,"Ġroom":11909,"ityscape":11910,"itemap":11911,"Ġadj":11912,"ĠHe":11913,"ĠArray":11914,"Ġcorr":11915,"ught":11916,"ConfigMixin":11917,"Ġleading":11918,"refin":11919,"Diff":11920,"Extract":11921,"vectorizer":11922,"Ġidxs":11923,"many":11924,"Ġconvo":11925,"Ġunets":11926,"ä¸ĭ":11927,"annotators":11928,"Ġimplementing":11929,"Ġdetach":11930,"Ġbsz":11931,"TransformerConfig":11932,"ĠEncodes":11933,"groundtruth":11934,"Ġá´ı":11935,"Unable":11936,"Ġchatbot":11937,"Ġsklearn":11938,"shortest":11939,"ĠQuant":11940,"á´ıÉ´":11941,"Ġaccumulated":11942,"mips":11943,"åı¯":11944,"åĬŁ":11945,"Ġprice":11946,"detector":11947,"ĠMultiControlNetModel":11948,"There":11949,"Ġwaypoint":11950,"á´ĢÉ´":11951,"needs":11952,"xxxx":11953,"mujoco":11954,"=\"\",":11955,"ĠScript":11956,"ĠValidation":11957,"çĶ¨æĪ·":11958,"ĠFlatten":11959,"WebSocketRoute":11960,"ĠRoPE":11961,"Ġpotentially":11962,"ĠRotaryEmbedding":11963,"Ġallocate":11964,"ARKER":11965,"Redirect":11966,"Successfully":11967,"successes":11968,"Ġproperly":11969,"åľ¨":11970,"AdaLN":11971,"FlashAttention":11972,"Ġaiohttp":11973,"ityscapes":11974,",'":11975,"67":11976,"8192":11977,"?\")<":11978,"CS":11979,"Draw":11980,"FLO":11981,"IG":11982,"Note":11983,"RON":11984,"Sde":11985,"Suppress":11986,"Yes":11987,"_)":11988,"iB":11989,"idefics":11990,"ker":11991,"knee":11992,"ming":11993,"oV":11994,"prune":11995,"titles":11996,"upt":11997,"yo":11998,"yy":11999,"}\":":12000,"ãģ":12001,"èĩ":12002,"Ġlecturer":12003,"įåĬ":12004,"inary":12005,"eral":12006,"Ġtls":12007,"Ġturbo":12008,"mpjpe":12009,"asing":12010,"diag":12011,"Ġrestore":12012,"Ġblog":12013,"Ġbasis":12014,"ads":12015,"unwrap":12016,"laces":12017,"Ġ()<":12018,"Ġ---":12019,"setTimeout":12020,"then":12021,"Ġ180":12022,"proposals":12023,"ersity":12024,"Ġconsecutive":12025,"isions":12026,"Ġ\"\"\")<":12027,"abilities":12028,"ĠABC":12029,"usr":12030,"Ġdeal":12031,"Ġdegrees":12032,"pretrain":12033,"Ġ22":12034,"Ġthres":12035,"Ġparity":12036,"ĠRMSNorm":12037,"ĠInner":12038,"gradients":12039,"Ġris":12040,"lockwise":12041,"Ġbecomes":12042,"ĠMat":12043,"ĠMlp":12044,"Ġjaccard":12045,"']}\")<":12046,"song":12047,"ĠGemini":12048,"ĠĠĠĠĠĠĠĠĠĠĠĠĠĠĠĠĠĠĠĠĠĠĠĠĠĠĠĠĠĠĠĠĠĠĠĠĠĠĠĠĠĠĠĠĠĠĠĠĠĠĠĠĠĠ":12049,"iving":12050,"Ġcompression":12051,"ĠHO":12052,"Ġwebsocket":12053,"scribe":12054,"pads":12055,"component":12056,"ASH":12057,"ĠCons":12058,"ĠConcatenate":12059,"lux":12060,"notfound":12061,"={\"<|":12062,"\\\">":12063,"Ġlim":12064,"ĠDatabase":12065,"generators":12066,"Ġattend":12067,"racle":12068,"Ġ127":12069,"hooks":12070,"Ġtranspose":12071,"SIM":12072,"ĠPytorch":12073,"repeats":12074,"ĠAutoConfig":12075,"VIRT":12076,"Ġreplaced":12077,"Ġá´ĺ":12078,"multinomial":12079,"better":12080,"\"[*]":12081,"etuningArguments":12082,"LIGHTGREEN":12083,"Ġhighlight":12084,"ĠLogic":12085,"jitter":12086,"discriminator":12087,"ĠURLs":12088,"Ġaffect":12089,"Ġ=================================================":12090,"ĠâĶľ":12091,"affinity":12092,"ĠDistributedSampler":12093,"boundary":12094,"ĠSome":12095,"FORMAT":12096,"Ġredirects":12097,"2020":12098,"Ġclosest":12099,"ĠLearning":12100,"æį¢":12101,"Avg":12102,"Ġincrement":12103,"è¡¨":12104,"Python":12105,"ĠPeftModel":12106,"Ġchoose":12107,"++++++++":12108,"çŃĶæ¡":12109,"ĠNetwork":12110,"Dropdown":12111,"capsule":12112,"Ġhelper":12113,"expiry":12114,"Ġoverlapping":12115,"ĠOptionally":12116,"numeric":12117,"Ġsliced":12118,"subplots":12119,"éĿ¢":12120,"ĠSdfCliResource":12121,"ĠUnpicklingError":12122,"eparatorStyle":12123,"VIRTUAL":12124,"çŃĶæ¡Ī":12125,")}.":12126,"-'":12127,".)":12128,"Big":12129,"Body":12130,"Ed":12131,"Flow":12132,"LY":12133,"MIT":12134,"Sl":12135,"Solution":12136,"Site":12137,"][:,":12138,"aint":12139,"bbitmq":12140,"cand":12141,"dr":12142,"eq":12143,"fmin":12144,"fbx":12145,"hints":12146,"irecv":12147,"sbox":12148,"vstack":12149,"}\"]":12150,"æ¯":12151,"online":12152,"routes":12153,"Ġimagen":12154,"chive":12155,"dian":12156,"cel":12157,"Ġnice":12158,"igen":12159,"define":12160,"Ġwallet":12161,"ssa":12162,"\"\",":12163,"copies":12164,"upcast":12165,"third":12166,"provided":12167,"parallelism":12168,"imize":12169,"Ġhl":12170,"Ġimports":12171,"amily":12172,"verter":12173,"Ġeva":12174,"usc":12175,"ĠSer":12176,"ĠSampler":12177,"prepend":12178,"Ġouts":12179,"\":\"":12180,"Ġmac":12181,"owd":12182,"denom":12183,"('{}":12184,"ĠOP":12185,"Ġpress":12186,"Ġanchor":12187,"Ġ384":12188,"dsd":12189,"ĠEOS":12190,"team":12191,"ĠNum":12192,"indexmap":12193,"...]":12194,"ivate":12195,"ports":12196,"Ġarea":12197,"Ġcluster":12198,"ĠHidden":12199,"SEC":12200,"Ġfloating":12201,"Ġqlen":12202,"compiled":12203,"trail":12204,"Ġscalar":12205,"]]):":12206,"lrs":12207,"ĠSteps":12208,"101":12209,"Ġpydantic":12210,"Ġbaseline":12211,"ordering":12212,"Ġscen":12213,"graphy":12214,"markup":12215,"Ġassumed":12216,"Ġhelpers":12217,"sendline":12218,"114":12219,"()`<":12220,"ä¸İ":12221,"optimal":12222,"commonPost":12223,"ĠBaseOutput":12224,"(\"/\")[-":12225,"Ġmultipart":12226,"bottleneck":12227,"ledgehammer":12228,"Ġpackages":12229,"Ġassignment":12230,"Ġedited":12231,"Ġtrees":12232,"GRU":12233,"ruption":12234,"Conditional":12235,"character":12236,"Ġphone":12237,"åĪĹ":12238,"Ġgreat":12239,"excinfo":12240,"Ġstopping":12241,"radii":12242,"Ġaccordingly":12243,"geometry":12244,"ä½¿":12245,"ĠParallelTransformer":12246,"Ġbitsandbytes":12247,"Clicked":12248,"è§£":12249,"Ġdebugging":12250,"Ġá´Ľá´ı":12251,"TRIBU":12252,"nsew":12253,"ĠSimpleNamespace":12254,"Ġcandidates":12255,"collisions":12256,"Ġamong":12257,"Ġ{{<":12258,"Ġrespectively":12259,"ä¼ļ":12260,"ĠOnnxRuntimeModel":12261,"PATCH":12262,"Ġsymbolic":12263,"JOINT":12264,"aloha":12265,"ShardId":12266,"agicMock":12267,"ĠGRAPH":12268,"SdeVe":12269,"\"\\\\":12270,"'):":12271,")`,":12272,".')[":12273,"180":12274,"8000":12275,"CLO":12276,"Go":12277,"Human":12278,"Math":12279,"Pack":12280,"Sec":12281,"Schema":12282,"Until":12283,"_())<":12284,"bh":12285,"brightness":12286,"cite":12287,"frechet":12288,"how":12289,"music":12290,"mmlu":12291,"pat":12292,"tw":12293,"}':":12294,"éľ":12295,"Ġarticle":12296,"Ġqueried":12297,"information":12298,"erf":12299,"styles":12300,"decoding":12301,"arison":12302,"alert":12303,"chie":12304,"meters":12305,"Ġply":12306,"Ġnw":12307,"Ġnargs":12308,"Ġsph":12309,"Ġsafetensors":12310,"Ġrepository":12311,"odetic":12312,"Ġai":12313,"Ġbg":12314,"unded":12315,"Ġwpt":12316,"ĠdLd":12317,"upd":12318,"Ġaspect":12319,"ypes":12320,"ĠTry":12321,"())[":12322,"ica":12323,"figure":12324,"Ġhyp":12325,"verge":12326,"ffff":12327,"ĠAC":12328,"ĠAS":12329,"ĠCho":12330,"Ġxk":12331,"scipy":12332,"allets":12333,"ĠPS":12334,"ĠPart":12335,"ĠFetch":12336,"Ġ_]":12337,"Ġstars":12338,"pissa":12339,"ubic":12340,"lineage":12341,"oberta":12342,"care":12343,"ĠEnt":12344,"attns":12345,"ualized":12346,"featmap":12347,"miner":12348,"Ġcompressed":12349,"ĠHttp":12350,"RETRI":12351,"noisy":12352,"gregate":12353,"]]:":12354,"]]]:<":12355,"ALLED":12356,"106":12357,"Diamond":12358,"Ġposted":12359,"returncode":12360,"Ġgenerates":12361,"placeholders":12362,"ĠImageOps":12363,"Ġtransformed":12364,"nontoxic":12365,"installed":12366,"packet":12367,"Ġextend":12368,"structures":12369,"Ġtherefore":12370,"aterial":12371,"chained":12372,"mels":12373,"ĠRotations":12374,"Ġ({})":12375,"Ġstandalone":12376,"ĠConfigure":12377,"Ġwarp":12378,"cursor":12379,"networkidle":12380,"collections":12381,"ĠContent":12382,"VAE":12383,"Ġlongest":12384,"éĢī":12385,"Ġcomments":12386,"IFPipeline":12387,"geolocation":12388,"Ġlongitude":12389,"something":12390,"written":12391,"modifiers":12392,"ĠTEST":12393,"7978":12394,"FAIL":12395,"trees":12396,"INSTALLED":12397,"PASSWORD":12398,"blacklist":12399,"GMARKER":12400,"åŃĹ":12401,"Ġsimpli":12402,"Ġsimply":12403,"åĽŀçŃĶ":12404,"ĠFusedScaleMaskSoftmax":12405,"ĠChannelOwner":12406,"Ġdropping":12407,"ĠNormalization":12408,"è¾ĵ":12409,"SentencePiece":12410,"SISTANT":12411,"çĲĨ":12412,"åĢ¼":12413,"ä½¿çĶ¨":12414,"*\")<":12415,"BPE":12416,"Flat":12417,"Free":12418,"Gu":12419,"Line":12420,"Last":12421,"MAS":12422,"NC":12423,"Ra":12424,"Stop":12425,"bic":12426,"hl":12427,"mvt":12428,"oss":12429,"pct":12430,"ulo":12431,"vity":12432,"vacy":12433,"åİ":12434,"erging":12435,"reserved":12436,"dead":12437,"deem":12438,"ana":12439,"Ġimpl":12440,"elcome":12441,"lik":12442,"Ġ[...,":12443,"kek":12444,"Ġhack":12445,"Ġnotice":12446,"typecheck":12447,"layBuffer":12448,"former":12449,"resid":12450,"ĠCH":12451,"ĠSS":12452,"ĠSim":12453,"Ġdetokenize":12454,"Ġdeploy":12455,"endor":12456,"enders":12457,"Ġprofile":12458,"\"]).":12459,"ĠPh":12460,"ĠPick":12461,"Ġmagenta":12462,"Ġlst":12463,"checks":12464,"ĠDa":12465,"ĠDraw":12466,"ĠDuplicated":12467,"ocs":12468,"ynlib":12469,"take":12470,"Ġantic":12471,"Ġtimed":12472,"posite":12473,"strike":12474,"']}\"<":12475,"stances":12476,"ĠBias":12477,"ĠNeed":12478,"ĠNvidia":12479,"indx":12480,"ĠResearch":12481,"Ġ404":12482,"Ġcontinuation":12483,"clipped":12484,"Ġbuilder":12485,"SER":12486,"vertical":12487,"á´ł":12488,"DataSet":12489,"msa":12490,"docx":12491,"Ġmouse":12492,"ASSES":12493,"')]<":12494,"Ġretries":12495,"ĠKandinsky":12496,"Ġinteraction":12497,"Ġsplitting":12498,"ResNet":12499,"Ġ```\"\"\"<":12500,"ĠParse":12501,"copysign":12502,"Ġbackprop":12503,"LMS":12504,"][!]":12505,"Ġreadout":12506,"medium":12507,"books":12508,"ĠCONFIG":12509,"Ġzipfile":12510,"ä¸Ĭ":12511,"ĠPyT":12512,"ANDB":12513,"ĠComputes":12514,"Ġextensions":12515,"Ġpipelining":12516,"CAB":12517,"Ġ\"{%":12518,"(\"<|":12519,"ĠĠĠĠĠĠĠĠĠĠĠĠĠĠĠĠĠĠĠĠĠĠĠĠĠĠĠĠĠĠĠĠĠĠĠĠĠĠĠĠĠĠĠĠĠĠĠĠĠĠĠĠĠ":12520,"TATION":12521,"ChatCompletion":12522,"CUBI":12523,"Orm":12524,"ĠDownsample":12525,"FOLDER":12526,"Ġreported":12527,"Ġclicked":12528,"Ġapproach":12529,"Ġcovered":12530,"enumerate":12531,"Ġpresentation":12532,"CLASSES":12533,"Ġunittest":12534,"Ġidentify":12535,"ĠEmbeddingFunc":12536,"äºº":12537,"Ġinserted":12538,"databases":12539,"Ġplanes":12540,"è®¾":12541,"Ġannotation":12542,"Password":12543,"Entity":12544,"basicConfig":12545,"MidBlock":12546,"ĠCOLUMN":12547,"PointCloud":12548,"ĠExecute":12549,"æ¡£":12550,"èµ¤":12551,"ĠDeprecated":12552,"Ġconcatenated":12553,"CORRECT":12554,"å¯¹":12555,"NORM":12556,"ĠLMSDiscreteScheduler":12557,"éľĢ":12558,"MASTER":12559,"ĠDuplicatedCode":12560,"CUBIC":12561,"$.":12562,"'ll":12563,")^":12564,")**":12565,"83":12566,"=((":12567,"=(-":12568,">\\\\":12569,"?:":12570,"BATCH":12571,"Cor":12572,"Calc":12573,"HAL":12574,"ITI":12575,"JK":12576,"Json":12577,"NV":12578,"OPTION":12579,"Sto":12580,"Tr":12581,"UI":12582,"bio":12583,"criteria":12584,"ected":12585,"fuse":12586,"gender":12587,"hint":12588,"sac":12589,"ty":12590,"Ð½":12591,"ĠâĢ":12592,"stored":12593,"decess":12594,"decision":12595,"ardi":12596,"robomimic":12597,"ital":12598,"itation":12599,"mploy":12600,"Ġfrequency":12601,"edits":12602,"Ġsledgehammer":12603,"Ġrecent":12604,"Ġocc":12605,"Ġ#####":12606,"intents":12607,"programs":12608,"()[-":12609,"Ġdirectories":12610,"Ġhub":12611,"Ġnotdiamond":12612,"ĠAnn":12613,"keypoint":12614,"ĠSync":12615,"ĠSummary":12616,"ĠLM":12617,"Ġprovid":12618,"quet":12619,"isend":12620,"waiting":12621,"ĠOTHER":12622,"tau":12623,"parallelization":12624,"ĠMust":12625,"ĠMSE":12626,"Ġunion":12627,"Ġunfinished":12628,"trim":12629,"paper":12630,"ople":12631,"evalu":12632,"Ġnever":12633,"Ġ**{":12634,"Ġlisten":12635,"backup":12636,"ONSE":12637,"portions":12638,"uncate":12639,"ĠHub":12640,"Instruct":12641,"Integer":12642,"(((":12643,"compressed":12644,"msolver":12645,"1280":12646,"Ġheatmap":12647,"Ġhealth":12648,"Ġelementwise":12649,"])]<":12650,"exponential":12651,"Provider":12652,"Projector":12653,"]]).":12654,"theverge":12655,"\\\"))<":12656,"enced":12657,"updates":12658,"=[\"<|":12659,"dists":12660,"ĠUnicode":12661,"Ġtrigger":12662,"flan":12663,"Ġfinds":12664,"Ġmodes":12665,"Ġtemporary":12666,"Ġimpact":12667,"Ġjoin":12668,"ĠGPTDataSet":12669,"dpm":12670,"dpmsolver":12671,"rolling":12672,"RequestContext":12673,"ĠRetroConfig":12674,"Ġhome":12675,"KEYWORDS":12676,"`]):":12677,"canonical":12678,"skipif":12679,"|>\",":12680,"|>\"})<":12681,"Ġschedules":12682,"triu":12683,"showwarning":12684,"Interval":12685,"Component":12686,"ĠFilePayload":12687,"Ġconnections":12688,"Retriever":12689,"033":12690,"Ġseparator":12691,"Ġphi":12692,"lons":12693,"\\.\\":12694,"åĲį":12695,"Ġstochastic":12696,"Iterable":12697,"followers":12698,"Apply":12699,"Validate":12700,"Ġfoo":12701,"Ġfov":12702,"Ġfoot":12703,"KVProcessor":12704,"pidump":12705,"Allow":12706,"Ġ------------------":12707,"æł¼":12708,"ĠRandomly":12709,"cognition":12710,"Ġterminal":12711,"recipi":12712,"Ġexplicitly":12713,"æĪĲåĬŁ":12714,"elasticsearch":12715,"Tokens":12716,"Extractor":12717,"ĠAuthors":12718,"Ł¥è¯":12719,"å¹¶":12720,"Ġfacing":12721,"Ġomegaconf":12722,"AddedKVProcessor":12723,"TOKENIZER":12724,"įåĬ¡":12725,"ĠService":12726,"ĠOPENAI":12727,"Ġanticlockwise":12728,"ĠGPTDataSetV":12729,",:":12730,"49":12731,":(":12732,"AWS":12733,"PLA":12734,"Playbook":12735,"Sun":12736,"Sampling":12737,"TXT":12738,"WANDB":12739,"ZES":12740,"[!]":12741,"bash":12742,"blended":12743,"categories":12744,"fold":12745,"hann":12746,"ikipedia":12747,"jaccard":12748,"knwl":12749,"nique":12750,"ogram":12751,"pur":12752,"rename":12753,"tight":12754,"ued":12755,"Ð¾":12756,"Ġ?":12757,"Ŀ<":12758,"including":12759,"semaphore":12760,"orqa":12761,"rew":12762,"review":12763,"analyz":12764,"lev":12765,"Ġpay":12766,"Ġpunctuation":12767,"loom":12768,"heart":12769,"Ġ\"'":12770,"Ġ\"\")":12771,"Ġindicate":12772,"Ġsx":12773,"Ġswarm":12774,"Ġsingular":12775,"Ġmatter":12776,"Ġmoney":12777,"Ġborder":12778,"Ġ(#":12779,"upplement":12780,"Ġ120":12781,"atted":12782,"ĠTaken":12783,"Ġ'|":12784,"Ġglue":12785,"(\"*":12786,"ĠAction":12787,"ĠCJK":12788,"[\"@":12789,"ĠSm":12790,"ĠSum":12791,"Ġmet":12792,"Ġdeep":12793,"ĠLinux":12794,"Ġxq":12795,"ĠPNDMScheduler":12796,"Ġls":12797,"ĠDate":12798,"pygame":12799,"Ġbecome":12800,"batched":12801,"ialias":12802,"ĠMultimodal":12803,"damp":12804,"Ġresized":12805,"ĠUnet":12806,"psnr":12807,"Ġ33":12808,"Ġyes":12809,"Ġrouge":12810,"ĠEng":12811,"ĠWorld":12812,"Ġraster":12813,"ĠNE":12814,"ĠNx":12815,"ĠGre":12816,"Ġsupp":12817,"gsm":12818,"llms":12819,"minutes":12820,"minimal":12821,"RAT":12822,"Std":12823,"readout":12824,"ĠInlineKeyboard":12825,"``.<":12826,"cally":12827,"')\"<":12828,"efore":12829,"Ġheadless":12830,"visioner":12831,"isshu":12832,"Ġends":12833,"regular":12834,"prefixs":12835,"Expect":12836,"Resolution":12837,"icha":12838,"Ġrefined":12839,"AUTH":12840,"Ġ1234":12841,"Ġnonzero":12842,"Entry":12843,"Delete":12844,"Ġobtained":12845,"SIZES":12846,"ĠDictionary":12847,"Ġscoring":12848,"dpr":12849,"Location":12850,"Ġmultistep":12851,"Ġclipwise":12852,"Ġstdout":12853,"Ġoptionally":12854,"ĠDepth":12855,"406":12856,"254":12857,"8456":12858,"Ġrenderer":12859,"Ġdiscard":12860,"CLIPT":12861,"ĠTimestep":12862,"Ġaccum":12863,"UpBlock":12864,"Discriminator":12865,"Retries":12866,"Ġseries":12867,"erializable":12868,"Ġalignment":12869,"Transfer":12870,"Ġmarkdown":12871,"latitudes":12872,"åĽ¾":12873,"Ġquotes":12874,"Ġrestored":12875,"dependencies":12876,"Ġsuffixes":12877,"Ġconsisting":12878,"stopped":12879,"TrainingArguments":12880,"Ġâķļ":12881,"AdamW":12882,"geoms":12883,"LUMNS":12884,"memberNon":12885,"ĠGraph":12886,"ĠGradient":12887,"Ġá´ĽÊľá´ĩ":12888,"ĠNeural":12889,"paragraphs":12890,"åŃĺ":12891,"Ġapproximate":12892,"æĸĩæ¡£":12893,"Renderer":12894,"Spine":12895,"CYAN":12896,"#!/":12897,"Ġ'_{}":12898,"Ġ\"**/*\",<":12899,"Ġbracket":12900,"deprecated":12901,"Ġencountered":12902,"Ġconstraints":12903,"Redirects":12904,"Slider":12905,"79788456":12906,"analyzers":12907,"memberNonactivity":12908,"'`,":12909,"070":12910,"199":12911,"800":12912,">\",<":12913,"Est":12914,"PLE":12915,"Pinky":12916,"RR":12917,"RMSNorm":12918,"Saved":12919,"Tab":12920,"TARGET":12921,"]}\"<":12922,"amax":12923,"aws":12924,"basis":12925,"cipher":12926,"mime":12927,"maries":12928,"tz":12929,"uv":12930,"your":12931,"|[":12932,"}}\",":12933,"Î±":12934,"æ²":12935,"èĥ½":12936,"Ĺ<":12937,"Ġtran":12938,"Ġtyp":12939,"reh":12940,"retain":12941,"receive":12942,"itable":12943,"memmory":12944,"Ġpn":12945,"Ġprune":12946,"Ġinvert":12947,"Ġsdd":12948,"Ġmal":12949,"Ġmime":12950,"Ġak":12951,"Ġbank":12952,"laude":12953,"topo":12954,"polation":12955,"getroot":12956,"thers":12957,"Ġ'#":12958,"Ġ'':<":12959,"Ġ'').":12960,"isinstance":12961,"Ġhint":12962,"Ġlocally":12963,"statement":12964,"Ġ{',":12965,"Ġ\"\"\",<":12966,"veraging":12967,"ĠSOFTWARE":12968,"Ġdecorator":12969,"Ġthus":12970,"ĠPush":12971,"estimator":12972,"spy":12973,"ĠFix":12974,"Ġrs":12975,"Ġbeat":12976,"ĠMC":12977,"ĠMODEL":12978,"ĠMixed":12979,"ĠMCore":12980,"ĠMagicMock":12981,"Ġvers":12982,"Ġvacuum":12983,"']):<":12984,"continu":12985,"ĠWith":12986,"ĠBypass":12987,"ourier":12988,"\"))).":12989,"Ġtokenization":12990,"INK":12991,"errorMessage":12992,"='',<":12993,"formats":12994,"mats":12995,"Ġloads":12996,"afely":12997,"lerance":12998,"ĠIndices":12999,"tainer":13000,"requestfinished":13001,"suming":13002,"Parameters":13003,"DIC":13004,"runway":13005,"ucer":13006,"Ġparallelization":13007,"Ġinterfaces":13008,"refresh":13009,"refusal":13010,"FID":13011,"OUS":13012,"Ġ}}<":13013,"markdown":13014,"accumulator":13015,"ĠGPTToTextDataset":13016,"LTS":13017,"Ġformated":13018,"ponential":13019,"ĠwaitUntil":13020,"Ġchars":13021,"mathbf":13022,"ĠEnvironment":13023,"COLUMNS":13024,"Ident":13025,"============================================":13026,"Ġ2021":13027,"Ġrepresentations":13028,"Ġopposite":13029,"Ġarc":13030,"vqgan":13031,"}'.\")<":13032,"ĠTrainData":13033,"Ġeffort":13034,"ĠStepType":13035,"redirected":13036,"ãĢĲ":13037,"ãĢĳ":13038,"Ġphase":13039,"åĪĻ":13040,"Ġaligned":13041,"Ġ\"[*]":13042,"Ġremains":13043,"Ġgreedy":13044,"Ġlookup":13045,"Ġcollected":13046,"hexdigest":13047,"ĠMasked":13048,"Ġexperimental":13049,"ĠEventType":13050,"Ġfailure":13051,"helpers":13052,"LabelElement":13053,"ĠCrossAttention":13054,"lision":13055,"HTMLLabelElement":13056,"ĉĉĉĠĠ":13057,"Ġ------------------<":13058,"Docstring":13059,"ĠDBDataset":13060,"ĠSkeletonState":13061,"Ġappropriately":13062,"constrain":13063,"Ġsecret":13064,"compressor":13065,"Ġallocated":13066,"Host":13067,"MaskedWordPiece":13068,"ä¿¡":13069,"ĠCurrently":13070,"Ġcircum":13071,"Ġanalyzing":13072,"solar":13073,"DEFINE":13074,"GENERATE":13075,"CAUSE":13076,"Reward":13077,"Ġresponsible":13078,"BPETokenizer":13079,"runwayml":13080,"$,":13081,"'^":13082,")`):<":13083,"*\\":13084,"+]":13085,"456":13086,"51":13087,">]":13088,"Hy":13089,"Hidden":13090,"HyperParams":13091,"Modal":13092,"Single":13093,"Skeleton":13094,"SMPL":13095,"WRI":13096,"]=":13097,"]\\":13098,"^{":13099,"ben":13100,"gap":13101,"gru":13102,"hq":13103,"ncoder":13104,"pinterest":13105,"sym":13106,"surface":13107,"tn":13108,"timm":13109,"vf":13110,"vs":13111,"æµ":13112,"é¡":13113,"Ġ:<":13114,"indic":13115,"inclusive":13116,"sel":13117,"orso":13118,"Ġtyper":13119,"Ġticks":13120,"recording":13121,"stit":13122,"determ":13123,"ctan":13124,"Ġnf":13125,"Ġreload":13126,"Ġreci":13127,"exclude":13128,"liers":13129,"Ġdg":13130,"Ġdns":13131,"via":13132,"ersatile":13133,"imap":13134,"quot":13135,"()\")":13136,"Ġ[]).":13137,"ette":13138,"__))))<":13139,"Ġgrowth":13140,"vecs":13141,"Ġhide":13142,"ĠAG":13143,"Ġexperience":13144,"ĠSto":13145,"prevent":13146,"Ġ26":13147,"Ġxt":13148,"Ġmapped":13149,"Ġsell":13150,"Ġcoord":13151,"Ġgetting":13152,"gramm":13153,"Ġrigid":13154,"itionally":13155,"002":13156,"Ġshot":13157,"ĠOp":13158,"ĠONN":13159,"boolean":13160,"Ġ:],<":13161,"Ġ31":13162,"Ġjwt":13163,"Ġrounds":13164,"Ġtester":13165,"Ġtensorboard":13166,"ĠRef":13167,"ĠReal":13168,"ĠRecursively":13169,"acity":13170,"------------<":13171,"actuator":13172,"noising":13173,"Ġgradio":13174,"Ġnorms":13175,"Insert":13176,"trajectories":13177,"ĠSelector":13178,"Ġcollision":13179,"])))<":13180,"intercepted":13181,"weaviate":13182,"ARCH":13183,"ucation":13184,"GES":13185,"Ġsaves":13186,"Ġlift":13187,"does":13188,"Ġ|<":13189,"ĠDefinitions":13190,"manent":13191,"Ġkeepdims":13192,"curve":13193,"require":13194,"AUTO":13195,"TokenType":13196,"ConvTranspose":13197,"gov":13198,"Ġtranslate":13199,"annotations":13200,"ltas":13201,"Ġpredictor":13202,"Struct":13203,"Lookup":13204,"while":13205,"Ġsigns":13206,"ĠAdditional":13207,"auty":13208,"Ġpopulate":13209,"cleanup":13210,"Ġquantity":13211,"Ġgoogle":13212,"ITEMS":13213,"ĠFlaxStableDiffusion":13214,"Ġdsdd":13215,"ĠIndexError":13216,"ĠModuleNotFoundError":13217,"\"}],<":13218,"ĠReplayBuffer":13219,"Ġsynced":13220,"å¤©":13221,"Ġhashing":13222,"played":13223,"åĲİ":13224,"Ġplanning":13225,"Ġstopped":13226,"meshgrid":13227,"stopping":13228,"Ġmultiply":13229,"FILES":13230,"Ġsmoothing":13231,"compatibility":13232,"Ġeasier":13233,"Ġsections":13234,"Ġcells":13235,"****************":13236,"Ġfocal":13237,"saturation":13238,"LAYER":13239,"Ġpenalty":13240,"SIGN":13241,"Ġblending":13242,"ĠPOST":13243,"ĠAssertionError":13244,"RETRIEVAL":13245,"bicubic":13246,"Ġcircumstances":13247,"ĠONNX":13248,"\"--":13249,".[/":13250,":\",<":13251,">$":13252,"AV":13253,"Ag":13254,"Chest":13255,"Empty":13256,"Fast":13257,"Har":13258,"OB":13259,"Root":13260,"XY":13261,"\\\"])<":13262,"\\\")).":13263,"border":13264,"bvh":13265,"cz":13266,"ev":13267,"fish":13268,"front":13269,"gc":13270,"gaussians":13271,"groq":13272,"ij":13273,"ji":13274,"odir":13275,"sma":13276,"sdd":13277,"solved":13278,"want":13279,"âĨ":13280,"Ġescape":13281,"arctan":13282,"alapping":13283,"Ġprng":13284,"Ġfs":13285,"Ġfpath":13286,"Ġfired":13287,"Ġrewriting":13288,"Ġrecursively":13289,"peer":13290,"Ġothers":13291,"igit":13292,"Ġfore":13293,"Ġda":13294,"Ġdynamically":13295,"concurrent":13296,"conaffinity":13297,"vie":13298,"three":13299,"ĠTake":13300,"Ġ*[":13301,"ici":13302,"ications":13303,"Ġhot":13304,"Ġhaystack":13305,"ĠAnd":13306,"Ġeinsum":13307,"ĠClean":13308,"ĠSkipping":13309,"\"]}<":13310,"Ġparagraph":13311,"ĠFSDP":13312,"listing":13313,"inits":13314,"Ġnumthreads":13315,"Ġcomple":13316,"Ġcomes":13317,"timezone":13318,"alsense":13319,"ĠRange":13320,"Ġstimer":13321,"classifiers":13322,"ranking":13323,"ĠMM":13324,"ĠMy":13325,"days":13326,"Contact":13327,"']]":13328,"ĠBOS":13329,"tral":13330,"Ġradio":13331,"rowson":13332,"combo":13333,"combine":13334,"INDO":13335,"Ġcontinu":13336,"TEP":13337,"baseline":13338,"ĠInclude":13339,"ĠSecond":13340,"ĠSemester":13341,"DIO":13342,"Ġ{},<":13343,"ASSISTANT":13344,"STD":13345,"ARTI":13346,"640":13347,"udents":13348,"Extension":13349,"Ġinitializing":13350,"MAIN":13351,"Ġdownsampling":13352,"ultiply":13353,"Ġpostprocess":13354,"Ġtriggers":13355,"Ġoffloading":13356,"Ġconversations":13357,"5678":13358,"](../":13359,"quantizer":13360,"disconnected":13361,"POSI":13362,"Prediction":13363,"Ġregistration":13364,"âĶģ":13365,"ĠSetting":13366,"Local":13367,"mappings":13368,"Ġconverting":13369,"Generating":13370,"Ġoptimize":13371,"ï¼Ľ":13372,"ToClient":13373,"Ġcleanup":13374,"Ġá´ľ":13375,"ĠGeneric":13376,"ðĿĲ":13377,"Ġviewless":13378,"COM":13379,"COMPLE":13380,"Ġlocators":13381,"Ġrendering":13382,"LoadShardedStrategy":13383,"Logits":13384,"supports":13385,"IndexedDataset":13386,"ĠAgentMeta":13387,"ĠDoe":13388,"Ġabsl":13389,"åĲĳ":13390,"ĠAsyncEvent":13391,"Ġlearnable":13392,"Combo":13393,"Ġdetection":13394,"12341234":13395,"ternative":13396,"Definition":13397,"ACCE":13398,"ĠTransformerBlockSubmodules":13399,"ĠNews":13400,"ĠBlockData":13401,"Ġpurpose":13402,"attachment":13403,"Ġsecure":13404,"HTTPSError":13405,"ĠVideoRe":13406,"Ġcrash":13407,"Ġfocused":13408,"Ġcompressor":13409,"Ġinstanti":13410,"ĠInferenceParams":13411,"ĠJohn":13412,"æīĢ":13413,"________":13414,"ĠTruncate":13415,"Ġgripper":13416,"ĠMatches":13417,"triplets":13418,"Markup":13419,"TLSv":13420,"Ġ============<":13421,"ĠSharedMemory":13422,"Ġ--------------------------------------------------------<":13423,"ToClientMessage":13424,"HTTPSErrors":13425,"\"')<":13426,"+'":13427,"-]+":13428,"/')<":13429,"BLOCK":13430,"Cy":13431,"Ele":13432,"Global":13433,"Light":13434,"Lora":13435,"LLAMA":13436,"Media":13437,"Phi":13438,"Utility":13439,"WN":13440,"Your":13441,"\\']":13442,"]-":13443,"cmom":13444,"ein":13445,"gation":13446,"lms":13447,"qid":13448,"qwen":13449,"sitting":13450,"tas":13451,"typ":13452,"tinder":13453,"vl":13454,"vement":13455,"}ãĢĳ":13456,"éĻ":13457,"Ġ):":13458,"Ġtot":13459,"Ġtax":13460,")</":13461,"arc":13462,"ala":13463,"anchor":13464,"Ġfraction":13465,"edocs":13466,"Ġnan":13467,"heal":13468,"Ġ\").":13469,"Ġinsp":13470,"Ġslight":13471,"Ġrect":13472,"Ġrecomp":13473,"Ġmcore":13474,"Ġachie":13475,"idf":13476,"Ġbpe":13477,"Ġblended":13478,"Ġbypass":13479,"Ġbleu":13480,"unpack":13481,"unnormalize":13482,"unwrapped":13483,"Ġ(%":13484,"Ġ(...":13485,"ements":13486,"illed":13487,"thedocs":13488,"profil":13489,"---\\":13490,"imshow":13491,"ĠTEXT":13492,"Ġ').":13493,"__,<":13494,"mae":13495,"Ġhit":13496,"ĠAut":13497,"ĠCenter":13498,"ĠSA":13499,"Ġdep":13500,"ĠLine":13501,"ĠLarge":13502,"Ġprox":13503,"estimation":13504,"sphin":13505,"ĠFi":13506,"Ġcoef":13507,"timescale":13508,"ĠRGB":13509,"Ġric":13510,"osine":13511,"artist":13512,"Ġvol":13513,"Ġ:=":13514,"infinite":13515,"[::":13516,"ĠWang":13517,"ĠBottleneck":13518,"literal":13519,"Ġmaxlen":13520,"Ġtested":13521,"://{":13522,"john":13523,"ĠReshape":13524,"ĠReceive":13525,"rypted":13526,"Ġclon":13527,"mature":13528,"ENTATION":13529,"iterable":13530,"netloc":13531,"readthedocs":13532,"Ġ.\"<":13533,"DataCollator":13534,"ORDER":13535,"Ġapplies":13536,"DISA":13537,"])):<":13538,"])[:,":13539,"')))<":13540,"ARGS":13541,"Propert":13542,"transformation":13543,"Ġcopyright":13544,"ddpg":13545,"Ġmeaning":13546,"ATTN":13547,"Ġobjective":13548,"Ġexecuting":13549,"LAG":13550,"ĠProtocol":13551,"Ġordering":13552,"Ġsinkh":13553,"ssian":13554,"Ġformatter":13555,"annotation":13556,"ĠAutoProcessor":13557,"Generation":13558,"harm":13559,"á´ĩá´ħ":13560,"CKED":13561,"Ġbinding":13562,"ĠDevice":13563,"periments":13564,"MSG":13565,"schedules":13566,"ellig":13567,"á´ıÊĢ":13568,"Ġpersonal":13569,"Ġfiller":13570,"ADD":13571,"Ġseparated":13572,"Ġ[{'":13573,"interpol":13574,"æľº":13575,"ĠINPUT":13576,"haviors":13577,"ÊŁÊŁ":13578,"USED":13579,"Ġmodifier":13580,"playlist":13581,"shardings":13582,"Ġidentical":13583,"çĶŁ":13584,"StatusCode":13585,"ĠWebKit":13586,"WARD":13587,"ä½į":13588,"standalone":13589,"identifier":13590,"ĠCrossEntropyLoss":13591,"Ġconsists":13592,"AndEvents":13593,"pkgs":13594,"Ġinpainting":13595,"Ġ-----------------------------------------------------------------":13596,"éĹ´":13597,"ĠPreTrainedTokenizer":13598,"hipu":13599,"Ġnumeric":13600,"ĠEvaluation":13601,"Ġcyc":13602,"Ġcycle":13603,"ĠLazyAttribute":13604,"Ġuniformly":13605,"Ġauxiliary":13606,"ĠSupporting":13607,"Ġâķĳ<":13608,"focused":13609,"ĠFollowing":13610,"Ġcutoff":13611,"CHOICES":13612,"ĠAnthropicResource":13613,"Cameras":13614,"ĠHelper":13615,"mlinks":13616,"ĠâĶľâĶĢ":13617,"ĠAnnot":13618,"æ²¡":13619,"ãĢĲ{":13620,"sphinx":13621,"DISABLE":13622,"Ġsinkhorn":13623,"!=":13624,"$',":13625,"(~":13626,"(.*?":13627,")})<":13628,"52":13629,"71":13630,"82":13631,"93":13632,"=\\":13633,">============================================":13634,"CSS":13635,"EPS":13636,"Frozen":13637,"He":13638,"LSTM":13639,"Must":13640,"OPT":13641,"Patch":13642,"Title":13643,"Tuning":13644,"Util":13645,"Vari":13646,"Welcome":13647,"[\\":13648,"]}.":13649,"_[:,":13650,"bm":13651,"cb":13652,"dpo":13653,"dget":13654,"dual":13655,"llegal":13656,"mj":13657,"rr":13658,"rics":13659,"tl":13660,"ucl":13661,"voting":13662,"xpos":13663,"yml":13664,"zp":13665,"±Ĥ":13666,"åī":13667,"Ġem":13668,"Ġemails":13669,"Ġêľ°":13670,"ĠÊıá´ıá´ľ":13671,"ıĲ":13672,"Ġfish":13673,"Ġfront":13674,"ceeded":13675,"Ġniter":13676,"Ġcs":13677,"Ġclock":13678,"Ġsurface":13679,"Ġrev":13680,"Ġrewrite":13681,"rabbitmq":13682,"Ġable":13683,"Ġbnb":13684,"unsloth":13685,"ortion":13686,"Ġdy":13687,"Ġdri":13688,"toAll":13689,"intrinsics":13690,"updated":13691,"there":13692,"ersample":13693,"ĠTARGET":13694,"()],<":13695,"__',":13696,"Ġgg":13697,"texture":13698,"textbox":13699,"Ġhints":13700,"ĠAb":13701,"ĠAxis":13702,"Ġec":13703,"ĠSwitch":13704,"Ġxshaped":13705,"\"][:":13706,"sphere":13707,"spersample":13708,"ĠFull":13709,"ĠFlip":13710,"listen":13711,"Ġcoefficient":13712,"osite":13713,"Ġprints":13714,"ĠMotion":13715,"ĠMultiply":13716,"Ġvocoder":13717,"Ġunfiltered":13718,"maxlen":13719,"jec":13720,"paca":13721,"Ġtexture":13722,"lite":13723,"irc":13724,"Ġfilepath":13725,"INF":13726,"starts":13727,"Ġraised":13728,"Ġcontroller":13729,"Ġadvantage":13730,"Ġwebsite":13731,"Ġsoft":13732,"LImage":13733,"Reference":13734,"submodule":13735,"DIRECT":13736,"Ġblocking":13737,"ĠCond":13738,"Ġretried":13739,"ARS":13740,"explicit":13741,"[...,:":13742,"ĠStory":13743,"Ġbasename":13744,"Ġcopying":13745,"Ġdownstream":13746,"ImagePipelineOutput":13747,"Ġoffline":13748,"Ġkeeping":13749,"tuples":13750,"Ġtuples":13751,"PRETRAINED":13752,"racing":13753,"Enable":13754,"Ġreadme":13755,"chatbot":13756,"ĠDivide":13757,"Ġconditioned":13758,"ANCE":13759,"APIResponse":13760,"Ġabide":13761,")},<":13762,"Generated":13763,"Ġcurrency":13764,"Lock":13765,"CONFI":13766,"ĠEncoding":13767,"Ġremoves":13768,"TERMIN":13769,"multipart":13770,"Ġbackwards":13771,"}'\"<":13772,"Ġdirname":13773,"182":13774,"ĠToTensor":13775,"Ġeverything":13776,"Ġsnippet":13777,"ĠHTML":13778,"ĠDomain":13779,"Ġaccessible":13780,"ĠChatMessage":13781,"blueprint":13782,"svg":13783,"2022":13784,"Ġmemories":13785,"ĠNamed":13786,"Ġestim":13787,"ĠLee":13788,"NEW":13789,"artifacts":13790,"BICUBIC":13791,"Ġmultiplier":13792,"ĠâķĶ":13793,"Ġauthorized":13794,"feedback":13795,"CODER":13796,"uplicates":13797,"Ġ####################<":13798,"ĠInterface":13799,"Ġjitter":13800,"#############<":13801,"ĠGrouped":13802,"visedDataset":13803,"Inpainting":13804,"Planner":13805,"ĠPadding":13806,"Ġsends":13807,"Authorization":13808,">#################################################################################<":13809,"ĠTeradataResource":13810,"Ġmodification":13811,"OnStatusCode":13812,"gregator":13813,"Ġkeeps":13814,"Ġauditing":13815,"Description":13816,"throughput":13817,"GenericResponse":13818,"Ġdecorated":13819,"ĠFutureWarning":13820,"ĠVisual":13821,"VOCAB":13822,"ĠRemoteServer":13823,"ĠGeminiResource":13824,"è¾ĵåĩº":13825,"Ġsupplied":13826,"Ġaccumulate":13827,"âĶģâĶģ":13828,"ĠAsyncEventContextManager":13829,"\"#":13830,"\"({":13831,"+[":13832,">##":13833,"Average":13834,"Bi":13835,"Job":13836,"Merge":13837,"Nt":13838,"Num":13839,"OG":13840,"Role":13841,"RUN":13842,"Sync":13843,"[@":13844,"[\\\"":13845,"_(-":13846,"dor":13847,"family":13848,"guid":13849,"java":13850,"kill":13851,"mos":13852,"ography":13853,"player":13854,"rray":13855,"su":13856,"uvicorn":13857,"vc":13858,"yview":13859,"à§":13860,"å½":13861,"Ġquick":13862,"ĺæĹ¥":13863,"inel":13864,"ony":13865,"deco":13866,"descript":13867,"detokenize":13868,"aran":13869,"armature":13870,"aniel":13871,"itHub":13872,"Ġnhead":13873,"Ġnaming":13874,"hey":13875,"Ġsched":13876,"Ġsynchronous":13877,"Ġreally":13878,"pets":13879,"urity":13880,"Ġomit":13881,"Ġban":13882,"Ġblank":13883,"Ġbusy":13884,"igin":13885,"Ġtook":13886,"Ġtolerance":13887,"Ġdual":13888,"contype":13889,"that":13890,"propa":13891,"()))":13892,"Ġ[]:<":13893,"__[":13894,"__`<":13895,"Ġgs":13896,"Ġgated":13897,"Ġgift":13898,"Ġgames":13899,"Ġgarb":13900,"Ġdivided":13901,"Ġhid":13902,"Ġhaw":13903,"formatting":13904,"resolved":13905,"usdor":13906,"Ġmeasure":13907,"predecess":13908,"Ġ2000":13909,"Ġproxy":13910,"ĠPE":13911,"spans":13912,"ĠFB":13913,"ĠFully":13914,"Ġlshcache":13915,"ĠDist":13916,"ĠDec":13917,"trainers":13918,"ospec":13919,"pips":13920,"Ġsharpness":13921,"ĠOptim":13922,"Ġpreced":13923,"Ġklen":13924,"Ġrouting":13925,"ĠWp":13926,"ĠButton":13927,"trigger":13928,"indexer":13929,"Ġpointer":13930,"ippets":13931,"comments":13932,"avor":13933,"bermetric":13934,"quiet":13935,"mbada":13936,"Ġallocation":13937,"Ġrespond":13938,"rotvec":13939,"ĠHf":13940,"ĠHp":13941,"á´ĭ":13942,"lerp":13943,"LIST":13944,"ĠInria":13945,"DECO":13946,"LER":13947,"Ġ...'.<":13948,"closd":13949,"sential":13950,"=[],<":13951,"Ġframework":13952,"graphdeco":13953,"Ġfaces":13954,"LMHead":13955,"ĠQueue":13956,"Ġrefusal":13957,"MEAN":13958,"mpletely":13959,"Ġexecutes":13960,"good":13961,"Ġtransl":13962,"pooling":13963,"difference":13964,"á´ĩs":13965,"hots":13966,"Loop":13967,"225":13968,"(\".\")":13969,"CALE":13970,"CATION":13971,"DArray":13972,"MSA":13973,"smplx":13974,"instructions":13975,"CLICKED":13976,"Ġdatabases":13977,"Ġexceptions":13978,"åıĤ":13979,"plane":13980,"Ġphys":13981,"Username":13982,"åĲ¦":13983,"retrieve":13984,"Command":13985,"alignment":13986,"slide":13987,"```\\":13988,"haust":13989,"Allocation":13990,"USERS":13991,"Chooser":13992,"ierarch":13993,"RTS":13994,"ĠFlash":13995,"ĠEvaluate":13996,"0257":13997,"Decoded":13998,"MAGENET":13999,"Ġsanity":14000,"watermarker":14001,"Ġinstantiate":14002,"ĠStopIteration":14003,"RowParallelLinear":14004,"materials":14005,"ĠVocabulary":14006,"MULTIPLE":14007,"Ġabstractmethod":14008,"TRANSFORM":14009,"Ġgrip":14010,"ScatterTo":14011,"LanguageModel":14012,"ĠTopK":14013,"âķĲâķĲâķĲâķĲâķĲâķĲâķĲâķĲâķĲâķĲâķĲâķĲâķĲâķĲâķĲâķĲâķĲâķĲâķĲâķĲâķĲâķĲâķĲâķĲâķĲâķĲâķĲâķĲâķĲâķĲâķĲâķĲâķĲâķĲâķĲâķĲâķĲâķĲâķĲâķĲâķĲâķĲâķĲâķĲâķĲâķĲâķĲâķĲâķĲâķĲâķĲâķĲâķĲâķĲâķĿ<":14014,"âķĲâķĲâķĲâķĲâķĲâķĲâķĲâķĲâķĲâķĲâķĲâķĲâķĲâķĲâķĲâķĲâķĲâķĲâķĲâķĲâķĲâķĲâķĲâķĲâķĲâķĲâķĲâķĲâķĲâķĲâķĲâķĲâķĲâķĲâķĲâķĲâķĲâķĲâķĲâķĲâķĲâķĲâķĲâķĲâķĲâķĲâķĲâķĲâķĲâķĲâķĲâķĲâķĲâķĲâķĹ<":14015,"cyclic":14016,"ĠObject":14017,"ĠElasticTok":14018,"åĳĺæĹ¥":14019,"ĠFeature":14020,"Ġintegration":14021,"Ġimplicitly":14022,"Green":14023,"çĶ¨æĪ·éĹ®é¢ĺ":14024,"èĩª":14025,"Ġscenari":14026,"ä¼ļåĳĺæĹ¥":14027,"ĠGRAPHDECO":14028,"damping":14029,"ĠâķļâķĲâķĲâķĲâķĲâķĲâķĲâķĲâķĲâķĲâķĲâķĲâķĲâķĲâķĲâķĲâķĲâķĲâķĲâķĲâķĲâķĲâķĲâķĲâķĲâķĲâķĲâķĲâķĲâķĲâķĲâķĲâķĲâķĲâķĲâķĲâķĲâķĲâķĲâķĲâķĲâķĲâķĲâķĲâķĲâķĲâķĲâķĲâķĲâķĲâķĲâķĲâķĲâķĲâķĲâķĿ<":14030,"POSITION":14031,"ĠReceives":14032,"æ²¡æľī":14033,"ĠâķĶâķĲâķĲâķĲâķĲâķĲâķĲâķĲâķĲâķĲâķĲâķĲâķĲâķĲâķĲâķĲâķĲâķĲâķĲâķĲâķĲâķĲâķĲâķĲâķĲâķĲâķĲâķĲâķĲâķĲâķĲâķĲâķĲâķĲâķĲâķĲâķĲâķĲâķĲâķĲâķĲâķĲâķĲâķĲâķĲâķĲâķĲâķĲâķĲâķĲâķĲâķĲâķĲâķĲâķĲâķĹ<":14034,"Ġgarbage":14035,"usdorff":14036,"!\\":14037,"\"(\\":14038,"'ve":14039,"'},":14040,")\"":14041,")['":14042,")):":14043,"/?":14044,"97":14045,":]))<":14046,"=%":14047,"GAN":14048,"Impl":14049,"IMP":14050,"Llm":14051,"Mon":14052,"NLocator":14053,"Pol":14054,"SO":14055,"Space":14056,"`.\"\"\"<":14057,"ail":14058,"cm":14059,"crypto":14060,"dog":14061,"finfo":14062,"flex":14063,"hd":14064,"icontains":14065,"lg":14066,"lus":14067,"mobile":14068,"tls":14069,"vote":14070,"xform":14071,"}\"\"\"<":14072,"ÃĹ":14073,"æ¬":14074,"ç§":14075,"è·":14076,"Ġatten":14077,"ĠÉª":14078,"Ġarticles":14079,"Ġä½¿çĶ¨":14080,"enet":14081,"alore":14082,"Ġpitch":14083,"look":14084,"ctim":14085,"Ġnq":14086,"hell":14087,"Ġcand":14088,"Ġcateg":14089,"Ġcircle":14090,"Ġspectral":14091,"Ġremap":14092,"adene":14093,"elta":14094,"elvis":14095,"Ġ-*":14096,"Ġdefining":14097,"Ġassuming":14098,"Ġ'*":14099,"()}\")<":14100,"Ġ[]):<":14101,"Ġha":14102,"Ġhw":14103,"Ġhence":14104,"\",)<":14105,"ĠSends":14106,"ĠSci":14107,").\\<":14108,"Ġ27":14109,"ĠPI":14110,"ĠPlot":14111,"Ġmajor":14112,"ransom":14113,"perplexity":14114,"ĠDense":14115,"Ġrule":14116,"Ġrerun":14117,"Ġstay":14118,"dedup":14119,"ĠOracle":14120,"Ġprec":14121,"=\"\\":14122,"ĠMore":14123,"Ġvenv":14124,"Ġresy":14125,"Ġonclick":14126,"Ġ336":14127,"Ġkseg":14128,"Ġkinematic":14129,"ĠEV":14130,"ford":14131,"ĠVersatile":14132,"necessary":14133,"opin":14134,"Ġneur":14135,"Ġ**_":14136,"Ġgenerally":14137,"Ġadv":14138,"visit":14139,"='')<":14140,"Ġaccuracies":14141,"Ġqrot":14142,"ĠArchive":14143,"Ġhex":14144,"Ġ56":14145,"Ġ50257":14146,"callers":14147,"Ġ{})":14148,"Ġ{}.\".":14149,"')):<":14150,"boxes":14151,"LERTS":14152,"expansion":14153,"Ġnoised":14154,"Second":14155,"Ġextraction":14156,"ResnetBlock":14157,"Ġcommunic":14158,"initializers":14159,"edited":14160,"Ġsummarize":14161,"randperm":14162,"avgpool":14163,"attery":14164,"central":14165,"111":14166,"Ġ77":14167,"SILON":14168,"Ġcalculated":14169,"asoning":14170,"Ġ100000":14171,"Embeddings":14172,"Fail":14173,"since":14174,"Ġ{'-'":14175,"Ġá´ħ":14176,"ignoreCase":14177,"DPMSolverMultistepScheduler":14178,"})'<":14179,"Anthropic":14180,"actors":14181,"(\".\")[-":14182,"CATE":14183,"multistep":14184,
[...]
