{"<s>":0,"<pad>":1,"</s>":2,"<unk>":3,"<mask>":4,"<N>":5,"!":6,"\"":7,"#":8,"$":9,"%":10,"&":11,"'":12,"(":13,")":14,"*":15,"+":16,",":17,"-":18,".":19,"/":20,"0":21,"1":22,"2":23,"3":24,"4":25,"5":26,"6":27,"7":28,"8":29,"9":30,":":31,";":32,"<":33,"=":34,">":35,"?":36,"@":37,"A":38,"B":39,"C":40,"D":41,"E":42,"F":43,"G":44,"H":45,"I":46,"J":47,"K":48,"L":49,"M":50,"N":51,"O":52,"P":53,"Q":54,"R":55,"S":56,"T":57,"U":58,"V":59,"W":60,"X":61,"Y":62,"Z":63,"[":64,"\\":65,"]":66,"^":67,"_":68,"`":69,"a":70,"b":71,"c":72,"d":73,"e":74,"f":75,"g":76,"h":77,"i":78,"j":79,"k":80,"l":81,"m":82,"n":83,"o":84,"p":85,"q":86,"r":87,"s":88,"t":89,"u":90,"v":91,"w":92,"x":93,"y":94,"z":95,"{":96,"|":97,"}":98,"~":99,"¡":100,"¢":101,"£":102,"¤":103,"¥":104,"¦":105,"§":106,"¨":107,"©":108,"ª":109,"«":110,"¬":111,"®":112,"¯":113,"°":114,"±":115,"²":116,"³":117,"´":118,"µ":119,"¶":120,"·":121,"¸":122,"¹":123,"º":124,"»":125,"¼":126,"½":127,"¾":128,"¿":129,"À":130,"Á":131,"Â":132,"Ã":133,"Ä":134,"Å":135,"Æ":136,"Ç":137,"È":138,"É":139,"Ê":140,"Ë":141,"Ì":142,"Í":143,"Î":144,"Ï":145,"Ð":146,"Ñ":147,"Ò":148,"Ó":149,"Ô":150,"Õ":151,"Ö":152,"×":153,"Ø":154,"Ù":155,"Ú":156,"Û":157,"Ü":158,"Ý":159,"Þ":160,"ß":161,"à":162,"á":163,"â":164,"ã":165,"ä":166,"å":167,"æ":168,"ç":169,"è":170,"é":171,"ê":172,"ë":173,"ì":174,"í":175,"î":176,"ï":177,"ð":178,"ñ":179,"ò":180,"ó":181,"ô":182,"õ":183,"ö":184,"÷":185,"ø":186,"ù":187,"ú":188,"û":189,"ü":190,"ý":191,"þ":192,"ÿ":193,"Ā":194,"ā":195,"Ă":196,"ă":197,"Ą":198,"ą":199,"Ć":200,"ć":201,"Ĉ":202,"ĉ":203,"Ċ":204,"ċ":205,"Č":206,"č":207,"Ď":208,"ď":209,"Đ":210,"đ":211,"Ē":212,"ē":213,"Ĕ":214,"ĕ":215,"Ė":216,"ė":217,"Ę":218,"ę":219,"Ě":220,"ě":221,"Ĝ":222,"ĝ":223,"Ğ":224,"ğ":225,"Ġ":226,"ġ":227,"Ģ":228,"ģ":229,"Ĥ":230,"ĥ":231,"Ħ":232,"ħ":233,"Ĩ":234,"ĩ":235,"Ī":236,"ī":237,"Ĭ":238,"ĭ":239,"Į":240,"į":241,"İ":242,"ı":243,"Ĳ":244,"ĳ":245,"Ĵ":246,"ĵ":247,"Ķ":248,"ķ":249,"ĸ":250,"Ĺ":251,"ĺ":252,"Ļ":253,"ļ":254,"Ľ":255,"ľ":256,"Ŀ":257,"ŀ":258,"Ł":259,"ł":260,"Ń":261,"><":262,"pa":263,"pad":264,"ĠĠ":265,"ĠĠĠĠ":266,"ĠĠĠ":267,"ĠĠĠĠĠĠĠ":268,"in":269,"se":270,"or":271,"on":272,"er":273,"en":274,"at":275,"Ġt":276,"re":277,"Ġ=":278,"st":279,")<":280,"de":281,"></":282,"ĠĠĠĠĠĠĠĠĠĠĠ":283,"Ġa":284,"Ġi":285,"le":286,":<":287,"al":288,"ro":289,"mp":290,"lf":291,"self":292,"ion":293,"ra":294,"he":295,"ut":296,"Ġf":297,"it":298,"me":299,"Ġc":300,"Ġ\"":301,"ar":302,",<":303,"ct":304,"--":305,"ge":306,"lo":307,"Ġre":308,"ce":309,"Ġin":310,"Ġn":311,"di":312,"ort":313,"ing":314,"ĠĠĠĠĠĠĠĠ":315,"Ġself":316,"Ġs":317,"ch":318,"la":319,"ur":320,"ss":321,"mport":322,"ed":323,"ent":324,"Ġp":325,"Ġo":326,"ex":327,"an":328,"Ġthe":329,"):<":330,"th":331,"Ġm":332,"def":333,"\"\"":334,"pe":335,"ode":336,"Ġb":337,"Ġw":338,"un":339,"Ġ#":340,"ig":341,"rom":342,"ue":343,"li":344,"ad":345,".<":346,"id":347,"ate":348,"urn":349,"Ġ(":350,"turn":351,"__":352,"ck":353,"ot":354,"str":355,"ma":356,"iz":357,"Ġimport":358,"pt":359,"Ġif":360,"one":361,"ĠĠĠĠĠĠĠĠĠĠĠĠĠĠĠ":362,"ata":363,"ul":364,"==":365,"Ġto":366,"----":367,"from":368,"Ġfor":369,"ame":370,"ser":371,"el":372,"um":373,"Ġdef":374,"il":375,"Ġreturn":376,"Ġ'":377,"Ġd":378,"ĠN":379,"co":380,"ext":381,"odel":382,"ĠT":383,"get":384,"Ġis":385,"con":386,"Ġas":387,"int":388,"put":389,"as":390,"Ġpa":391,"set":392,"gs":393,"Ġan":394,"()<":395,"]<":396,"Ġ\"\"\"":397,"ation":398,"ol":399,"val":400,"##":401,"ic":402,"Ġ-":403,"ype":404,"is":405,"ers":406,"ran":407,"to":408,"orm":409,">#":410,"ize":411,"ile":412,"up":413,"import":414,"\"<":415,"es":416,"ht":417,"Ġ1":418,"(\"":419,"ĠNone":420,"orch":421,"po":422,"Ġ[":423,"ĠC":424,"Ġcon":425,"et":426,"ĠA":427,"ult":428,"Ġof":429,"est":430,"ens":431,"()":432,"Ġe":433,"Ġdi":434,"name":435,"od":436,"(<":437,"ke":438,"qu":439,"\",":440,"ith":441,"Ġlo":442,"Ġg":443,"pp":444,"ction":445,"Ġh":446,"ter":447,"Ġl":448,"vi":449,"end":450,"ver":451,"lass":452,"data":453,"ĠS":454,"ve":455,"Ġand":456,"Ġ*":457,"Ġst":458,"ble":459,"path":460,"fig":461,"\")<":462,"pro":463,"Ġth":464,"ĠL":465,"ri":466,"====":467,"Ġ0":468,"Ġtorch":469,"py":470,"text":471,"ĠĠĠĠĠĠĠĠĠĠĠĠĠĠĠĠ":472,"size":473,"Ġnot":474,"Ġ\"\"\"<":475,"ption":476,"ĠP":477,"--------":478,"em":479,"',":480,"Ġ+":481,"ight":482,"ĠI":483,"res":484,"._":485,"che":486,"model":487,"Ġ{":488,"Ġ==":489,"age":490,"ine":491,"mple":492,"Ġex":493,"sert":494,"out":495,"ime":496,"form":497,"args":498,"ca":499,"Ġstr":500,"ror":501,"Ġ2":502,"ram":503,"ment":504,"Ġde":505,"us":506,"ĠF":507,"Ġ_":508,"type":509,"all":510,"class":511,"rue":512,"//":513,"ase":514,"ta":515,"..":516,"))<":517,"Ġco":518,"der":519,"ff":520,"ist":521,"Ġme":522,"rain":523,"ĠD":524,"Ġwith":525,"Ġpro":526,"att":527,"sh":528,"list":529,"do":530,"ep":531,"init":532,"ĠR":533,"####":534,"key":535,"00":536,"Ġma":537,"value":538,"Ġ->":539,"Ġse":540,"par":541,"Ġ)<":542,"ken":543,"ensor":544,"Ġassert":545,"im":546,"and":547,"pre":548,"Ġdata":549,"ore":550,"Ġ<":551,"use":552,"ding":553,"Ġx":554,"Ġbe":555,"\",<":556,"gg":557,"if":558,"ule":559,"Ġres":560,"ĠO":561,"file":562,"\":":563,"mage":564,"Ġor":565,"Ġr":566,"rint":567,"atch":568,"ll":569,"Ġget":570,"Ġla":571,"rans":572,"ect":573,"ĠĠĠĠĠĠĠĠĠĠĠĠĠĠĠĠĠĠĠ":574,"que":575,"Ġmodel":576,"),<":577,"ew":578,"[\"":579,"Ġar":580,"rame":581,"Ġ:":582,"\"\"\"<":583,"dir":584,"alse":585,"ack":586,"\"]":587,"else":588,"ure":589,"Ġout":590,"cess":591,"ĠM":592,"len":593,"Ġ__":594,").":595,"app":596,"dict":597,"Ġelse":598,"Ġ`":599,"mpt":600,"Er":601,"per":602,"os":603,"ord":604,"ample":605,"ly":606,"Error":607,"odule":608,"Ġfrom":609,"('":610,"ense":611,"sc":612,"ance":613,"),":614,"ise":615,"config":616,"able":617,"Ġtest":618,"art":619,"],":620,"ence":621,"bj":622,"Ġv":623,"lay":624,"ry":625,"Ġos":626,"ĠB":627,"ip":628,"am":629,"ault":630,"ape":631,"Ġnum":632,"time":633,"Ġprint":634,"wa":635,"fo":636,"========":637,"util":638,"ory":639,"bed":640,"num":641,"ard":642,"ub":643,"train":644,"__(":645,"Ġpar":646,"ho":647,"True":648,"nel":649,"dex":650,"alle":651,"izer":652,"=\"":653,"quest":654,"Con":655,"head":656,"IN":657,"Ġfile":658,"dim":659,"Ġun":660,"op":661,"but":662,"code":663,"load":664,"Ġon":665,"ON":666,"Ġy":667,"ix":668,"ask":669,"['":670,"Ġuse":671,"32":672,"state":673,"param":674,"ĠE":675,"yn":676,"te":677,"Ġlen":678,"Ġnp":679,"lock":680,"so":681,"ial":682,"ĠW":683,"ument":684,"test":685,"Ġit":686,"----------------":687,"ener":688,"ys":689,"sk":690,"bo":691,"input":692,"ps":693,"Ġj":694,"Ġen":695,"Ġpre":696,"~~":697,"Ġinput":698,"pl":699,"Ġwh":700,"pon":701,"icense":702,"da":703,"com":704,"vice":705,"ded":706,"line":707,"ĠU":708,"pi":709,"ransform":710,"thon":711,"ition":712,"():<":713,"Ġch":714,"bu":715,"Ġpy":716,"ssage":717,"ator":718,"Ġra":719,"gger":720,"ĠG":721,"')<":722,"Ġdo":723,"Ġint":724,"}<":725,"read":726,"Ġoutput":727,"Ġso":728,"stance":729,"ersion":730,"bel":731,"append":732,"user":733,"ron":734,"son":735,"loat":736,"thod":737,"'<":738,"cept":739,"Ġby":740,"Ġran":741,"Ġname":742,"Ġthat":743,"ER":744,"ir":745,"unction":746,"None":747,"gth":748,"ĠThe":749,"']":750,"eight":751,"Ġ>":752,"ces":753,"ponse":754,"ave":755,"Ġk":756,"ĠLicense":757,"Ġlist":758,"Ġ3":759,"output":760,"kens":761,"lic":762,"low":763,"EN":764,"Ġtype":765,"ool":766,"OR":767,"point":768,"Ġargs":769,"allel":770,"Ġthis":771,"tr":772,"shape":773,"Ġ%":774,"und":775,"Ġvalue":776,"token":777,"########":778,"add":779,"ward":780,"mo":781,"torch":782,"pos":783,"ync":784,"utils":785,"eat":786,"):":787,"rit":788,"In":789,"ĠV":790,"ptional":791,"pec":792,"stri":793,"Ġset":794,"Ġconfig":795,"error":796,"ity":797,"arget":798,"jo":799,"Ġtime":800,"ant":801,"bject":802,"ag":803,"back":804,"rect":805,"wait":806,"ust":807,"cl":808,"mask":809,"().":810,"nt":811,"ĠCo":812,"dataset":813,"Ġro":814,"max":815,"ids":816,"gra":817,"bs":818,"act":819,"ft":820,"tent":821,"iv":822,"base":823,"wargs":824,"ng":825,"idd":826,"AT":827,"ĠRe":828,"htt":829,"='":830,"ive":831,"info":832,"tensor":833,"red":834,".\"\"\"<":835,"ok":836,"ses":837,"Ġresult":838,"Ġ@":839,"Ġ/":840,"log":841,"ow":842,"ĠTrue":843,"``":844,"fg":845,"False":846,"gument":847,"ill":848,"ĠFalse":849,"ath":850,"nn":851,"plit":852,"unt":853,"ute":854,"Ġtext":855,"idden":856,"annel":857,"Ġsh":858,"Ġal":859,"mpl":860,"])<":861,"Ġraise":862,"dow":863,"Ġare":864,"ery":865,"vent":866,"\")":867,"Re":868,"ber":869,"bedding":870,"ES":871,"ump":872,"roup":873,"qui":874,"right":875,"heck":876,"stribut":877,"ĠIn":878,"ork":879,"url":880,"process":881,"://":882,"':":883,"inal":884,"',<":885,"step":886,"Ġkey":887,"**":888,"...":889,"Ġsup":890,"Ġexcept":891,"Ġwin":892,"urr":893,"index":894,"Ġ**":895,"uld":896,"Ġmax":897,"Ġ.":898,"ning":899,"length":900,"ĠH":901,"image":902,"SE":903,"uple":904,"ated":905,"norm":906,"Ġimage":907,"ou":908,"reate":909,"col":910,"ec":911,"Ġdefault":912,"valid":913,"ions":914,"ign":915,"ild":916,"for":917,"loc":918,"Ġpage":919,"kwargs":920,"gment":921,"query":922,"ph":923,"Ġawait":924,"Ġatt":925,"fer":926,"[:":927,"Ġ[]<":928,"ations":929,"mat":930,"Ġnn":931,"cale":932,"urce":933,"ne":934,"his":935,"ception":936,"Ġtry":937,"cu":938,"parallel":939,"ai":940,"([":941,"gging":942,"lob":943,"av":944,"pen":945,"ary":946,"lib":947,"ched":948,"sw":949,"join":950,"Ġdict":951,"Ġtoken":952,"02":953,"ds":954,"pect":955,"pat":956,"batch":957,"port":958,"date":959,"Ġall":960,"mm":961,"start":962,"].":963,"result":964,"Ġdim":965,"Ġcontext":966,"Ġ(<":967,"weight":968,"word":969,"format":970,"ther":971,"Ġwe":972,"nd":973,"io":974,"ĠOptional":975,"ĠĠĠĠĠĠĠĠĠĠĠĠĠĠĠĠĠĠĠĠĠĠĠ":976,"Ġ``":977,"Ġtrain":978,"ict":979,"unc":980,"Ġ4":981,"coder":982,"Ġapp":983,"Lo":984,"ray":985,"lable":986,"urrent":987,"Ġpath":988,"IT":989,"module":990,"iel":991,"instance":992,"////":993,"stributed":994,"RE":995,"gat":996,"Ġnew":997,"Ġad":998,"Ġle":999,"mb":1000,"ere":1001,"ies":1002,"ST":1003,"method":1004,"ind":1005,"ree":1006,"context":1007,"tokens":1008,"main":1009,"Ġlog":1010,"Ġsys":1011,"Ġbu":1012,"server":1013,"item":1014,"],<":1015,"DE":1016,"unk":1017,"Ġsc":1018,">#<":1019,"Ġcol":1020,"ython":1021,"channel":1022,"yp":1023,"sample":1024,"device":1025,"cfg":1026,"eval":1027,"Ġcan":1028,"layer":1029,"yle":1030,"loss":1031,"dom":1032,"ename":1033,"check":1034,"================":1035,"rop":1036,"ac":1037,"pla":1038,"umpy":1039,"lect":1040,"fix":1041,"lient":1042,"ler":1043,"ml":1044,"ffer":1045,"Ġpo":1046,"St":1047,"Ġdataset":1048,"12":1049,"vide":1050,"fil":1051,"sses":1052,"pyright":1053,"ĠK":1054,"split":1055,"ters":1056,"Ġunder":1057,"its":1058,"run":1059,"ĠCon":1060,"Ġ+=":1061,"Ġfunction":1062,"Ġstate":1063,"ptim":1064,"ract":1065,"row":1066,"prompt":1067,"Ġne":1068,"ream":1069,"Ġcheck":1070,"frame":1071,"Ġline":1072,"ĠThis":1073,"gatron":1074,"lif":1075,"Ġno":1076,"idx":1077,"env":1078,"Ġclass":1079,"float":1080,"tain":1081,"sed":1082,"min":1083,"Ġrange":1084,"ab":1085,"Ġat":1086,"~~~~":1087,"Ġca":1088,"Ġload":1089,"Pro":1090,"LE":1091,"ny":1092,"Ġresponse":1093,"AR":1094,"Ġte":1095,"ID":1096,"IC":1097,"Ġprompt":1098,"rite":1099,".__":1100,"lin":1101,"Ġbool":1102,"label":1103,"Data":1104,"attr":1105,"AS":1106,"ention":1107,"Ġstart":1108,"Ġhas":1109,"tro":1110,"count":1111,"om":1112,"Ġspec":1113,"ION":1114,"feat":1115,"Ġcomp":1116,"Model":1117,"alue":1118,"Type":1119,"ĠĠĠĠĠ":1120,"lobal":1121,"json":1122,"Tensor":1123,"ference":1124,"Ġcode":1125,"ĠUn":1126,"ĠSe":1127,"https":1128,"Ġsuper":1129,"params":1130,"Ġparam":1131,"Ġtensor":1132,"16":1133,"Ex":1134,"ias":1135,"grad":1136,"Ġ[<":1137,"pert":1138,"Ġsho":1139,"ĠCopyright":1140,"block":1141,"transform":1142,"win":1143,"ures":1144,"ang":1145,"AN":1146,"quence":1147,"Ġelif":1148,"Ġisinstance":1149,"Ġtarget":1150,"array":1151,"lat":1152,"fa":1153,"vel":1154,"())<":1155,"version":1156,"ield":1157,"ĠAr":1158,"Ġ5":1159,"Ġbatch":1160,"AL":1161,"channels":1162,"\"]<":1163,"group":1164,"uto":1165,"\":<":1166,"cuda":1167,"uth":1168,">>":1169,"cor":1170,"ssion":1171,"Ġmessage":1172,"Ġ{<":1173,"zer":1174,"Ġid":1175,"ĠĠĠĠĠĠĠĠĠĠĠĠĠĠĠĠĠĠĠĠĠĠĠĠĠĠĠĠĠĠĠĠ":1176,"Ġwill":1177,"ptions":1178,"Ġem":1179,"ĠEx":1180,"not":1181,"scri":1182,"uct":1183,"Ġmo":1184,"tri":1185,"ww":1186,"vert":1187,"net":1188,"Ġrequi":1189,"ĠList":1190,"api":1191,"Ġinit":1192,"Ġhe":1193,"Ġpos":1194,"ics":1195,"Ġgener":1196,"ms":1197,"cket":1198,"ally":1199,"Ġ|":1200,"Ġloss":1201,"ef":1202,"inter":1203,"Config":1204,"Ġrun":1205,"ĠReturn":1206,"Ġlogger":1207,"otal":1208,"idth":1209,"tra":1210,"Ġmodule":1211,"Ġuser":1212,"Ġtyp":1213,"Ġlabel":1214,"ach":1215,"rank":1216,"ak":1217,"ld":1218,"view":1219,"]:<":1220,"Ġjson":1221,"Ġstring":1222,"Ġup":1223,"ernel":1224,"content":1225,"ide":1226,"ual":1227,"64":1228,"message":1229,"Ġsample":1230,"Ġrequest":1231,"pu":1232,"ns":1233,"irst":1234,"AM":1235,">\"\"\"<":1236,"ision":1237,"embedding":1238,"ich":1239,"Ġindex":1240,"uage":1241,"comp":1242,"UT":1243,"PI":1244,"mit":1245,"mar":1246,"sent":1247,"--------------------------------":1248,"ls":1249,"new":1250,"Ġdevice":1251,"rameters":1252,"default":1253,"'s":1254,"gn":1255,"stat":1256,"']<":1257,"ject":1258,"Ġac":1259,"Ġfil":1260,"Ġim":1261,"Ġsub":1262,"Ġobject":1263,"Ġpass":1264,"call":1265,"no":1266,"ound":1267,"pace":1268,"work":1269,"parse":1270,"ctions":1271,">@":1272,"Ġtyping":1273,"Ġused":1274,"Ġmask":1275,"Ġper":1276,"PT":1277,"andler":1278,"lasses":1279,"Ġ\\":1280,"ari":1281,"Module":1282,"iter":1283,"np":1284,"yer":1285,"andle":1286,"string":1287,"ved":1288,"core":1289,"((":1290,"gments":1291,"################":1292,"by":1293,"Ġmegatron":1294,"Ġopen":1295,"sp":1296,"map":1297,"arning":1298,"')":1299,"Ġfloat":1300,"ĠĠĠĠĠĠ":1301,"func":1302,"Ġhidden":1303,"assert":1304,"ĠArgs":1305,"ĠAny":1306,"Ġtransform":1307,"place":1308,"ifi":1309,"Ġmay":1310,"Ġasync":1311,"Ġblock":1312,"argument":1313,"Ġadd":1314,"Co":1315,"Ġnumpy":1316,"Ġshould":1317,"target":1318,"10":1319,"Ġerror":1320,"stem":1321,"ĠIf":1322,"Ġinter":1323,"ific":1324,"Ġlogging":1325,"conv":1326,"vid":1327,"hidden":1328,"To":1329,"ey":1330,"cache":1331,"node":1332,"states":1333,"Ġsize":1334,"dio":1335,"usion":1336,"video":1337,"print":1338,"Ġli":1339,"lp":1340,">)<":1341,"gram":1342,"ader":1343,"Ġbase":1344,"Ġq":1345,"Ġqu":1346,"lt":1347,"peline":1348,"mplate":1349,"])":1350,"Ġgra":1351,"with":1352,"db":1353,"Ġ!":1354,"Ġ[\"":1355,"Ġext":1356,"Ġyou":1357,"Ġback":1358,"comm":1359,"rectory":1360,"Ġparser":1361,"trans":1362,"Ġend":1363,"old":1364,"ude":1365,"Ġtra":1366,"logger":1367,"reg":1368,"ĠReturns":1369,"doc":1370,"CH":1371,"obj":1372,"au":1373,"mplement":1374,"swer":1375,"ystem":1376,"Ġmethod":1377,"trained":1378,"cat":1379,"gener":1380,"ized":1381,"ain":1382,"ptimizer":1383,"coding":1384,"af":1385,"cls":1386,"ĠValue":1387,"Ġnorm":1388,"cal":1389,"the":1390,"}\")<":1391,"ING":1392,"arg":1393,"tin":1394,"Ġ!=":1395,"cur":1396,"))":1397,"http":1398,"arch":1399,"Ġhead":1400,"Ġword":1401,"async":1402,"gre":1403,"ution":1404,"ts":1405,"024":1406,"img":1407,"Ġforward":1408,"response":1409,"nguage":1410,"Ġz":1411,"Ġus":1412,"steps":1413,"sole":1414,"scale":1415,"tes":1416,"Ġ>>>":1417,"task":1418,"RO":1419,"[:,":1420,"AG":1421,"Ġwhich":1422,"FI":1423,"viron":1424,"bug":1425,"df":1426,"request":1427,"ropo":1428,"Ġimg":1429,"write":1430,"á´":1431,"'t":1432,"ors":1433,"patch":1434,"Ġversion":1435,"ropout":1436,"Ġmat":1437,"Ġfeat":1438,"Ġsu":1439,"Ġcall":1440,"Ġ...":1441,"qual":1442,"embed":1443,"ull":1444,"Se":1445,"range":1446,"LM":1447,"Res":1448,"adata":1449,"position":1450,"ils":1451,"xis":1452,"LT":1453,"Ġdoc":1454,"../":1455,"lose":1456,"Ġserver":1457,"ong":1458,"ches":1459,"Ġweight":1460,").<":1461,"trol":1462,"open":1463,"sub":1464,"org":1465,"Ġcurrent":1466,"cy":1467,"pr":1468,"dices":1469,"sum":1470,"Ġnumber":1471,"\".":1472,"classes":1473,"checkpoint":1474,"Ġtokens":1475,"ner":1476,"iss":1477,"models":1478,"pose":1479,"IM":1480,"ailable":1481,"we":1482,"tx":1483,"poch":1484,"mode":1485,"Ġact":1486,"bin":1487,"license":1488,"Ġdistributed":1489,"Ġprocess":1490,"Ġpad":1491,"Ġpi":1492,"python":1493,"[-":1494,"cri":1495,"Ġcor":1496,"PE":1497,"uler":1498,"Dataset":1499,"resh":1500,"save":1501,"ĠSt":1502,"ĠDict":1503,"mbda":1504,"vo":1505,"Python":1506,"Ġother":1507,"LO":1508,"Ġone":1509,"ister":1510,"iven":1511,"ster":1512,"Ġright":1513,"mplet":1514,"ug":1515,"Ġframe":1516,"Ġ['":1517,"Ġstep":1518,"Ġwhen":1519,"function":1520,"Ġ{}":1521,"(),":1522,"anag":1523,"ous":1524,"ĠValueError":1525,"Ġ}<":1526,"mean":1527,"Ġ)":1528,"Ġnode":1529,"Name":1530,"Ġmin":1531,"AD":1532,"orld":1533,"spec":1534,"ange":1535,"lama":1536,"().__":1537,"return":1538,"ody":1539,"ffusion":1540,"////////":1541,"over":1542,"Ġhave":1543,"Ġcomm":1544,"Test":1545,"Ġeach":1546,"Ġonly":1547,"ores":1548,"lement":1549,"iginal":1550,"html":1551,"off":1552,"Ġquery":1553,"Ġbut":1554,"anager":1555,"ĠPro":1556,"Ġdtype":1557,"pache":1558,"object":1559,"ĠQ":1560,"000":1561,"vider":1562,"IS":1563,"Ġeval":1564,"itle":1565,"round":1566,"filename":1567,"box":1568,"ization":1569,"Get":1570,"Ġresults":1571,"keys":1572,"Ġcreate":1573,"ampl":1574,"local":1575,"Ġcopy":1576,"rix":1577,"ENSE":1578,"ake":1579,"Ġlin":1580,"][":1581,"ting":1582,"dtype":1583,"Ġvalid":1584,"rowser":1585,"Ġtask":1586,"dm":1587,"cli":1588,"ton":1589,"mory":1590,"ICENSE":1591,"\"{":1592,"tool":1593,"AC":1594,"page":1595,".\")<":1596,"Ġ]<":1597,"oc":1598,"dev":1599,"results":1600,"seed":1601,"ote":1602,"Ġrandom":1603,"ists":1604,"Ġtokenizer":1605,"...,":1606,"ater":1607,"={":1608,"names":1609,"prefix":1610,"layers":1611,"question":1612,"Ġitem":1613,"Ġformat":1614,"ulti":1615,"now":1616,"std":1617,";<":1618,"tadata":1619,">_":1620,"Ġmatch":1621,"ingle":1622,"mark":1623,"\\\\":1624,"rc":1625,"pected":1626,"Ġ..":1627,"width":1628,"Ġpart":1629,"ast":1630,"var":1631,"Ġembedding":1632,"Ġevent":1633,"Ġwork":1634,"seq":1635,"50":1636,"struct":1637,"Ġtotal":1638,"arded":1639,"Ġgiven":1640,"client":1641,"stant":1642,"Ġpat":1643,"Ġgroup":1644,"current":1645,"ite":1646,"EM":1647,"chunk":1648,"qdm":1649,"reak":1650,"uration":1651,"Ġany":1652,"\"\"\"":1653,"pth":1654,"':<":1655,"bias":1656,"last":1657,"Ġpytest":1658,"uate":1659,"event":1660,"igh":1661,"rapp":1662,"ĠY":1663,"ariable":1664,"cord":1665,"heads":1666,"ĠĠĠĠĠĠĠĠĠĠĠĠĠĠĠĠĠĠĠĠĠĠĠĠ":1667,"down":1668,"cheduler":1669,"nection":1670,"exer":1671,"rameter":1672,"Ġ\\<":1673,"Ġurl":1674,"cab":1675,"Ġfirst":1676,"Dict":1677,"Ġarg":1678,"Ġargument":1679,"Pa":1680,"bar":1681,"Ġtuple":1682,"istory":1683,"attention":1684,"alled":1685,"ialize":1686,"items":1687,"Ġ{}<":1688,"Me":1689,"Par":1690,"01":1691,"Ġrequired":1692,"Line":1693,"ents":1694,"Ġ8":1695,"=(":1696,"ender":1697,"Ġlast":1698,"tring":1699,"update":1700,"DI":1701,"fact":1702,"Ġscale":1703,"efault":1704,"root":1705,"llm":1706,"tokenizer":1707,"mpty":1708,"Ġmust":1709,"lines":1710,"Ġvalues":1711,"Ġiter":1712,"allable":1713,"global":1714,"Ġtop":1715,"Ġcontent":1716,"__()<":1717,"of":1718,"move":1719,"level":1720,"served":1721,"top":1722,"ĠAll":1723,"Ġshape":1724,"table":1725,"'.":1726,"FA":1727,"Ġthread":1728,"su":1729,"lot":1730,"Ġbuild":1731,"List":1732,"fn":1733,"Ġfilename":1734,"Ġposition":1735,"Ġsent":1736,"ustom":1737,"Ġusing":1738,"types":1739,"Ġlayer":1740,"are":1741,"Ġhttps":1742,"pus":1743,"ĠPython":1744,"uture":1745,"ĠJ":1746,"Ġsource":1747,"Ġattention":1748,"be":1749,"values":1750,"ULT":1751,"ature":1752,"ify":1753,"face":1754,"strip":1755,"training":1756,"buffer":1757,"rid":1758,"Ġread":1759,"dist":1760,"cond":1761,"Ġlanguage":1762,"Ġtemp":1763,"CO":1764,"=[":1765,"ze":1766,"ould":1767,"ĠException":1768,"older":1769,"OT":1770,"exec":1771,"scription":1772,"style":1773,"umn":1774,"ateg":1775,"ource":1776,"ension":1777,"rt":1778,"raw":1779,"\"):<":1780,"erver":1781,"ĠSee":1782,"uce":1783,"ltk":1784,"perty":1785,"ware":1786,"post":1787,"Ġcontain":1788,"our":1789,"\"])<":1790,"ĠPath":1791,"uation":1792,"Ġover":1793,"lr":1794,"zero":1795,"Ġsave":1796,"weights":1797,"color":1798,"ead":1799,"encoder":1800,"random":1801,"ob":1802,"Ġchunk":1803,"ĠPy":1804,"wn":1805,"ross":1806,"Ġyield":1807,"ĠData":1808,"Ġlength":1809,"Ġ//":1810,"Ġinst":1811,">)":1812,"ĠFor":1813,"embeddings":1814,"www":1815,"File":1816,"utf":1817,"Ġinstance":1818,"Ġconv":1819,"Ġsee":1820,"56":1821,"Ġcfg":1822,"Ġsk":1823,"sys":1824,"Ġtraining":1825,"Ġsupport":1826,"Ġbo":1827,"Ġwhile":1828,"Lexer":1829,"Ġ\"<":1830,"clude":1831,"Ġfound":1832,"\"),<":1833,"CON":1834,"lease":1835,"try":1836,"pretrained":1837,"Ġsoft":1838,"ĠModel":1839,"Ġhelp":1840,"cre":1841,"ice":1842,"ĠLo":1843,"gic":1844,"=-":1845,"De":1846,"Ġ{\"":1847,"otion":1848,"ans":1849,"distributed":1850,"Ġ(\"":1851,"replace":1852,"wh":1853,"~~~~~~~~":1854,"dd":1855,"alo":1856,"================================":1857,"Ġfin":1858,"Base":1859,"Ġval":1860,"Ġenum":1861,"AB":1862,"HO":1863,"TO":1864,"stream":1865,"Ġdirectory":1866,"ible":1867,"(-":1868,"trics":1869,"normal":1870,"Ġdoes":1871,"cpu":1872,"attn":1873,"req":1874,"cv":1875,"eta":1876,"bute":1877,"olution":1878,"features":1879,"licy":1880,"vision":1881,"La":1882,"ert":1883,"Net":1884,"Ġcls":1885,"score":1886,"-<":1887,"ĠTest":1888,"ĠUnion":1889,"debug":1890,"less":1891,"opt":1892,"cs":1893,"sor":1894,"Ch":1895,"source":1896,"Ġins":1897,"zeros":1898,"action":1899,"loader":1900,"Text":1901,"]]":1902,"lex":1903,"labels":1904,"ui":1905,"ume":1906,"copy":1907,"Ġlabels":1908,"Di":1909,"select":1910,"icro":1911,"close":1912,"pping":1913,"Ġglobal":1914,"ĠKey":1915,"Ġreserved":1916,"samples":1917,"sq":1918,"****":1919,"ates":1920,"Ġ):<":1921,"Ġob":1922,"Ġwrit":1923,"Ar":1924,"Ġass":1925,"DO":1926,"ĠDefault":1927,"Ġrights":1928,"pack":1929,"les":1930,"Ġstream":1931,"rand":1932,"window":1933,"SI":1934,"ress":1935,"[...,":1936,"Ġtrans":1937,"ises":1938,"Ġneed":1939,"ultip":1940,"Token":1941,"udio":1942,"Ġ6":1943,"offset":1944,"thread":1945,"keep":1946,"match":1947,"EC":1948,"lm":1949,"Ġtqdm":1950,"cul":1951,"Ġreg":1952,"gent":1953,"Ġinto":1954,"Set":1955,"points":1956,"Ġpython":1957,"Equal":1958,"create":1959,"space":1960,"ins":1961,"Ġkernel":1962,"dent":1963,"Ġexec":1964,"options":1965,"ED":1966,"Ġinputs":1967,"(*":1968,"body":1969,"Ġlimit":1970,"Ġent":1971,"Ġsequence":1972,"lean":1973,"backend":1974,"}\"<":1975,"Ġexpre":1976,"Ġparams":1977,"Ġ12":1978,"Linear":1979,"transformer":1980,"soft":1981,"emb":1982,"EX":1983,"HT":1984,"Un":1985,"Ġspecific":1986,"Ġstyle":1987,"modules":1988,"IL":1989,"hell":1990,"ither":1991,"Ġfla":1992,"ĠTuple":1993,"ĠIPython":1994,"cript":1995,"},<":1996,"Ġidx":1997,"Ġmain":1998,"template":1999,"ccess":2000,"filter":2001,"splay":2002,"my":2003,"epoch":2004,"ollow":2005,"Ġmake":2006,"cho":2007,"rot":2008,"Ġ\"/":2009,"Ġ'../":2010,"ints":2011,"Ġhttp":2012,"Ġaction":2013,"At":2014,"Norm":2015,"part":2016,"Ġ10":2017,"eno":2018,"FAULT":2019,"gpt":2020,"atio":2021,"Ġnon":2022,"The":2023,"nal":2024,"Ġmode":2025,"DIR":2026,"fla":2027,"Ġsplit":2028,"Ġrot":2029,"atern":2030,"iled":2031,"parser":2032,"inputs":2033,"ĠGener":2034,"register":2035,"edge":2036,"Ġchannel":2037,"find":2038,"ĠName":2039,"100":2040,"gex":2041,"forward":2042,"environ":2043,"(),<":2044,"files":2045,"erate":2046,"has":2047,"qa":2048,"_(":2049,"_/":2050,"scores":2051,"property":2052,"indices":2053,"dis":2054,"lication":2055,"evaluate":2056,"ET":2057,"abs":2058,"ified":2059,"utput":2060,"ential":2061,"pred":2062,"Ġbias":2063,"unct":2064,"status":2065,"20":2066,"exists":2067,"prob":2068,"md":2069,"temp":2070,"ility":2071,"Ġwindow":2072,"(__":2073,"ithub":2074,"vect":2075,"lta":2076,"assertEqual":2077,"ĠĠĠĠĠĠĠĠĠĠĠĠĠĠĠĠĠĠĠĠĠĠĠĠĠĠĠ":2078,"tach":2079,"MO":2080,"Ġencoding":2081,"LI":2082,"numpy":2083,"Ġoff":2084,"ĠSet":2085,"ATION":2086,"tinue":2087,"queue":2088,"Ġfiles":2089,"Ġmm":2090,"UR":2091,"etun":2092,"formation":2093,"Ġsome":2094,"cent":2095,"Ġeither":2096,"ĠIS":2097,"Form":2098,"very":2099,"nect":2100,"Ġimplement":2101,"IO":2102,"Ġbreak":2103,"Ġrank":2104,"Ġaxis":2105,"Ġallow":2106,"drop":2107,"Ġdocument":2108,"API":2109,"umber":2110,"Pre":2111,"github":2112,"Ġign":2113,"sg":2114,"Ġdate":2115,"stack":2116,"etch":2117,"Ġcount":2118,"AGE":2119,"miss":2120,"decode":2121,"kernel":2122,"bool":2123,"swith":2124,"txt":2125,"ransformer":2126,"'),<":2127,"ices":2128,"ating":2129,"Ġfa":2130,"ĠBase":2131,"tag":2132,"ENT":2133,"handler":2134,"For":2135,"ĠPage":2136,"ĠImage":2137,"Ġexample":2138,"Exception":2139,"world":2140,"should":2141,"Ġparallel":2142,"ĠGet":2143,"datasets":2144,"RAN":2145,"atter":2146,"Ġoptional":2147,"Ġappli":2148,"dropout":2149,"\"],<":2150,"Ġter":2151,"Ġasyncio":2152,"obs":2153,"ities":2154,"Ġsystem":2155,"Ġpygments":2156,"rap":2157,"words":2158,"Ġab":2159,"Ġav":2160,"lip":2161,"peed":2162,"Ġgenerate":2163,"fore":2164,"Ġtool":2165,"ĠAN":2166,"Ġdis":2167,"requi":2168,"Ġsame":2169,"available":2170,"Ġmock":2171,"ĠYou":2172,"Ġ200":2173,"Context":2174,"Ġcheckpoint":2175,"chedule":2176,"ĠWe":2177,"Ġ\"__":2178,"bone":2179,")))<":2180,"99":2181,"wo":2182,"Ġimp":2183,"Ġoriginal":2184,"amp":2185,"},":2186,"cogn":2187,"Ġstat":2188,"Ġexpected":2189,"wise":2190,"answer":2191,"loop":2192,"YPE":2193,"Ġpip":2194,"Ġmath":2195,"ments":2196,"Te":2197,"gen":2198,"ref":2199,"ift":2200,"ĠOR":2201,"ä¸":2202,"pop":2203,"proj":2204,"Ġbet":2205,"Ġimages":2206,"fi":2207,"En":2208,"Ġsoftware":2209,"msg":2210,"Ġrow":2211,"handle":2212,"ĠCON":2213,"Ġhandle":2214,"POR":2215,"pend":2216,"led":2217,"mplete":2218,"Ġroot":2219,"55":2220,"ap":2221,"Ġlambda":2222,"Ġnltk":2223,"Ġ>=":2224,"AME":2225,"ï¼":2226,"Ġparameters":2227,"graph":2228,")]<":2229,"fter":2230,"Ġwidth":2231,"frames":2232,"search":2233,"alcul":2234,"ĠVersion":2235,"parameters":2236,"Ġattn":2237,"quee":2238,"aded":2239,"Ġsentence":2240,"sequence":2241,"plot":2242,"encode":2243,"Ġcache":2244,"Ġtr":2245,"\").":2246,"lu":2247,"ĠText":2248,"Ġlocal":2249,"edit":2250,"Bu":2251,"Ġcase":2252,"ĠĠĠĠĠĠĠĠĠ":2253,"mer":2254,"rate":2255,"Ġoptimizer":2256,"ifier":2257,"40":2258,"Ġcur":2259,"ĠApache":2260,"queeze":2261,"}.":2262,"lection":2263,"11":2264,"Ġtransformers":2265,"ĠNot":2266,"Ġstd":2267,"rapper":2268,"ax":2269,"Ġnext":2270,"cape":2271,"uthor":2272,"IG":2273,"stract":2274,"Ġvideo":2275,"Ġ\"\\":2276,"Ġpatch":2277,"ĠWh":2278,"({":2279,"lation":2280,"Ġfollow":2281,"Ġ'.":2282,"Ġnormal":2283,"uction":2284,"Path":2285,"unter":2286,"80":2287,"ML":2288,"ical":2289,"squeeze":2290,"UN":2291,"Ġ--":2292,"ĠCh":2293,"ĠMo":2294,"Ġparse":2295,"Ġdown":2296,"PO":2297,"TI":2298,"}\\":2299,"Ġ7":2300,"ATA":2301,"Ġlines":2302,"make":2303,"book":2304,"mpletion":2305,"Ġform":2306,"Ġret":2307,"hook":2308,"erature":2309,"Ġdeta":2310,"ITION":2311,"kit":2312,"oto":2313,"tern":2314,"Ġenumerate":2315,"Ġcom":2316,"memory":2317,"ather":2318,"PU":2319,"ĠString":2320,"__(<":2321,"script":2322,"final":2323,"meta":2324,"Ġpadding":2325,"ĠAPI":2326,"Ġexist":2327,"\"))<":2328,"SD":2329,"ĠAt":2330,"lower":2331,"example":2332,"shot":2333,"ĠServer":2334,"ĠDi":2335,"logits":2336,"latform":2337,"TP":2338,"Ġkeep":2339,"lear":2340,"Ġoptions":2341,"imple":2342,"EY":2343,"})<":2344,"ĠCallable":2345,"processing":2346,"TR":2347,"bot":2348,"Image":2349,"Ġprefix":2350,"Pi":2351,"manager":2352,"Ġinformation":2353,"thing":2354,"Ġmessages":2355,"''":2356,"TH":2357,"ĠOF":2358,"blocks":2359,"ampler":2360,"gine":2361,"ger":2362,"sync":2363,"title":2364,"total":2365,"ark":2366,"Ġrequests":2367,"LU":2368,"inference":2369,"tings":2370,"ay":2371,"dirs":2372,"factor":2373,"ĠLICENSE":2374,"images":2375,"tuple":2376,"mail":2377,"Ġcolor":2378,"Ġexpress":2379,"AI":2380,"bytes":2381,"Ġinspect":2382,"tok":2383,"matrix":2384,"Process":2385,"################################":2386,"div":2387,"Ġcontinue":2388,"used":2389,"Ġkeys":2390,"PRO":2391,"Ġlat":2392,"ĠDe":2393,"Ġanswer":2394,"Ġ),<":2395,"ib":2396,"Ġobj":2397,":`":2398,"kv":2399,"light":2400,"Ġkwargs":2401,"ency":2402,"Ġignore":2403,".\"<":2404,">\"\"\"":2405,"Not":2406,"ersation":2407,"ĠSh":2408,"height":2409,"Ġenv":2410,"Ġcorrect":2411,"PRE":2412,"Value":2413,"present":2414,"EST":2415,"Ġsum":2416,"Ġwas":2417,"arnings":2418,"Ġcommand":2419,"ged":2420,"Ġmore":2421,"Ġ100":2422,"groups":2423,"ypes":2424,"number":2425,"ratio":2426,"va":2427,"Ġfind":2428,"Ġdist":2429,"Ġho":2430,"Ġmodels":2431,"provider":2432,"Ġ<=":2433,"IND":2434,"pipeline":2435,"`.<":2436,"Ġclient":2437,"ud":2438,"Ġinfo":2439,"indow":2440,"Ġobtain":2441,"Ġgetattr":2442,"Ġinitial":2443,"Key":2444,"Ġafter":2445,"Ġmsg":2446,"isode":2447,"Ġvo":2448,"Ġ'../_":2449,"Ġlogits":2450,")):<":2451,"Ġ('":2452,"Ġargparse":2453,"Ġ32":2454,"lied":2455,"KEN":2456,"Ġbefore":2457,"Ca":2458,"Col":2459,"axis":2460,"ont":2461,"metadata":2462,"parent":2463,"ĠWAR":2464,"reshape":2465,"ĠTo":2466,"derr":2467,"exception":2468,"tree":2469,"enc":2470,"ench":2471,"atalo":2472,">]<":2473,"lambda":2474,"Ġelement":2475,"empty":2476,"Ġip":2477,"trie":2478,"llama":2479,"ĠRes":2480,"ĠType":2481,"aract":2482,"ĠOpen":2483,"route":2484,"Ġ\"\"<":2485,"lete":2486,"MA":2487,"Ġwhere":2488,"Ġwriting":2489,"Handler":2490,"ultiple":2491,"order":2492,"Message":2493,"only":2494,"Ġpack":2495,"orted":2496,"ĠĠĠĠĠĠĠĠĠĠĠĠ":2497,"License":2498,"ular":2499,"extra":2500,"CT":2501,"KEY":2502,"raises":2503,"pha":2504,"Ġgrad":2505,"generate":2506,"Ġinclude":2507,"(_":2508,"char":2509,"ĠCheck":2510,"ĠANY":2511,"chain":2512,"Ġthen":2513,"ites":2514,"Ġloop":2515,"Ġchange":2516,"Ġorder":2517,"Ġupdate":2518,"pydev":2519,"ason":2520,"Ġ202":2521,"Ġattri":2522,"Ġdatetime":2523,"next":2524,"ĠPa":2525,"Ġ16":2526,"(\"--":2527,"common":2528,"ground":2529,"ined":2530,"ene":2531,"Ġvariable":2532,"stants":2533,"ĠNumber":2534,"vironment":2535,"auto":2536,"pand":2537,"Ġstride":2538,"uous":2539,"connection":2540,"missions":2541,"Argument":2542,"store":2543,"like":2544,"olver":2545,"ivation":2546,"location":2547,"Ġembed":2548,"Ġoffset":2549,".,":2550,"Ġoutputs":2551,"Mix":2552,"mq":2553,"ĠCreate":2554,"cay":2555,"\"][\"":2556,"abled":2557,"repr":2558,"chat":2559,"term":2560,"ields":2561,"nown":2562,"Ġconvert":2563,"ĠLicensed":2564,"State":2565,"Ġrequires":2566,"Ġlimitations":2567,"dition":2568,"ful":2569,"cable":2570,"ush":2571,"embeds":2572,"LS":2573,"Ġpost":2574,"go":2575,"goto":2576,"Ġits":2577,"ĠWARRAN":2578,"Ġcho":2579,"foo":2580,"Ġwords":2581,"ensure":2582,"Ġapplicable":2583,"uff":2584,"Ġarguments":2585,"uid":2586,"orn":2587,"Ġta":2588,"Ġsingle":2589,"ĠImport":2590,"Ġweights":2591,"folder":2592,"paths":2593,"static":2594,"Ġspecified":2595,"ĠWIT":2596,"Ġnames":2597,"TIES":2598,"Train":2599,"Ġprob":2600,"VID":2601,"This":2602,"Ġtag":2603,"Ġagre":2604,"Ġbrowser":2605,"ell":2606,"ready":2607,"FF":2608,"flow":2609,"optimizer":2610,")[":2611,"vis":2612,"first":2613,"ĠTe":2614,"ĠWARRANTIES":2615,"ages":2616,"Ġlaw":2617,"Ġpermissions":2618,"vector":2619,"NAME":2620,"PY":2621,"man":2622,"Ġgover":2623,"Ġheight":2624,"Ġexc":2625,"eed":2626,"src":2627,"direct":2628,"vocab":2629,"Ġthan":2630,"ERS":2631,"command":2632,"Po":2633,"Ġman":2634,"Output":2635,"LICENSE":2636,"Ġbin":2637,"ctionary":2638,"logging":2639,"Parser":2640,"Ġmetrics":2641,"HOUT":2642,"bi":2643,"Conv":2644,"build":2645,"ĠWITHOUT":2646,"Ġmetadata":2647,"liance":2648,"ĠAuto":2649,"Ġfilter":2650,"'):<":2651,"ĠKIND":2652,"rag":2653,"Ġmp":2654,").__":2655,"licenses":2656,"á»":2657,"Ġtree":2658,"ĠDE":2659,"////////////////":2660,"Implement":2661,"xy":2662,"'\\":2663,"icode":2664,"Ġraw":2665,"Ġimplied":2666,"ataloader":2667,"Em":2668,"'])<":2669,"Ġcompliance":2670,"`<":2671,"apache":2672,"sing":2673,"})":2674,"ĠBAS":2675,"ITIONS":2676,"IA":2677,"ĠĠĠĠĠĠĠĠĠĠ":2678,"__\":<":2679,"\"],":2680,"ĠCOND":2681,"exit":2682,"vided":2683,"ĠUnless":2684,"Ġagreed":2685,"stop":2686,"linear":2687,"imum":2688,"Ġgoverning":2689,"ĠBASIS":2690,"ĠCONDITIONS":2691,"cker":2692,"Ġhere":2693,"let":2694,"audio":2695,"Ġavailable":2696,"Ġ\".":2697,"gress":2698,"fc":2699,"Ġdf":2700,"socket":2701,"perator":2702,"ļĦ":2703,"Ġctx":2704,"timeout":2705,"Ġtypes":2706,"çļĦ":2707,"prec":2708,"ools":2709,"Ġindices":2710,"Ġ=>":2711,"Ġrepresent":2712,"trace":2713,"_{":2714,"depth":2715,"ĠLa":2716,"Ġtimeout":2717,"Ġextra":2718,"Head":2719,"expert":2720,"\");<":2721,"zy":2722,"\"].":2723,"Ġscore":2724,"Ġfeature":2725,"Tokenizer":2726,"Event":2727,"Ġauto":2728,"Ġver":2729,"Ġmean":2730,"Ġtests":2731,"softmax":2732,"Ġthere":2733,"------------":2734,"Ġexception":2735,"fp":2736,"Ġaudio":2737,"Ġselect":2738,"host":2739,"agent":2740,"Ġrecord":2741,"gpu":2742,"arm":2743,"Client":2744,"transpose":2745,"Ġtwo":2746,"stamp":2747,"rich":2748,"Ġcompute":2749,"future":2750,"tmp":2751,"Ġconsole":2752,"itespace":2753,"history":2754,"Ġlicense":2755,"Ġlevel":2756,"Ġcalled":2757,"Ġu":2758,"Ġfunc":2759,"RL":2760,"}/":2761,"stdout":2762,"err":2763,"----------------------------------------------------------------":2764,"ait":2765,"FO":2766,"Ġmemory":2767,"ween":2768,"dirname":2769,"Gener":2770,"gt":2771,"MODE":2772,"dot":2773,"fl":2774,"vious":2775,"encoding":2776,"VIDIA":2777,"ĠTool":2778,"verage":2779,"Ġ64":2780,"fin":2781,"ĠMe":2782,"ank":2783,"pytest":2784,"role":2785,"hether":2786,"US":2787,"description":2788,"lan":2789,"TOKEN":2790,"atches":2791,"igma":2792,"Ġmatrix":2793,"Mixin":2794,"24":2795,"ĠCOR":2796,"Inter":2797,"Ġdetails":2798,"LL":2799,"Ġlike":2800,"Ġ'#":2801,"eps":2802,"bose":2803,"irs":2804,"ATE":2805,"Ġsamples":2806,"callback":2807,"Block":2808,"Ġwarnings":2809,"staticmethod":2810,"Frame":2811,"rection":2812,"Ġold":2813,"Ġwrite":2814,"Ġembeddings":2815,"(\"\\":2816,"ĠComp":2817,"pan":2818,"KING":2819,"Th":2820,"ie":2821,"pter":2822,"ik":2823,"\"\\":2824,"lections":2825,"Ġred":2826,"cont":2827,"Ġlay":2828,"33":2829,"dump":2830,"full":2831,"grid":2832,"Request":2833,"DATA":2834,"Ġreference":2835,"tils":2836,"compile":2837,"upport":2838,"messages":2839,"play":2840,"ĠIt":2841,"og":2842,"Ġseq":2843,"butes":2844,"Implemented":2845,"inf":2846,"itude":2847,"Ġjust":2848,"iguous":2849,"'].":2850,"orage":2851,"project":2852,"Ġteam":2853,"ampling":2854,"schedule":2855,"ĠNVIDIA":2856,"ĠTensor":2857,"ffix":2858,"Loader":2859,"Ġdiffer":2860,"Ġquatern":2861,"wd":2862,"leep":2863,"Ġsign":2864,"verse":2865,"Ġfollowing":2866,"14":2867,"startswith":2868,"correct":2869,"Ġbased":2870,"cursor":2871,"'],":2872,"wer":2873,"left":2874,"Ġdisplay":2875,"ora":2876,"Ġfull":2877,"classmethod":2878,"ckle":2879,"30":2880,"istr":2881,"sign":2882,"connect":2883,"ĠConfig":2884,"Prompt":2885,"Ġ&":2886,"apply":2887,"board":2888,"Ġencoder":2889,"Ġnoqa":2890,"cause":2891,"Class":2892,"usal":2893,"Ġchild":2894,"Ġpoint":2895,"Ġhasattr":2896,"FIX":2897,"reshold":2898,"ĠPre":2899,"cura":2900,"0000":2901,"Layer":2902,"locator":2903,"Ġbuffer":2904,"Ġchannels":2905,"Ġvi":2906,"Ġbytes":2907,"ĠCORPOR":2908,"App":2909,"ĠCORPORATION":2910,"mod":2911,"__)<":2912,"ĠCom":2913,"34":2914,"WOR":2915,"ĠX":2916,"Ġmmcv":2917,"non":2918,"difi":2919,"Ġmulti":2920,"ones":2921,"ĠNote":2922,"ignment":2923,"ĠNotImplemented":2924,"ndarray":2925,"delta":2926,"512":2927,"::":2928,"lap":2929,"Mo":2930,"ugging":2931,"atten":2932,"Ġfeatures":2933,"PL":2934,"unsqueeze":2935,"asset":2936,"Ġgt":2937,"gest":2938,"Ġquestion":2939,"pare":2940,"Ġ20":2941,"functional":2942,"Ġdescription":2943,"Ġbetween":2944,"ctx":2945,"ensions":2946,"feature":2947,"rary":2948,"Ġmagic":2949,"</":2950,"policy":2951,"Pipeline":2952,"can":2953,"mall":2954,"remove":2955,"ĠTO":2956,"INT":2957,"Ġmodules":2958,"Ġdon":2959,"Ġax":2960,"reward":2961,"ado":2962,"Object":2963,"conds":2964,"Ġfinal":2965,"pol":2966,"Ġprovided":2967,"ĠBSD":2968,"active":2969,"Ġ],<":2970,"Ġclo":2971,"initial":2972,"Any":2973,"(\"/":2974,"Ġlr":2975,"cognizer":2976,"eff":2977,"sim":2978,"Ġcre":2979,"control":2980,"ish":2981,"buil":2982,"vars":2983,"UM":2984,"system":2985,"ty":2986,"pass":2987,"Ġcalcul":2988,"Info":2989,"Logger":2990,"mt":2991,"seg":2992,"Ġeps":2993,"ĠRet":2994,"Ġbeen":2995,"tention":2996,"Ġtable":2997,"asic":2998,"inst":2999,"acc":3000,"sentence":3001,"Ġworld":3002,"Ġattr":3003,"DEFAULT":3004,"afe":3005,"]:":3006,"true":3007,"CHEC":3008,"rams":3009,"Ġalso":3010,"Ġtrace":3011,"ĉĉ":3012,"ique":3013,"Ġparameter":3014,"olve":3015,"Check":3016,"clo":3017,"ĠLLM":3018,"ĠHT":3019,"Ġapply":3020,"Ġpipeline":3021,"Ġutils":3022,"It":3023,"Ð°":3024,"ories":3025,"SS":3026,"ian":3027,"plat":3028,"-------------<":3029,"original":3030,"ummy":3031,"compute":3032,"curacy":3033,"Ġsin":3034,"cast":3035,"Ġsocket":3036,"stribution":3037,"Ġzero":3038,"Ġ$":3039,"Ġ9":3040,"Ġapi":3041,"Ġgo":3042,"language":3043,"ĠTh":3044,"Return":3045,"aved":3046,"ï¼Į":3047,"ĠID":3048,"17":3049,"diffusion":3050,"ada":3051,"ose":3052,"tect":3053,"magic":3054,"avg":3055,"Py":3056,"Run":3057,"other":3058,"hes":3059,"ĠPar":3060,"Ġcharact":3061,"48":3062,"ĠURL":3063,"mary":3064,"directory":3065,"Ġsim":3066,"except":3067,"session":3068,"Ġref":3069,"Ġsession":3070,"ittest":3071,"Ġsq":3072,"Ġenvironment":3073,"clip":3074,"AP":3075,"bit":3076,"optim":3077,"Ġio":3078,"cope":3079,"ĠIter":3080,"Ġcollections":3081,"Ġvocab":3082,"Code":3083,"ace":3084,"ĠZ":3085,"ries":3086,"PREFIX":3087,"'))<":3088,"arn":3089,"Ġsearch":3090,"Ġyour":3091,"ĠNotImplementedError":3092,"25":3093,"ZE":3094,"Time":3095,"hed":3096,"Ġbuil":3097,"Ġzip":3098,"wright":3099,"angle":3100,"vec":3101,"Ġextract":3102,"15":3103,"ĠInit":3104,"gin":3105,"console":3106,"ĠOn":3107,"ten":3108,"Ġdrop":3109,"ĠApp":3110,"engine":3111,"stderr":3112,"unch":3113,"coord":3114,"riter":3115,"Response":3116,"Ġskip":3117,"Found":3118,"ative":3119,"decay":3120,"cessed":3121,"Ġ'<":3122,"EXT":3123,"ĠImportError":3124,"\"),":3125,"BU":3126,"Tuple":3127,"Ġobs":3128,"pool":3129,"document":3130,"Temp":3131,"iteral":3132,"tools":3133,"Sh":3134,"Ġfield":3135,"Ġprod":3136,"reduce":3137,"workers":3138,"ili":3139,"vant":3140,"Ġps":3141,"Ġdir":3142,"2024":3143,"PAT":3144,"button":3145,"link":3146,"Ġrunning":3147,"long":3148,"ole":3149,"cation":3150,"peat":3151,"ru":3152,"Ġreturns":3153,"Ġannot":3154,"click":3155,"-----------------------------------------------------------------------------<":3156,"]+":3157,"Ġopt":3158,"ĠKeyword":3159,"ven":3160,"ornado":3161,"Ġsrc":3162,"Ġconfiguration":3163,"Ġ2024":3164,"Ġfunctions":3165,"Ġmpu":3166,":\\":3167,"IGHT":3168,"String":3169,"dient":3170,"ĠAdd":3171,"Ġtemplate":3172,"Size":3173,"ĠTransformer":3174,"Ġdiff":3175,"backends":3176,"platform":3177,"skip":3178,"Ġlib":3179,"limit":3180,"andl":3181,"(?":3182,"So":3183,"imgs":3184,"ym":3185,"dims":3186,"Ġwithout":3187,"bits":3188,"ropy":3189,"cos":3190,"Ġepoch":3191,"('--":3192,"Ġvar":3193,"ways":3194,"Ġreplace":3195,"Init":3196,"ĠCol":3197,"Create":3198,"No":3199,"Ġwant":3200,"ĠFile":3201,"********":3202,"ren":3203,"med":3204,"ilar":3205,"Ġalready":3206,"game":3207,"cell":3208,"Ġsorted":3209,"Ġsetup":3210,"sqrt":3211,"send":3212,"decoder":3213,"serv":3214,"Ġstruct":3215,"tric":3216,"ored":3217,"etuning":3218,"18":3219,"ssed":3220,"quential":3221,"Vi":3222,"ĠĠĠĠĠĠĠĠĠĠĠĠĠĠĠĠĠĠĠĠĠĠ":3223,"itional":3224,"Ġdecode":3225,"Ġtemperature":3226,"{}":3227,"Ġoption":3228,"ckpt":3229,"ass":3230,"Ġcustom":3231,"record":3232,"Ġ{'":3233,"mlp":3234,"Ġ},<":3235,"leg":3236,"Ġmultiple":3237,"contiguous":3238,"Ġfl":3239,"Ġllm":3240,"uring":3241,"Ġparent":3242,"[:-":3243,"lava":3244,"internal":3245,"auss":3246,"celer":3247,"Ġnet":3248,"reen":3249,"dic":3250,"Ġpri":3251,"ĠRun":3252,"enchmark":3253,"late":3254,"ript":3255,"domain":3256,"scheduler":3257,"change":3258,"Ġscript":3259,"nake":3260,"enu":3261,"Ġpd":3262,"dings":3263,"Ġarray":3264,"HE":3265,"Ġremove":3266,"plan":3267,"auth":3268,"Ġedge":3269,"Manager":3270,"mock":3271,"CHECKING":3272,"sd":3273,"exp":3274,"Ġdropout":3275,"Ġtitle":3276,"Ġrender":3277,"Ġpred":3278,"ESS":3279,"Ġplay":3280,"Scheduler":3281,"idget":3282,"Ġstop":3283,"attri":3284,"render":3285,"ðĿ":3286,"column":3287,"dified":3288,"Que":3289,"desc":3290,"tocol":3291,"Ġdirect":3292,"ĠUtils":3293,"angles":3294,"wrap":3295,"Ġtim":3296,"ĠTYPE":3297,"Ġdepth":3298,"ols":3299,"stractmethod":3300,"Formatter":3301,"13":3302,"ii":3303,"76":3304,"her":3305,"Ġcontrol":3306,"Ġdictionary":3307,"Ġseed":3308,"Ġencode":3309,"Ġensure":3310,"Ġthem":3311,"tensors":3312,"ĠComment":3313,"option":3314,"`,":3315,"Ġport":3316,"ighb":3317,"Ġdifferent":3318,"complete":3319,"Ġhistory":3320,"ĠGPT":3321,"ared":3322,"metrics":3323,"Ġhandler":3324,"OP":3325,"VAL":3326,"itive":3327,"Ġang":3328,"Ġbecause":3329,"Ġpretrained":3330,"Ġbox":3331,"custom":3332,"utable":3333,"ux":3334,"mesh":3335,"child":3336,"Ġtf":3337,"ural":3338,"Ġgpt":3339,"headers":3340,"Ġobjects":3341,"Ġempty":3342,"tribute":3343,"Ġlayers":3344,"rl":3345,"Doc":3346,"lab":3347,"Ġpla":3348,"Ġ\",":3349,"ely":3350,"Ġposs":3351,"ignore":3352,"Ġinstall":3353,"Ġcons":3354,"unctools":3355,"MODEL":3356,"alf":3357,"ĠCO":3358,"ha":3359,"probs":3360,")).":3361,"By":3362,"ipython":3363,"hash":3364,"ases":3365,"\"][":3366,"loads":3367,"csv":3368,"EP":3369,"Ġstack":3370,"ĠPIL":3371,"Input":3372,"Ġmer":3373,"exc":3374,"backward":3375,"84":3376,">}<":3377,"execute":3378,"Ġprobab":3379,"UP":3380,"]):<":3381,"ĠÐ":3382,"insert":3383,"concat":3384,"scal":3385,"Ġcomput":3386,"jectory":3387,">__":3388,"``<":3389,"Ġimplementation":3390,"]))<":3391,"Ġdatasets":3392,"Ġ\"--":3393,"entry":3394,"Ġstatus":3395,"Function":3396,"TIM":3397,"mul":3398,"case":3399,"Ġident":3400,"gb":3401,"Ġagent":3402,"diction":3403,"ically":3404,"tokenize":3405,"Ġpathlib":3406,"ategy":3407,"19":3408,"expand":3409,"ĠAl":3410,"uffle":3411,"Ġ*<":3412,"Ġproject":3413,"ride":3414,"pped":3415,"Ġcallback":3416,"][\"":3417,"Ġexp":3418,"atted":3419,"transformers":3420,"annot":3421,"perm":3422,"argv":3423,"'),":3424,"06":3425,"enter":3426,"just":3427,"Ġoper":3428,"Ġdimension":3429,"Parameter":3430,"200":3431,"LLM":3432,"utor":3433,"umns":3434,"Ġsubprocess":3435,"pydevd":3436,"docs":3437,"ĠDEFAULT":3438,"motion":3439,"reset":3440,"ĠĠĠĠĠĠĠĠĠĠĠĠĠ":3441,"Ġ_,":3442,"Ġtrue":3443,"Ġali":3444,"Ġdiffusion":3445,"ORS":3446,"lative":3447,"36":3448,"retro":3449,"__<":3450,"Ġlex":3451,"Ġbackbone":3452,"web":3453,"segment":3454,"Ġnow":3455,"Ġprovider":3456,"agster":3457,"area":3458,"ĠDataset":3459,"'{":3460,"256":3461,"Le":3462,"cing":3463,"crop":3464,"medi":3465,"FIG":3466,"Ġmethods":3467,"Ġthreading":3468,"SIZE":3469,"ĠTODO":3470,"multi":3471,"pid":3472,"andard":3473,"Ġclean":3474,"SET":3475,"runtime":3476,"cut":3477,"eded":3478,"element":3479,"fetch":3480,"rapped":3481,"AIN":3482,"gather":3483,"Ġclasses":3484,"Ġ(`":3485,"SON":3486,"pri":3487,"pture":3488,"anguage":3489,"Ġinstead":3490,"hel":3491,"etune":3492,"Ġdownload":3493,"Ġrotation":3494,"fra":3495,"Ġqueue":3496,"Ġph":3497,"Ġoptim":3498,"aml":3499,"unctuation":3500,"?<":3501,"Ġutil":3502,"CL":3503,"ook":3504,"png":3505,"INE":3506,"roll":3507,"Reg":3508,"nodes":3509,"Ġplt":3510,"Ġprevious":3511,"Loss":3512,"Ġleft":3513,"randn":3514,"Ġthey":3515,"Ġbackend":3516,"Ġheaders":3517,"armup":3518,"Ġtmp":3519,"added":3520,"own":3521,"Ġpartial":3522,"(**":3523,"*.":3524,"outputs":3525,"Ġsupported":3526,"freq":3527,"losses":3528,"ynam":3529,"Ġconversation":3530,"Ġ''":3531,"Ġlong":3532,"ification":3533,"Dis":3534,"LD":3535,"cmd":3536,"Ġinte":3537,"Ġhigh":3538,"Ġsharded":3539,"View":3540,"GR":3541,"single":3542,"display":3543,"blem":3544,"emo":3545,"Ġjo":3546,"Ġtre":3547,"acy":3548,"Ġsuccess":3549,"FT":3550,"uery":3551,"detach":3552,"Ġfunctools":3553,"Ġretrie":3554,"lis":3555,"Ġmap":3556,"Ġsegment":3557,"Comm":3558,"void":3559,"didate":3560,"Ġpassed":3561,"actor":3562,"Ġhash":3563,"ugin":3564,"Float":3565,"On":3566,"cross":3567,"Ġalpha":3568,"Ġbody":3569,"getenv":3570,"escape":3571,"Server":3572,"none":3573,"Ġtok":3574,")),<":3575,"Ġwait":3576,"Ġevery":3577,"actory":3578,"``.<":3579,"Style":3580,"cription":3581,"ategory":3582,"Transformer":3583,"arange":3584,"sen":3585,"Ġ'\\":3586,"ĠEn":3587,"processor":3588,"Loop":3589,"andb":3590,":]<":3591,"SC":3592,"FILE":3593,"struction":3594,"hat":3595,"(\".":3596,"Ġdebug":3597,"peri":3598,"ĠĠĠĠĠĠĠĠĠĠĠĠĠĠ":3599,"Result":3600,"issing":3601,"Diffusion":3602,"mem":3603,"Ġsettings":3604,"ĠSequence":3605,"ango":3606,"ilter":3607,"Ġshort":3608,"As":3609,"episode":3610,"Ġattribute":3611,":%":3612,"Ġrich":3613,"delete":3614,"Ġmod":3615,"ABLE":3616,"Case":3617,"Ġ\"_":3618,"extend":3619,"allback":3620,"Comp":3621,"heel":3622,"Ġdec":3623,"tests":3624,"Ġgenerated":3625,"Item":3626,"ually":3627,"swers":3628,"Ġcontaining":3629,"Ð°Ð":3630,"lue":3631,"orpus":3632,"EMPT":3633,"Ra":3634,"SH":3635,"math":3636,"âĶ":3637,"Ġreturned":3638,"Ġrate":3639,"ĠUse":3640,"Ġregister":3641,"Up":3642,"shell":3643,"Ð¸":3644,"Attention":3645,"center":3646,"edi":3647,"Ġmy":3648,"Ġjob":3649,"tainer":3650,"Ġflags":3651,"æľ":3652,"rep":3653,"loaded":3654,"Invalid":3655,"Ġroute":3656,"ĠBrowser":3657,"ĠGeneric":3658,"22":3659,"rtype":3660,"ãĢ":3661,"Ġ\"-":3662,"users":3663,"clu":3664,"after":3665,"alid":3666,"lice":3667,"stage":3668,"poses":3669,"Ġgr":3670,"Ġ:,":3671,"ĠHTTP":3672,"ness":3673,"EMPTY":3674,"88":3675,":\",":3676,"\\<":3677,"Ġmicro":3678,"initialize":3679,"requires":3680,"Ġmark":3681,"PATH":3682,"Ġ%(":3683,"dataloader":3684,"ĠExample":3685,"CONFIG":3686,"Arguments":3687,"ink":3688,"Ġsure":3689,"Ġprogram":3690,"curity":3691,"indows":3692,"Ġshell":3693,"Ġduring":3694,"An":3695,"ection":3696,"free":3697,"mult":3698,"download":3699,"plotlib":3700,"Ġpoints":3701,"generator":3702,"tokent":3703,"istry":3704,"threshold":3705,"ORM":3706,"sleep":3707,"Ġinference":3708,"ixed":3709,"Ġperform":3710,"jango":3711,"Ġgrid":3712,"rypt":3713,"truth":3714,"Ġboth":3715,"PAGE":3716,"bers":3717,"Ġitems":3718,"NO":3719,"Open":3720,"vend":3721,"ested":3722,"Ġexpert":3723,"á´ĩ":3724,"ĠĠĠĠĠĠĠĠĠĠĠĠĠĠĠĠĠĠĠĠĠĠĠĠĠĠĠĠĠĠĠ":3725,"Ġscores":3726,"Ġentry":3727,"expected":3728,"Ġtheir":3729,"Ġchat":3730,"={\"":3731,"Ġedit":3732,"ars":3733,"1024":3734,"Tra":3735,"Ġour":3736,"Ġcondition":3737,"Ġprovide":3738,"buf":3739,"Ġdoesn":3740,"]]<":3741,"Ġdelta":3742,"ABC":3743,"Ġterm":3744,"Ġge":3745,"enum":3746,"Ġtimes":3747,"Exec":3748,"factory":3749,"blob":3750,"Control":3751,"Ġcolumn":3752,"sql":3753,"choice":3754,"ient":3755,"Ġshow":3756,"interval":3757,"toolkit":3758,"Ġå":3759,"ĠError":3760,"lexer":3761,"Ġcursor":3762,":.":3763,"bn":3764,"pdb":3765,"ĠGPU":3766,"uster":3767,"ĠParameters":3768,"pression":3769,"posal":3770,"ĠDefaults":3771,"spa":3772,"convert":3773,"ĠSo":3774,"Ġosp":3775,"arguments":3776,"alog":3777,"Ġverbose":3778,"(\\":3779,"Hel":3780,"imp":3781,"counter":3782,"Ġ1024":3783,"Ġdone":3784,"getLogger":3785,"Ġep":3786,"Ġpydev":3787,"lineno":3788,"distance":3789,"master":3790,"uman":3791,"completion":3792,"Ġstrings":3793,"success":3794,"ĠSharded":3795,"micro":3796,"Ġdot":3797,"ĠNOT":3798,"Ġdepend":3799,"sharded":3800,"traj":3801,"Ġinterface":3802,"Thread":3803,"With":3804,"sl":3805,"ymb":3806,"respon":3807,"101":3808,"Ġser":3809,"Ġ[[":3810,"Ġpool":3811,"bugger":3812,"Ġaccess":3813,"ugh":3814,"Ġcommon":3815,"globals":3816,"Ġ2023":3817,"known":3818,"ĠLoad":3819,"ĠToken":3820,"flatten":3821,"header":3822,"Ġtransformer":3823,"mpletions":3824,"Ġflag":3825,"Embedding":3826,"Node":3827,"Ret":3828,"Ġdecoder":3829,"Ġ128":3830,"usalLM":3831,"ASE":3832,"ĠFunction":3833,"done":3834,"Ġpickle":3835,"Ġols":3836,"constants":3837,"istant":3838,"batches":3839,"Ġgen":3840,"ives":3841,"Ġdisable":3842,"padding":3843,"elta":3844,"resnet":3845,"Ġmeans":3846,"ĠBy":3847,"Ġdomain":3848,"tn":3849,"grasp":3850,"diff":3851,"ĠAn":3852,"dataclass":3853,"Parallel":3854,"Ġabout":3855,"zip":3856,"Ġvector":3857,"uter":3858,"--<":3859,"ings":3860,"igned":3861,"flags":3862,"::<":3863,"DB":3864,"support":3865,"warning":3866,"Ġabs":3867,"Ġfp":3868,"Ġ255":3869,"Ġsepar":3870,"stride":3871,"epochs":3872,"dest":3873,"ĠIN":3874,"ERR":3875,"Ġpaths":3876,"Processor":3877,"Ġpossible":3878,"Enum":3879,"TYPE":3880,"Ġreason":3881,"Ġsyn":3882,"Stream":3883,"Ġpythoncom":3884,"mon":3885,"pg":3886,"Ġclose":3887,"Ġconnection":3888,"prod":3889,"Ġpackage":3890,"Ġngram":3891,"Ġstore":3892,"lexers":3893,"96":3894,"bold":3895,"nltk":3896,"oo":3897,"Ġmapping":3898,"choices":3899,"Ġreward":3900,"'''<":3901,"allow":3902,"neg":3903,"STR":3904,"Ġbutton":3905,"ĠRetro":3906,"curr":3907,"clean":3908,"side":3909,"levant":3910,"ily":3911,"()[":3912,"Ġlook":3913,"ublic":3914,"Ġpipe":3915,"Ġcreated":3916,"enate":3917,"exist":3918,"velo":3919,"show":3920,"Ġpygame":3921,"envs":3922,"abstractmethod":3923,"~~~~~~~~~~~~~~~~":3924,"Ġplaywright":3925,"Ġtri":3926,"lang":3927,"parts":3928,"phone":3929,"umul":3930,"Ġexists":3931,"Ġdel":3932,"predict":3933,"timesteps":3934,"ĠUp":3935,"ĠConvert":3936,"Ġquaternion":3937,"pers":3938,"Ġet":3939,"rough":3940,"Ġcos":3941,"Ġunittest":3942,"corator":3943,")}":3944,"BO":3945,"Back":3946,"dictions":3947,"Ġ256":3948,"Ġprec":3949,"ERT":3950,"tim":3951,"reference":3952,"river":3953,"ĠPygments":3954,"shift":3955,"END":3956,"clone":3957,"Ġgenerator":3958,"UTH":3959,"Ġblocks":3960,"ĠTeam":3961,"CE":3962,"vas":3963,"tax":3964,"Ġrequire":3965,"ick":3966,"iform":3967,"zen":3968,"Ġids":3969,"help":3970,"Ġsecond":3971,"umel":3972,"Ġtornado":3973,"``,":3974,"CausalLM":3975,"Factory":3976,"sin":3977,"inner":3978,"ret":3979,"gative":3980,"Ġtasks":3981,".)<":3982,"User":3983,"repeat":3984,"rable":3985,"ForCausalLM":3986,"Ġconstruct":3987,"Ġhow":3988,"Ġevaluation":3989,"fname":3990,"til":3991,"WS":3992,"]*":3993,"Ġá´":3994,"cam":3995,"Console":3996,"ixel":3997,"Ġcontains":3998,"ĠNo":3999,"extract":4000,"joint":4001,"Ġterms":4002,"permute":4003,"Optional":4004,"ier":4005,"Ġag":4006,"Ġ'{":4007,"Ġdb":4008,"Ġcalculate":4009,"QU":4010,"pc":4011,"theta":4012,"Ġlink":4013,"chunks":4014,"WORD":4015,"ynamic":4016,"impl":4017,"Ġplatform":4018,"CA":4019,"MP":4020,"]).":4021,"Ġreal":4022,"Ġconst":4023,"Ġdistance":4024,"hs":4025,"pk":4026,"Ġcv":4027,"Ġerrors":4028,"solution":4029,"arge":4030,"quat":4031,"Ġdesc":4032,"positions":4033,"adapter":4034,"VE":4035,"cir":4036,"Ġ\"#":4037,"Ġloaded":4038,"Ġcast":4039,"openai":4040,"Ġfailed":4041,"05":4042,"quant":4043,"formatter":4044,"Version":4045,"ov":4046,"Ġactual":4047,"ACK":4048,"vendor":4049,"eltaTemp":4050,"Id":4051,"Trans":4052,"rozen":4053,"mes":4054,"Ġreset":4055,"Ġstage":4056,"ĠLanguage":4057,"ĠRole":4058,"Ġenc":4059,"Load":4060,"Ġzmq":4061,"Ġcorrespon":4062,"================================================================":4063,"Ġ).":4064,"ication":4065,"aving":4066,"afet":4067,"ĠDistributed":4068,"variable":4069,"Ġcl":4070,"Ġthese":4071,"ident":4072,"Ġrole":4073,"ĠInstr":4074,"direction":4075,"ished":4076,"ĠAs":4077,"())":4078,"Ġmeta":4079,"counts":4080,"HTTP":4081,"Ad":4082,"break":4083,"rng":4084,"section":4085,"Ġbound":4086,"activation":4087,"ĠRa":4088,"jsonl":4089,"aut":4090,"Ġbest":4091,"Ġwho":4092,"idual":4093,"INFO":4094,"efore":4095,"[[":4096,"sem":4097,"resource":4098,"cesses":4099,"Ġcmd":4100,"aussian":4101,"RES":4102,"mapping":4103,"endswith":4104,"tecode":4105,"lengths":4106,"abc":4107,"Ġfinetuning":4108,"].<":4109,"Ġerr":4110,"deep":4111,"Ġsteps":4112,"NotFound":4113,"fields":4114,"application":4115,"erm":4116,"Ġdataclasses":4117,"gexLexer":4118,"Ġfuture":4119,"Ġcrop":4120,"Ġcomb":4121,"masked":4122,"Ġgraph":4123,"Spec":4124,"sizes":4125,"Ġpositions":4126,"ĠWhen":4127,"').":4128,"IP":4129,"Var":4130,"vari":4131,"Ġmon":4132,"ĠĠĠĠĠĠĠĠĠĠĠĠĠĠĠĠĠ":4133,"timestamp":4134,"Ġpredict":4135,"Ġcaption":4136,"Ġiteration":4137,"Des":4138,"USE":4139,"ĠTime":4140,"ops":4141,"TestCase":4142,"Ġ--------":4143,"ended":4144,"Ġwhether":4145,"quatern":4146,"questions":4147,"Ġlet":4148,"stats":4149,"ĠStyle":4150,"ĠInitialize":4151,"Gra":4152,"pair":4153,"urse":4154,"asure":4155,"day":4156,"normalize":4157,"Ġlatent":4158,"cla":4159,"equal":4160,"gor":4161,"rier":4162,"backbone":4163,"Ġactivation":4164,"ĠDataLoader":4165,"manual":4166,"++":4167,"Ġview":4168,"pipe":4169,"Ġshutil":4170,"BUG":4171,"Ġclip":4172,"Ent":4173,"}:":4174,"andom":4175,"Ġradi":4176,"vention":4177,"Ġnodes":4178,"browser":4179,"yload":4180,"okie":4181,"Params":4182,"partition":4183,"ĠIterable":4184,"OUT":4185,"lst":4186,"mk":4187,"dit":4188,"arr":4189,"worker":4190,"objects":4191,"terminal":4192,"eries":4193,"Ġindent":4194,"\"]:<":4195,"Ġuses":4196,"ĠWhitespace":4197,"Ġtraceback":4198,"Warning":4199,"åı":4200,"è¯":4201,"enabled":4202,"Ġap":4203,"Ġfree":4204,"Ġscheduler":4205,"Ġop":4206,"indent":4207,"curs":4208,"ĠInput":4209,"Ġhook":4210,"27":4211,"04":4212,"ME":4213,"ality":4214,"__.__":4215,"Ġdagster":4216,"ĠPunctuation":4217,"Ġcomplete":4218,"reader":4219,"Ġscal":4220,"LTK":4221,"Ġchunks":4222,"Ġmany":4223,"ogle":4224,"Ġannotations":4225,"Ġdefaultdict":4226,"Ġ512":4227,"OC":4228,"fill":4229,"Ġjedi":4230,"Reader":4231,"ASS":4232,"examples":4233,"ga":4234,"Ġmatches":4235,"Ġevents":4236,"offsets":4237,"Queue":4238,"]):":4239,"Ġspeed":4240,"entropy":4241,"Ġ(...,":4242,"ĠTrain":4243,"Ġexpect":4244,"ĠBu":4245,"codes":4246,"ĠHugging":4247,"Ġgroups":4248,"Ġfinally":4249,"FL":4250,"xx":4251,"dia":4252,"Ġsnake":4253,"Ġlang":4254,"timeError":4255,"Ġlibrary":4256,"gorith":4257,"Ġ\"{":4258,"edDict":4259,"ĠTask":4260,"AND":4261,"Ġ1000":4262,"tracker":4263,"Ġvalidation":4264,"dotenv":4265,"install":4266,"Build":4267,"orer":4268,"usage":4269,"Ġwithin":4270,"vertices":4271,"Ġinitialize":4272,"eedback":4273,"_,":4274,"Ġconf":4275,"ĠAd":4276,"program":4277,"ived":4278,"ideo":4279,"Ġframes":4280,"Ġwould":4281,"ĠCLI":4282,"Ġglob":4283,"masks":4284,"ĠIndex":4285,"Ġsuch":4286,"ibility":4287,"Ġencoded":4288,"security":4289,"atural":4290,"Ġspa":4291,"lick":4292,"ĠInc":4293,"\"[":4294,">):<":4295,"Add":4296,"retrie":4297,"'],<":4298,"redential":4299,"patial":4300,"makedirs":4301,"andlers":4302,"Eval":4303,"Str":4304,"gr":4305,"enable":4306,"demo":4307,"road":4308,"construct":4309,"ĠPo":4310,"Ġneg":4311,"rupt":4312,"TIME":4313,"GPT":4314,"tty":4315,"xml":4316,"onent":4317,"Ġaverage":4318,"Ġseconds":4319,"Ġarea":4320,"ALL":4321,"conversation":4322,".*":4323,"LP":4324,"Pool":4325,"cc":4326,"this":4327,"Source":4328,"Ġreport":4329,"ĠLiteral":4330,"Ġvis":4331,"Ġneeded":4332,"LOAD":4333,"Ġ'./":4334,"Ġrelative":4335,"ĠOr":4336,"Sequential":4337,"ture":4338,"}\",":4339,"çĶ":4340,"roy":4341,"uted":4342,"Ġshift":4343,"astype":4344,"rtual":4345,"ĠMock":4346,"MAX":4347,"kpt":4348,"sv":4349,"Ġsaved":4350,"pytorch":4351,"75":4352,"ech":4353,"yaml":4354,"metric":4355,"ash":4356,"setup":4357,"uper":4358,"Ġdataclass":4359,"Ġalways":4360,"ĠConv":4361,"COL":4362,"where":4363,"åĪ":4364,"real":4365,"Ġmu":4366,"ĠOperator":4367,"Ġparts":4368,"Ġattributes":4369,"Ġpsutil":4370,"legacy":4371,"rgb":4372,"zmq":4373,"ä»":4374,"orig":4375,"ĠDis":4376,"oug":4377,"temperature":4378,"ied":4379,"ves":4380,"ird":4381,"Ġadded":4382,"Ġquat":4383,"Ġallowed":4384,"70":4385,"Pos":4386,"cii":4387,"Ġavoid":4388,"peech":4389,"ĠCompute":4390,"Command":4391,"ERROR":4392,"Dep":4393,"Hook":4394,"Ġinvalid":4395,"Ġemb":4396,"123":4397,"havi":4398,"site":4399,"Ġremo":4400,"__.":4401,"Ġ'__":4402,"sets":4403,"short":4404,"ĠModule":4405,"aiss":4406,"pattern":4407,"Ġproj":4408,"quire":4409,"runner":4410,"prompts":4411,"crete":4412,"flag":4413,"Fore":4414,"Ġsigma":4415,"Ġ-*":4416,"undle":4417,"ypot":4418,"Ġcompat":4419,"Agent":4420,"Wrapper":4421,"\\.":4422,"before":4423,"}{":4424,"dec":4425,"Ġrecognizer":4426,"Ġdt":4427,"activ":4428,"Ġtensors":4429,"tributeError":4430,"dated":4431,"Ġsend":4432,"access":4433,"cording":4434,"Ġusage":4435,"Ġsuffix":4436,"Ġpattern":4437,"ighbor":4438,"pdf":4439,"sampler":4440,"áº":4441,"getitem":4442,"amma":4443,"Ġparsed":4444,"antic":4445,"Ġfilenames":4446,"LayerNorm":4447,"Ġvia":4448,"Tree":4449,"numel":4450,"Ġnoise":4451,"GB":4452,"half":4453,"lated":4454,"player":4455,"upy":4456,"Ġloc":4457,"ĠOutput":4458,"Ġvari":4459,"Ġprompts":4460,"Ġtags":4461,"Corpus":4462,"ox":4463,"Ġaff":4464,"Ġexit":4465,"ĠDep":4466,"ctest":4467,"copyright":4468,"rices":4469,"Start":4470,"mini":4471,"Ġcalls":4472,"mpleted":4473,"Ġvariables":4474,"concatenate":4475,"Face":4476,"tract":4477,"oral":4478,"Ġsampling":4479,"Ġloader":4480,".\",<":4481,"ear":4482,"lora":4483,"Ġcoord":4484,"Ġstdout":4485,"upyter":4486,"'[":4487,"OS":4488,"###":4489,"ĠĠĠĠĠĠĠĠĠĠĠĠĠĠĠĠĠĠĠĠĠ":4490,"Ġrule":4491,"Template":4492,"rammar":4493,"listdir":4494,"tasks":4495,"Ġ{}\".":4496,"CONST":4497,"Or":4498,"Please":4499,"]),":4500,"sigma":4501,"}'":4502,"Ġcam":4503,"dif":4504,"scene":4505,"Ġtools":4506,"cert":4507,"email":4508,"inv":4509,"Ġfew":4510,"Ġdefined":4511,"const":4512,"chema":4513,"Ġbeing":4514,"Ġassign":4515,"Ġreduce":4516,"Document":4517,"Ġcod":4518,"Ġpl":4519,"Ġforce":4520,"cost":4521,"redentials":4522,"/{":4523,"CF":4524,"Mask":4525,"gui":4526,"hot":4527,"small":4528,"Ġmissing":4529,"camer":4530,"={<":4531,"hello":4532,"(\"<":4533,"Meta":4534,"VER":4535,"ORE":4536,"address":4537,"selector":4538,"qkv":4539,"deta":4540,"lem":4541,"Ġstandard":4542,"prop":4543,"Ġunique":4544,"empt":4545,"}')<":4546,"Ġfields":4547,"Ġrepr":4548,"Ġinstr":4549,"ĠNLTK":4550,"ĠIO":4551,"cheme":4552,"trieval":4553,"Ġangle":4554,"udent":4555,"depend":4556,"conf":4557,"Ġopenai":4558,"Ġevaluate":4559,"ĠJSON":4560,"qt":4561,"ÑĢ":4562,"ines":4563,"ues":4564,"Ġlosses":4565,"Ġorig":4566,"fast":4567,"Ġimgs":4568,"ãĢĤ":4569,")),":4570,"90":4571,"NE":4572,"VI":4573,"bound":4574,"PORT":4575,"Cache":4576,"ĠHuggingFace":4577,"warn":4578,"cuit":4579,"lector":4580,"AMA":4581,"alpha":4582,"(\"%":4583,"Ġconstants":4584,"prev":4585,"licit":4586,"bert":4587,"MS":4588,"cit":4589,"ws":4590,"Ġcallable":4591,"Ġ#<":4592,"Ġground":4593,"Ġthrough":4594,"Ġprev":4595,"Ġ2022":4596,"password":4597,"Ġcharacters":4598,"Ġsql":4599,"PR":4600,"orary":4601,"ann":4602,"yscape":4603,"42":4604,"]],":4605,"beta":4606,"bundle":4607,"Ġ}":4608,"settings":4609,"olute":4610,"Ġvalidate":4611,"ACE":4612,"events":4613,"Ġexisting":4614,"SSL":4615,"mediate":4616,"ire":4617,"Ġckpt":4618,"Index":4619,"Ġcorpus":4620,"({\"":4621,"experts":4622,"Ġ._":4623,"Ġdeep":4624,"Ġdeprec":4625,"ĠFla":4626,"Ġchain":4627,"iteration":4628,"ArgumentParser":4629,"dumps":4630,"TEXT":4631,"segments":4632,"utes":4633,"Ġeff":4634,"ĠĠĠĠĠĠĠĠĠĠĠĠĠĠĠĠĠĠĠĠ":4635,"ĠWindows":4636,"ĠInter":4637,"Ġlearning":4638,"rows":4639,"TE":4640,"]]:<":4641,"gmail":4642,"aly":4643,"Ġsimple":4644,"Ġgradient":4645,"Ġbackward":4646,"ĠPrompt":4647,"Ġflush":4648,"BAL":4649,"eck":4650,"Ġbar":4651,"unet":4652,"sertion":4653,"Ġwhat":4654,"Ġmost":4655,"binary":4656,"required":4657,"Ġstructure":4658,"PAR":4659,"Url":4660,"_.":4661,"ving":4662,"åħ":4663,"ilities":4664,"Ġcover":4665,"transcript":4666,"Buffer":4667,"infos":4668,"Ġprecision":4669,"UTHORS":4670,"yscapes":4671,"064":4672,"har":4673,"safe":4674,"Ġfast":4675,"lish":4676,"tom":4677,"Ġ15":4678,"Ġdatabase":4679,"ysis":4680,"Ġtrunc":4681,"actions":4682,"ĠOS":4683,"Window":4684,"ia":4685,"reason":4686,"Ġdisc":4687,"usr":4688,"Content":4689,"Ġchar":4690,"moe":4691,"opts":4692,"Ġ2006":4693,"ĠChat":4694,"Dropout":4695,"cle":4696,"scope":4697,"äº":4698,"tact":4699,"Ġenable":4700,"LOG":4701,"rotation":4702,"servation":4703,"Ġlexer":4704,"---<":4705,"Ġpe":4706,"upper":4707,"ĠControl":4708,"Ġsentences":4709,"Ġnormalize":4710,"Al":4711,"GN":4712,"Sub":4713,"XT":4714,"tf":4715,"invalid":4716,"Ġdataloader":4717,"Ġdistribution":4718,"Ġlock":4719,"ĠDo":4720,"ancel":4721,"way":4722,"Ġmaximum":4723,"THON":4724,"Trained":4725,"Ġsimilar":4726,"\"}<":4727,"tp":4728,"Ðµ":4729,"ĠClass":4730,"termin":4731,"Ġconfigure":4732,"datetime":4733,"latent":4734,"encies":4735,"Iter":4736,"aa":4737,"clear":4738,"æĺ":4739,"relu":4740,"roq":4741,"iline":4742,"pper":4743,"videos":4744,"Ġcharacter":4745,"attribute":4746,"Ġcorresponding":4747,"roadcast":4748,"bind":4749,"xiv":4750,"rest":4751,"Ġcurr":4752,"ĠAUTHORS":4753,"Ġtraj":4754,"78":4755,"font":4756,"Ġinclu":4757,"ĠĠĠĠĠĠĠĠĠĠĠĠĠĠĠĠĠĠ":4758,"Ġengine":4759,"Ġqkv":4760,"LOBAL":4761,"ste":4762,"proc":4763,"Ġcompletion":4764,"('.":4765,"Ġnumbers":4766,"Encoder":4767,"Ġelements":4768,"ĠTypeError":4769,"builder":4770,"reed":4771,"Ġregex":4772,"ngine":4773,"ava":4774,"Ġmatrices":4775,"ADA":4776,"Socket":4777,"children":4778,"Ġagain":4779,"Batch":4780,"Options":4781,"ipy":4782,"yper":4783,"parameter":4784,"throp":4785,"compat":4786,"Ġshuffle":4787,"Ġmatplotlib":4788,"bins":4789,"Megatron":4790,"Ġscaled":4791,"schedules":4792,"mote":4793,"Ġauth":4794,"Ġcat":4795,"tolist":4796,"Ġ[],":4797,"ĠPer":4798,"ĠMake":4799,"skill":4800,"patches":4801,"filters":4802,"ĠConsole":4803,"ARG":4804,"Ġexamples":4805,"USER":4806,"Ġcoding":4807,"thropic":4808,"Dec":4809,"called":4810,"tb":4811,"warmup":4812,"ination":4813,"Ġbucket":4814,"Audio":4815,"kw":4816,"Ð¾":4817,"Ġdest":4818,"joints":4819,"...\")<":4820,"Ġheader":4821,"vectors":4822,"Ġaliases":4823,"Ġepisode":4824,"35":4825,"Sampler":4826,"field":4827,"uctions":4828,"wrapper":4829,"arxiv":4830,"logs":4831,"ascii":4832,"job":4833,"Ġ...<":4834,"package":4835,"ĠCor":4836,"ending":4837,"Ġdemo":4838,"Ġacceler":4839,"Ġplace":4840,"NUM":4841,"tqdm":4842,"stion":4843,"bove":4844,"Generator":4845,"ĠMegatron":4846,"Ġsince":4847,"Ġ----------<":4848,"ling":4849,"Ġada":4850,"Ġsmall":4851,"Ġwrapper":4852,"odal":4853,"akes":4854,"Ġacross":4855,"Ġtransforms":4856,"suffix":4857,"Ġexecution":4858,"lank":4859,"circuit":4860,"gorithm":4861,"!<":4862,")(":4863,"tas":4864,"urable":4865,"Ġremain":4866,"Ġretry":4867,"Ġtrack":4868,"Ġotherwise":4869,"randint":4870,"////////////////////////////////":4871,"ek":4872,"Ġcell":4873,"fail":4874,"corpus":4875,"requests":4876,"Ġ{}'.":4877,"Ġkeepdim":4878,"Ġseg":4879,"ĠMicro":4880,"errors":4881,"Ġcapture":4882,"Ġexpression":4883,"%%":4884,"]['":4885,"sdf":4886,"zure":4887,"ä½":4888,"uting":4889,"Ġfname":4890,"Ġpair":4891,"ĠDoc":4892,"ower":4893,"68":4894,"95":4895,"CESS":4896,"SY":4897,"VERS":4898,"Ġ[-":4899,"ffers":4900,"ialog":4901,"DEBUG":4902,"uggingface":4903,"Ġdiffusers":4904,"ĠRuntimeError":4905,"Ġ'''<":4906,"afety":4907,"PUT":4908,"fd":4909,"ider":4910,"Ġprogress":4911,"home":4912,"based":4913,"Ġutf":4914,"redirect":4915,"Ġ[(":4916,"Ġcould":4917,"Ġlinear":4918,"Ġoperation":4919,"uint":4920,"Ġ~~~~~~~~~~~~~~~~":4921,"Ġsr":4922,"Ġfileids":4923,"exceptions":4924,"Ġbinary":4925,"coords":4926,")\\":4927,"60":4928,"TER":4929,"TEST":4930,"WN":4931,"npy":4932,"Ġoc":4933,"cached":4934,"ĠMulti":4935,"åĲ":4936,"Ġcal":4937,"unit":4938,"ĠNorm":4939,"Ġequal":4940,"Resource":4941,"ĠProject":4942,"Ġlineno":4943,"Ġhost":4944,"Mode":4945,"ema":4946,"Ġ----":4947,"Ġ\"\",":4948,"Ġinner":4949,"Ġ((":4950,"ĠLlama":4951,"ĠRot":4952,"jobs":4953,"Ġquant":4954,"simple":4955,"ĠRep":4956,"ĠAttributeError":4957,"Ġquaternions":4958,"benchmark":4959,"every":4960,"æķ":4961,"Ġtesting":4962,"Connection":4963,"Ġscene":4964,"accuracy":4965,"ĠLayer":4966,"Handle":4967,"Query":4968,"cp":4969,"Ġbot":4970,"Ġ'''":4971,"Ġpolicy":4972,"Ġaccept":4973,"([\"":4974,"hf":4975,"pip":4976,"Ġconnect":4977,"()))<":4978,"ĠSample":4979,"trf":4980,"ITY":4981,"LOC":4982,"ources":4983,"ĠCOM":4984,"Dirs":4985,"bbox":4986,"}\"":4987,"sep":4988,"Ġans":4989,"ranch":4990,"Ġstates":4991,"Ġtargets":4992,"ĠĠĠĠĠĠĠĠĠĠĠĠĠĠĠĠĠĠĠĠĠĠĠĠĠĠĠĠ":4993,"201":4994,"DP":4995,"Filter":4996,"Ġfn":4997,"Ġ\"%":4998,"ceived":4999,"tower":5000,"Ġprocessed":5001,"rong":5002,"okup":5003,"urls":5004,"perties":5005,"Ġinstalled":5006,"hesis":5007,"28":5008,"cer":5009,"git":5010,"Ġfra":5011,"Ġplayer":5012,"Ġ'-":5013,"']:<":5014,"Valid":5015,"cro":5016,"alize":5017,"Ġmlp":5018,"Ġsuc":5019,"driver":5020,"Ġnamed":5021,"Ġsoftmax":5022,"Ġselected":5023,"Ġinteger":5024,"FloatTensor":5025,"77":5026,"ired":5027,"nan":5028,"regex":5029,"storage":5030,"detect":5031,"Ġbs":5032,"Ġ50":5033,"Ġmove":5034,"raft":5035,"izers":5036,"Ġimportlib":5037,"ector":5038,"Ġtimestamp":5039,"ReLU":5040,"AMP":5041,"ĠĠĠĠĠĠĠĠĠĠĠĠĠĠĠĠĠĠĠĠĠĠĠĠĠĠ":5042,"Color":5043,"Ġtimers":5044,"Is":5045,"ever":5046,"Ġplot":5047,"basename":5048,"Ġweb":5049,"128":5050,"asyncio":5051,"extras":5052,"LEN":5053,"_<":5054,"sage":5055,"Ġast":5056,"answers":5057,"resolution":5058,"apping":5059,"ĠWhether":5060,"troll":5061,"latformDirs":5062,"Field":5063,"inds":5064,"ength":5065,"release":5066,"Ġindi":5067,"ĠLe":5068,"Ġuntil":5069,"Ġloading":5070,"Ġworker":5071,"ledge":5072,"Policy":5073,"havior":5074,"Fla":5075,"NN":5076,"ÑĤ":5077,"åĬ":5078,"infer":5079,"Ġrep":5080,"Ġinv":5081,"\"\",":5082,"ĠĠĠĠĠĠĠĠĠĠĠĠĠĠĠĠĠĠĠĠĠĠĠĠĠĠĠĠĠ":5083,"barrier":5084,"uidance":5085,"And":5086,"FORM":5087,"TXT":5088,"We":5089,"sens":5090,"outer":5091,"Ġknow":5092,"Ġdirectly":5093,"DA":5094,"Default":5095,"MQ":5096,"Sec":5097,"UE":5098,"Éª":5099,"Ġrepresentation":5100,")]":5101,"Word":5102,"æĸ":5103,"resize":5104,"Ġbeta":5105,"ĠAuthor":5106,"ĠAsync":5107,"estim":5108,"ĠOther":5109,"bucket":5110,"ĠStep":5111,"Application":5112,"=_":5113,"Fa":5114,"screen":5115,"Ġdefaults":5116,"cret":5117,"mkdir":5118,":]":5119,">\"<":5120,"Do":5121,"retry":5122,"blems":5123,"Ġapplication":5124,"ART":5125,"31":5126,"na":5127,"robot":5128,"router":5129,"Ġ##":5130,"Ġ14":5131,"Ġunicode":5132,"**/":5133,"Ġcolors":5134,"feats":5135,"Ġbackground":5136,"special":5137,"Ġskill":5138,"âĢ":5139,"Ġabove":5140,"Ġfake":5141,"Ġ\"\")<":5142,"intypes":5143,"Ġeven":5144,"formed":5145,"abspath":5146,"Bytes":5147,"66":5148,"å¤":5149,"Ġ-=":5150,"profile":5151,"Ġlaunch":5152,"Ġ:]<":5153,"addr":5154,"Ġurllib":5155,"require":5156,"ragma":5157,"cityscapes":5158,"alysis":5159,"Ġcu":5160,"Ġ[`":5161,"ĠCa":5162,"ĠAC":5163,"Ġaccuracy":5164,"Union":5165,"INTER":5166,"Ġetc":5167,"sertionError":5168,"If":5169,"Ġtk":5170,"predictions":5171,"ĠRequest":5172,"URL":5173,"Ġmerge":5174,"periment":5175,"camera":5176,"You":5177,"writ":5178,"utton":5179,"Ġlower":5180,"licate":5181,"RED":5182,"tokentypes":5183,"98":5184,"Note":5185,"VA":5186,"utures":5187,"arrange":5188,"Ġpt":5189,"Ġpragma":5190,"Ġmult":5191,"Ġway":5192,"Ġpand":5193,"chedul":5194,"plain":5195,"Level":5196,"Ġpandas":5197,"}_":5198,"å®":5199,"æĪ":5200,"ero":5201,"Ġfmt":5202,"defined":5203,"Ġwandb":5204,"ModelForCausalLM":5205,"tins":5206,"Segment":5207,"Param":5208,"ĠShardedTensor":5209,"itch":5210,"layout":5211,"transforms":5212,"Ġmasks":5213,"Ġchoices":5214,"92":5215,"Ġssl":5216,"Ġlocation":5217,"Ġgot":5218,"shared":5219,"ANG":5220,"Ġexecute":5221,"Ġsignal":5222,"From":5223,"Of":5224,"vit":5225,"attach":5226,"Ġdirection":5227,"Ġdetect":5228,"tags":5229,"times":5230,"noise":5231,"Ġschedule":5232,"constant":5233,"##<":5234,"Ġgrammar":5235,"ĠST":5236,"Ġstill":5237,"Log":5238,"Ġindexed":5239,"learn":5240,"second":5241,">#!":5242,"ĠForm":5243,"../_":5244,"Ġfail":5245,"']['":5246,"matically":5247,"ĠProcess":5248,"visible":5249,"dst":5250,"disc":5251,"uniform":5252,"condition":5253,"Ġregular":5254,"Optimizer":5255,"seconds":5256,"Ġtake":5257,"alk":5258,"001":5259,"('\\":5260,"Ġbygroups":5261,"stributions":5262,"Ġemotion":5263,"Ġrunner":5264,"Ġcounts":5265,"Ġprobability":5266,"velop":5267,"troller":5268,"dt":5269,"Ġinsert":5270,"ends":5271,"emory":5272,"Ġadditional":5273,"Ġextension":5274,"generation":5275,"fully":5276,"goal":5277,"precision":5278,"cloud":5279,"ĠMicrosoft":5280,"Callable":5281,"Down":5282,"MPT":5283,"RIGHT":5284,"best":5285,"Ġlow":5286,"Ġlm":5287,"Ġcounter":5288,"weet":5289,"Ġactiv":5290,"push":5291,"windows":5292,"Ġ2001":5293,"NotFoundError":5294,"çĶ¨":5295,"03":5296,"=[\"":5297,"Dialog":5298,"MIN":5299,"hub":5300,"ted":5301,"Ġiss":5302,"Ġfix":5303,"Ġnested":5304,"chron":5305,"moo":5306,"ĠHow":5307,"ĠContext":5308,"ĠQu":5309,"AF":5310,"Long":5311,"Wh":5312,"sa":5313,"separ":5314,"Ġaux":5315,"Ġpara":5316,"Ġpresent":5317,"most":5318,"Ġheads":5319,"ĠAutoTokenizer":5320,"quaternion":5321,"1000":5322,"45":5323,"Script":5324,"Ġfetch":5325,"mega":5326,"Ġclear":5327,"any":5328,"ĠNatural":5329,"getattr":5330,"quare":5331,"mpleter":5332,"emove":5333,"System":5334,"sr":5335,"seen":5336,"itter":5337,"verbose":5338,"Ġstrict":5339,"inition":5340,"Ġbelow":5341,"eature":5342,"ITE":5343,"Ġcolumns":5344,"fixture":5345,"ypothesis":5346,">-":5347,"ql":5348,"eng":5349,"Ġ=================================================================":5350,"olved":5351,"icient":5352,"ĠLine":5353,"Ġratio":5354,"rametr":5355,"some":5356,"ferred":5357,"Expression":5358,"uggest":5359,"Ġtempfile":5360,"Ġtreetune":5361,"ymbol":5362,"MML":5363,"Ġtt":5364,"ssl":5365,"Read":5366,"iliary":5367,"Ġngrams":5368,"Call":5369,"Met":5370,"Number":5371,"UB":5372,"bf":5373,"jpg":5374,"Ġtp":5375,"\"])":5376,"Condition":5377,"plus":5378,"mmlab":5379,"faces":5380,"Ġattrs":5381,"202":5382,">{":5383,"`.":5384,"rule":5385,"Ġcenter":5386,"Ġ\")<":5387,"Ġ({":5388,"completions":5389,"21":5390,"ially":5391,"optional":5392,"Ġfig":5393,"Ġcert":5394,"Ġ'%":5395,"utoff":5396,"alculate":5397,"Mock":5398,"destroy":5399,"instr":5400,"report":5401,"Ġ'_":5402,"()):<":5403,"deredDict":5404,"ĠEm":5405,"ĠUnicode":5406,"flush":5407,"Action":5408,"IB":5409,"Ð½":5410,"stit":5411,"Ġfreq":5412,"Ġresize":5413,"Ġ''<":5414,"Ġmem":5415,"press":5416,"ngram":5417,"ĠReg":5418,"ability":5419,"ĠQt":5420,"ValueError":5421,"****************":5422,"ough":5423,"bstract":5424,"É´":5425,"mel":5426,"Ġpdb":5427,">#-----------------------------------------------------------------------------<":5428,"Ġdecorator":5429,"cessary":5430,"trainer":5431,"ĠArgument":5432,"locals":5433,"Decode":5434,"ĠOpenAI":5435,"Timeout":5436,":-":5437,"OL":5438,"Ñĥ":5439,"igram":5440,"strategy":5441,"named":5442,"Ġdimensions":5443,"Ġpassword":5444,"Ġdocuments":5445,"ĠToolkit":5446,"por":5447,"è¿":5448,"atCode":5449,"Ġfactor":5450,"proposal":5451,"emotion":5452,"ators":5453,"Label":5454,"GRAM":5455,"Dist":5456,"Ġwrapped":5457,"coeff":5458,"Ġhapp":5459,"Ġ201":5460,"mentum":5461,"Ġcost":5462,"username":5463,"Ġsetattr":5464,"grads":5465,"Ġadjust":5466,"executable":5467,"Ġrows":5468,"LLAMA":5469,"Ġremoved":5470,"/><":5471,"kin":5472,"slo":5473,"oriz":5474,"Ġfolder":5475,"expect":5476,"Ġmanager":5477,"ĠTree":5478,"ĠUser":5479,"'][":5480,"')[":5481,"á´ı":5482,"checkpointing":5483,"ĠQue":5484,"flat":5485,"Ġcategory":5486,"kele":5487,"Ġdocumentation":5488,"ece":5489,"strict":5490,"Ġcannot":5491,"Ġconsider":5492,"DS":5493,"wen":5494,"Ġwere":5495,"pickle":5496,"ĠGR":5497,"Ġalign":5498,"Ġattach":5499,"Ġassume":5500,"Hello":5501,"FLAG":5502,"Print":5503,"sig":5504,"Ġ),":5505,"alic":5506,"__':<":5507,"Ġtorchvision":5508,"ĠDeltaTemp":5509,"Ġrag":5510,"aging":5511,"validation":5512,"READ":5513,"Ġacc":5514,"xyz":5515,"iki":5516,"37":5517,"EIGHT":5518,"WAR":5519,"bank":5520,"cwd":5521,"hex":5522,"Ġinf":5523,"Ġstderr":5524,"Ġdelete":5525,"istic":5526,"Ġproblem":5527,"Ġspecial":5528,"MMLab":5529,".')<":5530,"AY":5531,"CLI":5532,"few":5533,"itor":5534,"unique":5535,"qubits":5536,"Ġsem":5537,"Ġleast":5538,"nsure":5539,"Ġitertools":5540,"Ġoverride":5541,"ĠModelType":5542,"\"}":5543,",)<":5544,"400":5545,"ric":5546,"Ġæ":5547,"serve":5548,"ĠNew":5549,"Ġconcat":5550,"============":5551,"running":5552,"bindings":5553,"Ġlengths":5554,"dentity":5555,"_)<":5556,"syn":5557,"Ġdjango":5558,"iddle":5559,"\")[":5560,"DEX":5561,"Ġusername":5562,"checkpoints":5563,"ĠGenerator":5564,"Ġrepresenting":5565,"æķ°":5566,"rametrize":5567,"Work":5568,"sampling":5569,"zone":5570,"launch":5571,"found":5572,"gradient":5573,"tries":5574,"Ġqueries":5575,"Returns":5576,"ĠTransformerConfig":5577,">################################":5578,"Engine":5579,"rb":5580,"uble":5581,"ilon":5582,"Ġconvention":5583,"INDEX":5584,"ĠEval":5585,"Ġappend":5586,"ĠKeyError":5587,"andling":5588,"Ġmerged":5589,"Edit":5590,"Ro":5591,"span":5592,"atom":5593,"alignment":5594,"expr":5595,"Ġdescri":5596,"Ġprediction":5597,"([<":5598,"methods":5599,"ategories":5600,"missing":5601,"ĠOpenMMLab":5602,"ĠBuild":5603,":\")<":5604,"Async":5605,"ond":5606,"mas":5607,"outine":5608,"ĠOption":5609,"plt":5610,"Ref":5611,"Format":5612,"TRAIN":5613,"Ġchildren":5614,"ĠUpdate":5615,"%(":5616,"/<":5617,"onents":5618,"Ġtoo":5619,"Ġlists":5620,"columns":5621,"Ġcollect":5622,"oci":5623,"Chat":5624,"ĠGenerate":5625,"closed":5626,"keleton":5627,"|\\":5628,"Ġpop":5629,"imal":5630,"ORD":5631,"COM":5632,"merge":5633,"multip":5634,"sort":5635,"texts":5636,"moid":5637,"collection":5638,"compress":5639,"Buil":5640,"ĠColumn":5641,">\",":5642,"PD":5643,"Split":5644,"UI":5645,"author":5646,"high":5647,"ners":5648,"wrapped":5649,"leaf":5650,"Ġsafe":5651,"Ġwell":5652,"izing":5653,"Ġllava":5654,"plugin":5655,"Stat":5656,"Provider":5657,"strings":5658,"Session":5659,"Ġinstances":5660,"Ġmultiprocessing":5661,"CLASS":5662,"iler":5663,"Ġ'--":5664,"ĠAgent":5665,"Ġresource":5666,"configure":5667,"Ġpose":5668,"Ġspecify":5669,"Ġgeneration":5670,"returns":5671,"}/{":5672,")',":5673,"-%":5674,"Vision":5675,"Ġ\"[":5676,"Ġsimp":5677,"igger":5678,"ĠThese":5679,"iterator":5680,"without":5681,"localhost":5682,"Ġformatted":5683,"Ġcluster":5684,"'.<":5685,"Auto":5686,"blue":5687,"craft":5688,"tlen":5689,"padded":5690,"Ġmime":5691,"Ġllama":5692,"ĠPlease":5693,"Ġarch":5694,"Container":5695,"attrs":5696,"assertTrue":5697,"Ġaddress":5698,"Ġpartic":5699,"parametrize":5700,"Ġtakes":5701,"align":5702,"conn":5703,"Ġlight":5704,"mount":5705,"packages":5706,"Ġterminal":5707,"ĠCorpor":5708,"velopment":5709,"ĠCorporation":5710,"Group":5711,"Qt":5712,"dp":5713,"pauthor":5714,"Ġcpu":5715,"==<":5716,"ĠĠĠĠĠĠĠĠĠĠĠĠĠĠĠĠĠĠĠĠĠĠĠĠĠĠĠĠĠĠĠĠĠĠĠ":5717,"caption":5718,"inalg":5719,"Ġkeyword":5720,"Ġcontextlib":5721,"ĠĠĠĠĠĠĠĠĠĠĠĠĠĠĠĠĠĠĠĠĠĠĠĠĠ":5722,"selected":5723,"tleneck":5724,"ba":5725,"iters":5726,"Ġcross":5727,"Ġsite":5728,"Ġ30":5729,"Ġsetting":5730,"Ġneeds":5731,"PROMPT":5732,"Ġnetwork":5733,"ãĢĤ<":5734,"IST":5735,"Video":5736,"nx":5737,"Ġindic":5738,"Ġspace":5739,"Ġoperator":5740,"mass":5741,"(\"_":5742,"cap":5743,"configs":5744,"1234":5745,"ĠĠĠĠĠĠĠĠĠĠĠĠĠĠĠĠĠĠĠĠĠĠĠĠĠĠĠĠĠĠĠĠĠĠ":5746,"Ġmodif":5747,"encoded":5748,"assistant":5749,"Ġdeprecated":5750,"033":5751,"](":5752,"js":5753,"Ñģ":5754,"rel":5755,"deg":5756,"Ġsleep":5757,"Ġpers":5758,"Ġpast":5759,"istent":5760,"Ġmetric":5761,"LOW":5762,"signal":5763,"Button":5764,"duration":5765,"requ":5766,"Ġgu":5767,"ĠComm":5768,"Ġalgorithm":5769,"ĠimageUrl":5770,"validate":5771,"Tokens":5772,"Ġcurrently":5773,"Ġbetas":5774,"Ġhighlight":5775,"gate":5776,"vt":5777,"Ġrelevant":5778,"dients":5779,"anh":5780,"Ġtheta":5781,"ĠTrans":5782,"Method":5783,"Ġtranscript":5784,"scaling":5785,"=<":5786,"PS":5787,"include":5788,"era":5789,"Ġactions":5790,"rome":5791,"Ġrearrange":5792,"Ġmight":5793,"Ġconn":5794,"Ġshot":5795,"Ġsubclass":5796,"tableDiffusion":5797,"inspect":5798,"LR":5799,"Variable":5800,"urity":5801,"atting":5802,"Ġonce":5803,"sock":5804,"ĠWord":5805,"Ġjnp":5806,"ĠRead":5807,"viders":5808,"Ġformatter":5809,"marker":5810,"Ġabc":5811,"ĠModified":5812,"44":5813,"åĽ":5814,"Ġ:]":5815,"Ġunet":5816,"testing":5817,"locity":5818,"Ġprocessor":5819,"Ġproduct":5820,"Future":5821,"GE":5822,"NING":5823,"mu":5824,"racket":5825,"ceed":5826,"Ġcases":5827,"Ġchoice":5828,"ĠOrderedDict":5829,"GLOBAL":5830,"Speed":5831,"iou":5832,"lens":5833,"onical":5834,"ĠTra":5835,"ollama":5836,"resolve":5837,"ĠDef":5838,"ĠGra":5839,"á´Ľ":5840,"Sequence":5841,"ECT":5842,"Ġprior":5843,"Bin":5844,"History":5845,"ULL":5846,"det":5847,"Ġctypes":5848,"Ġwidget":5849,"Ġlogs":5850,"ĠMO":5851,"comment":5852,"Ġalignment":5853,"Ġ\\\\":5854,"=[<":5855,"Ġpydevd":5856,"clamp":5857,"Rep":5858,"]],<":5859,"td":5860,"writer":5861,"è®":5862,"repo":5863,"Ġfill":5864,"Ġclick":5865,"exe":5866,"Ġdoctest":5867,"ront":5868,"Ġautomatically":5869,"Ġlicensed":5870,"Ġretrieve":5871,"Ġcompatibility":5872,"Ada":5873,"[<":5874,"ÊĢ":5875,"Ð¼":5876,"Ġreq":5877,"educe":5878,"ĠSimple":5879,"ripper":5880,"DEV":5881,"Ġsignature":5882,".\\":5883,"TY":5884,"sli":5885,"Ġdefine":5886,"coll":5887,"scatter":5888,"stanti":5889,"crement":5890,"Ġentries":5891,"Ġavg":5892,"Ġreduction":5893,"lapsed":5894,"Failed":5895,"Ġauxiliary":5896,"85":5897,"Fin":5898,"pixel":5899,"rase":5900,"__,":5901,"Ġ11":5902,"processed":5903,"imodal":5904,"TIMEOUT":5905,"Ġaffili":5906,"latformDirsABC":5907,"'re":5908,"224":5909,"Menu":5910,"Tool":5911,"bet":5912,"Ġ--------------------------------":5913,"Ġaround":5914,"ĠEnum":5915,"Ġitself":5916,"itions":5917,"Ġcandidate":5918,"Ġnecessary":5919,"idxs":5920,"Ġaccount":5921,"ĠStart":5922,"Ġprovides":5923,"Ġpredicted":5924,">#!/":5925,">\\":5926,"eq":5927,"ja":5928,"{\"":5929,"(\"#":5930,"ĠSave":5931,"tab":5932,"acceler":5933,"threads":5934,"environment":5935,"dispatch":5936,"Ġaffiliates":5937,"!\")<":5938,"Single":5939,"dense":5940,"hparams":5941,"wheel":5942,"yd":5943,")</":5944,"Ġfont":5945,"Ġscope":5946,"Ġarr":5947,"Instance":5948,"CHE":5949,"Ġsupports":5950,"Core":5951,"linalg":5952,"Ġ',":5953,"ĠSho":5954,"preter":5955,"prediction":5956,"commit":5957,"Ġprocessing":5958,"normalized":5959,"ighbors":5960,"æĺ¯":5961,"BatchNorm":5962,")])<":5963,"Import":5964,"IID":5965,"mis":5966,"wandb":5967,"dialog":5968,"mag":5969,"container":5970,"Ġanother":5971,"ĠCore":5972,"Ġdiv":5973,"Ġdialog":5974,"Ġstorage":5975,"Ġexpand":5976,"obot":5977,"when":5978,"Point":5979,"Win":5980,"stable":5981,"unittest":5982,"Ġasset":5983,"(\"{":5984,"ĠCustom":5985,"Ġbegin":5986,"Ġ:-":5987,"SEC":5988,"latitude":5989,"Ġupdated":5990,"observation":5991,"Unknown":5992,"Trainer":5993,"changed":5994,"planes":5995,"Raises":5996,"din":5997,"pac":5998,"Ġprofile":5999,"Ġprocesses":6000,"Ġresolution":6001,"Ġnamespace":6002,"Ġversions":6003,"chars":6004,"polation":6005,")\")<":6006,"RGB":6007,"jor":6008,"éĢ":6009,"Ġturn":6010,"Ġxml":6011,"ĠBe":6012,"matches":6013,"Ġtokenize":6014,"calls":6015,"topk":6016,"Ġranks":6017,"Forward":6018,"ĠAutoModelForCausalLM":6019,"ĠIterator":6020,"/'<":6021,"=['":6022,"Kernel":6023,"LINE":6024,"Torch":6025,"]),<":6026,"hi":6027,"human":6028,"rod":6029,"gelu":6030,"lace":6031,"ulary":6032,"ĠNode":6033,"ĠMeta":6034,"Ġpositive":6035,"ĠQuery":6036,"Ġwriter":6037,"Ġallows":6038,"Ġstats":6039,"Initialize":6040,"Ġseparate":6041,"ĠOSError":6042,"ĠLlamaFactory":6043,"BC":6044,"Can":6045,"`):":6046,"oled":6047,"radi":6048,"Ġredirect":6049,"Ġsdf":6050,"Ġwrap":6051,"extensions":6052,"Ġgpu":6053,"trast":6054,"ROM":6055,"similar":6056,"HEAD":6057,"LDER":6058,")\"<":6059,"All":6060,"NOT":6061,"cr":6062,"cip":6063,"slice":6064,"megatron":6065,"Ġrelease":6066,"endency":6067,"amily":6068,"ĠUNet":6069,"Ġround":6070,"corners":6071,"Ġinterval":6072,"subprocess":6073,"Ġassoci":6074,"Ġclosd":6075,"ĠParallel":6076,"VERSION":6077,"26":6078,"384":6079,"Llama":6080,"PlatformDirsABC":6081,"credentials":6082,"âķ":6083,"Ġvectors":6084,"chart":6085,"magen":6086,"extension":6087,"Ġ13":6088,"()]<":6089,"oute":6090,"Ġ25":6091,"Ġmak":6092,"ious":6093,"functions":6094,"Ġrotations":6095,"Ġmmseg":6096,"OPEN":6097,"EPGRAM":6098,"ĠOtherwise":6099,"->":6100,"EW":6101,"IF":6102,"TEM":6103,"fu":6104,"unicode":6105,"Ġthreshold":6106,"allen":6107,"Ġscipy":6108,"Ġclassifier":6109,"workspace":6110,"ĠThread":6111,"ĠApply":6112,"23":6113,"clock":6114,"glob":6115,"zz":6116,"selection":6117,"secret":6118,"Ġcore":6119,"Ġrecall":6120,"Ġdst":6121,"ĠLO":6122,"Ġnote":6123,"ĠMLP":6124,"teger":6125,"background":6126,"Step":6127,"Ġcontents":6128,"effect":6129,"platformdirs":6130,">``":6131,"KS":6132,"bos":6133,"gym":6134,"public":6135,"tic":6136,"Ġ-----------------------------------------------------------------------------<":6137,"ĠPlatform":6138,"osp":6139,"('/":6140,"RegexLexer":6141,"avig":6142,"Ġatom":6143,"grammar":6144,"Ġsummary":6145,"Ġjoblib":6146,"ĠFlax":6147,");<":6148,"RI":6149,"Render":6150,"ball":6151,"sph":6152,"tz":6153,"Ġcy":6154,"Ġbenchmark":6155,"account":6156,"Could":6157,"overlap":6158,"Ġangles":6159,">\"":6160,"EL":6161,"Element":6162,"Max":6163,"Write":6164,"dn":6165,"inates":6166,"lazy":6167,"lim":6168,"inte":6169,"formatted":6170,"shuffle":6171,"percent":6172,"Ġjax":6173,"Ġinside":6174,"Directory":6175,"Column":6176,"Ġexplicit":6177,"AssertionError":6178,"Ġwhose":6179,"+',":6180,"_[":6181,"bg":6182,"Ġfoo":6183,"Ġsa":6184,"Ġsampler":6185,"under":6186,"continue":6187,"ĠRandom":6188,"Ġresidual":6189,"Ġmasked":6190,"convs":6191,"arest":6192,"ĠResNet":6193,"epspeed":6194,"plo":6195,"sn":6196,"Ġes":6197,"ges":6198,"peak":6199,"Store":6200,"Ġcached":6201,"POINT":6202,"ĠLazy":6203,"Bar":6204,"CS":6205,"Hp":6206,"MULT":6207,"}\",<":6208,"Ġrest":6209,"...<":6210,"Ġproxy":6211,"trainable":6212,"ĠInvalid":6213,"need":6214,"Ġtrajectory":6215,"aug":6216,"ĠStream":6217,"POST":6218,"MENT":6219,"ium":6220,"lator":6221,"sorted":6222,"Ġfixed":6223,"Ġanswers":6224,"ifiers":6225,"Ġrotary":6226,"finished":6227,"lism":6228,"Ġmicrophone":6229,"Ġdeepcopy":6230,"Ġincluding":6231,">`":6232,"^\\":6233,"saved":6234,"para":6235,"robo":6236,"uess":6237,"maph":6238,"Ġds":6239,"velocity":6240,"Ġ*=":6241,"sents":6242,"Ġfilters":6243,"Ġgrasp":6244,"Ġpadded":6245,"google":6246,"finish":6247,"Interface":6248,"Ġparticular":6249,"+)":6250,"CM":6251,"Ġaut":6252,"entication":6253,"Ġbatches":6254,"ĠCF":6255,"mplex":6256,"Ġsegments":6257,"Ġrng":6258,"Ġ42":6259,"summary":6260,"IMAGE":6261,"autograd":6262,"Ġboxes":6263,"86":6264,"Auth":6265,"BASE":6266,"GRE":6267,"dll":6268,"wb":6269,"çĲ":6270,"Ġsw":6271,"Ġside":6272,"Ġsaving":6273,"Ġpower":6274,"ĠSec":6275,"Ġnegative":6276,"ĠSession":6277,"assertRaises":6278,"calcul":6279,"DOWN":6280,"PP":6281,"QT":6282,"agger":6283,"gres":6284,"åľ":6285,"åŃ":6286,"Ġinher":6287,"edu":6288,"entity":6289,"ĠSS":6290,"problem":6291,"configuration":6292,"ively":6293,"fake":6294,"Ġgradients":6295,"candidate":6296,"URE":6297,"implement":6298,"éĹ":6299,"Ġrelated":6300,"terns":6301,"previous":6302,"ips":6303,"allelism":6304,"mouse":6305,"evaluation":6306,"Ġcontainer":6307,"ĠDevelopment":6308,"ĠMessage":6309,"ĠThere":6310,"Ġtmpdir":6311,"Ġsyntax":6312,"Notebook":6313,"Callback":6314,"Ġamount":6315,"service":6316,"()).":6317,"ĠBasic":6318,"Ġprevent":6319,"pick":6320,"Preprocessing":6321,"Ġapplied":6322,"attributes":6323,"tokentype":6324,"supported":6325,">\"\"":6326,"]])<":6327,"vllm":6328,"()}<":6329,"progress":6330,"Ġthree":6331,"pygments":6332,"Convert":6333,"okies":6334,"Ġhel":6335,"interface":6336,"Ġtuples":6337,"styles":6338,"CONT":6339,"(?:":6340,"pkl":6341,"CorpusReader":6342,"Box":6343,"HER":6344,"LIN":6345,"UDA":6346,"huggingface":6347,"xic":6348,"Ġwarmup":6349,"Ġdes":6350,"Ġproper":6351,"agic":6352,"acher":6353,"stdin":6354,"Ġmatching":6355,"shots":6356,"ĠTemp":6357,"initialized":6358,"lision":6359,"Ġservice":6360,"variance":6361,"holder":6362,"nb":6363,"tot":6364,"instruction":6365,"ons":6366,"ernal":6367,"debugger":6368,"prepare":6369,"Ġkl":6370,"Ġsomething":6371,"Ġlatents":6372,"Ġchanges":6373,"maphore":6374,")}\")<":6375,"Dummy":6376,"FR":6377,"schedul":6378,"xt":6379,"Ġescape":6380,"raise":6381,"ĠLexer":6382,"rie":6383,"Ġ224":6384,"Ġuseful":6385,"Ġattempt":6386,"Storage":6387,"Ġ60":6388,"Update":6389,"Answer":6390,"STRING":6391,"CACHE":6392,"Qu":6393,"Rule":6394,"ama":6395,"flip":6396,"rm":6397,"super":6398,"getcwd":6399,"Ġgather":6400,"Ġthose":6401,"','":6402,"ĠFilter":6403,"classifier":6404,"preds":6405,"Ġparsing":6406,"translation":6407,"Parse":6408,"executor":6409,"Ġsequences":6410,"ĠOnly":6411,"IZ":6412,"OPT":6413,"rho":6414,"åº":6415,"oring":6416,"recognizer":6417,"stall":6418,"Ġreverse":6419,"Ġpaper":6420,"virtual":6421,"ĠDown":6422,"ĠEnsure":6423,"Lock":6424,"URR":6425,"Ġimplemented":6426,"Ġ768":6427,"Embed":6428,"signature":6429,"Question":6430,"spaces":6431,"ĠRotation":6432,"LongTensor":6433,"feedback":6434,"gab":6435,"tk":6436,"ç»":6437,"sec":6438,"entries":6439,"Ġdeno":6440,"ĠCan":6441,"endpoint":6442,"Ġstem":6443,"Ġresnet":6444,"fileids":6445,"scorer":6446,"ĠValid":6447,"LEFT":6448,"Ġinitialization":6449,"Ġtagged":6450,"Ġrecords":6451,"ĠRaises":6452,"TrainedModel":6453,"Cross":6454,"QL":6455,"[\\":6456,"fs":6457,"spatial":6458,"reload":6459,"relevant":6460,"rogram":6461,"Ġretrieval":6462,"Ġbasic":6463,"rant":6464,"ĠSub":6465,"ĠPO":6466,"ĠPRO":6467,"Ġprobs":6468,"ĠOllama":6469,"wap":6470,"Ġactually":6471,"Ġworkers":6472,"filtered":6473,"projection":6474,"Executor":6475,"150":6476,"SPE":6477,"have":6478,"Ġflow":6479,"Ġreader":6480,"Ġown":6481,"iling":6482,"istics":6483,"Ġsets":6484,"ĠRegexLexer":6485,"Ġraised":6486,"boxes":6487,"Ġworks":6488,"rotary":6489,"Ġconverted":6490,"ĠLabel":6491,"assets":6492,"ĠNOTE":6493,"=\"\"":6494,"inx":6495,"rew":6496,"Ġsort":6497,"Ġmesh":6498,"Ġlazy":6499,"Ġoutfile":6500,"Ġthreads":6501,"subject":6502,"cognition":6503,"769":6504,"Ġjoint":6505,"Ġconstructor":6506,"\"},<":6507,"bb":6508,"æį":6509,"ĠCalculate":6510,"endar":6511,"Ġwhitespace":6512,"Ġscreen":6513,"Ġupper":6514,"ModuleList":6515,"ROOT":6516,"IMIT":6517,"Chunk":6518,"Ġtokent":6519,"ĠBrowserContext":6520,"Ġdotenv":6521,"###<":6522,"97":6523,":,":6524,">`.<":6525,"He":6526,"fusion":6527,"futures":6528,"hist":6529,"vate":6530,"vance":6531,"ression":6532,"aring":6533,"Ġaccording":6534,"ACT":6535,"ĠAttention":6536,"Ġclosed":6537,"accumul":6538,"latest":6539,"Ġsuccessfully":6540,"details":6541,"*,":6542,"alty":6543,"urces":6544,"ĠNe":6545,"Ġemail":6546,"Ġlater":6547,"Ġproposal":6548,"matmul":6549,"([[":6550,"targets":6551,"ĠĠĠĠĠĠĠĠĠĠĠĠĠĠĠĠĠĠĠĠĠĠĠĠĠĠĠĠĠĠ":6552,"ĠTypeVar":6553,"aracter":6554,"Adam":6555,"ĠLinear":6556,"58":6557,":],":6558,"]\\":6559,"gamma":6560,"handlers":6561,"lg":6562,"pd":6563,"vg":6564,"Ðº":6565,"Ġhtml":6566,"alph":6567,"Ġsd":6568,"ĠPi":6569,"modeling":6570,"ĠFind":6571,"ĠDATA":6572,"psutil":6573,"shapes":6574,"force":6575,"unknown":6576,"ĠKe":6577,"trajectory":6578,"contents":6579,"ificate":6580,"Ġglobals":6581,"ĠResponse":6582,"PYTHON":6583,"Ġgoal":6584,"ymbols":6585,">=":6586,">\")<":6587,"AX":6588,"Ser":6589,"remote":6590,"utions":6591,"gemini":6592,"lops":6593,"Ġslice":6594,"Ġbit":6595,"lier":6596,"Ġexact":6597,"Ġdecay":6598,"Ġproperty":6599,"checker":6600,"minator":6601,"variant":6602,"PreprocessingConfig":6603,"\".<":6604,"`):<":6605,"basic":6606,"dup":6607,"ipped":6608,"rstrip":6609,"}\".":6610,"Ð»":6611,"Ġhalf":6612,"ĠSplit":6613,"ĠRemove":6614,"ĠMax":6615,"Ġvision":6616,"bugging":6617,"Ġpywin":6618,"Ġneighbor":6619,"network":6620,"aux":6621,"á´Ģ":6622,"nowledge":6623,"structure":6624,"Attribute":6625,"Ġpackages":6626,"Only":6627,"!]":6628,")')<":6629,"Multi":6630,"Table":6631,"mos":6632,"menu":6633,"lack":6634,"ĠCall":6635,"ĠAss":6636,"scroll":6637,"colors":6638,"vertex":6639,"Ġcalling":6640,"Char":6641,"visual":6642,"COLOR":6643,",))<":6644,"47":6645,"bench":6646,"Ġut":6647,"measure":6648,"Ġpid":6649,"__))<":6650,"cookie":6651,"ĠClient":6652,"ĠCPU":6653,"Ġeas":6654,"Ġsen":6655,"imit":6656,"appname":6657,"wav":6658,"Ġtexts":6659,"Ġtrainer":6660,"LECT":6661,"ALLE":6662,"Ġmodified":6663,"Ġusers":6664,"Graph":6665,"ĠPerform":6666,"Ġremaining":6667,"255":6668,"solver":6669,"umpt":6670,"wm":6671,"__}":6672,"ĠAudio":6673,"Ġhf":6674,"Ġhandling":6675,"ĠSk":6676,"Ġdelay":6677,"Ġ40":6678,"Ġcause":6679,"ĠWeb":6680,"Ġannotation":6681,"retriever":6682,"ĠGRID":6683,"ARE":6684,"multiple":6685,"rally":6686,"pairs":6687,"Ġtw":6688,"ras":6689,"Ġpk":6690,"Ġput":6691,"Ġdummy":6692,"riate":6693,"ĠFetch":6694,"Ġrc":6695,"Ġunit":6696,"ĠGo":6697,"ĠGroq":6698,"Ġappro":6699,"ropriate":6700,"Protocol":6701,"Ġquot":6702,"override":6703,"execution":6704,"metaclass":6705,"OpenAI":6706,"Status":6707,"URRENT":6708,"Act":6709,"Random":6710,"Shell":6711,"category":6712,"ome":6713,"Ġ,":6714,"Ġdilation":6715,"Ġhps":6716,"ĠFB":6717,"lying":6718,"Ġprepare":6719,"Instr":6720,"negative":6721,"accept":6722,"Ġdocstring":6723,"namespace":6724,"999":6725,"ĠLayerNorm":6726,">################################################################":6727,"CAS":6728,"Close":6729,"Def":6730,"cnt":6731,"uuid":6732,"ÊŁ":6733,"æĹ":6734,"Ġvery":6735,"Ġplan":6736,"illa":6737,"(\"-":6738,"Ġexpr":6739,"ffff":6740,"lended":6741,"Example":6742,"Ġ'../../_":6743,"partial":6744,"Dispatch":6745,"Ġ-*-":6746,"Flags":6747,")*":6748,"Ac":6749,"DIS":6750,"SER":6751,"Transform":6752,"bad":6753,"llava":6754,"payload":6755,"onal":6756,"Ġrepo":6757,"ĠNO":6758,"protocol":6759,"precomp":6760,"cols":6761,"Ġperm":6762,"ä¸Ģ":6763,"ĠHTML":6764,"pacity":6765,"?\\":6766,"LON":6767,"dummy":6768,"wintypes":6769,"~<":6770,"ĠÄ":6771,"recv":6772,"Ġpp":6773,"Ġpayload":6774,"Ġcompleted":6775,"Ġsection":6776,"Ġknown":6777,"jected":6778,"Ġendpoint":6779,"itlets":6780,"IOLoop":6781,"ĠInitial":6782,"ðĿĹ":6783,"Ġ-*-<":6784,"-\\":6785,"MET":6786,"Widget":6787,"[_":6788,"mid":6789,"lica":6790,"contain":6791,"ĠĠĠĠĠĠĠĠĠĠĠĠĠĠĠĠĠĠĠĠĠĠĠĠĠĠĠĠĠĠĠĠĠĠĠĠĠĠĠ":6792,"hood":6793,"AMES":6794,"Ġactive":6795,"voke":6796,"Ġhashlib":6797,"Ġshortcut":6798,"Ġperformance":6799,"rat":6800,"same":6801,"uch":6802,"wiki":6803,"inger":6804,"Ġpublic":6805,"Ġduration":6806,"ĠPos":6807,"uber":6808,"Ġtimesteps":6809,"\")).":6810,"rightness":6811,"IGN":6812,"ĠCache":6813,"'(":6814,"500":6815,"Com":6816,"bl":6817,"ĠâĶ":6818,"Ġquestions":6819,"des":6820,"raps":6821,"Ġfalse":6822,"Ġfps":6823,"Ġrecurs":6824,"Ġwheel":6825,"ĠAuth":6826,"ressed":6827,"ĠRoute":6828,"ĠEach":6829,"ĠGaussian":6830,"Ġ%.":6831,"collect":6832,"START":6833,"tributes":6834,"Decoder":6835,"disable":6836,"sentences":6837,"Ġaccelerate":6838,"æĸĩ":6839,"Ġassociated":6840,"JSON":6841,"OK":6842,"Writer":6843,"eos":6844,"follow":6845,"atis":6846,"utation":6847,"Ġ[],<":6848,"Ġ23":6849,"ĠField":6850,"Ġmass":6851,"ENS":6852,"addHandler":6853,"tracing":6854,"which":6855,"Ġtaken":6856,"Ġverify":6857,"tmpdir":6858,"ĉĉĉĉ":6859,"Execution":6860,"Ġlangchain":6861,"ĠIOLoop":6862,"Crop":6863,"CLS":6864,"Sent":6865,"cnn":6866,"ios":6867,"jit":6868,"decorator":6869,"Ġfe":6870,"Ġder":6871,"ĠAc":6872,"ĠDet":6873,"nner":6874,"library":6875,"STEM":6876,"Ġbuf":6877,"latents":6878,"failed":6879,"Ġinternal":6880,"Ġ['*.":6881,"Array":6882,"Ġchosen":6883,"Ġlayout":6884,"Ġvirtual":6885,"Sharded":6886,"Ġflatten":6887,"Ġcosine":6888,"deepcopy":6889,"css":6890,"cum":6891,"draw":6892,"fps":6893,"fused":6894,"mix":6895,"speed":6896,"Ġwarning":6897,"adow":6898,"emon":6899,"Ġ24":6900,"ĠRo":6901,"Ġresolve":6902,"Ġ```<":6903,"ĠEN":6904,"Ġroom":6905,"Ġappropriate":6906,"Counter":6907,"transcription":6908,"ĠDiffusion":6909,"Web":6910,"-{":6911,"gster":6912,"hers":6913,"relative":6914,"into":6915,"olume":6916,"isfile":6917,"dagster":6918,"Ġshard":6919,"TypeError":6920,"Ġoverlap":6921,"Normal":6922,"Ġignored":6923,"Ġoffsets":6924,"Ġcreating":6925,"768":6926,"Ġprobabilities":6927,"Ġcomputation":6928,"Ġcalc":6929,"pil":6930,"deps":6931,"export":6932,"pts":6933,"Ġcompletions":6934,"Ġseen":6935,"Ġ```":6936,"aming":6937,"ENER":6938,"Ġalong":6939,"PIPE":6940,"region":6941,"Ġversionadded":6942,"offload":6943,"Ġiterable":6944,"Ġentire":6945,"Env":6946,"UNK":6947,"ĠDeep":6948,"ESTAMP":6949,"What":6950,"Ġ?":6951,"Ġfo":6952,"Ġfused":6953,"Ġpol":6954,"unding":6955,"(\"**/":6956,"ĠCode":6957,"Ġguidance":6958,"127":6959,"green":6960,"Named":6961,"ï¼ļ":6962,"termine":6963,"Events":6964,"Ġabsolute":6965,"Ġ-------<":6966,"ĠEmbedding":6967,"ĠÄĳ":6968,"ply":6969,"vers":6970,"warnings":6971,"stand":6972,"Ġche":6973,"Ġsy":6974,"chine":6975,"urer":6976,"Ġbins":6977,"ĠTable":6978,"Ġpairs":6979,"Ġconstant":6980,"problems":6981,"Ġstrip":6982,"locks":6983,"ĠWork":6984,"Ġenabled":6985,"Ġ>>":6986,"Ġbasename":6987,"Ġfeats":6988,"istral":6989,"Ġproduce":6990,"shortcut":6991,"Ġfreqs":6992,"IPython":6993,"Per":6994,"eric":6995,"del":6996,"quad":6997,"Ġgl":6998,"Ġstored":6999,"share":7000,"positive":7001,"Ġadding":7002,"Ġcodes":7003,"scales":7004,"specific":7005,"Ġcorrectly":7006,"documents":7007,"Ġspaces":7008,"TAS":7009,"vq":7010,"widget":7011,"ĴĮ":7012,"Ġsolver":7013,"Ġdg":7014,"listen":7015,"Ġbyte":7016,"ARY":7017,"DataFrame":7018,"Ġstarting":7019,"Ġcommun":7020,"ĠsystemPrompt":7021,"EIGHTS":7022,"Ġdesired":7023,":])<":7024,"DING":7025,"New":7026,"Role":7027,"VIS":7028,"bfloat":7029,"uc":7030,"Ġ~":7031,"Ġcond":7032,"Ġhist":7033,"using":7034,"buffers":7035,"ĠVi":7036,"====================":7037,"bytecode":7038,"ugins":7039,"Ġsklearn":7040,"Ġnormalized":7041,"quirement":7042,"Ġmimetypes":7043,")\",":7044,"Press":7045,"cd":7046,"gy":7047,"lations":7048,"ral":7049,"è§":7050,"Ġnull":7051,"Ġsp":7052,"ursor":7053,"anthropic":7054,"Ġbroadcast":7055,"ulate":7056,"etics":7057,"ĠScore":7058,"resources":7059,"ĠDDP":7060,"ĠRich":7061,"('_":7062,"amb":7063,"Ġyet":7064,"ritic":7065,"indexed":7066,"Ġsizes":7067,"registry":7068,"Ġpick":7069,"findall":7070,"Ġbuilding":7071,"Ġjoints":7072,"Ġcombined":7073,"\"})<":7074,"End":7075,"frozen":7076,"gu":7077,"spect":7078,"past":7079,"delay":7080,"ulation":7081,"contact":7082,"ĠIP":7083,"Ġparallelism":7084,"Conf":7085,"Ġpreprocessing":7086,"``.":7087,"indexes":7088,"generated":7089,"Ġinitialized":7090,"Ġbindings":7091,"projector":7092,"Ġbuilt":7093,"Raw":7094,"product":7095,"Ġletter":7096,"Ġoccur":7097,"fulf":7098,"QA":7099,"blank":7100,"zA":7101,"Ãł":7102,"pet":7103,"Ġdraw":7104,"Ġask":7105,"ĠABC":7106,"Ġein":7107,"ĠSpec":7108,"ĠBert":7109,"cepted":7110,"Ġrequested":7111,"Ġassistant":7112,"flash":7113,"LIST":7114,"annotations":7115,"frac":7116,"predicted":7117,"Ġeffect":7118,"./":7119,"08":7120,"tls":7121,"å¼":7122,"æł":7123,"paint":7124,"eras":7125,"recation":7126,"ali":7127,"Ġinfer":7128,"ĠCat":7129,"Ġlst":7130,"ĠBlock":7131,"ircraft":7132,"quival":7133,"ĠĠĠĠĠĠĠĠĠĠĠĠĠĠĠĠĠĠĠĠĠĠĠĠĠĠĠĠĠĠĠĠĠĠĠĠĠĠĠĠĠĠ":7134,"hooks":7135,"reply":7136,"Strategy":7137,"moothing":7138,"vic":7139,"}'<":7140,"once":7141,"rec":7142,"Ġbl":7143,"ĠNULL":7144,"icate":7145,"Ġgamma":7146,"Ġdetermin":7147,"Ġdetermine":7148,"ĠEvent":7149,"Ġshared":7150,"Ġcollection":7151,"Ġ500":7152,"begin":7153,"ĠPyTorch":7154,"templates":7155,"ä¸ª":7156,"Foundation":7157,"Backend":7158,"variables":7159,"ANDLE":7160,"39":7161,"Date":7162,"DeltaTemp":7163,"TS":7164,"_()<":7165,"hn":7166,"kl":7167,"alias":7168,"Ġcsv":7169,"Ġsolution":7170,"Ġdynamic":7171,"setdefault":7172,"Ġhparams":7173,"ights":7174,"trols":7175,"Ġtransformation":7176,"Ġsplits":7177,"Ġuuid":7178,"episodes":7179,"ĠPost":7180,"sigmoid":7181,"implementation":7182,"38":7183,"Cert":7184,"Utils":7185,"hr":7186,"rnn":7187,"Ġ])<":7188,"Ġtz":7189,"Ġpot":7190,"pow":7191,"quote":7192,"Ġgre":7193,"database":7194,"ĠSent":7195,"parents":7196,"Ġresp":7197,"],[":7198,"Ġgeneric":7199,"Count":7200,"Ġdocs":7201,"Ġ2048":7202,"planation":7203,"Ġscaling":7204,"#-----------------------------------------------------------------------------<":7205,"*\",":7206,"CP":7207,"Ne":7208,"Save":7209,"ae":7210,"px":7211,"Ġfrozen":7212,"Ġinstruction":7213,"Ġpur":7214,"Ġimported":7215,"agics":7216,"Ġworking":7217,"lipboard":7218,"Ġcomment":7219,"FOLDER":7220,"builtins":7221,"Checker":7222,"ĠParse":7223,"tnMask":7224,"Ġappe":7225,"Ġcats":7226,"tnMaskType":7227,"Current":7228,"DG":7229,"PES":7230,"UL":7231,"UES":7232,"dw":7233,"knowledge":7234,"oper":7235,"suggest":7236,"}_{":7237,"åĴĮ":7238,"é¢":7239,"Ġwarn":7240,"Ġimports":7241,"setLevel":7242,"Ġconcurrent":7243,"pyplot":7244,"Ġexpi":7245,"Ġprotocol":7246,"Ġselection":7247,"ople":7248,"until":7249,"devices":7250,"DataParallel":7251,"defaults":7252,"Seq":7253,"Ġminimum":7254,"normalizer":7255,"Ġplugin":7256,"Ġ------------------------------------------------":7257,"similarity":7258,"TEMPL":7259,"Abstract":7260,"GD":7261,"avi":7262,"fit":7263,"scheme":7264,"inverse":7265,"rays":7266,"Ġ\"\".":7267,"Ġinp":7268,"Ġplease":7269,"analy":7270,"Ġbad":7271,"otions":7272,"ĠTransform":7273,"Ġgold":7274,"ĠFeature":7275,"Ġlisten":7276,"quired":7277,"Ġtraitlets":7278,"cating":7279,"ĠQT":7280,"edges":7281,"ĠParser":7282,"expanduser":7283,"timers":7284,"Ġmuch":7285,"ĠDocument":7286,"requency":7287,"umptions":7288,"Non":7289,"SW":7290,"ee":7291,"eces":7292,"çŃ":7293,"Ġvideos":7294,"alt":7295,"utdown":7296,"Ġflip":7297,"ctime":7298,"Ġmegab":7299,"dimension":7300,"ĠWin":7301,"ĠUsage":7302,"Ġchart":7303,"Ġtypeof":7304,"ftware":7305,"```":7306,"Ġless":7307,"ĠĠĠĠĠĠĠĠĠĠĠĠĠĠĠĠĠĠĠĠĠĠĠĠĠĠĠĠĠĠĠĠĠĠĠĠ":7308,"note":7309,"PROP":7310,"Ġmanage":7311,"ĠApplication":7312,"LOCAL":7313,"LANG":7314,"Sc":7315,"django":7316,"ka":7317,"ocab":7318,"Ġinverse":7319,"course":7320,"()</":7321,"Ġmaster":7322,"tection":7323,"neighbor":7324,"160":7325,"Ġexecuted":7326,"ĠShape":7327,"Entropy":7328,"misc":7329,",)":7330,"Bot":7331,"RAG":7332,"TMP":7333,"mim":7334,"tension":7335,"Ġfeedback":7336,"ĠASC":7337,"ĠFrame":7338,"ĠOver":7339,"Ġparents":7340,"penalty":7341,"ModelType":7342,"Ġqs":7343,"Ġsubject":7344,"Ġiterator":7345,"Ġoperations":7346,"Ġvariant":7347,"Ġmodify":7348,"recationWarning":7349,">'''<":7350,"cancel":7351,"fmt":7352,"square":7353,"tre":7354,"tick":7355,"upt":7356,"alance":7357,"Ġrepeat":7358,"ullable":7359,"ĠNet":7360,"Ġhypothesis":7361,"ĠStableDiffusion":7362,"tack":7363,"ggreg":7364,"cluster":7365,"ICE":7366,"issues":7367,"Distribution":7368,"ä¸Ń":7369,"Ġconditions":7370,"ĠDefine":7371,"ydra":7372,"57":7373,"Make":7374,"false":7375,"kind":7376,"inion":7377,"ctrl":7378,"ceil":7379,"Ġ[]":7380,"ĠIF":7381,"atters":7382,"ĠVariable":7383,"nections":7384,"Ġleaf":7385,"Ġresponses":7386,"coroutine":7387,"flax":7388,"Ġfewshot":7389,"ade":7390,"branch":7391,"oice":7392,"operator":7393,"pause":7394,"raint":7395,"Ġpixel":7396,"pted":7397,"elt":7398,"Ġsto":7399,"ĠFROM":7400,"....":7401,"imer":7402,"INDO":7403,"aves":7404,"mbers":7405,"versions":7406,"vidual":7407,"Training":7408,"Interrupt":7409,"initialization":7410,"APP":7411,"Ġradius":7412,"ĠArguments":7413,"ĠPlatforms":7414,"Memory":7415,"NG":7416,"Op":7417,"Over":7418,"Option":7419,"Send":7420,"åĨ":7421,"inp":7422,"sto":7423,"Ġflight":7424,"metas":7425,"lookup":7426,"Ġrect":7427,"Ġ'*.":7428,"posed":7429,"ĠSE":7430,"Ġdedent":7431,"keywords":7432,"ĠBack":7433,"Ġcanvas":7434,"splitext":7435,"Ġfinish":7436,"Ġdetail":7437,"leted":7438,"Ġregistered":7439,"kinetics":7440,"BN":7441,"NORM":7442,"udo":7443,"Ġten":7444,"retrieval":7445,"Ġct":7446,"Ġsl":7447,"Ġspan":7448,"Ġspatial":7449,"ptive":7450,"Ġ'/":7451,"Ġdump":7452,"todo":7453,"providers":7454,"ĠGlobal":7455,"Int":7456,"ĠReset":7457,"layernorm":7458,"Ġchecks":7459,"argmax":7460,"means":7461,"while":7462,"Post":7463,"dicate":7464,"Ġscripts":7465,"Ġedges":7466,"DiffusionPipeline":7467,"Ġrules":7468,"Ġagainst":7469,"ĠSecurity":7470,",),":7471,">##":7472,"Dir":7473,"Identity":7474,"Map":7475,"Sho":7476,"WR":7477,"Windows":7478,"average":7479,"elem":7480,"fe":7481,"hps":7482,"åĩ":7483,"atson":7484,"learning":7485,"Ġcla":7486,"Ġrelation":7487,"Ġlora":7488,"resume":7489,"Ġsep":7490,"Ġbehavior":7491,"ĠBADA":7492,"Ġsound":7493,"RECT":7494,"ĠKernel":7495,"specs":7496,"Ġtranslation":7497,"Ġfails":7498,"Ġcommands":7499,"Entry":7500,"Ġradians":7501,"ĠCLIP":7502,"collate":7503,"fulfill":7504,"atsonx":7505,"ILE":7506,"card":7507,"eef":7508,"Ġretro":7509,"Ġslow":7510,"Ġ#:":7511,"__)":7512,"ĠTR":7513,"classify":7514,"team":7515,"dists":7516,"crease":7517,"HOST":7518,"URN":7519,"Ġtermin":7520,"upported":7521,"ĠColor":7522,"ĠFBT":7523,"BADA":7524,"Func":7525,"OF":7526,"Tr":7527,"gers":7528,"nested":7529,"typ":7530,"Ð´":7531,"å°":7532,"Ġ]":7533,"seudo":7534,"italic":7535,"aries":7536,"Ġanaly":7537,"Ġ\"\"\":":7538,"Ġdid":7539,"ĠPack":7540,"002":7541,"ised":7542,"Ġtextwrap":7543,"([-":7544,"Std":7545,"Ġmoe":7546,"ĠState":7547,"MLP":7548,"Ġchanged":7549,"DATASET":7550,"ĠIDs":7551,"Ġalias":7552,"âĶĢ":7553,"ĠBytes":7554,"Ġerrno":7555,"Ġfastapi":7556,"MegatronModule":7557,"orizont":7558,"Ġlightrag":7559,":',":7560,"Mult":7561,"Task":7562,"WH":7563,"`]":7564,"ections":7565,"mn":7566,"scape":7567,"yout":7568,"stages":7569,"Ġsync":7570,"Ġgc":7571,"Ġgive":7572,"Ġhandlers":7573,"ĠSql":7574,"Ġdebugger":7575,"ĠMagic":7576,"('-":7577,"loaders":7578,"ĠEX":7579,"Ġ56":7580,"track":7581,"Resolver":7582,"lastic":7583,"Ġabstractmethod":7584,"ä¸į":7585,"Ġnormalization":7586,"enums":7587,"Ġdependencies":7588,"helpers":7589,"CLIP":7590,"Length":7591,"Player":7592,"SO":7593,"Sample":7594,"await":7595,"qpos":7596,"Ġ})<":7597,"stub":7598,"rad":7599,"analysis":7600,"Ġ(-":7601,"completed":7602,"outs":7603,"Ġrobot":7604,"Ġkeywords":7605,"Ġindicating":7606,"degree":7607,"Adapter":7608,"=%":7609,"Router":7610,"Vector":7611,"ky":7612,"tun":7613,"walk":7614,"Ġauthor":7615,"mester":7616,"Ġsolve":7617,"Ġmenu":7618,"maction":7619,"controller":7620,"()``":7621,"Ġprop":7622,"preprocess":7623,"Ġ</":7624,"Ġpredictions":7625,"readlines":7626,"logps":7627,"ĠConcrete":7628,"Ġregistry":7629,"Ġutilities":7630,"rypto":7631,"ĠAsset":7632,"Position":7633,"Ġ=================================================================================================":7634,"WARNING":7635,"radius":7636,"59":7637,"oid":7638,"æŀ":7639,"ini":7640,"Ġtxt":7641,"replay":7642,"Ġmotion":7643,"Ġwrong":7644,"Ġlarge":7645,"ĠIM":7646,"forms":7647,"capture":7648,"Ġcopi":7649,"ifact":7650,"splitlines":7651,"Ġnothing":7652,"IONS":7653,"ĠĠĠĠĠĠĠĠĠĠĠĠĠĠĠĠĠĠĠĠĠĠĠĠĠĠĠĠĠĠĠĠĠĠĠĠĠĠ":7654,"ĠExtract":7655,"Configuration":7656,"CODE":7657,"white":7658,"StateDict":7659,"Ġvarious":7660,"æľī":7661,"Ġvariance":7662,"Ġcamera":7663,"Ġadapter":7664,"Ġ~~~~~~~~~~~~~~~~~~~~":7665,"ĠcheatCode":7666,"29":7667,">[":7668,"Clo":7669,"DM":7670,"GET":7671,"kp":7672,"Ġnullable":7673,"ĠNow":7674,"imension":7675,"ngrams":7676,"Ġscroll":7677,"assertIs":7678,"levelname":7679,"ĠLog":7680,"Ġimplements":7681,"Ġdisabled":7682,"scripts":7683,"Ġstacklevel":7684,"Retro":7685,"ĠCommand":7686,")}<":7687,"401":7688,"II":7689,"btn":7690,"cf":7691,"large":7692,"Ġtied":7693,"received":7694,"student":7695,"Ġmid":7696,"Ġdin":7697,"ĠSc":7698,"ĠDec":7699,"inite":7700,"Ġrespon":7701,"Ġshare":7702,"\")]<":7703,"Ġtemporal":7704,"UND":7705,"rewards":7706,"ÑĢÐ°Ð":7707,"Ġorigin":7708,"Ġhappen":7709,"TYPES":7710,"======================<":7711,"Custom":7712,"ission":7713,"lint":7714,"ceback":7715,"cha":7716,"romise":7717,"contin":7718,"ĠFirst":7719,"ĠFast":7720,"ONE":7721,"Ġyaml":7722,"energy":7723,"Ġgeneral":7724,"Ġruntime":7725,"commun":7726,"Ġboo":7727,"ĠResult":7728,"boardInterrupt":7729,"Ġprojection":7730,"OPENAI":7731,"LINES":7732,"ĠDownload":7733,"beat":7734,"lon":7735,"}',":7736,"éĩ":7737,"Ġincorrect":7738,"imports":7739,"quent":7740,"verify":7741,"############":7742,"ĠVideo":7743,">>>>":7744,"gnitude":7745,"ILINE":7746,"riterion":7747,"annotation":7748,"Trajectory":7749,"Ġboundary":7750,"separator":7751,"RIPT":7752,")?":7753,"GPU":7754,"IX":7755,"OFF":7756,"Scale":7757,"cb":7758,"here":7759,"smpl":7760,"Ġvertices":7761,"Ġestim":7762,"Ġsli":7763,"anner":7764,"ascript":7765,"Ġdisk":7766,"Ġhad":7767,"ĠStop":7768,"proxy":7769,"ĠLlava":7770,"ĠFuture":7771,"keyword":7772,"paris":7773,"ORY":7774,"ATTR":7775,"Ġ/=":7776,"\")[-":7777,"avascript":7778,"ĠĠĠĠĠĠĠĠĠĠĠĠĠĠĠĠĠĠĠĠĠĠĠĠĠĠĠĠĠĠĠĠĠĠĠĠĠ":7779,"DOC":7780,":`.":7781,"vae":7782,"Classifier":7783,"Runner":7784,"Ġdirectories":7785,"masif":7786,"'ll":7787,"GRO":7788,"Wait":7789,"br":7790,"ming":7791,"inel":7792,"see":7793,"reens":7794,"recall":7795,"arding":7796,"Ġshe":7797,"thers":7798,"Ġexclude":7799,"attempt":7800,"amond":7801,"sky":7802,"login":7803,"ĠHel":7804,"Ġtrainable":7805,"Extract":7806,"ĠExec":7807,"argtypes":7808,"DatasetConfig":7809,"Parameters":7810,"Ġexecutable":7811,"polate":7812,"VIEW":7813,"Ġcuda":7814,"chronous":7815,"ĠCoreFoundation":7816,"PM":7817,"Term":7818,"YTHON":7819,"hy":7820,"ham":7821,"ndim":7822,"two":7823,"uator":7824,"Ġcategories":7825,"edDataset":7826,"Ġmim":7827,"Ġdue":7828,"ĠTHE":7829,"Ġisa":7830,"asctime":7831,"vised":7832,"processes":7833,"ĠPlay":7834,"sha":7835,"parsed":7836,"Record":7837,"umprod":7838,"Ġsampled":7839,"compiled":7840,"Completion":7841,"grees":7842,"á´ľ":7843,"Select":7844,"ĠLoss":7845,"Debug":7846,"Arg":7847,"Ġcomputing":7848,"ĠNormal":7849,"Ġ=======================================================================================================================<":7850,"Ang":7851,"Cannot":7852,"FOR":7853,"GER":7854,"RA":7855,"Uns":7856,"cx":7857,"drant":7858,"ford":7859,"ike":7860,"kely":7861,"roid":7862,"mpu":7863,"Ġfront":7864,"distribution":7865,"serial":7866,"Ġdefinition":7867,"come":7868,"()`":7869,"Ġstory":7870,"ĠPh":7871,"ĠFace":7872,"Ġsock":7873,"posit":7874,"Ġ``'":7875,"Ġcanonical":7876,"blocking":7877,"Ġsqlite":7878,"SYSTEM":7879,"Header":7880,"CUDA":7881,"SM":7882,"feed":7883,"ks":7884,"ugment":7885,"Ã©":7886,"room":7887,"Ġcli":7888,"Ġbbox":7889,"Ġbert":7890,"lies":7891,"Ġ([":7892,"Ġcont":7893,"pponent":7894,"Ġpretrain":7895,"Ġpylint":7896,"posix":7897,"ĠInstance":7898,"DEEPGRAM":7899,"Ġscorer":7900,"fixed":7901,"Ġcap":7902,"whitespace":7903,"Ġlocals":7904,"merged":7905,"ĠTemplate":7906,"autore":7907,"BM":7908,"DIM":7909,"GENER":7910,"ele":7911,"Ġwave":7912,"contri":7913,"Ġanalysis":7914,"ĠRE":7915,"ĠMIT":7916,"Ġunknown":7917,"logit":7918,"Ġintersection":7919,"general":7920,"../../":7921,"Ġtemporary":7922,"COGN":7923,"})\"<":7924,"Ġreferences":7925,"ĠTimeout":7926,"restype":7927,"Ġbottom":7928,"ploy":7929,"éĹ®":7930,"æį®":7931,"(['":7932,"Mark":7933,"Tagger":7934,"XX":7935,"aff":7936,"êľ":7937,"aturation":7938,"Ġfaiss":7939,"Ġ\":":7940,"cel":7941,"diag":7942,"urbo":7943,"anford":7944,"Ġmultip":7945,"ĠSystem":7946,"Ġ*,<":7947,"Ġstudent":7948,"ffn":7949,"Ġmag":7950,"ĠMark":7951,"ĠEnd":7952,"Ġcheckpoints":7953,"Ġstarts":7954,"Ġcomponents":7955,"Ġanything":7956,"downsample":7957,"sockets":7958,"WORKING":7959,"period":7960,"åĽŀ":7961,"é¢ĺ":7962,"AE":7963,"Ass":7964,"Cre":7965,"DF":7966,"[(":7967,"dat":7968,"dynamic":7969,"null":7970,"schema":7971,"inja":7972,"disk":7973,"Ġ18":7974,"Ġdiag":7975,"ĠInt":7976,"preview":7977,"ĠGroup":7978,"ĠHe":7979,"STAT":7980,"))))<":7981,"Ġsug":7982,"Namespace":7983,"Pass":7984,"BaseModel":7985,"Ġwritten":7986,"absolute":7987,"MOD":7988,"Ġtruth":7989,"Ġexceptions":7990,"links":7991,"Ġseparator":7992,"Prints":7993,"orizontal":7994,"ĠSqlQueue":7995,"+'":7996,"Det":7997,"Ed":7998,"Final":7999,"Jo":8000,"UAGE":8001,"cumprod":8002,"æİ":8003,"heses":8004,"idence":8005,"maps":8006,"ising":8007,"Ġ17":8008,"Ġ28":8009,"Ġkv":8010,"Ġaligned":8011,"DED":8012,"124":8013,"rune":8014,"Ġinteractive":8015,"Ġgrads":8016,"CHAN":8017,"callable":8018,"argin":8019,"ĠProvider":8020,"Ġworkflow":8021,"Ġwindows":8022,"member":8023,"sloth":8024,"EntropyLoss":8025,"Using":8026,"safety":8027,"gether":8028,"Ġremote":8029,"Ġbracket":8030,"Ġcontrast":8031,"ĠLex":8032,"ĠLight":8033,"ĠBot":8034,"Ġenough":8035,"Ġpreprocess":8036,"collector":8037,"Ġfunctionality":8038,"Ġchecking":8039,"byte":8040,"PROCESS":8041,"helper":8042,"fragments":8043,"existing":8044,"Ġrequirements":8045,"Ġfragments":8046,"2023":8047,"mimic":8048,"uptools":8049,"ĠBytesIO":8050,"DCondition":8051,"Flow":8052,"LAT":8053,"cutoff":8054,"fallback":8055,"gacy":8056,"hit":8057,"ln":8058,"Ġ----------------":8059,"Ġtab":8060,"entions":8061,"peft":8062,"igr":8063,"Ġ19":8064,"(\",":8065,"Ġdistributions":8066,"quot":8067,"ĠLON":8068,"former":8069,"ĠFin":8070,"Ġpytorch":8071,"Ġwinerror":8072,"ranks":8073,"Ġsubset":8074,"Ġiterations":8075,"behavior":8076,"Ġregion":8077,"Generate":8078,"iktoken":8079,"ĠRetrie":8080,"VALUE":8081,"Ġretrieved":8082,"allowed":8083,"person":8084,"++++":8085,"constructor":8086,"TrainedTokenizer":8087,"ALLEL":8088,"ExecutionContext":8089,"LANGUAGE":8090,"Limit":8091,"TLS":8092,"eg":8093,"alloc":8094,"Ġsymbols":8095,"expression":8096,"usic":8097,"ifies":8098,"Ġresume":8099,"ĠOut":8100,"ublish":8101,"Ġkind":8102,"addMessage":8103,"Ġtimestep":8104,"matplotlib":8105,"STORE":8106,"Ġcompile":8107,"ĠSearch":8108,"Search":8109,"visioner":8110,"({<":8111,"canvas":8112,"SchedulerMixin":8113,"Ġidentity":8114,"origin":8115,"Ġsimilarity":8116,"avigation":8117,"#<":8118,"480":8119,"Main":8120,"Mapping":8121,"more":8122,"watch":8123,"å¯":8124,"è¦":8125,"erical":8126,"Ġff":8127,"Ġda":8128,"toxic":8129,"Ġgym":8130,"properties":8131,"ĠWrite":8132,"Ġpywintypes":8133,"ATCH":8134,"ĠHp":8135,"contextmanager":8136,"DEF":8137,"Ġgenerating":8138,"')),<":8139,"scaled":8140,"Ġ{},":8141,"ĠForward":8142,"ĠLocal":8143,"packed":8144,"Ġformatting":8145,"CTION":8146,"Ġtrees":8147,"Ġwhole":8148,"Ġvisual":8149,"Metadata":8150,"Ġconsidered":8151,"07":8152,">%":8153,"TF":8154,"each":8155,"fr":8156,"finger":8157,"ience":8158,"mime":8159,"tt":8160,"xel":8161,"Ñı":8162,"erator":8163,"relation":8164,"Ġsig":8165,"Ġwav":8166,"major":8167,"Ġden":8168,"Ġcontin":8169,"()),":8170,"Ġhs":8171,"versed":8172,"Ġrgb":8173,"ĠMask":8174,"('<":8175,"Ġalt":8176,"RECOGN":8177,"Ġcompress":8178,"Ġmouse":8179,"Ġreading":8180,"disabled":8181,"Ġdispatch":8182,"POL":8183,"Ġtagger":8184,"traceback":8185,"Ġdecoded":8186,"rypted":8187,"quaternions":8188,"ECH":8189,"Mat":8190,"Scal":8191,"Use":8192,"]',":8193,"dg":8194,"ftime":8195,"tility":8196,"Ġcnt":8197,"lihood":8198,"Ġday":8199,"ĠTEXT":8200,"Ġequ":8201,"ĠSim":8202,"rive":8203,"ĠPrint":8204,"Ġdescript":8205,"Ġpretty":8206,"acgym":8207,"marizer":8208,"Ġmatched":8209,"ĠStore":8210,"Ġbook":8211,"Ġfinished":8212,"Environment":8213,"graphy":8214,"%%%%":8215,"BytesIO":8216,"vicorn":8217,"TEMPLATE":8218,"Access":8219,"First":8220,"Missing":8221,"Magics":8222,"NAMES":8223,"Top":8224,"Target":8225,"Val":8226,"lb":8227,"tanh":8228,"Ġ\"\",<":8229,"Ġinstanti":8230,"Ġnone":8231,"Ġmmaction":8232,"ully":8233,"asarray":8234,"().<":8235,"datas":8236,"ĠRender":8237,"clusion":8238,"REG":8239,"RET":8240,"Ġruns":8241,"Ġ80":8242,"Change":8243,"ĠKeyboardInterrupt":8244,"gration":8245,"weets":8246,"ĠQueue":8247,"aliases":8248,"Ġisaacgym":8249,"Ġsuggest":8250,"Play":8251,"SP":8252,"mg":8253,"sm":8254,"æī":8255,"paste":8256,"along":8257,"Ġmix":8258,"Ġbi":8259,"Ġbone":8260,"ĠPool":8261,"ĠFn":8262,"numbers":8263,"ENABLE":8264,"\")),<":8265,"graphs":8266,"Ġvocabulary":8267,"VALID":8268,"Ġmarker":8269,"extractor":8270,"Dependency":8271,"proposals":8272,"multiply":8273,"ometry":8274,"/%":8275,"ders":8276,"ring":8277,"rsp":8278,"spl":8279,"slow":8280,"Ġcutoff":8281,"Ġrecv":8282,"power":8283,"():":8284,"Ġ{:.":8285,"hour":8286,"yntax":8287,"ysics":8288,"additional":8289,"ĠVer":8290,"Real":8291,"urllib":8292,"Ġtear":8293,"ĠĠĠĠĠĠĠĠĠĠĠĠĠĠĠĠĠĠĠĠĠĠĠĠĠĠĠĠĠĠĠĠĠĠĠĠĠĠĠĠĠĠĠĠĠĠĠ":8294,"docstring":8295,"ResNet":8296,"temporal":8297,"Pretrained":8298,"fcn":8299,"elements":8300,"Register":8301,"Description":8302,"dependency":8303,"Ġmakes":8304,"GREEN":8305,"è¦ģ":8306,")/":8307,")\",<":8308,"HI":8309,"]{":8310,"sur":8311,"uan":8312,"star":8313,"uri":8314,"entities":8315,"Ġblank":8316,"strftime":8317,"cookies":8318,"Ġ[])<":8319,"ĠCURRENT":8320,"Ġear":8321,"kept":8322,"Ġhyp":8323,"Ġsens":8324,"timedelta":8325,"dact":8326,"momentum":8327,"Requirement":8328,"Ġlogic":8329,"Ġpooled":8330,"IDL":8331,"Ġmomentum":8332,"Ġintercepted":8333,"Ġextended":8334,"ĠJo":8335,"Attr":8336,"Ġbetter":8337,"appauthor":8338,"ĠXML":8339,"TIMESTAMP":8340,"Ġclosest":8341,"breakpoint":8342,"ĠSkip":8343,"Ġmegablocks":8344,"RECOGNITION":8345,"ECHRECOGNITION":8346,"Pri":8347,"PER":8348,"VAR":8349,"cus":8350,"ula":8351,"za":8352,"inplace":8353,"inux":8354,"Ġtiktoken":8355,"ssa":8356,"Ġhi":8357,"Ġhard":8358,"Ġlon":8359,"ria":8360,"clus":8361,"Ġaltern":8362,"Local":8363,"nsi":8364,"Ġpercent":8365,"levels":8366,"Ġpositional":8367,"Ġ96":8368,"Ġextracted":8369,"vantages":8370,"Ġgeo":8371,"âķĲ":8372,"contrib":8373,"79":8374,":{":8375,"Fetch":8376,"OM":8377,"SV":8378,"UID":8379,"ipping":8380,"ratch":8381,"è¡":8382,"review":8383,"retries":8384,"Ġ\"\":<":8385,"cover":8386,"upload":8387,"Ġlate":8388,"ĠROC":8389,"parsing":8390,"Ġarrays":8391,"ĠMet":8392,").\"\"\"<":8393,"heading":8394,"Ġpreds":8395,"ansi":8396,"ddp":8397,"Ġimpro":8398,"ä¸º":8399,"Ġstdin":8400,"BUFF":8401,"cosine":8402,"Ġlonger":8403,"quantization":8404,"activations":8405,"PARALLEL":8406,"quivalent":8407,"DConditionModel":8408,"\"/":8409,"89":8410,"HANDLE":8411,"Json":8412,"Sign":8413,"WEIGHTS":8414,"catch":8415,"iod":8416,"ti":8417,"Ġreceived":8418,"ortion":8419,"Ġscheme":8420,"Ġsymbol":8421,"ading":8422,"ulator":8423,"Ġgui":8424,"Ġhour":8425,"initions":8426,"pired":8427,"Recognizer":8428,"Ġquote":8429,"ĠProgress":8430,"Ġ-->":8431,"]+',":8432,"Initial":8433,"Ġrequirement":8434,"Struct":8435,"Ġcaptured":8436,"ĠShould":8437,"sphinx":8438,"ĠSSL":8439,"Ġoccurred":8440,"Ġeinops":8441,"ĠMagicMock":8442,"\"'":8443,"\"',":8444,"BACK":8445,"Cursor":8446,"Drop":8447,"RC":8448,"ZMQ":8449,"dantic":8450,"year":8451,"ðŁ":8452,"ori":8453,"orator":8454,"rev":8455,"Ġfact":8456,"Ġresearch":8457,"dilation":8458,"Ġops":8459,"experiment":8460,"Ġbits":8461,"ptcha":8462,"Ġisp":8463,"intain":8464,"Ġ*,":8465,"Ġcookie":8466,"Ġresources":8467,"Ġ`.":8468,"ĠWait":8469,"Integer":8470,"neighbors":8471,"STER":8472,"contexts":8473,"ACKEN":8474,"such":8475,"Layout":8476,"HTML":8477,"Ġstyles":8478,"naly":8479,"10000":8480,"Ġhandles":8481,"Ġtrust":8482,"editable":8483,"segmentation":8484,"Grad":8485,"pipelines":8486,"requirements":8487,"Ġfeet":8488,"!!":8489,"\">":8490,"JECT":8491,"Language":8492,"MEM":8493,"Simple":8494,"big":8495,"gold":8496,"hand":8497,"yes":8498,"ining":8499,"Ġts":8500,"Ġflops":8501,"Ġwon":8502,"Ġdw":8503,"setFormatter":8504,"Ġhydra":8505,"Ġthings":8506,"Ġ<<":8507,"Ġpyaudio":8508,"trl":8509,"ĠSegment":8510,"Ġ57":8511,"Configurable":8512,"Ġqk":8513,"))[":8514,"ĠMethod":8515,"epsilon":8516,"Ġidentifier":8517,"Ġtrimesh":8518,"ĠConvModule":8519,"Ġsimply":8520,"cremental":8521,"alphas":8522,"ĠLexers":8523,"(\"\"":8524,"DES":8525,"NS":8526,"Tag":8527,"Total":8528,"Usage":8529,"cm":8530,"ost":8531,"ucli":8532,"Êľ":8533,"Ġ----------------------------------------------------------------":8534,"dean":8535,"raints":8536,"Ġcer":8537,"chrom":8538,"ads":8539,"ĠAct":8540,"Ġ+<":8541,"Ġdebugging":8542,"Ġcoeff":8543,"Construct":8544,"pointer":8545,"\"))":8546,"Ġnever":8547,"Ġclassification":8548,"tribut":8549,"Ġjsonlogger":8550,"olders":8551,"))]<":8552,"scaler":8553,"Ġlookup":8554,"dependencies":8555,"totypes":8556,"ĠRichHandler":8557,"uclidean":8558,"AVA":8559,"Clipboard":8560,"GTH":8561,"imagen":8562,"sid":8563,"wrt":8564,"~/":8565,"uru":8566,"anno":8567,"Ġisn":8568,"Ġ192":8569,"ĠAda":8570,"ĠSingle":8571,"figure":8572,"ĠPEP":8573,"double":8574,"ifest":8575,"ĠMemory":8576,"Ġjupyter":8577,"Ġdouble":8578,"STATE":8579,"IDTH":8580,"Ġstartup":8581,"winerror":8582,"interfaces":8583,"Ġperformed":8584,"translate":8585,"binding":8586,"Ġworkspace":8587,"streaming":8588,"Ġhandled":8589,"apshot":8590,"VALUES":8591,"Compute":8592,"Ġcoords":8593,"Ġepisodes":8594,"ĠQuestion":8595,"betas":8596,"schedulers":8597,"Ġmimo":8598,"Link":8599,"rf":8600,"tw":8601,"tornado":8602,"Ġer":8603,"pans":8604,"algo":8605,"Ġcext":8606,"Ġreally":8607,"Ġind":8608,"Ġpc":8609,"Ġbranch":8610,"uming":8611,"isdir":8612,"prog":8613,"ĠDB":8614,"doctest":8615,"pretrain":8616,"loading":8617,"sound":8618,"'])":8619,"ftmax":8620,"Ġraises":8621,"Ġtrained":8622,"Ġbuffers":8623,"ypedDict":8624,"acquire":8625,"lify":8626,"grouped":8627,"Ġones":8628,"filenames":8629,"installed":8630,"Ġbuiltin":8631,"Ġconsist":8632,"multiprocessing":8633,"Ġcompatible":8634,"oraryDirectory":8635,"Ġincluded":8636,"accelerate":8637,"contains":8638,"09":8639,"Author":8640,"Escape":8641,"KER":8642,"NP":8643,"Ww":8644,"_):<":8645,"ians":8646,"å¹":8647,"stmt":8648,"Ġss":8649,"Ġbank":8650,"ationError":8651,"ĠCorpus":8652,"ĠSte":8653,"imation":8654,"iframe":8655,"Ġgets":8656,"ĠMapping":8657,"matched":8658,"Ġunderlying":8659,"netes":8660,"ught":8661,"Ġready":8662,"reqDist":8663,"ĠParameter":8664,"ĠConfiguration":8665,"servations":8666,"aussians":8667,"Registry":8668,"CorpusView":8669,"Ġaccelerator":8670,"FORMAT":8671,"allenge":8672,"ubernetes":8673,"çŃĶ":8674,"BUFFER":8675,"BE":8676,"LY":8677,"Vis":8678,"ein":8679,"hw":8680,"kill":8681,"lugin":8682,"Ġazure":8683,"orth":8684,"Ġpush":8685,"ĠAR":8686,"Ġguess":8687,"ĠStr":8688,"Ġexperiment":8689,"Ġknn":8690,"Ġstatement":8691,"iterable":8692,"Ġtracker":8693,"Device":8694,"Ġentity":8695,"pending":8696,"ĠFileNotFoundError":8697,"prior":8698,"Loading":8699,"Builder":8700,"SPEECHRECOGNITION":8701,"æĹ¶":8702,"Ġdinov":8703,")],":8704,"46":8705,"CN":8706,"My":8707,"Rank":8708,"Su":8709,"aive":8710,"breed":8711,"mc":8712,"sy":8713,"sil":8714,"venv":8715,"}]":8716,"deprec":8717,"differ":8718,"ellow":8719,"Ġhol":8720,"Ġhyper":8721,"chemy":8722,"classification":8723,"ensors":8724,"ĠBox":8725,"ĠEuler":8726,"nnot":8727,"ĠCondition":8728,"Exit":8729,"Extension":8730,"anglement":8731,"assertFalse":8732,"Ġpatches":8733,"Channel":8734,"Distributed":8735,"PREVIEW":8736,"Ġepsilon":8737,"Ġbuiltins":8738,"skipif":8739,"ĠAlso":8740,"Display":8741,"Ġeditor":8742,"ĠSoftware":8743,"trajs":8744,"LENGTH":8745,"magics":8746,"ratios":8747,"ĠNetwork":8748,"éĹ®é¢ĺ":8749,".\"":8750,"72":8751,"Bert":8752,"Font":8753,"IAL":8754,"Sum":8755,"flo":8756,"}$":8757,"ä¿":8758,"çĽ":8759,"als":8760,"hest":8761,"lout":8762,"digest":8763,"olutions":8764,"Ġler":8765,"Ġstrategy":8766,"Ġdegrees":8767,"ĠDropout":8768,"Ġproblems":8769,"ĠReduce":8770,"uses":8771,"Ġrv":8772,"ivity":8773,"splits":8774,">>>":8775,"eye":8776,"Ġqubits":8777,"ocus":8778,"facebook":8779,"COMP":8780,"Based":8781,"Chain":8782,"ĠNamed":8783,"Emotion":8784,"ĠExamples":8785,"ĠIndexError":8786,"PoolExecutor":8787,"ĠQuant":8788,"Ġexplicitly":8789,"DummyObject":8790,"ĠSentence":8791,"Angle":8792,"!\"<":8793,"LAY":8794,"Page":8795,"tle":8796,"vailable":8797,"}'.":8798,"Ġttype":8799,"Ġretries":8800,"Ġsur":8801,"Ġspeech":8802,"Ġsafety":8803,"peg":8804,"Ġbg":8805,"ĠAI":8806,"ĠSin":8807,"ĠLAT":8808,"ĠDummy":8809,"llms":8810,"ĠMAX":8811,"ĠBatch":8812,"INST":8813,"INPUT":8814,"ONT":8815,"ASH":8816,"PIL":8817,"ranges":8818,"Ġassumptions":8819,"Ġ123":8820,"ĠCheckpoint":8821,"lette":8822,"finetuning":8823,"ĠZero":8824,"Ġrenderable":8825,"ðĿĴ":8826,"media":8827,"Ġdependency":8828,"Ġappauthor":8829,"Ð¾Ð":8830,"Ġtkinter":8831,"ĠLOG":8832,"Ġhelper":8833,"Ġlerobot":8834,"$',":8835,"53":8836,"?\",":8837,"CRE":8838,"Reduce":8839,"VENT":8840,"brid":8841,"broadcast":8842,"faiss":8843,"jection":8844,"Ġtas":8845,"alive":8846,"Ġfeed":8847,"meth":8848,"Ġcip":8849,"ced":8850,"dimage":8851,"Ġpm":8852,"pedia":8853,"Ġbig":8854,"ells":8855,"setattr":8856,"ĠCross":8857,"resses":8858,"cheatCode":8859,"Ġdecor":8860,"ube":8861,"Ġtimedelta":8862,"ĠHandle":8863,"[::-":8864,"ĠSelf":8865,"Expected":8866,"intersection":8867,"Ġintermediate":8868,"arger":8869,"á´ħ":8870,"clips":8871,"Ġfiltered":8872,"Ġdifference":8873,"Ġlongitude":8874,"ĠSome":8875,"NORMAL":8876,"parison":8877,"Ġlatest":8878,"*',":8879,".,<":8880,".\",":8881,"cial":8882,"lig":8883,"mmap":8884,"oken":8885,"skeleton":8886,"ÑĦ":8887,"Ñĭ":8888,"arras":8889,"Ġreturning":8890,"ĠNon":8891,"ĠAnd":8892,"ĠIBM":8893,"Ġcourse":8894,"lists":8895,"portion":8896,"Ġloguru":8897,"Ġhome":8898,"commands":8899,"Generic":8900,"ĠNormalize":8901,"Ġissue":8902,"'d":8903,"EVAL":8904,"Go":8905,"bra":8906,"icon":8907,"sparse":8908,"ĥ½":8909,"Ġcp":8910,"Ġrece":8911,"Ġsn":8912,"chor":8913,"ĠTarget":8914,"Ġelem":8915,"Ġdivide":8916,"terance":8917,"ĠDon":8918,"Ġuniform":8919,"ĠEd":8920,"ĠGiven":8921,"Ġ384":8922,"ĠVocab":8923,"gradio":8924,"planner":8925,"ĠConstruct":8926,"ĠStat":8927,"Tests":8928,"0001":8929,"ĠPyQt":8930,"threading":8931,"MODELS":8932,"playwright":8933,"ĠGPTModel":8934,"labv":8935,"ĠCOPY":8936,"deeplabv":8937,"Ġpeople":8938,"detected":8939,"megaConf":8940,"âķĲâķĲ":8941,"fA":8942,"gaussian":8943,"uations":8944,"pact":8945,"panel":8946,"rete":8947,"urations":8948,"exclude":8949,"Ġmas":8950,"pes":8951,"oney":8952,"ĠCH":8953,"Ġstar":8954,"Ġmel":8955,"Ġsecurity":8956,"ĠMa":8957,"focus":8958,"ĠEnt":8959,"Information":8960,"Ġstarted":8961,"ĠĠĠĠĠĠĠĠĠĠĠĠĠĠĠĠĠĠĠĠĠĠĠĠĠĠĠĠĠĠĠĠĠĠĠĠĠĠĠĠĠĠĠ":8962,"jectories":8963,"generic":8964,"widths":8965,"beled":8966,"fied":8967,"({'":8968,"Ġ10000":8969,"PYQT":8970,"activeShell":8971,"Ġeverything":8972,"umulative":8973,"asurement":8974,"ä»¥":8975,"Ġbeginning":8976,"calculate":8977,"Ġcopied":8978,"Unsupported":8979,">',":8980,"][-":8981,"gits":8982,"jar":8983,"{<":8984,"Êı":8985,"à¸":8986,"å½":8987,"Ġvec":8988,"otst":8989,"verter":8990,"ement":8991,"cases":8992,"Ġproc":8993,"Ġproperties":8994,"######<":8995,"dicts":8996,"timestep":8997,"sources":8998,"ĠWindow":8999,"Ġkw":9000,"ouble":9001,"minimum":9002,"Prod":9003,"Completer":9004,"vocation":9005,"Ġconvolution":9006,"KEYWORD":9007,"pooler":9008,"Ġjoin":9009,"Ġsegmentation":9010,"ENDPOINT":9011,"åıĸ":9012,"Ġscaler":9013,"Ġregexp":9014,"AMPLE":9015,"ĠFormat":9016,"============<":9017,"integer":9018,"çĲĥ":9019,"pository":9020,"Edge":9021,"clusive":9022,"BIN":9023,"Basic":9024,"Feature":9025,"nl":9026,"rs":9027,"ä¹":9028,"è¾":9029,"ited":9030,"admin":9031,"Ġ\"\"\"\\<":9032,"(\"()":9033,"Ġhuggingface":9034,"Ġouts":9035,"__(**":9036,"ynchronous":9037,"eights":9038,"ports":9039,"Ġ400":9040,"STD":9041,"Ġcollate":9042,"checkbox":9043,"Ġcompiled":9044,"ANCE":9045,"spid":9046,"created":9047,"Args":9048,"matching":9049,"Ġlimitation":9050,"Encoding":9051,"freqs":9052,"spam":9053,"cleaned":9054,"ÐµÐ½":9055,"Ġaccumul":9056,"MULTILINE":9057,"Ġtokentypes":9058,".'<":9059,"69":9060,">'":9061,"KL":9062,"Rect":9063,"TC":9064,"WA":9065,"bx":9066,"gl":9067,"rins":9068,"}.\")<":9069,"çī":9070,"Ġti":9071,"aligned":9072,"rash":9073,"Ġcredentials":9074,"Ġmmap":9075,"__,<":9076,"__\",":9077,"__),":9078,"ĠTry":9079,"Ġelapsed":9080,"Ġhuman":9081,"Ġ21":9082,"imate":9083,"Ġxs":9084,"Ġrho":9085,"Ġrather":9086,"Ġappname":9087,"Ġnewline":9088,"ARD":9089,"linspace":9090,"ĠĠĠĠĠĠĠĠĠĠĠĠĠĠĠĠĠĠĠĠĠĠĠĠĠĠĠĠĠĠĠĠĠĠĠĠĠĠĠĠ":9091,"Ġupload":9092,"Ġcaller":9093,"ĠProb":9094,"Ġstreaming":9095,"ILD":9096,"chosen":9097,"rotations":9098,"Ġexpressions":9099,"Ġ320":9100,"connected":9101,"Ġsockets":9102,"Ġopts":9103,"[[],":9104,"åĪĨ":9105,"Ġpopup":9106,"atisfied":9107,"Ġboolean":9108,"elems":9109,"pansion":9110,"BL":9111,"Low":9112,"llout":9113,"mic":9114,"sure":9115,"semaphore":9116,"research":9117,"descri":9118,"alchemy":9119,"distributions":9120,"Ġwintypes":9121,"adding":9122,"Ġdefines":9123,"Ġdup":9124,"()])<":9125,"Ġema":9126,"ĠLive":9127,"ĠFloat":9128,"Ġcomplex":9129,"ĠDagster":9130,"Ġdatas":9131,"ĠUsed":9132,"Ġbytecode":9133,"logy":9134,"evals":9135,"Ġtensorflow":9136,"components":9137,"ACCESS":9138,"markdown":9139,"HOME":9140,"editor":9141,"scalar":9142,"Ġphase":9143,"Retry":9144,"semantic":9145,"ĠCLIPT":9146,"reasoning":9147,"mooth":9148,"IBUT":9149,"CrossEntropyLoss":9150,"Ġpkg":9151,"METHO":9152,"quadr":9153,"reenshot":9154,"ĠFacebook":9155,"Ġmasif":9156,"(\"\",":9157,"cgn":9158,"hip":9159,"mma":9160,"plex":9161,"snake":9162,"Ġ\"**/":9163,"ane":9164,"Ġbold":9165,"Ġ[{\"":9166,"formatters":9167,"Ġdeepspeed":9168,"attentions":9169,"Ġseem":9170,"ĠMy":9171,"ĠMain":9172,"Instruct":9173,"phrase":9174,"framework":9175,"linux":9176,"Ġmessagebox":9177,"akref":9178,"CHAR":9179,"Ġtopk":9180,"Ġdownsample":9181,"toks":9182,"panded":9183,"Assert":9184,"Help":9185,"ĠRetroPreprocessingConfig":9186,"BOX":9187,"timing":9188,"pcd":9189,"Ġdistances":9190,"Ġinstructions":9191,"ilinear":9192,"SYS":9193,"GELU":9194,"åŃĺ":9195,"otstrap":9196,")(\\":9197,"*\\":9198,"Avg":9199,"CLO":9200,"Gui":9201,"]}":9202,"qwen":9203,"sla":9204,"xies":9205,"æŃ":9206,"erial":9207,"Ġ=================================":9208,"utc":9209,"Ġcent":9210,"Ġ\"\\\\":9211,"Ġinplace":9212,"Ġomega":9213,"lict":9214,"Ġtogether":9215,"Ġdm":9216,"external":9217,"(\"[":9218,"Ġhn":9219,"Ġliteral":9220,"emmer":9221,"ĠDes":9222,"Ġmachine":9223,"ĠInstall":9224,"collision":9225,"LETE":9226,"Ġteacher":9227,"Ġsubstit":9228,"Ġperiod":9229,"Ġextensions":9230,"commend":9231,"CONN":9232,"ĠModelConfig":9233,"TextTuple":9234,"Ġcompare":9235,"ĠStringIO":9236,"udge":9237,"MAP":9238,"fragment":9239,"currence":9240,"RESET":9241,"OUTPUT":9242,".*?":9243,"ĠDispatch":9244,"detail":9245,"ĠCOMException":9246,"AndTextTuple":9247,"orizon":9248,"DEVD":9249,"ciphers":9250,"ĠGoogle":9251,")`":9252,"Be":9253,"UC":9254,"UST":9255,"_%":9256,"dc":9257,"ned":9258,"tar":9259,"yield":9260,"|[":9261,"å¾":9262,"Ġqui":9263,"Ġ?<":9264,"Ġtb":9265,"Ġ\"$":9266,"arp":9267,"Ġrel":9268,"ceeded":9269,"chan":9270,"Ġball":9271,"Ġbind":9272,"____":9273,"Ġexceed":9274,"fft":9275,"pretty":9276,"ams":9277,"__(*":9278,"Ġenviron":9279,"clar":9280,"abstract":9281,"latex":9282,"Ġsubclasses":9283,"Ġinterrupt":9284,"Ġbackoff":9285,"ĠValueSet":9286,"ĠJupyter":9287,"Chart":9288,"ILITY":9289,"Ġlevels":9290,"ĠConfigMixin":9291,"Modified":9292,"Ġreasoning":9293,"ĠTrainer":9294,"Iterator":9295,"ĠMegatronModule":9296,"////////////////////////////////////////////////":9297,"failure":9298,"Ġindividual":9299,"æĪĲ":9300,"Ġattachment":9301,"æķ°æį®":9302,"HERE":9303,"Ġapprox":9304,"CHANNE":9305,"ĠROCD":9306,"plexity":9307,"(('":9308,")\"":9309,"41":9310,"CD":9311,"DER":9312,"NC":9313,"critic":9314,"euler":9315,"pot":9316,"æĿ":9317,"Ġvelocity":9318,"deploy":9319,"Ġpr":9320,"define":9321,"Ġborder":9322,"liz":9323,"Ġforms":9324,"convention":9325,"Ġann":9326,"ĠSame":9327,"ĠLi":9328,"tagger":9329,"ĠOptimizer":9330,"ĠCounter":9331,"maxsize":9332,"ivers":9333,"ATOR":9334,"lecturer":9335,"runs":9336,"Ġnearest":9337,"Ġmaybe":9338,"PreTrainedModel":9339,"Softmax":9340,"0627":9341,"Ġintegers":9342,"Ġdebugpy":9343,"Ġserial":9344,"Ġmonkey":9345,"ARGS":9346,"peaker":9347,"BOT":9348,"CAP":9349,"MM":9350,"Out":9351,"RUN":9352,"]])":9353,"guidance":9354,"gripper":9355,"hard":9356,"iment":9357,"|>":9358,"sequential":9359,"recurs":9360,"Ġmixed":9361,"lider":9362,"Ġ(?":9363,"ĠAbstract":9364,"Ġgripper":9365,"Ġhit":9366,"Ġrespect":9367,"fileid":9368,"Ġ`(":9369,"psp":9370,"~~~<":9371,"ERY":9372,"Ġconfigs":9373,"started":9374,"Lookup":9375,"rown":9376,"IDC":9377,"margin":9378,"responses":9379,"Parent":9380,"Ġfaster":9381,"tagged":9382,"Ġbinding":9383,"landing":9384,"ĠZMQ":9385,"limiter":9386,"Ġepochs":9387,"Ġprimary":9388,"Ġtiming":9389,"Ġprobably":9390,"192":9391,"fraction":9392,"Region":9393,"afetensors":9394,"ought":9395,"Ġcoordinates":9396,"Ġpeft":9397,"syntax":9398,"Bindings":9399,"Scaler":9400,"'^":9401,"GLU":9402,"SF":9403,"jax":9404,"lit":9405,"pared":9406,"reverse":9407,"Ġaircraft":9408,"Ġaugment":9409,"roles":9410,"Ġcut":9411,"character":9412,"Ġmiddle":9413,"Ġfore":9414,"Ġconcept":9415,"Ġcontact":9416,"queries":9417,"Ġhis":9418,"resolver":9419,"Ġart":9420,"plugins":9421,"='',":9422,"patterns":9423,"Ġcausal":9424,"interp":9425,"interle":9426,"Ġinterpreter":9427,"Ġversionchanged":9428,"Ġpatterns":9429,"Ġscales":9430,"SetConsole":9431,"probability":9432,"biencoder":9433,"builtin":9434,"Ġcallbacks":9435,"Iteration":9436,"æĪ·":9437,"Segmentation":9438,"pixels":9439,"accelerator":9440,"Ġquotes":9441,"INDOWS":9442,"ĠIMAGE":9443,"CR":9444,"PASS":9445,"Schema":9446,"eft":9447,"ç½":9448,"atmap":9449,"atives":9450,"unpack":9451,"iso":9452,"Ġlarger":9453,"ĠLL":9454,"ĠPT":9455,"ĠIdentity":9456,"ĠFaiss":9457,"Ġcomplet":9458,"Ġmade":9459,"appro":9460,"ĠBin":9461,"\")))<":9462,"Ġbuff":9463,"rowth":9464,"ificates":9465,"Ġpartition":9466,"ĠAttnMaskType":9467,":`~":9468,"Ġincludes":9469,"finetune":9470,"ĠIndexedDataset":9471,"Ġbarrier":9472,"?\"<":9473,"AST":9474,"Lib":9475,"ail":9476,"fork":9477,"pisode":9478,"åĮ":9479,"çº":9480,"Ġ=================":9481,"deepspeed":9482,"Ġfd":9483,"Ġft":9484,"Ġcancel":9485,"geo":9486,"Ġrefer":9487,"Ġschema":9488,"chin":9489,"Ġwraps":9490,"ptd":9491,"els":9492,"Ġhand":9493,"Ġdeleted":9494,"andbox":9495,"inputhook":9496,"Ġjobs":9497,"']))<":9498,"actual":9499,"ĠInference":9500,"([])<":9501,"across":9502,"abi":9503,"ANT":9504,"corder":9505,"ĠĠĠĠĠĠĠĠĠĠĠĠĠĠĠĠĠĠĠĠĠĠĠĠĠĠĠĠĠĠĠĠĠ":9506,"Ġsubmit":9507,"Ġlikely":9508,"Ġsuid":9509,"submit":9510,"Ġurlparse":9511,"Ġoverall":9512,"TOCOL":9513,"000000":9514,"Ġclosing":9515,"Shape":9516,"Ġconsistent":9517,"freeze":9518,"ĠShardedStateDict":9519,"ĠTraining":9520,"ĠAdam":9521,"mediately":9522,"Ġreplica":9523,"highlight":9524,"åľ¨":9525,":].":9526,"SING":9527,"]\",":9528,"aran":9529,"azure":9530,"bird":9531,"cas":9532,"gan":9533,"jump":9534,"sampl":9535,"symbol":9536,"recompute":9537,"itect":9538,"arb":9539,"Ġincomplete":9540,"__).":9541,"Ġ'')<":9542,"Ġdeque":9543,"Ġdetection":9544,"ĠDraw":9545,"[\"_":9546,"Ġvllm":9547,"amo":9548,"allet":9549,"trunc":9550,"***":9551,"Ġneigh":9552,"minor":9553,"Ġindexes":9554,"gramClient":9555,"Ġbaseline":9556,"AGES":9557,"packaging":9558,"Ġexecutor":9559,"Predict":9560,"cognize":9561,"ĠMoE":9562,"callbacks":9563,"Ġtimm":9564,"Ġhooks":9565,"Ġvisible":9566,"Ġnamedtuple":9567,"Ġreply":9568,"slices":9569,"bosity":9570,"candidates":9571,"accumulation":9572,"ĠDeepgramClient":9573,"Ġisaacgymenvs":9574,"ĠSteven":9575,"Cho":9576,"Mem":9577,"Plugin":9578,"WM":9579,"Zero":9580,"flight":9581,"gz":9582,"jupyter":9583,"ä¼":9584,"redis":9585,"diamond":9586,"Ġsym":9587,"urther":9588,"Ġpin":9589,"Ġimportant":9590,"isp":9591,"Ġequivalent":9592,"ĠFeed":9593,"shard":9594,"Ġmaps":9595,"Ġsec":9596,"ĠOptions":9597,"irm":9598,"mov":9599,"Types":9600,"notify":9601,"augment":9602,"overflow":9603,"tables":9604,"Dictionary":9605,"ĠANSI":9606,"bottom":9607,"Ġlatitude":9608,"Ġmanually":9609,"letter":9610,"Heading":9611,"LoaderMixin":9612,"Ġgood":9613,"records":9614,"Ġphrase":9615,"ĠRaise":9616,"realpath":9617,"Ġsqlalchemy":9618,"FLAGS":9619,"Ġpriority":9620,"Ġinherits":9621,"cumsum":9622,"Ġgreater":9623,"ĠTRAIN":9624,"mni":9625,"ĠConcreteInstr":9626,"43":9627,"49":9628,">*":9629,"AK":9630,"DIC":9631,"Qwen":9632,"[/":9633,"[~":9634,"fpath":9635,"åĢ":9636,"Ġ^":9637,"remain":9638,"Ġfid":9639,"Ġreload":9640,"chdir":9641,"Ġmd":9642,"peated":9643,"Ġdp":9644,"Ġcontroller":9645,"ĠPY":9646,"causal":9647,"ĠUI":9648,"lications":9649,"ATH":9650,"stribute":9651,"Ġcare":9652,"Progress":9653,"Ġpassing":9654,"cribe":9655,"Ġneedle":9656,"Ġstrides":9657,"errno":9658,"Frames":9659,"clipboard":9660,"ðĿĺ":9661,"private":9662,"Ġretriever":9663,"Ð¸Ð":9664,"cluded":9665,"Ġchatbot":9666,"timer":9667,"Ġdestination":9668,"Ġdetected":9669,"Ġmagics":9670,"'``":9671,")],<":9672,"65":9673,"Gather":9674,"MESS":9675,"PACE":9676,"eod":9677,"sequent":9678,"Ġam":9679,"ersations":9680,"prototypes":9681,"ĠReference":9682,"Ġwinreg":9683,"ĠmaxTokens":9684,"Ġadds":9685,"checked":9686,"transformation":9687,"ĠĠĠĠĠĠĠĠĠĠĠĠĠĠĠĠĠĠĠĠĠĠĠĠĠĠĠĠĠĠĠĠĠĠĠĠĠĠĠĠĠ":9688,"Ġinteract":9689,"submodules":9690,"Debugger":9691,"Ġflash":9692,"ĠDebug":9693,"ibly":9694,"udy":9695,"hostname":9696,"Ġcomputed":9697,"multimodal":9698,"Ġmonth":9699,"Depth":9700,"Ġprojections":9701,"Ġtruncated":9702,"äºİ":9703,"crops":9704,"written":9705,"multiplier":9706,"ĠMODE":9707,"Ġcycle":9708,"Ġproperly":9709,"Ġplanes":9710,"+\\":9711,"EE":9712,"Num":9713,"PID":9714,"Sdf":9715,"elapsed":9716,"hint":9717,"java":9718,"vs":9719,"æ¡":9720,"Ġ))<":9721,"orso":9722,"Ġable":9723,"roken":9724,"Ġfrequency":9725,"Ġ\"@":9726,"digit":9727,"ighest":9728,"setting":9729,"uped":9730,"()),<":9731,"ĠSend":9732,"Ġexplanation":9733,"fox":9734,"ĠGLOBAL":9735,"readline":9736,"waitable":9737,"SED":9738,"fileno":9739,"16000":9740,"16384":9741,"corer":9742,"newaxis":9743,"iterations":9744,"ToTensor":9745,"á´Ħ":9746,"Selection":9747,"sumed":9748,"Delete":9749,"what":9750,"Settings":9751,"Ġenter":9752,"Piece":9753,"Ġpackaging":9754,"ĠComputes":9755,"Shift":9756,"Ġplain":9757,"ĠEncoder":9758,"ermine":9759,"è¯·":9760,"svg":9761,"Ġdescribed":9762,"Ġindicates":9763,"çĲĨ":9764,"åĩº":9765,"WHITE":9766,"æŀľ":9767,"smpllib":9768,"AZ":9769,"KIP":9770,"LIMIT":9771,"Micro":9772,"Ptd":9773,"categories":9774,"kh":9775,"middle":9776,"ogram":9777,"wi":9778,"xlabel":9779,"yellow":9780,"ÑĨ":9781,"Ġvert":9782,"deco":9783,"descript":9784,"Ġnx":9785,"anet":9786,"Ġmis":9787,"Ġmargin":9788,"Ġbn":9789,"lias":9790,"Ġdivision":9791,"usy":9792,"ĠObject":9793,"filepath":9794,"Ġrhs":9795,"Connect":9796,"Ġpreferred":9797,"comb":9798,"Inference":9799,"ITH":9800,"Ġneighbors":9801,"Property":9802,"Ġinterpolation":9803,"ROL":9804,"Ġformats":9805,"2048":9806,"irspeed":9807,"RequestException":9808,"177":9809,"riteria":9810,"webkit":9811,"SCRIPT":9812,"microsoft":9813,"Ġá´Ľ":9814,"sensus":9815,"Ġ[`~":9816,"Ġissues":9817,"Ġhappens":9818,"FRAME":9819,"affine":9820,"amount":9821,"/\"<":9822,"BER":9823,"Click":9824,"Next":9825,"TK":9826,"cot":9827,"gran":9828,"xe":9829,"¦Ĥ":9830,"æĢ":9831,"invoke":9832,"sel":9833,"seek":9834,"Ġflat":9835,"Ġretain":9836,"Ġsquare":9837,"Ġwa":9838,"Ġ(_":9839,"Ġ')<":9840,"ici":9841,"ĠSQL":9842,"cased":9843,"Ġunless":9844,"opied":9845,"bomimic":9846,"Regex":9847,"ioloop":9848,"ITEM":9849,"Profile":9850,"Ġexternal":9851,"INGS":9852,"Resize":9853,"ĠJson":9854,"Ġfinetune":9855,"fire":9856,"POS":9857,"Ġperforms":9858,"ĠGPUs":9859,"retrieved":9860,"Ġaveraged":9861,"compatible":9862,"Decorator":9863,"Ġfigure":9864,"ĠAgentP":9865,"Finder":9866,"dinov":9867,"Service":9868,"Ġfrozenset":9869,"Ġpixels":9870,"AndTextTuples":9871,"'ve":9872,")[...,":9873,")}\"<":9874,"AUTH":9875,"AUSE":9876,"CERT":9877,"MAN":9878,"PN":9879,"SA":9880,"navigation":9881,"speech":9882,"erun":9883,"recognition":9884,"mpy":9885,"Ġns":9886,"unused":9887,"extended":9888,"Ġaspect":9889,"ĠAnsi":9890,"quit":9891,"vidia":9892,"textonly":9893,"listic":9894,"ĠRET":9895,"Ġ::":9896,"\"]),<":9897,"dimensions":9898,"combin":9899,"ĠVQ":9900,"SELECT":9901,"aich":9902,"Ġobservation":9903,"Ġtranscription":9904,"URITY":9905,"ĠAttributes":9906,"ĠShift":9907,"ĠPass":9908,"Ġrepresents":9909,"Ġselector":9910,"RequestError":9911,"ĠPreTrainedModel":9912,"Ġcloud":9913,"UPPORT":9914,"Ġdownloading":9915,"monitor":9916,"ä½¿":9917,"DecodeHead":9918,"slots":9919,"COMM":9920,"ĠWebSocket":9921,"ĠPostgres":9922,"'}<":9923,"CV":9924,"Full":9925,"IPE":9926,"LES":9927,"]\")<":9928,"cython":9929,"fy":9930,"fold":9931,"nr":9932,"swap":9933,"Æ°":9934,"Ġtid":9935,"Ġiou":9936,"land":9937,"Ġpil":9938,"Ġbrightness":9939,"cons":9940,"esh":9941,"pooled":9942,"Ġeuler":9943,"teradata":9944,"ĠScript":9945,"Ġstuff":9946,"ĠFrom":9947,"ĠUN":9948,"Ġpydantic":9949,"ĠRegex":9950,"oked":9951,"ĠInteger":9952,"Ġ``(":9953,"ASK":9954,"Ġcomponent":9955,"ĠProgram":9956,"Ġface":9957,"Ġcomments":9958,"{}\".":9959,"domains":9960,"æľ¬":9961,"ãĢģ":9962,"ignedSent":9963,"}:{":9964,"åı¯":9965,"Ġscalar":9966,"retrieve":9967,"ĠDisplay":9968,"ĠDeprecationWarning":9969,"Ġfragment":9970,"åĬł":9971,"Builtin":9972,"CMD":9973,"åº¦":9974,"ĠâĶĤ":9975,"CLSID":9976,"ĠBottleneck":9977,"combine":9978,"(%":9979,"Cli":9980,"DC":9981,"Global":9982,"Holder":9983,"]\"":9984,"][:":9985,"rss":9986,"Ġ=========":9987,"standard":9988,"alan":9989,"always":9990,"Ġcriterion":9991,"Ġnd":9992,"that":9993,"Ġwf":9994,"adjust":9995,"ism":9996,"Ġconversion":9997,"Ġhue":9998,"Ġstand":9999}