#version: 0.2
> <
p a
pa d
Ġ Ġ
ĠĠ ĠĠ
ĠĠ Ġ
ĠĠĠĠ ĠĠĠ
i n
o r
s e
o n
a t
e r
e n
Ġ =
Ġ t
r e
) <
s t
d e
>< /
i m
ĠĠĠĠ ĠĠĠĠĠĠĠ
r o
: <
l e
a n
i on
a l
l f
se lf
c h
i t
a r
Ġ f
l o
u t
a m
a s
e s
h e
Ġ "
, <
or t
c t
Ġ self
Ġ n
p ort
Ġ m
Ġ re
Ġ c
Ġ i
g e
Ġ s
o de
im port
in g
Ġ in
e d
ro m
u r
Ġ p
en t
e x
Ġ d
a d
p t
Ġ o
) :<
i c
Ġt he
e l
Ġ a
de f
u m
ĠĠĠĠ ĠĠĠĠĠĠĠĠĠĠĠ
u n
Ġ #
t h
p e
r a
ode l
i d
o t
u e
i g
Ġ b
Ġ import
f rom
i z
ur n
t urn
at e
at a
_ _
e m
st r
Ġ l
Ġ w
u l
Ġ (
Ġi f
c e
am e
in t
an d
- -
" <
Ġre turn
ex t
d i
Ġf or
Ġt o
c o
p ut
or ch
i s
on e
a ge
Ġ def
i l
ĠĠĠĠ ĠĠĠĠ
ar g
t o
c k
] <
i st
p o
c on
e t
Ġ -
ge t
Ġ T
. <
( )<
p l
at ion
or m
o l
q u
a b
lo g
pa r
> #
Ġ as
v al
Ġ N
Ġ *
iz e
p le
i le
Ġ 1
er s
Ġ [
Ġi s
Ġ '
c l
arg s
en s
se t
( "
Ġt orch
Ġ A
r an
Ġ C
ct ion
h t
Ġ L
( )
" ,
se r
v e
re s
pa th
" )<
Ġ g
es s
Ġo f
as s
k e
" "<
Ġ {
ul t
Ġc on
i f
m odel
a y
( <
y pe
n ame
d ata
ĠN one
e p
u p
s ize
Ġ +
Ġ 0
Ġ S
r i
t ext
al l
en d
o m
pt ion
it h
Ġ h
= =
. .
ra in
a p
Ġ and
a x
Ġ st
o d
" :
s s
Ġ 2
[ "
in e
# #
at t
as k
" ]
Ġ <
at ch
Ġm odel
cl ass
u s
Ġ str
ig ht
im e
Ġ D
log g
p y
f orm
f ig
Ġ x
ran s
v er
Ġ de
Ġ r
a g
-- --
Ġn ot
p ro
Ġn um
h a
im age
lo ad
Ġ e
em b
ic e
Ġ" ""<
Ġ el
Ġ F
o ut
r int
am ple
Ġ R
d er
ens or
c or
ab le
k en
r ue
Ġ P
in it
Ġd ata
) )<
Ġ ex
Ġ )<
Ġ I
l en
e w
i p
Ġ= =
" ,<
ch e
rom pt
Ġ O
n um
ĠĠĠĠ ĠĠĠĠĠĠĠĠĠĠĠĠĠĠĠ
ke y
Ġt h
o s
q ue
] ,
a se
ha pe
v i
t ype
d ing
en se
f f
Ġw ith
t er
d im
Ġre s
o w
Ġn p
f ile
Ġ- >
v ice
' ,
Ġ par
an g
ic ense
r or
Ġ M
e st
p re
Ġel se
= "
0 0
Ġf rom
Ġ or
ct or
) .
Ġo s
Ġp ro
Ġ se
t rain
Ġp rint
Ġ __
m ent
emb ed
Ġo ut
Ġ /
g r
u le
a st
logg er
i b
Ġ u
iz er
Ġ j
t orch
Ġ get
ap p
c ess
he ad
en er
a in
an ce
p er
el s
ad d
s on
Ġ _
) ,
g th
lo ck
Ġ v
Ġ val
co m
Ġd i
an n
t ime
p on
Ġ 3
c a
u b
Ġ y
ut il
ag es
al se
T rue
j e
u re
di ct
Ġ E
di r
== ==
Ġ ro
( '
lo at
__ (
od ule
á ´
Ġ qu
ĠĠĠĠĠĠĠĠ ĠĠĠĠĠĠĠĠ
ar d
ĠL icense
at es
ion s
rans form
a ve
[ '
k w
I N
con fig
a ck
st ep
kw args
Ġ ch
Ġf ile
Ġin put
## ##
r y
an t
Ġin t
Ġl en
que st
} <
c ode
. _
Ġ image
b o
ption al
Ġ an
b atch
app end
in put
.. .
k ens
Ġ on
po int
e ight
Ġ U
l l
in d
l ay
Ġ un
id d
un ction
Ġb e
c ri
Ġ B
lo ss
i se
Ġn n
O N
y n
p en
Ġ G
s hape
) ,<
l ist
ar t
ess age
i x
m e
util s
pon se
Ġ en
i al
Ġ >
po s
n n
idd en
len gth
er y
a ult
in f
Ġ V
to ken
r ror
id s
Ġ W
t ent
Ġ* *
a v
[ :
Ġt ext
re d
u di
---- ----
E rror
um ent
qu i
i r
j o
udi o
( ):<
() .
o u
ch ed
en ce
E N
par am
p s
w er
" "
' ]
l y
Ġ im
de vice
it y
m ax
Ġout put
w or
logg ing
Ġ `
" ""<
at or
ĠO ptional
it s
' )<
che ck
Ġu se
o ur
un d
o c
Ġc om
ic es
de x
Ġ :
Ġm ax
M odel
er n
Ġ pa
ang le
C on
m ask
ser t
s h
' :
ar get
w ard
a il
E R
un t
Ġt ime
ur r
Ġw h
yn c
m at
ĠT he
N one
out put
Ġd im
Ġl ist
Ġ k
Ġm at
p rompt
je ct
ce pt
st ates
Ġs up
to kens
Ġs h
us ion
n orm
ch ann
ent ion
s pe
ĠR e
] )<
n t
embed ding
A T
ht t
a ce
i ent
o ol
ran ge
Ġc l
Ġa p
it ion
Ġres ult
Ġt rain
if f
] .
p h
" )
Ġ it
st ance
a c
Ġp re
/ /
ow n
S T
ched ul
b er
y p
Ġ att
i ct
s ample
Ġto ken
or e
Ġc o
Ġ ra
co der
e at
n e
Ġ .
r g
i ve
o f
Ġb y
: //
or y
Ġ log
ra y
t ensor
data set
in al
id x
val ue
re ate
) :
S E
lo w
n ing
F alse
lo c
Ġp rompt
i v
Ġs y
ip el
d s
D I
Ġ[ ]<
Ġ args
st ate
z er
u d
u ser
w eight
ca le
Ġ q
b ack
se s
Ġt ype
inf o
Ġ 4
Ġa re
T ensor
ar ray
ab el
Ġ logging
re ad
en v
Ġ key
at ed
Ġde vice
i es
w a
Ġre qui
ation s
a ke
n p
step s
o b
er ror
th od
pl it
Ġ H
O R
n d
f g
D E
t rans
A M
Ġp o
ot ion
Ġb atch
r it
Ġ( <
ĠT rue
Ġth is
f loat
Ġsup er
T I
m o
am es
v el
jo in
Ġa x
u st
Ġdef ault
co l
in dex
a i
u es
le t
Ġs ample
chann els
j son
ĠL ist
Ġ al
and om
an s
I n
Ġun der
Ġ" ""
S t
n ode
( [
chedul er
># <
ipel ine
ine ar
Ġcon fig
and l
Ġp y
de d
ri x
Ġ @
e c
ĠI n
gr ad
Ġdata set
" ]<
urr ent
' <
] ,<
at ern
Ġg ener
m in
= '
o k
Ġi d
l at
Ġn ew
ĠĠĠĠĠĠĠĠ ĠĠĠĠĠĠĠĠĠĠĠĠĠĠĠ
Ġm ask
Ġ load
ers ion
b ase
ĠC on
Ġ all
Ġj son
Ġex cept
[: ,
b lock
i o
Ġ K
m age
res ult
co unt
ar y
Ġ set
" :<
Ġas sert
L E
Ġ %
==== ====
cor e
} ")<
p rint
Ġ range
ig n
ay er
gr am
Ġ+ =
Ġra ise
Ġg r
str ib
strib ut
0 2
R E
u g
ess ages
o p
et a
Ġm e
Ġval ue
L o
pt im
check point
Ġ logger
ver t
st em
ctor y
head s
andl er
a ch
arg ument
vi ew
t est
ro up
re e
o und
er e
Ġpar am
ĠU n
A N
Ġn ame
i as
Ġel if
t ers
ĠF alse
* *
ro p
pro cess
u ple
3 2
in stance
Ġt ensor
Ġt yp
lo b
#### ####
ransform ers
re ct
lo t
Ġth at
P I
Ġ{ <
lay er
d ate
is ion
train ed
ro po
it em
Ġ[ "
ropo ut
a k
1 2
r ic
ot al
R e
res s
un c
il l
ĠA n
am a
param s
Ġh idden
Ġcon text
Ġs pe
f or
Ġo b
con text
h is
Ġres ponse
S I
h idden
"] )<
Ġ ...
c es
Ġp os
> >
i ed
Ġ htt
() )<
Ġst ate
cri ption
Ġo pen
re am
> @
ext ra
Ġ Q
... ,
L I
o le
ĠA rg
Ġt arget
i de
Ġtyp ing
Ġcon t
Ġy ou
L M
po ch
em pl
iff usion
Ġ 5
st art
Ġr un
ple t
di ff
. ")<
form at
cor d
ĠM odel
> )<
Ġas ync
g n
ĠE x
m ain
Ġ le
qu ery
cri pt
ĠRe turn
f l
s ave
i el
con tent
pa t
Ġt est
spe ct
u ff
vi de
n ew
int s
a ct
Ġf loat
Ġ up
f eat
ar i
ur l
ent s
ĠArg s
empl ate
stribut ed
Ġc ol
Ġm essage
pl y
s um
Ġnum py
wor k
ĠAn y
( (
s plit
A R
l ib
ction s
ult i
1 6
Ġa c
al ue
Ġf unction
con t
res ponse
con v
Ġp er
et ric
M odule
me thod
Ġt ry
e val
Ġ he
un k
r ame
Ġs hape
po se
me an
Ġ> >>
Ġtoken izer
Ġro t
bo x
Ġw or
] :<
c at
f unction
Ġc a
lo s
Ġn ode
Ġn e
Ġm odule
of t
ut e
Ġ path
[ -
id th
Ġspe c
m essage
r on
Ġc ode
E S
Ġb ool
a f
Ġh as
our ce
ĠReturn s
ame ters
it er
Ġqu ery
l t
end s
ab els
at h
Ġ !
ut o
Ġ loss
Ġs ub
r ight
pa che
A G
p u
T o
w ith
pro b
C H
pre trained
-------- --------
u res
r un
Ġ! =
c ur
(). __
se d
ad er
DI R
] )
w w
Ġax is
Ġ at
c fg
lay ers
Ġcl ass
le ct
str u
ĠS t
d a
Ġan s
g ener
pl ace
is s
pl ic
Ġa udio
Ġpar ser
ail able
ar ch
er ate
et un
par se
wa it
s cale
ar k
ce ption
il ter
ind ow
m s
P ipeline
s q
Ġsy s
Ġm ay
Ġd type
ro t
ut ion
Ġqu atern
Ġ }<
IN G
ĠD e
P ar
Ġu ser
angle s
a udio
Ġb ase
Ġfor ward
Ġnum ber
zer o
d type
) )
Ġb lock
Ġn o
ĠD ata
ĠD ict
load er
model s
t es
od y
ir st
g ist
ch o
m a
u al
vi ron
s c
b y
Ġ embedding
en coder
t ask
in es
Ġ Y
n o
all y
am pl
Ġin spect
ep s
" {
Ġdi stributed
m odule
Ġw eight
quest ion
Ġex p
ĠS e
D ata
Ġe val
s ub
ro ot
th er
val id
Ġr andom
att r
__ ()<
ĠC o
er ence
Ġid x
it ial
Ġspec if
d f
P T
Ġst art
cl s
se nt
Ġs ave
1 0
al c
Ġre quest
ra ph
lob al
n et
m l
m ode
Ġw e
co gn
= -
h o
t arget
n s
Ġl ast
Ġpro cess
' s
t ra
ang u
ar ning
Ġn orm
Ġis instance
angu age
` `
ro l
ul l
s y
am b
d b
u il
im it
alue Error
6 4
I G
Ġt ask
Ġa wait
Ġ[ <
ĠT his
L inear
g roup
t r
ul d
p lot
val ues
d own
Ġ add
en c
s cor
d m
Ġ |
embed s
Ġrequi red
A S
f ix
o pen
ic k
is ode
iel d
T H
l ine
ap i
ment s
Ġcon v
ca che
Ġt otal
re ed
it ions
ne ction
c all
t he
Ġmodel s
m ap
ot e
diff usion
"] ,<
h at
Ġm essages
att ention
Ġmat rix
vide o
T ype
Ġ z
Ġ pad
ll m
im g
g er
Con fig
' )
block s
st at
l abel
Ġcon tent
ption s
gist er
f t
o ver
Ġco py
ptim izer
" .
com m
Ġdi ct
D ict
ut put
to ol
i ch
Ð °
Ġ{ "
ĠV alueError
Ġd o
M ix
R O
Ġm in
Ġpar t
Ġc urrent
ob ject
em otion
u c
z e
u se
in s
Ġa g
; <
[ ...,
U L
r ate
b ody
se ed
b ar
d ot
Ġl abel
Ġsy stem
Ġrequi res
as ync
Ġe ach
Ġatt ention
N et
Ġs ize
th on
l d
ig inal
o v
Ġ ve
ro le
Ġim ages
ist ory
ol ution
Mix in
. """<
f unc
point s
ud a
ol d
py right
( -
S cheduler
Ġd is
T O
] [
back ends
TI ON
amb da
Ġf l
att n
att er
wa re
e y
or g
av ailable
Ġl l
Ġw ill
Ġro w
sh ot
T E
o g
ax is
com plet
Ġtrain ing
b ias
at ure
Ġhtt ps
' ]<
F A
Ġatt n
P ro
rit e
Ġs c
Ġ/ /
f a
pt h
zer os
l ast
iz ation
co ding
Ġ us
Ġim g
wor d
= {
ĠCo pyright
o uld
ĠUn ion
em ory
con d
Ġt rans
Ġc or
Ġdi re
input s
mat rix
re quest
iz ed
Ġde s
Ġc reate
put e
I mage
e poch
c el
as ses
) .<
q dm
code d
a w
( __
} ,<
á´ ĩ
ans wer
n ake
02 4
v ision
ist s
n ames
Ġt ransformers
le vel
que ue
t e
ep isode
Ġ ad
ĠĠĠĠ Ġ
as h
token izer
D iffusion
E Y
c urrent
u de
EN SE
c uda
} "<
par t
par ser
P rompt
Ġst ep
F ile
R es
Ġc fg
2 0
a re
Ġ 8
d rop
C l
to p
> """<
ĠI mage
weight s
Ġto p
' :<
C ENSE
Ġf ound
pl ay
T rain
v ent
pre d
pat ch
Ġinput s
ĠEx ception
col or
t ransform
it le
Ġans wer
per t
2 5
I L
g ame
m ark
ð Ŀ
Ġ lo
def ault
str ing
he ck
Ġm atch
em per
il en
Ġgener ate
g ing
Ġ Ð
ro und
Ġd iff
ro w
ra w
feat ures
Ġstr ing
' ,<
str ip
I D
c pu
an ge
etric s
Ġas s
up date
emper ature
] ]
o ff
Ġs ource
O utput
m otion
loc al
A L
m b
Ġval ues
k v
t ain
ch at
Ġin f
Ġlen gth
Ġmat h
Ġt qdm
Ġl anguage
H andler
Ġ end
F orm
i ke
v ar
im ages
Ġc an
Ġgr ad
b its
bo ok
h andler
ex ample
iv en
oft ware
E x
key s
Ġ extra
1 00
Ġ á´
ur ation
ad ata
et adata
a ction
w idth
Ġin dex
int er
Ġ ..
U T
d u
v ersion
po st
alc ul
Ġs cale
Ġparam s
g pt
m m
t ransformers
pro j
result s
C ON
r c
r t
uff er
Ð° Ð
S e
======== ========
p ha
Ġ J
Ġ one
Ġl ine
ch unk
ĠA pache
Ġpa ss
Ġmodule s
Ġv ari
n g
ab s
Ġpro b
A PI
d ropout
o us
Ġt ra
ri ch
AT A
on g
Ġt ransform
Ġrot ation
} )<
Ð ¸
Ġin st
L ist
ĠV ersion
en viron
ol der
oc ab
Ġresult s
scor es
K EY
r l
uil d
Ġ' '
ind ices
e le
m essages
ple ment
t emplate
Ġuse d
UL T
I M
P E
Ġ 6
re gister
Ġb ias
ve c
v ed
Ġ ):<
Ġ head
con nection
Ġwh ile
ug ging
w e
Ġf eat
ex ec
Ġ( `
ame ter
= [
b e
r ames
Ġ ent
s m
} \
ll ama
D O
it e
ĠY ou
" ):<
L O
Ġf irst
co py
qu ence
ĠA d
FA ULT
Ġ ]<
ith ub
los ses
l r
Ġst ream
H T
Ġ )
re place
mo ve
ĠT uple
l ama
o pt
Ġfor m
Ġg iven
Ġspecif ic
de c
le d
cl asses
ĠP y
######## ########
trans pose
Ġl imit
1 1
ic ro
ĠD E
item s
Ġin ter
ern el
AG E
g ithub
Ġch ann
Ġen um
Ġquatern ion
Ġus ing
ä ¸
se q
O DE
ĠC reate
etun e
Ġf in
00 0
ir c
Ġe le
ĠR ole
ilen ame
. __
Ġ error
re f
ol ver
Ġon ly
ro ss
Ġin d
ra g
num py
ph one
Ġg pt
s core
Ġre cord
Ġd own
A I
x t
ï ¼
} .
le ase
Ġh ave
T ext
co s
t ing
M P
I m
c lo
() ,<
uc cess
f n
u it
A rg
g ment
l p
m atch
ar m
Ġme thod
Ġhtt p
r andom
pl ied
time steps
Ġcor rect
N orm
R AN
Ġre f
Ġex ample
Ġval id
om e
user s
Ġexp ress
c reate
s im
Ġ arg
ig ma
Ġs oftware
que e
() ,
ct ed
ith er
Ġwh ich
nd array
quee ze
V I
m iss
Ġto kens
res h
Ġap i
it ies
( {
b s
l abels
ĠC om
ĠO R
htt ps
Ġ kwargs
Ġ check
mb ed
Q ue
w rite
Ġp lt
if t
av a
s queeze
le ss
Ġw rit
icro phone
st ack
Ġch o
Ġpy game
al y
am p
em ail
Ġ1 0
ĠS et
Ġro ot
ĠĠĠĠĠĠĠĠĠĠĠĠĠĠĠĠ ĠĠĠĠĠĠĠĠĠĠĠĠĠĠĠĠ
w indow
st ant
Ġit em
Arg ument
al ize
em pt
Ġca ption
C O
at ing
all able
end er
Ġlog its
Ġ% (
"] .
Ġr ight
Ġe ither
M essage
at ive
as on
Ġa ct
Ġl at
sq rt
dot env
} ,
re qui
ent ial
res hape
Ġsh ould
C ode
p i
re ak
re cord
Ġs nake
ke ep
de t
e am
um m
Ġl ayer
Ġ1 2
pos ition
ĠT ask
Ġap plic
5 0
U R
Ġ ),<
ss ion
ww w
irc uit
l ation
ex ists
Ġd f
di re
yp es
Ġ checkpoint
alcul ate
F or
st ra
ast er
D ATA
ol low
oc ument
i er
Ġ zero
Ġse nt
Ġwor k
ĠT ext
us al
c ut
ç ļ
(" --
"] ,
Ġor iginal
çļ Ħ
Z E
Ġs core
Ġin it
P O
K EN
Ġ" __
gr id
m an
Ġto ol
ĠC ON
AT E
ut h
af et
. "<
en ch
Ġm ulti
Lo g
4 0
cl ient
Ġ{ }<
chann el
Ġne ed
r and
Ġm ust
Ġl aw
loc ation
re etune
Ġasync io
g t
em p
Lo ader
O UT
Ġs im
Ġb et
par ameters
(" \
ĠC heck
ĠB A
Data set
5 5
e ch
i an
l ambda
b in
Ġa ction
ig h
Ġg roup
sample s
ĠSe e
qu atern
Ġkey s
Ġob ject
Ġ rich
st ream
__ ":<
Ġro le
r ices
ut t
Ġve ctor
are a
L U
c ircuit
st d
Con v
cogn izer
D e
G ener
c re
pa ce
f ace
f rame
ĠO F
Ġo ver
ĠL LM
Ġj o
SI ZE
Ġdire ctory
Cl ient
or s
Ġb ack
Ġg lobal
Ġob tain
L icense
a u
l icense
t xt
Ġc ur
ens ion
ĠA N
ĠQ u
c ent
le ar
Ġfor mat
Ġstr ide
Ġhe ight
( *
g raph
Ġch at
ob j
i a
ĠP ath
ĠP IL
IN D
itial ize
tr f
G R
I TH
Ġm an
ĠW AR
ampl ing
pl ayer
Ġpa t
sy stem
TION S
A t
it ude
um e
ĠI f
ust om
mbed ding
Ġa v
St ate
B ase
t ri
at io
Ġt w
ort cut
ĠI S
lt a
Ġweight s
fa ctor
Ġarg parse
Ġs plit
Ġsup port
Ġpo ints
M E
Ġ angle
or a
ĠDe f
B lock
al o
ex p
ĠData set
Ġ keep
ĠĠĠĠĠĠĠĠ ĠĠĠĠĠĠĠĠĠĠĠĠĠĠĠĠĠĠĠ
Ġcom m
di s
get env
ĠL o
") ;<
Pro cess
f ul
g y
ry pt
ĠW ITH
Ġare a
ODE L
Ġwrit ing
Ġb reak
bo ol
ĠG ener
Ġme an
É ª
Ġw idth
Ġ( ...,
pl i
ĠA PI
ĠF ile
for ward
miss ions
ĠAN Y
u ation
Ġd ropout
Ġan y
TO KEN
ĠWAR RAN
C ol
ch ar
ist ant
ransform er
Ġmat rices
TI ES
To ken
license s
M A
y le
Ġt emperature
ĠA uto
Ġwh en
pli ance
f ilter
m p
pro gram
cor rect
AM P
Ġdes cription
at alo
Ġa b
ra p
class method
ĠF unction
ĠB ase
ac y
ĠK IND
LI CENSE
Ġper missions
ĠWARRAN TIES
O T
u id
w h
Ġf ollow
Ġp d
Ġd ot
Ġapplic able
ĠWITH OUT
b uffer
Ġp layer
Ġd ate
"] [
ĠLicense d
Ġex ist
Ġim plied
Ġcom pliance
Ġpad ding
a pache
Ġg over
ver y
Ġ> =
DI TIONS
Ġpo st
SI S
Ġag reed
ĠCON DITIONS
ĠBA SIS
Ġgover ning
Ġs k
Ġl abels
Ġch unk
ĠUn less
Ġlimit ations
c um
j ang
er ge
Ġm o
U rl
p end
en code
ĠT ool
ran k
stru ct
Ġ1 00
"] ["
by tes
jang o
F a
c s
h ot
i que
Ġt r
re turn
K ING
t otal
file s
etun ing
IG HT
b ot
µ Ð
en ces
f ore
m eta
de code
__ (<
atalo ader
g lobal
Ġ emotion
Ġm ain
Ġth read
stat us
Ġe poch
ĠF l
module s
afet y
E n
t itle
ver se
Ġquatern ions
Ġenum erate
: \
_ (
t ry
Ñ Ģ
Ġ ed
ĠP ar
C T
ing le
iv ation
r ad
r ary
d ition
ro ll
Ġ{ }
Ġex ec
ĠCon vert
a ded
Ġt reetune
al led
Ġs in
Ġs cor
ser ver
cho ices
) ]<
on ly
Ġc los
att en
pro pert
ĠI m
Ġpro gram
RO M
Ġ argument
en g
ut f
ib le
batch es
num ber
Ġcom plet
embedding s
e ed
on t
if y
E P
o th
q l
t a
Ġ question
Ġin to
Ġ2 0
= (
se arch
Ġcont ain
cho ice
Ġf inal
ck pt
Ġr ate
ĠP ro
inf erence
Ġk ernel
Ġass ign
Ġy our
" \
v is
É ´
ud ent
n ext
at Code
Ġt uple
re q
Ġde ep
che atCode
Ġco unt
" ),<
3 0
v ari
Ġd ist
Ġ[ `
á´ ı
Ġoutput s
T he
ĠG et
Token izer
g ress
ul ar
Ġal pha
Ġchann els
K ey
N ame
f rames
o x
Ġs ame
av g
1 7
Ġ" \
EN T
> )
C om
f older
u i
Ġpo int
cur acy
4 8
F I
le m
lo wer
Ġo ptimizer
qu bits
mo v
ĠCon fig
9 0
Ġs cheduler
l ike
Ġll m
cel erate
M ODEL
at s
he ight
Ġre ad
process or
N AM
Ġ video
Ġm ode
Ġl r
qu ential
Ġf rame
is h
pos itions
ched ule
let e
node s
Ġcont in
Ġcol or
ick le
" ))<
X T
uff le
Ġdiff users
ĠDE FAULT
l inear
o ptim
r as
Ġ \
Ġ" /
) ):<
C a
F loat
f ind
l u
m ed
Ġm etrics
work ers
Log ger
1 4
w ise
A d
O P
l ines
Ġn on
Ġen coding
F O
i k
Ġ" "<
ĠC LI
if ier
ter n
Ġrequest s
complet ion
epoch s
A udio
m ulti
s in
s cheduler
t ree
ent ity
un squeeze
oft max
l ate
Ġ ct
ote book
empt y
or age
ir s
L ayer
b it
Ð ¾
al f
Ġe vent
Ġtw o
I d
Ġs av
Ġp red
ic s
Ġ[ [
Ġ2 02
tent ion
Ġno ise
Process or
f in
Ġcon vert
. /
W OR
m ul
log its
data class
Ġfile s
Ġgr id
Ġinf o
F IG
Q u
er ies
Ġ" <
qu ant
ĠĠĠĠĠĠĠĠĠĠĠĠĠĠĠĠ ĠĠĠĠĠĠĠĠ
Ġimage Url
'] )<
B y
Ñ Ĥ
Ġ 7
Ġo ther
ĠH ugging
' '
U n
f ull
v ant
Ġw indow
and le
). __
AT I
ro q
Ġo ptional
stru ction
exec ute
e ad
e ff
Ġs o
ĠC allable
ew shot
ï¼ Į
Ġc all
Ġwh ere
spe c
Ġit er
Form atter
L e
U S
re ward
de pth
Ġs um
Ġl ib
á´ Ľ
Ġhe lp
1 5
m etadata
q a
[: -
let on
CH E
resh old
f inal
m emory
w ay
in st
on es
Ġn ext
Ġg t
Ġle vel
Ġdo es
Ġdate time
A n
or d
Ġin stance
ke leton
comm on
off set
2 2
L AM
Ġl ay
function al
group s
du ct
Ê Ģ
ser ved
ĠU p
Ġright s
Float Tensor
LAM A
Ġ X
able Diffusion
jo ints
ampl er
Argument s
N ot
n er
r atio
jo int
b ench
o st
Ġ },<
pre dict
our se
umm y
pa nd
ch ain
Ġm ake
ic y
Ġ[ '
gener ate
Ġfollow ing
G E
Ġ emb
Ġpar ameters
iel ds
Ġdown load
P U
form s
pre fix
' ],
A B
d oc
Ġ eps
ĠĠĠĠ ĠĠ
se n
Ġc os
ul er
pre sent
train ing
enc y
Ġs r
um n
di st
ĠA ll
je ction
sy s
CON FIG
utt on
a pt
p ri
w arning
w arm
de s
Ġd rop
ĠS ample
Ġbase d
Que ue
GR AM
ĠIm port
. ,
F ace
Ð µÐ
ĠA p
ag s
Ġsh ot
trans cript
Ġpos itions
le ep
Ġd iffusion
qu at
Ġclos d
) [
_ {
f low
f ilename
j ust
s l
Ġt emplate
mat h
EP GRAM
ĠHugging Face
I T
] ["
c le
h istory
id get
ces sed
3 6
Ġt ree
Ġp l
um an
cl ip
dir name
clo se
Ñ ĥ
Ġc urr
ĠN ot
E mbedding
P ath
en u
'] .
Ġwor d
c urr
init ial
je ctory
: ",
Ġf ilter
(' --
' t
m es
u ous
x y
ag ent
gener ator
ĠAd d
dire ction
F F
c ase
i pe
se en
qu al
ĠP re
ĠG R
Ġen coder
ĠIn itialize
---------------- ----------------
S C
s or
Ġre cognizer
ab il
ht ml
Ġ< =
pon ent
pa ck
Ġm icrophone
ile d
Ġpos ition
Ġconv ention
ĠFl ax
re ason
st op
im um
Ġm ore
Ġb uild
IN FO
Ġup date
Par am
episode s
Ġvari able
T rans
p ipeline
Ġs m
sm all
Ġele ment
usal LM
an k
he d
Ġre served
Ġ` `
} '
Ġ let
ve ctor
object s
NAM E
8 0
B A
N otebook
` ]
Ġm emory
Ġre cor
ic al
ri b
Ġcom pute
loc ity
Ġdis able
propert y
F T
en able
f ter
t rue
Ġ queue
Ġembedding s
quatern ion
p r
Ġ url
le ft
Ġin itial
iz es
ĠR es
In valid
count s
work er
viron ment
dec ay
Ġcontin ue
N E
T his
in ov
ar s
Ġd ocument
Ġw as
ĠO pen
Ġal low
cont rol
ting s
Ġpat ch
) ))<
6 8
o ptimizer
} /
un et
Ġdata classes
SE T
T ransformer
Ġre present
ex cept
ight rag
ag er
ĠR ot
Ġget attr
tensor s
Ġkeep dim
a z
g o
di f
Ġof f
Ġst at
pro d
L LM
a uto
b eta
st ion
Ġm etadata
Ġi gn
to wer
pre v
Ġse arch
requi red
i str
as sert
Ġre al
ĠT ensor
Ġh ere
Ġind ices
det ach
: .
t n
en e
de lta
et ch
Ġopen ai
ĠDef ault
Ġ202 3
c am
v ocab
se ssion
Ġs rc
Ġl icense
and b
il ar
con ds
wor ds
W ith
a e
p g
s cript
pl t
Ġ* <
Ġspecif ied
Ġinst all
pa ss
Ġf ull
Ġa ff
il i
je ctor
Ġbe en
Ġdim ension
plement ed
N ode
k pt
Ġ Z
Ġp ipe
um ns
if ic
Ġcl ient
Ġsent ence
0 1
? <
U P
d um
m aster
Ġ embed
Ġp ickle
ĠT est
á´ Ģ
ĠW e
ail s
ĠIn c
Ġlat ent
au ss
` ,
m etrics
n own
Ġ --
re g
Ġs l
Ġd b
__ )<
di ction
ĠE n
ĠData Loader
9 9
d o
le ctor
th read
ĠF or
ann ot
Ġ: ,
Ġfin etuning
h f
u ch
Ġ angles
Ġb eta
ĠT o
sh ift
lat ent
Par ameter
C h
L A
n ow
r ally
Ġs igma
ur ing
um ber
sh ow
Train ed
For Ca
ForCa usalLM
b lob
v ents
Ñ ģ
Ġ its
Ġd jango
ĠL I
Ġde c
Ġbe fore
mask s
ho ok
Fa ctory
A D
C E
l im
u ate
w in
Ġj np
ĠG PT
Ġen coded
no ise
Res ult
Ġfeat ure
uccess ful
Ê Ł
Ġf a
Ġc alculate
Ġst op
wor ld
F ield
P lease
t rol
or der
lat itude
af e
sent ence
part s
q kv
Ġs ign
em ent
po p
ĠM eta
htt p
ho st
ĠGR ID
f irst
im es
lo aded
as ure
he ther
is hed
pl an
Ġdata class
spe ed
Ġap ply
t uple
se lect
Ġin cl
Ġde pth
Ġse q
per m
Ġqu eries
stant s
Ġlay ers
" ).
> }<
R L
b ject
Ġp lot
pe ct
Ġb ut
Ġ' {
cs v
` <
f lat
o ptions
Ġ $
Ġt eam
le ms
ri es
Ġr ad
Ġqu ant
"" "
5 6
< /
R A
Ġi o
get Logger
form atter
FI LE
7 0
D B
l and
er ator
LO G
Ġbet as
Gener ator
o id
æ ľ
Ġ &
Ġo pt
ĠI D
Ġch ar
Ġpy thon
fl atten
og le
Ġmulti ple
ĠLI CENSE
V ER
p k
ck et
ĠT O
ol ve
ĠA t
Ġcon s
load s
ATI ON
re ated
Ġse quence
trans cription
Ġrun ning
sq l
rot ation
Im plemented
Ġdot env
ĠNot Implemented
Ġign ore
P re
f p
s chedul
Ġp ipeline
co ur
.. /
vi ded
1 9
3 3
m ak
p df
ar x
Ġd en
con cat
yn am
ST AMP
plic ation
Par ser
Ġsystem Prompt
E M
M o
p ed
Ġ et
de ep
Ġv ersion
IN T
norm al
ĠNotImplemented Error
a it
g ments
m d
} )
Ġa fter
Ġ1 6
Lo ss
Ġcont rol
Ġz ip
Ġrad i
F unction
s rc
ar ange
ca ption
output s
Ġrot ations
Ġgrad ient
stra ct
At tention
L AN
b l
Ġ vi
ur er
ĠI N
des cription
P OR
di ctions
il ters
Ġpro vided
Ġlib rary
F rame
` ):<
d it
g es
s ource
t ag
Ġl ambda
(" /
ĠPy thon
By tes
ĠImport Error
arx iv
U ser
e ger
Ġm erge
ck er
ran ch
Ġst d
iss ing
Ġnorm al
S pe
U N
] ):<
s oftmax
w ers
æ ĺ
Ġo ptim
Ġ( "
est er
AB LE
r am
s ign
Ġf ix
Ġf ilename
ast ype
Ġsample s
Ġgener ator
Ġset up
tool s
g round
h ash
j pg
s d
ä º
Ġ 9
ut es
Ġc kpt
Ġ2 024
Ġpar se
ipel ines
stribut ion
stat ic
) ).
Ġ ],<
pad ding
an ces
Ġd uring
ot ions
ĠT eam
Ġh istory
Ġsh uffle
rit er
prob s
cogn ition
Ġfl ag
l ora
Ġf ind
Ġc ats
Ġpre dict
Ġtype of
start s
Ġjo ints
E D
G N
L LAMA
T est
c y
Ġt k
Ġt itle
Ġ" ,
Ġl ines
Ġst eps
Ġse ed
Y PE
g ative
h er
at er
ed irs
ent ry
ex pand
ol lama
Ġqu at
Ġgener ated
plot lib
Ġdire ction
7 7
t able
in k
st able
it ive
Ġf ewshot
ate g
ĠC at
Ġ2 55
pre c
ou g
Ġll ava
Ġextra ct
O bject
ar n
th reshold
par ent
Ġg o
py thon
ĠDe ep
scor er
={ "
R I
Ġre g
Ġw arning
ĠC l
], [
ĠU Net
call back
mak edirs
ynam ic
: ]<
T h
Ġ array
Ġ local
st amp
Ġc alc
Ġse gment
I O
b ug
m it
pa re
Ġm m
Ġc lo
pe cted
check er
Ġcl ip
3 4
O ptions
c ross
par ator
Ġth an
Ġpar ameter
length s
Ġcl s
Ġap p
Ġpre trained
ne ct
In put
fl ax
Diffusion Pipeline
Train er
ele ment
' .
T emplate
s igma
v els
Ġ" {
Ġm ov
bo ard
inal g
Ġ'' '
Ð¾ Ð
az y
Ġaff ili
% (
P RE
` ):
e et
v en
en coded
al pha
Ġs ingle
Ġs uccessful
Ġl ightrag
ĠP rompt
Ġor der
Model Type
auss ian
D ropout
M Scheduler
S et
] ).
c v
d ay
w d
Ġt er
ex it
el y
un ct
add Handler
={ <
uid ance
Ġaffili ates
D P
s k
ut or
am ed
ĠC h
ath er
MP L
Ġsm all
C A
an aly
Ġs cript
ne ed
TI ME
ĠModel Type
To kens
ĠSt ableDiffusion
Ġlo op
l st
z en
Ġ cheatCode
re move
Ġc v
id er
Ġ' .
Ġde t
** **
off load
Se quential
Ġact ivation
ROM PT
ĠRot ation
A ction
H O
R un
t ot
t emperature
u ce
pa n
le ction
ĠR un
Ġv ocab
complet e
################ ################
({ "
ĠTO DO
B U
R ole
b uild
å ı
en ate
DE FAULT
Ġthread ing
perm ute
b le
| >
å Ī
in sert
er a
Ġ" -
Ġm ap
Ġl ike
ol ume
ers ation
ap ply
vi ous
Ġtime steps
apt er
warm up
3 7
G et
T ime
b one
or iginal
set up
norm alize
fl ag
comm and
eng ine
Ġlicense d
V e
Y ou
i re
i ew
s izes
ç Ĳ
it or
Ġre move
num el
Ġen c
Ġby tes
checkpoint s
function s
Le vel
h alf
o ice
s is
in v
re set
Ġs ampling
ig uous
ass istant
Ġse ssion
Ġtarget s
Res ponse
ðĿ Ĺ
Ġexample s
Ġcomm and
CHE C
) }
1 8
\ \
s ync
ar ge
Ġc ent
Ġo ld
ĠP lat
app ing
á´ ľ
read y
feat ure
ms g
ĠPar ameters
Ġsav ing
S ON
s uccess
ã Ģ
ĠS hape
ĠD iffusion
Ġse lect
train er
ĠG roq
Ġra g
ĠK ey
process ing
static method
E IGHT
H ead
f ast
m el
o se
s r
t ypes
â Ģ
è ¯
ro zen
Ġp e
co eff
con vert
ĠA udio
Ġ{ '
Ġun et
Ġcom put
DE EPGRAM
BA SE
D ER
E W
] ))<
d ataloader
i ate
l m
s ide
t emp
w rap
å ¤
re w
ction ary
com p
ition al
Ġeval uation
25 6
Ġman y
Qu ery
P layer
P ROMPT
T MP
f ields
l inalg
q pos
ê ľ
Ġ utils
se gment
Ġf ake
Ġ" ",
Ġs ome
et as
Ġ1 024
ess ion
Ġ3 2
je ctions
Ġme ans
plement ation
ĠPlat forms
E T
N o
ä ½
en coding
Ġs ound
Ġl inear
ol icy
ĠC hat
ĠS ql
Ġj ob
Con dition
cont iguous
sm pl
En coder
WOR KING
ĠSql Queue
G U
R AG
V alue
` .<
a ctions
to list
path s
Ġst ory
ter m
Ġmethod s
ĠLo ad
Ġstat us
starts with
2 3
4 4
U E
Ġ ver
st yle
Ġd ataloader
"] )
Ġen vironment
AT H
ph as
ĠCom pute
UR R
'' '<
trol Net
* ,
s olver
t k
} "
Ġre place
Ġs chedule
ver age
load ers
Ġdata base
Ġse conds
ugging face
1 024
c i
re en
de lete
Ġf rames
ort ed
Ġs olver
pe at
ĠT rain
add Message
vari ance
H istory
f o
f er
h uman
o unt
Ġp lay
Ġo ptions
Ġw ant
ĠT ype
Ġr ender
quest ions
Ġsh ortcut
ool s
ĠQ ue
cel erator
spec ial
C heck
h ome
p ix
y stem
as ic
Ġ" .
Ġre gister
ĠT h
ĠU se
Ġpa ck
Ġdataset s
================ ================
clo ud
Que stion
LAN GU
P y
R IGHT
b all
e vent
s olution
de v
it ch
ĠĠĠĠĠĠĠĠ ĠĠ
ĠN umber
set Level
ĠP er
Ġmat plotlib
Ġhas attr
Ġcho ice
URR ENT
> _
c x
m od
Ġf ield
text s
Ġpro duct
ĠU RL
Ġtime out
Ġpre v
iter al
ÑĢ Ð°Ð
need le
LANGU AGE
' ):<
U M
] ]:<
c c
f ill
m ix
s o
on al
ĠT E
form ation
ĠF n
Ġpa nd
ac curacy
Ġnode s
Ġed ge
Ġpand as
k nown
ur al
com pute
EN D
Ġob j
tra j
Ġfeat ures
ummy Object
( _
E CH
I TION
S PE
m etric
p ng
â ķ
en gth
)< /
st ore
ĠT YPE
if orm
Ġth en
Ġra w
RE CO
Ġwor ld
down load
Scheduler Mixin
dif ied
GN ITION
CHEC KING
ECH RECO
ECHRECO GNITION
> ]<
F ound
S H
V ision
] ]<
f erence
l ang
å Ĳ
Ġc ase
di sc
il d
ĠC URRENT
"] :<
open ai
Ġchann el
cent er
Ġtr unc
Ġoff set
4 5
> ):<
C K
f req
r ing
er as
ro py
Ġc alled
Ġ[ ],
ri ver
Ġh f
us h
Ġe very
Ġ_ ,
ub l
ant ic
list en
Ġlist en
Ġpre fix
Re quest
we en
Ġent ry
DO W
Ġab out
Ġscor es
ĠCLI P
concat enate
9 6
b ins
ä »
re lu
ro gram
am l
Ġc reated
__ )
ĠL lama
ĠM ulti
... ")<
Ġen v
Cl ass
example s
Ġcho ices
ox el
C hat
T T
i py
s afety
Ġ ext
Ġ heads
al ing
Ġm u
ĠN ode
prob lem
prob lems
Ġwork er
vant ages
xy z
TIME STAMP
de g
Ġf ig
Ġc ustom
un ter
ul ation
ĠL ayer
Ġtime step
Ġpy audio
ĠEx ample
feat s
Ġac celerate
the ta
Ġrow s
Ġ{} ".
V iew
b os
c ast
g pu
Ġ losses
Ġt emp
Ġf ast
el l
ate gy
and ard
res ize
ĠR ich
Ġun ique
Ġsh util
Ġq kv
Ġjson logger
Ġtransform s
Ġsk ip
Ġcomplet ion
Layer Norm
Trained Model
- <
M L
O pen
Ê ľ
ext ras
log s
ĠS core
ĠI F
tra jectory
DOW N
3 1
c wd
o ps
Ð »
Ġ util
Ġ 64
se quence
le ctions
Ġ" --
Ġw andb
di stributed
ĠĠĠĠĠĠĠĠ ĠĠĠĠ
et work
ann er
SI ON
ng ine
Argument Parser
meta class
ik token
abil ity
ĠRich Handler
k ernel
t il
Ġt f
id ual
ĠN OT
Ġde l
Ġy ield
IN DE
Ġ5 0
ml p
ific ation
INDE X
E dit
F ilter
f ree
m t
n on
å ®
Ġd inov
ul ator
co st
Ġg en
Ġcon nection
Ġdi ctionary
Ġal ready
St ream
Ġca che
Ġsub process
Ġsupport ed
stract method
SPE ECHRECOGNITION
b reed
c ustom
o ple
s a
s leep
in ation
di rect
dim s
ĠU ser
idd le
angle ment
sh ortcut
min i
vert ices
act ivation
Ġpath lib
cur sor
CON ST
Ġvari ance
VI EW
cour se
Ġwarning s
PRE VIEW
2 4
D Condition
D ummyObject
E motion
l ong
Ġ ).
Ġt iktoken
Ġf unc
cl one
Ġj ax
Ġqu bits
cri be
ac celerate
pat ial
quatern ions
ĠGener ate
cum prod
Ġscor er
M enu
U D
d at
f c
l ight
r u
v it
w av
Ġ email
Ġs ql
get cwd
Ġpa st
LE FT
Ġhas h
ater mark
G PT
U p
p ing
se nd
de coder
Ġre t
di stance
ĠF ROM
á´ ħ
Ġch ange
Ġen g
fl ash
act er
dire ctory
man ual
âķ Ĳ
/ {
r ender
u sed
pa y
al let
ĠT rans
ĠS im
Ġse cond
Ġpre vious
Ġwe b
transform er
ðĿ Ĵ
Ġass istant
Ġ\ <
ĠAp ply
Ġdocument ation
ĠOpen AI
" })<
> __
E X
b ers
h andle
l imit
m on
m ake
n ly
Ð ½
å Ĭ
Ġf eet
Ġc am
con nect
() )
res olution
all en
py torch
Ġwith out
bo se
OR M
Ġneed le
Ġvector s
Ġjo int
5 7
H el
m ester
o ptional
de mo
Ġf ree
Ġ' \
Ġ' __
model ing
om ic
ag n
Ġpro cessed
Ġsh ift
grad ient
Ġper form
Ġexp r
Ġrecor ds
tot ypes
i red
l ens
l ava
m u
s keleton
t y
å º
Ġ ge
Ġre ward
Ġo p
Ġ# #
po ol
ter min
train able
gener ation
Ġprob lem
Ġtra ck
=[ <
requi res
lear n
Ġav ailable
Ġlet ter
çĲ ĥ
âķĲ âķĲ
' ))<
. ",<
n ot
s ampling
Ê ı
Ñ Ħ
è ®
le an
ar ras
am ount
Ġm issing
ic ient
Ġa uto
Ġw ave
ist ic
Ġatt r
12 3
12 4
Ġfunction s
Ġdiff er
Ġav g
" }<
Ġp ool
co ll
to k
Ġg raph
Ġex pert
Ġargument s
go ogle
dum p
D ec
b n
s sed
} :
Ð ´
st udent
Ġm otion
Ġw rite
ĠL og
ĠD own
me asure
Re al
Ġeval uate
`` `
TE XT
Ġsc ipy
Ġbet ween
Ġcount s
Not Found
A P
B O
M S
S ystem
e f
l anguage
m ult
ð Ł
er t
un ique
ens ions
Ġth ere
ĠE uler
ac c
St orage
ĠCon v
request s
level name
Ġlength s
DCondition Model
1 3
G B
L lama
T uple
b ind
g ent
w idget
im ent
ct ime
Ġin formation
Ġd oc
ĠN ote
ĠS h
Ġde lta
00 00
Ġ` ``
lat ents
Ġle ft
act ive
AS S
Ġtrans cript
Ġvalid ation
rand int
ĠUp date
istr al
Ġeng ine
E val
I I
O f
] (
] ['
s ing
Ġre tri
Ġthe ir
po l
set Formatter
Ġh ow
Ġh andler
ap es
ĠO utput
lay out
Ġtrain able
ac count
ĠH ow
Ġpath s
Ġag ent
IM AGE
roll er
schedul ers
Ġradi ans
BU G
5 12
> %
b uil
Ġn ow
Ġs ure
str ide
log in
Ġex ists
est im
Ġj ust
iter ation
Ġsub ject
lect urer
fa ctory
sim ple
reward s
ilar ity
E ngine
R OR
e a
s afe
at ic
ch ange
Ġm ark
Ġre du
il on
ĠA SC
up per
Ġst ates
## #
ĠD is
Ġbatch es
eval s
ends with
Ġmatch es
we b
ĠConfig Mixin
land ing
P RO
e b
e ar
f eed
l a
s g
re al
Ġd one
Ġb ound
__ ))<
ight RAG
ĠIn put
Ġload er
sum m
Ġac curacy
run time
TE MPL
Ġlat ents
Ġincl ude
POR T
ubl ic
2 7
C LI
D is
P ATH
Ġ å
Ġ server
Ġs leep
Ġb uffer
ĠN ew
Ġpro vide
Ġv ar
ER S
col lector
ĠJ SON
ĠQu ery
OP EN
Ġvi a
2 8
> {
d one
o ok
r nn
Ġ episode
al id
al phas
as ctime
Ġp ip
un ch
one y
Ġcon dition
Ġ: ]<
Ġmax imum
af ter
Ġ'' '<
Ġind ic
wh ere
ĠTo ken
allen ge
" ),
A ns
E vents
T orch
b etas
m otions
Ġ ser
Ġ --------------------------------
re cor
Ġc lean
Ġd g
Ġo per
con n
pl anner
ĠC alculate
ant um
gram Client
Ġnorm alize
ÐµÐ ½
plan ation
ĠDeep gramClient
agn itude
Ans wer
2 1
E num
I ST
h ere
i us
w en
in spect
Ġthe y
Ġw in
-- <
ĠA sync
ob s
col umns
Ġset tings
Ġcol lections
Data Frame
Ġele ments
PO ST
Loader Mixin
igh b
med iate
ord in
bl ue
ĠLlama Factory
ĠLayer Norm
NotFound Error
I F
S W
S ER
a a
Ġs afety
ad apter
Ġb oth
str ategy
di v
Ġ[ -
Ġh igh
ap plication
ER ROR
prompt s
Ġdefault s
Ġmessage box
AMP LE
Ġsuccessful ly
unct ools
TEMPL ATE
S ampler
] ),
s ound
s chedule
t mp
pa int
st age
Ġ" )<
Ġc ourse
ĠA c
om ent
Ġst yle
Ġr and
pro totypes
Ġdi r
ĠW hether
Ġmax Tokens
cont in
Ġpart ial
Ġinf erence
cre te
ĠAuto Model
: %
H E
k dir
n one
s up
y s
de bug
Ġ" _
Ġi ds
Ġb est
ĠL ive
Ġcon d
text and
Ġe qu
á´ Ħ
ind s
Ġun it
json l
Ġal ign
Ġle arning
Ġne gative
patch es
man ager
Ġcos ine
Ġet c
smpl lib
b utton
e ve
l s
t s
t an
Ñ ĭ
å ħ
Ġ episodes
re ply
Ġf unctools
con stants
Ġ1 5
Ġh alf
od al
Ġap pro
ak ing
Ġve locity
Ġá´ Ľ
Ġtra j
UR L
Ġtool s
Ġexec ute
oug ht
Ġsql ite
f ut
g en
h uggingface
p isode
r id
} ".
lo y
Ġp m
th ing
Ġ: ]
col umn
ak es
Ġsav ed
RA IN
ĠPer form
A l
b ranch
d ocument
e ct
æ ĸ
st im
ĠĠĠĠĠĠĠĠ Ġ
ĠT ransformer
text only
pro jector
pre dictions
config s
Ġpre diction
Ġtyp es
way s
predict ed
m erge
s ingle
} ')<
æ Ĺ
al s
ar range
es h
port ion
Ġm etric
Ġp h
Ġ[ ],<
ĠO r
time out
ĠE ns
Ġan aly
sh apes
12 8
ces ses
umm ary
rypt ed
Ġmo ve
Ġiter ation
Ch ar
( **
. \
F l
P ool
b tn
e ck
s ig
s nake
Ġ empty
re peat
am s
()< /
ĠA l
Ġres olution
Ġpro gress
ast ic
ĠĠĠĠĠĠĠĠĠĠĠĠĠĠĠĠ ĠĠĠĠĠĠĠĠĠĠĠĠĠĠĠ
inf er
Ġgener ation
his per
pat tern
ES S
Ex ec
Ġcur sor
Ġfa ctor
' ).
E nt
H ER
] +
c an
f ilters
h ub
h igh
m kdir
Ġ view
Ġt imes
ro om
ch em
am ma
ed ge
py plot
ĠM o
dir s
config ure
cri b
Ġ5 12
Ġlo wer
late st
reason ing
Ġallow ed
OPEN AI
0 5
= ["
F ORM
J son
M M
Y ST
d ated
h it
l lo
n dim
Ñ ı
Ġn ames
Ġc ast
Ġc ross
Ġb u
ĠA ss
ĠL ightRAG
Ġst udent
Ġst andard
Ġe qual
ĠI t
ĠE mbedding
Ġro om
'] :<
Ġcl asses
Ġlog File
DE BUG
LE CT
ug h
scale d
sub ject
Ġimg ui
Ð¸ Ð
ĠDef ine
dis play
Ġpredict ed
B utton
M IN
S end
U SE
e very
f etch
ç »
Ġs d
Ġin her
__ .
et ry
ĠL iteral
res pon
data base
Ġh andle
Ġpro jections
add r
Ġpa ssed
") [-
dataset s
Ġac count
Ġpart s
stra int
ateg ory
êľ ±
3 5
: `
: ")<
M e
N N
O I
d river
p ip
v id
} _
Ġ ens
re es
Ġc pu
and box
ab stractmethod
Ġ1 000
ĠL inear
ss ible
Ġ2 00
der r
per iment
time step
oc ent
ide o
conv ention
Pipeline Output
Ġus age
Ġcontain s
cle an
Ġden o
pix el
D S
d uration
h ip
m y
p ipelines
r b
s ole
è §
in struction
Ġi p
Ġs olution
Ġs olve
pt ure
un iform
co pe
ĠL lava
all eng
ĠR ed
ans wers
Ġload ing
Ġprocess or
Ġdes crib
Ex ception
ĠGener ator
ĠAuto Tokenizer
Ġdeep copy
UD A
ĠEns ure
alleng es
2 00
f ont
re po
Ġre l
Ġs orted
ent ions
ce ed
et er
qu ences
(" .
ĠS pe
ang es
ener gy
In ter
cogn ize
Ġad just
ĠTask State
uth or
mov ement
summ ary
? ",
A E
M an
M eta
g ate
y aml
z ip
{ "
Ġ port
le vels
Ġc lear
Ġcon f
class ifier
Ġtext s
ou se
mask ed
Ġap pend
extra ctor
16 000
cond ition
transform s
ĠLo ss
Ġ[` ~
ĠTE XT
åº ¦
oment um
' {
) ),
> -
D i
] ],
m ic
s ol
s ampl
t in
pa use
ro ugh
Ġre ason
Ġc allable
Ġw ere
ple x
Ġg lob
Ġcon n
pro duct
cor ator
Ġv is
Ġint eger
sh uffle
spe ech
Ġq s
Ġpo se
Ġspe ech
Ġll ama
og raph
complet ions
Ġtrans cription
Ġpl ace
pass word
Ġter ms
HO ST
pol icy
> """
C L
S ession
a ken
b eat
b box
l ap
u ding
in verse
an c
al low
Ġf n
lo op
ct ure
Ġd on
Ġo ption
Ġw arm
con f
log ps
Ġst ore
Ġv ision
eight s
Ġcom bin
Ġmask ed
op ponent
AR T
task s
row ser
multi ply
pk l
æĺ ¯
Ġcent er
ĠASC II
YST EM
ocent ric
: -
d inov
p p
t f
v ing
Ð º
è ¿
in valid
Ġm on
ge st
ĠT ime
set s
ve locity
if est
us y
Ġde lete
ff t
ĠE val
Ġal so
Ġdes ired
rad ius
17 7
fin ished
Ġmerge d
EIGHT S
, ))<
: ,
D es
L ine
d p
e ach
Ġd uration
Ġl ang
Ġreturn s
Ġst ar
pro ject
Ġex pected
ĠĠĠĠĠĠĠĠĠĠĠĠĠĠĠĠ ĠĠĠĠĠ
Ġim plementation
Con tent
Ġco st
Ġrequi re
PI L
Ġcol umns
ĠSe quence
Ġad ded
var s
Ġ'' ',
inst all
analy sis
9 5
: :
I nt
N ING
V AL
f ield
g a
g or
h ore
k y
s pace
å Ľ
er o
re cognition
al ar
Ġf ill
Ġf eed
Ġf ields
Ġre arrange
Ġs ha
Ġin sert
Ġfor ce
il y
ist ics
Ġ- =
ĠL azy
ĠD ATA
Ġpro jection
ĠB reed
qui red
Ġtime stamp
Re LU
lib rary
tra ct
Ġ6 0
Ġhead ers
ä¸ Ģ
Im g
Col ors
Ġcontain ing
Un known
Ġpe ople
Ġinher its
C ould
S er
U til
W AR
W hat
c rop
m ote
s ha
u x
w n
Ñ Ĩ
Ġt akes
al le
he x
Ġp t
ent ence
Ġreturn ed
ple ments
ĠC OR
us age
ĠD i
Ġx s
Ġ/ =
andl ers
valid ation
Ġtask s
Ġtra jectory
ele m
Ġref erence
tri b
Ñĥ Ð´
Mo dified
Ġrand n
textand image
ĠASCII Colors
gor ith
n an
or k
re c
Ġre set
Ġs he
ic on
pe t
Ġb one
and id
co unter
ĠC ourse
Ġg uidance
Ġpar ent
add ress
ĠB y
me ans
back ward
Ġpo ssible
St ableDiffusion
ug ment
Ġle ast
Ġcol umn
Ġsc ene
Ad d
ĠDefault s
dum ps
Ġsign al
INT ER
ĠDiffusion Pipeline
: ]
L abel
` .
e os
e ural
h y
k l
or iz
st orage
Ġm sg
Ġc at
Ġs ol
ent ities
Ġo ur
__ .__
str on
Ġto Send
ĠS cheduler
Ġe ff
Ġ3 0
(' ''
ĠG PU
ac es
ĠIn itial
op ied
extra ct
run ning
ey e
Ġcor respon
File Handler
Train ing
Ġá´ Ģ
ĠDE EPGRAM
det ails
Ġcheckpoint s
Fa iled
oth ers
Ġcall back
Ġrepresent ing
Query Param
BO X
G RE
L R
] *
a ctor
b i
e ded
f ewshot
g s
k it
s v
x x
ç Ķ
de te
Ġf id
Ġ" ")<
Ġm ix
ot or
Ġb l
Ġw hether
po w
ĠS entence
end point
Ġnot e
pro gress
Ġse gments
Ġdi stribution
red uce
Ġap ple
Ġtrain er
ST R
lat ive
Ġans wers
Ġlo aded
AL L
}/ {
Exec utor
HER E
alle l
A c
K L
U RE
g in
m c
n x
t ab
se ction
er i
rom e
ig r
Ġb s
int o
"< |
get item
ĠC opied
() [
ĠS E
Ġth ree
config uration
Ġen able
ĠK arras
Ġuser Notebook
net work
UL L
Ġvari ant
Ġform att
DATA SET
Id entity
enable d
) ')<
> ""
i um
l int
v ae
x label
æ ķ
se mester
le g
al ign
Ġm el
Ġp ipelines
con struct
á´ į
Ġbe low
let ter
Ġpy lint
AN NE
ĠSt art
Ġuser name
mes h
abil ities
rib utes
Hel lo
Ġdiffer ent
ordin ates
) ;<
C AL
F L
N UM
S S
c lear
g ra
r en
t en
å °
Ġ ?<
Ġ questions
Ġf older
ut ions
Ġn ull
Ġm a
ge ocentric
Ġd t
Ġd ynamic
log it
() ):<
Ġde d
ag ram
init e
ĠI nt
Ġse parator
head ing
IN E
pos itive
Con trolNet
user Notebook
Ġconfig uration
ide ollama
Ġno qa
enc ies
ĠPy Torch
Ġpat tern
pend ing
ĠPro gram
ĠUp load
Ġdownload ing
doc s
sk ip
Ġdet ails
( ["
R GB
d ig
d raw
s p
Ġ lock
Ġ rank
ed ges
Ġl and
Ġw f
() ]<
Ġh is
Ġde coded
Ġse nd
Ġpre dictions
rg b
mo id
ust er
grad s
20 4
Ġapi Key
Ġdeep speed
Trans cription
sql queue
ĠSentence Transformer
ANNE L
A gent
D own
P ASS
Q L
g ather
p ers
al ty
ct x
ge ther
Ġs uch
Ġin ner
un finished
Ġst or
Ġde prec
Ġr atio
pro cessed
(' %(
Ġint ent
ll ava
'] [
Ġ` (
oc al
ac celerator
ne g
ĠH e
PI mage
Ġdis play
Ġexist ing
Ġ7 68
ĠAt tention
Ġselect ed
Ġplay ing
buil der
6 6
9 8
L a
M ax
R aw
S YSTEM
h params
s patial
v ance
in ator
im pl
al ity
Ġthe m
um p
em o
ĠĠĠĠĠĠĠĠ ĠĠĠĠĠ
con cept
Ġ[ ]
cl amp
set tings
ĠD DP
Ġr mat
ĠE num
Ġuse s
Ġpa per
DI A
stru ctor
Ġve c
Ġdis c
shot s
MA X
med ia
ĠĠĠĠĠĠĠĠĠĠĠĠĠĠĠĠĠĠĠĠĠĠĠĠ ĠĠ
offset s
æľ ī
Ġgradient s
ãĢ Ĥ
Ġindic ating
sampl erate
" [
. )<
4 2
O nly
T S
b rew
b rid
f ake
s pa
s age
å ľ
Ġ ----------------
ort h
Ġin struction
__ ':<
et ri
Ġ1 1
() }<
able s
head er
ry an
Ġk l
iv es
ign ore
fl ags
Module List
stru ctions
abs path
Ġinst ances
For ward
Ġrepresent ation
istr y
Open AI
ĠDown load
SW ER
Ġens ure
7 8
B ar
C o
P UT
R ATE
b ank
b ryan
m em
w b
} ",
¼ ÐµÐ½
¿ Ð¸
æ ł
in ed
er ic
Ġt ait
st and
he llo
Ġs afe
ex ception
Ġa ai
ri de
end ing
Ġh q
Ġe ven
ise d
Ġen code
mat mul
ud ge
mo oth
In version
Re cognizer
Ġob s
Ġclass ifier
') [
Ð°Ð ¿Ð¸
vis ible
An aly
ĠRes ponse
Ġclo se
Ñĭ Ð
Ġwarm up
ÑĨ Ð¸
Ð°Ð¿Ð¸ Ñģ
5 00
a ive
b ine
f d
f ra
s pl
É ¢
Ê Ļ
Ġ --------
Ġf p
Ġm aster
Ġre lation
Ġs pa
Ġp r
ad min
Ġthe mes
Ġb in
po ses
ĠL LAMA
Ġde coder
pre view
list dir
ole d
gener ated
sent ences
rate gy
rand n
Ġback end
ĠQu atern
ĠQu antum
Ġman age
Ġcons ole
Ġver bose
Ġcam era
Ġcorrespon ding
Ġded ent
- >
S c
V alid
c nt
d ense
g l
i ver
j it
k eras
u uid
or ig
Ġm agnitude
Ġs q
Ġp ers
ad am
Ġa verage
Ġ# <
ra ble
Ġw rap
ĠN ULL
Ġ[ (
all back
ĠM odule
Ġse en
Ġdi rect
pen alty
Ġdefault dict
lat form
diff users
map hore
Ex ample
Ġinst ead
Ġent ity
Ġgroup s
cent age
Ġchat bot
Base Model
Ġsk learn
Ġct x
Param s
LA Y
Ve ctor
ĠQue ue
. *
0 4
7 68
9 2
M ulti
Q t
] ],<
b x
b ra
b usy
c ard
f name
g ab
h older
i od
m py
p ress
v ers
ç º
Ġ ar
or al
Ġt ag
re l
Ġre direct
Ġs ummary
Ġa z
__ <
Ġ( *,
Ġas k
ĠN orm
ĠS ub
Ġex planation
Ġse e
bo und
inf os
ject ed
Ġsuper class
AN SWER
conv ersation
eval uation
CH ANNEL
stat s
ĠCom put
Ġ12 8
Com m
Ġvariable s
Head Attention
ĠAutoModel ForCausalLM
B E
M O
k h
l arge
m ail
o ption
s uch
w andb
å Ĵ
è ¦
re pr
le arning
an y
Ġ" @
Ġm ul
Ġs andbox
Ġp lease
el se
Ġb ox
Ġ( '
arg max
Ġ' #
Ġ' ,
Ġde code
Ġdi ag
ĠW hisper
ĠW HERE
ir d
sh ip
St rategy
act s
Ġac cess
cont roller
PT ext
Ġprocess ing
async io
ilen ames
cre t
ia o
dis able
propert ies
vant age
Ġsl ice
schedul ing
Ġcontrol net
Bytes IO
ĠTh read
EX AMPLE
ograph y
WAR NING
) }<
) }")<
0 6
D rop
M in
N D
W eb
e in
m enu
p il
w allet
ĉ ĉ
in o
ing s
Ġin itialize
ent ries
Ġb ot
Ġ( [
Ġex ceed
pre pare
ca use
Ġpre process
Ġlog s
Ġkey word
Lo ad
Ġfl ax
VI DIA
40 4
At tn
Ġepoch s
Ad am
US ER
æĺ Ł
stron omic
eri or
PImage Processor
gab atch
åĴ Į
" }
B rew
C OR
T P
[ ~
_ ,
` ].
j s
p ot
s il
å ¼
æ ī
Ġre port
Ġre size
Ġin verse
Ġp enc
ad vantages
el i
Ġb ody
con stant
ĠL i
() ).
ri ve
att entions
Ġ< <
ĠD ropout
ĠD raw
Ġe stim
ensor s
time stamp
Ġro und
ry ption
ĠV e
'] ,<
St ring
([ <
Ġgener ic
Ġsub mit
da pt
ĠY our
Ġpart ic
Ġprob abilities
system Prompt
eff icient
Trained Tokenizer
Py Audio
gorith m
ĠQuatern ions
Ġpenc il
) *
/ %
5 37
D ING
I s
P D
V ideo
n amed
s ampler
u int
} ",<
Ġ low
se c
Ġn etwork
Ġs oftmax
Ġp olicy
iz ers
Ġl ink
to col
Ġ* =
Ġg round
text Edit
py audio
ĠF ind
ĠI M
pre diction
head ers
á´ ĺ
ave form
ry lib
ĠW h
Ġim plements
oc ap
Ġdim ensions
chedul ers
base d
Ġ% .
plic it
encoder KL
eps ilon
Ġpass word
cos ine
({ <
ĠPre TrainedModel
control net
Ġdec ay
select ed
deep speed
prec ision
Êľ á´ĩ
Dis crete
Ġprovide s
Ġunit test
kh rylib
Ġpartic ular
) /
0 3
= ['
> =
D Model
S top
T RAIN
] .<
f ps
k ip
r m
} .")<
Ġ ^
se cond
on em
re p
ro ad
it ers
Ġf ont
Ġf ilters
Ġo llama
th ought
and ins
qu a
># !
Ġh our
Ġde v
emb er
ĠF eed
ĠR etri
ow er
cess ary
-------- ----
user name
ĠList en
AN D
uto ff
Se q
Ġent ries
Ġchunk s
fin ish
ĠZ h
Spe ed
Spe ech
ĠCl ass
Run time
ĠRun time
ĠQue stion
ild ren
Ġhash lib
andins ky
? ,
A p
L abels
L ong
O S
V E
] }
b u
f r
j np
° å
Ġ annot
st ar
de st
le s
Ġm esh
ed Dict
Ġfor ms
il ity
to m
Ġtorch vision
res net
res ume
od ing
Ġr ally
Ġv oxel
ĠE nt
(' \
ĠG E
ĠV ideollama
back ground
trans lation
Ġsample d
Ġset attr
Ġtensor s
gist rable
local host
Ġscale d
Ġcho sen
CO L
Ġsent ences
De coder
("/ ")[-
Check er
deg ree
è¦ ģ
PText Model
6 0
7 5
P S
] :
c r
l it
Ġ ur
in em
Ġf ut
Ġm ed
Ġre c
Ġin v
Ġp itch
Ġa st
ul ary
Ġg old
if ied
us ic
form ers
Ġde sc
ĠF ield
Ġpro file
Ġse quences
jo co
DI MScheduler
json logger
Ġpy rogram
ĠCon trolNet
Ġac cept
comm it
func Name
row s
Ġ.. .<
be fore
multi ple
sl ug
Ġpython jsonlogger
Ġradi us
sd p
ci i
coll ate
Json Formatter
ĠSpe ech
Ġreason ing
plex ity
road cast
A nd
C UDA
I ter
N O
R o
W EIGHTS
f ail
m id
r ins
v a
y label
² Ð°Ð
³ Ð
½ Ñģ
â Ķ
Ġ ----
Ġ Ð°
pa l
or n
on nx
at ypes
Ġf req
Ġf etch
Ġm ult
Ġc y
Ġc um
Ġp p
ent ropy
Ġd il
Ġa round
Ġl ora
ass ign
Ġh ook
Ġst t
ss a
Ġe uler
ĠR E
(' .
Ġch ain
St ep
Ġgener ating
ĠK EY
ill a
10 4
Ð¸ Ð¾
ele ms
man ifest
std out
Ġav oid
Éª É´
wh ile
µÐ ¼
Ġdeep gram
quant ization
Un ion
ÊĢ á´ĩ
ÐµÐ ¼
jector ies
sign al
**** ****
comp ile
ÑĢÐ°Ð ³Ð
dat atypes
ÑĦ ÑĢÐ°Ð³Ð
Ðº ÑĢ
ÑĥÐ´ Ð¸Ð¾
oriz ont
Transcription Events
¼ÐµÐ½ ÑĤ
ĠÐ° ÑĥÐ´Ð¸Ð¾
ÑĦÑĢÐ°Ð³Ð ¼ÐµÐ½ÑĤ
4 3
A Z
S P
T R
V oice
W ork
c ap
c alled
d uc
k a
é ĩ
Ġ amount
pa ir
in cl
se maphore
at an
er r
Ġf o
Ġm od
Ġre main
un it
ul ative
ĠN O
ĠS top
Ġ2 56
ase d
Ġwith in
ĠV ocab
Ġap plied
ber t
OR E
In fo
grad io
ĠArg ument
Ġ5 00
Ġac ross
cont rib
ick s
Ġconv ersation
Pro jection
ele ments
VI SION
á´ı á´ľ
sen der
assert Is
Ġincl uding
Ġcons ider
System Prompt
AZ URE
) ),<
: ',
F unc
O ptimizer
S O
b rowser
c andid
f aces
j ax
r al
s w
u an
u plic
v oxel
w o
} }<
é Ĺ
Ġ ._
pa st
re ens
re tri
ro ps
ro sa
as cii
Ġs a
Ġs low
Ġp k
ad just
ic ate
co ver
arg in
ĠT arget
ol utions
Ġ' -
Ġcon stant
ĠP lease
Ġres p
ĠM e
Ġse par
pon ents
ne gative
Ġlog var
col lection
ĠK e
======== ====
view er
Re cord
ole an
Ġne ighb
25 1
25 5
Ġlo ok
Ġinter val
ï¼ ļ
bs ite
pend encies
Ġ20 48
Pre TrainedModel
cy cle
Ġtk inter
oug h
- %
D o
d jango
m apping
n ess
t ic
t imes
u ally
v llm
æ Ī
Ġ })<
se parator
re port
le x
Ġre try
Ġc sv
Ġc oding
ra se
Ġb box
Ġb uil
Ġw idget
ext end
Ġ' '<
ĠC ode
Ġcon current
ha vi
os k
Ġres idual
file path
ĠĠĠĠĠĠĠĠĠĠĠĠĠĠĠĠ ĠĠĠĠ
Ġsh ort
Ġconfig ure
Re quired
Ġresponse s
Ġwor ds
Ġspec ial
Ġblock s
ual Inversion
tra ck
tr uth
Ġadd ress
are st
mark s
chunk s
Im ages
vis ual
Ġpl an
STR ING
Long Tensor
orizont al
ualInversion LoaderMixin
B atch
G PU
Q UE
y z
æ Ģ
ç ®
Ġ loc
Ġt urn
re qu
im odal
ge x
Ġd ump
Ġo c
Ġb all
Ġ( -
ĠN etwork
ĠN VIDIA
cl ick
Ġ2 5
cor er
ĠP lot
Ġpar ents
est ed
'] ['
Ġpa y
spe ction
back end
trans action
Ġtensor flow
extra ction
ĠSt able
Ġfl ask
inter val
Not None
Ġdet ail
Ġsubject s
Ġredu ce
CLI P
ĠFeed Forward
assertIs NotNone
' ),
M issing
U B
e ot
h as
i e
l in
m os
v ic
v ate
w atch
Ġ vert
in spection
or ds
Ġf ps
Ġm oney
Ġa bs
un cond
Ġw ell
ul ate
Ġ( (
ĠT ra
Ġh ad
Ġde let
Ġde te
ĠM ake
(' /
idx s
Ġpy torch
Ġle vels
Ġup load
Ġcol l
Ġca pture
prob as
indow s
Ġno inspection
cho sen
old ers
Ġform atter
Ġref resh
pi pe
çļĦ å
Ġobject s
30 5
bench mark
cam era
ĠTrain er
termin istic
trib ute
emo ve
D ep
Q A
f rozen
g ui
m ouse
n py
q wen
t p
x l
Ġ vertices
at us
Ġt aken
he st
he art
Ġn et
Ġto k
Ġdef ine
pl us
ĠN o
(" -
Ġg amma
end of
Ġr ng
Ġres ume
file Menu
Ġbe cause
Ġim plement
iv ed
iv ity
ĠSt ate
ick l
ĠAd just
HT TP
Ġinter po
ä¸ į
Ġfin ish
stra ints
Gener ate
ĠAuto encoderKL
vari able
ĠCLI PImageProcessor
ĠCLI PTextModel
Ġrecor ding
Ġfix ed
Ġreg ular
ble u
human ml
ĠMulti HeadAttention
âķĲâķĲ âķĲâķĲ
pisode Generator
ĠGE LU
. ",
0 8
3 8
4 7
? )
A v
V ec
a uth
f it
g uidance
l n
m icrophone
o ints
t reetune
w arn
w atermark
Ġ arch
pa Int
Ġt each
re cv
re mote
ut om
he ll
Ġc alcul
Ġd ay
ig ger
-- -<
ist ep
con sole
qu are
par ameter
Ġas sum
ĠC ustom
Ġg ra
ri or
om etry
Ġh er
att empt
Ġde st
Ġr ule
ĠO ver
num bers
Ġth reshold
Ġu uid
ĠB atch
Con text
ĠRe quest
ac cum
Ġpre c
In stance
RE CT
Ġpos itive
pat ible
uff ix
vide ollama
Ġne g
sub plot
Ġlast Modified
TE D
á´ĩ ÊĢ
Ġad vantages
ðĿ ĳ
ðĿ ļ
]] ]:<
IM E
Ġele m
Ġsim ilar
Ġchat History
vari ant
ĠAp ple
36 6
pack ages
ĠEn vironment
do cker
ĠID s
Ġnormal ized
bos ity
Ġoper ation
Char Field
sig moid
Ġ-------- --<
Ġdil ation
endof text
( ?
5 8
A U
C RI
L ATION
L DER
M ult
M icrophone
S V
S afety
W idget
p ublic
Ġ utt
se gments
Ġt ake
im m
ro ute
ut able
Ġre verse
Ġs keleton
Ġthe se
th is
Ġb ranch
Ġl arge
qu iz
ab c
ĠS keleton
Ġde g
pro jection
Ġnum bers
ĠP rint
Ġex it
00 1
Ġch allenge
oc us
Ġsh ow
AT CH
ĠEx tract
uff ers
act ers
Ġne cessary
dm m
TE ST
Ġprob lems
DO C
sim ilarity
({ '
program s
An y
UN K
Ġfree ze
Ġop ponent
Of Emotion
ĠRed uce
ĠCOR POR
Ġ([ `
Safety Checker
" },<
( "<
) ":
+ )
A uto
D et
G raph
K V
N umber
T ask
W riter
b est
e uler
e qual
h i
h olders
n ap
s ph
s parse
Ġ es
pa irs
de coded
he lp
Ġc our
ex port
Ġd id
ad vance
iz ing
ul ated
Ġto gether
ĠT IME
(" ./
ĠS olver
Ġh ost
Ġst orage
fig size
der edDict
ĠO n
pre ds
=" ")<
Ġon ce
ĠB e
ĠG aussian
Ġ: -
") [
Ġco uld
Ġtest s
Ġá´ Ħ
Ġback ground
Ġcomplet e
ĠPro cess
Ġdist ance
find all
22 4
GE T
riter ion
Th read
dev ices
ru pt
sup er
Man ager
anc ed
Ġcombin ed
fra c
Discrete Scheduler
reens hot
ĠCORPOR ATION
A C
N L
P os
c ot
h n
l i
o ther
r ng
Ġ art
se g
de corator
Ġf aster
port ed
Ġc ard
Ġc annot
ge lu
ge mini
Ġin correct
el low
Ġb w
Ġl ong
Ġw av
ĠC O
ĠL e
us oid
py game
ĠF rozen
ĠR andom
Ġex pand
Ġres net
ĠM ask
Ġv ae
code s
ĠRe cognition
Ġ4 2
error s
Ġid ent
ho od
call able
Ġag ain
ong o
afet ensors
ench mark
factor s
Ġmo dif
Ġtr ust
Ġconvert ed
Ġsl ug
lim iter
Ġchar acter
Ġden om
EM B
Ġter m
Ġtrunc ated
dat as
è® ¡
Real time
ĠRuntime Error
ç® Ĺ
" /
C at
C ourse
D M
L ength
M ENT
M iao
S up
S ource
S chedulers
h and
o int
v olume
z h
Ñ İ
æ ŀ
é Ģ
pad ded
en um
Ġf ace
Ġ" ./
Ġin s
ex pected
Ġb o
po wer
ol ation
Ġas pect
ĠS corer
Ġh op
Ġstr u
num eric
dim ension
ĠE X
cri ber
ĠW eights
Ġdim s
Ġk now
Ġpre pare
Ġq vel
St art
Ġle ct
AR Y
Ġac celerator
ĠSt ep
Diffusion Schedulers
part ition
ĠÐ ŀ
Ġinf er
Ġgrad io
exp r
Ġmo st
pri vate
19 2
normal ized
Ġnormal ization
CA CHE
fast prompt
ÑĢÐ°Ð ½Ñģ
listen ing
feed back
ĠOr deredDict
MIN I
ÑĭÐ ²Ð°Ð
ĠWhisper Model
ÐºÑĢ Ð¸Ð
ĠÐ°ÑĥÐ´Ð¸Ð¾ ÑĦÑĢÐ°Ð³Ð¼ÐµÐ½ÑĤ
utom atic
ÑĢÐ°Ð½Ñģ ÐºÑĢÐ¸Ð
) `
1 50
9 4
: ],
D ense
G roup
L EN
M istral
] **
a ff
g roq
p ickle
t ar
t un
y es
} {
æ İ
Ġ }")<
er c
al k
as y
Ġre ce
Ġc rop
Ġin p
Ġd st
Ġa w
Ġa ctions
Ġb z
em on
Ġ( {
ce il
is ing
log var
ĠC PU
ĠS kip
Ġh it
us r
ĠD P
pro jections
ĠP ipeline
Ġv osk
Ġint e
Ġwh at
Ġsh ip
ĠRe ad
OR S
([ [
Ġpy test
Ġmask s
checkpoint ing
date time
Ġup per
Ġne eded
sc ene
fix ed
over lap
Ġfl ash
Ġsc aling
ID TH
tain s
inter mediate
ä¸ ª
sim ulator
Ġ12 3
VER S
ĠKey board
êľ °
### <
blue print
æĹ ¶
Pool Executor
fetch all
Util s
Valid ation
Ġexceed s
Ġpencil s
Dep end
EMB ED
2 6
2 20
F E
R andom
a h
b asic
j or
m antic
on s
Ġt xt
Ġf ew
Ġre po
Ġc ap
Ġs un
Ġs we
Ġs pace
Ġp ot
Ġp ix
ex ist
el ation
un bind
Ġimport lib
ĠĠĠĠĠĠĠĠ ĠĠĠĠĠĠ
(" %
() ))<
Ġ{ {
Ġcon struct
Ġcon structor
ĠS T
ag ing
ip her
Ġpro cesses
ST ART
Ġatt ributes
box ed
ĠSt udent
Ġsc an
Ġinst alled
################ ####
Ġref lect
Ġsupport s
rypt ography
fin etuning
Ġlet ters
auto grad
âĢ Ļ
ĠExample s
Ġ``` <
tan h
MM AND
è§ Ĵ
Inter rupt
åĽ ŀ
ĠDATA SET
Ġcum ulative
ĠTIME STAMP
usoid al
ĠKeyboard Interrupt
- {
. ')<
F in
S plit
T otal
_ .
b ig
d st
d ynamic
h our
l ins
m omentum
n b
t ed
u ator
å ĩ
se quential
re cognize
al og
ch allenges
lo th
as m
as is
Ġm y
Ġc re
Ġ# ################################
Ġb its
Ġb reed
Ġw ait
Ġ' ./
ĠL O
() ),
ĠD o
Ġde mo
Ġe os
ĠF ilter
Ġex periment
ĠO ther
ll ib
ĠW ait
ĠRe set
back bone
St atus
Ġme gabatch
empl ates
Ġquery set
rot ations
Ġstart s
amb ient
down sample
Ġconv olution
Ġcontent s
Ġ8 0
Ġent ire
Col or
Col umn
Ġed ges
48 0
ĠConfig ure
control s
Ġquant um
Ġckpt s
expand user
pan der
å¤ ©
ball s
Ġperform ance
Ġcondition ing
Ġcond itions
igr ations
æķ °
leg end
La MA
LAY ER
Ġdiag onal
Ġoc cur
è®¡ ç®Ĺ
! ")<
$ $
' \
( \
) ]
3 55
A X
F ont
P C
V ar
e ver
g lob
o hot
æ Ŀ
Ġ= ================================
Ġt emb
ch uan
Ġm ight
Ġre ply
id ing
Ġl m
Ġl on
ol ute
ĠS ession
ĠS QL
Ġst able
out er
Ġth rough
ub le
__( **
Ġch anges
ĠG o
me ga
qui re
Con nection
sh ort
ph onem
ai chuan
Ġunder stand
Ġconfig s
ĠIn ter
ĠCon text
argument s
vide os
tes IO
sc reen
TH ER
Ex tra
Ġapplic ation
Ġab c
ckpt s
ĠConfig uration
Ġso cket
sl ice
sl ices
Ġgo lf
Ġclo ud
åĪ Ĩ
ĠCLIP Vision
Class ifier
Ġfast api
Ġredu ction
Ġ-------------------------------- ----------------
ĠBy tesIO
INTER PO
çĶ ¨
ĠIM AGE
Ap plication
Ġur llib
requ ency
lins pace
' %
' '<
/ ",
> ",
E E
M ode
P ost
S core
T Y
U sing
] ])<
c nn
c md
c rops
m iddle
t qdm
le vant
al di
Ġf lat
Ġc uda
Ġa y
um ing
Ġb x
Ġb ar
Ġl ik
int ents
co ord
ĠT r
pl ac
Ġ' <
Ġ' _
ens ity
(" [
Ġcon stants
Ġex c
ĠI ter
son g
Ġv olume
Ġdi vision
ĠG ame
Ġcom ment
Ġsh ard
ST AN
Ġ4 8
ĠH EIGHT
OR Y
trained Config
Ġ5 02
Ġmin imum
mark down
ĠÐ ²
ĠÐ º
inter face
Ġfin ished
Ġact ual
Ġwork ing
Ġsim ilarity
MA P
Ġdot s
Ġcomplet ed
req s
mov ing
ATI LE
../ ")<
ĠAudio Player
needle s
ĠSim ple
AP P
hip u
ĠSE LECT
Analy zer
eli hood
ĠZh ou
Ġteach er
VERS ATILE
" .<
) ])<
C TION
C reated
P ass
S l
T able
V A
] ):
c ategory
f ea
g reg
g aussian
i ally
l azy
m as
m oney
t emplates
y ing
à ¸
å ¾
en es
Ġt ags
re t
re con
st derr
ar ies
Ġf lo
ut er
ct rl
Ġm p
Ġs w
ad vantage
un ity
int ent
Ġ1 4
"] ),<
emb ers
ĠF in
ĠF ast
ĠR o
ĠR emove
com put
ĠE motion
ĠĠĠĠĠĠĠĠĠĠĠĠĠĠĠĠ ĠĠĠĠĠĠ
Ġsy mpy
ĠH TT
mo ved
In ference
io us
tr unc
Ġadd itional
Ġfl ags
Pro gram
Ġtrans fer
Ġextra cted
ĠText ualInversionLoaderMixin
cre ated
NAM ES
ĠDeep Speed
ĠCl ient
ĠTrain ing
ĠCLIP Tokenizer
Ġattr s
ĠSh ortcut
Ġretri eve
chem a
Ġdescrib ed
Ġrel ated
ĠKarras DiffusionSchedulers
ĠInt eger
dig it
Ġ[] }<
Example s
çº ¬
INTERPO LATION
, )).
2 024
6 2
8 6
F R
d ates
f time
f sdp
r ist
s ort
z z
} %
å Ĩ
è ĩ
Ġ ),
en ded
lf w
it es
port s
Ġm id
ge d
Ġp latform
Ġd yn
Ġd raw
Ġo cc
ig hest
Ġb roadcast
str ftime
get Message
Ġ1 3
res p
Ġg lfw
Ġh y
Ġ2 4
py cache
ver bose
ag ents
ĠP D
ĠP ack
ĠP ost
ĠM an
lock wise
ĠĠĠĠĠĠĠĠĠĠĠĠĠĠĠĠ ĠĠĠĠĠĠĠĠĠĠĠĠĠĠĠĠĠĠĠ
Ġen ough
und red
Ġco ver
Ġal ways
RE ATE
Lo ck
Re ader
Ġcol late
sq Dict
AS SI
Net work
ðĿ ĺ
100 0
Ġprob ability
Ġtransform er
Base Output
dis k
Ġexec ution
Ad min
curr ency
Trans cript
Ġinitial ized
lim its
VER SION
åĬ ł
fut ure
fut ures
Ġanaly sis
bi ased
Ġformatt ing
ĠThread PoolExecutor
Ġdev ices
EMBED DING
B ench
E le
E qual
H I
K it
M ESS
V alueError
f w
h w
h op
h andlers
i LM
s loth
v stack
å ¹
è µ
è ½
Ġ ~
Ġ ÑĤ
Ġ ?,
or ed
re lation
de mos
ro uter
ch rome
Ġd s
Ġd er
Ġa bo
Ġb enchmark
Ġw atermark
Ġ' --
set default
(" ,
ep re
ĠS ave
Ġh orizontal
Ġ2 40
Ġstr ict
py test
fig ure
pro file
ĠF I
ĠF rom
ĠP R
ase s
', '
Ġpar sed
ĠM etric
ĠM ODEL
pre process
Ġor ig
Ġpro pert
pon d
Ġy e
á´ ł
[: :-
Ġsh o
Ġatt empt
Ġprompt s
read er
DE VI
trans cribe
Ġpo oled
TI CAL
Ġpy d
Ġgener al
Ġme als
Re turn
Ġup dated
Ġper m
Ġca ptions
Ġca usal
Ġsub problem
sc aling
ml u
RO OT
role s
Ġsc reen
Ġstring s
Se arch
we bsite
exec ution
ĠPy Audio
}. "<
PO INT
ĠBase Output
ĠGPT Model
è¯ ·
free ze
recor ds
document s
Fl ax
>#! /
inem atic
ĠOther wise
ĠHTT P
ĠPack et
Ġabo ve
> â
C ho
C allback
E d
S M
S ave
U ES
U Net
[ <
] ",
d en
d ummy
i ans
l b
s yn
s oft
t ick
t ags
} _{
Ò ĵ
se conds
Ġt tk
it ed
Ġs p
Ġs yn
ode tic
Ġin side
ic le
Ġw ould
Ġ( :
ĠN eural
ĠS end
ĠS oftware
Ġde bug
ĠO nly
Ġv llm
(' ''<
IN O
IN PUT
Ġtext wrap
red it
col ates
LE TE
Ġcol ors
Ġac cum
with out
call s
Ġend point
Ġá´ ı
Ġind ent
match es
Ġback ward
au x
Ġtw ice
ora LoaderMixin
ĠLo RA
etuning Arguments
GE LU
doc string
flow ers
Ġenc rypted
pay load
åĬ Ľ
Ġappro pri
FORM AT
>"" ".
ĠDDP MScheduler
ãĢĤ <
Ġsq Dict
bra ce
Drop down
Ġcoll ision
Ġsun flowers
epre sent
! <
* .
2 02
3 12
8 8
> "<
A ct
D b
F irst
a int
c alculate
e k
i ated
l per
l ator
q asm
v q
y ellow
z A
ç Ĥ
ç Ľ
ĥ ½
re search
lo ok
as sets
Ġm iddle
Ġin valid
co ordinates
ĠT ABLE
Ġ1 7
ĠC a
Ġ{ },<
Ġcon straints
up load
ri a
om ain
Ġh ighest
Ġst derr
Ġx yz
ver sed
ver ify
cor ding
ĠO ptimizer
key words
ĠM ax
00 8
Ġj pos
Ġ_ ("
ĠE rror
}< /
Ġbe havi
ĠB Y
ĠB l
Model Arguments
") ))<
") ),<
iv ations
In dex
lot ter
Ġcurrent ly
Ġfl atten
Ġass oc
chat bot
Text s
At tribute
Ġcomm on
Col lector
char acter
Ġlib rosa
Ve Scheduler
ä½ ł
Êı á´ıá´ľ
paint ing
loy d
Des cription
Raw Texts
Work ers
Ġfo od
Ġprec ision
Mult istep
basic Config
Ġ################################# ####################
MESS AGE
- \
8 9
: ])<
A uthor
C ESS
D iff
I t
L ive
O ut
T ree
V olume
[ (
c utoff
g re
p us
w aveform
x im
x ml
z illa
· Ð°Ð¿Ð¸Ñģ
¹ Ð»
½ Ð°Ð
å ¯
Ġ ÑĦ
Ġt rue
re te
im ize
lo se
Ġm otions
Ġre lease
Ġre lative
Ġc ot
Ġc ore
Ġp wn
ad j
ic ode
et ched
qu eries
Ġ1 77
ĠC REATE
ser v
Ġg ot
om ial
ĠD DIMScheduler
ĠF a
Ġth ose
ĠM icrophone
Ġpro ject
ib ility
com ment
Ġch allenges
Ġun biased
ĠG eck
Model Mixin
Ġpa ir
Ġlist s
ne ighb
SE S
iv ely
Ġ4 0
trans criber
In struct
context s
cript Collector
save fig
iter ations
Ġaudio Bytes
rot mat
sc roll
ĠSe arch
attr s
tra ce
dot s
Ġad ding
20 48
ĠÐ ¿
ĠÐ Ĺ
ĠÐ ·Ð°Ð¿Ð¸Ñģ
Ð°Ð ¹Ð»
IM ARY
Ġent anglement
11 1
Ġwork ers
Ġneed s
wh ite
WOR D
quant um
Ġcall ing
inst agram
99 9
latitude s
Ġmov es
Ð¾Ð º
SH OT
disc rete
ĠTrans criptCollector
Ġassistant Voice
recor der
ĠDeepgramClient Options
ĠLive Options
Ġequ ations
clean ed
Ġstor ing
Comm and
qua red
bu f
COL OR
Ġfut ure
ĠControlNet Model
Ġsepar ate
Ġdelet ed
Av ailable
igger ed
CRI TICAL
Ġlect urer
ÑĭÐ²Ð°Ð µÐ¼
ÑĢÐ°Ð½ÑģÐºÑĢÐ¸Ð ¿
ĠGo ogle
ĠÑĤ ÑĢÐ°Ð½ÑģÐºÑĢÐ¸Ð¿
Live TranscriptionEvents
ĠGeck o
( .*
) ")<
) ],
, )
7 6
C RE
D uration
G TH
L D
R ow
S h
b f
b al
d ers
d dim
d dp
d ino
n otebook
o T
u v
y our
y ear
{ '
ä ¹
Ġ ÊĻ
pa c
en ing
ar vis
Ġf ilenames
as array
Ġ" #
Ġn amed
Ġin place
Ġp ol
Ġthe ta
Ġb order
Ġb asic
str ict
di stribution
con st
Ġ* ,<
ĠC ross
ĠL IM
Ġ2 3
Ġde cor
Ġde vi
ĠR elation
Ġres cale
Ġpro du
ca ptions
ure d
ĠĠĠĠĠĠĠĠĠĠĠĠĠĠĠĠ Ġ
Ġbe ing
ir m
EN OI
Ġ: ].
Con straint
unt il
Ġpre sent
rit ic
index es
ak er
())< /
url s
CH UNK
cur ity
Ġuser s
)) [
sc alar
={ "<|
Ġad apt
Se gment
Ġtransform ed
Ġhead er
email s
Ġitem s
De vice
Ġover all
Ġback bone
ĠPar ams
Ġsin ce
Ġdoes n
GE MINI
initial ize
`] ):<
Transformer Block
go al
reg istry
Ġquant ity
Ġchar acters
Mo zilla
Spe c
ateg or
mix ed
Ġwave let
Ġdeno ised
FL AG
Ġdeprec ate
Ġannot ations
accum ulation
ENOI SER
, )<
3 00
K AN
L ay
R outer
S im
T ool
a ugment
d d
d t
f eet
i ence
m x
r ation
t i
t ins
v as
w riter
{ }
ä ¼
æ į
è ¡
in ner
on ion
Ġt able
ch ildren
he at
Ġ" "
Ġs cope
Ġp ur
Ġd B
__ }
Ġw ay
Ġw allet
ul der
is ual
pl ain
log probs
res sed
ess ian
Ġh and
Ġh uggingface
ĠD ec
Ġde term
ĠP M
ĠP olicy
ter ns
ĠM emory
=" \
Ġy aml
ĠE le
ĠĠĠĠĠĠĠĠĠĠĠĠĠĠĠĠ ĠĠ
ĠV alue
ĠW av
Ġtext To
Ġk v
ĠRe g
ne e
let te
ĠQ Application
ĠEx ec
Ġle arn
fl ip
Ġup loaded
)) ))<
ĠCo here
Ġfl ush
Ġtrans cribe
te am
25 8
Ġgenerate SystemPrompt
mb ol
Ġtransform ation
requi re
face book
Ġpost erior
Ġclos ure
Ġother wise
Ġlay out
assert Equal
With P
show error
Ġfa iled
antic lockwise
Ġip db
bbox es
hy brid
ĠDownload Source
CHANNEL S
ĠVe ctor
ĠFrozen Dict
Ġoccur red
ĠPR IMARY
Ġassoc iated
Multistep Scheduler
Ġ##################################################### ###<
) [:,
E poch
E VAL
G ER
L imit
L INE
M at
O r
P AR
S R
X L
] ),<
d ic
f mt
i po
m etas
t ight
å Į
æ ®
ç ½
Ġt gt
Ġt rees
re ce
re lative
it ting
ar r
ar ing
ar ly
Ġm ic
Ġre duc
Ġc nt
Ġs mooth
ent er
Ġa stronomic
ot es
em ester
con straint
qu it
par ents
ĠA ly
ĠA dapt
Ġg c
ĠS plit
all ies
ver bosity
cor r
ĠP os
ĠI nd
ĠM ain
ĠM IT
Ġse c
Ġv ers
Ġdi v
code book
ind x
nn x
oc alize
mat s
Ġresult ing
SE LECT
DI M
ĠK andinsky
Ġper centage
Ġper iod
eval uate
Ġclass ification
lect ure
cogn ized
tr al
Image Processor
color s
mark er
List ening
be gin
LO W
copy sign
ĠAd ded
Ġinter section
ä¸ ĭ
Ġfin ally
Ġcorrect ly
ĠĠĠĠĠĠĠĠĠĠĠĠĠĠĠĠĠĠĠĠĠĠĠĠĠĠĠĠĠĠĠĠ ĠĠĠĠĠ
bin ary
ĠFile NotFoundError
char s
rap per
Ġtr uth
global s
á´ı É´
gress ion
MODEL S
Ġeps ilon
Ġsm pl
ĠRot ations
ĠZ ero
á´Ģ É´
Ġ-- >
Ġcase s
send line
IST S
ĠAc quire
Ġá´Ľ Êľá´ĩ
Di stribution
press ion
Speech Bytes
candid ates
Ġinterval s
Ġturn ed
ĠEX ISTS
LEN GTH
ĠPD F
Ġdevi ation
ĠAly ssa
+ +
. ,<
4 23
B C
C ase
D ate
G RO
N eural
P lay
S D
U I
W indows
\ .
g amma
m ag
n ers
p po
s low
ç Ń
é ¢
Ġ location
Ġ anticlockwise
pa g
on ce
re cognizer
Ġre peat
Ġre cover
ed itor
pe ople
id entity
is c
arg v
ĠN T
ĠL abel
() }
() ])<
Ġde pendencies
Ġe in
ĠF ace
ĠR epresent
Ġex ception
pre processing
Ġse mester
add Action
Ġv oice
Ġch ild
art ial
jo b
Con vert
ber ta
iv ative
env s
ues day
min imum
base name
>> >
ĠQ Menu
ĠDe vice
ma jor
Data Set
tr iggered
api Key
fa iled
play ers
Ġmatch ing
Ġtra ce
exec utor
exec utable
Ġexpress ion
40 3
rand range
Ġsim ulation
De ep
Base d
rypt o
En ter
En coding
Com plet
AB C
Ġstat istics
With Projection
ĠGPT DataSet
ÊŁ á´ĩ
asure ment
åı ¯
|> "})<
Request Error
estim ation
ĠQuery Param
vid ia
Ġdirect ly
Min iLM
plicit ly
------------ -<
rins ics
Ġfetch Audio
Ġremain ing
Ġpay load
Ġrule s
èµ ¤
Ġdeterm ine
ĠGPTDataSet V
' .<
4 00
5 4
< <
I P
M IT
P olicy
[ [
] `
a ut
f s
g an
g ers
g ames
g old
i T
l ink
v ity
x s
æ ¯
Ġ ate
se ns
at ile
de sc
im inator
am ily
Ġ" ".
Ġs ampler
Ġd ummy
Ġa ge
ra ction
ra ise
em a
Ġg ather
Ġ{ ',
Ġh andlers
Ġr en
cor ners
ĠP ad
ĠP atch
Ġse n
ll ipo
ĠG raph
ĠV Q
ĠOptional Depend
ac counts
ne ctions
ud nn
Ġax s
Ġal gorithm
ĠCon tent
Ġle ss
Ġsub set
Ġadd Message
FA IL
Ġsc reenshot
Ġtrans action
á´ĩ á´ħ
drop down
Ġá´ ĺ
inter faces
Ġfeat s
Ġinter mediate
ï¼ Ī
ï¼ ī
Ġhttp x
amp ing
Ġsim pl
roll ing
Ġprogram s
inst alled
Not Available
ency NotAvailable
Ġdocument s
auss ians
LA CE
Pre TrainedTokenizer
Ġcomput ers
ĠChat Message
Check point
Ġoffset s
ä» ¥
å® ¹
mon itor
mult imodal
Img Pipeline
Unknown ValueError
systemPrompt Template
uplic ated
Batch Norm
vic orn
ĠEnvironment State
nap shot
ĠBe low
çĤ ¹
ĠLIM IT
llipo ps
ĠOptionalDepend encyNotAvailable
' ),<
) ],<
0 33
7 4
8 4
8 192
A ss
A ll
E pisodeGenerator
H ere
J SON
L P
O K
S ample
S hot
T F
U sage
V D
] ])
` ]<
e ved
g lm
j pe
j udge
k p
k le
n v
p ied
s And
s afetensors
t v
u um
v es
z a
} }
Ã Ĺ
é Ŀ
Ġ ]
Ġ am
in struct
se lection
at ely
re jected
im plementation
al ib
al ore
Ġn feats
Ġm omentum
Ġre search
Ġp rag
Ġd rive
__ ).
Ġl im
ul let
di ag
po ken
po ly
get attr
ĠA L
ĠA r
ĠC H
Ġcon cept
Ġh uman
"] ]
ĠF inal
ĠR AG
Ġex act
vi e
per cent
pon ential
Ġtime delta
Ġal ong
lat ex
stribut ions
Re ad
for ce
Ġcont roller
diff er
ĠSt ore
stat istics
Ġdo cker
Ġad j
top ic
Form at
Ġá´ į
ĠOR DER
window s
ĠBase Model
ĠPar se
Key board
Ġpatch es
ĠAt tn
CA USE
ãĢ ģ
ĠUser Notebook
Eval uation
PRO CESS
SER T
Al location
merge d
dete cted
Ġnote book
ControlNet Pipeline
spl ine
ND MScheduler
ein sum
COR RECT
Ġstru cture
utomatic ally
Ġ================================= ================================
ĠSQL ite
aldi Recognizer
sAnd Events
Ġprag ma
) }"<
) },
/ <
A r
B reed
B uffer
C reate
E mbed
H z
L ast
M ark
O ver
P LU
S chema
W S
Z ero
\ {
b il
c er
e cted
f ram
i loc
k top
m pt
m istral
m ocap
n ote
p join
q id
q vel
t ur
u ction
Ġ ðŁ
ħ å®¹
in p
in y
de l
ch allenge
Ġf ine
Ġf etched
as pect
Ġm eta
Ġre vision
ing ular
Ġp ublic
ent anglement
Ġd river
ic ation
em ents
is sh
ol ving
Ġ1 20
cl uster
Ġr nn
pro cesses
Ġel astic
gr u
Ġv o
ll ms
ĠV ari
ĠW in
av ing
max Tokens
Ġ` __
ern al
Ġwh ite
Ġk nn
ac uum
ST OP
RE SET
12 7
act ic
Ġper plexity
Ġca re
ĠSt ream
target s
Config Mixin
Se lect
Ġtra jectories
HT ML
ä¸ º
ĠCom bine
pi red
record Id
40 96
De f
Col lator
Ġpost ed
WOR K
case s
rib ute
}) "<
bl ank
term inal
Up date
è® °å
Ġwave form
contin ue
ç» ĵ
exception s
ĠModule NotFoundError
Ġask ing
ĠWh en
Ġcy cle
Ġcour ses
tun ing
ĠLO G
Sl ider
ĠFast API
Ġocc ured
Ġye ars
DEVI CE
dic kens
* :
, ),
9 1
: ].
B ox
C ES
E ric
P N
P rint
Q wen
U ns
W eights
Y es
Y our
_ <
b uffers
e e
g u
h ist
n es
r ule
s we
t ax
t ure
å Ń
è ¾
è ĥ½
Ġ ])<
pa ct
er ation
Ġt ray
re vision
Ġf bx
ut ed
ut ation
am m
Ġ" [
Ġ" ",<
Ġc md
Ġin cre
Ġp ick
Ġp unct
Ġd mm
Ġo mega
el astic
un a
un sloth
Ġb ra
from array
Ġto o
get point
ation al
ab l
ĠA x
ĠL anguage
res olve
Ġg pu
end all
Ġ2 1
ine se
ĠF etch
))< /
ĠO nnx
Ġth resh
ĠM AX
code brew
ĠB uild
ĠB asic
ĠV alid
Ġ` [
ator s
ĠThe y
") :
Ġpre vents
ud ents
TI M
Ġal phas
In itial
ĠIn struction
ĠCon sole
LE D
process RawTexts
cont ain
Ġhe lper
af ari
To e
Ġlast View
db Name
Ġpad x
Ġpad ded
complet ed
names pace
ĠJ son
Ð¸ ÑĢ
ĠPy Qt
ref usal
Ġrecord Id
ome ga
miss ion
det ail
ĠFile s
ĠConvert s
linear ity
optim ization
fin etune
quant ize
ĠĠĠĠĠĠĠĠĠĠĠĠĠĠĠĠĠĠĠĠĠĠĠĠ ĠĠĠĠ
vector s
Ġdisable d
Ġdb Name
Ñģ ÑĤ
pect s
Ġclo sed
Ġmov ement
çĲ Ĩ
Ġcent ral
âĢ Ķ
comp ress
Ġver ify
Ġlisten ing
Ġfig ure
Ġbound ary
Ġá´Ľ á´ı
æĹ ¥
ĠAss ume
ĠEmbedding Func
Me an
condition ing
tin y
ĠLazy Attribute
ĠBreed Name
Ser ve
GRE EN
"[ \
TR UE
ĠArgument s
ĠKe ep
Ġneighb or
Ġassum e
Ġbehavi or
ddp m
Ġdecor ated
éĿ ¢
issh u
ĠlastView ed
) "<
) ",
8 5
: {
A RE
B LE
B LO
E vent
G rad
N e
N ew
P ix
S ize
W rapper
] \
` ")<
b et
g b
m agnitude
p x
r atch
s uffix
v ider
v anced
x z
x formers
è İ
Ġ }
Ġ ))<
Ġ html
Ġ Êıá´ıá´ľ
lo ut
Ġc r
Ġs lot
Ġs patial
ur i
un icate
ra st
Ġb ook
di lation
di stributions
is m
Ġ' "
ĠA s
ĠC ol
ĠC SV
Ġg roq
ap ple
"] ]<
ĠD I
Ġr v
out Error
ĠR ight
Ġth ird
Ġpro j
Ġpro tot
Ġj udge
Ġdi visible
Ġun iform
ON G
ĠV ision
ĠV AL
token ize
token ization
av ed
qui val
oc ast
Ġk nown
Ġk inematic
ĠRe place
Ġco ord
Ġco ordinates
Ġco pied
read lines
trans actions
ĠUn i
** *
Ġcontext lib
ĠQ coeff
LI MIT
Ġtest ing
Ġsub class
ĠSt ring
Par ameters
)) ]<
ĠData Frame
IG N
inter po
Im port
bs z
40 5
De code
Ġed it
Ġcontin uous
á´Ģ á´Ľ
pan el
Chat Message
Ġmu joco
Ġreward s
la unch
Ġpip master
Ġequ ation
Ġph rase
Ġview er
Ġvis ual
Des ktop
ĠInitial ization
Ġformatt ed
Ġma int
pers onal
åľ °
ĠComput er
Attn Processor
cap s
æĢ §
Ġagain st
Ġbo olean
Ġcre ating
Ġbroadcast ing
Lay out
PLU S
fram erate
èİ ·
Ġprotot ype
! !
0 9
0 70
2 9
6 9
7 3
B ot
C or
C KEN
C annot
F rom
F IL
P l
V ari
a unch
b t
b asis
f lo
f ollow
f acts
n aive
p ies
p loy
r er
r strip
s box
t imm
v ens
Ġ è®¡ç®Ĺ
pa ge
en ign
Ġt g
st ft
im ation
ch anges
Ġre moved
Ġc lock
Ġp hot
ex e
ex periment
Ġd dim
um b
__ ,
int eger
Ġreturn ing
co ders
co pies
is nan
Ġ- *
ĠT ransformers
ĠT RAIN
ĠA gent
ĠL et
ser ies
Ġg u
up ported
ĠS ec
ĠS ET
ĠS emester
Ġh ps
"] ="
Ġstr ength
ĠD ynamic
ĠM C
ĠM on
per parameters
Ġbe gin
red dit
'] }"<
our ces
ĠRe al
") )
") ]<
ac ity
Ġpre vent
ber metric
AM E
In itialize
St ore
([ -
ak y
Ġrun time
AR S
Ġac c
response s
Ġhe ard
audio Player
tra il
open ed
Ġag ents
Ġdis crete
Ġtrans lation
Ġinf inite
Ġá´ ľ
du ction
abs olute
Ġprob s
ite cture
icro soft
Ġinter active
arm ful
sim ilar
ĠĠĠĠĠĠĠĠĠĠĠĠĠĠĠĠĠĠĠĠĠĠĠĠĠĠĠĠĠĠĠĠ ĠĠ
Ġbet ter
Ġcomm it
char ge
dition al
mov es
Ġread ing
Ġpred s
Qu antum
Ġinitial ization
Ġdec rypted
Ġquant ized
cour ses
äº Ĩ
Ġmm cv
ire ction
ĠAudio Segment
ĠType Error
Ġutil ities
Ġmark down
ĠDis play
Ġdir s
branch ing
æĸ ĩ
ĠOr iginal
Ġeff ort
Training Arguments
Stop ping
Ġ---- ---<
incl ude
ĠNO TE
ĠVocab ulary
times cale
gui ded
Ġinte gers
åĩ º
ĠCLIPVision Model
ites pace
Cho ice
Ġaccum ulated
Ġappropri ate
ï¼ī <
Ġ================================================================= ============
$ ",
C allable
M atch
P LACE
a wait
c p
f loyd
g res
m eter
m usic
m mlu
q c
s at
t wo
y y
º Ð¾Ð
¿ Ð»
å ¿
é ķ
é ľ
Ġ very
Ġ âĶ
at ives
re verse
le u
al ic
Ġf mt
he mat
ort ho
Ġn aive
Ġm embers
Ġre st
Ġre tain
ra cle
Ġb ad
Ġb utton
Ġl ate
and bytes
di gest
one hot
ol ved
Ġ[ {"
Ġ' /
set attr
(" _
(" >>>
ĠA I
ĠA verage
() [:
up sample
ĠS TT
Ġst age
Ġst ars
att ern
class ify
emb s
len ium
Ġres ample
Ġse lenium
train ers
Ġget Duration
ub e
(' <
Ġun safe
red uction
Ġim pro
Ġ` {
Ġcom bine
Ġcom ponents
Ġpa ge
spe aking
Ġco ords
ne arest
Ġpo ses
St yle
ach ine
ak a
Re gistrable
ĠAn s
Ġob server
ĠModel s
Ġle x
fl ush
Ġac cessed
Ġac cording
method s
cat s
los ing
Ġsub folder
run ner
cur s
Ġclass ify
Ġaudio Player
group by
AS H
the me
TE GER
Ġsc alar
ĠÐ ½Ð°Ð
100 00
inter section
Ð°Ð »
Ġ'' ')<
ĠAd am
ĠĠĠĠĠĠĠĠĠĠĠĠĠĠĠĠĠĠĠĠĠĠĠĠĠĠĠĠĠĠĠĠ ĠĠĠĠĠĠĠĠĠĠ
ĠQu iz
ĠGener ation
Ġab stractmethod
cum sum
Ġ"/ ../
Ð¾ ÑĤ
pri or
Ñĥ Ð½
Ñĥ ÐµÐ¼
Ñĥ Ñİ
generator s
ĠPre dict
SC RI
script s
Ġoptim ization
ateg ies
Ġpack ages
Ġpack aging
Ð» Ñı
Ġweb driver
ĠConv Block
ĠNew sAndEvents
HE AD
ĠMo ck
Ġbu zz
Ġconf irm
sol ved
Ġbin ary
ĠQuantum C
Load ing
sil u
dest ination
âĶ Ģ
éĩ ı
Ġbbox es
Sup er
æŀ ľ
ĠInter face
Ġlik elihood
ĠBl ue
ĠÑĦ Ð°Ð¹Ð»
ĠÐĹ Ð°Ð¿Ð¸Ñģ
ĠÐ·Ð°Ð¿Ð¸Ñģ Ð¸
ĠÑĤÑĢÐ°Ð½ÑģÐºÑĢÐ¸Ð¿ ÑĨÐ¸
Eric Neural
Ġbra cket
ĠAx is
Ð¸ÑĢ ÑĥÐµÐ¼
ĠVAL UES
ºÐ¾Ð ¿Ð»
éľ Ģ
ĠÐ½Ð°Ð ºÐ¾Ð¿Ð»
Ġ"/../ ../")<
Ð¾ÑĤ Ð¾Ðº
ĠÐ½Ð°ÐºÐ¾Ð¿Ð» ÐµÐ½
7 15
A FE
C ODE
K HTML
M pt
M otion
O ptional
P er
T YPE
W E
_ %
a ug
b g
b mm
c b
d ark
e q
f amily
h arn
l c
m se
m isc
p in
s poken
t len
re view
re gex
st ars
Ġf rozen
Ġm lp
Ġm apping
Ġm tv
Ġc riterion
ge la
ge odetic
Ġs ig
Ġs il
Ġs ide
ed it
Ġp s
Ġp ower
ex planation
ad ded
Ġa io
Ġa uth
pe ft
Ġb leu
str ategies
Ġl ive
ext ensions
is file
ĠT TS
pl at
ĠC rypto
() ),<
Ġcon cat
ĠS c
ĠS afari
Ġh undred
Ġst ats
Ġ< /
us c
ĠD iff
Ġde coding
Ġde terministic
pro c
pro tocol
ĠP l
Ġres olutions
ĠM LP
Ġse quential
Ġse mantic
per centage
Ġ3 00
ca pe
Ġro bot
(' -
Ġtext Line
oc ator
Ġlist ing
Ġtrain ed
ph ot
ST M
Ġtoken ize
Ġco efficient
Ġkey words
ĠIn ference
ĠCon tin
RE E
RE AD
pat terns
Ġac cur
Ġfunction al
ĠSt yle
da emon
cho colates
Ġweight ed
over watch
UL TI
Ġdis cret
Ġtrans pose
top k
kv s
List Of
=[ ],
Ġinter face
Ġerror s
emp oral
ĠAuto Config
bot tom
Ca che
OP TIM
ĠPre TrainedTokenizer
Ġposition al
Ġoff load
Ġsign s
Ġsign ature
deep copy
Ġvi olation
ĠIN TO
ĠIN TEGER
UN D
Ġreg ion
ĠCh rome
åĲ ĳ
ru ption
Ġge o
termin ate
estim ator
Ġ-------------------------------- -------------<
can vas
high light
Ġdescrib ing
Ġplace holders
Ġfeed back
icon tains
pet ition
igr ation
Ġland ing
ĠNorm alize
Web Kit
ĠRetri eve
Iter ation
éĹ ®
ï¼ļ <
ĠApple WebKit
KV Storage
NL ocator
Ġmodif y
Ġins pired
ĠDP M
Ġ{{ <
Extra ctor
STAN T
Ġflo ps
Ġder ivative
Complet ion
IGN ORE
rer un
similar ities
ĠAns wer
harn ess
tlen eck
ListOf Dict
( ['
0 44
7 9
? \
D U
D raw
E motions
J oints
L ike
O M
O SE
R ed
R et
S de
S nake
T ra
W arning
a Dec
a stronomic
b ad
b ullet
c alc
e ef
g mail
h q
h om
k nn
n el
o up
s orted
s quare
t rees
x ies
ä ¿
Ġ æ
in data
se p
Ġt en
Ġt all
al er
Ġn head
Ġre levant
Ġs ort
Ġs pl
Ġs uccess
Ġin structions
Ġp il
Ġa ctor
Ġa ugment
Ġb ank
Ġdef ined
il v
Ġ[ ]).
ĠA ct
ĠL u
ser ve
Ġg ui
ay stack
ĠS ho
Ġ2 24
[" _
ĠD es
form att
Ġx formers
load ing
Ġe arly
ĠF L
ĠR coeff
ĠM at
=" ./
Ġos p
Ġse p
com patible
ĠU PD
list box
ĠV ae
ĠV isual
EN ABLE
sh ould
ĠThe se
ĠRe gistrable
AT T
Ġit self
ST ER
Ġlog in
Ġq c
trans fer
ai a
Ġpy gments
ĠIn sert
ĠIn spect
Ġspe ct
Ġfunction ality
CH OI
ĠY ang
ĠSe quential
sub mit
`` `<
Scheduler Output
Res olution
ðĿ Ĳ
Text Input
Ġref usal
miss ing
Ġact ive
stream ing
Ġmo dified
Ġ{} '.
Ġsin usoidal
Com put
sin cos
ĠAp pend
pr ime
assert ion
deep floyd
Test Case
ire ctory
ĠChat bot
ĠChat History
mix er
Ġtrunc ate
measure ment
AP H
MS olver
estim ate
Ġcondition al
ĠToken izer
Ġalign ed
æĸ ¹
Ent ropy
Ġplace holder
ä¸Ģ ä¸ª
spa m
Ġvoxel ized
Ġaccept able
Ġball s
Ġinterpo late
attempt s
Ġdenom inator
Ġ502 57
Ele ment
è½ ¬
lb ow
æį ®
require ments
Ġein ops
Ġtrace back
Uns upported
personal ity
irection al
Ġlate st
044 715
ĠUPD ATE
ĠVae ImageProcessor
ĠChatHistory DB
) [:
+ ",
> ðŁ
A b
A dapt
C G
C heat
E MA
E XT
I C
I S
I Z
I f
J O
K arras
L iteral
M essages
R Y
V is
^ \
_ ()<
b and
b quat
e gr
f ilenames
k to
o hn
p itch
q s
s ame
s ual
u ge
u ded
v p
w rit
Ġ ,
Ġ ÃĹ
in ria
se ud
re st
al t
al tern
ch ans
am ing
Ġm igrations
Ġc ategory
import s
ed mm
Ġp ut
Ġp ending
ent ially
Ġd p
Ġd at
__ ',
__ `<
Ġl aunch
di es
di alog
is kit
to bytes
get s
log Handler
Ġ1 80
Ġis s
ĠA fter
ĠC A
ĠC an
ĠC UDA
ht ein
Ġ{ },
Ġcon sum
ĠS pa
ĠS er
ri al
all as
Ġh ome
att ributes
ver g
ver ter
ag ination
ĠO S
ff ff
ang vel
pre vious
Ġpro xy
Ġj Function
per iod
com ponents
ca re
á´ ĭ
ĠU sual
ĠG roup
ial og
Ġ> >
ĠV al
ĠW IDTH
-------- <
ps ample
ĠRe cognize
ac cs
ne cted
): ")<
Ġq iskit
ĠH uman
nd mm
In spect
St d
ĠIn st
ĠCon struct
Ġset ting
ug gets
test Client
pat ibility
conv ers
unk nown
ron t
iss a
ĠData Arguments
no va
rol lout
Ġdo g
uc ible
Ġad min
Ġ8 00
ĠImage PipelineOutput
Ġstream lit
dec s
Text Only
Ġvalid ate
pi ry
Ġwork s
Ġmulti processing
("\ \
bin ding
Gener ation
Gener ated
Ġover l
ĠQu ant
Ġstride s
GR U
Ġcomplet ions
Ġcontain er
É´ á´ħ
Com pose
Qu ant
An kle
ĠFlax StableDiffusion
ÊŁ Éª
pect rogram
åı ĸ
åĪ °
temp oral
ĠTh ere
Ġpack age
Ġtrunc ation
Ġevery thing
}: {
Ġmark er
Ġhigh light
contin u
åħ ³
Ġanaly ze
FORM ERS
Ġclear ly
è¿ Ļ
ĠEval uation
Ġsha red
Ġenable d
>"" ",<
construct Client
dig its
æł ĩ
Ġpers on
Ġwrap per
ĠNorm al
disable d
menu Bar
Ġmesh pose
subplot s
Ġrece ived
å¯ ¹
(.* ?)
Ġprodu ce
ĠtextTo SpeechBytes
çŃ Ķ
é¢ ĺ
Ġdrive ways
Def ault
vens htein
Ġphot o
Ġ============================================================================= <
usc enes
ĠFL AG
! \
% <
5 02
: **
C AM
D ialog
G ING
G ui
H ip
L ab
S ho
S olver
S QL
T XT
` :
a cos
a verage
b reak
c df
d g
f bx
m ma
p issa
s de
t as
t gt
u cl
v ote
æ ³
é ĺ
or ld
at ural
er ical
en o
re ction
re main
re play
st er
st ory
de terministic
im ic
an e
an el
al th
al loc
Ġ" ":<
Ġn d
Ġn x
Ġm is
Ġm uch
Ġre view
Ġre mote
Ġs ingular
ed nes
Ġp df
ad ow
th an
id irectional
str ength
-- -
po oled
ĠT HE
.< /
par is
par allel
Ġ1 92
(" `
(" ",
Ġg aussian
Ġcon currency
ĠS in
ĠS he
ĠS cript
ĠS pectrogram
== "
== =
att ery
ĠD uplicated
ĠF irst
ĠP ass
ew ard
ff n
Ġres pond
Ġpar sing
Ġse g
add itional
ĠE ach
Ġint ra
ON T
Ġen viron
Ġ: :
ĠRe fer
Ġco unter
Ġco here
value head
andl ing
Re cognition
LI C
ide an
format s
ĠModel Arguments
Ġcol s
AR G
ron g
rot ate
ĠData base
line Keyboard
over flow
={ '
led ge
Ġfin etune
match ed
Ġcheck er
CO MMAND
tri u
mp c
Ġab ort
ĠBase AE
Ġ100 00
á´ı ÊĢ
Com pute
Ġiter tools
pack age
Trans lation
Ġsl iding
ĠEn coder
uccessful ly
Ġfa iss
æľ Ī
ram ers
Ġgo al
Ġsound device
fo od
Py thon
Ġtemp file
Up load
ĠSim ulate
mu joco
ĠLog ger
Ġdoc s
feed forward
ĠMo ve
ĠAss uming
subject s
Ġdeno ising
allow ed
Ġmon th
ĠCourse Allocation
Ġeff ect
Ġbl ank
FL ASH
gra de
ĠEnt ity
Ġmed ia
ĠMe thod
Ġinterpo lation
recv until
Group Norm
phonem e
èĩ ª
Ġpyd antic
ĠSQLite Dict
magnitude s
Ġaio http
ilv us
ucl idean
ednes day
ĠDuplicated Code
' ve
( $
/ "<
3 9
6 3
7 2
B o
C ross
C ost
F ree
L LaMA
Q U
T ransform
W rist
b ugging
d c
e qu
f il
f alse
h d
j a
j arvis
k s
l ightrag
m ine
m ps
o per
p ur
p ush
s cope
w i
w hisper
w alk
} """<
¦ Ĥ
æ ĥ
æ Ħ
ç §
é ģ
Ġ em
Ġ kw
Ġ É´
in vert
se l
Ġ= >
de ploy
ch astic
ar cy
Ġf ail
Ġre con
Ġre jected
Ġc ut
Ġc redit
ge mma
Ġp join
Ġd ol
Ġd ense
ra ft
Ġb it
__ ,<
co co
to ys
Ġ1 8
Ġ' %
(" {
ĠA D
ĠC ho
Ġg l
Ġg aussians
Ġcon nect
if ul
ĠS ampling
Ġh ist
Ġh ml
ss l
ĠD eter
ĠD INO
Ġe st
ĠP a
Ġres hape
ĠM ark
=" #
Ġpro jector
Ġch ic
ĠU sage
our ier
Ġwh ole
Ġq rot
vert s
ach er
fl u
Ġcode brew
AG EN
ĠDe coder
ĠDe lete
tra jectories
imit ives
group ed
down loaded
over ride
Ġdis cription
á´ĩ s
row son
Output WithP
Form er
Ġá´ ħ
post erior
ä¸ Ĭ
Ġcheck ing
Ġwrit er
UR I
ĠText To
Ġsim ple
Ġman ager
ĠBase d
ta iled
ĠPro gress
14 2
sen se
Ġshot s
Embedding s
ĠEn c
pk gs
äº ¤
Ġmov ed
ven llm
sk el
HO LDER
Run ning
Ġpe ft
å¤ §
ĠURL s
END POINT
disc r
Chat bot
Stream Handler
ĠTrans action
Ġretri es
Ġoper ations
database s
ĠScheduler Mixin
Ġmix up
spa ces
æī ĭ
ĠLi u
ĠVe locity
Ro ot
ĠArgument Parser
Ġsa id
Ġneighb ors
QUE ST
ĠNetwork s
Ġvert ex
ickl er
âķĲâķĲâķĲâķĲ âķĲâķĲâķĲâķĲ
Ġarch itecture
á´ĩÊĢ Éª
AU TH
partition ed
æİ ¥
Ġpix el
Ed ge
neighb or
ategor ical
ç½ ®
åı¯ èĥ½
èµ¤ çº¬
ĠAs sert
Ret ries
Resolution Pipeline
OutputWithP ast
" *
' }<
) \
) ",<
= ("
> "
B uild
E stim
L ines
M N
M SE
O ST
P latform
R ot
S AMPLE
S uccessfully
a udi
g reen
k andinsky
s lot
s mooth
t ension
u pt
v o
v ocalize
z ers
} '<
â Ī
å Ģ
æ Ń
Ġ Éª
Ġ ðĿĹ
Ġ }}<
Ł åº¦
or ge
or val
se quences
on y
en ance
en coders
re try
re direct
de em
de limiter
ar ding
Ġf f
Ġf name
Ġf bank
Ġf requency
he el
Ġn s
Ġm ongo
Ġre gex
Ġre cognized
ge ometry
Ġp c
Ġp db
Ġd y
Ġd ue
ic ed
ate Limit
int ra
ist er
ol y
ol ding
># #
cl i
(" #
ĠA U
ĠA BC
ĠC urrent
() ],<
Ġg ender
ĠS ystem
Ġst ill
Ġde tailed
Ġr gb
cor ds
ĠO llama
ĠO racle
Ġpar allel
ĠM ix
com es
Ġqu otes
Ġch ildren
ant i
bo dies
ĠG rad
ĠV ideo
red ential
Ġcom p
Ġcom patible
Ġ: ],
Ġpa irs
Con trol
Con stants
ER AT
ER TS
ph rase
Ġ4 01
OR T
col lect
ĠIn tent
ĠIn stant
=' +
base line
RE G
Ġme asure
test s
** :
process ors
Re cords
Ġrun s
Ġtest er
Ġmessage Id
sc atter
TH O
line buf
ich a
ambda LR
te acher
Ġad apter
transform ation
]] ]
DO T
LO CAL
11 4
Ġinter n
ä¸ Ń
ref erence
Text box
Ġlat er
gt s
Ġgroup ed
Ġman ually
Ġsk el
Ġhelp ful
Ġcurr ency
Path Like
initial ized
With Images
ili ary
æľ Ģ
Ġcontrol led
table s
Ġorder ed
analy ze
Ve Output
Ġenc ryption
ä½ į
Ġjob lib
ĠTE ST
åĲ į
ä» ¶
Ġdel iver
ĠTrans pose
Ġshift ed
coll ator
Dec ision
Llama ForCausalLM
buil tins
Ġser vice
chem y
vid ers
Ser ver
Ġshe ll
Ġmix ed
åľ ¨
Ġspa ces
å¼ ı
éĹ ´
Ġgra de
Ġlarge st
éĢ Łåº¦
Start ing
}% ")<
Ġpropert ies
pac ity
ĠEle ven
plat form
ĠSho uld
verg ence
Ġoverl apping
" (
" `
) (
) [-
0 7
4 6
5 1
: ])
> ")<
> ',
? ")<
A ge
A rial
C urrent
D ocument
E very
F PS
G EN
G aussian
H F
H and
K nee
L et
L lava
M emory
M ULTI
O p
P ose
S G
S m
S ub
S oup
V ersion
] [:
_ )<
a o
a uthor
b log
b float
b server
b aichuan
b enign
c f
d ensity
f y
f id
g cr
h um
m ay
n y
n Options
s ft
s ized
t ile
t au
z ure
¥ è¯
è ģ
Ġ er
Ġ ep
Ġ err
Ġ êľ°
in place
in correct
at omic
Ġt ot
re lease
le ave
ch ild
ar ded
Ġf ri
Ġf ocus
ut iful
ct m
Ġn q
Ġn uggets
Ġm ow
Ġre comm
Ġre versed
Ġs quare
ur u
Ġp rior
Ġd l
un ded
from buffer
iz za
il ib
get value
ab out
ab stract
Ġas dict
Ġ' ')<
cl ude
ĠA M
ĠL in
res idual
data frame
up dates
ĠS hot
ĠS MPL
ri um
Ġst mt
od on
"] ))<
"] [-
Ġstr ip
Ġstr ategy
ĠD jango
Ġnum erical
ĠF orm
ĠF ix
ĠR R
ĠP agination
ĠI P
ĠI GN
ip ient
key word
ang er
ang ular
ast odon
Ġ3 6
ĠE pisode
Ġqu iz
Ġfile path
code Brew
Ġon es
Ġun til
ĠB ot
ĠB ea
list ing
ĠW rite
'] }")<
Ġ: =
sh o
") ).
AM ES
Ġpo p
([ ])<
ĠK endall
unc ate
ĠAn g
extra cted
Ġrun ner
ĠEx it
act ivations
Ġne arest
Ġmay be
sub class
Ġspecif y
Ġstart ed
Ġnorm s
Ġ| ]",
map s
') }\
part ment
part ial
play list
inter est
Ġtra il
Ġtra cker
be ams
irc le
Norm al
VI DE
(* ,
Ġed itor
CT OR
FI ER
optim ize
FO LDER
Embedding Func
case d
ĠPre trainedConfig
}' "<
annot ation
plan e
cour t
Ġreg ulator
lst m
pan ded
ĠType Var
ĠMulti ply
Ġå ľ
Ġser ve
IF Pipeline
Ġhigh er
contin uous
ĠTransformer Block
Ent anglement
]+ ",
Meta Model
sol ar
Ġcallable s
Ġmon itor
Ac cept
å° ı
ControlNet Model
spl its
gl ctx
BE CAUSE
rins ic
assign ed
retri es
ĠKe ely
ĠCode Brew
ickl ing
recv line
Ġsimilar ities
Graph Storage
erc ise
Ġexperiment al
ĠTr uncate
("[ |
åĨ ħå®¹
ASSI FIER
åĬł éĢŁåº¦
202 3
rece iver
ĠAdapt ed
Ġsimpl ify
Ġvo coder
amm er
ĠJson Dict
Entropy Loss
Sho ulder
Ġchic ken
AGEN ET
redential s
DOT ALL
utiful Soup
ilib rium
ĠIGN ORE
ĠBea utifulSoup
) ^
* (
+ \
6 7
7 1
= _
? "<
B e
D DP
G e
O F
O L
P rot
R em
S BOX
S UB
T r
T arget
V Q
W e
W SI
` )<
` "<
c riterion
c udnn
d on
e pal
f ov
g g
g it
i LU
j in
l er
m argin
n q
n ip
n Context
p id
s quared
u ates
w ave
y ber
à ¹
å ·
å Ŀ
ç Ł
Ġ zeros
Ķ åĽŀ
ľ âĶĢ
in i
or i
se curity
Ġt one
Ġt mp
de lay
ch ron
Ġf rag
lo st
Ġn est
Ġn joints
Ġm se
Ġre moves
Ġc utoff
ge o
Ġin flu
ex pert
ex ponential
pt r
pe ci
ot ian
Ġl ab
int ernal
int egr
co ords
et ration
pl ies
Ġ1 50
Ġ' ../
ĠC re
ĠC lear
res olutions
Ġg ame
ke epal
up loaded
up dated
ĠS up
om p
Ġh int
Ġh ref
Ġh andling
ĠD ot
ĠD ENOISER
Ġde termin
Ġr l
Ġe v
Ġe ot
ĠI s
ĠM ult
ĠM istral
ĠM esh
ctor ies
Ġpro xies
Ġv ol
ann o
ann y
(' ./
__( *
bo ot
ĠB ert
ĠW EIGHTS
EN AME
Ġk ind
ĠRe quired
DI S
Ġq k
Ġ4 80
ĠH andle
min us
ĠCon current
block chain
ary Block
ĠAn aly
ĠModel Mixin
Ġtest Client
Ġcol lect
Ġac counts
Ġca pa
AG ES
place holders
Par se
ĠSe q
valid ate
Ġstart ing
ns fw
tr l
Ġadd ition
AS K
Ġmin imize
Ġfl ip
FA I
ĠImage Net
row n
Ġindex es
Ð°Ð ½
Ġline style
Ġstream Run
Ġdown loaded
RAN S
ĠText Store
55 8
dis patch
wh ich
Ġmo ck
En v
Ġexec utor
