#version: 0.2
Ġ Ġ
ĠĠ ĠĠ
ĠĠ Ġ
ĠĠĠĠ ĠĠĠ
s e
i n
o r
o n
r e
a t
e r
e n
Ġ t
s t
d e
Ġ =
ĠĠĠĠ ĠĠĠĠĠĠĠ
Ġ i
a l
se l
sel f
a n
r o
i on
a r
m p
h e
l e
u t
Ġ f
Ġ c
a s
i t
m e
Ġ "
Ġ self
in g
Ġ re
g e
c t
Ġ p
c e
or t
i d
u r
) :
Ġ in
mp ort
e d
o de
l o
Ġ o
Ġ s
Ġ n
Ġt he
c h
Ġ a
f i
Ġ de
e x
ro m
Ġ m
d i
en t
at e
Ġ '
u e
u n
e l
ĠĠĠĠ ĠĠĠĠĠĠĠĠĠĠĠ
a d
a me
p e
" "
Ġ b
Ġi mport
l i
ode l
c o
Ġ w
f rom
i l
( )
p t
r a
ur n
i z
t urn
o t
m a
s s
Ġde f
Ġ #
_ _
Ġt o
Ġi f
r i
- -
an d
l a
Ġre turn
Ġf or
u l
c k
se r
Ġ (
on e
Ġ d
at ion
as s
Ġ T
ge t
" ,
Ġi s
q u
v al
u p
c on
t o
er s
p ut
n ame
u m
st r
' ,
k en
ex t
c l
at a
ar g
i s
e s
t h
Ġ" ""
N one
h t
ĠĠĠĠ ĠĠĠĠ
i c
or m
Ġ -
Ġ [
o l
e st
Ġo f
p ro
se t
Ġ L
a b
y pe
d er
" )
fi g
at h
o d
Ġ A
Ġ and
v e
it h
Ġc on
pt ion
at t
in t
iz e
ul t
m odel
cl ass
Ġ C
or ch
arg s
' :
Ġ S
Ġn ot
p o
k e
Ġ _
Ġf i
Ġ None
Ġ *
en d
i mport
ct ion
Ġ 1
re s
t a
i g
ar t
c he
a se
ma ge
v i
val ue
. _
d o
Ġc o
Ġ O
e m
p p
ab le
Ġ as
( "
en se
Ġ di
lo g
Ġ l
a ge
Ġ h
r an
al l
Ġ P
el d
f orm
-- --
a m
Ġ I
Ġ {
v er
en s
e t
r or
Ġt h
Ġ )
Ġ ex
r ue
Ġ u
Ġ or
m ent
Ġ F
de f
" :
p y
Ġ g
" ]
Ġm odel
to ken
s ize
in e
p a
' )
t ype
p ath
Ġ st
e ct
ut put
p re
e w
Ġ 2
Ġ e
i me
ser t
un t
ke y
ic ense
( '
t er
d ata
t ext
q ue
) )
' ]
Ġw ith
Ġ +
i st
Ġ str
. .
an g
Ġ 0
Ġ el
as k
iz er
at ch
d ing
ce ss
Ġm a
ran s
re n
p ar
al se
Ġp ro
Ġ li
id s
il s
Ġ `
Ġ D
ĠL icense
Ġb e
Ġre s
in it
) ,
ra in
Ġt orch
Ġ R
ĠĠĠĠ ĠĠĠĠĠĠĠĠĠĠĠĠĠĠĠ
a ck
l en
[ '
E r
Er ror
la y
i p
Ġ se
u re
e mp
que st
u s
o m
mp le
Ġf rom
con fig
c i
0 0
] ,
Ġfi le
a ult
co unt
Ġ= =
Ġ get
[ "
c or
h a
log g
Ġ __
r y
p er
Ġ un
d u
an ce
ens or
fi le
c ode
j ect
Ġ an
qu i
__ (
st ate
Ġ- >
t est
Ġel se
as sert
"" "
Ġ me
Ġ M
ri b
= =
C on
en v
h o
i se
u le
T rue
id d
= "
u b
l y
i f
Ġ on
he ad
re d
Ġ B
k w
Ġd ata
Ġto ken
lo ad
e p
Ġ r
o s
) .
E N
g ht
p i
ers ion
t orch
em b
Ġc l
idd en
I N
Ġ v
Ġu se
O N
Ġ W
Ġ value
Ġ U
od ule
ig ht
a c
S E
f e
u ser
kw args
t p
ent ion
ut ils
# #
o ut
ption al
ur l
do o
M odel
rib ut
e e
it e
i m
Ġ x
a pp
Ġ y
---- ----
ri ght
a y
Ġ .
Ġfi eld
ar d
lo w
Ġp ar
in put
p on
co mp
Ġ ra
Ġs up
re ate
w e
Ġt est
m o
ha pe
ht tp
c al
t ime
b o
ut h
i mage
ss ion
di r
Ġn ame
ad d
c a
ĠT he
Ġ* *
emb ed
Ġ @
qu al
att ention
rans form
la b
Ġin put
Ġ V
li c
li st
Ġin t
f o
Ġcon fig
Ġb y
/ /
ce pt
a ve
ct or
ang o
pon se
Ġ set
j ango
l ate
a il
ce s
Ġi mage
] )
t rain
du ct
Ġ %
g th
at or
an t
t y
T I
th od
d ate
ĠĠĠĠĠĠĠĠ ĠĠĠĠĠĠĠĠ
co m
ss age
Ġi t
Ġo s
s o
ing s
di ct
() .
Ġra ise
n um
i le
Ġ :
Ġn um
an y
it y
Ġo utput
Ġre qui
it ion
j s
Ġth is
at ed
en er
in st
or e
b ase
o u
i al
O R
n el
ren t
Ġ E
b ack
m ask
w or
a v
Ġco mp
b er
b ject
p l
i ve
Ġth at
ĠF alse
ro up
Ġs o
Ġ al
lo at
n er
Ġd o
um ent
o utput
Ġ }
E qual
a mple
f f
co der
c ation
ĠO ptional
Ġ logg
Ġ N
E R
emp late
Ġw e
u st
Ġ G
Ġun der
F alse
Ġ H
ĠT rue
ma il
ption s
js on
Ġ en
Ġp re
pe ci
Ġ 3
t e
Ġw h
o ol
val id
a g
vi ce
i v
p ort
en ce
ut e
I n
( ):
= '
Ġdef ault
di m
I C
Ġdi st
Ġsup er
ar y
state s
vi ew
.. .
u g
j o
Ġco py
A T
un d
o k
r int
par am
p art
: //
v o
Ġc h
ĠS ee
lay er
Ġ key
ĠI n
ation s
Ġl en
ail able
l ine
f t
R e
Ġo doo
lab el
de x
fi eld
o p
ĠR e
assert Equal
Ġex cept
cess or
len gth
he ck
up le
con t
s c
Ġd jango
Ġ >
ul l
model s
A S
a ct
er ror
E S
T o
Ġa pp
de d
po s
i fi
Ġfield s
mp t
c ur
Ġli st
l l
Ġ lo
Ġn p
re ad
m l
Ġa d
Con fig
h idden
an nel
i x
er y
att r
EN SE
IC ENSE
ac count
po int
pro duct
Ġt ime
end s
n ing
y n
Ġt ype
Ġa re
* -
i r
c reate
P ro
Ġ- *-
1 0
s hape
Ġcl s
un ction
Ġre quest
v ent
b s
== ==
Ġ[ "
ar ch
in fo
h is
er n
a re
w ith
ul d
embed ding
ma x
lo ck
Ġ k
A R
ut f
ĠU n
Ġn n
m in
d s
Ġres ult
app end
n e
( [
i eld
y s
w w
ta in
Ġu ser
Ġdist ribut
d a
Ġh as
m b
Ġma y
Ġn ew
Ġ la
Ġp ath
Ġ <
ext ra
ig n
Ġ ro
Ġt ransform
T ensor
v ersion
f or
li b
Ġ qu
To ken
g s
Ġ /
at ure
qu ence
Ġt ext
w ard
token s
il l
b atch
( {
l in
m on
'] .
ĠC o
che ck
Ġ ...
n o
inst ance
a st
Ġlogg ing
or y
Ġ http
ma in
Ġs peci
Ġ he
m it
Ġin st
pl it
A N
Ġtoken izer
0 2
Ġp rint
` `
fi x
Ġ all
ut o
Ġfor m
il d
is ion
co l
train ed
Ġma x
U T
i ce
n n
] .
se n
w n
[ :
value s
g roup
re ct
Ġcon t
logg er
un c
con text
Ġdistribut ed
Ġs ho
or der
h er
Ġt ry
Ġc heck
L o
T est
## ##
ra y
we ight
Ġ args
th on
u se
Ġas sert
ran ge
a ce
part ner
c y
Ġ le
F or
def ault
n ot
me thod
ch annel
pa che
Ġc an
S t
jo in
Ġc a
t emplate
n orm
Ġp er
. """
D E
pe ct
it s
ta ils
Ġh idden
S e
g re
ca che
id th
r ite
t ings
Ġ at
r ame
me ssage
Ġa c
t ensor
arg ument
r it
od ing
ĠC on
re quest
-------- --------
w er
Ġc oding
Ġc ol
av ailable
ver t
Ġ[ ]
Ġcl ass
u res
Ġf ull
st art
y p
Ġ 4
ĠT his
Ġtransform ers
se s
Ġp o
a ction
it em
D I
Ġres ponse
th er
Ġc ur
Ġ K
Ġb ool
Ġn o
l at
Ġspeci fi
token izer
Ġp ass
form at
Ġmodel s
v id
p en
comp any
u age
ang uage
m odule
Ġli c
Ġde tails
ur ce
Ġy ou
c s
al ue
Ġis instance
Ġsho uld
Ġd ate
i ct
par se
i as
back ends
b u
ar get
in al
S T
l er
m s
s p
ur ation
} )
mo ve
st at
. __
sc ri
ce ption
T H
m and
ar ray
i es
Ġl ine
ĠL ICENSE
de vice
Ġad d
* *
head s
E x
TI ON
up date
M E
w are
m i
Ġstr ing
id x
Ġrequi red
cor d
wor d
re f
0 1
Ġp art
() )
Ġ Y
t ers
Ġo b
Ġm odule
str ing
u mp
r on
ĠO doo
f loat
Ġo bject
n p
R E
ĠP art
ĠL ist
b y
param s
Ġt yp
se d
A L
ĠRe turn
Ġ load
ĠĠĠĠĠĠĠĠ ĠĠĠĠĠĠĠĠĠĠĠĠĠĠĠ
t ri
cal e
ment s
Ġel if
a pi
o o
er t
st ep
a uth
in dex
t ry
or g
P re
Ġuse d
Ġ j
i b
Ġo ut
Ġme thod
an ge
Ġ att
a ch
Token izer
la ce
Ġ` `
I mage
L E
Ġcopy right
3 2
IN G
Ġi d
res ult
Ġtyp ing
co ding
ens ing
e g
Ġlic ensing
ssion s
"] )
Ġw ill
Ġp ip
per ty
yn c
le d
s ing
li ent
s plit
ifi cation
Ġ log
s h
n ew
pro cess
N ot
in d
um m
o ver
Ġ |
fe ren
al e
' s
at ures
an s
iz ation
t rans
bs ite
g ing
] :
ctor y
L M
cor e
pre trained
Ġb ase
Ġm o
T ype
la x
Ġp os
t he
and om
di st
g ra
l ass
che d
Ġ json
embedding s
w rite
py right
d b
Ġm ask
Ġpar ser
Ġf unction
Ġme ssage
e c
r st
Ġ attention
Ġc ode
ĠA n
Ġ url
ro p
() ,
Ġdi m
t ra
Ġp ad
vi de
cl s
Ġcon text
ne ction
t es
ĠA r
Ġs ys
y le
pro cessor
Ġ+ =
C H
Ġ head
s ub
lay ers
ump y
a x
re am
ix in
ate g
Ġ{ }
Ġg ener
t f
F OR
ar k
po st
l p
Ġp y
channel s
pro perty
. "
Ġvalue s
Ġst ate
pa y
le ss
v ed
I S
wor k
ar i
vo ice
re e
R es
Ġ utf
ma p
o und
all y
s u
Ġex pre
p lace
u ct
ug ging
ĠCo pyright
t t
lo b
M A
label s
ĠD e
ro po
! =
ropo ut
q l
pro mpt
Ġ q
re qui
feren ce
vid er
res ponse
M odule
e am
Ġs ub
di o
re g
Ġ 5
g r
un k
Ġ( '
T rain
Ġv ersion
ot al
Ġli mit
F ield
bo x
Ġf il
1 2
c ab
Ġb atch
r un
Ġt rain
(). __
Ġ error
Ġw or
data set
v el
as h
Ġl anguage
se arch
fi l
input s
qu ery
alue Error
Ġwh en
P I
ĠI f
u al
li ed
ĠP y
Ġ range
' t
> >
Ġf loat
it ial
ĠT est
iz ed
ith er
e vent
i ch
ĠA N
Ġform at
Ġ !=
o ck
O UT
Ġ z
1 6
F I
lic ense
it er
scri ption
Ġ ]
C lass
p s
con v
u dio
sen t
E n
v ision
Ġf e
st ri
Ġpar am
ame ters
s ave
L ay
cont ent
ion s
pos ition
Ġ Q
Ġspecifi c
m ode
n s
Ġe ither
p h
Ġdi ct
==== ====
Ġb ack
so le
") ,
ww w
Ġ} )
U L
ĠC ON
pt er
Ġi m
Ġb u
F A
ĠAr gs
P E
re ctory
Ġh ave
f rame
Ġw rit
F ile
R AN
Ġs ize
"] ,
Ġlogg er
do c
p ad
Ġapp lic
ĠE x
Ġo ther
as ses
a mp
Ġi mp
r c
6 4
Ġo pen
g er
g ener
( (
id get
lo y
mi ssions
ĠY ou
test s
a k
Ġso ft
g n
op en
v ailable
ĠV ersion
Ġ> >>
Ġs h
Ġl in
D e
Ġ one
[: ,
Ġn e
. ")
ĠO R
G E
s ample
~ ~
M ixin
end en
TION S
Ġt f
p ri
mb da
Ġcur rent
Ġde vice
Ġc reate
ol s
Ġrequi res
Ġ( `
com mon
mple ment
ction s
ĠAN Y
m an
B ase
Ġs hape
st em
O utput
b lock
ĠV alueError
o b
lo cation
L ist
ar n
Ġ2 02
ar ning
ĠO F
Ġg roup
} ,
iv en
me ta
ĠI S
ad ata
O C
ht ml
ex p
Ġob tain
ĠI mage
Ġ valid
Ġqu ery
P ar
d type
c all
'] ,
ĠA pache
Ġon ly
Ġnum ber
IN D
i de
e mail
( __
Ġ{ "
Ġin dex
comp ute
att ern
D ata
in do
o pt
Ġd type
fe atures
indo w
Ġco m
C om
I TH
y stem
cl u
Ġr un
n d
f a
w idth
] ]
Ġper missions
Ġwh ich
t ransform
ta x
pect ed
L icense
" ):
ĠW AR
Ġ up
pa ck
field s
Ġsoft ware
Train ed
z e
o ur
FOR M
C h
Ġ end
vi ron
Ġwrit ing
di ces
t r
model ing
Ġ[ '
Ġst art
umm y
o bject
license s
Ġsup port
pro ject
TI ES
str uct
ate s
en coder
ĠW ITH
Pro cessor
ĠT uple
en code
on s
ĠWAR RAN
Ġa gre
") ;
E C
ĠLicense d
Ġse quence
a it
Ġexpre ss
Ġre ad
ust om
} ")
Ġapplic able
Ġimp lied
el ine
[ -
item s
s ale
ĠAn y
Ġ layer
Ġcomp li
Ġ right
ĠWARRAN TIES
ĠWITH OUT
Ġan y
Ġwe ight
lo ss
key s
ĠK IND
Ġg over
ern al
Ġcompli ance
set tings
Ġla w
L ICENSE
ĠB AS
ĠCON DI
s pe
Ġor der
stat us
o ptions
Ġdate time
ĠUn less
Ġagre ed
Ġgover ning
ĠBAS IS
ĠCONDI TIONS
a pache
Ġlimit ations
P T
ĠB ase
Ġcont ent
Ġt ensor
Ġhttp s
ro w
Ġhe lp
__ )
Ġt emplate
z er
t adata
lin k
ol d
Ġ kwargs
Ġm in
pa ce
Ġt arget
f unc
} "
Ġ val
ĠReturn s
ult ip
" {
Ġt rans
#### ####
Ġ extra
2 5
') ,
ce ptions
inst all
Ġdata set
cor es
we bsite
re turn
Ġa ct
e val
Ġoutput s
ag er
Ġpro mpt
Ġm ust
F ace
Ġg iven
Ġpro duct
f g
ist er
e y
f ace
ist s
` ,
ot e
loy ee
C a
D ict
p u
pre fix
Ġrequi re
che s
ok up
ĠH ugging
ig inal
Ġw he
S I
UL T
le an
http s
e ad
her it
ĠĠĠĠ Ċ
ribut e
pay ment
sel ect
b e
Ġu sing
l d
ro l
name s
FORM AT
x ml
ĠS e
Ġpos ition
lab le
od y
ta g
ck ing
Lay er
FA ULT
T E
Ġin ter
ri al
and ler
Ġp a
ĠHugging Face
ib le
Ġfor ward
t x
in voice
i o
ri de
quest ion
R L
Lo g
m at
lob al
` .
O bject
Ġcon tain
F orm
AT E
pp ing
low er
int ernal
V i
Ġ[ `
R O
Ġt uple
A uth
T he
at ing
Ġm atch
col or
Ġ argument
al led
o me
b ias
f unction
de scription
pt h
C o
int er
Ġo ptions
A B
Ġdo es
L I
n et
if y
lin es
Ġb ut
att n
on g
t able
Ġc or
py thon
Ġy ield
st ra
L ine
ĠD ict
ĠUn ion
li p
) ]
se ssion
enden cy
c re
ult i
T ext
U p
er nel
ut il
Ġi ter
T O
Ġ arg
Ġe ach
Ġit em
s peci
step s
ĠT F
Ġtoken s
Ġr andom
vide o
Ġn umpy
ol der
Ġw idth
i ces
se q
Ġm at
on ly
le ase
pro j
Ġn orm
type s
Ġs u
Ġa ction
Ġfi rst
p rint
point s
d ropout
Ġla st
f ter
t ask
Ġinput s
Ġ ):
ĠA uto
Ġpad ding
Ġre cord
I D
g ment
Ġc all
__ ()
C O
a pter
Ġ J
c ri
Ġo ver
Ġo pt
add ons
Ġre g
Ġdo c
de code
b in
A r
pa re
im g
ĠP ro
cl asses
A tt
N et
ber t
vo cab
ck et
to ols
ĠM odel
um n
ser ved
ĠD ata
Ġ view
lo t
Ġinst ance
l ta
Ġparam s
Ġt ag
ge d
o f
de coder
Ġa pi
C ase
r m
ut ion
c at
Ġa x
w ait
f ault
po se
s k
and le
sp lay
pa rent
= {
Ġset tings
ch ar
us al
ip eline
" .
x y
file s
lay out
ren cy
Ġ 8
Ġt emp
Pre Trained
ĠA ll
ateg ory
` ):
t mp
t arget
bo ol
re place
ex ceptions
D ep
al lable
output s
Ġan s
S et
st ock
Ġfile s
Ġne ed
i str
clu de
l ation
9 9
Not A
U n
weight s
st yle
Ġ1 0
Ġch ar
Ġget attr
Ġconfig uration
la st
ĠĠĠĠ Ġ
Ġ --
s g
le te
Ġim g
Ġlen gth
ched ul
Ġs ave
la mbda
it le
Dep endency
Ġb lock
p ass
cur rent
Ġ( "
ob j
00 0
N orm
Ġ //
re ss
Ġre n
di rect
o us
bu ild
gr ad
NotA vailable
ed i
á ´
ĠOptional Dependency
ĠOptionalDependency NotAvailable
do wn
ay s
con d
en ame
I L
o x
Ġs ample
Ġ" %
Ġcon v
n ode
o ff
ro ll
a i
ci al
M e
Ġe vent
d d
ad er
D ummy
Ġca che
ch o
Ġimage s
ro und
assert True
Ġt ra
co py
a fe
t ing
c cess
fil ter
norm al
stri p
P O
p r
c lient
meta class
s um
c lo
Ġa uth
ultip le
Ġwor k
z y
P ath
la ma
= ',
Ġp ack
Ġex pected
s cale
b le
check point
p atch
iz ers
ame ter
ver se
'] )
Ġal low
pp ed
Ġpro cess
re cord
W idget
c ent
Dummy Object
Y PE
v a
qu ant
ĠP re
b ar
Ġ 6
we b
d f
---------------- ----------------
user s
Ġco unt
Ġt eam
ot h
m atch
ĠIn c
r ate
end or
A D
f ore
Ġt otal
in herit
reg ister
ition al
Ġm ode
act iv
Ġright s
Ġ \
Ġ ent
a ke
ra w
al id
se quence
ĠW e
ro ot
Ġ{ '
m ark
L O
N A
Ġc ase
T T
de p
me an
emp loyee
c count
en coding
ang le
ifi er
he ight
Ġs ame
po p
ens ion
Ġm ore
Ġre served
us ion
c u
Ġma ke
ro ss
h as
ĠPy thon
a uto
t uple
= [
requi re
( *
({ '
Ġst yle
Ġf unc
C ON
ri x
Line ar
Ġcon vert
Ġ ],
` ]
l ated
' ):
ĠĠĠĠĠĠĠĠĠĠĠĠĠĠĠĠ ĠĠĠĠĠĠĠĠ
Ġin itial
att er
Ġv ari
form ation
f er
image s
") )
age s
ver y
Ġso urce
du mp
Ġst at
ĠL o
gra m
view s
ol ution
2 0
M P
r ary
le vel
int s
Ġcon nection
' '
o ptional
C T
act ive
EC K
do main
Ġcol or
u id
cont rib
ic al
Ġt ask
pri ce
( _
Ġf ound
ex ample
ĠN ot
po ch
ex ists
lo c
chedul er
ff er
e ction
Ġe val
la uth
CH ECK
a p
ur ch
code d
Con t
num ber
Ġ ..
Ġhe ight
ool s
U N
Res ponse
ke ep
d ent
in dices
urch ase
Ġdi rectory
Ġcol le
Ġe mp
s ql
Ġm sg
attention s
ad apter
ul ate
Ġpart ner
e ch
or d
Ġ' =',
il ity
ens ure
re q
Ġo per
f l
by tes
o urce
Ġp atch
Ġen coding
class method
r id
Ġst ream
de lta
Ġlo ss
O S
log in
s pect
Ġ Ċ
Ġin to
K EN
t ed
Ġp i
arn ings
ĠU ser
s he
p attern
ch unk
ent s
lo cal
su do
and id
ĠDe fault
s ign
b ug
lat ive
ms g
g le
set s
res h
Vi ew
g ments
ĠP ath
for ward
f low
Ġfil ename
Ġal lauth
speci al
ent ic
l ing
Ġor iginal
( -
c fg
Ġin it
d m
Ġcomp any
fe ature
Ġresult s
F loat
n ect
R A
ĠF lax
s cores
init ial
ser ver
ans wer
"] .
Ġof f
i ss
ĠD E
len ame
config uration
1 1
Ġin formation
un it
pro vider
Ġe mail
lat form
3 0
v endor
Ġi gn
it or
ig r
W ith
ĠC heck
M O
Ġro w
v ar
Ġ) ,
Ġv o
Ġo ptional
result s
embed s
= -
Ġf rame
Ġlin es
v is
Ġch annel
ĠC om
Ġex ist
G ener
i mple
Ġhas attr
dir name
ir s
b it
C ol
n t
Ġ ass
en viron
st ream
Ġtrain ing
Class ification
cri pt
ith ub
Ġh o
Ex ception
< /
Ch ar
Com mon
b ody
ch at
message s
S L
PreTrained Model
Ġse ssion
so urce
Ġ label
Ġwh ile
str ings
module s
ĠS et
Ġc re
} .
St r
: `
Ġn ode
q dm
ol low
ĠF or
TT P
Log ger
ĠT ype
f n
cu da
p at
con vert
Ġso me
Ġbu ild
: %
g ithub
s up
me di
Ġax is
ĠT o
Ġcont in
m ory
ĠĠĠĠĠĠĠĠ Ċ
fi lename
con nection
c le
Ġpar se
so ft
ab s
ĠR es
t on
pass word
Ġa wait
u om
mplement ed
Ġ" \
Ġ ver
ch ange
ome try
Ġcomp ute
Ġto p
oo gle
process ing
s ys
n umpy
tensor s
on t
Ġp l
Ġ ext
Ġweight s
L A
cur rency
tx t
a ded
to p
... ,
Ġatt n
s che
f et
Ġex ample
d jango
Ġp ri
Ġit s
st ant
rit er
ĠEx ception
TO KEN
pre sent
g ument
g t
ĠĠĠĠ ĠĠ
Ġarg parse
f lax
Ġs plit
le ment
par ameters
Ġw as
Ġli b
t otal
im um
Ġnorm al
Ġren der
Ġs cale
fi rst
an k
stat ic
le ad
ri ch
Ġ X
at ive
ribut ion
Ġname s
Ġob j
attr s
r andom
Ġse e
P P
Ġ} ,
ic s
bo ok
Ġmo ve
pp er
Ġm ath
ĠS t
Ġ" __
] [
man ager
Con v
Ġ1 2
Ġen um
q a
Ġpar ameters
nd array
a ise
ent ial
vo id
a in
log its
Ġse q
head ers
Ġ update
Ġun it
ĠIn itial
T ER
Ġby tes
f older
Att ention
Ġp ay
mb ed
s or
Ġk ernel
Ġas ync
w h
la va
Ġn ext
group s
. ",
Ġac count
Ġma in
Ġcontin ue
E L
or age
') .
Re quest
me tadata
Ġmessage s
i e
Ġs ql
Ġa b
======== ========
N ame
un ct
Ġ2 5
E X
~~ ~~
( **
a udio
Ġargument s
co mple
par ser
B ert
od oo
Test er
w ra
Ġst ep
ĠU RL
T his
n ext
Ġdoc ument
TI ME
Ġfe ature
(" --
se ed
Ġfil ter
l ang
Ġpro cessor
Ġg lobal
Ġspecifi ed
w o
ot her
com mand
al y
h r
Ġw arnings
pre pare
Ġex p
Ġ 7
Ġc lient
que e
zer os
c ategory
Re turn
pro b
R I
at io
quee ze
s rc
' .
b ot
ri es
Ġ2 00
Ġa fter
w ise
ĠT ext
K E
re ak
ue st
l m
Ġt qdm
vi ded
Ġ layout
Ġlin k
ation Error
ren der
p age
ex ec
M any
ĠP ar
1 00
t emp
ho st
s core
Ġen coder
0 4
Ġpa rent
D ATE
it ies
Ġ embeddings
se rial
ve ctor
Ġcolle ctions
c pu
s able
: :
Ġpre fix
D O
)) ,
Ġdo wn
r t
Float Tensor
ĠT YPE
iz ard
as ync
fa ctor
m m
n g
de lete
usal LM
read y
h ash
so cial
us h
Ġinst all
ĠC h
t tp
ing le
Ġc ho
Ġcor rect
Ġb ias
ar m
Ġs k
ber ta
Ġw ra
m er
Ġf ollow
EN T
Ġqu ant
Ġa udio
Ġ embedding
Ġid x
T ime
D o
K ey
scri pt
mbed ding
Ġhead ers
u i
ran k
CHECK ING
i que
ĠG ener
ge x
ĠI ter
as on
ex cept
F ound
5 0
ile d
LI P
Ġs ign
pre d
ĠĠĠĠĠĠĠĠĠĠĠĠĠĠĠĠ ĠĠĠĠĠĠĠĠĠĠĠĠĠĠĠĠ
in s
Ġb et
gener ate
Ġvo cab
v ari
ot ion
Ġans wer
Ġign ore
auth or
F e
G et
m t
Ġ> =
DE L
ad min
c r
f ull
Ġn on
Ġac cess
Ġkey s
gre ss
Ġde coder
il t
em o
') )
Ġ% (
do cs
ig h
DE FAULT
pre c
Ġ labels
Ġpo st
al es
d ay
Ġme tadata
Par ser
g pt
Ġ arch
f y
ĠI t
Ġm an
s ho
di fi
s queeze
im izer
Ġb ox
Ġpro vided
ĠCom mand
2 4
start s
di ff
le ct
am o
Ġback end
ub lic
d rop
Ġf a
Ġpro ject
= (
able s
ĠCon fig
con f
u ation
)) )
Ġhas h
T rans
f ind
s cal
u me
Ġlo cal
doc strings
U ser
k v
A PI
R o
ĠDE FAULT
q ty
stra ct
() ._
Ġro t
li ke
â Ķ
c ase
Ġst ride
f p
t itle
in ed
ac cess
ul ar
Ġbe fore
w he
I mplemented
Ġmethod s
ĠA PI
al low
Ġ" "
el se
Ġ keep
ĠNot Implemented
ist ory
qu en
amo unt
get Logger
f fix
ĠC reate
ro le
ho ok
Ġy our
di splay
. %
clo se
ic ro
ac y
ĠP IL
end ar
Ġch unk
sen d
en u
Ar gument
no wn
pl at
val s
Ġtime out
st er
Ġth an
alid ationError
M L
o se
ce ler
Ġrequest s
Q L
Ca usalLM
count ry
Ġ select
ction ary
ĠI mport
Ġ_ ,
Ġdefault s
m od
s afe
Ġs ort
Ġs ystem
Ġcom mand
Ġro ot
A n
Ġs che
comp ile
Ġen coded
Ġgener ate
p ha
Ġ1 00
w in
as sed
Ġre place
Ġde p
) ):
Ġdo main
re r
ge s
Ġb reak
ix el
P y
U SE
P UT
w indow
Ġj np
umm ary
aise s
ge st
m all
idd le
tri cs
C ode
or a
ator s
Ġf ind
zer o
test ing
ro t
co pe
Ġ" .
A I
res hape
load er
ut ure
NA ME
Ġf l
ĠC allable
Ġwhe re
roll er
starts with
s ystem
or s
cor ds
logg ing
Ġre t
Ġs pe
: ]
di c
ĠĠĠĠĠĠĠĠ ĠĠĠĠĠĠĠĠĠĠĠĠĠĠĠĠĠĠĠ
ĠInitial ize
li ght
ty le
_ (
struct ure
f ul
istr y
V ER
h s
er ature
Ġch ange
Ġ jo
extra ctor
[ ...,
e ar
Ġo ld
cur ity
KE Y
"] ["
ry pt
Ġco mple
trans pose
For CausalLM
Ġchar act
f fe
DI R
En coder
] (
Ġa g
m d
Ġreturn ed
Ġdata base
Ġz ip
Ġpack age
at ern
viron ment
att en
mplement ation
i a
Ġin spect
ribut es
2 00
Ġo ption
s li
Ġin voice
no w
e poch
de red
T orch
te red
D OC
Pro vider
Ġc ustom
Ġin fo
pi cking
Ġbe en
spe c
l r
ma ke
emp ty
Image Processor
Ġf in
dep ends
Ġunit test
de bug
doc ument
A ccount
ĠD jango
Ġinst ead
Model Output
ĠM e
o per
ch ild
du ction
Ġ ge
Ġse rial
py torch
ca use
E mbedding
Ġhe re
1 4
Ġth en
S er
date time
unct ools
he d
Ġf inal
gra ph
Ġhead er
block s
2 02
3 4
A da
z one
er r
pi x
I O
ĠF orm
ĠG et
iter al
form er
el l
S SL
Ġm ark
Ġth read
es ca
Ġstr ings
Ġp assed
er ate
Ġfe atures
Ġc lo
ĠNotImplemented Error
Ġcon sole
Ġs ingle
T uple
col umn
amp ling
s ide
FI G
######## ########
T ransform
train ing
g ine
Ġal so
Layer Norm
D ate
il ter
Ġma il
al o
Ġ< =
Ġp attern
c ard
s ync
ĠA tt
) [
(' /
Se quence
frame s
ens ions
0 3
ĠDefault s
st d
al c
ta gs
du ce
/ %
M ES
pi ed
Ġle vel
she et
it es
Ġh andle
andid ate
P o
s l
re port
social account
di rectory
dir s
Ġ" ,
line ar
Ġwe bsite
Ġthe re
ĠT eam
O T
de pth
path s
m any
trained Config
Ġt able
iz es
") .
valid ate
con ds
Ġwith out
Ġerror s
U P
Ġenum erate
Ġpy thon
me d
Ġg r
Ġpass word
F ast
Ġ video
Ġi ds
fo o
Ġemp ty
* ,
Ġp red
la g
Ġdi ff
ĠF ile
Ġ 9
Ġa vailable
Ġal ready
Ġreturn s
ic ode
ĠK ey
Ġobject s
S ON
Ġstat us
Q u
Ġre present
Ġp ixel
Ġw rite
Up Class
B lock
l anguage
pad ding
re pr
Ġre move
Ġla mbda
p urchase
exp and
g or
re move
st ore
1 5
function al
w arning
Ġt wo
Ġ` (
oo lean
gor ith
en able
Ġs rc
u d
Ġd on
we en
t ion
con nect
aly t
Ġre lative
h f
port al
re l
uest ion
off set
de mo
Ġ" --
lo okup
ol ve
Ġex ec
Ġ1 6
transform ers
wor ds
ugging face
c ustom
as ic
Pro mpt
Ġoff set
Ada pter
er as
ĠT ensor
head er
Ġs in
token ization
f fi
2 01
Ġ layers
to wer
Ġlo okup
Ġli ke
bu ffer
1 7
Res ult
h en
Ġre lated
S H
Ġextra ct
ĠImport Error
ro ute
Ġ[ (
port ed
V alue
__ ":
ci es
cho ices
U M
it ive
icro soft
I t
p k
st ack
requi red
Ġinst alled
sent ence
N o
In put
ach ment
H andler
, )
r and
fi rm
tri c
plat form
and ard
Ġmodule s
Ġa uto
Ġp ast
ffe rent
de rer
ut ton
Ġcheck point
Ġt r
([ ('
ĠD o
__ ,
M S
t ree
I T
Ġ question
Me ssage
) ],
ur ing
R aises
i mp
li mit
Ġapp ly
iss ing
if t
C L
f in
o ption
ed it
Ġw ant
Ġm ultiple
po ol
cor rect
U S
le ction
str u
\ \
ce iv
Ġst ore
Ġse arch
ax is
Ġcre ated
urn al
Ġse nt
Com mand
pix el
do ut
Ġ &
Ġre f
Ġdi splay
iddle ware
ol ver
Ġid ent
Ġfor ce
Ġres p
pl an
Ġ env
assert Raises
s pace
um ns
Ġval s
Ġin clude
Fe ature
Ġlog its
d ot
Ġp age
vid ers
Data set
quen ces
g lobal
MO DEL
ĠTo ken
ĠA dd
F a
a u
c an
ĠV alidationError
medi ate
Ġ embed
Ġl at
I M
SI ON
esca pe
st amp
AT A
s q
Ġbase d
p ol
U R
re direct
per t
Tokenizer Fast
A C
Ġw indow
url s
Ġc v
H E
il ar
Ġn et
E vent
im ilar
ig in
Ġmat rix
Ġpay ment
Ġsk ip
D ist
pro bs
all back
eg er
Str ing
ure d
ĠE n
ca st
ĠQ t
ĠIter able
ur ve
b l
Ġbe cause
load s
Ġact iv
b one
Con text
bo se
h ub
r atio
de ta
m ute
Ġle ad
O Auth
ĠT O
ST R
or iginal
Ġde scription
Ġdi ctionary
Ex tra
ĠH TTP
difi ed
] ):
g oogle
en der
le ft
Ġg ra
Ġs cores
In valid
CON FIG
c lip
d at
in es
1 8
at ic
ra ct
s d
s age
fe at
Ġdi sable
ter min
if f
yn tax
W arning
Ġ" <
co s
O L
ep s
fil tered
A ns
E D
Ġthe m
Ġgroup s
f inal
p ipeline
um ber
AB LE
H T
P ipeline
de c
la zy
Ġ2 0
vi ous
k ernel
Ġfollow ing
O P
Ġsupport ed
Ġ' /
OR T
Ġcont rol
F ilter
Ġbet ween
er o
F F
r p
} \
ut om
h andler
urve y
ĠH ttp
Ġdi fferent
n ers
re st
Ġpath lib
V ersion
extra ct
requi res
ĠO pen
Ġca ched
m ulti
} /
Ġex ception
in k
ra g
use d
ĠQ u
th read
St ate
amp ler
gorith m
ĠA l
Ġ1 4
ĠCo mp
M ask
l lama
ĠR o
b ers
E P
G B
re ference
at ches
Ġan not
Lo ss
Ġpo int
( ?
Ġ Z
1 9
In fo
Q uestion
p lot
qui re
IN PUT
Ġf unctools
ex pre
Ġ' .
add ress
Ġset up
ll m
ĠD ist
Ġch ild
MA GE
Ġtype s
" }
b row
5 6
unt ime
ER T
assert False
al le
te ger
In st
end ing
Tester Mixin
c ut
Ġpro vide
D S
token izers
mat rix
Ġcontain s
Ġj ust
ĠUser Error
W OR
Ġa void
is h
cal endar
Widget s
id ent
mail ing
de st
Ġs p
Ġ" _
e ometry
al ias
ĠO r
app lic
A l
w ays
â ĸ
ĠCo pied
ex ception
di ction
ent ry
object s
Ans wer
v es
con sole
Ġatt ribute
O per
(" \
frame work
I G
Y ou
Ġ ensure
re ction
s ms
Ġlib rary
sk ip
p g
Ġre tri
que ue
ĠPy Torch
p ip
un squeeze
C A
error s
U RL
Ġpro b
ta ct
E T
W e
th ing
i an
Ġre st
ci i
Ġno qa
'] ._
re set
cont rol
H ead
M o
ve c
Ġex c
il er
Ġra w
Ġchannel s
' })
Ġde pth
am l
ok ie
t s
box es
P U
Ġin dices
). __
D ER
o auth
Ġdoes n
Ġm er
ĠL ay
25 6
Ġc fg
mo ck
Ġ attrs
ateg y
g is
} '
resh old
time out
mi ssion
gr id
C heck
Ġre mo
comp at
B y
V ision
di s
Ġre ference
arm up
ĠP o
Ġle ft
) ])
C lient
G R
L a
c ert
Ġcomp at
T F
or ed
Ġc alled
it ect
Ġs av
ĠA pp
ĠU se
Ġpar ameter
Form er
Ca che
t ect
ĠR un
Ġcl asses
ib ility
le x
Ġme mory
ma pping
r f
r as
s ite
Ġt ri
Ġf ree
Ġa p
Ġthe y
ĠO Auth
00 00
Ġcontain ing
ĠT ransform
Co mp
_ {
t z
Ġo ur
Ġs ure
pro viders
t rue
Re f
att ribute
(" /
te am
Ġ vi
I s
le ave
Ġf p
ĠĠĠĠĠĠĠĠ Ġ
Ġme an
=' _
sample s
part s
pat ial
lo aded
ci o
re lease
Ġt er
Ġ" /
to col
cache d
tra ck
__ .__
C E
as ure
IN T
Ġ: ,
Ġlo cation
Ġexpre ssion
h andle
s ha
tmp dirname
co gn
igr ation
s a
Ġs cript
ol id
lic y
Ġsort ed
Ġent ry
action s
Ġcomp ut
h at
v en
Ġp ort
Ġd ropout
yn cio
Ġcan not
igr ations
" \
D i
v ers
Ġpro vider
AN D
Ġ202 4
D A
ath er
It em
i ent
Ġd rop
ĠA ccount
M an
s y
w ers
ab ility
St at
Ġtemp file
data class
V ec
et un
Ġb ody
e ce
ĠI D
ribut ed
ex pected
Ġuser s
PP ING
"] [
L e
ar ge
Ġdi rect
Ġpo ints
USE R
) }
he s
f uture
user name
Ġpath s
Ġq s
ha vi
Ġen vironment
- %
I d
ĠI N
MA PPING
n one
id ual
Ġgener ated
Ġ array
Ġs um
one s
ter m
Con sole
z ip
[: -
] ))
la in
Ġsh ort
s in
Ġdi r
Lo ader
Ġlog in
back end
> "
la ck
Ġ2 01
0 5
` ].
s ort
re po
Ġc alc
res pon
ance l
Ġset ting
ĠN ote
b os
Ġp e
b n
ut able
Ġde st
Ġwhe ther
ĠSe quence
ser vice
ĠAuto Tokenizer
f ast
g in
u pt
u ff
me mory
cor ator
auth entic
r ule
Ġ' \
ss ible
ac c
ES T
tag ged
se p
ype s
enden cies
pattern s
ĠType Error
ĠA uth
ho use
B ack
bo ard
exec ute
0 6
1 3
a fter
Ġ emb
re ward
par ator
Ġs core
g en
p ublic
con stant
test er
al f
T emplate
Ġcol umn
ce i
ch art
c c
angle s
Ġpi ck
Ġ' ''
w idget
Ġb in
Ġd b
F O
Ġ server
co st
ug h
d one
Ġ202 3
brow se
Ġi mplementation
Ġst d
ord in
v it
Ġthe ir
ab c
du le
Ġurl lib
cle ar
X T
und le
cor ding
j ust
u ally
valid ation
m al
sho w
er ies
ä ¸
Ġlic ense
g round
Ġ utils
pe ech
st op
Ġi o
Ġp latform
ĠW he
trans lation
Ġwor d
igh light
% (
sh ot
Ġread only
ĠAuto Model
O r
Ġ' -
Ġv is
Ġpre pare
Ġ25 5
Ġarch itect
. ,
ra ise
to ol
re c
code s
cho ice
ites pace
w arn
ĠG PT
a pt
ex port
Ġse gment
assert List
Ġdata classes
down load
ĠPre Trained
s izes
O ptions
P AT
Ġ_ ("
Q U
en ch
Ġc lean
Ġg o
reg istry
h one
Ġ heads
Ġ) .
h uggingface
Ġde l
pt r
Ġst ri
Ġsho w
sq rt
assertList Equal
Ġre verse
Ġpart s
ĠT ime
ifi c
ĠCon t
s ig
la gs
pa st
ĠB y
ces sed
M ode
z en
ĠO S
â ķ
Ġre direct
IN E
call back
Ġcharact ers
b a
mask s
P L
ro ugh
set up
Ġpri ce
un ding
un link
Ġcon d
Ġe ps
Pre trainedConfig
Ġc ast
el y
fet ch
m ote
B oolean
b its
Ġ --------------------------------
Ġpart ial
pack age
Ġsupport s
re lated
re ason
={ "
P AR
g ame
Lay out
ï ¼
initial izer
di ent
Ġ' '
in ference
ĠC LIP
Ġse cond
ĠG E
* ):
l ong
ag ing
ends with
Ġspeci al
Ġre try
Ġl r
alyt ic
(' --
iff usion
c rypt
u ate
Ġ err
app ing
app ly
c rm
Ġqu atern
activ ation
yn am
. ')
D ATA
ĠF ield
Ġtag s
Ġh f
`` .
static method
Ġstr uct
dist ribution
m enu
Ġin valid
pi ece
Ġtest s
g pu
s ummary
re lative
normal ize
T A
in sert
at er
ml p
Ġatt ributes
in valid
Se q
] ),
c li
n on
me m
P ool
Ġ et
ĠA d
template s
k nown
al et
work er
quire ment
A uto
B U
d ense
s cope
for ce
EN D
ĠTO DO
Ġs ale
speci fi
5 9
Ġch at
di v
op s
sing le
+ )
se gment
ĠN ame
Ġen able
r ust
Ġt itle
le ar
Ġdata class
Ġallow ed
g ate
Ġv ision
Ġdocument ation
Ġ" {
Ġb oth
Ġw izard
In teger
utom atic
Ġwhe el
whe el
Sequence Classification
g o
me trics
Ġre cords
Ġp ool
Ġquery set
Ġde sc
Ġd uring
ER S
In dex
not ification
dump s
2 2
C ho
d ated
u de
pa ir
Ġpar sed
Ġz ero
Ġarchitect ure
Ġno w
Not Found
> ",
S A
b utton
as sets
Se gment
prec ated
ĠB ert
Ġex ists
Ġca ption
De coder
Ġh and
Stat us
P RO
V I
ĠN o
alo ader
P RE
ĠCon vert
G roup
Ġ" -
ifi ed
Ġannot ations
de v
per ly
av g
ĠCon sole
alet te
Ġtemp erature
celer ate
: \
Ġm issing
li ve
Ġint eger
stra int
ynam ic
Ġt ax
Ġs low
wra p
Feature Extra
se e
ent er
qu ential
ci mal
cont ract
an not
Ġc tx
ĠO n
transform er
Ġin dic
position s
le ep
ĠT rans
Ġpre trained
FORMAT S
Z E
form s
Ġpre vious
Ġ3 2
Argument Parser
c ateg
Ġ[ ('
pro xy
Ġfi x
I ter
u ous
Ġdef ined
up lic
L U
TE D
Ġ' %
st orage
ro zen
jo int
r l
jo urnal
andid ates
s ales
Ġ vector
mo unt
OR S
Ġfunction s
ide o
A SE
A TION
Ġin dent
.. /
assert Is
m ixin
st dout
di ctions
sli de
Con d
ĠIn valid
der r
Ġcor respon
Ġopt imizer
Ġ[ {
havi or
Ġs ig
4 0
ex c
ex it
ĠU p
T ag
For SequenceClassification
Ġtag ged
H TTP
re try
Ġm on
Ġm ulti
ĠM ask
pe at
Ġma p
Ġselect ed
- >
g b
Ġas yncio
Ġdown load
h ip
Ġad ded
Ġal pha
AR T
Ġ202 2
e qual
Ġtime delta
j ax
Ġ[ [
Test Case
bu ilt
cri ption
) "
Par ameter
sh ort
quant ity
I MAGE
Ġu sage
H el
le t
ial izer
N ode
p ng
Ġt i
att achment
ee ded
Ġoper ator
ar ange
Ġe qual
Ġpip eline
D AL
ĠC a
Ġho st
d al
h ot
ut er
Ġst op
FI L
ex pi
Ġh andler
IN TER
Ġuser name
Ġremo ved
A dd
fi ll
pro gress
Ġuse s
c rop
ĠS QL
'] :
ĠV i
m ul
ĠO ption
ĠP O
Ġp op
ist ant
Transform er
t i
ĠP er
Ġdistribut ion
Ġover ride
] ["
ix ed
Ġin herit
ee k
An y
S ize
or ary
Ġal ways
Ġsh util
)) .
re t
en e
ant i
Ġ: ]
sign ature
diff usion
re gex
Ġs ha
ĠEx ample
B u
con tain
res olution
ter n
({ "
ĠQt Widgets
c lean
p an
ro py
he lp
7 8
est ed
"] :
Ġdim ension
exp ense
SI ZE
6 8
is ode
res ize
Ġr ate
c ure
Ġc s
AB C
Ġw o
et ri
Ġe lement
Cont ent
Ġexist ing
G PT
l ora
ist ic
stri de
cre t
l u
Ġj ax
bin ary
Ġbox es
Ġs afe
Ġcon s
mask ed
b ank
s m
ĠJ SON
A pp
s cheduler
al s
ver age
mon th
applic ation
Answer ing
ar ding
ub li
Form atter
ub le
Ġ ])
ext end
ĠĠĠĠĠĠĠĠ ĠĠĠĠ
Ġf ast
Gener ation
R GB
c ross
ed ge
ri ver
to k
Ġr ule
encode d
Ġitem s
t ot
Ġ attr
ch ain
co me
con firm
Ġact ive
Ġrot ation
in o
st age
gener ation
P R
` :
Ġc at
as cii
Ġre port
Ġs y
Ġper form
Ġ[ ],
D ropout
d ays
Ġ[` ~
sche me
name d
ĠS tyle
ff ect
Ġpo ssible
gener ator
] ],
b stract
Ġb o
Ġtra ck
PO INT
S tyle
g it
w d
Ġ' {
Ġe very
Ġt x
ss l
Ġsu ch
ur al
Ġ1 5
Ġl ang
C F
c v
m ath
co ll
Man ager
sel ection
Ġsu ffix
NA MES
CL AS
le ments
and box
indow s
STR ING
ĠW hen
Se ssion
riter ia
al pha
ĠR emo
' }
s i
ag ent
' {
ĠS o
emp t
activ ity
enable d
Ġg pt
Ġ html
8 0
w izard
ab el
Ġlo aded
request s
opt im
t en
ma pped
Ġse nd
Ġother wise
~~~~ ~~~~
R OR
cs v
Ġf lax
T YPE
query set
upt ools
ð Ł
ĠN O
Ġiter tools
s low
quest ions
per mute
Vi T
fl atten
whe re
Ġg rid
trans action
Ġf ail
Ġ" ",
__ .
Ġapp end
D B
m icrosoft
() }
DATE TIME
al t
ce back
is hed
so cket
feren ces
Ġvari able
W AR
p df
en o
ol ute
fil ters
Ġcom mon
vi ces
Ġe poch
Ġun ique
Ġsu ccess
on ent
Ġd ot
La zy
ue s
Ġab out
( ['
w ay
SE T
ĠWhe ther
Ġwo uld
s mall
ci ent
Ġdataset s
de ep
li er
ĠĠĠĠĠĠĠĠ ĠĠ
Ġgener ator
m y
Ġc ert
un ique
Ġdefault dict
S D
w armup
ĠS ub
f r
s ses
s urvey
Ġ ar
ĠM O
app s
s imple
Ġs imilar
vari ant
R un
f ree
Ġt mp
Ġpro xy
ĠCon v
V ar
Ġst ack
c red
Ġde lete
Ġnormal ize
C I
Ġs li
Ġa bs
pa ces
spe ech
FeatureExtra ctor
V alueError
Re g
Ġcho ices
Ġd one
Ġinst anti
ccess Error
Argument s
Ġap pro
a a
g g
ge os
Ġo p
ma k
ug in
pack ages
2 3
O pen
en gine
Ġi ss
Ġto ols
Ġco mb
IN FO
Cont roller
Q t
c md
Ġs n
istr ation
v ing
w av
re verse
ES S
ob ile
Ġspe c
Cho ice
Ġp t
res ource
lib rary
Ġcur sor
c la
he l
UT H
su ffix
f time
al ty
Ġma pping
proj ection
Ġass ign
6 0
u uid
an alytic
wor ld
exp r
ribute Error
Ġ' _
ĠS tr
dist ributed
. {
m is
Ġn eeded
con cat
mb ers
ign ore
action Case
pat ches
Ġsin ce
j ection
dim s
spe ed
Ġpl t
ĠL iteral
allow ed
C reate
on ical
Ġad apter
Ġver bose
A d
Ġs ite
Ġac cording
F rame
O M
Ġre set
Ġmo ck
D iffusion
Ġre c
AL L
celer ator
FI EL
are a
data base
se quences
Ġin clu
ĠRe quest
Ġvalid ate
Ġemp loyee
Question Answering
W ra
in ner
re tri
cur s
Ġ` ``
per i
p lay
} ",
Ġre po
lic it
Ġ3 0
comple te
P os
V AL
V alid
ig uous
ĠIn st
it ude
Ġimport lib
ĠB atch
edit able
A GE
m ary
Ġs imple
Ġme trics
Ġset UpClass
D irs
Ġf n
Ġc ategory
Ġp d
Ġ( {
EX T
T h
e red
g dal
ut es
ca ption
b lob
h istory
Ġt ree
Ġac cept
Ġrun ning
b r
} :
Ġf ont
Ġth rough
Cont rol
Con nection
ĠV alue
Ġmax imum
Ġcur rency
ph one
cent er
Dist ribution
] ).
Ġk eras
ne g
unit test
sentence piece
Ġ Ð
Ġcon f
Ġth ose
train er
ĠOr dered
qu ote
G I
in y
P latform
g its
Ġ rich
ĠM ock
PAT H
g ent
v g
Ġs yntax
pro gram
ĠN umber
ĠKey Error
stri ct
Ġtensor s
Inst ance
set UpClass
et ry
Ser ializer
l st
Ġme tric
Ġrequire ment
ĠLo ad
N O
l ers
x x
or ds
ĠC ore
Ġkey word
e o
t n
el f
Test s
Ġle t
Ġmat ches
Un ion
Ġb ar
Ġ_ ('
com mit
event s
uff le
2 7
D ense
ĠT emplate
em otion
us r
ĠW av
Ġsub process
Ġc allable
config s
bo oth
cur acy
Py thon
C LIP
e os
ra m
Ġname d
add Widget
CH E
W E
Ġ ._
ed itor
Ġde ep
() [
ĠC ol
Found ation
b eam
c ision
o ci
Ġw idget
Ġal gorithm
Ġs cal
Ġform att
Ġbu ffer
( \
L ong
re al
bo und
length s
LO G
ffi cient
= ["
ul ated
Ġf lag
Ġstate s
fl ash
c ancel
le g
Ġde lta
get env
dict ed
T emp
Ġn eg
to m
Ġse gments
Ġwe b
u x
Ġd f
E lement
ã ģ
Ġ $
inst alled
Ġpi cking
4 5
in clude
Ġbe ing
ĠR E
ay ment
main ing
R ange
pi ck
um an
Ġadd ress
Ġauth entic
ĠGE OS
M ON
O n
l arge
Ġm any
ĠL ine
ĠS eg
Image File
Ġmask s
Set tings
time steps
Ġver ify
. *
v at
Ġre al
Ġso cket
for med
Ġ202 1
sup ported
3 6
7 7
f ail
Ġtime zone
/ {
Ġho ok
h and
or igin
en c
Me thod
Col or
# !
Ġex ceptions
ect or
ĠM ulti
Re quirement
eg g
Ġneed s
col umns
u int
ser ve
to list
par ameter
time zone
ast ype
Ġdiff users
Ġs cheduler
Ro berta
L INE
in ation
Ġt rue
Ġnum bers
In ter
AT OR
ĠRe g
Ġro le
Ġ* ,
et ch
Ġby te
en i
Ġthe se
pro file
sp an
ç ļ
token ize
Ġgr ad
HE AD
m otion
w en
w it
Ġb l
çļ Ħ
) ",
= _
l ations
f ont
Ġa mount
li very
Ġlo op
Ġmo st
Ġreg ister
WOR D
v ate
Ġre q
Ġadd itional
comple tion
al ity
Ġp urchase
Ġst orage
ĠSe curity
ĠData base
L en
n ull
ã Ģ
an ded
stat s
: .
ass ign
res olve
opt imizer
example s
================ ================
Ġsche me
se curity
age ment
Se c
Ġwor ds
o w
re cords
ct x
ed irs
ss ing
unt il
ho ur
Ġare a
our ces
face book
A li
th reshold
Ġst andard
Ġcheck s
DE X
run e
DA Y
ific ate
y ear
er a
Ġtrans action
Lazy Module
e ve
f c
in f
ra ft
: ",
E d
ta il
Ġl lava
] ]:
Ġserial izer
deta ch
u it
iz ing
Ġpre v
temp erature
lack list
F T
cess ary
us ing
Ġfe at
Ġactiv ation
] ['
s r
ĠRe ad
Ġgener ation
Ġposition s
pert ies
Qu ery
S ale
U rl
re ceiv
ar ies
Ġde precated
pre v
'] ['
Ġsub class
PreTrained Tokenizer
Ġexample s
g res
Ġp k
Ġme ta
ho me
ir d
ware house
tra cking
ak es
Ġoper ation
st derr
F lax
Ġt re
Ġse conds
Ġal ign
Ġcount ry
D is
S ub
m ultiple
Ġse par
ind ent
b undle
Ġvari ables
D et
f req
Ð °
Ġt gt
De fault
Ġthread ing
B ox
se ction
Ġc lear
su ccess
Ġg t
Ġv ar
tes IO
FI LE
OC AB
soft max
) `,
w k
} {
Ġ" ")
ck pt
Ġ1 000
Config ured
TH O
be fore
I dent
S R
Ġc types
ĠT rain
pre cation
cei ver
b om
h i
æ ľ
and b
Ġ{ })
fe ed
com m
Ġlo c
ward s
Ġwor ld
200 6
B O
i form
ur i
Ġb s
il y
sc u
Di rectory
Ġres ource
In t
`` ,
`` `
Ġs a
ĠA s
ĠD is
roll ers
Ġoper ations
4 8
ist ent
ĠData set
Ġsent ence
re p
ul ation
ol y
Ġme ans
á´ ĩ
prec ision
Ġcharact er
Ġiter able
Ġvi a
ĠCore Foundation
Ġs c
ver ify
Ġex pi
AN G
For QuestionAnswering
MA X
A nd
mp ro
me tric
Ġpro gram
Ġen code
cont iguous
Ġapp s
ne ss
Ġno ise
sp atch
Ġload ing
RO M
she d
Ġsav ed
M ENT
ĠT ask
SE S
Ġle ave
opt s
Ġdirect ly
bos ity
3 3
con st
Se lection
Ex ist
Ġcontext lib
OC K
TE XT
Form at
B atch
H ttp
c ing
Ġ 64
Ġc andidate
Ġde coded
ad ding
Ġco uld
sc re
Token Classification
cket s
expre ssions
C ur
] ",
Ġw ay
il ing
Ġd at
pay load
Ġre ason
Ġs l
Ġa utomatic
Ġ' __
Ġb est
Ġse n
Ġdist utils
ender able
mak edirs
con tact
Ġnot ification
Ġwith in
termin istic
Mask ed
l ator
Ġde code
ron g
H O
Ġpro ble
rib e
json l
ĠAtt ributeError
T R
ma ster
Ġbe havior
Ġ< /
be ta
MP LE
price list
O ne
d ers
ĠM apping
SE PAR
Ġlo ok
ST ART
mi ssing
mis c
N UM
in v
id er
Ġor igin
ac cept
Gener ator
epoch s
A udio
G PL
k ze
s ampling
w s
ER ROR
Ġmask ed
inter mediate
Ġcompat ibility
MON TH
kze ug
Ġ util
Ġcomple te
I P
o graph
un ch
open ai
} ')
en ded
ha in
Ġpre sent
perly Configured
FIL ES
mpro perlyConfigured
0 9
im m
ĠN OT
Co unt
Ġr atio
= ['
work ers
En coding
Ġ202 0
Ġwra pper
Po int
G eometry
e q
Ġ* _
Ġpre cision
Ġopen ai
stract method
SH ORT
stru ction
Ġfree ze
2 1
se conds
Ġs ampling
am ma
ĠF unction
back bone
dataset s
p ed
s n
pad ded
âĶ Ģ
ĠMe ta
a ug
â Ģ
Ġ lower
up per
Ġl ong
Ġvalid ation
P er
Ġco s
ĠP lease
cur ren
ne ed
Ġbu ilt
sli ce
A bstract
F unc
T Y
(" .
Con vert
Ġblock s
node s
Ġwork er
Ġprocess ing
ModelOutput With
M ultiple
m rp
t ab
re mote
-- -
Ġst ock
Data base
Ġass oci
o id
Ġm od
cor er
LE CT
F unction
H as
ĠA S
ver ter
Ġspeci fy
For TokenClassification
fa ctory
Ġform s
Ġopt im
sche ma
Ġcorrespon ding
M ail
Ġset Up
Do es
specifi c
S to
V E
le ctor
am era
Ġapp lied
Ġattention s
Ġrender able
Ġc ross
Ġca pi
chunk s
ð Ŀ
ro id
il ities
ĠI mproperlyConfigured
url lib
not e
ans wers
ĠUp date
p ubli
s on
ur se
Ġs mall
ĠC lass
Cond itional
3 9
t iny
Ġdi s
Ġe os
Ġquatern ion
W K
class ifier
ran ch
extra ction
dist ance
' re
4 2
Ġs sl
Ġg lob
PE C
C ert
Ġget text
cur sor
Ġ5 0
fl ush
Ġstep s
SEPAR ATOR
S cheduler
Ġ Error
Ġs r
Ġm ight
Ġl lm
transform s
Ġcorrect ly
#! /
5 5
() ]
Ġe ven
Ġqu eries
Ġle x
Ġcall back
Ġpack ages
dat aloader
rest ype
n x
un et
get attr
ĠLay out
s leep
se cret
dec ay
3 1
J SON
Ġw arning
Ġse ed
Ġun icode
PO ST
ĠPo st
BU G
) ._
Ġ- =
par dir
ĠPar ameters
Ġcond ition
Ġ' <
pro duction
ĠG eometry
sen s
char s
S QL
] ])
b box
y aml
Ġ á´
LO W
Ġclo se
Ġpick le
F in
all en
fo und
CO L
NotFound Error
l s
se cond
he x
Ġm igrations
ent ries
Ġse quences
ci rc
iv es
Ġinter n
assert In
ĠM ark
his per
Lo ad
Ġact ual
Do wn
mem ber
B ar
W he
e ma
Ġre ceiv
Ġde corator
ĠP latform
Ġne cessary
ĠTransform er
P lease
Pro cess
with out
Ġrequire ments
Ġeval uate
" >
r ation
get item
che ma
Qu ant
ĠOrdered Dict
L GPL
S peech
V ideo
to ur
D F
u dent
Ġde bug
Ġw in
ers ation
Ġpro gress
00 1
H ER
h olid
i k
con struct
arg types
IN DEX
St ream
the ta
stra ints
Ġcho ice
3 7
d t
Ġ" [
() ))
pro ble
tra ce
Ġdoc string
Ġvari ant
serial izer
r ating
() ),
Ġ1 1
Ġconvert ed
var s
child ren
S U
f ra
vis itor
dot env
Oper ation
_ ,
Ð ¸
Ġre fer
Ġs ync
ĠĠĠĠĠĠĠĠ ĠĠĠĠĠ
Ġres idual
Ġme di
Ġx ml
Train ing
GE OS
tmp l
mark er
C re
D es
Ġb ound
ren derer
Lo okup
** **
normal ized
mer ge
F N
Q A
r gb
Ġi r
() `
pre ss
AL I
Ġfa ctor
Fa iled
constant s
coll ator
Wra pper
__ }
am b
ĠG DAL
wra pper
ĠStr ing
3 8
f lag
Ġc lip
__( **
Ch ange
etun e
Ð° Ð
S up
o lo
Ġi p
Ġinitial ize
P art
r ing
s rid
co pg
ir st
Ġ12 8
M ulti
Ġ( [
## #
av ing
ĠConfig uration
form atter
Ġbe ta
gra dient
VER SION
u f
ar ma
Ġs pace
Ġb ot
ot ation
Ġco ordin
per cent
ant ic
com ment
For Conditional
Ġline ar
Ġassoci ated
ForConditional Generation
b asic
ĠC ustom
Re ader
02 4
vide os
Ġchunk s
b tn
p ing
ve lo
Ġpy game
MP L
Ġmon th
Hel lo
i pping
di gest
cl one
Ġcon nect
Ġdim ensions
d ummy
l t
Ġo c
Ġw ait
ĠM o
url patterns
Ġmatch ing
Dirs ABC
d uration
ca usal
[ [
c ity
g on
g ger
re duce
() ):
TI C
Log its
Ġframe s
oper ator
Fa ctory
5 12
er kzeug
SE R
unc ate
Ġren derer
h alf
m ult
Ġro und
Ġsample s
encoding s
Does Not
ri p
Ġ( (
ĠB e
En t
expre ssion
4 04
9 0
m iddleware
en ate
fi scal
mo dified
ĠRo le
A ction
to day
ĠF I
bo arding
Ġwh at
require ments
Ġcalc ulate
Back end
DoesNot Exist
S elf
Ġde le
Ġb its
her its
For Masked
method s
Ġresponse s
vis ible
ench mark
ograph y
O K
P Y
Ġo wn
Ġto ol
ĠT h
ers on
Ġpro perty
Se quential
Ġrepresent ation
g a
q r
on ents
ad ded
Ġe lements
Ġraise d
val uation
ĠL LM
Ġcomp iler
DOC STRING
at ched
ge om
"" ,
ĠF ROM
GE T
ĠRes ponse
ĠInst all
b ad
r type
12 8
Par se
Col umn
################ ################
alle l
ĠLay er
count er
Ġnormal ized
Ġdep endencies
a e
k eras
Ġre gex
lo ok
card s
platform dirs
dis count
in ing
Ġre lease
Ġs andbox
ĠM ake
Ġal ias
part ial
Ġatt achment
Ġpay load
ï¼ Į
= %
G ER
le s
set ting
ĠO ther
ject ory
Ġ-------------------------------- --------------------------------
m ultip
ata m
File s
M iddleware
el low
ma c
base d
Ġreg ular
r b
al endar
ĠP EP
mo b
bs z
12 3
Ġtrans lation
return s
Ġsign ature
ĠAutoModel ForCausalLM
Ġ angle
ĠM obile
For Image
gra de
Ġup dated
Ar gs
0 8
L lama
m k
q kv
add r
Re ad
change d
PEC TED
V ector
se gments
str ftime
Ġan other
ho w
ĠE ns
Pro duct
pack aging
project or
ĠPreTrained Model
Long Tensor
C RE
l lava
ra ph
ck s
load ing
prompt s
Platform DirsABC
' \
N ING
T ra
in ary
me sh
Ġw erkzeug
__( *
ĠW indows
Ġsche ma
B ERT
Ġin ference
la p
ĠT ra
ĠO ver
ver bose
Ġac celerate
Ġallow s
ential s
] *
m igrations
Ġset attr
Ġtransform s
Ġauth or
ĠĠĠĠĠĠĠĠĠĠĠĠĠĠĠĠĠĠĠĠĠĠĠĠ ĠĠĠĠ
Has her
re peat
app name
ĠH T
Ġcan onical
Ġinter face
Ar ray
ĠOS Error
Ġpop ulate
Ġa ble
di us
ĠS imple
ĠData Loader
U RE
ce ll
Ġm m
ext ras
late st
cont roller
PI L
HER E
ext ensions
res p
ĠD et
us ic
ĠRemo ve
7 6
il der
ĠP ipeline
ĠHT ML
N umber
t ty
ar is
Ġc ell
Ġin v
ĠC ode
Ġor ig
ĠD ate
Ġle ast
Ġout file
M in
N ext
a inst
Ġs cope
Ġ[ -
Ġ1 024
vert ices
Ġpa irs
Ġstat ic
E num
O F
set default
Ġh istory
10 24
custom er
IG HT
. \
W hat
h u
Ġi mplement
am ing
ĠPre trainedConfig
W riter
ent ity
Ġex pr
ĠN orm
Ġpre diction
ĠPro mpt
Ġfa iled
ĠQu ery
pre dictions
Ġcol umns
(_ ("
fet y
" },
ar x
ut or
Ġis n
bo ve
lat ent
sub ject
ĠSeg ment
A G
F low
f s
al ign
di fy
Ġb it
ĠA c
ĠS E
po ses
ĠD i
edi rect
Or der
st andard
time stamp
ou g
Train er
i ase
j or
de tails
py gments
ĠB u
Par am
UN T
scal ing
8 6
e ed
Ġc red
Ġw ho
vo ices
Ġpy test
sche dule
live chat
il on
ĠA CT
po licy
Ġload er
UL L
sens itive
c um
mo st
add itional
ĠĠĠĠĠĠĠĠĠĠĠĠĠĠĠĠ ĠĠĠĠ
CHECK POINT
ffi li
asure ment
arx iv
A A
Ġt z
Ġf lags
ĠC F
man ual
Ġ escape
di rection
Ġst age
Ġpy torch
}" .
fer red
Ġexp and
Ġautomatic ally
" [
Ġa ffili
form att
ĠN ew
ĠG oogle
Ġview s
rt ual
Ġet c
n ed
Ġt akes
pt ure
ri ces
check s
run cation
Temp orary
* .
H e
t un
Ġ ()
pl us
Class ifier
PT R
Ġtarget s
Ġgra ph
Ġsn ake
Ġaffili ates
Ġf mt
me l
qu atern
part ition
Ġpo se
Ġgener ic
Ġhash lib
Ġrelative delta
3 5
R ep
c bo
r ins
or k
or ies
Ġf low
peci fi
ĠAtt ention
assertIs Instance
N OR
Ġ rank
arg in
Ġsup p
Un known
dep endencies
imp li
deta il
ForMasked LM
p layer
at ial
di sable
Ġ1 99
EN G
Ġinstance s
Ġa bove
ue ue
li ct
ul ary
sp atial
0 7
ut ed
Ġc rop
Ġb om
ĠC an
Ġun pack
ĠG PU
Ġversion s
spe ction
django project
S ource
al ys
ge ometry
Ġ2 4
ist ics
Ġse p
Ġlength s
ful ly
Ġge ometry
G RA
link s
ĠPro duct
Ġkeep dim
: -
Ġco okie
Ġtime stamp
c ss
e ver
e lement
y ellow
Ġc ard
un iform
ensor s
ĠPar se
Len gth
ĠEns ure
st able
Ġc hain
Ġre cogn
ĠS er
def ined
us age
Ġcode s
CO UNT
Ġquant ity
rel u
Ġbin ary
> `.
b art
r hs
Ġt ake
ut m
alo g
ĠHttp Response
] +
un der
Ġdi rection
ĠM ail
Ġ25 6
expand user
Ġnet work
Ġprob ab
Ġ å
re ctor
time sheet
ĠĠĠĠĠĠĠĠĠĠĠĠĠĠĠĠ ĠĠĠĠĠĠĠĠĠĠĠĠĠĠĠ
Ġwe re
gener ated
Ġfin ally
rand int
or ig
Ġn ull
Ġdi sk
ĠE X
Ġsig ma
) `
i mplementation
ass istant
ic rop
text s
Ġident ifier
Ġsli ce
2 6
R el
Ġ" )
un ity
arg v
ĠL lama
Ġh alf
cs rf
net loc
ĠAuto Config
icrop hone
W S
(' .
mb ol
eg in
ĠOpen AI
d raft
f lat
g l
w riter
99 99
Ġconnection s
Mo ve
ino v
on change
con ci
Ġst ored
Ġr ust
Ġ5 12
Ġfe ed
au ss
tect ed
O ver
c andidate
g ab
Ġf older
Ġ' ,
ke le
pos it
over ride
R etry
T ool
j pg
Ġt ab
Ġ[ ])
ho uld
comp are
Ġtime s
trans late
reg istration
cond ition
require ment
W N
Ġpro cessed
port s
Multiple Choice
9 8
al g
Ġin side
Ġnot e
sp in
'' '
Ġho w
Le vel
see k
uplic ate
B ER
Ġcon n
(' -
be at
Me ta
alys is
C C
C allback
G HT
S ta
al ance
Ġp lace
ĠT ag
ĠL O
ĠIn stant
Re cord
Ġform atter
ib rary
ĠĠĠĠĠĠĠĠĠĠĠĠĠĠĠĠĠĠĠĠĠĠĠĠ ĠĠ
vis ual
alyt ics
ĠMO DEL
N I
le v
ĠAN D
Ġans wers
Char Field
> \
ch or
Ġm y
(" %
Ġg ot
Ġset uptools
ĠE val
act er
Trans actionCase
âĸ ģ
âĸ Ī
C all
o c
Ġc andidates
Ġin sert
rom o
ĠĠĠĠĠĠĠĠ ĠĠĠĠĊ
ĠR ep
te ction
DE BUG
ĠCon struct
25 5
select ed
We bsite
Ġmer ge
compat ible
ĠPO INTER
publi shed
C S
M ax
Ġ queue
Ġma k
Ġapplic ation
Base Model
Ġtensor flow
Ġjo int
b atches
n an
an it
ol ved
ĠĠĠĠĠĠĠĠĠĠĠĠĠĠĠĠ Ġ
by te
Ġpl an
j np
de livery
__ ",
read er
mat mul
color s
task s
Ġeval uation
Ġspe ech
ĠOn ly
Ġinstanti ate
Ġf ew
Ġre size
qu at
(' \
tra ct
Ġcom mit
Ġcase s
j i
Ġp ublic
Ġde tail
ist ered
Ġcheck points
sh ift
Ġjo b
posit ory
E M
c ument
i re
Ġn ested
con s
cy cle
Not e
Ġcustom er
pol ate
OP EN
" })
A PP
A ccessError
co okie
Ġbe gin
ron t
Ġexp licit
6 6
f it
ro om
Ġb ad
() ["
Ġd ummy
ic ing
Ġpa ir
Embedding s
Ġlat ent
rector ies
I f
me s
class ification
Ġon delete
cre ment
Ġtask s
sho uld
term ine
/ #
B L
s ampler
Ġpre vent
Ġ4 2
cre ated
Ġcre ating
Time out
Ġag ent
ĠInstant i
G IS
q s
ĉ ĉ
Ġ until
al ize
ge lu
pe t
ident ifier
Ġcompat ible
Valid ator
ForImage Classification
O ptional
re ed
Ġa round
Ġm u
Ġon ce
Ġsh ift
03 3
release s
sort ed
Abstract Model
aris on
' "
c ron
} ]
ä »
Ġde c
li es
ab stractmethod
Ġreg istry
Ġ6 0
Ġpi pe
x ies
ad apt
Ġdef ining
and ing
ĠW HERE
---------------- --------
FI X
clo sed
ĠGener ator
Ġstri ct
hel lo
circ uit
) ;
) `):
7 0
P ast
a w
} _
Ġp layer
lo op
pe ft
Ġ` [
Ġres olve
dim ension
ĠIn put
Ġad apt
Ġport al
Ġintern al
7 5
Ġopt s
> ',
B art
f alse
Ġc enter
Ġto o
Ġmin imum
fet ensors
ient Model
cred it
d river
h older
er ic
Ġ""" ,
ĠL lava
ces ses
Ġad min
Ġback ground
Ġglobal s
ĠIter ator
stru ctor
/ <
lo sses
Ġa st
"" ",
Ġd ay
int ypes
res ources
valid ators
Log in
Ġent ries
Trans ientModel
b egin
} }
qui val
comp iler
mat ches
Str ategy
Ġfl atten
concat enate
Ġa verage
Ġme m
vo icing
fin ished
authentic ate
b ill
p ages
Ġ" ".
Ġd t
ĠO utput
ĠM odule
ep isode
Ġact ually
Ġman ager
Ġformatt ed
b est
Ġw ell
ass word
mple ments
pop ulate
curren ce
a f
i ck
t k
me mbers
Ġs he
set Up
Ġco ver
Ġh uggingface
ĠP ack
Ġla zy
ĠRun Code
etun ing
Ġneg ative
scu ss
L S
y ter
or al
ex ist
up yter
ĠS up
Ġl on
ĠĠĠĠĠĠĠĠĠĠĠĠĠĠĠĠ ĠĠ
) ',
. )
S ign
d raw
th is
em ory
ĠIn dex
no ise
Ġmat rices
wh itespace
Inst all
ĠID s
) (
C ross
å ı
ur ces
di sk
12 34
On ly
Batch Norm
g ather
Ġ questions
Ġt list
Ġin herits
Ġs patial
Ġb box
att ributes
ĠB ack
Ġy ear
Ġretri es
- {
R ST
V A
i ap
di gits
ĠS peech
Ġst ill
ĠG L
ĠG roup
cont rollers
sup er
Ġ200 6
Ġge om
202 3
si red
wit ch
L LM
b log
w eek
ĠE mail
Ġca usal
TIME OUT
. '
p lain
p isode
Ġc r
Ġh ighlight
Ġ{} ".
function s
( ["
B utton
ĠP os
environ ment
lead s
P a
re et
Ġre name
Ġ' --
il ding
ĠT ool
Ġex pect
'] [
net work
medi a
Ġquant ization
ĠGener ate
Date time
Ġprovide s
kele ton
2 8
M T
M IN
N ew
Ġen gine
Ġlat ents
ĠComp ute
o led
v an
ic le
ĠA B
ver bosity
Ġk now
Ġro uter
St art
MA IL
Col lator
abs path
ANG U
oug h
B e
S ampler
r untime
ed ges
and as
ul er
get her
version s
Token s
sp ans
A ct
Ġ est
ro unding
Ġs ummary
ĠĠĠĠĠĠĠĠ ĠĠĠĠĠĠ
ĠO GR
qui red
Ġro ute
Ġevent s
uid ance
ĠAuth ors
ĠVi ew
mob ile
D L
l atam
w ave
Ġd ue
ĠA I
(" _
et adata
Ġex port
Ġtoken izers
num bers
min al
LM v
cli ck
2 24
[ /
k arma
ĠS O
ĠI O
ver sed
ir seq
pri ate
oper ations
sy copg
b lacklist
f name
Ġf ill
Ġre duce
end point
im ation
iv ely
Ġ{} ,
Ġfloat s
activ ations
Ġsche dule
dic ate
G RO
S u
h y
se ssions
ĠA da
init ion
lat ents
Ch at
TE MPL
Ġass ume
enderable Type
> <
n a
assert Not
yn ch
Ġsav ing
9 6
Ġ ðŁ
al gorithm
Ġp ot
ex clude
do uble
pa red
pre diction
req s
Return s
c f
p ending
ro ad
el ines
Ġcon stant
res sed
count s
mo id
arch ive
Ġwork s
ĠType Var
Ġmark er
âķ Ĳ
peri ment
R ID
l hs
ut ing
if est
gre en
CH AR
host name
Ġpattern s
Ġrepresent ing
Ġlex er
) `.
: ,
æ ĸ
Ġ join
Ġre l
Ġto k
Ġd uration
(" -
Ġpro file
ĠR untime
ci py
Ġx y
unk nown
ash board
ĠTest Case
Ġcurrent ly
Ġcall ing
sup p
ĠConfig Tester
acc um
Ġappro priate
ynch ron
> '
T ask
f ine
s v
Ġ1 3
Ġl ora
Ġh our
layer norm
RE CT
sub process
tr f
bl ue
E K
O LO
Ġm ute
py test
Ġproduct s
={ '
Ġtra ceback
Ġinitial ization
Ġcolor s
ĠAd ded
A UTH
E W
ĠS SL
Ġh ome
kw arg
part ment
ĠAr gument
Co uld
CO DE
Ġsign al
Ġcomput ation
n b
at Code
Ġf ace
co co
Ġdef ine
int eger
Ġpro jection
ĠM igration
ĠB SD
default s
quant ization
Ġabs olute
Whe el
iase s
k it
Ġ ?
Ġ low
se en
ext ension
ca p
ĠĠĠĠĠĠĠĠĠĠĠĠĠĠĠĠ ĠĠĠĠĠ
Ġmo dified
Ġag ainst
ĠQu ant
Ġenable d
P ayment
ck er
ĠL ink
ĠA sync
Ġres olution
00 02
Ġqu ot
stream ing
cei pt
T ip
c er
u ide
de e
Ġ( ...,
Ġsuper class
Ġqu ote
Py Torch
We b
Ġpe ft
free ze
b b
i os
j it
k pt
É ª
Ġi mplemented
al ized
ĠS table
uto ff
yp ed
}) "
man agement
Ġwra p
Ġtr ust
Ġstri p
Change d
5 8
S h
i er
å Ī
or ity
Ġt type
Ġre p
qu eries
Ġtorch vision
Pro ject
Ġcontent s
Ġign ored
vari ance
Ġmail ing
k ip
Ġ edge
in to
ar range
as p
Ġb asic
Ġdist ance
gre g
:` ~
ĠCa che
beam s
C ustom
_ .
Ġ service
en um
Ġ" ."
un icode
Ġco st
per missions
AS S
LE D
content s
Ġcom ment
cre en
Ġext ension
plot lib
contain s
Ġmedi a
m id
al k
ro berta
Ġs paces
Ġde terministic
Ġu uid
qual ity
sh ip
Att ribute
exec utable
ĠCh at
Classifier Output
D rop
Ġre d
Ġin ner
mo ves
old ers
bin s
UN K
Ġnames pace
E val
V is
b ine
Ġd id
for um
checkpoint ing
Ġrow s
ĠCont ent
Ġ[{ "
Add ress
FIEL DS
: ])
N N
t ile
Ġp lot
Ġde termine
qu are
ight s
Ġpre dicted
bu f
iss ues
I F
(" <
Ġse ns
pol ation
E AR
S chema
V OCAB
r ad
od al
Ġg amma
Ġen c
In itial
row s
Ġnode s
WOR K
Ed it
Ġb and
ĠC ross
av ed
Ġad just
inter val
Ġcomple tion
Ġshort cut
widget s
Diffusion Pipeline
neg ative
D jango
f init
p il
re v
Ġc md
di spatch
ent ence
str ategy
Ġcon tact
Ġdi rectories
Ġth reshold
Ġch art
Ġinclu ded
Ali gn
rins ics
S pe
[ __
e le
l int
w rit
al location
Ġs ide
ma ging
res net
Ġuse ful
nn x
Ġpad ded
Ġfil ters
iter able
ĠCh annel
Ġmark up
rag ma
B E
D im
L ANGU
a z
e ck
in validate
Ġre mote
Ġs im
up on
Ġh app
Ġse ction
ĠBase ModelOutputWith
Ġcall s
Ġlink ed
ĠLine ar
S cale
ro spection
iz ations
Ġco ords
Ġst dout
mb ols
argument s
Ġq kv
Ġfilename s
command s
oper ation
CA CHE
' },
V alidationError
Ñ Ģ
an e
Ġre maining
Ġw andb
Ġd s
Ġbe low
Ġpre dictions
Ġqu at
fix t
St orage
Ġsh uffle
reward s
ĠCont rol
Tag s
hand lers
c as
h params
s il
v p
æ Ĺ
Ġ# #
__ ]
Ġ1 8
pre ter
list dir
are house
Ġhas hed
Ġcre ation
built ins
R ES
i ally
s im
at is
Ġf uture
() ).
Ġcon struct
Ġex clude
base name
Ro le
Ġquatern ions
Ġ([ `
5 00
C allable
ty ping
}/ {
Ġstruct ure
M atch
S ystem
T EST
a ken
µ Ð
å Ĳ
Ġc la
Ġre ward
com bin
part ners
Ġgener al
activ ate
Ġter m
X X
b old
ge o
lo or
code Error
ĠIn dices
Ġpart ners
post gres
Ġtrain er
Ca ption
Auth or
Ġjo urnal
Ġinclu ding
allen ge
/ ",
B AC
d ynamic
p m
Ġc y
Ġp ragma
ject ed
cal lable
Pro xy
processor s
ord ers
FIEL D
B ig
L anguage
g lob
o ser
Ġre v
Ġw ave
ĠS ale
len der
cur r
EC E
ĠMark up
G L
M PT
b et
e ach
on nx
en cy
ro q
Ġp sycopg
pp ol
lin en
Ġclass ification
run ning
ĠForm at
tot ypes
? )
y olo
è ¯
he re
Ġf ake
Ġf etch
ol ume
ĠThe se
Ġint eg
jo b
umm ar
Ġsub ject
mer ges
ĠDo es
Ident ity
amb da
w arnings
Ġ emotion
Ġre lation
Ġs m
Ġ' ')
Ġ1 9
Ġex pert
ĠF irst
ĠW K
bu ilder
pri mary
tax es
authentic ation
auss ian
> ")
G S
p alette
r aries
in spect
Ġs urvey
ac celerate
ĠH o
Ġsu ite
ĠGener ic
WAR NING
Self Attention
K e
T rust
ĠP ip
Ġpro j
... ")
Ġreg ion
UN DER
Ġsome thing
COL OR
b us
Ġf ra
ca de
jo ints
RE AD
off sets
abs olute
Bert Model
Ġvocab ulary
document s
C UR
b right
in fer
Ġd ynamic
ĠS h
Ġex it
pre process
Ġcheck ing
Ġsoft max
Ġwra pped
lr u
yntax Error
Ġsepar ate
ĠOther wise
ĠPipeline TesterMixin
F rom
U E
b ig
p ush
s w
re ater
Ġp andas
Ġe ffect
if ted
ĠN ode
Ġtime steps
Ġarg types
window s
Ġindic ates
Ġfix ed
ĠValue s
eni ed
Ġreceiv ed
Cre ated
Ġdele ted
S Y
m fa
q web
s imilar
v ance
É ´
de vices
pe g
') ]
Ġse parator
om ic
cal led
ust er
ĠIn t
Module List
Ġend point
LA MA
ĠRuntime Error
, ))
9 5
ro gram
ri c
Ġpro duction
unc ated
á´ ı
rot ation
lex er
Ġtre etune
TEMPL ATE
B T
de tr
Ġa ctions
Ġwh itespace
Lo cal
Ġle arning
PI ECE
Auth entic
ĠTensor Flow
" /
h uman
Ġ âĶ
on boarding
ce d
Ġm ultip
ĠF ace
Ġli ght
Ġun et
sc ribe
Ġpo inter
sh ard
ĠĠĠĠĠĠĠĠĠĠĠĠĠĠĠĠĠĠĠĠĠĠĠĠ Ġ
role s
alc ulate
Ġmer ged
Cur sor
4 7
I mport
e ft
å ¤
Ġp ut
ue ss
Re LU
([ ])
OUT PUT
Ġti ed
Ġproble m
uf act
" <
= __
P l
c andidates
} ',
ã Ĥ
æ ĺ
Ġ ~
at ype
Ġi mplements
Ġw eek
Ġw intypes
is o
Ġpar sing
Ġ< <
DI A
Ġexpre ssions
va e
annot ation
proble ms
M enu
c d
h ore
m ass
Ġf rozen
Ġde cimal
em ma
Ġg en
Ġcur r
map hore
ph as
ĠWe bsite
emo ji
Ġchild ren
Ġcomput ed
Ġperform ance
ĠNO QA
oly gon
UNDER LINE
O ption
` )
Ġde mo
Ġde sired
pre ad
Ġr ather
SE LECT
Ġy et
dict s
ĠUn icode
Ġwra ps
short cut
scre en
B lip
S patial
U ns
c m
pt ime
Ġtext s
Ġle g
For MultipleChoice
AL LOW
Up date
eps ilon
Ġbs z
: ")
M M
f ference
g i
h ing
n dim
r at
an ies
ro s
as set
fi ed
Ġ' ',
pro tocol
Ġr hs
lin alg
eg acy
Str uct
unct uation
SSL Context
Ġexec ute
deep copy
4 00
D ING
m g
Ġ es
Ġp rune
Ġme sh
Ġad ding
Ġchar set
ĠPo int
Ġiss ue
Ad min
Ġcanonical ize
ĠBu ild
h n
h ighlight
Ġ sel
ut c
Ġf name
Ġf allback
Ġb undle
ĠP adding
ĠU sed
Ġy aml
Ġ: =
ĠN ULL
ĠH idden
Ġfunction ality
En vironment
Ġcount er
Ġbo unding
Ġpk g
lev ant
M AR
a ign
f unctools
k b
Ġc kpt
con n
par sing
im it
Ġtra cking
ĠPar ser
]( ../
5 7
P S
S O
] {
Ð ¾
me asure
ri er
Ġcon st
Ġra ster
ĠY OLO
MA G
ĠSe ssion
Ġstream ing
Ġchange d
ALI AS
( ",
l n
Ġw rong
__ "],
pro perties
ĠA UTH
Test ing
Ġper mission
En gine
ĠBy tesIO
Temporary Directory
> =
A s
I ME
P ES
as array
Ġw armup
Ġcon straint
ĠS ample
ĠS patial
Ġimage Url
ĠE vent
lin eno
Ġiter ator
Po st
Ġrule s
C ERT
b g
v t
Ġt idx
Ġc ore
Ġre pository
ex er
con straint
raise s
Ġhand ling
Qt Widgets
ront end
pread sheet
Q ueue
d Tuple
e es
f d
f lags
m as
ä º
re conci
ce ive
Ġs d
ĠS ec
ĠD on
Ġk nown
Ġent ity
Ġframe work
sl ug
Ġdiff usion
rp c
sha re
Ġ201 8
pecifi er
\ .
on line
de lay
qu bits
ĠM an
Ġv endor
com ing
AS H
has her
ĠDist utils
Iter able
1 000
[ ^
f allback
s alt
Ġ selection
ar s
Ġre arrange
ĠL anguage
Ġme mbers
Ġme gab
mo oth
ĠCon text
cre ase
off load
sign up
Ġab c
SR F
] }
Ġde coding
Ġ( -
ĠA ss
ĠS hape
Ġas k
all close
am ba
Ġse en
RI GHT
ĠPreTrained Tokenizer
SA MPLE
()[" __
E MAIL
P ASS
W idth
c riteria
i con
p in
t list
er m
__ ':
") ]
ĠS P
ac celerator
clo ud
ĠSo ft
Ent ropy
Cross Attention
lender bot
L ink
re quen
re cogn
Ġ" âĸģ
Ġ# ##
is file
ig rate
== =
cal c
Ġper m
Ġpart ic
Ġiter ation
EX PECTED
ud ge
au x
contain er
O f
R edirect
b f
me ga
Ġp ur
ra id
Ġ* =
ĠI MAGE
ĠM icrosoft
ub l
ock et
Ġposition al
Ġmat plotlib
ĠĠĠĠĠĠĠĠĠĠĠĠĠĠĠĠĠĠĠĠĠĠĠĠĠĠĠĠĠĠĠĠ ĠĠ
Date Time
Ġlead s
Ġgra dient
Iter ator
B ASE
E mail
N eo
in ds
an izer
ut ions
Ġl m
Ġh aving
im odal
ĠV ideo
ĠH e
Ġca p
Ġup per
202 4
Ġnet loc
("/ ")
cas cade
Entropy Loss
! ")
ent ly
str ptime
Ġcon firm
Ġlist s
Ex ec
Ġlog ic
RO OT
Ġinitial ized
Ġpri mary
script s
stru ctions
Ġlat er
Ġlicense d
leg acy
HO ST
b ench
Ġp alette
ent ropy
li sh
ĠA ccessError
do ptions
op le
([ [
ref resh
Ġsh ot
Ġsh ard
cre te
edi a
riter ion
Value s
Ġprice list
Fin der
S S
} </
un pack
up load
Ġg round
') ],
ĠR ich
av es
Ġlo t
Ġk v
CLAS SES
Ġoc cur
adapt ers
J o
S lot
s olution
v h
Ñ Ĥ
ĠO per
Ġh igh
Ġg ui
Ġra g
cy an
ST D
tra j
Ġone s
Ġne ver
tr ust
Ġfunc s
render able
plan es
WE EK
ENG TH
ĠInstanti ating
F R
S plit
Ġ ,
Ġt imm
Ġre peat
Ġin fer
Ġb oolean
get text
EN TI
Ġtest ing
Ġpre process
Ġro ut
parse d
Ġformat s
Ġinter mediate
Ġpa per
IM AL
ĠDist ribution
Ġbl ank
" ^
P ORT
R emo
W in
s corer
Ġ" '
ort al
ch ine
Ġm igration
co e
ãĢ Ĥ
Ġdat aloader
LANGU AGE
H istory
m ime
Ġs ales
ĠS to
In voicing
fa iled
ĠData Collator
istr al
Ġcomple ted
? \
L abel
de t
Ġma c
ĠU Net
decode d
chedul ers
MO D
Gener ic
termin al
ĠAs sert
Login View
in ion
de l
ur ak
Ġm enu
ra cle
(" .")
Ġdi lation
pre view
os v
ĠE mp
Ġ... ]
loy ees
Ġtrans late
99 9
Ġconv ention
Pool ing
CLAS S
cla mp
GRA M
CrossAttention s
T RA
g loss
i li
pp ort
Ġstr ategy
per mission
ok ies
St ore
Ġwrit er
dep end
holid ay
gloss ary
L ENGTH
M issing
S ave
T RI
V AR
f mt
r ng
fi r
ĠS ign
ver ified
key word
Ġpro tocol
app author
pl ugin
ĠG iven
For Pre
bu ckets
ĠDe fine
Ġarch ive
hour s
TY PES
) ")
D P
X LM
Ġc pu
Ġm lp
ra ys
up ported
pro c
Ġdi v
ĠP ri
Ġu s
Re ference
Ġac ross
`] ):
chat bot
vector s
56 78
Uns upported
8 4
F C
M apping
å ®
con straints
pro cessed
Ġe as
train able
Ġmo dify
rst rip
Ġpy lint
iter ator
loc ity
Ġref resh
ĠApp ly
Ġdeep copy
Ke ys
A IN
M ap
S end
r alytics
mp l
Ġm is
Ġimport s
ult ralytics
ĠC O
Ġ1 7
Ġh ig
Ġex act
') ])
00 2
Ġr and
av at
Ex t
medi um
Ġquant ized
ĠCommand Error
scal ed
ĠMe ssage
By tesIO
Ġsl ug
ĠPlatform s
nnx Config
? "
å ħ
ame tr
__ `]
LA Y
Ġfin der
ĠOr der
Ġdownload ing
retri es
S C
_ %
or iz
re name
Ġ= >
di scuss
ĠA udio
Ġl lama
ĠP ayment
Ġ{ {
et ing
Ġth ree
pl t
Ġca use
ME THO
Ġprompt s
Ġconv olution
ĠHttp Case
sig ma
Ġvector s
Process ing
quatern ion
ĠLO G
, ),
A X
T able
b float
Ġre ferences
ĠB ox
back ward
ug gest
ĠCo unt
á´ Ľ
ume l
requen cy
L P
M ark
se cure
re lation
Ġt urn
as us
ĠF ast
cor ators
Con f
Ġit self
iv ed
check points
For ward
Ġlink s
vari ables
Ġmem ber
GRO UP
A c
I TE
c rit
g uest
Ġt k
Ġc rypt
ch k
Ġb os
ĠR aises
ug ment
sen ce
dist utils
Ġtra iling
Ġbet ter
(? :
ĠTransform ers
ĠOver ride
K ER
Ê Ģ
ç Ķ
Ġ --------
Ġ" :
Ġre pr
Ġp lain
ic ally
Ġfi g
ĠR ender
ĠM y
out ine
FI RST
tr uth
Ġent ire
ĠFile NotFoundError
ĠTrans actionCase
âķĲ âķĲ
F ont
Ġ kw
ion Error
Ġm ixed
Ġw arehouse
Ġd ump
pre dict
pre ds
'] ),
sc an
([ {
Se lect
idx s
conv ersation
Ġchange s
supp lier
( %
"" )
ol ding
per m
ĠM ax
ĠH f
vent ory
gre gate
fa ke
Ġup load
CON T
Ġsha red
Ġauthentic ation
A P
l ens
Ġ art
Ġs imp
pe ppol
ĠL e
ĠL ibrary
ĠS U
check er
lat itude
RE QU
map s
vari able
ĠVi T
van ta
8 8
: ],
A ll
S W
m argin
t b
Ġ ur
Ġs ix
log it
Se arch
sh uffle
}. {
connection s
ret ch
Ġbegin ning
e very
å Ĭ
ro pped
mp aign
Ġp ers
Ġp hone
Ġlo sses
Ġac celerator
over write
Ġz one
Ġback bone
EP GRAM
Ġvis itor
expi ry
rtual env
impli fy
2 9
A t
w t
an el
Ġc li
Ġre vision
ĠT emp
pa irs
ĠR etri
ĠIn ter
Token ization
Test Invoicing
Ġurl parse
sub Test
Ġtrain able
Ġ.. ..
serial izers
lect ure
Ġzip file
S ee
W indows
n umel
s ame
s ure
u ator
ä ½
se parator
or ing
Ġt runcation
Ġt aken
le arn
Ġc are
as hes
Ġp atches
pro d
Ġe qu
Ġcomp onent
Ġapp author
trans cript
Ġstart ing
sk ill
has attr
Key word
Ġter ms
avat ar
C ore
C FA
t gt
ĠI P
ĠF BT
ĠE ng
Ġhe l
ĠSt ream
CI I
L Y
de corator
par ametr
ON E
im al
sen der
context manager
Ġatt empt
Ġback ward
Ġdocument s
Ġsystem Prompt
Ġcommand s
ĠDo wn
Integer Field
Ġcoordin ates
ĠCross EntropyLoss
4 6
G DAL
S ales
b ranch
s ites
Ð µÐ
Ġ vert
Ġa vg
ĠI s
av a
Ġcont roller
Ġwork ing
serial ization
Ser ver
sig moid
PRE FIX
âĸĪ âĸĪ
? ](../
F ore
G ui
W indow
g ui
o e
p rune
s aved
le arning
Ġb order
ĠO ne
min i
Ġpos itive
location s
Part ner
A M
M y
ce il
Ġs alt
qu ot
Ġ""" :
set uptools
Ġpro duce
Ex port
RE D
wra pped
Ġserial izers
ĠToken izer
Cond ition
tot p
Quant izer
TestInvoicing Common
E mp
n ested
Ġp h
Ġp lease
ri g
Ġd en
ĠA ct
Ġe gg
comp ress
lic ation
read the
ĠSt art
Ġman age
Account ing
Ġdisable d
Oper ator
Ġdesc rib
receiv able
readthe docs
P assword
_ ()
Ñ ĥ
ĠC alculate
Ġh ard
ĠE ach
ĠH andle
[: ]
Ġclo sd
NUM BER
yped Dict
C lo
L OC
P ri
S o
a ched
w ar
re ssion
Ġf ul
ce ed
Ġd ays
Ġcon version
form ance
)) ))
add Handler
IC E
Ġrequest ed
Ġclass ifier
Ġpo oled
ref und
wh en
Ġcho sen
Ġcat s
Ġnamed tuple
Ġlon ger
Dim ension
> `
C annot
S MS
m ix
| \
ç »
è ¿
ed u
ol utions
set Level
log s
Ġl arge
us oid
Ġun known
if act
ĠE num
order ing
De pth
Ġsql parse
serial ize
Ġspe ed
PRO MPT
N D
g m
æ ķ
Ġ edit
Ġf alse
Ġc ateg
Ġre duction
Ġm id
Ġreturn ing
res idual
Ġl hs
Ġor d
ĠB asic
col lection
Ex ample
Ġtrans formed
char set
style s
sign al
Ġsuccess fully
Note book
Ġpartic ular
a ut
j a
de bit
ar ing
Ġf ine
Ġp p
Ġb as
Ġtransform er
Ġ| =
MA P
Net Model
ĠModel TesterMixin
ĠX LM
comple ted
tern al
Ġdot env
N S
b an
t type
en derer
al i
Ġs rid
Ġs can
ĠT able
Ġdi ag
"] ]
Ġ` .
ip v
load ers
ac curacy
im ate
te gr
min imum
ĠK e
01 20
En able
Ġorder ing
ĠLo g
bot tom
ĠGener ation
lect ra
Ġfl ush
curs ive
Th read
ĠTrain er
precation Warning
Callback View
G e
n or
Ġt w
Ġde tect
ad line
co ords
ma jor
ile s
sc ene
DE D
Ġurl s
bar code
Ġag ain
MES TA
Tests Mixin
Ġsc ene
Cert ificate
> </
U t
] "
r ray
y y
re maining
Ġs ampler
Ġs cipy
set Column
ĠL i
Ġcon su
ĠS ave
ĠS PIECE
') [
Ġr gb
Ġcomp onents
Ġac curacy
ĠDe ep
Ġexec utable
track er
ForPre Training
Ġf lat
Ġin verse
Ġm ult
Ġm ix
um b
Ġl ate
we ver
ff n
iv ers
Ġvalid ator
lot s
Ġass istant
HT ML
ĠAl low
Ġter minal
Sto ck
Des cription
fixt ures
Y EAR
g y
h w
o pping
Ġc amera
Ġm icrophone
Ġb row
co pyright
Ġ( %
ĠO P
pre vious
mo der
Ġdo uble
Ġmo ves
En try
Ġtemp orary
Ġfl ash
Vision Model
sa fetensors
mk dir
IGHT S
MESTA MP
4 4
? ",
W rite
b idden
è ®
", "
ve locity
ĠC ard
code book
ĠĠĠĠĠĠĠĠĠĠĠĠĠĠĠĠ ĠĠĠĠĠĠ
back ground
ast er
trans cription
ĠWe b
MS cheduler
Ġretri eve
hel per
ĠMock ed
Ġ---------------------------------------------------------------- --------
C riteria
L IC
M AS
f rozen
l and
di git
co very
res ume
Ġe pisode
qui res
ĠV ision
St retch
Ġper cent
pen alty
Ġpy gments
Ġtemplate s
sg i
pk g
Ġlet ter
pick le
ĠLayout LMv
Ġrecogn izer
0002 00
/ *
n l
s ur
å ¹
Ġb atched
log y
Ġ2 1
format s
gra ms
sub mit
sub contract
Lay ers
man age
]] ]
DO WN
201 6
Ġtr uncate
Head er
Ġsen der
Ġbot tom
< |
_ )
c p
r idden
re w
Ġc ut
Ġn one
Ġde v
ran t
im gs
ca ps
Ġos p
Pro tocol
De codeError
Po licy
201 7
' ll
> {
F LA
L iteral
b boxes
ĠT ry
") ),
res olver
Ġdo cs
Ġfil tered
Ġreg istered
Ġjo ints
Encoder Decoder
ident ity
quival ent
H idden
M etadata
c wd
or bert
de cimal
ro uter
Ġdi gest
Ġres pon
00 01
ac le
ĠThe re
Ġint rinsics
Ġal ong
Ġmo difi
CH AIN
Ġq ty
ak ing
Ġsh ifted
ĠPro cess
parent s
Ġpack aging
has hes
wh ich
Ġrot ations
ĠAuth entic
Ġcs rf
Ġcons ider
Ġwho le
5 4
D enied
P ack
U DA
Ġ angles
Ġf oo
Ġre main
pro g
end ance
ĠV OCAB
DI RECT
org anizer
Ġobtain ed
Fe atures
hen g
limit er
By tes
ĠMocked Response
F E
l iteral
he art
set ter
ĠA li
Ġu su
Ġe ar
qui ck
find all
ba z
Ġet ree
ti cket
/ "
T S
U se
a red
c ar
l bl
p erson
se g
Ġs leep
Ġ' "
pro totypes
import s
Ġh r
Ġun its
ĠW ra
Ġnew er
Ġpo licy
ĠImage File
io us
table s
Net Config
Ġvari ance
Gener ate
Ġactiv ity
dat as
DATA SET
HEAD ER
ĠInstall Requirement
I ST
P ortal
[ _
å Ľ
se maphore
in ce
at ural
Ġimport ed
co urse
Ġl iteral
ĠF ilter
Ġg oogle
"] ),
ĠW ord
so me
ĠModel Output
of fi
Ġfin etuning
Ġdir s
ĠPer mission
road cast
A sync
H o
P age
S PE
W av
o g
en ces
Ġc t
Ġre ct
ad a
ĠT HE
int eg
ĠS w
ĠS tri
Ġbe am
Re gex
Ġbu ilding
RAN S
CT C
ĠUser s
Ġdep endency
bl ank
ĠZ heng
Load ing
W h
c ash
t lib
w b
st mt
Ġ' !=
co ver
pt ed
cl us
ĠP RO
ĠI r
head less
Ġconfig ured
cont ra
TH ON
LO AD
Ġexp ense
ĠMe asurement
VI DIA
ĠRemo ved
Ġexplicit ly
= ",
X L
h icle
l on
Ã ©
or n
re mo
de partment
Ġc u
Ġc alendar
lo cale
Ġco pied
inst allable
ĠN orbert
ĠRe quirement
Ġ5 00
ĠSe parator
Ġover write
ĠRo berta
Rep ort
ĠPack age
A ME
S c
T otal
al ter
Ġp lay
fi cs
is instance
') ),
fix ed
less M
run ner
pri vate
Ġany thing
quant ized
Ġstat s
ĠTh read
Ġdec ay
b ind
b alance
e ved
g p
x l
de tect
ro pe
ĠA L
Ġnot hing
ĠR etry
ĠB inary
EN SION
ĠE mbedding
iv ity
max size
min or
sh ipping
Ġcontain er
SES SION
Ġleg acy
u ke
Ġ ----
ce bn
Ġdi spatch
ĠP ool
Ġme l
ĠV alid
Ġback ends
loy alty
OC O
names pace
sys cebn
rand n
Oper ations
Ġaccept ed
ĠParser Element
crit ical
syscebn l
J son
R ect
d st
m ore
t d
y es
} ).
st reet
ro tt
ct ime
Ġin voices
Ġb ranch
li m
ĠC ur
po sed
Ġpro xies
ĠM on
Ġset s
ile st
ĠN et
ĠH el
PT ext
mark s
Ġbet as
rot ary
Ġsp an
ĠRE AD
Ġproble ms
oriz ont
4 01
R andom
S OR
Ġs olution
un ic
ma ble
ext ernal
ĠC OR
pre dicted
Ġpro perties
Ġac c
ĠAr ray
ĠPy gments
Ġpri vate
Do cument
ĠTensor Type
Open AI
holid ays
A gent
C TION
M ac
t len
x path
Ġ ser
at s
Ġs anit
li s
ra dius
ol ated
Ġcon straints
ĠS kip
)) ]
Ġ` _
Ġres olver
ly ing
Ġapp name
Ġhas hes
ĠĠĠĠĠĠĠĠĠĠĠĠĠĠĠĠĠĠĠĠĠĠĠĠ ĠĠĠĠĠ
Ġvari ous
(_ ('
SH A
feat s
Vision Config
R enderer
b rid
l anded
s pi
ĠS win
ip i
Ġlo ck
Ġdistribut ions
Lo cation
stri pe
ĠEx tract
LI PText
down sample
Ġcolle ction
Ser vice
Ġlevel s
US AND
Bu ffer
Ġbo oth
Sec Trust
erm ine
tlen eck
) }")
L R
L lava
S P
] `
b and
t ar
t qdm
w ik
} ."
Ġ em
ut ation
Ġf o
Ġre lations
Ġre versed
Ġm otion
Ġ' )
__ ).
str al
Ġg ive
Ġ2 3
ĠR GB
file path
im ated
Ġk ind
Ġdate util
index es
split lines
over flow
á´ Ģ
sign als
Ġ7 68
Ġhand lers
Ġsli de
$ ",
. ',
S mall
W ork
a ma
Ñ ģ
in verse
Ġt ables
st udent
Ġc he
ĠL egacy
Ġdi gits
Ġcl one
Ġlo cale
ĠUn raid
St ep
ach ments
Ġstate ment
su ch
iter ation
Ġbu f
.") )
Ġread er
Ġread ing
ĠSe arch
Ġprob ability
Ġconf lict
Logits Processor
He ight
Remo ve
parametr ize
LOC AL
C K
H ash
V IS
å º
ĠĠ Ċ
Ġc m
att empt
ĠI F
Ġpro perly
ĠW hisper
Ġfunction al
CH AN
Ġopt parse
UN D
Ġcomb ined
Ġformatt ing
B inary
N G
R ENT
i od
m ixed
t ions
u ed
ro y
__ ))
con su
Ġor ders
Ġst able
Ġma de
ĠĠĠĠĠĠĠĠĠĠĠĠĠĠĠĠ ĠĠĠĠĠĠĠĠĠĠĠĠĠĠĠĠĠĠĠ
Pre set
Ch art
Ġtuple s
normal ization
lookup s
pip elines
hip s
peri od
Sta ck
V ari
t ic
Ġ very
me ans
Ġin di
Ġin correct
res ses
ĠF OR
ĠF rozen
ast ic
Ġle ss
gener ic
ĠLo okup
Ġ", "
UP ER
IG NOR
ĠLayer Norm
Param s
ĠArgument s
usoid al
- \
/ $
R ender
t an
cor outine
ey e
sign ed
relative delta
Ġcs v
Ġscal ing
Ident ifier
const rain
ambda Layer
= "",
M igration
T op
c x
c am
m igrate
re ferences
Ġp ush
id ing
Ġin p
Ġs ol
one y
Ġcon cat
ĠS H
time s
Ġconfig s
Ġca pture
UL TI
ĠCON FIG
record set
Ġserial ize
Http Case
bad ge
oc us
ĠAUTH ORS
Ġoccur red
orizont al
5 17
L exer
M obile
c amera
d ashboard
r ally
w andb
ç Ĳ
Ġ æ
Ġ mp
Ġ quality
on y
re search
re pair
Ġre ceiver
ot Dict
ol lama
ĠL a
Ġcon structor
ĠS plit
Ġh int
Con verter
Ġpass ing
tra jectory
Ġsys config
be havior
hook s
QL abel
pool er
Ġsy mbols
deep speed
ĠCol or
ĠFI X
/ **
v ic
de terministic
Ġre levant
id i
ex act
di ents
il ine
Ġd st
ĠO ut
ĠP a
Ġstr ftime
Ġr untime
ac cent
ator y
ME T
trans fer
the me
doc string
ĠPro vider
Ġren dered
CON ST
Ġrender ing
ĠURL s
Ġinstall ation
alle li
tern ative
Range Field
Ġprobab ilities
ĠSoft ware
GROUP ING
ĠRemoved In
ipi ents
8 5
] `:
a o
Ê Ł
Ġ ^
in come
ex pert
ĠS hould
ĠP eft
([ (
UT F
Lo ck
DE C
clu ded
loc ator
local host
Ġmak es
Ġsimp ly
ĠSeparator Style
A ss
B ird
F IC
Z ER
ch an
ch ive
ul ator
ĠS top
Ġdi sc
ĠD PR
Ġse em
Ġse cret
Ġr ating
eval uate
Ġbut ton
cre ation
Ġconv ersation
level name
202 0
imp l
CC ESS
4 9
: **
f loor
v ote
re currence
arg max
ip File
=" _
ĠB art
ou se
Ġcomp ile
col lector
Ġat ol
Ġac cum
char acter
User Error
ĠGEOS Geometry
sr s
Query Count
formatt ed
ĠREAD ME
DEC IMAL
A ccess
P adding
f rontend
g an
i pped
de le
ĠT ABLE
ĠC UR
ĠP atch
Ġma ster
ĠD ATE
ĠR el
Ġra dius
fo ot
ĠG RID
Ġgener ating
ĠBase d
Ġcount s
Ġ"\ \
Ro w
ĠRun Status
Ġgo ing
Ali as
Ġfew shot
UPER USER
E G
q wen
w i
en us
Ġc c
Ġthe ta
ment um
ĠF ind
pa city
Ġ2 2
code c
ĠW h
Ġso urces
Ġ/ =
sub scribe
alle t
crypt ed
VAL ID
TRA IN
C an
R etri
Ġ) )
Ġan chor
=" {
pi es
comp onent
qual name
OR D
ĠN VIDIA
ifi ers
Ġtime step
ĠK E
Output With
Ġcom ments
Ġpl us
pol y
utom ation
ĠAl so
Ġscal ed
Neo X
Condition Model
] \
e ctions
Ġ ultralytics
Ġt b
ar r
as ctime
it able
pe p
Ġd er
ĠO N
assert QueryCount
ĠJ o
Ġclo sed
Comp any
Ġindic ating
pan el
ĠSo cial
ĠTrain ing
âĶĢ âĶĢ
need s
Ġcred entials
" '
B UT
d w
re vision
Ġde lay
Ġm ime
Ġw on
() ``
Ġd urak
th an
Ġu om
Ġst ory
ho p
list s
Ġal iases
product s
lin space
Ġpo ses
fa ces
Ġvo id
AC COUNT
INPUT S
Mo dified
Ġmer ges
Ġgo od
velo p
: "
D ES
F older
d antic
s andbox
t wo
me th
ĠO racle
ĠF e
Ġres olved
Con tain
ub ert
out look
comp onents
Ġpre serve
Ġup grade
Ġinter val
fin der
OP TIONS
Ġevery thing
Ġcrypt ography
L ead
M emory
S CHE
å Ń
st ive
Ġc ancel
pt imizer
pro du
(" [
am ification
)) [
par allel
SE Q
Ġso und
Re quired
Ġcheck ed
TH ER
IND O
Ġover flow
level s
Ġap pe
assertIs Not
cure ment
ĠNO TE
EXT ENSION
ĠSign al
Ġ'!= ',
O p
b ugging
e f
p ic
de precation
al phas
Ġto gether
Ġfor e
Ġd uplic
int ain
am ily
ĠF eed
(' _
pon ential
TI mage
not ify
GE OM
man ifest
Ġgroup by
pping Criteria
inter polate
Ġman ually
Ġdep ending
202 2
ient ation
Ġbyte array
eni um
fir med
( .*
U B
U sing
i T
æ Ī
re ceiver
en g
Ġp df
is dir
pro p
ĠL ive
ĠF a
ĠR otation
ip s
ip pet
emp ts
gre ssion
Ġextra ctor
inter face
Ġtri gger
ĠConsole Options
THO USAND
CHAR S
Ġful ly
Ġlate st
m u
y per
} _{
al ic
Ġde livery
iz able
Ġse cure
count ries
ca ptions
read only
Ġtime sheet
check box
Ġ4 0
initial ized
ĠCh ar
mer ged
can onical
Ġtax es
æĸ ĩ
ĠSto ck
SW ER
L LAMA
S ite
k ind
s win
v q
Ġ ens
Ġc f
ot ions
ĠA gent
ĠC lient
pre ssion
(' %
Ġli ve
ip her
out er
right s
add Message
Ġen ough
Ġhas her
LM Head
Ġtra ce
Ġpl ugin
ĠCh art
rel ations
cert ification
Ġfast api
WAR E
velo pe
PY THON
usic gen
OPEN AI
Ġche atCode
B R
S V
e in
r u
s quare
y en
Ġs creen
ma ils
ĠO ff
ĠF rom
config ure
ĠH ead
pos itive
account s
ĠCon nection
Data Frame
EC T
ĠMe thod
side red
sy mbol
Ġsy m
similar ity
ĠFIX ME
> ``
A V
S hould
V er
f ollow
} ),
re strict
ro ken
ĠT r
get ter
ĠS ome
ĠS yntaxError
all ery
ver al
pa gin
ip ment
im er
col lect
Ġper iod
Ġversion added
Ġreg istration
Ġab stract
author ize
Ġindic ate
ĠRunCode Request
) \
B ind
C andidate
M Y
S pan
] `):
g row
å ¼
se c
Ġp romo
ve hicle
Ġcon sidered
ĠC at
ĠC PU
cor ners
IN ST
SE P
OR TED
Ġso cial
Ġad ds
10 1
AN SWER
range s
Se lector
Ġadd ition
tri es
LE FT
eg asus
Ġover ridden
xy z
initial ize
With User
sup port
Al most
Segment ation
Ġhel per
â Ļ
è §
al ization
Ġc p
Ġde termin
ĠB lip
ĠW ill
tensor flow
ME AN
vide s
GE LU
Ġinter preter
mat ched
Net V
ap pro
ĠFor ward
Ġver bosity
ĠX ML
Ġlead ing
Ġsha re
Ġhour s
Almost Equal
I ON
de sc
ex change
di ag
Ġst derr
Ġe quivalent
ĠH E
te el
AT CH
Re al
gr asp
run ed
cho sen
Ġencoding s
ĠOpen SSL
Ġcond itional
segment ation
Bu ild
Ġappro x
ĠMobile ViT
ĠSE LECT
coroutine function
A Y
T C
U ID
i or
p x
r upt
v n
w ant
Ġ editable
Ġas set
Ġst udent
ĠD WORD
file list
Ġcomp ress
ĠG eo
Ġkey words
Ġtext wrap
Ġhe x
ĠQ uestion
PP ORTED
Bert Config
Ġ-------------------------------- ------------------------
VI EW
tok s
Ġiss ues
wit ter
) },
P urchase
S cript
g mail
or pay
or ld
er tain
as yncio
la ces
get cwd
ĠA bstract
py plot
(' ''
ĠR FC
ST AT
MA IN
ĠDe pth
response s
ĠSe lect
ap ane
Ġextract ed
Ġannot ation
Ġvis ual
ĠDet ermine
pport unity
Ge om
assertIsNot None
apane se
. "),
8 7
C ategory
s preadsheet
Ġt en
Ġb atches
ĠS entence
Ġ2 04
Ġ` "
ĠD iffusion
EN ET
ĠW in
ĠV ER
Ġpre releases
ĠIn teger
gre ater
split ext
over load
Ġtrain ed
Ġweight ed
filename s
Ġpred s
Head Attention
etri c
LOG GER
proble m
exist ing
Author ization
R ule
S ide
g amma
w l
Ġp erson
un ion
Ġdef inition
Ġd uplicate
Ġu id
key words
Ġres cale
ĠM er
pon sor
cont in
Ġatt en
Ġsub classes
RA G
Ġfa ils
202 1
ĠDist ributed
ordin ates
Pos ition
ĠEmail Address
rat ios
clus ive
. /
D ConditionModel
M ULTI
b reak
k ely
m ing
ut ter
Ġc ent
ra ster
Ġco urse
Ġse veral
EN CO
Model ing
ĠV is
Ġcomp arison
UT O
vid ual
bu cket
Ġout side
ari an
ĠBase Database
Ġ8 0
ĠĠĠĠĠĠĠĠĠĠĠĠĠĠĠĠĠĠĠĠĠĠĠĠ ĠĠĠĠĠĠ
Ġlib raries
Ġag greg
ĠGet Prompt
gorith ms
dat atype
receiv ers
ĠIndex Error
D ual
M ake
P C
S imple
e ffect
w hisper
Ġp ag
Ġs il
Ġs olver
() ;
vi e
Ġh is
---- -
Ġg l
assert Record
com bine
OR Y
Ġcomp are
view er
ĠPart ner
dist il
dist ribut
FORM ERS
ĠBase ModelOutput
Ġreplace ment
Ġpixel s
Ġwindow s
sa fety
Ġsupp lied
Ġ199 7
Ġhapp en
setColumn Stretch
assertRecord Values
! "
D emo
M at
T ree
b c
d ating
g ge
s ible
t le
u ght
| >
le et
Ġf ps
Ġin f
el i
ad o
Ġb el
Ġ# :
Ġd raw
qu is
ĠL ora
Ġg pu
ON G
list en
`` ).
For Seq
ans ion
tra ceback
Ġcontext manager
ĠQ wen
Ġvalid ated
wra ps
Seq LM
Auto Model
live red
let ter
~~~~~~~~ ~~~~~~~~
cred entials
Ġbound ary
ĠAB C
ĠAdded Token
Ġrout ines
ĠKE Y
TImage Processor
) ')
J WK
d ri
e ss
e lements
f ew
p c
an aly
Ġre wards
Ġ' #
ad just
ol ation
Ġg c
ĠH ow
Ġtype of
shape s
Ġcont ract
Base ModelOutputWith
ĠSe q
ĠSt ate
Ġ[{ '
ĠPer form
reconci le
D X
D est
G RE
N um
R enderableType
] +)
h int
s olver
Ġre ceive
Ġde cor
un install
Ġb ill
', '
cl ar
ase d
Ġun link
assert AlmostEqual
ca mpaign
Ġ: -
ĠUn supported
reg ion
Ġback wards
RAN K
OC ESS
Ġstart s
Ġinter polation
web hook
web socket
cos ine
Su ccess
Ġwave form
Authentic ation
ĠFace book
Ð¾ Ð
ĠLOG GER
F ER
G raph
H ighlight
P OR
P ER
S ingle
st anding
Ġc riterion
Ġin coming
Ġa ugment
co upon
") [
(" {
Ġdi visible
ĠF l
ĠU sing
Ġ% }
AS T
([ ],
Ġcode cs
Ġcreate s
AD ATA
plan ation
lex ers
Auto Field
Ġprobab ly
Ġbrow ser
" `
C l
E CH
L ive
e ded
p b
p romo
in ux
or es
re duction
ro uting
Ġin crement
Ġd river
is m
ĠC re
po w
Ġh ub
Ġth ings
Ġg uidance
key points
ĠB ad
Ġtoken ize
Un able
pop ulated
sup ports
ics r
igh b
ffe red
Ġvis ible
Ġgo al
Cur rent
ema ils
fra c
A g
B asic
H AND
N OT
T ypedDict
in ja
an alysis
Ġ" @
lo om
Ġo l
un ded
Ġco model
pre train
ew ay
Ġma pped
], [
Co mple
Set Console
mark down
sup press
Ġsp ans
go ing
Ġdeep speed
ĠRunCode Response
alized Name
Ġlight rag
ĠSP DX
7 2
C RI
L i
Q wen
T ab
h olding
k a
â Ĥ
in ator
re ceipt
de corators
he t
Ġs w
Ġm ixin
Ġb ank
ĠF n
ĠB Y
ĠEx p
Ġtrans fer
CO OK
istr ations
Ġcolle ct
Ġpe ople
ĠWhe el
ĠTime out
Ġmulti processing
scu ssion
tun ing
æĹ ¥
combin ation
çĶ ¨
COOK I
6 2
7 9
O b
[ ]
a ctor
b enchmark
p ull
in struction
ro me
ch ing
ex e
ma g
ĠC SRF
ĠM ain
ĠE R
Ġcont rollers
led ge
Ġtrans pose
Ġchat bot
confirm ation
Ġar rays
ĠBatch Encoding
ĠYOLO v
MAG ENET
) '
M icrosoft
P ush
S cal
i like
n y
s lots
de tection
Ġc riteria
Ġc ertain
Ġ" *
Ġre comm
Ġs qa
ch a
ĠP rint
ĠD otDict
Ġres ume
ĠW ith
time delta
Ġint ro
TI VE
Ġro om
mit ted
sp s
Ġlog s
Ġlog ged
ĠModel Type
Hel per
Connection Error
And CrossAttentions
Ġtz info
CFA rray
Ġcm doptions
6 5
C rop
S w
e u
st ages
de fics
ct ure
Ġp oly
Ġm iddleware
un nel
el ist
con verter
po wer
Ġdi ms
pre p
(' .')
Ġma jor
ĠR aise
Model Type
ity Error
({ })
stat istics
sub type
100 00
Ġfa irseq
ĠForm atter
Ġhandle s
Ġident ity
Ġti cket
ĠExample s
Ġmak ing
ufact uring
vanta ges
Chart Template
P atch
T itle
c utoff
d p
r al
un a
pt s
is cal
Ġl xml
ĠI maging
pa id
ĠR enderableType
Ġse ries
ha ped
Ġconfig ure
ĠN um
ag raph
To wer
Pre LayerNorm
trans lations
Type s
call s
Ġcom m
]] ]:
Ġmin or
Ġinter polate
mark up
ĠLo cal
Ġaccount s
Ġtr uth
Ġtr uncated
ĠAccount ChartTemplate
Ed itor
ä» ¶
depend ent
æķ °
ĠCOR POR
D D
a ur
b vh
e fficient
f w
se par
in voices
ro sa
as pect
it ch
me t
Ġre view
Ġs izes
ĠF ound
ang ular
om ial
Ġun less
Con nect
TI MESTAMP
Ġraise s
ĠN UM
ĠBase Distribution
initial izers
Ġext ras
Ġsql ite
Ġge o
Result s
sd p
ident ification
Ġscript s
accum ulation
ĠChannel Dimension
æĺ ¯
ĠCORPOR ATION
+ +
7 68
D ec
P H
c pp
} '.
de adline
ar ded
ut ures
Ġre named
is ing
ta ch
Ġ2 24
Con straint
ĠB lock
comp oser
Re set
ĠRe gex
AR D
nn ot
unc ased
ST EM
RE CO
sub classes
Ġmin utes
Ġ"% (
social login
Encoder Model
Ġexec ution
Ġinclude s
ĠEn vironment
Ġ'' ',
ĠNet work
gge red
B o
H andle
P layer
P LA
R ot
} %
in ct
me ster
Ġn b
Ġn s
ĠS ince
Ġpro viders
Ġfile path
ĠV er
Ġ: ],
Ġca ptions
DE EPGRAM
ĠPro ject
Ġstat istics
API View
Ro Former
limit ed
ĠComp any
ĠName dTuple
Ġcons istent
æľ Ī
BO SE
finit e
Ġcy cle
ĠWK B
accent s
' ^
7 4
C alendar
F irst
[ (
m ust
re en
Ġb ig
Ġ# ###
ĠW rite
act ers
Ġ`` <
Type Error
ĠAn si
ĠCheck s
comple tions
scal es
ĠDo cument
Ġcorrespon ds
ĠString IO
ĠEX PECTED
assertNot In
Exec utor
INDO WS
distribut ions
: ',
E di
S ocket
W ord
b ra
f ps
p id
er ce
ro d
Ġc utoff
and bytes
set Formatter
ĠF inal
Ġst e
ĠD es
len code
ĠM IT
EN ABLE
RE GI
LI ST
á´ ľ
=[ ('
Col lection
ĠEn coder
ras p
assets bundle
ĠPO ST
accept ed
hex digest
**** ****
ĠConstruct s
ele m
Ġmegab atch
lon gest
( ("
P ie
S ha
U sage
b pe
d y
t re
or acle
ĠS UPERUSER
form ers
Ġg uide
Ġg uess
'] ))
ĠD rop
us pic
ĠE XT
ff t
Ġwe ak
ME TA
Ġj it
Res ource
Ġrun s
Ġtra jectory
has hed
mer cial
ui ck
Back bone
Ġerr check
ĠPost GIS
BAC K
Ġfrozen set
) ?
G reater
d in
m bert
t w
w sgi
in place
Ġs q
import lib
Ġe in
Ġpro cesses
Ġun install
ĠV ari
Ġ} }
vo ke
St able
Ġspecifi es
Res Net
pri ority
xml id
Text Dual
Ġupdate s
ĠCa ption
rep ly
Sup ported
formatt ers
assertNot Equal
Ġpot ential
( """
F il
O ut
T MP
c nt
n c
p ot
s vg
s keleton
de ps
ut t
Ġre ally
Ġp ubli
ur ther
Ġo at
Ġs yn
Ġthe me
Ġb enchmark
qu ad
pa int
Ġres pect
Ġan alysis
Ġsup press
]) ]
point er
AN Y
Ġcont ra
ump rod
Pre diction
ĠDe berta
ak er
select or
atten dee
Ġlr u
Ġsig ning
let ters
Ġfail ure
Ġlet ters
Initial ize
Ġinteg ers
ĠRetri eve
ĠLa zy
Pie ce
A F
G N
O nnxConfig
S win
W T
m c
t ell
Ġ ----------------
st and
di lation
Ġb ug
all s
"] }
Ġe le
ĠM SE
so und
so urces
ĠG roq
peci al
Ex p
ref ore
Ġq tlib
Ch annel
struct Blip
match ing
ĠPar am
fetch all
ĠBert Tokenizer
Ġoverride s
fail ure
coe ff
ĠRemovedIn Django
: {
C la
G PU
R aw
d r
i ou
ê ľ
Ġ ri
Ġin structions
lo pen
Ġs atis
Ġl and
ĠR andom
Ġ== =
are r
ax es
Ġreg arding
Ġoff sets
prec ate
ift Former
âĸ ĳ
Ġcomb ination
Ġdis count
members hip
ALLOW ED
Ġcateg ories
SPE ECH
Ġens ures
uspic ious
A E
M on
` ],
j udge
k t
k token
æ ŀ
ar ily
Ġw arn
cl uster
pp onent
Ġdi fference
