#version: 0.2
> <
p a
pa d
Ġ Ġ
ĠĠ ĠĠ
ĠĠ Ġ
ĠĠĠĠ ĠĠĠ
i n
o r
s e
o n
a t
e r
e n
Ġ t
Ġ =
r e
) <
s t
d e
>< /
a l
ĠĠĠĠ ĠĠĠĠĠĠĠ
r o
i m
Ġ a
l e
: <
r a
u t
c h
i t
i on
l f
se lf
g e
Ġ f
l o
a r
e d
, <
Ġ "
c t
ĠĠĠĠ ĠĠĠĠ
Ġ m
h e
Ġ re
Ġ c
Ġ in
or t
Ġ n
c e
Ġ i
in g
p ort
Ġ s
Ġ self
im port
l a
s s
o de
d i
e x
ro m
u r
Ġ p
m e
a n
en t
Ġ o
p e
i g
t h
) :<
i z
d at
Ġt he
de f
p t
Ġ b
u m
u n
u e
i d
Ġ #
dat a
ode l
" "
p ut
at e
a d
f rom
Ġ w
Ġ import
Ġ (
a s
l i
se r
c k
Ġt o
or ch
ur n
t urn
. <
t o
st r
Ġi f
u l
Ġf or
ĠĠĠĠ ĠĠĠĠĠĠĠĠĠĠĠ
on e
en s
iz e
se t
ra n
ex t
Ġ e
a ge
g s
Ġ pa
ge t
Ġre turn
_ _
Ġa s
in t
m p
or m
o t
i l
c o
c on
Ġ def
p o
Ġ N
Ġ -
h t
v al
> #
( )<
Ġt orch
i c
Ġ T
] <
a me
at ion
s ize
u p
Ġa n
Ġ d
i s
Ġ 1
Ġi s
( "
v er
o l
Ġc on
= =
q u
y pe
l en
( )
e m
m odel
Ġ A
e s
Ġ g
Ġ '
Ġ lo
# #
f ig
ens or
( <
ĠN one
e t
Ġ" ""
Ġ *
" <
t ext
er s
m a
Ġ C
Ġ [
ĠĠĠĠĠĠĠĠ ĠĠĠĠĠĠĠĠ
v e
- -
ig ht
s h
i le
v i
Ġ {
" )<
Ġ L
o d
Ġo f
pa th
as k
k e
it h
e st
Ġ 0
f orm
ul t
ar gs
" ,
ut put
e p
n ame
ra in
Ġ +
Ġ h
ct ion
a mp
Ġ S
Ġ st
a b
d er
at t
Ġan d
e l
p y
Ġ= =
Ġ 2
p ro
Ġ di
at ch
p p
pa r
Ġ data
ra m
Ġn ot
f f
r i
la ss
in e
d ing
Ġ ex
to k
ser t
pt ion
Ġ x
Ġ P
Ġm odel
al l
u s
t ype
. .
ran s
en d
amp le
Ġn um
d o
Ġ )<
al le
re s
in it
r ue
Ġm a
Ġas sert
Ġ""" <
q ue
" :
en se
b ed
ch e
ke y
Ġ de
la y
) .
Ġa r
[ "
Ġ- >
Ġ str
im age
c or
w a
Ġ get
Ġ F
c lass
Ġ R
) )<
" ]
Ġm e
Ġ D
Ġ <
alle l
i st
Ġw ith
p re
n um
a pe
Ġ I
di ct
Ġc o
c al
Ġt h
g g
t er
li st
r or
ce ss
== ==
Ġ O
e w
st ate
val ue
t rain
d im
Ġ _
r int
Ġre s
ic ense
u se
con fig
iz er
Ġ or
rans form
0 0
Ġ r
a se
im e
que st
## ##
Ġ se
al se
ar d
t ensor
Ġ l
ab le
in put
di r
p er
o s
Ġe l
b ut
Ġel se
wa it
u le
il s
t a
r on
lo ad
Ġpa ge
an d
g th
ĠĠĠĠĠĠĠĠ ĠĠĠĠĠĠĠĠĠĠĠ
ĠL icense
de x
Ġ M
" ,<
str i
ct or
len gth
lo ck
g at
f ile
d a
. _
e ight
par allel
m ask
l y
' ,
ra me
t orch
i f
sh ape
Ġ la
he ad
bed ding
Ġin put
] ,
T rue
de d
vi ce
data set
Ġto k
Ġar gs
( '
Ġ /
Ġa wait
n c
Ġn p
od ule
rom pt
a pp
en ce
Ġs h
o utput
che ck
o ut
Ġo utput
Ġp ro
-- --
Ġf rom
Ġp rint
an ce
Ġpa r
u b
) ,
Ġ __
po int
= "
en er
p s
ra d
i al
lo at
Ġ B
it ion
p on
"" "<
ran k
m ent
w ard
a ck
w or
li c
y nc
Ġ un
b atch
id d
Ġp re
p i
p l
gat ron
l ine
tok en
) ,<
id s
Ġo s
idd en
Ġ U
C on
Ġb e
ro up
ma x
O N
a m
ent ion
u re
ut ils
Ġt est
i se
pon se
pa ram
Ġin t
s on
um ent
stri but
o ol
Ġ j
Ġcon fig
Ġ 3
Ġ E
Ġ on
Ġ use
Ġ en
[ '
Ġ y
ce s
Ġf ile
i x
__ (
a ve
r ror
Ġ W
} <
Ġ v
lay er
) :
Ġ len
ar t
at or
c u
th od
Ġ ro
Ġ ch
n n
f t
co m
gg er
co der
pro cess
el s
er y
Ġ G
j e
c ode
b le
o c
ss age
I N
stribut ed
O R
Ġ >
s o
E rror
at a
n orm
re d
n g
a ult
Ġ image
in f
st ep
ar get
() .
app end
.. .
ser ver
f or
o w
ad d
t e
T I
Ġdata set
( ):<
po s
r y
Ġ V
it s
qu ery
an n
ption al
ht t
tok ens
" )
s ample
at h
w eight
un ction
Ġcon text
lo b
s w
qu i
Ġn n
lo g
Ġt ensor
ran ge
t est
g rad
cor e
Ġme gatron
con t
s c
u ser
' ]
r ight
Ġ ra
[ :
b o
Ġma x
b u
l l
F alse
o k
an t
Ġ att
' )<
Ġ k
a i
p en
Ġd im
pl it
ransform er
check point
N one
it y
Ġ im
w args
pe c
e val
it er
ĠT he
Ġt rain
b er
Ġtok en
it em
un k
g ument
ro w
do w
/ /
Ġ `
m o
Ġs o
un t
T ensor
i p
lo w
in dex
==== ====
ĠC o
0 2
d s
ce pt
Ġe m
: //
cu da
E N
Ġ :
c a
id x
st ance
pe ct
o u
Ġst ate
ion s
ĠR e
Ġs up
># <
' :
je ct
ch ed
pt im
ur l
lo ss
a v
me thod
i as
con text
i r
Ġt ext
em bedding
D I
Ġw h
k wargs
f loat
á ´
Ġ* *
j o
#### ####
e at
de vice
cal e
Ġb y
i ct
Ġun der
Ġ value
Ġb atch
n e
ut e
ation s
Ġ list
] )<
b ack
Ġt ype
gg ing
p rompt
S E
Ġ key
or e
Ġp o
Ġ .
ra y
Ġth is
lob al
r it
m l
] .
us ion
p u
Ġlo g
b s
f a
Ġs ample
Ġ set
pe line
ĠF alse
Ġ 4
Ġ %
ul d
er ror
qu ence
un d
Ġ @
D ata
M odel
ĠO ptional
. """<
Ġ all
Ġ[ ]<
se s
i ve
er n
c l
do m
g roup
t r
ĠA r
re ate
b lock
t ime
Ġpa ram
a c
inf o
ar y
ma in
o uld
Ġ( <
Ġres ponse
ro p
i v
z er
Ġm ask
f g
n ing
Ġre qui
ĠĠĠĠĠĠĠĠ ĠĠĠĠĠĠĠĠĠĠĠĠĠĠĠ
ff usion
' <
m at
param s
Ġres ult
E R
p h
in al
or y
form at
l d
vi ew
g ent
P T
E S
up le
ĠT rue
d d
l er
an g
Ġde vice
= '
Ġlo ad
Con fig
( [
i es
ĠĠĠĠĠĠĠĠĠĠĠĠĠĠĠĠ ĠĠĠĠĠĠĠĠĠĠĠĠĠĠĠĠ
Ġlo ss
Ġ al
Ġex cept
n d
un c
Ġra ise
Ġh idden
p la
1 6
per t
Ġth at
state s
TI ON
sw er
Ġo ut
ĠU n
u st
Ġ+ =
j son
il d
---- ----
ran dom
ur r
Ġlo gger
m odule
Ġ val
la ble
Ġp rompt
ro po
ar ray
Ġn ame
ropo ut
Ġb u
ul er
ch ann
Ġ H
Ġsup er
Ġt ime
res ult
f ix
ar ded
A S
li b
R E
] ,<
3 2
Ġn e
ĠAr gs
Ġre quest
y s
Ġpa th
Ġdef ault
n p
jo in
Ġin dex
s plit
h idden
py right
row ser
Ġ htt
Ġw or
R A
Ġco m
Ġin it
Ġg ener
in dow
t ers
i o
Ġas ync
Ġ range
ĠCo pyright
o b
qu at
le ment
" ]<
dat e
Ġi d
st art
il l
Ġ{ <
* *
lo c
I n
co l
ctor y
Ġcon t
u al
at ed
x is
pa ge
pa t
Ġ server
cont ent
b ase
L I
ep s
s ses
le ct
in stance
re ct
ptim izer
Ġp er
[: ,
ĠS e
Ġa pp
Ġa re
Ġt arget
wor k
Ġs ize
o ad
ur ce
ĠRe turn
n t
m in
is ion
M odule
m age
ĠL ist
ff er
Ġp os
1 2
lay ers
as ync
Ġ \
t al
Ġfor ward
head s
u age
y p
co unt
w w
re quest
l at
Ġw eight
Ġdi stributed
Ġj son
f eat
a ch
ta in
Ġem bedding
v ed
ig n
Ġ q
ĠI n
ched uler
Ġo b
S t
di stributed
... ,
Ġnum py
Data set
Ġma y
d type
re e
Ġd type
ce ption
di ces
pa che
em bed
ĠReturn s
sc ri
Ġb ool
chann els
me ssage
Ġme ssage
n ew
D E
li f
Ġ 5
st at
ver s
Ġ at
et a
ent s
Ġp y
Ġb lock
att ention
ĠE x
; <
A T
A R
Ġs pec
Ġdi ct
c li
h o
le t
h is
rame ters
se ed
R e
po ch
m b
n y
u ate
} ")<
b ias
Ġc a
ve l
step s
Ġ[ "
oc ab
ext ra
Ġf unction
i peline
Ġc ol
Ġtoken izer
Ġ pad
se d
ng uage
ĠC on
ar gument
g ener
im g
Ġ K
yp ing
im est
Ġ2 02
Ġg roup
s um
f il
o m
ch unk
Ġe lif
t arget
re ad
( (
ver t
() )<
v ar
urr ent
u res
ine ar
l ate
se q
Ġt yping
Ġatt ention
Ġim g
ut o
Ġtok ens
b els
Ġa c
pos ition
train ed
s ave
iz ed
t ransformer
train ing
ir st
re t
Ġ{ }
Ġco mp
g ram
com m
Ġt ry
Ġw e
vi de
ht ml
me an
embedding s
er ence
g o
al ue
Ġt e
rit e
F I
o p
pla ce
th er
" :<
g re
] :<
Ġ ...
Ġf loat
I T
ction s
em b
en coder
f unc
Ġr ight
a ct
w ith
Ġst ep
Ġy ou
i ss
if ic
g lobal
Ġn o
Ġt ransform
te mp
Ġr un
le s
ĠP age
Ġro t
b y
U T
Ġsh ape
ĠĠĠĠ Ġ
t ask
er ver
> @
A G
Ġ query
Ġd o
ma p
Ġs ub
p rint
s ub
ĠA ny
g pt
Ġ he
e c
er e
ow n
ri x
token izer
i el
Ġo pen
c fg
Ġn ew
Ġlo gging
l u
Ġa dd
par se
t ransform
Ġis instance
Ġc lass
f rame
Ġ it
) )
Ġh as
a y
res ponse
quest ion
Ġn orm
Ġst art
ro t
o ver
s cale
Ġm o
ĠA ll
t ra
E M
Ġim p
t he
po st
en v
c at
S T
b in
o us
eval uate
n o
Ġrequi red
6 4
A L
ro ss
iz ation
Ġe val
ĠT his
Ġpar ser
mb da
Ġco py
u c
> )
lo gger
ĠD ict
Ġso ft
t on
(). __
sh ould
Ġ z
f unction
l p
att n
P I
t rans
vers ion
o i
. ")<
ic s
r un
t t
att r
Ġ up
sample s
[ ...,
quat ern
lo cal
ss ion
Ġt ask
ser ved
Ġnum ber
la st
l r
Ġ rank
Ġ layer
co mp
ĠĠĠĠ ĠĠ
id th
Ġright s
val id
oad er
m s
__ ()<
Ġm at
= -
Ġc ode
cor es
i de
"] )<
] )
po se
b el
put e
V I
Ġre t
> )<
Ġre served
Ġpar allel
ut ion
ar ch
pat ch
lic y
Ġ }<
" {
wa re
en ame
' ,<
Ġ/ /
Ġ error
cl s
a g
me ta
Ġ\ <
and le
ra di
ĠV alue
or g
bo x
Ġpar t
int er
on g
H O
q d
Ġch unk
ĠS erver
a pi
l in
' )
Ġ le
f o
Ġ !
a u
ai lable
o ff
zer o
to ol
ĠD ata
im it
T ype
Ġ user
S e
IN G
weight s
s pec
Ġ checkpoint
wor ld
` `
[ -
Ġb ase
v id
um n
so ft
======== ========
lic ense
Ġ Y
a k
c all
str u
ĠS t
( -
P ro
ial ize
Ġ random
Ġto tal
Ġ[ <
ig inal
a st
d ropout
Ġ! =
do c
ar k
n et
in d
model s
an swer
Ġto p
c lo
ro ute
P OR
pt y
######## ########
Ġd oc
A TION
ĠValue Error
wor d
Ġ length
" .
qd m
C EN
) .<
s pect
re ctory
s q
re g
c la
Ġb ias
od y
Ġhtt ps
th on
Ġe ach
item s
> >
Ġse quence
la ma
con d
Ġuse d
u ce
z e
ct x
Ġpa ss
con v
dow n
ĠP ath
CEN SE
Ġs ave
iel d
Ġid x
v ent
Ġs cale
Ġg rad
go to
pre fix
zer os
ĠUn ion
ut il
pre trained
Ġpos ition
g ment
L E
ro und
se quence
ul l
00 0
y st
le ss
Ġin ter
scri ption
log its
n ode
d rop
Ġpro cess
cor d
Ġw ill
ĠĠĠĠĠĠĠĠĠĠĠĠĠĠĠĠ ĠĠĠĠĠĠĠĠ
def ault
L inear
Ġ" /
Ġs ys
1 0
Ġme thod
L M
P a
ol d
L O
c y
w indow
Ġtrain ing
ex pert
Ġ{ "
o und
norm al
ic ro
' s
A I
Ġto ol
in dices
Ġg lobal
Ġlog its
ck et
is ode
et un
ĠS h
e poch
ig h
d f
w rite
= {
feat ures
D ict
RA N
ke ep
ra ph
ers ion
ay er
i ch
Ġla nguage
Ġm in
Ġparam s
re am
DI A
f n
ur ation
() ,
Ġs c
Ġb rowser
f erence
so le
m iss
dataset s
E x
Ġ )
Ġc reate
t es
key s
a f
u me
VI DIA
Ġa xis
int s
Ġ head
Ġt qdm
Ġ us
for ward
' .
} "<
t imest
AG E
Ġc fg
u d
Ġsoft ware
rame ter
Ġc or
u de
se nt
ar ning
vide o
c pu
value s
Ġspec ific
l m
Ġm ult
Ġf il
ĠC OR
I S
Ġa ct
yst em
pi peline
m ode
o pen
Ġhtt p
h er
Ġc an
ith er
ist er
m ult
Ġ end
ĠA pache
L o
it le
block s
Ġbu ild
Ġ |
ĠN VIDIA
_ (
load er
Ġ iter
r t
s cores
ĠV ersion
v ision
ĠO R
Ġ ]<
N orm
result s
D i
Ġon ly
Ġm ath
Ġ> >>
Ġatt n
Ġo ptimizer
Ġ check
Ġm odule
li ed
ĠCOR POR
Ġf a
ĠCORPOR ATION
Ġpo st
e f
lo t
n er
back end
\ \
ing le
and ler
r c
ĠC ON
pect ed
A M
Ġb ut
str ing
F a
bu ffer
a gent
Ġla st
rit ing
Ġ= >
ut h
pre ss
ww w
Ġl imit
Ġe ither
ok en
ĠI mage
o f
ri but
ĠO F
a ction
loc ator
c reate
b ar
ĠA N
ol ution
' :<
k v
num py
a in
r id
gument s
C H
w e
ist s
a re
ro ot
to p
ab s
so urce
t ils
ĠSe e
P ipeline
par t
ĠY ou
ent ype
Ġte mp
n ot
Ġsh ould
ĠEx ception
b e
cla sses
= [
y le
re q
Ġ }
he ck
vid er
all y
ĠI f
ate g
Ġ quatern
' ]<
Ġstr ing
Ġp i
Ġapp lic
Ġimage s
vi ron
le te
le vel
Ġin spect
co ding
Ġweight s
al c
Ġw indow
Ġl ine
fa ctor
P ar
s pa
Ġc urrent
Ġn ode
Ġob tain
temp late
di v
set s
U L
ran d
l ing
m ark
ĠI S
P RE
IN D
Ġs plit
Ġrequi res
i dat
re place
"] ,<
at ure
dat al
sh ot
Ġv ar
R O
ĠW AR
l s
Ġgener ate
Ġ extra
Ġme an
w right
stri p
le an
lay wright
image s
a xis
Ġ ):<
Ġ one
av ailable
me m
ve ctor
em pty
ob ject
R es
p th
ra w
di ffusion
e gatron
d b
Ġ{ }<
Ġla bels
ĠAN Y
ens ion
et r
Ġ 8
Ġ Q
Ġm atch
Ġen um
-------- --------
Ġf irst
Ġan swer
Ġla mbda
v ocab
Ġvalue s
Ġwh ich
I mage
Ġ url
Ġm pu
u ous
Ġt im
st er
st ant
ĠN ot
TION S
Ġa d
ss i
pp ing
ption s
ĠWAR RAN
htt ps
FI X
soft max
L icense
ĠT uple
() ,<
Ġw riting
Ġex press
Ġb ack
Ġlo cal
TI ES
Ġper miss
Ġembedding s
ĠW IT
clo se
ith ub
ĠWARRAN TIES
P U
Ġd own
Ġf eat
ex ample
f p
Ġa gre
LI CENSE
M ix
") ;<
. __
Ġfor mat
f la
li ance
process ing
Ġapplic able
name s
use d
ĠK IND
HO UT
Ġasync io
ĠWIT HOUT
ar g
Ġpad ding
license s
Ġpermiss ions
um m
Ġmodel s
Ġla w
Ġtransform ers
li ke
m atch
Ġa ss
Ġwor k
g ithub
ile d
mo ve
Ġcomp liance
b i
Ġ ..
Ġimp lied
a pache
"" "
co py
Ġg over
Ġh ave
ĠLicense d
ĠB AS
DI TIONS
module s
ĠCON DITIONS
Ġagre ed
Ġgover ning
ĠBAS IS
ĠUn less
Ġlimit ations
Ġo ver
PRE FIX
m an
o g
Ġinput s
ll m
> """<
] ]
Ġma in
5 6
if i
N et
P E
oi ce
al lable
et ro
Ġdi s
le d
ĠT ransformer
Ġhe lp
datal oader
ern el
Ġt ra
w idth
ĠM odel
pa rameters
Ġcont ent
Ġar g
line ar
t ing
in s
( __
x t
g ine
Ġpa rameters
u ff
Ġ1 2
se lect
trans pose
or s
pro j
Ġus ing
u gging
Ġf ol
ĠĠĠĠĠĠĠĠĠĠĠĠĠĠĠĠ ĠĠĠĠĠĠĠĠĠĠĠ
en der
Ġs cal
la bel
type s
ĠU tils
Ġpy test
ro l
Ġm ust
Ġen coder
la bels
ä ¸
num ber
Ġdi rectory
T rain
Ġsup port
Ġcom m
A N
Ġ J
ra g
b ool
an ge
ri pt
Ġdoc ument
Mix in
Ġsample s
fil ename
T O
Ġ keep
pre d
backend s
S cheduler
ĠG PT
bu g
Ġwor ld
Ġf in
one s
v ant
ve c
m ot
" ):<
ig uous
" ).
ca y
iv ation
t able
o ur
} \
po licy
Ġg pt
st ack
L U
ĠT ensor
iv en
Ġpa t
Ġc li
q a
ul ate
que e
me tr
Ġrequest s
ret ro
quee ze
a x
se arch
re qui
Ġf rame
Ġf ound
en code
Ġdi ffusion
point s
it e
Ġso urce
Ġin dices
er ate
but ton
ca che
F or
idat ion
stat us
s cal
le ase
ri e
Ġresult s
Ġre ad
02 4
s queeze
} .
Ġ 6
ra ct
di s
A tt
up date
fil ter
' '
re p
re shape
Ġmat rix
b ody
Ġin to
L ayer
er ge
Ġa v
ang les
Ġcor rect
L ist
Ġsh arded
< /
I L
e ad
input s
A r
ck pt
( *
P re
en c
nd array
Ġs k
em ory
Ġt uple
Ġp ipeline
oken izer
at io
en ch
de scription
0 1
Ġv ocab
Ġg radi
E D
g n
file s
h at
Ġa gent
lin es
er ature
ĠB ase
fa ce
ph a
in ue
Ġor iginal
reg ister
im p
ĠT ool
O DE
mat rix
ang le
o ptimizer
Ġof f
t xt
Ġo ther
Ġ qu
er t
DI R
Ġcon v
amp ling
pro b
Ġex ample
Ġkey s
it ies
Ġm ode
Ġf la
ar m
ĠP y
Ġenum erate
B ase
c urrent
ut f
if t
m bedding
Ġn on
ed i
cont iguous
group s
comm on
r ate
ml p
Ġne ed
a p
re f
Ġb et
E n
Ġa ction
cli ck
ssi an
" ),<
a ded
l att
Ġ> =
Ġs uc
di st
ĠA uto
Ġro ute
Ġc alc
ex ists
Di ffusion
C K
s d
s m
Ġm etr
ck er
embed s
de bug
9 9
em a
latt en
C T
de ta
att er
á´ ĩ
gener ate
Ġc all
tok entype
Ġvar i
c ent
amp ler
ent ial
s core
Ġpre fix
Ġwh en
Ġval id
Ġg iven
" ))<
u ct
de coder
de code
Ġ" <
Ġan g
mem ory
B lock
do main
F A
O utput
P AGE
la nguage
ag er
function al
Ġin stance
tensor s
le ction
Ġ( `
EM PT
S I
c um
l lama
v is
Ġ1 00
EMPT Y
n ow
ra pp
ed it
Ġch ann
] [
ï ¼
Ġ1 0
Ġfol low
t itle
u ation
Ġ zero
re turn
Ġdi ff
Ġex pert
gat her
for e
Ġem bed
by tes
ĠSh arded
is h
sh arded
UL T
ĠB rowser
htt p
etun e
0 4
1 4
= (
Ġ ent
Ġm eta
par ser
ĠD i
ĠD ef
stat ic
ĠF or
ĠC heck
Ġex ist
spa ce
Ġd rop
us al
Ġma ke
v a
Ġt r
Ġro ot
St ate
} )<
re sh
Ġan y
pro bs
Ġdataset s
d ition
5 5
D O
Ġc ls
sq rt
ateg y
n s
Ġob ject
au ssian
igh b
Ġs av
class method
Ġarg parse
) ))<
l t
ð Ŀ
Ġfor m
Ġ< =
t im
ex p
Ġrot ation
_ {
Ġc lo
Con v
Ġt rans
). __
Ġnorm al
( {
work ers
m m
o th
Ġst at
f irst
l ation
ĠR etro
Ġstr ide
o bs
le ctor
Ġs ame
init ial
s cheduler
w o
Ġ" "<
pro vider
co s
Ġse q
ĠP ro
h andle
app ly
Ġp laywright
ĠĠĠĠĠĠĠĠĠĠĠĠĠĠĠĠ ĠĠĠĠĠĠ
Ġl at
"] ,
"] .
if y
m ul
pt er
static method
p lot
s ync
w h
lo sses
Ġ202 4
en gine
} ,
T okenizer
ĠP IL
alle d
o ptim
at ing
com pute
bo ok
ĠData set
i e
i ble
Ġ á´
Pro cess
Ġcon tain
il ity
Ġd ropout
(" --
red uce
FA ULT
M A
. ,
ce ler
__ (<
ĠA PI
ĠC allable
Ġ ctx
di o
Ġl r
Ġ202 3
sw ers
u id
Ġt imest
ver y
back ward
ig ma
ol ver
cor rect
Ġ $
Ġmessage s
1 00
ep isode
ist ory
ip le
var s
Ġimp lement
oi ces
g ic
ust om
' t
vi ded
Ġse ed
ĠT est
Ġen v
Ġa pi
Ġe p
ise s
Ġinit ial
B u
f low
r ng
unt ime
ume l
as on
(" /
Ġex ec
"] ["
am er
Ġpat ch
P O
n ext
to tal
y n
Ġin st
Ġex c
batch es
Ġ vector
Ġre cord
C ON
E T
Ġ item
Ġ question
en viron
meta data
Ġ 7
Ġcon sole
transform ers
Ġt ransformer
ent ity
Ġwh ile
scri pt
h andler
or der
Ġfile s
Pa ram
timest eps
la mbda
c ision
col umn
message s
cli ent
frame s
Ġdown load
c ross
o se
(' --
bu ild
Ġm emory
c ur
o pt
Ġre g
ver age
Ġma gic
Ġo ptional
per m
L oader
var i
ut ure
and b
cu ra
ca st
col or
g raph
de cay
a uto
inf erence
or age
Ġe ps
r atio
2 2
f ul
i que
Ġe poch
) ]<
ĠC reate
Ġquatern ion
} /
path s
h as
Ġa x
init ialize
je ction
) ):<
ç ļ
al f
ch at
Ġoutput s
user s
çļ Ħ
O T
ĠA tt
down load
G ener
Ġa b
le g
Ġn ext
ol der
ac y
w ise
Ġcon vert
Ġla bel
e y
o v
Ġw idth
Ġro w
m ath
la p
qu al
Ġ utils
re cord
Ġh andle
py thon
able d
Ġcont inue
Ġca ption
Ġmeta data
g rid
ĠDef ault
ĠW e
a red
t uple
ble m
ro py
E X
o x
r iter
'] )<
Ġapp ly
T he
g t
s k
Ġk ernel
Ġ ),<
le vant
ĠG et
un squeeze
Ġfollow ing
1 1
C o
N AM
ĠS et
cor er
Ġdi st
Ġdo es
) ).
3 4
ri es
ort ed
re ak
Ġs ystem
Ġdim ension
it ude
Ġf inal
" \
f in
u g
Ġ- -
ri er
Par allel
st age
pro d
e vent
h ar
l ta
g round
Ġde coder
ĠG ener
Ġmetr ics
D e
Ġs um
Ġse ssion
Ġpro vided
R L
f ter
Ġ layers
. "<
w d
ĠT ask
Ġex pected
Ġcom pute
imp le
ODE L
c s
st d
st ract
Ġs core
Ġex p
ĠG PU
f ull
'] .
5 0
um ber
sw ith
] ["
form s
pro pert
low er
Ġal low
Ġz ip
d um
"] [
cura cy
ched ule
ribut e
6 8
E mbedding
H ead
S o
pre sent
) [
v ents
ate s
tool s
i date
P ath
f c
pa ss
di ction
ĠT e
Ġwh ere
K EN
ms g
uff le
S tr
Ġt able
Ġ" __
ul ar
ob j
T o
Ġst eps
Ġhe ight
G PT
Ġe lement
} ,<
Ġ video
st yle
(" \
pa ck
on ly
ro le
Ġs in
ex ec
Ġar guments
Ġen coding
av g
Ġbut ton
+ +
f req
E Y
Ġpath lib
2 0
A B
F orm
im pl
ct ed
Ġs ingle
mask ed
code d
expert s
Ġpi pe
A D
n umel
lo gging
mp lement
con ne
Ġor der
ĠT O
Ġpo ints
off sets
or a
TO KEN
A SE
ver se
Ġt wo
Ġs q
dir name
Ġm an
ad a
Ġfil ename
f latten
Ġt re
s in
y z
Con text
gre ss
Ġiter ation
arm up
ĠP re
Ġpro b
m edi
epoch s
A n
Ġpre d
Ġra w
ifi ed
b it
pad ding
stru ction
T est
Ġ202 2
umm y
c ript
n on
he ight
Ġj o
feat ure
Att ention
a range
f i
ĠM o
af et
M ODEL
Ġin cl
Ġs rc
l ong
p lay
ĠĠĠĠĠĠĠĠĠĠĠĠĠĠĠĠĠĠĠĠĠĠĠĠĠĠĠĠĠĠĠĠ ĠĠĠĠĠĠĠĠ
ho st
M egatron
Ġf p
chann el
Ġ" \
qu ential
ch oice
leg acy
K EY
U n
[: -
ĠH ugging
8 4
Ġre d
Ġse lect
di rect
Ġo bs
un ch
et ch
CH E
T ext
Y PE
k pt
s rc
Ġb reak
ĠM egatron
Ġfil ter
3 0
f er
m icro
Ġ{ '
cli p
man ual
1 5
Ġ` ``
mo e
g pu
s ys
un ct
ces sed
(" .
ng ram
Ġ1 6
perm ute
P o
b rowser
le ar
pe ed
__ ":<
ter n
resh old
i str
: %
b ench
o ption
or iginal
Ġ( "
Ġup date
T S
c ase
e ff
Ġn gram
Ġtest s
Ġass ign
c v
e g
ser v
deta ch
b one
etun ing
c ut
pa nd
: \
Ġ[ '
Ġl in
Ġtype s
r s
ent ropy
Ġde scription
Ġmo ck
B AL
st op
Ġc ur
Ġc lean
et ime
ath er
tr f
FI G
Ġbase d
ud ent
( _
F loat
T ransformer
Ġ dat
in v
an s
Ġget attr
ĠR es
gener ator
Ġpart ial
off set
################ ################
s ingle
re ward
de pth
Ġi gn
ĠI nc
Ġwor d
Ġtemp erature
Ġp la
an k
Ġde ta
: .
se nd
ra ises
age s
ĠP a
st ream
ool s
Ex ception
S h
s ign
Ġb ody
Ġ( ...,
pla n
chunk s
position s
I mplement
Ġst ream
par ent
Ġ} ,<
amer a
se gment
ur ing
un ter
ad cast
head ers
Ġch ange
Pa rameter
Ġtim ers
ï¼ Į
NAM E
s im
re move
Ġs cheduler
Ġg r
Re quest
Fa ce
t ree
ra ry
ar r
ur se
Ġtask s
LO BAL
ribut es
M ask
Ġ version
or d
Con t
json l
mot ion
metr ics
en e
he ther
am ed
Ġtensor s
propert y
F ore
u ch
Ġ1 024
wor ds
Ġal pha
rot ation
Ġang le
T H
f inal
i k
É ª
Ġ" .
ir s
ighb or
W OR
] ):<
Ġf ind
mask s
ber t
ro adcast
Ġk wargs
M E
iter ation
Lo gger
ĠTO DO
ĠL o
ction ary
tr uth
** /
Ġ &
Ġa fter
le ctions
Ġre present
py test
Ġblock s
Ġscal ed
m d
pa re
Ġa verage
Ġc kpt
id ual
ĠL I
Ġth an
stru ct
Res ponse
ĠHugging Face
) }
A PI
ma ster
prompt s
er ies
Ġ: ,
cat en
tokentype s
Ġt mp
od al
Ġfa iled
Ġgradi ent
se lector
Ġin ference
Ġcon dition
Ġbu ffer
let ion
ĠSharded Tensor
j ang
Ġf ield
Ġ' {
vi ous
Ġar ray
quest ions
Ġquatern ions
ting s
L P
R I
b lob
e ded
im um
we b
D P
de st
ĠF la
Ġbe fore
Ġbu cket
rapp er
Ġep isode
jang o
w er
ed Error
Ġp lt
size s
Ġse nt
t en
in st
ch ain
Ġpar se
act ivation
ĠT ype
ĠNot Implement
led ge
Ġdiff users
a ut
Ġ X
Ġin fo
Ġo ptim
data class
__ )<
ĠR ot
ĠCo m
Ġval idation
Ġprompt s
timest amp
ĠNotImplement edError
` <
j ust
CON FIG
ada pter
Ġg t
loc ation
ho ok
ra p
ĠC LI
que ue
Ġmult i
rand n
P L
p ri
Ġi ds
AT E
S et
en cy
pe at
con stant
Ġth en
global s
C ol
Ġh o
Ġst d
ment s
P RO
f ra
Ġconfig uration
ai ss
Layer Norm
o ps
s ystem
Ġ quat
Ġ license
Ġ[ `
bar rier
Ġfeat ure
Ġtre etune
0 5
Ġm erge
po ol
Ġd uring
iss ing
st ore
ri ces
process or
Ġposition s
% %
Ġ its
he l
Ġc ustom
ck le
Ġde pth
Ġextra ct
Ġign ore
F unction
a ke
Ġsoft max
afet y
C a
q kv
ort cut
li ent
po p
O P
al og
di ff
load s
p ng
Ġ 9
Ġ ext
Ġpre dict
ne ss
ĠCon vert
celer ate
3 6
Ġpro d
Ġmat rices
' ):<
s sed
É ´
se ssion
Ġf ull
ed ge
Ġm ore
ĠO pen
ĠNot e
Process or
> }<
h f
m it
t rue
Ġ u
ĠD E
Ġ_ ,
lib rary
Ġindex ed
Ġcol umn
are a
'' '<
C O
o ptions
de lete
ched ul
á´ ı
ac c
Ġcol lections
Ġhas attr
Fa ctory
example s
Ġt ree
ann ot
read y
Ġsav ed
8 0
D ropout
O b
f ind
ge lu
Ġc re
Ġc ase
Ġb in
Ġ' .
Ġl lm
ĠM ult
Ġpre trained
ĠQ u
Ġcli ent
M e
g radi
ut er
di ctions
ex pected
ol ve
Ġac ross
sq l
t mp
Ġt itle
la va
h alf
s ide
Ġ æ
Ġf ew
Ġ" ,
Ġm icro
Ġem b
Par ser
lo aded
ĠĠĠĠĠĠĠĠ ĠĠĠĠ
Ġre move
Ġs ign
Ġsupport ed
A gent
ĠL ayer
Ġy our
C h
Ġa u
Ġpa ck
ĠI D
unct ools
C E
ar s
an swers
ĠD e
================ ================
ĠTransformer Config
ĠS ample
Ġar gument
we en
metr ic
Ġoff set
a it
ĠA dd
Ġra di
T ER
` ,
f ew
o id
p g
Ġa p
Ġdata classes
Ġkeep dim
F ile
Ġ Z
Ġex pect
gat ive
caten ate
p df
it ialize
Ġf unctools
Ġw rite
ist ant
Ġeval uation
I M
i li
ro ll
co pe
ic al
Ġpo int
ffer ent
Ġ\ \
ific ation
Ġdo main
Ġw as
ma ke
output s
Ġchunk s
ĠSt ep
Ġact ivation
Param s
Float Tensor
G et
} )
um an
able s
grad s
Ġhead ers
Ġmult iple
ugging face
ema il
Ġdat etime
f older
al y
Ġs orted
ens ure
ĠC ol
sh ift
Ġco unt
jo int
f ill
u i
w arning
Ġw andb
Ġma pping
Ġse arch
iel ds
Ġchann el
h istory
ex it
Ġgener ated
DE FAULT
now ledge
c i
Ġre place
Ġs cores
Ġo pt
qu ant
let on
ĠData Loader
Ġcalc ulate
> _
c lean
f ree
cl one
Ġret rie
p end
x iv
ĠA gent
ĠC or
Ġdi ctionary
lu sh
D AT
Ġ ver
ĠA pp
Ġ' ''
bu cket
checkpoint ing
ĠCon fig
Ar guments
at ive
ro y
ar ge
pro gram
Ġr ender
fa ctory
Ġinit ialize
Ġle vel
Ġsc ript
M S
pa n
est ed
Ġh ere
pre v
Ġcom put
Ġ{} '.
requi res
Ġav ailable
Ob ject
C LI
c re
w armup
con sole
bu f
Ġte am
0 3
a ss
re ss
ĠT rain
Ġ' <
Ġj np
Ġset up
part ition
istr y
b eta
Ġ vi
ar xiv
time out
tra cker
doc ument
Ġm lp
ĠC h
a ctions
Ġ3 2
á´ Ľ
Ġ{} ".
Ġbet ween
] ).
Ġs ampling
ĠĠĠĠĠĠĠĠĠĠĠĠĠĠĠĠ ĠĠĠĠĠĠĠĠĠĠĠĠĠĠĠ
Ġtime out
Ġspec ified
Ġrun ning
Ġsuc cess
has h
( **
e lement
le ft
Ġre al
sh ared
Ġfeat ures
: ]<
i form
~ ~
Ġ å
Ġ view
in ner
Ġre f
ent ry
con vert
ĠL LM
ke leton
Ġl m
** **
} {
di rectory
Ġpy thon
patch es
inter val
icro soft
Ġsk ip
' ],
F rame
T his
c urr
Ê Ģ
Ġpro gram
Ġen coded
ĠLI CENSE
L e
Ġsh uffle
fo o
ĠPy thon
F O
] ))<
g in
Ġo ld
Ġd one
Ġdata class
ime out
Ġse gment
ĠU p
ĠE rror
Ġso me
argument s
Ġlat ent
" [
m erge
st om
able Diffusion
ta g
cu stom
Ġca che
viron ment
k ed
Ġf ree
ext end
Ġpa rameter
ition al
Ġne g
requi red
N ot
b ot
} '
ro uter
ĠN umber
token ize
Ġbu il
Ġmean s
ĠTe am
V alue
e ed
m port
Ġf ix
Ġwith out
open ai
n one
s up
} :
Ġ util
ĠM icrosoft
lic ate
Q u
_ ,
d p
p or
Ġc rop
form ation
Ġno ise
U M
Ġb s
doc s
2 56
Ġc urr
9 6
me gatron
Ġo per
Ġname s
lat ive
stat s
Ġconv ention
Ġclo sd
dest roy
1 8
C heck
z y
re ason
Ġa ff
Ġs igma
Ġp ool
as ic
py torch
Ġdi r
ĠO utput
dim s
mo v
umm ary
scal ing
Ġchann els
Ġngram s
U SE
f lat
en o
ma il
inf os
checkpoint s
Ġ` `
Ġtool s
Ġin di
Ġb eta
start swith
quatern ion
Ġre p
Ġs ure
li ce
Ġal ready
En coder
ĠFla x
7 7
U D
h ub
Ġ edit
Ġp d
bo ard
={ "
af ter
fla g
Ġfin etuning
Ġfla g
Ġt p
Ġw arning
ab ility
ri eval
gument Parser
ĠIn dex
let ed
Ġgroup s
Gener ator
stract method
k ernel
ex pand
th reshold
str ategy
Ġpa ssed
ne g
In valid
Re g
cent er
2 5
I G
} ",
Ġt er
ens ions
ĠL oad
ĠW h
Ġgener ator
vis ible
ĠT ext
Ġl inear
out e
am l
ĠSe quence
Ġ 64
Ġ dataloader
se en
ch oices
ent er
Ġstr ict
ast ype
sm all
usal LM
medi ate
ĠCor por
ĠCorpor ation
d one
g b
s g
x yz
Ġ let
Ġin formation
Ġs chedule
Ġlo aded
uc cess
ifi er
: ",
U N
ma pping
Ġch oices
Ġcol or
f uture
en coding
it ive
Ġrot ations
G LOBAL
L oad
N ame
d ot
h ot
s igma
in ov
re set
al pha
Ġg rid
Ġtarget s
Ġqu eries
Ġstat us
ĠDefault s
Ġ like
or k
al ys
le x
ĠE n
Ġy ield
test s
Ġbet as
CHE CK
alys is
> ):<
n own
Ġt ak
Ġst yle
ĠI mport
lat itude
au dio
Ġback ward
Bu ild
# <
c ing
y per
sh ow
length s
iter ator
call back
Ġinst all
set up
pro ject
Se quential
ĠĠĠĠĠĠĠĠĠĠĠĠĠĠĠĠĠĠĠĠĠĠĠĠ ĠĠ
Ġtr unc
fin ish
l ight
Ġf lush
li sm
Ġr ate
Ġstate s
Ġq kv
Ġ5 12
bin s
Train ed
1 3
v it
y m
pa ce
en um
al len
Ġ" --
un et
Ġe vent
Ġrot ary
({ "
Ca usalLM
W ith
k l
o ptional
r ender
an dom
Ġ1 000
For CausalLM
S ampler
p ers
s ampling
t s
de lta
Ġ' '
Ġpi ckle
Ġdis able
Ġg round
Ġ* <
alle lism
Ġpre vious
Pre processing
ked irs
t ry
Ġc la
Ġg lob
Ġlo c
Ġrank s
7 8
> """
de c
Ġf req
as sert
to list
Ġtorch vision
Ġma p
Ġco s
Ġr ng
stri de
Ġsh ift
iter al
transform s
Ġimplement ation
e ct
k s
l ue
un it
Ġdi fferent
ĠI N
je ctor
mo ck
Ġtransform s
Ġopen ai
dum ps
Ġincl ude
Ġlin es
æ ķ
il ar
text s
Ġst age
Ġtok entype
EN D
Ġval idate
ĠBrowser Context
5 12
t p
Ġ ensure
en able
re peat
ed Dict
Ġm issing
Ġn et
iz ers
un ic
to col
Ġ2 55
res olution
Ġem pty
url s
Ġpath s
comp ile
---------------- ----------------
serv ation
C A
â Ķ
Ġ ge
pa rameter
ut or
con catenate
Ġj ust
Ġne eded
normal ize
: ]
P P
P AT
Ġh andler
ĠM eta
work er
ĠEx ample
/ {
1 9
M an
s chedul
lo gs
mp l
Ġcon ne
Ġ2 00
Ġpro ject
pi pe
temp erature
Lo ss
Preprocessing Config
A da
M eta
Ġc alled
Ġn ow
pro jection
Ġbe en
bu il
á´ Ģ
ob ot
Ġreg ister
' ))<
b its
z ip
Ġa uto
Ġre set
Ġi o
ex ception
() )
ff ers
bo se
allen ge
1 7
L D
Z E
b f
Ġre levant
EN T
idx s
object s
ĠDE FAULT
S pec
T RA
b ers
at er
Ġst op
ĠP er
av ed
Ġeval uate
Ġcomm on
0 6
S erver
re direct
de g
im odal
co ok
pp ed
Ġj ax
Ġgener ation
2 4
T orch
å ı
Ġthe ir
Ġd jango
Ġper form
1 024
K ey
` ]
l ens
s ing
on t
re al
le ep
Ġfor ce
(" #
.. /
sc atter
In put
comp lete
Ġcontain ing
C L
` .<
m bed
Ê Ł
Ġl ight
Ġmask ed
UD A
Ġ library
Ġf unc
an h
all back
ĠM LP
Ġload er
Ġca st
tra ce
ĠĠĠĠĠĠĠĠĠĠĠĠĠĠĠĠĠĠĠĠĠĠĠĠ ĠĠĠĠĠ
Ġmethod s
man ager
gradi ent
) ),
f id
{ }
le m
get item
con ds
pro blem
ĠI ter
ca ption
ign ore
Ġsent ence
ĠRot ation
` ):<
Ġt k
ed uce
Ġen c
ne ed
In dex
12 3
- <
c an
ex pect
ul ation
get Logger
ri de
ĠR oute
loc ity
rapp ed
' ).
ran t
Ġlo op
ma kedirs
Ġ2 0
Ġdi sc
res pon
ĠF ile
ĠĠĠĠĠĠĠĠĠĠĠĠĠĠĠĠĠĠĠĠĠĠĠĠĠĠĠĠĠĠĠĠ ĠĠĠĠĠĠĠĠĠĠĠĠĠĠĠĠ
Ġ12 8
Ġgradi ents
Ġang les
P A
R un
se c
get env
pre dict
Ġth read
ĠG aussian
ret rie
Ġcomm and
Co mp
Sh arded
! ]
) ;<
I D
S C
` ):
f used
l st
re levant
ge st
Ġre ward
Ġre ference
Ġp s
Ġg o
pl its
stribut ion
ĠIn put
Ġcli p
Ġlicense d
æķ °
c amera
i ent
u lf
Ġt rue
ĠĠĠĠĠĠĠĠ Ġ
Ġs m
di fi
Ġb oth
Ġlo sses
Ġde l
Ġpre cision
Ġint eg
Res ult
Ġsav ing
Me ssage
H E
T uple
i b
i ce
x ic
Ġ heads
in sert
en ded
al t
li p
(" **/
Ġco ver
pi x
Ġen vironment
Ġmask s
Ġad just
ĠDi ffusion
WOR K
hel lo
ĠCol umn
2 00
M ult
ue st
co ll
ĠP o
ĠO llama
ĠU se
ac curacy
comm and
uid ance
: :
> __
O ptimizer
Ġ ).
pa c
al low
Ġf used
me g
Ġan swers
"] :<
lat ent
Ġqu ant
Po licy
> ]<
B O
M Scheduler
e very
t ri
Ġm y
ran ch
(" <
Ġwith in
Ġpro vide
cont rol
ac count
spec ial
Ġtra ck
Man ager
U RL
j pg
Ġs im
Ġcon s
Ġcon stant
ĠP lat
Ġun ique
rot ary
å Ī
Ġf ast
Ġo ption
Ġw ant
ĠIn itialize
Ġhas h
clo ud
node s
ful ly
G B
M o
S ON
\ <
h params
s leep
or ig
ar n
ot ion
Ġh istory
Ġdata base
ĠO r
lic a
======== ====
off load
Ġtimest eps
Ġexec ution
Ġpredict ed
P LE
st able
Ġ( (
Ġd f
Ġlength s
ĠMult i
I O
I d
N ode
c am
f ulf
s corer
z en
ur er
me s
un ique
Ġh f
el l
"] )
Ġro le
ry pt
N o
Ġo ptions
ĠT YPE
Ġde lta
pre c
Ġse nd
Ġse cond
Ġch at
ES S
no ise
4 2
O pen
U ser
_ <
_ )<
c lock
Ġstr uct
ĠI t
Ġth ere
Ġla unch
") ).
mo oth
Ġad ded
auto grad
CHECK ING
* ,
S S
] ]<
h a
n Mask
Ġ ],<
se ction
Ġ" _
id get
() [
Ġg raph
Ġpar allelism
eps peed
mot e
ĠAuto Tokenizer
V ER
æ ľ
lo op
Ġm sg
Ġreturn s
Ġex ists
shape s
cept ed
request s
Str ategy
Ġfew shot
F T
h ave
o o
ch ange
ĠĠĠĠĠĠĠĠ ĠĠĠĠĠ
Ġn ested
Ġpro vider
Ġpre v
nn er
Ġby tes
Ġpo p
ang uage
Ġload ing
sum m
Ġcor respon
rand int
Ġexample s
ighb ors
Ġnormal ize
ĠOpen AI
Ġwarning s
nMask Type
4 5
r im
é Ģ
Ġ port
en abled
Ġin f
ex ist
il ter
ĠR ep
ĠB u
Ġbatch es
ach er
ĠAuto Model
yn am
ili ates
Ġaff iliates
f y
k nowledge
ä »
æ ĺ
re size
Ġfunction s
top k
tim ers
sk ip
plan ation
S H
V A
b et
p c
r gb
t ic
} "
å Ĳ
al ize
ĠA n
ho me
mult i
Train er
vari ance
dum p
Ġred uce
ĠImport Error
j it
ve locity
Ġsh util
check er
IN FO
ac cum
fra c
" ),
D is
F F
L LM
P lease
Ġ" ")<
Ġc ore
val idation
ĠĠĠĠĠĠĠĠĠĠĠĠĠĠĠĠ ĠĠĠĠĠ
Ġex it
cal c
Ġra g
Ġle arning
ĠĠĠĠĠĠĠĠĠĠĠĠĠĠĠĠĠĠĠĠĠĠĠĠ ĠĠĠĠ
Ġtemp late
ĠCom pute
e qual
v en
pa y
ro zen
Ġc v
task s
8 9
C lass
P UT
g er
o led
s ampler
Ġp rag
Ġe t
pre dictions
Ġsh ard
Ġpro bs
Ġconfig ure
back bone
AS S
Ġdefault s
fla x
Ġprag ma
" }
M PT
R N
] ):
d up
ĠCon t
sub ject
cond ition
Ġjo ints
Ġ``` <
Ġ'' '<
uest ion
T h
V e
f name
k dir
ar range
ĠĠĠĠĠĠĠĠ ĠĠ
Ġm u
Ġre ason
per im
Ġatt ribute
ĠCon v
Cont ent
T P
T Y
V al
re lu
ĠN OT
len ded
ep copy
Ġde sc
ĠD o
ĠU Net
Ar gumentParser
Ġprod uct
Ġap pro
Ġcla sses
' {
T e
i re
s imple
v q
Ġb roadcast
Ġlo w
Ġ* =
list dir
Ġres idual
row s
Ġpo licy
ĠĠĠĠĠĠĠĠĠĠĠĠĠĠĠĠĠĠĠĠĠĠĠĠĠĠĠĠĠĠĠĠ ĠĠ
gener ation
For ward
Diffusion Pipeline
EX T
pass word
conne ction
Ġsq l
Ġdeta ils
meg a
fulf ill
E vent
] ['
b n
g en
g ab
i ck
pad ded
Ġme gab
ter min
'] ,<
Re turn
POR T
SI ZE
tim es
ox el
Ġmerge d
Ġsm all
T ES
] .<
c rop
e et
r u
x x
re po
di stance
Ġp ers
Ġ1 5
ĠA da
ab stractmethod
train er
lic ation
ST R
Ġret ro
Ġact ual
rt ual
initial ized
Megatron Module
Ġlight rag
F ound
H el
] :
} ')<
å Ĭ
th ing
Con dition
ble ms
jo ints
Ġne ighbor
Ġac curacy
Ġmo e
gment ation
alc ulate
episode s
B ASE
C hat
F ield
N UM
w s
w rap
y d
â Ģ
Ġ ct
ch ron
Ġs ummary
Ġp lot
ĠM e
mat mul
pat ial
Ġfa ctor
uff ix
encode d
untime Error
ĠLayer Norm
3 84
l im
s uccess
me ster
Ġ( {
Ġg ather
Ġh and
Ġh igh
je ctory
initial ization
yn chron
Str ing
" }<
0 7
R OR
q pos
s l
t k
u ally
w andb
ge x
Ġ" {
port ed
di sc
me l
il on
il ities
Ġd eno
Ġh params
Ġde cay
Ġch oice
Ġ: ]<
Ġpad ded
Ġsub process
ĠSt ableDiffusion
uth or
Ġnode s
State Dict
ose n
ug h
A dd
O ptional
R etro
] +
f etch
ã Ģ
or ds
Ġa bs
di alog
un iform
Ġex ception
ĠE mbedding
ator s
In ter
ĠK ey
run ner
ynam ic
E L
] ]:<
i ces
m t
st orage
Ġ# #
ol ute
() ))<
ĠA l
ĠM odule
ment um
Ġrequi re
RE D
col lection
act ive
uc ed
last ic
A ny
] ],
d ense
h uggingface
u int
or iz
Ġin d
Ġp p
Ġthe y
ĠL iteral
ĠS o
att ing
ri ch
out er
Ġen gine
Ġac count
bin ary
MA X
PO ST
ĠGener ate
a ract
ä º
Ġ" [
Ġc ross
Ġb ins
pre diction
Ġcont rol
lect urer
An swer
Ġvi a
PA RA
B y
P ool
Q A
b os
l imit
| >
Ġm m
ul ator
ĠN orm
up per
end swith
Ġpro cessed
Ġpre processing
SE T
inal g
ĠSe ssion
AL L
abs path
Ġwork er
inst all
9 5
T YPE
V i
V ar
_ .
h uman
å ¤
Ġthe m
ĠT h
ĠR a
ĠD DP
head er
Ġpre diction
ðĿ Ĺ
celer ator
So urce
e ft
g or
o ther
u ction
ĠN o
Ġd on
Ġdi rect
ĠP ar
(' .
á´ ľ
ide o
ĠPy Torch
plot lib
PAT H
C om
E LU
] (
f usion
Ġ è
Ġreturn ed
mp u
co st
Ġcon d
ĠL inear
Ġdi v
ĠR un
Ġpro blem
ip ly
index ed
EN AI
Ġ% .
rol Net
Ġoff sets
Ġcre ated
pac ity
summ ary
gor ith
3 5
F OR
y aml
po lation
Ġse e
lock s
Ġun et
([ <
sent ence
Ġscal ing
lap sed
ĠBu ild
1 000
> {
H T
_ [
ra st
th is
ĠT o
Ġan s
ĠL lama
ĠS ave
ĠS core
Ġun it
iv ations
af e
Ġvari ance
Ġent ry
PRO MPT
Ġfreq s
T imeout
k it
ç Ķ
ê ľ
in valid
ro ugh
Ġs y
ex cept
Ġe qual
ĠA d
user name
Ġ: ]
ou g
ass istant
ĠPlat forms
) ),<
2 7
b ank
i py
m y
m kdir
s ig
pa int
th read
ic ient
Ġd ot
Ġ' __
ĠR untimeError
ng ine
lat form
Ġmo v
constant s
ĠApp ly
WORK ING
Ġcorrespon ding
E val
s olution
s olver
â ķ
ra s
Ġre lative
li sh
Ġ' \
ĠR o
ĠW hether
ER S
Ġal so
tra ct
stru ctor
arg v
Ġexist ing
Ġab out
cs v
C lient
Y ou
ed Dataset
Ġb ert
ri ver
Ġar ch
(' /
pi ed
ĠU RL
feat s
normal izer
Ġcall s
ĠAtt ention
V ision
z z
Ġ rich
ro gram
ut ton
it ial
Ġs olver
Ġ( '
Ġ2 56
layer norm
code s
'] :<
av ig
Ġset tings
Ġob j
={ <
Ġdocument ation
Ġav g
SI ON
Ġvector s
}/ {
DAT A
Te mp
oriz on
3 7
T EM
s v
in k
de v
em pt
ist ic
00 00
Ġmax imum
ĠRe quest
ph as
Dataset Config
Ġac celerate
og le
04 8
Ġselect ed
G roup
S c
U P
ä ½
æ į
Ġin v
to xic
Ġe ff
ĠD own
IN T
12 8
St ep
St ream
St orage
Ġwe b
Ġtim es
Ġwork flow
ench mark
ĠAutoModel ForCausalLM
perim ent
N umber
s mpl
ot e
Ġ' -
us age
Ġres olution
stri ct
ces ses
'] ['
LO G
wh en
CLI P
Ġsuccess fully
f ields
p il
Ġ ),
Ġf etch
Ġre port
rom ise
Ġe vents
Ġe mail
Ġ[ -
Ġ[ ],
ne ighbor
Ġmodule s
be fore
Ġdocument s
++ ++
%% %%
) ")<
= ""
B U
c ed
i um
r m
Ġ edge
Ġ= ================================
Ġre arrange
em ent
ĠO n
load ers
ĠB y
Ġuse s
arg in
Scheduler Mixin
ĠDi stributed
Ġpla ce
2 1
C UDA
Ġa g
Ġf ig
he x
ĠS plit
par ate
IN DE
ca use
ER ROR
extra ct
part s
fla gs
INDE X
) }")<
0 8
7 68
L ong
T ool
l inalg
ut ed
Ġre size
Ġc l
Ġs l
Ġs corer
Ġb one
IN E
ne gative
ER T
ob servation
pat tern
Ġ5 0
comm it
Ġsub ject
Ġgrad s
Ġtimest ep
Ġtimest amp
ummy Object
O UT
W E
b float
é Ĺ
Ġc pu
Ġd b
Ġh s
wa ys
ĠV al
Ġpo ssi
Ġdefault dict
Ġ7 68
rs p
sign al
ib ility
Ġmegab locks
4 8
B utton
M L
m od
s chedule
} _
Ġt en
Ġi p
Ġw ait
(" %
len d
Ġg en
ĠĠĠĠĠĠĠĠĠĠĠĠĠĠĠĠ Ġ
par ents
Ġex ce
Ġma ster
ĠD P
Ġv is
Ġk l
fa iled
Ġus age
enc ies
ĠMo ck
Ġver bose
coll ate
Hel lo
m u
r ic
å ħ
re ction
ar ding
ix ed
cont inue
right ness
Ġle ft
tes IO
ilar ity
deg ree
b lue
e vents
or ed
al ong
im ation
ur ces
Ġd s
Ġpar ent
fa st
Ġal ong
RA G
Ġcom bin
St art
Ġle ast
Ġmetr ic
reward s
aly ze
I C
W AR
] ),
Ġo p
dat ed
Ġb ar
as h
do ut
cor ds
ĠR et
ter m
ta ct
Ġatt ributes
Ġdim ensions
Ġcom pat
vert ices
cla mp
Ġinter cepted
Ġfin ish
vant ages
ĠPro cess
Ġlat ents
Ġmulti processing
Ġau dio
Trained Model
. ')<
d it
s y
re en
de te
Ġm ark
Ġin ner
to do
__ <
co unter
sh ortcut
ĠP lease
Ġpro gress
mult iple
Ġvari able
Ġcontain s
ik token
. ",<
4 7
I f
L EN
r l
s afety
t f
w rapped
st udent
Ġa da
Ġ" ",
(" {
ĠC hat
Ġst ory
ĠB ert
ĠW ork
Ġ% (
iv es
Ġsc ene
wh ere
Ġjo int
bench mark
ĠPa rameters
enum s
Long Tensor
9 8
L AG
P rompt
c c
d river
i a
n an
Ê ľ
in ed
in cl
in struction
im ic
ra ble
Ġf name
Ġc u
Ġp t
Ġe very
Ġan not
ri a
ĠR em
ĠD oc
ist ics
ĠCon sole
quatern ions
Ġpart s
Fa iled
IG H
Ġter ms
Ġlet ter
5 7
D ep
D Condition
L LE
[ [
{ "
æ ĸ
Ġf latten
Ġre search
dat es
Ġlo wer
sh uffle
Ġst udent
pro cessed
Ġwor ds
Ġ5 00
meta class
reg ion
Ġdis play
ĠJ SON
Ġav oid
Ġinitial ization
Not Found
unic ation
D B
T rans
a e
c alled
l ora
Ġin her
Ġw hether
co eff
Ġpar ents
Ġ> >
extra s
ĠSh ape
Ġepisode s
ĠQu ery
" })<
2 8
H andler
f ield
t ure
u sh
å Ľ
Ġt f
lo ps
Ġre q
Ġs uch
la unch
ex c
Ġb est
Ġd inov
Ġnum bers
log in
bo ve
lu g
function s
Ġincl u
. *
S plit
m imic
in to
Ġf ill
co urse
ff n
Ġset attr
Ġcol lect
stant i
Ġobject s
Ġallow ed
Le vel
= _
> ")<
? <
D ummyObject
S ize
p r
s i
Ġ questions
se n
se p
at uration
Ġm em
pt ed
ul ary
Ġpa per
ĠL ight
der edDict
Ġde pend
Ġl ong
Ġch ain
bu ffers
ĠCo mp
Ġ: -
ac celerate
ĠH T
Ġsize s
local host
`` `
Ġurl lib
cum prod
Ġinst ead
Ġtak es
4 3
L ow
R GB
S ub
c r
e ar
g lob
r untime
er obot
Ġt iktoken
ĠT able
Ġst and
Ġde code
Ġse conds
Ġl erobot
dir s
Ġpro jection
am ma
the ta
gn itude
ater mark
= <
C AL
F ilter
M O
Ġs d
iz ing
ue s
ĠC lient
ĠC alculate
Ġco unter
check box
Ġpar sed
bo und
á´ ħ
env s
bin d
rep ly
OP ENAI
Qu ery
schedul ers
difi ed
PARA LLE
âķ Ĳ
B atch
U tils
n ap
w riter
la n
set tings
ĠP rompt
ĠF unction
Ġen able
Ġv ision
12 4
comp letion
Ġmat plotlib
stru ctions
Ġhead er
part ial
ðĿ Ĵ
exec ute
Ġprob ab
gorith m
A d
I ter
æ Ī
re port
it ers
Ġf eet
Ġb ox
__ ':<
att ed
mo id
mo use
Ġtext s
fa il
ĠAr guments
Re LU
ĠGPT Model
Ġvari ables
Ġtmp dir
ĠID s
TEM PL
IGH TS
, )<
C ode
w rapper
é ¢
data s
ĠA sync
ist ent
TI ME
Ġpo se
Ġne gative
Ex ec
Ġexp r
nap shot
A l
N O
b t
f r
g it
s keleton
x y
à ¸
Ġin sert
di c
ser ial
ĠĠĠĠĠĠĠĠĠĠĠĠĠĠĠĠ ĠĠĠĠĠĠĠĠĠĠĠĠĠĠĠĠĠĠĠ
Ġst ore
Ġde lete
ĠF a
pre cision
config uration
Ġr atio
if act
ance l
bo mimic
pen alt
Ġsequence s
Ġsc ipy
rep r
vis ual
Ġent ries
DCondition Model
âķĲ âķĲ
! /
- >
5 8
5 00
E lement
E mbed
N OR
[ <
e os
g ame
n amed
p laywright
} ",<
Ê ı
å º
Ġa bove
it ch
ar ras
ur u
Ġo ps
Ġw riter
Ġe in
Ġd t
model ing
Ġh alf
us r
res net
if rame
Ġch aract
Ġpo oled
mean s
spa n
Ġmatch es
ngram s
finish ed
Ġtokentype s
I I
Ġc enter
ur bo
con tain
ĠM ake
base name
lat ents
run e
filter ed
Ġab c
pool er
Ġbin ary
G rad
l ated
p us
t anh
è ¯
Ġ items
Ġ" )<
Ġc od
(" ()
Ġdi alog
per cent
so cket
Ġno qa
over lap
select ed
amer as
ci i
3 1
D S
D ING
O p
T E
] ],<
g aussian
h s
p id
Ġ" **/
Ġs w
() ).
vi rtual
att ributes
Ġdi stance
pre ds
ok up
ip her
ern al
late st
Ġcheckpoint s
ĠModel Type
ĠRetro PreprocessingConfig
AB LE
ĠCLI P
Ġradi ans
~~ ~~
Ġinteg er
" },<
2 6
E ngine
f allback
o ok
Ġa round
Ġm otion
Ġre call
Ġ# <
init e
Ġar r
cess ary
Ġsh ow
ĠB e
Ġbe cause
back ground
Module List
Ġprocess or
ateg ory
Ġover lap
Ġpat tern
deta ils
IM AGE
ĠWh en
Ġconne ction
ĠOr deredDict
2 02
: ],
A pp
c lear
s lice
in ds
er o
Ġa ctions
Ġo ur
Ġimport lib
as cii
pro blems
Ġdi stribution
---- --
ant ic
ject ed
Ġmessage box
ĠĠĠĠĠĠĠĠĠĠĠĠĠĠĠĠĠĠĠĠĠĠĠĠ Ġ
So ft
conne ct
ĠMegatron Module
Ġpop up
ĠNOT E
yd ra
Ġind ent
NotFound Error
A ll
G ET
P S
k y
n dim
ch rom
Ġb enchmark
il y
Ġcon st
ĠL a
lic it
pl us
te ger
Ġlog uru
iv ed
Ġpy torch
PI L
ag ing
Un ion
lear n
bet as
ãĢ Ĥ
çĶ ¨
B ert
F uture
\ .
_ ):<
b al
c md
al loc
Ġc am
Ġs plits
an alysis
to wer
Ġg aussian
Ġde epcopy
train able
Ġor ig
oc us
qui red
Ġatt r
trans ition
lin k
Ġtrans cript
ĠConfig Mixin
Ġcod ing
4 0
E num
R andom
U RE
a ff
b x
c le
e ach
} $
or ies
)< /
he lp
Ġs pa
pt ure
Ġlo gs
lay book
app ing
ub le
ann er
Ġk v
Ġfa ke
arg max
bi encoder
ĠCheck point
ĠCLI PT
Ġsign al
reason ing
Ġdirect ly
PARALLE L
é¢ ĺ
" >
> -
> "<
O G
c nt
ç »
Ġin struction
ue ss
Ġ1 1
Ġg old
ĠC ustom
der r
att ribute
ub lic
ĠB lock
pi p
ĠU ser
pos itive
eval s
ne ighbors
pla nner
base d
Ġper m
Ġfol der
rag raph
Ġother wise
ĠAtt nMaskType
Head er
merge d
ĠIndex edDataset
CA CHE
ĠPer form
* ",
: ,
= ["
L L
b roadcast
h i
p isode
t ab
è §
al phas
lo y
Ġin p
Ġs cope
ĠN ew
up load
Ġst orage
par ator
Ġth rough
Ġse en
rame tr
rank s
om ic
ĠSharded StateDict
Ġcomput ation
Ġthread ing
============ <
Ġet c
C allable
U p
` .
b ranch
k nown
r nn
s aved
t qdm
w idget
in spect
on al
re mote
st dout
Ġs olution
Ġe ven
Ġpa nd
># !/
() ):<
Ġg uidance
ĠĠĠĠĠĠĠĠĠĠĠĠĠĠĠĠ ĠĠĠĠ
Ġsh ortcut
ĠE val
av ing
gener al
Train ing
En v
Bu ffer
prod uct
segment s
Ġrepresent ation
Ġrep lica
STR ING
ĠRa ises
Ġpand as
) ]
2 3
O S
W e
l ers
m g
m i
n x
s p
Ġ queue
or n
ch ar
lo ut
Ġ" -
Ġp latform
po w
pl at
Con f
ĠE uler
Data Parallel
ac ross
16 384
Ġmo di
edi a
Loader Mixin
aly zer
ĠUp date
Ġbuil ding
Ġhash lib
ĠLlama Factory
N ING
P ie
U B
U R
k h
m c
s a
s li
w b
w in
in p
in u
in ation
in verse
er c
er r
re compute
me sh
id ent
Ġ- =
Ġh uggingface
alle t
ĠD AT
ĠI M
app lication
Ġpre process
Ġpre dictions
inf er
dd p
tra j
trans cript
Ġprob ability
Ġho ok
exception s
A c
S cal
V AL
e od
h older
pa ir
se lection
on ce
en gth
Ġf aiss
Ġc amera
Ġb i
un ds
## #
ab el
Ġde c
Ġde scri
Ġco urse
Ġl lama
ĠM ask
Ġ4 0
ĠĠĠĠĠĠĠĠĠĠĠĠĠĠĠĠĠĠĠĠĠĠĠĠĠĠĠĠĠĠĠĠ ĠĠĠĠĠĠ
Ġid ent
Ġcont rast
Ġuser name
Se quence
Ġinter mediate
window s
miss ing
Ġneed le
cur s
ĠMo E
Ġein ops
. )<
3 8
A Y
A CK
I t
Q uestion
l n
o ve
or es
er i
al ity
Ġf ields
la ng
id er
ul lable
ĠL anguage
Ġh ow
lay out
cor ator
Ġres net
á´ Ħ
Ġal ign
fil ters
sub modules
Ġiter tools
Ġclo se
Bu il
ĠTe mp
Ġradi us
USE R
smpl lib
Ġbar rier
) "<
7 0
O ptions
V E
W hat
_ ()<
h igh
p k
p kl
å Ń
pa rametr
en ding
re cv
Ġre lease
Ġin verse
ur al
Ġ( [
## #<
ĠĠĠĠĠĠĠĠĠĠĠĠĠĠĠĠ ĠĠĠĠĠĠĠĠĠĠĠĠĠĠĠĠĠĠĠĠĠĠĠ
ĠR educe
Ġla ng
idd le
Ġpre sent
pu sh
fix ture
target s
') [
template s
Ġtim ing
Ġtra ce
dis patch
va e
Ġstat s
Ġá´ Ľ
################################ ################
Ġnet work
pix el
Ġstruct ure
ha vi
penalt y
Pie ce
Q U
e uler
l lava
n avig
s orted
s patial
ro q
Ġm od
ce il
Ġp c
un ing
ad ded
ck ed
set dir
Ġ{ :.
ĠL e
ĠS tr
ĠR andom
ĠD B
ĠI d
Ġl lava
Ġsh ort
error s
async io
reg istry
conv ention
Ġglobal s
Form atter
ĠAgent P
Ada pter
Open AI
si red
ĠHT TP
F E
i os
w n
Ġ vec
ut able
ch ild
Ġp m
ent ries
po ses
Ġ- --------------------------------
ĠT oken
Ġ1 3
ol ved
Ġ' --
ĠC PU
ĠL og
Ġex planation
ĠD ropout
eight s
Ġbe low
Ġbe gin
ĠG lobal
ĠV Q
ca usal
group ed
Ġapp lied
Re ad
FI LE
)) ))<
Ġpart ition
etr ic
scal ed
Ġvari ant
Ġ[` ~
cook ie
RN G
Vi ew
Ġcu da
7 9
t b
ð Ł
Ġt ag
di a
Ġp ri
Ġd ynamic
() ]<
Ġh i
ab c
Ġ2 5
Ġde te
class ification
ĠD is
da y
Ġch allenge
eval uation
Ġte acher
gre en
au x
Ġover ride
ĠFor ward
Ġelement s
ĠĠĠĠĠĠĠĠĠĠĠĠĠĠĠĠĠĠĠĠĠĠĠĠĠĠĠĠĠĠĠĠĠĠĠĠĠĠĠĠ ĠĠ
) (
s qu
on ent
ro ps
Ġre direct
port ion
() }<
vi dia
dim ension
Ġ/ =
ĠG LOBAL
IN TER
") [
'] [
Ġsample d
radi us
fo und
Ġframe s
ĠBrowser Type
ĠLo ss
clean ed
fid ence
Ġconstant s
VER SION
æĺ ¯
LEN G
Low dim
: ")<
T EXT
W riter
} .")<
æ ŀ
Ġf id
Ġf lops
ĠĠĠĠĠĠĠĠ ĠĠĠĠĠĠ
Ġs afety
um p
Ġw armup
ĠĠĠĠĠĠĠĠĠĠĠĠĠĠĠĠ ĠĠ
all reduce
cor ding
Ġbe ing
Ġj ob
... ")<
Ġal ways
ret rieval
Ġret rieval
shot s
**** ****
ĠPo licy
ĠDown load
' .<
3 9
A X
A nd
C ho
D F
e lem
h and
j np
m on
en g
Ġre po
pe g
Ġthe se
Ġw ell
co ords
Ġst ack
Ġdata s
ff t
Ġen code
Ġtrain able
Ġne cessary
vers ions
ĠEx tract
extra ctor
Ġimg ui
run ning
Se q
Ġnormal ization
Ġinitial ized
Ġsin ce
Ġho st
DAT ASE
TRA IN
cook ies
BO X
mega Conf
Ġag ain
ĠRet rie
ĠLight RAG
Ġstand ard
- {
M LP
] }
e le
s cope
t as
u dio
pe t
is file
ĠS ub
tok s
Ġde prec
Ġde epspeed
Ġl arge
so me
Ġid entity
gener ations
mult iply
AM PLE
Ġad ding
Ġtra j
ä¸ Ģ
99 9
Ġman ager
Ġrepresent ing
Ġaverage d
web kit
hel per
Ġu uid
Reg ion
buil der
êľ ±
oug ht
Ġinher its
plat form
ĠAgentP rune
LENG TH
4 00
F rom
N E
b rid
g ra
m q
r en
r al
® é¢ĺ
å ¼
ge o
ĠN e
and box
head ing
ĠB atch
Ġro und
oc ent
ir d
Ġset ting
mat ic
eps ilon
Ġsub set
inter le
call s
Pro tocol
Ġback ground
ä¸ ª
FOR M
éĹ ®é¢ĺ
Ġprobab ilities
ĠLa zy
parametr ize
7 5
R o
W h
W ord
s ite
u uid
st o
it es
Ġp ix
Ġw rapper
ul ative
Ġe uler
ol low
Ġ' _
sh are
ĠS cheduler
pro gress
Ġex act
ĠP laywright
end point
Ġde st
pre process
Ġth reshold
Ġ3 0
In fo
ĠCon text
rot ations
normal ized
ud ge
Pipeline Output
scal er
Ġrow s
retrie ver
exist ing
lan k
i ally
å ®
ç Ń
Ġt s
Ġt ri
Ġ= ========
he s
Ġn ullable
Ġs ampler
int eg
ot al
ĠT HE
Ġd st
sh ard
Ġst o
Ġch ar
OR S
ow er
count s
Ġspec ial
Ġrot s
cat ing
vid ual
Ġstring s
ĠTask State
micro batches
Ġpack age
Ġfix ed
Ġoper ation
Ġcombin ed
: `
= ['
> ""
D o
L R
R educe
T ra
a a
p x
r at
s parse
y brid
z arr
å ĩ
æ ł
se g
Ġt urn
ce ived
an cing
ue ue
__ )
po late
Ġ[ [
ĠP os
ĠF ield
Ġ< /
ĠO ptimizer
add r
Ġkey word
pla in
with out
HO ST
util ities
tim ing
fi re
BU G
2 9
F AI
G ather
M IN
O r
R ES
U S
b da
d inov
g old
in es
ar p
Ġm el
Ġin valid
ex port
Ġo c
li er
con f
ĠA c
ĠA SC
ĠC lass
Ġsh are
Ġtest ing
oc i
mo mentum
vers ation
Ġcomp leted
tra cing
Ġret ry
requi re
Ch unk
Ġindi cating
âĶ Ģ
need le
TEMPL ATE
ĠId entity
' ),<
, )
6 0
> =
] *
b box
f aiss
f ont
m ory
s ort
Ġf ps
Ġb ound
Ġpa st
ol lama
Ġde dup
Ġco uld
ise d
log ps
Ġtrain er
ĠRe set
ern els
ĠIn ter
let ions
Ġca usal
gener ated
locator s
Ġass ume
Ġsupport s
Ġcondition s
Ġutil ities
pers on
pipe lines
Retro PreprocessingConfig
ocent ric
ĠASC II
' ),
- %
? ",
K L
T oken
a w
b stract
c ri
e ck
h ip
m er
on ents
re lative
ch em
ar i
Ġm p
Ġre cv
ad am
as sets
__ .__
Ġd ummy
Ġ1 9
Ġh ydra
Ġ2 048
Ġex pand
Ġde sired
pre ssion
pre pare
ta gs
Ġch osen
row th
AT T
Ġcol ors
Ġac cess
vid ence
abs olute
Ġass istant
vari ant
De coder
serv ations
pan el
accum ulation
Ve ctor
ĠMe ssage
WE IGHTS
bt n
N D
d ummy
f ps
g an
g its
Ġ velocity
se cond
re gex
Ġs r
Ġs imple
vi sed
ĠL L
Ġh n
ĠF aiss
ase s
ĠRe g
Ġgener ating
Ġapp end
min i
Ġup load
lin ing
Se lect
Ġ$ \\
Ġdownload ing
AB C
Col ors
æĸ ĩ
Soft max
: -
B C
C TION
T ransform
W ork
i od
m is
è ¿
Ġ âĶ
in ator
Ġt ake
ch allenge
Ġn ull
Ġp k
Ġb anner
ser ve
ĠN ode
ĠF used
Ġco ok
Ġse c
Ġse parate
ĠM ax
code book
so urces
Ġtoken ize
view er
ĠĠĠĠĠĠĠĠĠĠĠĠĠĠĠĠĠĠĠĠĠĠĠĠĠĠĠĠĠĠĠĠ ĠĠĠĠĠĠĠĠĠĠĠĠĠĠĠ
ust er
ĠH ow
RE CT
ĠIn ference
mb ol
Ġ{} ,
comm end
act ivations
RO OT
Ġfla x
ug gest
Parallel Region
Ġpipe lines
ĠEn coder
pay load
Ġpers on
ĠAda m
æį ®
( ["
9 0
A uto
D oc
R ender
h n
t ed
Ġ randn
se quential
Ġc annot
Ġs aturation
Ġp h
Ġd raw
et er
ĠS imple
Ġnum er
Ġde coded
ĠF eed
dict s
config s
ĠB lended
sc r
fo x
Ġpass word
CH AN
=[ <
Ġpadding s
column s
ĠPa ram
ĠIter able
ĠIter ator
Temp late
stanti ate
ĠDAT A
ĠASCII Colors
% (
C har
G RE
R untime
S ample
[ ~
o urce
se e
at ern
Ġs olve
Ġp il
un finished
data base
Ġ- ----------------
ĠT arget
() ])<
ĠC ross
end of
(' -
Ġos p
Con ne
ĠE num
Ġen abled
ĠG roup
red uced
ĠV it
ĠV ocab
Ġk now
ĠCo urse
Ġal gorithm
Ġcont ents
tra jectory
Ġcode s
net work
timest ep
Norm al
Ġ} """<
ĠModel Config
Ġform atted
Ġdoes n
Ġcre ating
Ada m
ĠDiffusion Pipeline
Ġpossi ble
TIME OUT
L INE
W ER
f ut
l arge
v oxel
in ria
re c
Ġa ut
Ġi ss
Ġb rightness
str on
val idate
Ġst ar
Ġx s
wa xis
pre vious
(' \
Ġv llm
oc ast
IN ST
ĠCo pied
ne waxis
In itialize
Ġq k
St ableDiffusion
Ġcomp letion
Ġadd itional
level s
Ġ.. .<
ä¸ Ń
Base Model
Ġnormal ized
oth ers
Ġá´ Ģ
flatten ed
ĠRes ponse
segment ation
few shot
Ġretrie ve
ĠUp load
Trained Tokenizer
Query Param
oci ated
endof text
. \
F LAG
M M
P y
S Y
T ime
V ideo
W w
e in
l int
m id
n b
p ly
r b
s ame
u an
u ator
è ®
er f
re ens
de mo
Ġf uture
Ġs mooth
as array
ran ular
co uple
Ġg pu
Ġ[ (
Ġex pi
res ume
Ġma gnitude
pre view
Con vert
com put
for ce
ĠV i
ai ve
index es
pect ive
context s
Ġlist s
yp edDict
AR T
Re quired
Ġ{} :
vari able
fra ction
Ġtak en
predict ed
retrie ved
rat ios
ranular ity
, ),
8 8
I F
P ES
a uth
d uration
e ce
f e
j av
k ing
m ix
y es
} _{
İ ¨
er un
Ġt a
st ar
al ign
ra ft
Ġre main
Ġre compute
co gn
ĠN et
Ġan alysis
Ġg ot
Ġh ue
Ġco st
ter ns
ĠO ther
Ġpre pare
Ġtrain ed
Ġ` (
unt ie
ĠĠĠĠĠĠĠĠĠĠĠĠĠĠĠĠĠĠĠĠĠĠĠĠĠĠĠĠĠĠĠĠ ĠĠĠĠ
St at
ĠK arras
act ual
Ġadd ress
Se gmentation
ĠSt ate
are st
scal es
wh ite
Ġinst alled
cur ity
Ġchange s
pri ate
yper Params
schedul ing
Ġprovide s
Ġreason ing
paint ing
thread s
Scal er
cri ption
couple d
7 6
L S
M ET
S cale
b a
j s
j ax
t re
} '<
pa ragraph
se mester
er es
re te
ut es
Ġ" $
Ġin fer
Ġ' ,
Ġ[ {"
sh arding
Ġdi vide
key words
Ġcontext lib
á´ į
io us
let ter
Ġiter ations
Ġurl parse
AN S
Ġ6 0
Cont rolNet
imeout Error
Check point
Ġge o
PP ING
("**/ *",
TES T
sig moid
It em
! ")<
) ",
* ]
M UL
N amed
s ure
t il
è ¡
ĉ ĉ
Ġ date
in uous
er vised
re search
re lease
im ate
ut ions
ge ocentric
Ġc nt
Ġn umel
Ġs pace
Ġs uffix
un ding
ser vice
Ġcon f
Ġcon n
Ġh orizon
Ġ2 01
ĠF in
check ed
Ġpre train
Ġch ild
pen ding
Ġ4 2
ac celerator
view port
ĠĠĠĠĠĠĠĠĠĠĠĠĠĠĠĠĠĠĠĠĠĠĠĠĠĠĠĠĠĠĠĠ ĠĠĠĠĠ
Ġper forms
Ġq s
Ġac c
Ġcomp lete
Ġmo ve
Ġpart ic
Ġtop k
Ġprocess ing
match ing
ä¸ º
Ġtr im
Ġexec ute
Ġman y
Ġdeta il
Ġretrie ved
real path
Ġgaussian s
) /
) }"<
. '<
A C
F la
G PU
G LU
S ave
W rapper
a gram
b old
b asic
s uffix
t an
v ing
} ".
ç º
in place
it or
Ġ" ":<
Ġc ent
ort h
pe ft
un cond
data path
mp y
con st
Ġ1 7
ĠA I
ensor s
res idual
00 1
Ġun wrapped
ĠE mbed
Ġwh at
ho od
Ġsub mit
Ġup dated
comp letions
RAN K
Ġmult imodal
Ġback end
rep lay
Ġinstance s
lt k
Ġtrans fer
Ġconvert ed
ĠWe b
Col umn
Ġappro priate
WAR NING
chrom ium
: {
D own
M ode
P ASS
a ctor
e ctor
g r
n ers
s mooth
w ik
Ð °
Ġf ont
Ġs ig
Ġp e
th row
__ .
ĠA BC
Ġ' %
text area
el se
key A
config ure
Ġpro cesses
ĠB asic
Ġv oxel
fa ke
ph one
Ġbu ffers
RE T
ĠSe ction
mage Processor
EM M
fla sh
Ġcomm unication
face book
cum sum
MA PPING
Ġimplement s
Ġ-- >
ĠType Var
lex ity
Server Config
ĠNorm alize
ĠRem ove
Ġinclu ding
' \
A v
C li
I LI
R ank
S up
] ),<
c ot
c ard
e ef
h am
n py
Ġ ])<
de epspeed
Ġf lat
Ġre tain
Ġb ot
um ulative
as cript
to m
__ ).
con cept
ic ode
ĠT RA
cor ners
Ġr mat
Ġpro j
Ġun iform
red ential
Data Frame
Ġpy lint
comp leted
qd rant
Ġposition al
LE D
mot ions
Ġneed s
ĠGener ator
Ġcolumn s
åı ĸ
Run ner
Ġunit test
Ġcompat ibility
Batch Norm
DATASE T
ĠOther wise
Ġpartic ular
B ED
E P
E nd
F unc
S M
f it
j or
s age
å °
æ ¡
or al
al go
Ġf alse
Ġm on
Ġc sv
Ġp lease
Ġe ma
Ġe lapsed
ĠT rans
Ġd p
Ġdi lation
res olve
Ġth ree
ase d
ĠG ELU
add ress
ry an
ac cept
Ġsub modules
fo v
Ġtemp file
dis play
Ġfla gs
vari ables
NAM ES
pop up
quant ize
Ġver ify
cre te
Ġbuil t
Mult i
Id entity
TY PES
ĠSo ft
NOR E
åº ¦
Ġdedup ed
ĠTRA IN
redential s
) \
. '''<
A pi
B E
C re
C ross
S O
S peed
b ryan
g ranularity
Ġ li
Ġ ._
Ġt ait
de s
de pend
ar ies
Ġ" @
Ġm ul
Ġre peat
Ġre lated
Ġp ip
ig r
Ġd uration
Ġ' '<
sh a
Ġh q
ri b
Ġde termin
ĠI F
Ġbe havi
stribut e
OR Y
bo ur
In version
min ator
ĠEx ec
Ġ... ')<
encoder KL
EM BED
`` `<
LO W
igh bour
Ġwork ing
Ġent ire
ĠPro gram
Ġimplement ed
script s
pack ages
Ġman age
ĠQu atern
Load ing
ynchron ous
ĠOn ly
Ġexce ed
aff ine
) ])<
4 04
6 6
D ec
G aussian
I mg
d rant
r ins
s r
s uch
É ¢
Ê Ļ
on nx
de sc
Ġ" #
Ġc allable
Ġin cre
an y
Ġthe mes
ad min
Ġfor ms
con struct
ol utions
() ),
ep Speed
Ġdi d
Ġex periment
Ġar t
Ġres p
Ġse lection
Ġse lector
DE BUG
uto ff
ST EM
Ġass ociated
ĠTransformer Block
ä¸ į
Ġvocab ulary
ĠDef ine
({ '
exec ution
eff ect
Ġext ended
Ġcase s
sup port
ĠOllama ServerConfig
="" )<
erc ial
chem y
P laybook
b ig
d ers
e lastic
t i
x l
æ Ĺ
æ Ń
se parator
al chemy
Ġw ould
Ġe st
co ver
con structor
ĠT ransform
Ġd en
(" -
sh ort
pro jector
us ing
wa ve
ĠF ore
pre comp
Ġl ora
Ġv ae
te acher
mo unt
Ġso cket
######## ####
Ġsuper class
') ;<
Ġfa ils
ĠĠĠĠĠĠĠĠĠĠĠĠĠĠĠĠĠĠĠĠĠĠĠĠĠĠĠĠĠĠĠĠĠĠĠĠĠĠĠĠ ĠĠĠĠĠ
eff icient
Mask ed
ĠCom put
control net
TES TS
Ġcontrol net
Exec utor
ele ms
scr atch
( ?
* .
: ])<
> ",
E VA
L anguage
M ESS
p lexity
v es
Ġ ~
Ġa z
Ġc lear
Ġin side
Ġs lice
Ġs andbox
la ck
ur ses
id ing
Ġ( *,
ul ated
Ġe od
__ }
()< /
ĠT ra
Ġdi visible
pp er
ĠM emory
device s
view less
Ġrequest ed
Ġgener ic
IT E
tra ck
inter mediate
Se lection
Ġfil ters
ckpt s
Ġcall back
Ġ100 00
ĠGPU s
chedul ers
Ġtrunc ated
Ġsentence s
Ġtk inter
Return s
Sub modules
fut ures
ĠNet work
) ')<
3 3
D es
G ELU
M AN
M ax
W rite
m argin
n q
p po
ä ¿
Ġ ^
Ġ lib
at rix
de p
al yz
ut ation
Ġm ight
Ġc y
Ġ# ################
Ġ1 4
Ġcon current
Ġ""" ()
Ġst k
py plot
Ġ2 4
ĠF orm
") [-
jo co
=' ',
fix ed
RE SET
Ġca re
comm ercial
vide os
Ġtransform ation
)) ]<
ich oice
Ġmatch ing
Ġdis abled
ĠBase Image
DO C
Parallel Linear
sim ilarity
mov ement
Meta data
éĢ ģ
ĠPar allel
Buil der
Ġtrace back
Cho ice
pet ition
ĠFeed Forward
( ""
/ <
> '''<
L d
L oc
M ENT
N N
O C
T ask
c p
c rops
w arn
} '.
ç ®
in o
se conds
ch osen
Ġre mote
di gits
Ġw in
Ġdef ine
Ġlo ok
Ġst ill
att empt
ine se
ĠP ipeline
Ġco ord
ĠM an
Ġy aml
art ifact
Ġdim s
ca ched
Ġpy rogram
Ġup per
Pa ss
match es
Ġtra cker
ĠJ son
Ġread er
dis k
dis abled
CK ER
04 47
medi a
ĠZ h
ĠConfig uration
"[ !]
Reg istry
Ġcos ine
Ġfast api
rim ary
ĠCont rolNet
Val idation
By tesIO
Ġmodi fy
navig ation
ĠGLOBAL S
fire fox
stron omic
ANS WER
EMBED DING
ĠQuatern ions
8 6
P os
R et
S HO
] [-
` ].
c ameras
e lapsed
h ard
m ed
n r
é ĩ
Ġf n
Ġre verse
Ġs he
Ġs li
an ced
ad vantages
Ġw ere
ext Model
Ġan alyze
Ġcon tact
ĠS T
pro c
Ġstr ategy
(' <
ĠG o
ĠV ideo
sc roll
ml u
extra ction
Ġgroup ed
Ġ... '.
down sample
Ex pected
Ġact ive
ateg ies
Ġcurrent ly
Ġdis k
rep lica
domain s
Ġform atting
cos ine
100 00
EX AMPLE
Ġallow s
freq s
ora ma
Ġred uction
sup ported
Ġindi c
Ġperform ance
Ġsql alchemy
Ġcharact ers
çŃ Ķ
require ments
Ġta gs
ĠSoft ware
/ ",
A bstract
C reate
C annot
F in
M issing
] }<
] ])<
f lo
f ollow
h old
l b
s il
s pl
v h
w riting
Ġs sim
rom e
ig lu
Ġpa y
Ġpa ir
## <
Ġ[ ],<
Ġ< <
Ġres ume
Ġse ction
ron g
(' _
am s
Ġj it
ry lib
ann el
á´ ĺ
fa ces
AS K
split ext
Ġgener al
Ġper cent
ĠSe lf
St yle
Ġspec ify
Ġz arr
inter polation
LO CAL
factor s
Ġtra jectory
ins ky
Ġfin etune
Ġpatch es
ĠPre TrainedModel
Ġlin k
acc ard
Ġau x
Ġfree ze
Ġoper ations
Ġloc ation
Sharded Tensor
Sharded Strategy
sentence s
Sc atter
Ġ================================= ============<
Êľ á´ĩ
Ġdepend encies
kh rylib
curs ive
eri or
Word Piece
ites pace
ILI TY
spl atting
) *
D Model
G EN
L lama
c wd
s napshot
t len
v llm
z one
Ġ gelu
Ĵ Į
Ġt xt
re cords
Ġs ync
th ought
Ġw d
ver bose
ĠC O
class ifier
ĠO megaConf
Ġr untime
and insky
(' >
token ization
DI MScheduler
ES T
([ [
Ġpos itive
go al
ST ATE
PI mageProcessor
Ġerror s
Ġiter ator
Ġreg istry
propert ies
padding s
ĠLo cal
Ġprod uce
Ġap ex
Check er
CL ASS
oo lean
rim inator
ĠDistributed DataParallel
tlen eck
( \
. ",
C HO
F irst
H F
M IT
S ystem
] [:
a wait
b lank
c ss
f user
f eed
m map
n v
Ġ ,
Ġ html
er ial
en et
ut ing
ch dir
ch ars
Ġre gex
Ġn amed
Ġs an
Ġs afe
la zy
Ġb f
ĠN ame
Ġg re
Ġ' /
ĠL OG
att ach
el low
Ġdi ag
Ġdi rection
ĠP ad
). """<
ĠF ind
ĠF rozen
ist rable
num bers
ial og
ĠE ns
log y
Ġk nowledge
Config uration
Ġq a
Ġinter face
mode s
Ġextra cted
Att n
Att nMaskType
exp r
Ġab stractmethod
Head Attention
Ġarray s
diff users
Ġpack aging
jector ies
dup licate
ĠDDP MScheduler
%%%% %%%%
Ġ([ `
ĠGlobal s
ĠBlended Megatron
Normal izer
MUL TI
) [...,
. ,<
. '.
2 30
: ].
B e
C OR
D D
g us
s lug
y ellow
} }
pa st
or ary
Ġt anh
ge mm
Ġf f
Ġ" ".
Ġc p
Ġc umulative
ex planation
Ġp ush
pt s
Ġb its
as y
Ġto po
Ġe lem
form ers
ĠP rint
ĠP eft
Ġon ce
page s
pat terns
Ġstart ing
Se lector
Ġinter n
mult imodal
Lo g
ĠImage Net
stack s
Ġtrans ition
MA P
Un expected
ĠStep Error
ui ded
element s
ĠFa ce
ĠBe aut
Ġdescri b
İ¨ éĢģ
D rop
E nt
E dit
G E
N ODE
O n
S P
_ %
c atch
e ch
g amma
t wo
w atch
x ml
æ Ŀ
in em
in cr
de lay
ro sa
Ġm id
he st
Ġin place
pe ction
id entity
Ġ- *
up ported
Ġan other
Ġd w
Ġg ra
Ġst able
ĠP RO
res sed
Ġres olve
load ing
ĠB ERT
Ġy et
Ġtensor ized
sc ape
mo ved
Ġ4 00
tr unc
embed der
Ġcol late
AG ER
Ġclass ification
lin space
yst eres
Ġinter section
be g
Ġ} )<
ĠQ uestion
PE CT
vant age
Att ribute
Pre TrainedModel
click ed
conne cted
afet ensors
Éª É´
find all
Ġsign ature
quant ization
ĠTrain ing
ÊĢ á´ĩ
TRA CKER
æĺ Ł
Dis crete
bos ity
++++ ++++
ĠBy tesIO
incl ude
202 3
Ġoc cur
MESS AGE
MAN AGER
inem at
ysteres is
! <
. "
> ')<
A Z
C all
G raph
H yperParams
L abel
P age
U ns
] ")<
c ategory
d t
h w
h ers
n th
s afe
å ĴĮ
or ge
or ing
at an
de t
Ġf mt
lo okup
Ġre st
Ġs we
Ġs sl
di dates
Ġo mega
set Level
Ġ- --------
ic ation
== <
qu eries
Ġ' ',
end s
ist ep
pl ug
Ġro bomimic
oc ap
log probs
Ġ4 8
ĠAr gumentParser
Ġresponse s
Ġob servation
Se ssion
ĠSt able
Ġnon local
á´ı á´ľ
ass ign
ĠFile NotFoundError
æľ ī
Ġappro x
Ġsubject s
ãĢĤ <
Conne ction
PECT ED
AZ URE
: ',
A sync
C ould
C our
G RO
J o
K V
m ine
n ested
u x
st ub
st itial
st derr
Ġf o
Ġs p
Ġp ur
Ġp db
def ics
Ġb ranch
Ġ{ :
Ġh ist
ĠS k
Ġr ule
per form
ĠM C
ly ing
Ġsh ared
Ġpre vent
ĠE X
ĠG EMM
ann y
") ),<
Ġlog var
Ġne ighbors
12 34
Ġac cum
Ġno ins
Ġmo st
trans lation
lin ks
spec s
Ġmult ip
Ġact ivations
Ġback bone
our ces
Ġcli ck
ĠAuto encoderKL
sd p
22 4
fin etune
pack age
AB ILITY
aut ores
free ze
ĠTrain er
Ġref resh
Ġindi vidual
ĠCheckpoint ing
åĩ º
GRE EN
Ġnoins pection
autores ume
D ir
E VAL
W H
b est
d jango
s plits
{ <
ç Ĳ
Ġ ]
re qu
de ep
Ġ" ../
Ġc ard
Ġin s
Ġn one
dat etime
Ġb lend
Ġw idget
Ġ( -
Ġcon structor
Ġg ym
Ġh app
Ġh yper
all close
Ġde cision
Ġco v
os p
ĠM IT
token ized
Ġv q
IN PUT
ok ens
Ġk nn
iter ations
col s
ual Inversion
Ġcol orama
Ġte ch
Ġmo mentum
doc string
default s
be gin
Ġlocal s
Ġ12 3
scal ar
Ġexpert s
PO INT
Gener ate
MODEL S
Request Exception
Ġoptim ization
Ġext ension
æķ° æį®
Ġdeno minator
Ġrequire ments
åĽ ŀ
ĠCLIPT extModel
matic ally
ualInversion LoaderMixin
$ $
) `
2 01
2 55
A ction
B UT
D ate
U RN
b eat
b lend
c pp
f path
f rozen
g ym
g uidance
i pped
t urbo
z h
Ġa w
Ġm ix
Ġn ltk
ing s
Ġs qu
Ġp in
Ġw rapped
Ġdef ined
Ġlo ck
ĠL i
Ġpro pert
ĠW indow
com pat
Ġatt empt
rit ten
cl ude
In ference
AT CH
ret ry
lu gin
agent s
Ġscal es
Ġgradi o
Ġstat istics
Ġcontain er
Form at
gradi o
calc ulator
ĠIM AGE
Ġbehavi or
0447 15
) ":
) ],
A UT
A PP
B ACK
C lo
D ef
G O
G R
H ER
Q ueue
T arget
b il
c ancel
g uess
w allet
Ġ ],
re l
re ssion
re commend
ro les
Ġm ot
me tas
ext ended
val s
(" _
Ġg amma
Ġh ad
Ġnot e
"] ),<
ist ency
Ġco ords
point er
lic ated
com ment
ĠThe se
unk nown
ca pacity
ac cess
Ġval idat
np z
Ġindex es
oad ers
12 7
ĠIn teger
Ġmay be
read lines
ret ries
Ġle arn
Se e
gment s
ĠĠĠĠĠĠĠĠĠĠĠĠĠĠĠĠĠĠĠĠĠĠĠĠ ĠĠĠĠĠĠ
Ġcheck s
prob as
ĠAtt ributes
gress ive
Text Dataset
Ġpla n
Ġter m
LD ER
Ġannot ations
WH ITE
) $
> [
> ```<
E qual
E pisode
I Z
T ypedDict
b ad
d st
e vidence
å Ĩ
å ľ
im er
im al
Ġm map
Ġc ert
ss l
Ġp rimary
Ġ( )
ĠT imeoutError
ĠA uth
ĠC all
ĠC UDA
do cker
ĠF irst
ĠI CT
00 5
00 8
ĠM AX
ble u
te ch
cont rib
ip hers
Ġindex map
** *
Ġfunction ality
Ġcol lection
ĠK e
Ġac cording
go ogle
trans fer
ĠSt ore
arg er
ifi ers
ite ct
description s
ï¼ ļ
ĠSharded Object
optim izers
Ġeps ilon
Po st
Po int
Ġcondition ing
roll er
Value With
human ml
âķĲâķĲ âķĲâķĲ
bal ancing
Ġspa ces
sli ces
Ġagain st
ĠLL a
ç® Ĺ
Uns upported
ValueWith Rank
. /
D M
M emory
P H
Q L
a ched
h ist
t ar
v ic
w atermark
å ¹
è ¾
re st
Ġa st
Ġf hs
Ġre cords
Ġn s
Ġs a
di gest
Ġp ot
str ategies
get cwd
il ing
Ġd ue
Ġ1 8
(" ,
qu iz
Ġ* ,<
el y
do uble
que s
key word
Ġde lay
ĠR ET
ĠB ack
lic ies
pi es
pi ckle
stribut ions
Ġconfig s
ĠV ision
") )
") ))<
sc ene
Ġatt rs
unt il
sum ed
Ġac celerator
over ride
ak y
Pro gram
Pro jection
Ġtim m
Ġad vantages
List ener
Ar ray
imp lement
Ġfla sh
á´ĩ ÊĢ
Ġprefix es
ðĿ ĳ
ðĿ ļ
De code
aut ore
parameter ized
ĠExample s
19 2
orig in
todo s
contain er
------ -<
è§ Ĵ
Char Field
jav ascript
tre etune
facebook research
GEN ER
Ġintern al
Ġoccur red
C rop
D et
G HT
L ay
S afety
a il
d raw
i pping
m antic
m peg
u do
w en
¡ ç®Ĺ
pa b
re ference
Ġa uthor
le arning
ch uan
Ġf fn
Ġm argin
Ġs keleton
Ġp eft
an alyze
Ġb al
um ing
un route
from array
ul ly
po wer
ĠA ct
Ġg buf
Ġh uman
ĠS olver
ĠS keleton
ĠP ool
us oid
wa y
"] ]<
ener g
Ġun wrap
Ġpre ds
Ġpre training
sample d
ĠRe ad
Ġwh ite
Ġwh itespace
iv ity
Ġgener ations
Ġcont iguous
Module Spec
Ġq vel
ĠEx it
inter face
cy an
Ġfa ce
not e
Ġscal er
Ġconv olution
Ġbet ter
decode d
Ġent ity
Ġepoch s
ĠSet up
aut ocast
Name space
sec ret
Comp letion
åĪ Ĩ
Ġhand ling
Ġ"[ !]
pus ht
We b
æŀ ľ
SY STEM
ighbour s
rins ics
ĠEns ure
bil inear
Safety Checker
! "<
4 4
8 5
B rowser
N EL
O F
S core
] "
i ou
n ll
v as
w t
y ing
z A
Ġa mount
Ġf an
he el
Ġre prod
Ġc ipher
ser ies
__ )),
il la
() ;<
Ġg ive
ĠC a
ĠL lava
Ġh op
ĠS ingle
us ive
Ġth ose
ta k
ĠW rite
ĠW ord
cu d
com pare
method s
ac cs
RE AD
lect ure
ĠIn valid
sub set
sub mit
normal ization
Di stributed
datal oaders
Ġfin ally
Ġfla sk
Ġá´ Ħ
bit mq
Transformer Block
ĠType Error
ĠCLI PImageProcessor
Ġscript s
HE AD
Ġabs olute
mi ps
################################################ ####
Discrete Scheduler
) }<
- \
A P
B OT
H andle
M atrix
P ER
T op
U sing
Z ero
c er
e ver
f ocus
g rowth
t uning
w ner
x label
{ {
¦ ģ
ç Ľ
st ars
de epcopy
Ġf lip
Ġn b
Ġs imp
Ġs lug
Ġas ynchronous
co ord
ma jor
Ġh ref
ĠS top
ab a
Ġde term
ĠF P
ĠF rom
ĠO ver
Ġse p
nc ode
fa ct
col lect
ĠIn itial
DE D
Ġca pture
rot s
Ġmo dified
ST ART
Ġle g
LO AD
Ex ample
Ġapplic ation
level name
}. "<
En ter
Ġlat er
Ġfilename s
(". /
odal ity
ĠShardedTensor Factory
edge s
Ġclient ai
expand user
buil ding
ĠĠĠĠĠĠĠĠĠĠĠĠĠĠĠĠĠĠĠĠĠĠĠĠĠĠĠĠĠĠĠĠĠĠĠĠĠĠĠĠĠĠĠĠĠĠĠĠ ĠĠ
Ġps nr
tri angles
ick s
Ġdot s
sen der
alloc ate
reens hot
Stat us
' %
C ustom
C allback
D DP
L ATION
P er
S V
S chedulers
T able
V ersion
f lip
f mt
h orizon
i er
i ence
o unt
s ol
s ph
s uggest
u rable
å ¾
ç ī
è ½
Ġt tk
re call
Ġa io
Ġf eed
ct ime
Ġm q
Ġs pan
la ce
Ġo llama
pt r
Ġb ook
un ity
ad lr
li hood
ext ension
__ ))<
con cat
Ġd er
is ing
ke l
ĠS corer
Ġma int
ĠF I
ĠF loat
ĠD ep
Ġse g
Ġl ate
am ount
ĠE ach
ĠW eights
Ġro l
sc reen
Ġim pro
SE S
ĠAr gus
work space
St ore
ho p
Ġhe l
ĠSt art
Ġsc an
Ex tra
rol lout
Ġcorrect ly
ĠBase Lowdim
Diffusion Schedulers
Ġcall ing
fin etuning
Ġstream ing
RI BUT
bucket s
buil t
Ġreward s
Ġinteg ers
Ġcons ider
ĠMulti HeadAttention
ä» ¥
ynchron ize
Dep end
Ġexpi re
dep loy
Cour se
7 2
9 4
O ps
^ \
c raft
d w
g lu
k p
n el
p ublic
ä ¹
pa irs
en u
en es
re ctor
re mat
ro pe
ch ans
ce ive
Ġs ort
di lation
me try
Ġb w
Ġb z
un bind
Ġw s
as is
get Header
Ġas setdir
ĠN O
() ")<
ĠA lib
Ġg c
Ġh ard
Ġst ored
key B
ĠR E
if ul
ĠU SE
Ġj seq
log var
Ġk ernels
Ġ: ].
RE G
ob servations
In teger
ffer ence
ĠIn struction
ho to
place holder
inter section
Ġle ss
Ġinter polation
Di rectory
be ams
Train Data
AN D
ref er
Ġclo ud
Un known
ĠRes ult
ĠRot ary
Ġ\\ <
Ġchannel map
Ġretrie ver
Ġadjust ed
Ġmy json
ĠAn swer
êľ °
Ġcompat ible
ĠDoc string
Level Dataset
Iter ation
Ġbi encoder
ĠStr ing
Read er
eng lish
Wh en
Ġpix el
ham mer
plug in
çĲ Ĩ
usoid al
Ġdeterm ine
ĠAlib aba
) ",<
* ",<
/ %
2 024
A RE
A uthor
C ODE
E E
M etric
T otal
U t
b ly
c ert
c redentials
d ret
f d
h ybrid
j udge
o to
t ension
x s
¦ Ĥ
è ¦ģ
Ġ vertices
ra ps
it ting
Ġm d
Ġin qui
Ġs napshot
Ġp ut
ent ially
"" ",<
to uch
set default
Ġe os
il ine
con tact
ĠA udio
ĠS H
Ġex port
ĠF ilter
}< /
range s
[: :-
bo unding
jo b
Ġby te
ph ore
gent a
om ial
Ġac cept
Ġrun ner
AG ES
ĠSt yle
ĠSt udent
Ġdoc string
dis able
dis pose
gather ed
Ġembed der
Ġreg ular
Ġexp licit
exec utor
Ġencoding s
ĠĠĠĠĠĠĠĠĠĠĠĠĠĠĠĠĠĠĠĠĠĠĠĠĠĠĠĠĠĠĠĠĠĠĠĠĠĠĠĠ ĠĠĠĠ
plan es
ĠDe epSpeed
ĠZ ero
Ġcomput ed
document s
Ġlet ters
Ġloc ator
Ġge orge
Comp ose
ä» ¶
âĢ Ļ
Ġè ®
zz z
Ġexce eded
Bert Model
ĠTemp Named
TRAIN ED
CHAN NEL
Cre ated
Ġexceed s
hold ers
energ y
tak is
dret takis
Ġinqui ries
ĠTempNamed Dir
! !
5 4
[ /
] **
a h
a o
a verage
c is
i an
l ator
m mlu
p cfg
å Į
re sent
lo th
Ġc at
Ġc ot
Ġn d
li es
ul der
ĠT r
Ġcon cept
ĠL ora
ĠS cal
Ġst oring
ĠR O
and bytes
Ġsh s
for k
ĠV ari
ber ta
ip edia
Ġal loc
Ġcom ment
LI D
Ġca p
trained Config
Ġquery set
inter polate
Net work
Base d
Ġtr uth
To TextDataset
Ġckpt s
Ch ange
ili ary
pan der
ĠCh annel
Ġbuil der
ĠModule Spec
Ġmm cv
Ġada pted
transition s
challenge s
Doc string
ein sum
ĠGo ogle
On ly
ĠRET URN
autore set
cud nn
rector ies
A CT
B ox
C ase
I P
L imit
L ength
L AY
O ver
P C
R ep
R ow
[ (
b ine
h u
o hot
r strip
t d
æ ī
Ġ ))<
pa g
in stantiate
on ical
Ġre petition
Ġre moved
ex e
Ġp ower
ig hest
Ġb asic
one y
Ġpa irs
Ġpa nel
co v
po oled
ĠT ime
Ġcon versation
ĠC an
Ġh er
ĠS pec
ab ort
att ern
Ġdata paths
ĠP atch
ĠP AI
Ġde cor
ĠF OR
ĠF AI
num er
Ġpro tocol
pi ck
ĠE pisode
mo m
ĠCo unter
Model ParallelRegion
view point
attr s
VI CE
spec ific
mult ichoice
Ġpi ck
Ġfeat s
ema ils
Ġtr ust
Ġexec uted
Ġapply ing
So up
An alyzer
ĠPa rameter
ym bo
SC RI
rypt o
Class ification
disc rete
ĠTh ere
Ġarch itect
dete cted
Ġada pter
Grad Scaler
Up date
Ġ40 96
ĠRetrie ve
ĠPos ition
Loc ator
ĠBeaut iful
Ġlate st
Ġrol lout
ĠBeautiful Soup
2 048
7 3
G S
O wner
P ad
S imple
S uccess
T ree
X L
] ])
b c
c iphers
h ue
l ur
m se
s sert
ç ¬
è µ
Ġ Ð
pa use
im gs
Ġa y
ge ther
ar ize
Ġ" ",<
Ġi ou
Ġs ol
Ġs patial
ex periment
an e
th ink
th ook
Ġb x
Ġw ave
Ġ( _
as setdir
set attr
Ġe lastic
ame s
() """<
ĠA ss
Ġg uess
"< |
ĠC la
pro cesses
par dir
Ġde mo
Ġde bug
wa v
Ġget Logger
Ġco pied
Ġth ink
Ġres ample
ĠM etric
Ġch o
IN O
ai chuan
ĠCo mm
Ġ: :
eat ure
RA PH
Ġ5 02
Ġca ptions
Ġrun s
own er
Ġclass ifier
Ġdoc s
Ġiter able
AM A
Image Processor
Ġchange d
CO L
tmp dir
Ġæ ľ
redirect s
need les
Ġsim ilar
Mo ck
Th read
ĠMe thod
äº İ
ĠAd just
Ġsl iding
Ġinclu ded
Ġ:- )')<
Ġcharact er
~~~~ ~~~~
INTER PO
sto ck
ĠZh ou
sil u
' ")<
' ;<
) -
/ "<
/ ")<
4 1
8 7
9 1
A nn
B ack
B ench
B ERT
F inal
P ix
P lugin
R outer
X T
a vi
c f
c nn
c ies
f w
f sdp
m ing
o st
p romise
r erun
} %
æ ®
Ġ very
pa ssed
se parate
al g
ch ast
ar down
Ġm it
Ġin correct
Ġs umm
Ġp r
Ġp ub
Ġp ublic
Ġb it
as ctime
set Header
con n
po sed
po licies
up licated
ver sed
ype s
() }
() }"<
ĠL ow
", )<
pro p
ĠF ast
ĠR MS
"] ]
Ġse n
tensor board
mask ing
', '
__( **
ĠG roq
OR T
Ġk nown
ĠThe y
mo st
Data Source
AR GET
AG EN
)) [
response s
comp onents
') [-
ĠSh ortcut
Ġone s
rep licate
micro batch
case d
Request Error
truth s
RI GHT
timestamp s
Ġvi rtual
ĠText ualInversionLoaderMixin
dot s
dot env
Ġauto matically
Ġinf inite
ĠAd ded
oug h
.* ?
pr ime
Ad min
ident ifiers
æł ĩ
arp ness
fe a
ĠKarras DiffusionSchedulers
çº ¬
ĠSelf Attention
Ġdiag onal
GRO UP
0 9
3 00
I o
L ER
M ark
M ap
P Y
W S
W eights
_ "
d c
f alse
g uided
h it
o per
s at
w i
å ¿
ľ âĶĢ
Ġt gt
re con
re write
al e
lf w
Ġm se
Ġm uch
port ions
ur i
dat ion
Ġthe ta
__ __
ĠT op
ol y
ĠA CT
Ġg lfw
ma z
ab out
pro file
ri st
ĠP DF
ĠF LAG
Ġth resh
Ġres cale
tensor ized
Ġl arger
Ġpro blems
---- <
pon ential
am ing
TI C
") ]<
Ġso urces
Ġne thook
Ġjson ify
Ġdict s
Ġca ched
over flow
local s
ĠData Source
Ġbase line
mult ip
Ġfa il
Ġwindow s
ĠTransformer Layer
Pre TrainedTokenizer
ĠBase Model
Base Output
ðĿ ĺ
({ <
cura cies
exec utable
Ġfilter ed
ĠRes Net
Cont rol
ĠConvert s
IG NORE
pers istent
Ġshift ed
pipe lining
Ġregister ed
ĠĠĠĠĠĠĠĠĠĠĠĠĠĠĠĠĠĠĠĠĠĠĠĠĠĠĠĠĠĠĠĠĠĠĠĠĠĠĠĠĠĠĠĠĠĠĠĠ Ġ
account s
Ġsim ilarity
Vi T
Ġedge s
ĠWork flow
ĠClient AI
æĪ Ĳ
Ġ"**/ *",<
Ġorig in
ĠCLIPT okenizer
Ġ--------------------------------- ----------------
squ are
comput ed
ĠState Dict
feed forward
230 9
è¾ ĵ
Lay out
INTERPO LATION
æ® µ
chast ic
H ub
N S
S cope
` ")<
e e
f bx
h ance
p ids
s loth
} ]
æ ģ
ç ½
pa ct
Ġt w
Ġ= ================
Ġa uth
ch ema
ch oo
Ġf ine
Ġre fer
Ġre mov
ce l
Ġs pect
di git
ur ations
ent ication
pe ech
def ined
ad vantage
Ġw atermark
li bs
Ġto o
ot es
con fidence
ĠN ow
ĠT okenizer
is ions
(" [
ver bosity
ĠA M
es h
ma ss
ĠC ode
Ġh our
Ġh ighest
ĠS E
ĠS end
Ġdi vision
Ġx yz
cor r
Ġpre vents
ĠV ector
á´ ł
ore gressive
block ing
mat s
ler obot
Ġout line
ĠH el
col ors
Ġjson l
stat istics
attention s
Ġsub problem
box es
Ġchunk ed
stru cted
ĠSt ream
Pro vide
ast er
clo sed
ĠSh ould
Ġsc atter
Ġcheck ing
ateg ories
Ġvar s
bi ased
ĠJ o
Ar gs
Ġsk learn
ĠBase Output
return s
Ġclo sure
ĠTest Server
environ ment
EX PECTED
So cket
To Tensor
TOKEN IZ
ĠMegatron Dataset
istr al
depth s
sec ure
difi er
pix els
allow ed
BO S
Ġbroadcast ing
åĬ ł
Ġhand les
ĠLinear Normalizer
Stream Response
MO D
Ġdistance s
ĠCLIP Vision
dispatch er
child ren
FLAG S
Fla x
Av ailable
Ġlib rosa
Ġpay load
inemat ic
requ ency
çī ĩ
ymbo lic
SCRI PT
choo ser
ĠTestServer Request
( ()
* :
5 9
6 3
> \
> â
A t
J SON
R aw
` ]):<
c utoff
g buf
n ed
n ip
v anced
Ò ĵ
Ġ zeros
in jected
on s
at map
re ach
de corator
ro bot
le v
ra b
it les
Ġf t
Ġre cursive
Ġc ategory
ode tic
ex pi
ent ence
Ġb oolean
Ġw rong
Ġ( :
Ġto xic
ext ensions
Ġe ar
co very
ĠN a
ĠT P
ver ify
Ġh ar
ĠD DIMScheduler
ĠI P
ĠI mplement
Ġco eff
red it
pos it
ĠV er
query Selector
low dim
DI S
Ġwh o
Model Arguments
Ġal go
lat ex
Ġq drant
AT ES
Ġfunction al
read able
comm unication
IT EM
rot mat
ĠSt at
Pro blem
mult iline
Ġcomm it
SI G
Ġá´ ı
riter ion
Ġsq rt
etuning Arguments
Ġclean ed
sign ature
Ġ". /
WOR LD
inst alled
Ġoptim izers
Ġradi i
ĠPo st
ĠRep licate
ĠRep resent
accum ulate
Ġmov es
Ġtimestamp s
serial ization
contain s
ddp m
interle aved
mis c
Ġcook ies
Ġiss ues
è¡ Į
Ġhorizon tal
OC AB
implement ation
A VE
C ESS
F N
N on
O ption
O llama
R T
R ot
T RAN
U sage
V is
V ocab
d antic
g m
k a
m ixed
n ull
q l
w heel
å ¯
į åĬ
in uation
or i
se udo
on gest
re ceived
de l
Ġa m
Ġf it
ct rl
Ġm ixed
Ġm edia
import s
Ġ# ####################################################
ate Limit
Ġto do
Ġto gether
ize s
int ernal
># ################################
Ġcon catenate
Ġg ives
ĠS ystem
Ġst derr
Ġdi stribute
ĠD raw
pre processing
Ġ_ ("
Ġr gb
per iod
Ġpro per
ON E
Ġj pos
OR CH
so ck
te am
sw e
EN S
SE C
Ġlog in
Ġper plexity
Ġweight ed
Ġ... ")<
sequence s
fn s
mem mory
Ġwork ers
enc ed
En coding
deta il
Ġnormal izer
download s
Ġman ually
non toxic
case s
dest ination
Ġbucket s
inst agram
annot ators
roll ing
warning s
Ġrep ly
Ġdisc ret
Mult istep
Ve Scheduler
ãĢ ģ
Ġeff ect
ĠVal idate
Ġpossi bly
Êı á´ıá´ľ
åŃ Ĺ
iddle ware
Ġjob lib
Ġdest ination
Or iginal
Ġnumer ical
wik i
SHO T
Ġarchitect ure
ç½ ®
' re
) ;
A ct
C S
C AM
G D
O f
O rm
T LS
W indow
W ARE
d dim
f wd
h ysteresis
i ps
s afetensors
å ·
Ġ vert
Ġ lecturer
Ġt an
Ġt emb
im ag
Ġ" ").
Ġm is
Ġm odality
Ġp wn
ig ger
Ġw av
Ġe qu
Ġd ense
Ġ' ')<
ers pective
ma phore
form atter
name space
ĠS O
Ġ2 3
ĠP romise
ĠD es
cal lable
Ġr en
Ġpro c
add Event
Ġso up
Model Mixin
ĠĠĠĠĠĠĠĠĠĠĠĠĠĠĠĠĠĠĠĠĠĠĠĠĠĠĠĠĠĠĠĠ Ġ
Ġindex ing
start ed
ĠSe arch
work flow
Ġac cessed
Ġte ardown
Ġstart up
Ġsc reen
Ġhttp x
req s
spa ces
linear ity
(* _
Process ing
Ġinitial izer
De vice
pack ed
chain ed
Ġæ İ¨éĢģ
Ġmapping s
sup ervised
latitude s
show error
Ġtrunc ate
Ġinclude s
../ ..
Run ning
åĪ °
Ġlong er
help ers
Ġchallenge s
Ġturn ed
basic Config
igr ations
Gaussian Model
wave form
ĠControlNet Model
Ġmot ions
multip lier
ĠNa N
addEvent Listener
" .<
. {
6 9
C LO
D ialog
G ING
O FF
S ummary
V OCAB
] /
a uthor
c les
i LU
m as
r ing
s ft
z s
Ġ ve
Ġ ÊĻ
Ġ dataloaders
İ ·
Ł ¥
at ab
Ġt urbo
re view
ro pped
ra ction
Ġf act
Ġf ov
Ġ" %
Ġm emb
di date
di stributions
Ġp id
ig Integer
Ġb o
Ġw ay
ul ating
get attr
Ġreturn ing
Ġdef ines
ĠT H
ĠA fter
ma g
ab stract
us ic
Ġma king
key board
ĠD rop
Ġres pon
ps ample
Ġun biased
am bda
cont rast
bu gging
ir m
prompt ed
In stance
content s
Ġper iod
ho ver
ĠCon stant
no logy
AL LED
Ġpass ing
={ "<|
miss ion
lot ter
idat or
RO M
Ġad ds
select ive
ĠPro gress
ĠAtt n
Sh ot
WOR DS
pri or
ĠCol lect
Ġlevel s
Ġsuccess ful
Ġsegment s
}: {
Ġedit ed
Key board
FT WARE
calc ulate
Val idate
ĠEmbedding s
ĠPar se
Com put
Ġsy mpy
ĠVal idation
Ġvis ible
Ġfinish ed
Ġmark er
Embed der
Ġdeprec ate
FORM ERS
integ r
Ġassume s
ĠParam s
MET HO
Ġtrim med
smooth ing
Ġmon itor
æĹ ¶
éĩ ı
Drop down
Def ault
Ġaio http
ĠFAI SS
posit ory
ateLimit Error
Ġmemb ers
" /
) [:,
. ):<
2 000
: ])
> '<
M apping
P latform
W hether
[ _
a gg
f eet
h df
k nn
m pty
o V
r n
s peed
Ġ gs
Ġ ...,
Ġ layout
in ing
on ion
st em
al ore
im ator
ra int
Ġre shape
ort ho
Ġn aive
di ag
di stribution
Ġb vh
ens ive
Ġd Ld
ol ding
Ġcon fidence
Ġ' )<
ma gnitude
Ġ[ ])<
Ġ2 1
Ġdata path
ff ff
ĠP M
lock wise
Ġsh arding
Ġun til
pi ece
Ġ3 6
Ġro om
Ġra ster
ĠCo mb
ds d
ca p
ca ptions
ĠRe ference
DI M
ne e
Ġpo ses
rit ic
ph oto
ES TION
ĠUn i
RE M
Ġcomp onents
emb d
PI PE
Ġcode book
Ġret ries
Pro d
Ex tension
Ġpost erior
ĠImage Ops
Ġ8 0
Ġover la
filename s
Pre train
Ġdiff s
CON TEXT
ĠĠĠĠĠĠĠĠĠĠĠĠĠĠĠĠĠĠĠĠĠĠĠĠĠĠĠĠĠĠĠĠĠĠĠĠĠĠĠĠ Ġ
Transformer Config
ĠPa ss
Ġpack ed
ĠCh inese
USE D
ĠEn v
Ġtrunc ation
Ġconne ct
Ġcommon s
can didates
can vas
Sharded StateDict
Mo E
Ġsmall er
ĠKey board
Ġip db
Ġlang chain
ĠDownload Source
hand lers
Ġaut oregressive
("" )<
Ġgre ater
ĠFrozen Dict
Ġdescrib ing
Ġomega conf
Ġrule s
Episode Generator
Ġleg acy
avi er
Ġ##################################################### ###<
Multistep Scheduler
) ],<
3 36
4 03
5 1
= \\
A U
C ES
E vents
I ST
J O
L i
M otion
U E
V Q
a ps
b g
c ite
o pacity
} -
} }<
Ð ¸
é Ŀ
in ates
at ype
al th
Ġa stronomic
ra se
Ġm om
Ġn est
Ġs mpl
la b
di rection
an illa
th an
as ure
ĠN vidia
Ġan tic
ver ter
ĠA nn
Ġ""" )<
ĠS c
Ġst ability
pro vided
init y
Ġde g
wa p
ĠR AG
gg le
=" {
token izers
son g
com bin
ĠG ot
ry ption
qui val
ai r
Ġ` __
ĠRe size
DI CT
SE P
Ġkey points
Ġkey words
bs z
Data Loader
cl uster
Ġresult ing
ĠĠĠĠĠĠĠĠĠĠĠĠĠĠĠĠĠĠĠĠĠĠĠĠĠĠĠĠĠĠĠĠ ĠĠĠĠĠĠĠĠĠĠĠ
nt he
Ġq len
ĠK andinsky
Ġ{} )<
Ġcomp onent
sub plot
)) )
post process
tt p
Se arch
Pro vider
ind x
ĠAN D
UL AR
copy sign
Ġhelp ful
ĠModel s
Ġ12 34
table s
Ġread ing
Ġexec utor
non zero
(". ")[
send line
WOR D
ĠRot ations
PRO CESS
á´ı É´
Me an
Ch ild
Qu ant
assert True
á´Ģ É´
Ġquant ization
Ġtrack ing
ĠOr iginal
ru pt
Ġ15 36
Ġdeno ised
Var i
å¤ §
Ġá´Ľ Êľá´ĩ
ĠHTTP Exception
integ er
Reduce Op
bbox es
ĠâĶ ľâĶĢ
Ġcook ie
ĠVi T
Ġcent ral
MAPPING S
Cross Attention
depend encies
Ġart ifact
elastic search
Selection Config
ĠCheckpointing Exception
vic orn
Decode Error
ĠDep th
è¾ĵ åĩº
ITEM S
" ></
) ',
* ")<
? \
A ss
A CE
C Y
C alculate
M AS
O D
P ri
R ew
T ip
U AL
V ec
b ones
b lended
b lack
c riminator
d ino
m unk
q vel
r ule
v ity
w arm
y label
à ¹
å Ŀ
Ġ err
in ce
at ural
en dation
ra gent
Ġf c
ar di
ct an
Ġm t
Ġc md
Ġn c
ing ular
di fferent
Ġp l
Ġp unct
Ġb ad
as set
Ġto t
str ft
set Timeout
__ ,
co in
co pies
ĠT orch
Ġd ns
is dir
(" >
Ġcon cat
ĠA G
ĠA verage
ĠL R
Ġ+ <
ĠS cale
Ġst ages
ĠP O
ĠP attern
end or
res ources
Ġde que
Ġar tic
"] ))<
Ġres ource
Ġse mester
ron t
ĠM ain
pi red
am ily
Ġj wt
Ġen viron
Ġro bot
ĠG iven
test ing
Data Set
Config Mixin
Ġne arest
In it
tain s
ho ur
let te
Ġ... ]<
Ġshape s
env stacks
au g
Ġcheckpoint ing
Ġinter le
={ '
Lo ck
AM PL
Ġpi ece
Ġvar ious
Ġover all
Ġhelp ers
Ġtra jectories
ĠGPT DataSet
ap ed
optim ization
sin cos
ĠMo dified
Ġpla nner
Mask Softmax
ik ipedia
Ġcondition al
ledge hammer
================================ ============
Ġretrie ving
Ġcomput ing
ĠCh unk
ÊŁ á´ĩ
Mult iple
lim iter
Ġhigh er
|> "})<
ĠTh read
Ġarch ive
Ġeff icient
Ġfig ure
OUT PUT
ĠQuery Param
game s
pid ump
alloc ated
Ġpresent ation
ĠDB Dataset
ĠNe ural
FAI L
ĠVi ew
Scale MaskSoftmax
æ¡ £
compat ible
ĠAuth ors
è½ ¬
Ġè® ¡ç®Ĺ
maz on
Ġantic lockwise
strft ime
ĠGPTDataSet V
" ):
) }.
+ ",
, ),<
, )).
. ".
1 14
L iteral
M N
N e
O M
S iLU
U Net
] `
] ))
b rightness
b asis
f lush
m ble
} -{
è ĩ
é ľ
in di
or qa
re jected
de termin
de coupled
ro pping
it ed
Ġf bx
ar ctan
Ġre vision
Ġre cover
Ġc ancel
Ġn x
Ġs x
Ġs peed
Ġp df
Ġp hoto
Ġb g
Ġw rap
Ġimport s
co mes
po ly
ĠT ak
is m
fig size
Ġ{ {<
ĠP art
Ġde leted
ĠD on
Ġth ird
Ġ_ :
Ġ_ ]
Ġres ized
ta x
ta ck
ĠU sed
ĠE vent
nn x
ft fy
ĠG RAPH
Ġunder lying
SE D
ĠOptional Depend
ĠĠĠĠĠĠĠĠĠĠĠĠĠĠĠĠĠĠĠĠĠĠĠĠĠĠĠĠĠĠĠĠ ĠĠĠĠĠĠĠĠĠĠĠĠĠĠĠĠĠĠĠĠĠĠĠĠĠĠ
yp ot
ĠIn st
IT H
Ġdo cker
Ġsub folder
Ġadd ition
Ġlayer norm
comp ress
inter faces
drop down
]] ):
AN T
ĠBase d
á´ĩ á´ħ
Ġfollow ed
Ġá´ ĺ
ĠGener ic
TH ER
aut y
ency Not
Col lator
Ġdepth s
Ġpack ages
CL S
Ġcons istent
åĲ į
ĠCont ent
termin ation
ĠAl so
Pool Executor
Ġsy mbol
ĠRo le
Ġplace holder
ĠChat Message
æĪ ·
Ġsw iglu
QU ESTION
ĠLe arning
Ġbegin ning
Ġpri or
å¼ ı
Work space
Ġsec ret
INST ALLED
Ð° Ñ
Cli ck
Img Pipeline
ĠTransform ers
Ġpercent age
ĠBlendedMegatron DatasetConfig
å¹ ¶
Ġnd array
Ġdecor ated
İ· åıĸ
ĠOptionalDepend encyNot
ĠOptionalDependencyNot Available
' d
' ):
) ["
, ))<
- '
A fter
D raw
F older
M AT
S im
S un
T uning
_ ,<
` ]<
k ernels
n vidia
o dir
p ot
s And
Ã Ĺ
å Ģ
å į
æ ¶
Ġ utf
or ld
Ġt ls
re gat
ro unds
ion Error
ge d
Ġc r
Ġin structions
Ġn q
Ġn feats
Ġs ledgehammer
ex pose
Ġp ly
Ġw raps
ul id
__ ))))<
Ġas set
con versation
ĠT E
up licate
Ġd dp
Ġcon struct
Ġcon sumed
qu ote
ĠA R
Ġg u
ĠP laybook
class ify
Ġsh a
Ġpre pend
ĠU sing
TI M
ne ar
Ġmask ing
ĠĠĠĠĠĠĠĠĠĠĠĠĠĠĠĠĠĠĠĠĠĠĠĠĠĠĠĠĠĠĠĠ ĠĠĠĠĠĠĠĠĠĠĠĠĠĠĠĠĠĠĠĠĠĠĠ
AS H
In painting
Ġcont ribut
min imum
ach ing
ĠIn sert
Ġpy dantic
save fig
Ġcomp ile
ST M
bin ding
uc ing
Ġup d
') ")<
LM Head
Ġ) [
Norm alize
raw s
Ġover flow
ĠGPT ToTextDataset
ĠBase Exception
lt as
Ġstride s
Ġá´ į
yn tax
ĠAtt ribute
ĠGener al
present ation
ĠPre TrainedTokenizer
medi um
Ġdat atype
ĠRes idual
Ġign ored
final ize
hook s
ĠDe coder
sup er
Ġrep r
stride s
CA USE
Ġquant ized
SS L
Ġgraph s
Ġinf os
âĢ Ķ
Inter rupt
EL LOW
ĠNorm al
ĠRo PE
Vision Transformer
ä½ ¿
Ġeff ort
[[ ],
ear ly
Al location
çĶ¨ æĪ·
è§ £
sli des
Ġpri ce
Ġdete cted
ä¸Ģ ä¸ª
ĠPos itional
ND MScheduler
Select ed
æĸĩ æ¡£
Ġph one
ControlNet Pipeline
############ #<
ĠForm at
COR RECT
ĠSk ip
Ġhapp ens
Clo ud
ĠKe ep
GENER ATE
ĠVari able
ssert ionError
æģ ¯
ĠKeyboard Interrupt
ĠAnn ot
éľ Ģ
determin istic
sAnd Events
) ^
* (
4 6
B o
J E
M EM
M ake
P ay
R a
S D
S er
S ING
U se
W arning
b mm
b ash
c ipher
h an
n av
n aive
p join
q id
y ear
Ð µ
Ġ ed
pa l
se ctions
re ject
st an
de co
it ized
ar row
Ġre ject
Ġre writing
Ġs dd
di ck
ex change
pe ated
Ġw allet
Ġw ritten
Ġ( *
Ġas pect
co urses
ĠT imest
up sample
is nan
(" {}
ma y
ĠC ore
Ġ[ ]).
form er
ĠS P
ĠS up
ĠS ampling
ĠS ampler
pro tocol
par sing
ĠP ack
ĠP erspective
Ġde coding
Ġde coupled
[" _
ĠF rame
ĠD eter
ĠD INO
Ġco variance
Ġco urses
ĠO UT
ĠO THER
Ġor i
Ġse par
file path
Ġun expected
Ġj udge
ĠW eight
cu um
Ġro uter
red uction
'] }\
ll ms
mo g
ĠCo py
Ġlog it
iv ative
Ġout side
-------- ----<
Ġcom bine
In f
Ġcont inuous
work ing
12 0
Ġob servations
AT URE
AR CH
Ġca pab
ĠCon struct
read er
Ġwe ak
gre es
Ġno thing
comp ression
au gment
AI L
Ġact ually
Ġpost ed
Ġ} }<
Ġ} """,<
mem ber
Ġformat ed
Ġwork s
ä¸ Ĭ
TO DO
Ġagent s
SI ST
edit or
ish ed
Gener ated
fi ber
KEY WORDS
Transformer Layer
generator s
ĠMult imodal
Ġcount s
ĠTrain Data
Ġview er
Ġoper ator
78 84
assert Equal
Ġjust ify
need s
Ġthread s
ĠPlat form
éĢ ī
ĠRep lace
SH andle
Ġmu joco
toxic ity
sy mbol
Ġmodi f
ĠToken ize
Ġpix els
hip u
ĠSimple Namespace
Ġbot tom
Ġshe ll
åĽŀ çŃĶ
Ġpropert y
numer ic
èµ ¤
