{"<s>":0,"</s>":1,"[PAD]":2,"!":3,"\"":4,"#":5,"$":6,"%":7,"&":8,"'":9,"(":10,")":11,"*":12,"+":13,",":14,"-":15,".":16,"/":17,"0":18,"1":19,"2":20,"3":21,"4":22,"5":23,"6":24,"7":25,"8":26,"9":27,":":28,";":29,"<":30,"=":31,">":32,"?":33,"@":34,"A":35,"B":36,"C":37,"D":38,"E":39,"F":40,"G":41,"H":42,"I":43,"J":44,"K":45,"L":46,"M":47,"N":48,"O":49,"P":50,"Q":51,"R":52,"S":53,"T":54,"U":55,"V":56,"W":57,"X":58,"Y":59,"Z":60,"[":61,"\\":62,"]":63,"^":64,"_":65,"`":66,"a":67,"b":68,"c":69,"d":70,"e":71,"f":72,"g":73,"h":74,"i":75,"j":76,"k":77,"l":78,"m":79,"n":80,"o":81,"p":82,"q":83,"r":84,"s":85,"t":86,"u":87,"v":88,"w":89,"x":90,"y":91,"z":92,"{":93,"|":94,"}":95,"~":96,"¡":97,"¢":98,"£":99,"¤":100,"¥":101,"¦":102,"§":103,"¨":104,"©":105,"ª":106,"«":107,"¬":108,"®":109,"¯":110,"°":111,"±":112,"²":113,"³":114,"´":115,"µ":116,"¶":117,"·":118,"¸":119,"¹":120,"º":121,"»":122,"¼":123,"½":124,"¾":125,"¿":126,"À":127,"Á":128,"Â":129,"Ã":130,"Ä":131,"Å":132,"Æ":133,"Ç":134,"È":135,"É":136,"Ê":137,"Ë":138,"Ì":139,"Í":140,"Î":141,"Ï":142,"Ð":143,"Ñ":144,"Ò":145,"Ó":146,"Ô":147,"Õ":148,"Ö":149,"×":150,"Ø":151,"Ù":152,"Ú":153,"Û":154,"Ü":155,"Ý":156,"Þ":157,"ß":158,"à":159,"á":160,"â":161,"ã":162,"ä":163,"å":164,"æ":165,"ç":166,"è":167,"é":168,"ê":169,"ë":170,"ì":171,"í":172,"î":173,"ï":174,"ð":175,"ñ":176,"ò":177,"ó":178,"ô":179,"õ":180,"ö":181,"÷":182,"ø":183,"ù":184,"ú":185,"û":186,"ü":187,"ý":188,"þ":189,"ÿ":190,"Ā":191,"ā":192,"Ă":193,"ă":194,"Ą":195,"ą":196,"Ć":197,"ć":198,"Ĉ":199,"ĉ":200,"Ċ":201,"ċ":202,"Č":203,"č":204,"Ď":205,"ď":206,"Đ":207,"đ":208,"Ē":209,"ē":210,"Ĕ":211,"ĕ":212,"Ė":213,"ė":214,"Ę":215,"ę":216,"Ě":217,"ě":218,"Ĝ":219,"ĝ":220,"Ğ":221,"ğ":222,"Ġ":223,"ġ":224,"Ģ":225,"ģ":226,"Ĥ":227,"ĥ":228,"Ħ":229,"ħ":230,"Ĩ":231,"ĩ":232,"Ī":233,"ī":234,"Ĭ":235,"ĭ":236,"Į":237,"į":238,"İ":239,"ı":240,"Ĳ":241,"ĳ":242,"Ĵ":243,"ĵ":244,"Ķ":245,"ķ":246,"ĸ":247,"Ĺ":248,"ĺ":249,"Ļ":250,"ļ":251,"Ľ":252,"ľ":253,"Ŀ":254,"ŀ":255,"Ł":256,"ł":257,"Ń":258,"ĠĠ":259,"ĠĠĠĠ":260,"ĠĠĠ":261,"se":262,"ĠĠĠĠĠĠĠ":263,"re":264,"in":265,"on":266,"te":267,"or":268,"st":269,"de":270,"Ġ<":271,"Ġ=":272,"Ġ</":273,"th":274,"ĠĠĠĠĠĠĠĠ":275,"sel":276,"self":277,"le":278,"me":279,"Ġa":280,"ti":281,"er":282,"Ġi":283,"al":284,"--":285,"Ġc":286,"ar":287,"en":288,"Ġf":289,"ro":290,"Ġself":291,"mp":292,"an":293,"at":294,"):":295,"Ġre":296,"\"\"":297,"ĠĠĠĠĠĠĠĠĠĠĠ":298,"Ġth":299,"Ġ'":300,"ur":301,"as":302,"ge":303,"Ġp":304,"ce":305,"tion":306,"Ġde":307,"##":308,"Ġs":309,"Ġt":310,"ser":311,"li":312,"ing":313,"ue":314,"Ġthe":315,"ort":316,"Ġn":317,"Ġdef":318,"Ġo":319,"ame":320,"Ġin":321,"ct":322,"ate":323,"lo":324,"Ġd":325,"----":326,"mport":327,"un":328,"Ġe":329,"',":330,"()":331,"fi":332,"ri":333,"co":334,"Ġ#":335,"Ġb":336,"ch":337,"Ġm":338,"Ġw":339,"__":340,"pe":341,"urn":342,"ĠĠĠĠĠĠĠĠĠĠĠĠĠĠĠĠ":343,"turn":344,"si":345,"\"\"\"":346,"ut":347,"nt":348,"rom":349,"ck":350,"ra":351,"Ġimport":352,"is":353,"ul":354,"ter":355,"get":356,"id":357,"('":358,"Ġif":359,"name":360,"Ġreturn":361,"Ġ\"":362,"it":363,"ad":364,"Ġfor":365,"Ġto":366,"el":367,"ĠT":368,"test":369,"Ġ\"\"\"":370,"ot":371,"')":372,"ass":373,"pa":374,"####":375,"one":376,"sert":377,"Ġ(":378,"val":379,"ver":380,"la":381,"ed":382,"Ġis":383,"up":384,"ma":385,"ode":386,"qu":387,"Ġan":388,"ss":389,"il":390,"ata":391,"set":392,"Ġh":393,"con":394,"ke":395,"ect":396,"ĠĠĠĠĠĠĠĠĠĠĠĠĠĠĠ":397,"di":398,"ol":399,"lass":400,"ty":401,"es":402,"der":403,"from":404,"--------":405,"None":406,"vi":407,"Ġex":408,"ult":409,"pp":410,"Ġst":411,"od":412,"ex":413,"gs":414,"ation":415,"Ġof":416,"ent":417,"==":418,"sion":419,"Ġas":420,"op":421,"))":422,"bj":423,"Ġ[":424,"ction":425,"ta":426,"ment":427,"ĠA":428,"res":429,"Ġu":430,"':":431,"ĠS":432,"Ġcon":433,"ble":434,"ĠC":435,"._":436,"ith":437,"and":438,"ase":439,"age":440,"ile":441,"ror":442,"ĠI":443,"assert":444,"']":445,"ic":446,"he":447,"et":448,"Ġtest":449,"ls":450,"value":451,"ve":452,"Ġ1":453,"ĠL":454,"ted":455,"rue":456,"Ġnot":457,"Ġand":458,"um":459,"que":460,"Ġg":461,"to":462,"),":463,"key":464,"Ġfrom":465,"bject":466,"int":467,"time":468,"path":469,"['":470,"Ġ%":471,"\",":472,"am":473,"ht":474,"xt":475,"ĠF":476,"bu":477,"for":478,"Ġres":479,"(\"":480,"file":481,"Ġclass":482,"Ġ*":483,"all":484,"Ġ_":485,"00":486,"ption":487,"us":488,"ĠNone":489,"tr":490,"ew":491,"ense":492,"Re":493,"type":494,"eld":495,"args":496,"Ġ{":497,"par":498,"qual":499,"pro":500,"ĠP":501,"Ġco":502,"Ġ2":503,"Ġor":504,"lin":505,"Ġdi":506,"quest":507,"ow":508,"Ġbe":509,"ub":510,"Ġ0":511,"Ġ+":512,"ON":513,"Ġr":514,"end":515,"pt":516,"Ġlo":517,"########":518,"est":519,"list":520,"rror":521,"ance":522,"Ġ==":523,"Ġ-":524,"Error":525,"text":526,"ĠM":527,"\")":528,"che":529,"per":530,"Ġ__":531,"Ġ:":532,"import":533,"app":534,"Ġfile":535,"Ġwith":536,"ĠD":537,"ang":538,"ĠĠĠĠĠ":539,"ig":540,"fa":541,"data":542,"Ġname":543,"fo":544,"Ġme":545,"alse":546,"po":547,"Equal":548,"ack":549,"Ġun":550,"icense":551,"red":552,"mple":553,"our":554,"Ġma":555,"able":556,"str":557,"Ġpro":558,"reate":559,"fig":560,"tem":561,"mo":562,"oc":563,"ise":564,"sh":565,"url":566,"iz":567,"='":568,"out":569,"assertEqual":570,"ys":571,"put":572,"----------------":573,"len":574,"====":575,"mm":576,"form":577,"ĠO":578,"pec":579,"Ġget":580,"lic":581,"ĠLicense":582,"Ġset":583,"pon":584,"TI":585,"ry":586,"Ġassert":587,"py":588,"ure":589,"Ġ@":590,"ĠB":591,"ield":592,"Ġy":593,"Ġdata":594,"stance":595,"ype":596,"code":597,"ule":598,"art":599,"ho":600,"ource":601,"Ġse":602,"Ġvalue":603,"add":604,"tri":605,"ER":606,"uth":607,"wor":608,"ponse":609,"ĠE":610,"__(":611,"object":612,"Ġon":613,"ly":614,"lient":615,"date":616,"ff":617,"pi":618,"Ġthis":619,"ger":620,"ctor":621,"late":622,"tp":623,"IN":624,"atch":625,"True":626,"user":627,"sc":628,"])":629,"ĠN":630,"ist":631,"Ġar":632,"odel":633,"ĠĠĠĠĠĠĠĠĠĠĠĠĠĠĠĠĠĠĠ":634,"Ġel":635,"Test":636,"class":637,").":638,"cess":639,"ĠW":640,"Ġelse":641,"ock":642,"kw":643,"ES":644,"Ġx":645,"ting":646,"Ġra":647,"Ġthat":648,"Ġos":649,"Ġuse":650,"thod":651,"ange":652,"cept":653,"temp":654,"rint":655,"ĠThe":656,"ĠU":657,"ll":658,"jang":659,"pre":660,"init":661,"line":662,"ssage":663,"..":664,"In":665,"Ġstr":666,"],":667,"jo":668,"jango":669,"Ġpar":670,"dex":671,"ument":672,"bo":673,"ten":674,"rent":675,"Ġpa":676,"lu":677,"gin":678,"EN":679,"ind":680,"unt":681,"ader":682,"ou":683,"ĠTrue":684,"Ġv":685,"Ġby":686,"ml":687,"error":688,"version":689,"ne":690,"om":691,"Ġat":692,"ca":693,"ĠĠĠĠĠĠĠĠĠĠĠĠĠĠĠĠĠĠĠĠĠĠĠĠ":694,"():":695,"read":696,"low":697,"kwargs":698,"``":699,"ator":700,"ph":701,"ok":702,"Ġwh":703,"ĠG":704,"col":705,"Con":706,"min":707,"//":708,"dd":709,"ception":710,"Ġraise":711,"ĠR":712,"ip":713,"andle":714,"Ġresult":715,"odule":716,"ild":717,"Ġit":718,"dir":719,"ask":720,"son":721,"Ġen":722,"Ġkey":723,"**":724,"param":725,"tent":726,"roup":727,"vent":728,"tain":729,">>":730,"lib":731,"port":732,"ans":733,"Ġlog":734,"cal":735,"valid":736,"vice":737,"Ġapp":738,"thon":739,"ber":740,"ore":741,"ec":742,"01":743,"result":744,"AS":745,"ĠFalse":746,"ary":747,"ĠV":748,"Ġch":749,"\":":750,"Ġla":751,"mmand":752,"uti":753,"################":754,"Ġexcept":755,"unction":756,"ĠRe":757,"mage":758,"Ġl":759,"os":760,"request":761,"odels":762,"wa":763,"''":764,"Ġ**":765,"log":766,"Ġ)":767,"ext":768,"base":769,"Ġuser":770,"def":771,"Ġlist":772,"view":773,"ac":774,"qui":775,"Ġtime":776,"ĠH":777,"ill":778,"OR":779,"ther":780,"Ġ3":781,"ght":782,"Ġrequest":783,"ds":784,"ery":785,"Ġpy":786,"atus":787,"Ġtry":788,"Ġout":789,".__":790,"=\"":791,"AT":792,"ute":793,"Ġprint":794,"://":795,"opy":796,"template":797,"instance":798,"TION":799,"db":800,"stri":801,"ĠĠĠĠĠĠĠĠĠĠĠĠĠĠĠĠĠĠĠĠĠĠĠĠĠĠĠĠĠĠĠĠ":802,"ir":803,"Ġare":804,"ses":805,"ener":806,"ust":807,"ST":808,"Ġso":809,"ft":810,"back":811,"load":812,"pen":813,"ample":814,"tic":815,"fault":816,"config":817,"Ġpass":818,"create":819,"IC":820,"Ġunder":821,"json":822,"LE":823,"og":824,"False":825,"Ġobject":826,"Ġlen":827,"den":828,"AR":829,"append":830,"ave":831,"rite":832,"Ġwe":833,"scri":834,"Ġdjango":835,"Ġsys":836,"ze":837,"und":838,"ctory":839,"DI":840,"ab":841,"ded":842,"update":843,"ren":844,"server":845,"format":846,"ms":847,"ize":848,"Ex":849,"tive":850,"main":851,"com":852,"uld":853,"Ġsh":854,"join":855,"field":856,"ces":857,"Ġro":858,"pla":859,"client":860,"tes":861,"ĉĉ":862,"own":863,"========":864,"ken":865,"no":866,"tribu":867,"Ġno":868,"ault":869,"if":870,"ject":871,"Ġhe":872,"count":873,"tings":874,"his":875,"ters":876,"tions":877,"auth":878,"())":879,"info":880,"UT":881,"right":882,"Ġ('":883,"da":884,"ttp":885,"Ġpath":886,"ning":887,"SE":888,"dict":889,"Ġdefault":890,"orm":891,"ww":892,"Ġcomp":893,"query":894,"work":895,"attr":896,"fe":897,"ts":898,"'),":899,"ag":900,"Ġ}":901,"IT":902,"fic":903,"Ġurl":904,"comp":905,"ĠĠĠĠĠĠ":906,"Ġsup":907,"sed":908,"Pro":909,"ĠIn":910,"([":911,"Ġtype":912,"ies":913,"Ġ[]":914,"size":915,"Ġcol":916,"Ġwill":917,"cor":918,"AN":919,"Ġpre":920,"with":921,"Field":922,"im":923,"ĠIf":924,"andler":925,"Ġper":926,"peci":927,"Ġresponse":928,"return":929,"ree":930,"tern":931,"ray":932,"cur":933,"default":934,"ard":935,"RE":936,"ost":937,"ated":938,"umn":939,"mis":940,"umber":941,"Co":942,"tial":943,"Ġnp":944,"ocument":945,"Ġcan":946,"Ġhas":947,"start":948,"Ġdo":949,"Ġli":950,"index":951,"nd":952,"nection":953,"ron":954,"iv":955,"Ġnew":956,"mit":957,"utils":958,"Ġall":959,"heck":960,"Ġconfig":961,"word":962,".\"\"\"":963,"mb":964,"--------------------------------":965,"Ġ['":966,"Ġal":967,"Ġcreate":968,"du":969,"ĠThis":970,"http":971,"Ġform":972,"Ġmay":973,"string":974,"(),":975,"Ġ{}":976,"tra":977,"unc":978,"Ġk":979,"Ġfield":980,"ations":981,"lock":982,"arget":983,"ee":984,"sub":985,"sions":986,"item":987,"html":988,"node":989,"reg":990,"ume":991,"Ġ4":992,"Case":993,"ix":994,"ĠTest":995,"Ġmethod":996,"Ġadd":997,"method":998,"stribu":999,"Ġ.":1000,"Ġ{'":1001,"led":1002,"Ġhttp":1003,"St":1004,"response":1005,"gn":1006,"sp":1007,"Ġsub":1008,"arg":1009,"fix":1010,"sing":1011,"api":1012,"ress":1013,"run":1014,"ory":1015,"Ġstring":1016,"by":1017,"ware":1018,"ĠK":1019,"'],":1020,"Ġbu":1021,"pected":1022,"ial":1023,"ite":1024,"TIONS":1025,"write":1026,"lement":1027,"Ġoption":1028,"ME":1029,"ging":1030,"Type":1031,"status":1032,"man":1033,"arch":1034,"bel":1035,"service":1036,"alue":1037,"tle":1038,"*-":1039,"ity":1040,"Ġfa":1041,"ari":1042,"group":1043,"message":1044,"mail":1045,"Ġspeci":1046,"Ġdistribu":1047,"AL":1048,"lete":1049,"Ġyou":1050,"sha":1051,"Ġcur":1052,"gra":1053,"Ġ`":1054,"Ġ-*-":1055,"hould":1056,"Res":1057,"the":1058,"Ġfunction":1059,"Ġ``":1060,"Ġnode":1061,"obj":1062,"Ġ'''":1063,"Ġac":1064,"org":1065,"Name":1066,"Ġarg":1067,"perty":1068,"tribute":1069,"models":1070,"pace":1071,"foo":1072,"Ġwor":1073,"Ġrun":1074,"DE":1075,"quired":1076,"gth":1077,"De":1078,"~~":1079,"RO":1080,"ĠĠĠĠĠĠĠĠĠĠĠĠĠĠĠĠĠĠĠĠĠĠĠ":1081,"ant":1082,"state":1083,"Ġdate":1084,"fil":1085,"IS":1086,"va":1087,"Ġargs":1088,"ers":1089,"aders":1090,"Ġmodule":1091,"vel":1092,"link":1093,"host":1094,"10":1095,"Ġshould":1096,"md":1097,"title":1098,"ign":1099,"lit":1100,"TestCase":1101,"rame":1102,"ager":1103,"().":1104,"pache":1105,"parse":1106,"context":1107,"objects":1108,"nel":1109,"Ġversion":1110,"clu":1111,"Ġmessage":1112,"'])":1113,"ull":1114,"table":1115,"sta":1116,"do":1117,"Ġinstance":1118,"ash":1119,"ĠEx":1120,"rect":1121,"Ġ..":1122,"bs":1123,"Ġdistributed":1124,"ID":1125,"max":1126,"call":1127,"ay":1128,"clo":1129,"Ġoutput":1130,"Ġerror":1131,"scription":1132,"ich":1133,"map":1134,"rans":1135,">>>":1136,"Ġline":1137,"].":1138,"Ġ\\":1139,"lif":1140,"ding":1141,"not":1142,"utf":1143,"ey":1144,"Ġle":1145,"model":1146,"loat":1147,"Ġbase":1148,"Ġ>":1149,"core":1150,"angu":1151,"Ġpo":1152,"anguage":1153,"Ġ+=":1154,"su":1155,"MP":1156,"Ġmock":1157,"'s":1158,"Ġcopy":1159,"ight":1160,"lugin":1161,"ody":1162,"'))":1163,"license":1164,"tring":1165,"bin":1166,"[\"":1167,"ally":1168,"we":1169,"Data":1170,"Ġisinstance":1171,"ps":1172,"use":1173,"Ġitem":1174,"Ġused":1175,"'t":1176,"Ġmodel":1177,"module":1178,"12":1179,"ĠCon":1180,"Ġsuper":1181,"lob":1182,"ream":1183,"check":1184,"row":1185,"pr":1186,"dis":1187,"'.":1188,"Ġ5":1189,"Ġca":1190,"ved":1191,"Ġcode":1192,"ine":1193,"Ser":1194,"net":1195,"ulti":1196,"ound":1197,"Ġmodels":1198,"Ġz":1199,"token":1200,"ime":1201,"Ġint":1202,"cl":1203,"content":1204,"my":1205,"ittest":1206,"ump":1207,"Ġelif":1208,"Model":1209,"Ġne":1210,"process":1211,"names":1212,"Ġsu":1213,"bug":1214,"Ġstart":1215,"Ġgo":1216,"sys":1217,"ises":1218,"ols":1219,"Ġother":1220,"ner":1221,"Me":1222,"yn":1223,"})":1224,"be":1225,"rectory":1226,"Ġag":1227,"Ġcheck":1228,"ĠY":1229,"action":1230,"oo":1231,"Ġclient":1232,"\"]":1233,"Ġdb":1234,"Ġwhich":1235,"cre":1236,"HO":1237,"image":1238,"andom":1239,"Ġ>>>":1240,"Ġindex":1241,"new":1242,"icode":1243,"lean":1244,"array":1245,"point":1246,"Ġ/":1247,"ark":1248,"men":1249,"sg":1250,"ors":1251,"ref":1252,"Ġdis":1253,"sign":1254,"Ġj":1255,"Ch":1256,"move":1257,"ments":1258,"uple":1259,"File":1260,"pack":1261,"bar":1262,"opyright":1263,"elp":1264,"ĠUn":1265,"ual":1266,"Ġcontext":1267,"ome":1268,"Fa":1269,"trans":1270,"AC":1271,"ap":1272,"cs":1273,"Ġcontain":1274,"Ġdict":1275,"Base":1276,"Ġcall":1277,"doc":1278,"Ġlogging":1279,"source":1280,"ĠDe":1281,"Ġtext":1282,"ĠSee":1283,"Ġauth":1284,"PI":1285,"Ġopen":1286,"types":1287,"ler":1288,"ĠIS":1289,":`":1290,"func":1291,"Ġevent":1292,"lable":1293,"Ġ201":1294,"filter":1295,"lication":1296,"ĠĠĠĠĠĠĠĠĠ":1297,"RL":1298,"ax":1299,"Ġdocument":1300,"HE":1301,"ci":1302,"mock":1303,"ftware":1304,"Ġexpected":1305,"Set":1306,"ties":1307,"settings":1308,"Ġid":1309,"((":1310,"Ġvalues":1311,"open":1312,"split":1313,"ĠReturn":1314,"tro":1315,"ython":1316,"orted":1317,"Up":1318,"comm":1319,"command":1320,"'):":1321,"Ġ!":1322,"www":1323,"################################":1324,"ĠCopyright":1325,"ĠOR":1326,"patch":1327,"Ġstate":1328,"Ġwork":1329,"play":1330,"ong":1331,"ĠX":1332,"Ġsource":1333,"project":1334,"Ġrequired":1335,"ĠAN":1336,"ion":1337,"Ġcurrent":1338,"ach":1339,"its":1340,"ersion":1341,"output":1342,"iven":1343,"ĠĊ":1344,"fied":1345,"Ġwhen":1346,"Ġhave":1347,"lection":1348,"conn":1349,"Ġimage":1350,"viron":1351,"Ġ|":1352,"Ġany":1353,"ENT":1354,"Ġone":1355,"Ġcal":1356,"sent":1357,"Ġ!=":1358,"lay":1359,"ED":1360,"Ġend":1361,"Ġfiles":1362,"queue":1363,"Ġgener":1364,"indow":1365,"als":1366,"event":1367,"less":1368,"itial":1369,"Exception":1370,"delete":1371,"env":1372,"TP":1373,"ep":1374,"print":1375,"Ġtra":1376,"ĠJ":1377,"uture":1378,"Ġad":1379,"tity":1380,"params":1381,"equal":1382,"uto":1383,"uration":1384,"ML":1385,"assertTrue":1386,"Di":1387,"Ġimp":1388,"SI":1389,"Ġjson":1390,"ak":1391,"Ġreg":1392,"Ġcontent":1393,"fields":1394,"Ġrange":1395,"Ġcommand":1396,"ister":1397,"Ġobj":1398,"cls":1399,"Par":1400,"Form":1401,"plo":1402,"[:":1403,"ched":1404,"trol":1405,"options":1406,"trib":1407,"Ġdatetime":1408,"tail":1409,"label":1410,"ither":1411,"GE":1412,"Ġsettings":1413,"****":1414,"ĠCON":1415,"32":1416,"missions":1417,"Ġmax":1418,"place":1419,"Ġformat":1420,"ĠOF":1421,"Un":1422,"},":1423,"cache":1424,"Vi":1425,"List":1426,"Ġserver":1427,"arning":1428,"length":1429,"tin":1430,"clude":1431,"uct":1432,"ql":1433,"Ġpage":1434,"inter":1435,"ICEN":1436,"Ġquery":1437,"Ġspecific":1438,"page":1439,"filename":1440,"lines":1441,"values":1442,"================":1443,"umpy":1444,"ICENSE":1445,"pass":1446,"ify":1447,"FI":1448,"ameters":1449,"Ġvalid":1450,"Ġnumber":1451,"Ġlimit":1452,"ration":1453,"Ġup":1454,"idget":1455,"loc":1456,"Ġparam":1457,"cri":1458,"ĉĊ":1459,"Ġwri":1460,"sor":1461,"ĠMO":1462,"ocket":1463,"lat":1464,"rc":1465,"Ġpython":1466,"serial":1467,"Ġlanguage":1468,"alueError":1469,"Ġ####":1470,"function":1471,"store":1472,"Ġoptions":1473,"property":1474,"chema":1475,"Ra":1476,"Ġgiven":1477,"Ġtemplate":1478,"Ġeither":1479,"RAN":1480,"mbda":1481,"ICA":1482,"Ġbo":1483,"django":1484,"uid":1485,"emp":1486,"ariable":1487,"Ġnames":1488,"::":1489,"Ġver":1490,"face":1491,"attern":1492,"Ġob":1493,"job":1494,"Ġ--":1495,"python":1496,"lan":1497,"stra":1498,"TTP":1499,"input":1500,"Key":1501,"Ġmatch":1502,"post":1503,"ĠQ":1504,"admin":1505,"ists":1506,"Ġman":1507,"DIF":1508,"adata":1509,"LO":1510,"Ġcod":1511,"task":1512,"try":1513,"Ġutf":1514,"exec":1515,"Ġkwargs":1516,"tocol":1517,"ures":1518,"Ġonly":1519,"Ġcl":1520,"Ġcoding":1521,"lied":1522,"Ġread":1523,"xy":1524,"session":1525,"Not":1526,"En":1527,"shape":1528,"Ġargument":1529,"UL":1530,"ld":1531,"annel":1532,"\".":1533,"ud":1534,"AD":1535,"Ġmake":1536,"ĠYou":1537,"Ġview":1538,"close":1539,"ICATIONS":1540,"range":1541,"Ġcls":1542,"resource":1543,"tag":1544,"root":1545,"unk":1546,"pri":1547,"ustom":1548,"64":1549,"Ġtoken":1550,"ĠMODIF":1551,"Ġ10":1552,"local":1553,"{'":1554,"(*":1555,"ĠMODIFICATIONS":1556,"future":1557,"String":1558,"debug":1559,"util":1560,"feren":1561,"Ġsoftware":1562,"0000":1563,"coding":1564,"keys":1565,"Ġbut":1566,"build":1567,"ature":1568,"Ġtrans":1569,"Ġinput":1570,"Ġ]":1571,"ilter":1572,"Ġback":1573,"Ġmsg":1574,"Ġtw":1575,"ĠCo":1576,"items":1577,"Ġtarget":1578,"river":1579,"ĠANY":1580,"ĠWAR":1581,"View":1582,"idth":1583,"exception":1584,"MA":1585,"conf":1586,"ccess":1587,"ĠPro":1588,"target":1589,"ell":1590,"ĠĠĠĠĊ":1591,"Id":1592,"OT":1593,"sition":1594,"Get":1595,"column":1596,"PE":1597,"Ġdirectory":1598,"lease":1599,"teger":1600,"ats":1601,"IND":1602,"irst":1603,"err":1604,"Ġupdate":1605,"User":1606,"ran":1607,"lation":1608,"df":1609,"yle":1610,"msg":1611,"Ġaction":1612,"copy":1613,"match":1614,"ĠWARRAN":1615,"ING":1616,"Request":1617,"files":1618,"AB":1619,"var":1620,"11":1621,"ateg":1622,"onent":1623,"ns":1624,"gine":1625,"ffer":1626,"201":1627,"ake":1628,"entry":1629,"licenses":1630,"TIES":1631,"Ġprovi":1632,"np":1633,"ĠReturns":1634,"Ġdoes":1635,"ĠVersion":1636,"ain":1637,"orage":1638,"Ġgroup":1639,"dent":1640,"press":1641,"Ġhost":1642,"dition":1643,"Ġusing":1644,"num":1645,"Ġvi":1646,"NA":1647,"Ġpermissions":1648,"raw":1649,"Raises":1650,"change":1651,"fter":1652,"('/":1653,"Ġtable":1654,"cy":1655,"save":1656,"Ġmust":1657,"raph":1658,"Ġ'%":1659,"Ġinter":1660,"pk":1661,"select":1662,"Ar":1663,"Ġexception":1664,"Ġsize":1665,"Ġtask":1666,"cord":1667,"imple":1668,"ĠPython":1669,"pect":1670,"ste":1671,"ates":1672,"tadata":1673,"iter":1674,"ĠĠĠĠĠĠĠĠĠĠĠĠĠĠĠĠĠĠĠĠĠĠĠĠĠ":1675,"ĠApache":1676,"Col":1677,"Ġpack":1678,"Se":1679,"has":1680,"CO":1681,"To":1682,"Ġ'/":1683,"ĠWARRANTIES":1684,"top":1685,"Handler":1686,"find":1687,"izer":1688,"ĠWIT":1689,"CE":1690,"License":1691,"handler":1692,"Ġ200":1693,"RI":1694,"fir":1695,"uri":1696,"ous":1697,"tiv":1698,"level":1699,"Ġrow":1700,"assertRaises":1701,"Ġuti":1702,"Ġproject":1703,")),":1704,"Ġq":1705,"Ġhelp":1706,"tools":1707,"Ġ6":1708,"PO":1709,"Ġmo":1710,"Ġobtain":1711,"here":1712,"HOUT":1713,"inal":1714,"Ġstatus":1715,"Ġnumpy":1716,"verse":1717,"').":1718,"exten":1719,"ized":1720,")))":1721,"ization":1722,"Ġapplic":1723,"=[":1724,"Log":1725,"ker":1726,"Time":1727,"Ġyield":1728,"Ġhere":1729,"Ġinto":1730,"ped":1731,"asses":1732,"Ġwriting":1733,"contrib":1734,"vai":1735,"site":1736,"email":1737,"mber":1738,"fore":1739,"Ġmin":1740,"xml":1741,"current":1742,"manager":1743,"tests":1744,"mation":1745,"usr":1746,"Man":1747,"Ġparams":1748,"nder":1749,"ĠBAS":1750,"DO":1751,"Ġconnection":1752,"apache":1753,"order":1754,"ĠĠĠĠĠĠĠĠĠĠĠĠĠĠĠĠĠĠĠĠĠĠĠĠĠĠĠ":1755,"LICENSE":1756,"sa":1757,"older":1758,"sit":1759,"ĠLicensed":1760,"Ġparser":1761,"ote":1762,"Ġfilename":1763,"Ġgover":1764,"bi":1765,"Ġfirst":1766,"Ġinst":1767,"ĠKIND":1768,"ath":1769,"Return":1770,"~~~~":1771,"Ġimplied":1772,"Ġover":1773,"rap":1774,"body":1775,"mission":1776,"of":1777,"EST":1778,"Ġexp":1779,"quen":1780,"uster":1781,"connection":1782,"ĠWITHOUT":1783,"000":1784,"ick":1785,"Ġsetup":1786,"reed":1787,"Po":1788,"mon":1789,"25":1790,"liance":1791,"lear":1792,"Ġunittest":1793,"headers":1794,"parser":1795,"other":1796,"(_":1797,"ha":1798,"parent":1799,"pub":1800,"US":1801,"author":1802,"Ġport":1803,"old":1804,"child":1805,"\");":1806,"Ġtuple":1807,"cript":1808,"iled":1809,"tributes":1810,"inx":1811,"Ġcompliance":1812,"IO":1813,"cmd":1814,"ogle":1815,"domain":1816,"</":1817,"kip":1818,"Ġapplicable":1819,"Ġdoc":1820,"Ġexpress":1821,"ĠCONDI":1822,"atri":1823,"\"),":1824,"ĠCONDITIONS":1825,"Ġgoverning":1826,"ĠAr":1827,"ĠBASIS":1828,"box":1829,"option":1830,"connect":1831,"TY":1832,"mt":1833,"Ġlib":1834,"rid":1835,"show":1836,"prefix":1837,"Ġresource":1838,"dout":1839,"register":1840,"Ġtrue":1841,"etwork":1842,"olume":1843,"Ġparent":1844,"last":1845,"Ġlaw":1846,"ĠValueError":1847,"ating":1848,"password":1849,"Ġagreed":1850,"ĠUnless":1851,"ast":1852,"fail":1853,"alt":1854,"99":1855,"float":1856,"search":1857,"Ġsome":1858,"ternal":1859,"Ġchange":1860,"rate":1861,"phinx":1862,"Client":1863,"Lo":1864,"plugin":1865,"pos":1866,"Ġprocess":1867,"CON":1868,"spec":1869,"Ġ''":1870,"Ġfields":1871,"Config":1872,"Ġneed":1873,"ush":1874,"ive":1875,"let":1876,"username":1877,"ĠBE":1878,"Ġmore":1879,"Ġlimitations":1880,"gener":1881,"Ġeach":1882,"Ġcolumn":1883,"are":1884,"mented":1885,")]":1886,"vailable":1887,"Value":1888,"block":1889,"frame":1890,"Response":1891,"Ġheaders":1892,"package":1893,"Ġcase":1894,"Ġunicode":1895,"Ġexec":1896,"UN":1897,"ug":1898,").__":1899,"Ġret":1900,"stack":1901,"script":1902,"so":1903,"cted":1904,"UM":1905,"Object":1906,"fla":1907,"sup":1908,"ĠUser":1909,"Ġses":1910,"thing":1911,"04":1912,"pper":1913,"stamp":1914,"atrix":1915,"example":1916,"ĠLO":1917,"next":1918,"Ġlabel":1919,"CT":1920,"Ġload":1921,"make":1922,"Ġ#!":1923,"ference":1924,"Ġdescription":1925,"static":1926,"LI":1927,"ormal":1928,"ATE":1929,"Ġwhile":1930,"Ġelement":1931,"itor":1932,"ĠĠĠĠĠĠĠĠĠĠ":1933,"ants":1934,"ĠAdd":1935,"stream":1936,"olute":1937,"Ġresults":1938,"pop":1939,"Ġservice":1940,"flow":1941,"rt":1942,"ĠImport":1943,"elper":1944,"mark":1945,"ollow":1946,"ĠMe":1947,"send":1948,"abs":1949,"lt":1950,"][":1951,"Ġpri":1952,"number":1953,"vo":1954,"space":1955,"datetime":1956,"Ġcor":1957,"fier":1958,"mary":1959,"down":1960,"Ġ8":1961,"ync":1962,"ameter":1963,"Add":1964,"denti":1965,"IL":1966,"vert":1967,"Command":1968,"fy":1969,"Ġoper":1970,"mode":1971,"mote":1972,"duct":1973,"description":1974,"formation":1975,"les":1976,"environ":1977,"Ġmode":1978,"ĠĠĠĠĠĠĠĠĠĠĠĠĠĠĠĠĠĠĠĠĠ":1979,"Ġsession":1980,"ctionary":1981,"vision":1982,"sum":1983,"Ġbody":1984,"FA":1985,"Ġorder":1986,"fer":1987,"Ġsa":1988,"assertEquals":1989,"Ġ...":1990,"Ġ#!/":1991,"Ġ::":1992,"lect":1993,"Ġlogger":1994,"off":1995,"ĠException":1996,"Node":1997,"Ġfe":1998,"exp":1999,"address":2000,"Ġmain":2001,"Ġ'.":2002,"cket":2003,"now":2004,"Mock":2005,"Auth":2006,"Ġtitle":2007,"Ġimple":2008,"random":2009,"strip":2010,"ĠPar":2011,"remove":2012,"ution":2013,"cer":2014,"Factory":2015,"(__":2016,"lobal":2017,"unittest":2018,"ression":2019,"ice":2020,"ĠIN":2021,"Ġwas":2022,"ASE":2023,"lity":2024,"Ġabs":2025,"ĠSt":2026,"Ġobjects":2027,"Ġgetattr":2028,"sible":2029,"aster":2030,"Ġfloat":2031,"Ġconn":2032,"TML":2033,"Ġlocal":2034,"alid":2035,"go":2036,"ultip":2037,"Ġfound":2038,"Ġbuild":2039,"ie":2040,"Ġsy":2041,"meta":2042,"Ġallow":2043,"ĠTHE":2044,"perties":2045,"Ġpackage":2046,"NAME":2047,"ĠFor":2048,"VER":2049,"Ġsign":2050,"swith":2051,"network":2052,"Ġlink":2053,"case":2054,"Ġtop":2055,"chedule":2056,"20":2057,"Ġthread":2058,"URL":2059,"cho":2060,"contain":2061,"Ġapi":2062,"gen":2063,"Ġval":2064,"No":2065,"Ġthen":2066,"ĠNot":2067,"rary":2068,"licy":2069,"Ġroot":2070,"igh":2071,"INE":2072,"Is":2073,"lish":2074,"Ġsha":2075,"lug":2076,"###":2077,"Ġab":2078,"ators":2079,"CH":2080,"argument":2081,"attribute":2082,"Ġlast":2083,"EX":2084,"At":2085,"can":2086,"nown":2087,"Ġattr":2088,"KE":2089,"ative":2090,"Ġextra":2091,"direct":2092,"Ġexten":2093,"Ġtests":2094,"present":2095,"urls":2096,"Class":2097,"isted":2098,"etch":2099,"ui":2100,"Ġcount":2101,"entic":2102,"Dict":2103,"inst":2104,"Ġsame":2105,"Ġtag":2106,"ixin":2107,"element":2108,"34":2109,"200":2110,"bose":2111,"_(":2112,"Comp":2113,"App":2114,"Ġ(\"":2115,"Ġpart":2116,"tific":2117,"ton":2118,"Create":2119,"Ġsee":2120,"ids":2121,"graph":2122,"asic":2123,"tails":2124,"Ġpos":2125,"ont":2126,"Message":2127,"lso":2128,"ĠsetUp":2129,"reak":2130,"Ġparse":2131,"mod":2132,"Ġresp":2133,"ĠĠĠĠĠĠĠĠĠĠĠĠĠ":2134,"ĠBase":2135,"book":2136,"served":2137,"called":2138,"exists":2139,"Ġdiff":2140,"Ad":2141,"Ġcomm":2142,"ready":2143,".\"":2144,"Ġdefin":2145,"'''":2146,"except":2147,"Ġnum":2148,"16":2149,"Ġafter":2150,"amples":2151,"ĠĠĠĠĠĠĠĠĠĠĠĠĠĠĠĠĠĠĠĠĠĠĠĠĠĠĠĠĠ":2152,"ĠURL":2153,"abled":2154,"hash":2155,"The":2156,"AY":2157,"fg":2158,"ĠNO":2159,"first":2160,"{}":2161,"----------------------------------------":2162,"io":2163,"quire":2164,"Resource":2165,"common":2166,"Ġchild":2167,"lask":2168,"ULT":2169,"Bu":2170,"Text":2171,"dle":2172,"Ġclo":2173,"ĠĠĠĠĠĠĠĠĠĠĠĠĠĠĠĠĠ":2174,"cond":2175,"war":2176,"dic":2177,"color":2178,"Ġfla":2179,"Ġ'__":2180,"derr":2181,"ĠĠĠĠĠĠĠĠĠĠĠĠ":2182,"Ġed":2183,"Ġhandle":2184,"replace":2185,"lated":2186,"Ġhandler":2187,"des":2188,"okup":2189,"TH":2190,"del":2191,"tinue":2192,"stop":2193,"Ġdel":2194,"ĠAPI":2195,"Ġfind":2196,"Ġlambda":2197,"ful":2198,"Ġpassword":2199,"ĠĠĠĠĠĠĠĠĠĠĠĠĠĠĠĠĠĠĠĠ":2200,"OP":2201,"iddle":2202,"width":2203,"Ġinfo":2204,"logger":2205,"Ġcom":2206,"MPL":2207,"---":2208,"fs":2209,"Ġarray":2210,"ategory":2211,"ique":2212,"system":2213,"req":2214,"Ġtemp":2215,"troller":2216,"Ġspecified":2217,"Ġrandom":2218,"errors":2219,"ATION":2220,"ĠWe":2221,"Ġsw":2222,"[-":2223,"lative":2224,"Ġsp":2225,"rule":2226,"Ġcmd":2227,"Ġ[\"":2228,"Ġfunc":2229,"Ġyour":2230,"plot":2231,"Ġcache":2232,"50":2233,"cp":2234,"__)":2235,"ĠĠĠĠĠĠĠĠĠĠĠĠĠĠĠĠĠĠĠĠĠĠĠĠĠĠ":2236,"ĠAll":2237,"ĠString":2238,"fin":2239,"ĠĠĠĠĠĠĠĠĠĠĠĠĠĠĠĠĠĠ":2240,"ish":2241,"Ġ\"%":2242,"ĠĠĠĠĠĠĠĠĠĠĠĠĠĠ":2243,"forms":2244,"mpty":2245,"comple":2246,"Qu":2247,"setup":2248,"ĠĠĠĠĠĠĠĠĠĠĠĠĠĠĠĠĠĠĠĠĠĠĠĠĠĠĠĠ":2249,"Ġ\"\"":2250,"Manager":2251,"engine":2252,"ported":2253,"wh":2254,"Ca":2255,"Char":2256,"'].":2257,"ĠGet":2258,"pc":2259,"header":2260,"encode":2261,"Ġfilter":2262,"av":2263,"Ġconfiguration":2264,"zer":2265,"extra":2266,"Ġbuil":2267,"HTTP":2268,"Path":2269,"({":2270,"Ġarguments":2271,"Ġvariable":2272,"very":2273,"dered":2274,"cale":2275,"cope":2276,"AP":2277,"sten":2278,"compile":2279,"struct":2280,".')":2281,"Ġinitial":2282,"Ġqu":2283,"Ġinformation":2284,"'}":2285,"Ġcreated":2286,"100":2287,"driver":2288,"Ġte":2289,"actor":2290,"QL":2291,"Ġax":2292,"ĠCreate":2293,"pattern":2294,"ob":2295,"Ġfollow":2296,"Ġright":2297,"ummy":2298,"timeout":2299,"cli":2300,"Ġ9":2301,"resh":2302,"rapper":2303,"txt":2304,"Ġrender":2305,"PER":2306,"Imple":2307,"Ġfail":2308,"ings":2309,"termin":2310,"Ġact":2311,"********":2312,"gex":2313,"ord":2314,"ĠAn":2315,"ĠSet":2316,"istr":2317,"handle":2318,"Ġattribute":2319,"expected":2320,"ĠTO":2321,"Ġblock":2322,"ĠFOR":2323,"backend":2324,"Ġ7":2325,"atures":2326,"Server":2327,"Ġpoint":2328,"ould":2329,"Tests":2330,"Ġdatabase":2331,"sets":2332,"ditional":2333,"style":2334,"Ġorig":2335,"dential":2336,"penden":2337,"callback":2338,"application":2339,"classmethod":2340,"Ġchar":2341,"Ġop":2342,"quence":2343,"Run":2344,"OC":2345,"ĠData":2346,"Ġabsolute":2347,"execute":2348,"Ġcollection":2349,"\"))":2350,"Ġits":2351,"']['":2352,"ng":2353,"dump":2354,"tree":2355,"ultiple":2356,"ĠImportError":2357,"ide":2358,"Ġcontinue":2359,"ib":2360,"Item":2361,"Ġnon":2362,"FAULT":2363,".\")":2364,"ĠĠĠĠĠĠĠĠĊ":2365,"dia":2366,"ONE":2367,"Event":2368,"Ġdest":2369,"lower":2370,"Ġnext":2371,"sy":2372,"repo":2373,"ĠSE":2374,"ESS":2375,"Service":2376,"Ġexist":2377,"git":2378,"ular":2379,"GIN":2380,"uuid":2381,"heet":2382,"iddleware":2383,"Ġtimeout":2384,"tera":2385,"Ġiter":2386,"TER":2387,"login":2388,"vider":2389,"Ġdir":2390,"Ġfin":2391,"------------------------------------------------------------------------":2392,"Ġloc":2393,"ĠKey":2394,"Ġexample":2395,"Ġreturns":2396,"metadata":2397,"assi":2398,"igration":2399,"ĠHTML":2400,"latform":2401,"zone":2402,"Ġalso":2403,"sen":2404,"exit":2405,"shared":2406,"sca":2407,"Ġwrite":2408,"ĠEX":2409,"results":2410,"Mixin":2411,"Ġhasattr":2412,"round":2413,"ector":2414,"unicode":2415,"Ġcustom":2416,"SON":2417,"DB":2418,"SS":2419,"Ġheader":2420,"Ġauto":2421,"Ġthere":2422,"Ġavailable":2423,"SION":2424,"Ġauthor":2425,"Ġoff":2426,"Ġcre":2427,"repr":2428,"Ġshow":2429,"sume":2430,"Ġpub":2431,"Ġinclude":2432,"Ġpost":2433,"tw":2434,"act":2435,"Ġhash":2436,"24":2437,"__,":2438,"Ġprefix":2439,"GET":2440,"conds":2441,"over":2442,"fake":2443,"ĠĠĠĠĠĠĠĠĠĠĠĠĠĠĠĠĠĠĠĠĠĠ":2444,"ĠFI":2445,"\\\\":2446,"ves":2447,"schema":2448,"aml":2449,"true":2450,"ink":2451,"cen":2452,"Connection":2453,"side":2454,"ĠType":2455,"web":2456,"ear":2457,"mory":2458,"stdout":2459,"char":2460,"Ġentry":2461,"ĠHTTP":2462,"tmp":2463,"lambda":2464,"dirname":2465,"Ġserial":2466,"argv":2467,"location":2468,"UR":2469,"lot":2470,"Al":2471,"Ġjob":2472,"ship":2473,"ello":2474,"Ġopt":2475,"document":2476,"thread":2477,"Ġsupport":2478,"pping":2479,"Implemented":2480,"Ġstream":2481,"Ġ12":2482,"Ġold":2483,"Ġframe":2484,"Ġencoding":2485,"ingle":2486,"AG":2487,"olver":2488,"channel":2489,"ĠAt":2490,"arnings":2491,"Ġerr":2492,"active":2493,"users":2494,"Parser":2495,"ptions":2496,"Logger":2497,"]))":2498,"Ġcalled":2499,"Ġ{\"":2500,"only":2501,"QU":2502,"Ġsocket":2503,"insert":2504,"Ġdocumentation":2505,"kernel":2506,"imal":2507,"Ġkeys":2508,"Ġparameters":2509,"Ġdictionary":2510,"cret":2511,"Ġlength":2512,"https":2513,"ĠCol":2514,"ĠAUT":2515,"ĠList":2516,"LINE":2517,"rop":2518,"ĠĠĠĠĠĠĠĠĠĠĠĠĠĠĠĠĠĠĠĠĠĠĠĠĠĠĠĠĠĠĠ":2519,"lice":2520,"assed":2521,"gest":2522,"=['":2523,"ĠInc":2524,"LY":2525,"commit":2526,"ba":2527,"factory":2528,"Ġwhere":2529,"ven":2530,"CharField":2531,"TYPE":2532,"Trans":2533,"ik":2534,"ĠGener":2535,"liter":2536,"API":2537,"Ġbefore":2538,"Ġta":2539,".,":2540,"tags":2541,"Group":2542,"ĠĠĠĠĠĠĠĠĠĠĠĠĠĠĠĠĠĠĠĠĠĠĠĠĠĠĠĠĠĠ":2543,"Ġcallback":2544,"startswith":2545,"Ġaddress":2546,"Ġlike":2547,"ceiv":2548,"Ġemail":2549,"ride":2550,")):":2551,"02":2552,"Ġ>=":2553,"coder":2554,"(['":2555,"ploy":2556,"Ġbreak":2557,"={":2558,"Ġrequests":2559,"views":2560,"day":2561,"Ġnetwork":2562,"TE":2563,"Ġitems":2564,"Ġaccess":2565,"Ġpla":2566,"State":2567,"dices":2568,"imp":2569,"=(":2570,"board":2571,"BU":2572,"PAT":2573,"ĠCh":2574,"anel":2575,"ĠTH":2576,"Ac":2577,"]:":2578,"Admin":2579,"`.":2580,"Ġlevel":2581,"MO":2582,"ati":2583,"Ġmethods":2584,"access":2585,"yload":2586,"istry":2587,"tuple":2588,"ook":2589,"Ġsearch":2590,"Ġplugin":2591,"Call":2592,"Ġutils":2593,"Ġthan":2594,"ĠEn":2595,"DIR":2596,"Ġsix":2597,"ĠRes":2598,"src":2599,"ason":2600,"tex":2601,"Ġass":2602,"Ġtwo":2603,"Ġtypes":2604,"Ġcolor":2605,"limit":2606,"clean":2607,"Ġenv":2608,"stract":2609,"Ġscript":2610,"tx":2611,"zy":2612,"exc":2613,"bytes":2614,"Ġpattern":2615,"assertFalse":2616,"sw":2617,"','":2618,"ranch":2619,"aded":2620,"decode":2621,"diff":2622,"ĠSer":2623,"CL":2624,"ĠNo":2625,"emplate":2626,"tach":2627,"exceptions":2628,"raises":2629,"33":2630,"Ġfull":2631,"rs":2632,"rec":2633,"OK":2634,"Ġlines":2635,"KEY":2636,"TR":2637,"ĠDE":2638,"Instance":2639,"ĠIt":2640,"tml":2641,"tot":2642,"=%":2643,"Ġnow":2644,"ORT":2645,"Ġbeen":2646,"Ġerrors":2647,"ND":2648,"\",\"":2649,"pha":2650,"This":2651,"Ġ'--":2652,"Ġqueue":2653,"Ġ'_":2654,"SD":2655,"wd":2656,"gr":2657,"render":2658,"ĠNotImplemented":2659,"lank":2660,"sure":2661,"Ġsend":2662,"ATED":2663,"delta":2664,"Ġlicense":2665,"stats":2666,"Ġ'-":2667,"IP":2668,"ices":2669,"train":2670,"profile":2671,"56":2672,"gram":2673,"/%":2674,"ipe":2675,"xture":2676,"Ġref":2677,"Ġrepresent":2678,"ights":2679,"member":2680,"PRO":2681,"Per":2682,"tep":2683,"Ġsystem":2684,"18":2685,"stru":2686,"ĠIMP":2687,"oly":2688,"...":2689,":%":2690,"used":2691,"quires":2692,"Th":2693,"dev":2694,"Frame":2695,"ffix":2696,"Ġreq":2697,"OG":2698,"Out":2699,"Element":2700,"bind":2701,"Ġcomple":2702,"peri":2703,"ured":2704,"Ġimplement":2705,"Content":2706,"({'":2707,"For":2708,"'^":2709,"UP":2710,"groups":2711,"Ġ&":2712,"tered":2713,"velo":2714,"device":2715,"Ġ$":2716,"Ġtree":2717,"ugh":2718,"ĠApp":2719,"Ġmark":2720,"OF":2721,"Ġdomain":2722,"storage":2723,"nodes":2724,"Ġmap":2725,"Index":2726,"Cache":2727,"(?":2728,"alled":2729,"loads":2730,"unter":2731,"Ġapplication":2732,"Ġweb":2733,"pool":2734,"ling":2735,"30":2736,"Ġwithout":2737,"socket":2738,"oper":2739,"auto":2740,"fn":2741,"Check":2742,"full":2743,"Query":2744,"ret":2745,"TICE":2746,"Ġempty":2747,"ged":2748,"ĠTHIS":2749,"widget":2750,"lue":2751,"From":2752,"ceived":2753,"Date":2754,"(**":2755,"Ġreturned":2756,"window":2757,"leep":2758,"Ġ},":2759,"Ġdetails":2760,"ĠON":2761,"Ġrepo":2762,"Ġrule":2763,"literals":2764,"Ġfoo":2765,"words":2766,"Ġdelete":2767,"ĠArgs":2768,"Result":2769,"Task":2770,"wner":2771,"Ġexc":2772,"Ġspec":2773,"EL":2774,"ĠNOTICE":2775,"ĠPy":2776,"Ġeq":2777,"15":2778,"Ġpassed":2779,"dentials":2780,"assertIs":2781,"volume":2782,"classes":2783,"offset":2784,"iff":2785,"sql":2786,"Ġ--------":2787,"account":2788,"Ġrelative":2789,"With":2790,"Action":2791,"mer":2792,"__':":2793,"ĠSe":2794,"validate":2795,"tom":2796,"vironment":2797,"Ġbin":2798,"ĉĉĉ":2799,"cluster":2800,"ĠTODO":2801,"Reg":2802,"By":2803,"ait":2804,"Ġtwisted":2805,"ible":2806,"ystem":2807,"Pre":2808,"addr":2809,"messages":2810,"istory":2811,"Ġusername":2812,"required":2813,"ries":2814,"wise":2815,"Ġpatch":2816,"Ġalready":2817,"ano":2818,"Ġ100":2819,"rough":2820,"ince":2821,"ithub":2822,"ected":2823,"comment":2824,"non":2825,"Ġreverse":2826,"sage":2827,"series":2828,"Ġ###":2829,"================================":2830,"sm":2831,"Ġ'\\":2832,"like":2833,"Ġsimple":2834,"ulate":2835,"dentity":2836,"oolean":2837,"Ġremove":2838,"shot":2839,"bot":2840,"bility":2841,"Context":2842,"simple":2843,"ĠIF":2844,"uter":2845,"vate":2846,"Ġstyle":2847,"itch":2848,"Ġgraph":2849,"Ġim":2850,"Ġattributes":2851,"sitory":2852,"reen":2853,"layer":2854,"rag":2855,"release":2856,"POST":2857,"Ġsql":2858,"+)":2859,"tim":2860,"Ġprovided":2861,"Ġsingle":2862,"cause":2863,"PATH":2864,"Ġge":2865,"route":2866,"ĠNotImplementedError":2867,"oken":2868,"prec":2869,":]":2870,"buil":2871,"empty":2872,"ĉĉĊ":2873,"55":2874,"Ġjust":2875,"help":2876,"ges":2877,"container":2878,"Ġchannel":2879,"buffer":2880,"14":2881,"idx":2882,"Ġdon":2883,"annot":2884,"ĠCheck":2885,"olve":2886,"encoding":2887,"proxy":2888,"Ġhtml":2889,"sis":2890,"ĠDefault":2891,"okie":2892,"ĠEND":2893,"utton":2894,"Ġsta":2895,"Valid":2896,"latex":2897,"rand":2898,"orig":2899,"mi":2900,"ward":2901,"Ġsel":2902,"ĠFILE":2903,"sue":2904,"Ġ<=":2905,"ĠSo":2906,"dentifier":2907,"Ġdiffe":2908,"Ġstruct":2909,"FOR":2910,"dest":2911,"Gener":2912,"cry":2913,"cent":2914,"\"],":2915,"Ġlay":2916,"sv":2917,"initial":2918,"Ġmetadata":2919,"zip":2920,"left":2921,"Ġmy":2922,"Ġurllib":2923,"children":2924,"sq":2925,"collection":2926,"ENER":2927,"']:":2928,"Or":2929,"orter":2930,"pend":2931,"80":2932,"Ġip":2933,"oreign":2934,"ĠAuth":2935,"={'":2936,"til":2937,"Down":2938,"ET":2939,"tal":2940,"ceback":2941,"Ġgenerated":2942,"Dis":2943,"modules":2944,"oci":2945,"\"):":2946,"cloud":2947,"ession":2948,"He":2949,"Ġsure":2950,"greg":2951,"Ġ})":2952,"UMENT":2953,"\"])":2954,"stderr":2955,"utable":2956,"ail":2957,"Ġmeta":2958,"ali":2959,"Image":2960,"Ġcho":2961,"bit":2962,"Ġverbose":2963,"stead":2964,"tric":2965,"dified":2966,"imum":2967,"directory":2968,"edi":2969,"const":2970,"sole":2971,"any":2972,"Ġbytes":2973,"Table":2974,"opts":2975,"wrap":2976,"Ġmapp":2977,"ctions":2978,"invalid":2979,"Code":2980,"ĠZ":2981,"skip":2982,"getLogger":2983,"ĠPer":2984,"Ġwindow":2985,"Ġfake":2986,"And":2987,"Ġparameter":2988,"riter":2989,"Ġfollowing":2990,"Ġshape":2991,"points":2992,"Sta":2993,"pl":2994,"ĠMock":2995,"aly":2996,"ĠFile":2997,"Ġbet":2998,"chemy":2999,"Ġpaths":3000,"SER":3001,"eff":3002,"Ġdtype":3003,"Sub":3004,"Ġ'',":3005,"rations":3006,"ics":3007,"component":3008,"slug":3009,"Ġali":3010,"Ġglobal":3011,"Ġxml":3012,"19":3013,"dist":3014,"angible":3015,"ERR":3016,"Ġrecord":3017,"Ġdown":3018,"wait":3019,"Ġoptional":3020,"sumer":3021,"Lay":3022,"-------":3023,"sort":3024,"success":3025,"Ġdf":3026,"LEASE":3027,"################################################################":3028,"straint":3029,"some":3030,"part":3031,"Ġraw":3032,"]['":3033,"Ġwidget":3034,"curity":3035,"keep":3036,"Ġinterface":3037,"ux":3038,"Ġfunctions":3039,"sample":3040,"sheet":3041,"ical":3042,")[":3043,"Do":3044,"testing":3045,"div":3046,"ABLE":3047,"axis":3048,"Info":3049,"Ġlong":3050,"Ġproperty":3051,"XX":3052,"]),":3053,"ĠID":3054,"ric":3055,"Ġselect":3056,"total":3057,"ĠIP":3058,"AMPL":3059,"ĠDOC":3060,"Ġcontaining":3061,"most":3062,"An":3063,"position":3064,"ĠBEGIN":3065,"nap":3066,"Invalid":3067,"Ġ%(":3068,"Ġthey":3069,"ĠRun":3070,"Loc":3071,"AMPLES":3072,"Ġsubprocess":3073,"Ġclean":3074,"rf":3075,"Column":3076,"03":3077,"MS":3078,"WAR":3079,"Ġthem":3080,"Integer":3081,"andard":3082,"Filter":3083,"Ġadmin":3084,"vor":3085,"sphinx":3086,"Ġforms":3087,"defin":3088,"Sh":3089,"Ġtri":3090,"Ġsorted":3091,"Le":3092,"ueue":3093,"Ġzip":3094,"attrs":3095,"issing":3096,"resp":3097,"As":3098,"fetch":3099,"ctx":3100,"ROPER":3101,"DEFAULT":3102,"ĠDOCUMENT":3103,"Property":3104,"ĠSEE":3105,"Su":3106,"Bo":3107,"allow":3108,"events":3109,"OL":3110,"Ġbar":3111,"ntax":3112,"ENERATED":3113,"Ġswg":3114,"13":3115,"stf":3116,"ĠDONE":3117,"Ġswgpy":3118,"loop":3119,"ĠMAY":3120,"~~~~~~~~":3121,"Ġcorrect":3122,"Ġdisplay":3123,"Inter":3124,"Format":3125,"ĠEXAMPLES":3126,"Ġsalt":3127,"ĠPLEASE":3128,"ift":3129,"step":3130,"cies":3131,"ĠDOCUMENTATION":3132,"ĠONLINE":3133,"Ġmessages":3134,"Ġgenerate":3135,"OGENERATED":3136,"ĠAUTOGENERATED":3137,"22":3138,"ĠLOST":3139,"ĠIMPROPER":3140,"ctories":3141,"Version":3142,"stfName":3143,"ĠIMPROPERLY":3144,"ĠHttp":3145,"ĠOpen":3146,"ĠComp":3147,"ition":3148,"wn":3149,"irs":3150,"display":3151,"Ġinclu":3152,"Ġbecause":3153,"Ġfil":3154,"Ġmon":3155,"lector":3156,"Ġconst":3157,"Contain":3158,"Ġstop":3159,"Ġthese":3160,"opt":3161,"ween":3162,"Des":3163,"Ġcomponent":3164,"rep":3165,"(-":3166,"Ġwant":3167,"abspath":3168,"once":3169,"Ġstatic":3170,"timestamp":3171,"hook":3172,"ticle":3173,"Ġsave":3174,"Ġnodes":3175,"dumps":3176,"Ġsum":3177,"ACK":3178,"record":3179,"ja":3180,"dtype":3181,"Ġdire":3182,"ĠNote":3183,"Ġtotal":3184,"Ġexists":3185,"vious":3186,"Serial":3187,"ĠName":3188,"Number":3189,"Ġbackend":3190,"protocol":3191,"role":3192,"cheduler":3193,"lush":3194,"OS":3195,"install":3196,"gor":3197,"js":3198,"Ġdist":3199,"secret":3200,"ily":3201,"Ġlook":3202,"Ġvar":3203,"else":3204,"Ġ',":3205,"\">":3206,"win":3207,"Found":3208,"public":3209,"ĠAd":3210,"speci":3211,"known":3212,"unit":3213,"Ġinstead":3214,"'})":3215,"Process":3216,"folder":3217,"Ġ\"/":3218,"cle":3219,"master":3220,"Ġpk":3221,"github":3222,"Function":3223,"pu":3224,"gument":3225,"database":3226,".*":3227,"ntry":3228,"Ġchunk":3229,"Ġbool":3230,"NO":3231,"Ġdebug":3232,"$',":3233,"Ġinteger":3234,"cat":3235,"vm":3236,"language":3237,"cheme":3238,"properties":3239,"logging":3240,"Ġ'<":3241,"serv":3242,"Ġter":3243,"Ġdoesn":3244,"alog":3245,"DS":3246,"Ġinstall":3247,"light":3248,"gger":3249,"ĠGo":3250,"Ġpick":3251,"Attribute":3252,"short":3253,"ĠParameters":3254,"Ġ),":3255,"Str":3256,"helper":3257,"BUG":3258,"rest":3259,"ways":3260,"FF":3261,"ower":3262,"ĠTypeError":3263,"dot":3264,"gorith":3265,"TEST":3266,"ĠAttribute":3267,"compute":3268,"aa":3269,"ValueError":3270,"resses":3271,"Ġph":3272,"policy":3273,"rows":3274,"ĠDjango":3275,"Ġabout":3276,"ĠOr":3277,"ĠAs":3278,"hen":3279,"FILE":3280,"section":3281,"lex":3282,"oto":3283,"filters":3284,"normal":3285,"oreignKey":3286,"All":3287,"ins":3288,"TO":3289,"see":3290,"cc":3291,"]]":3292,"Line":3293,"hether":3294,"USER":3295,"apps":3296,"ĠDocument":3297,"abc":3298,"Ġpages":3299,"tivity":3300,"should":3301,"mbol":3302,"clear":3303,"Ġusers":3304,"gnore":3305,"ZE":3306,"Ġstrings":3307,"NS":3308,"css":3309,"dim":3310,"Ġcontainer":3311,"Ġadded":3312,"leted":3313,"AGE":3314,"created":3315,"ĠMeta":3316,"Ġtags":3317,"ports":3318,"Ġtmp":3319,"Ġtheme":3320,"Ġnormal":3321,"ĠĠĠĠĠĠĠĠĠĠĠĠĠĠĠĠĠĠĠĠĠĠĠĠĠĠĠĠĠĠĠĠĠ":3322,"Ġconf":3323,"idden":3324,"expr":3325,"Ġclasses":3326,"Tra":3327,"Fe":3328,"extend":3329,"multi":3330,"ork":3331,"entication":3332,"xx":3333,"head":3334,"tify":3335,"Ġdevice":3336,"ench":3337,"cla":3338,"Ġwarnings":3339,"provider":3340,"ĠJSON":3341,"uff":3342,"track":3343,"Protocol":3344,"[:,":3345,"Ġdefined":3346,"columns":3347,"tact":3348,"Ġflask":3349,"ĠConfig":3350,"Ġspace":3351,"loader":3352,"FO":3353,"Ġwidth":3354,"'][":3355,"Ġextension":3356,"Ġexpect":3357,"VAL":3358,"ĠĠĠĠĠĠĠĠĠĠĠĠĠĠĠĠĠĠĠĠĠĠĠĠĠĠĠĠĠĠĠĠĠĠĠ":3359,"%(":3360,"mk":3361,"tc":3362,"Fla":3363,"eq":3364,"product":3365,"eval":3366,"Ġoffset":3367,"chunk":3368,"Ġredirect":3369,"ination":3370,"ero":3371,"Ġthrough":3372,"igrations":3373,"Ġunique":3374,"AM":3375,"}.":3376,"Ġsite":3377,"images":3378,"Widget":3379,"Ġsort":3380,"Ġactual":3381,"()[":3382,"Ġprotocol":3383,"ĠLICENSE":3384,"ĠNOT":3385,"resources":3386,"tems":3387,"Ġstore":3388,"Ġbeing":3389,"Ġ\".":3390,"DAT":3391,"flags":3392,"Ġremote":3393,"Method":3394,"labels":3395,".'":3396,"=_":3397,"Ġour":3398,"agent":3399,"napshot":3400,"Input":3401,"spa":3402,"RES":3403,"Ġsrc":3404,"sted":3405,"ado":3406,"cursor":3407,"tification":3408,"\").":3409,"Ġsection":3410,"real":3411,"Ġvalidate":3412,"ERROR":3413,"CRE":3414,"78":3415,"yp":3416,"Ġoriginal":3417,"lem":3418,"assertIn":3419,"entries":3420,"pid":3421,"entity":3422,"Ġutil":3423,"Ġdifferent":3424,"sitive":3425,"Size":3426,"abel":3427,"paths":3428,"Ġxrange":3429,"Ed":3430,"ĠColumn":3431,"ĠTo":3432,"Status":3433,"theme":3434,"Ġcollections":3435,"Plugin":3436,"attributes":3437,"tenant":3438,"ĠStringIO":3439,"Ġlocation":3440,"ASS":3441,"fit":3442,"void":3443,"Ġinit":3444,"sig":3445,"Ġcluster":3446,"cast":3447,"ALL":3448,"ITY":3449,"fd":3450,"way":3451,"safe":3452,"Ġregister":3453,"edit":3454,"Ġ[(":3455,"Ġsuccess":3456,"pendencies":3457,"Ġtimestamp":3458,"packages":3459,"Ġ20":3460,"Ġ----------":3461,"ection":3462,"Ġenume":3463,"Ġplace":3464,"docs":3465,"WOR":3466,"'},":3467,"Ġ):":3468,"mask":3469,"Ġ16":3470,"scope":3471,"END":3472,"Ġ\"\\":3473,"Ġevery":3474,"Ġcontains":3475,"Ġfi":3476,"Ġschema":3477,"reset":3478,"Ġsm":3479,"ross":3480,"lite":3481,"_,":3482,"Callback":3483,"Module":3484,"Ġcolumns":3485,"ĠLOG":3486,"eg":3487,"Ġ'{":3488,"TIC":3489,"Ġcli":3490,"Returns":3491,"sleep":3492,"namespace":3493,"uch":3494,"wards":3495,")])":3496,"ĠĠĠĠĠĠĠĠĠĠĠĠĠĠĠĠĠĠĠĠĠĠĠĠĠĠĠĠĠĠĠĠĠĠ":3497,"ĠRequest":3498,"Ġcursor":3499,"SC":3500,"batch":3501,"oauth":3502,"Ġposition":3503,"rel":3504,"Ver":3505,"med":3506,"variable":3507,"Ġnamed":3508,"ĠValid":3509,"-----":3510,"rer":3511,"Py":3512,"Ġtake":3513,"plugins":3514,"gate":3515,"utron":3516,"linen":3517,"actions":3518,"Ġgen":3519,"Ġbetween":3520,"Ġsecond":3521,"ĠSphinx":3522,"SET":3523,"long":3524,"tool":3525,"Ġpytest":3526,"Ġevents":3527,"ose":3528,"Ġplt":3529,"std":3530,"sity":3531,"height":3532,"GI":3533,"__.":3534,"gh":3535,"returns":3536,"Ġsupported":3537,"cr":3538,"Ġskip":3539,"CP":3540,"Ġti":3541,"Ġ[])":3542,"Ġstdout":3543,"Ġnamespace":3544,"Ġtheano":3545,"Ġvari":3546,"Ġfn":3547,"Ġreplace":3548,"/'":3549,"cfg":3550,"matrix":3551,"PORT":3552,"manage":3553,"null":3554,"Ġstep":3555,"Ġmod":3556,"Ġbased":3557,"Ġcore":3558,"End":3559,"-%":3560,"tod":3561,"decor":3562,"pth":3563,"Ġdecor":3564,"ferred":3565,"ĠBSD":3566,"sl":3567,"orn":3568,"Ġgra":3569,"gress":3570,"Ġrunning":3571,"img":3572,"Ġlibrary":3573,"buf":3574,"ĠRE":3575,"desc":3576,"``.":3577,"dar":3578,"trics":3579,"dap":3580,"Ġsample":3581,"Ġpossible":3582,"Token":3583,"PL":3584,"ĠLo":3585,"On":3586,"}'.":3587,"rtype":3588,"verage":3589,"bucket":3590,"gments":3591,"tk":3592,"('\\":3593,"related":3594,"Ġctx":3595,"jobs":3596,"ient":3597,"titem":3598,"Ġaccount":3599,"Ġhow":3600,"fication":3601,"ĠPo":3602,"Ġ2015":3603,"Ġexceptions":3604,"umb":3605,"wer":3606,"Ġstats":3607,"Ġconvert":3608,"Ġaut":3609,"Back":3610,"Open":3611,"moved":3612,"Ġcomment":3613,"/',":3614,"Ġfalse":3615,"STR":3616,"()))":3617,"bad":3618,"olution":3619,"Ġentity":3620,"ished":3621,"region":3622,"Ġaxis":3623,"mean":3624,"features":3625,"Ġfinally":3626,"Ro":3627,"utor":3628,"pol":3629,"ws":3630,"Ġstack":3631,"42":3632,"Ġparsed":3633,"Ġlinks":3634,"Page":3635,"ĠGroup":3636,")'":3637,"ĠTh":3638,"Ġprob":3639,"Ġ#:":3640,"EXT":3641,"home":3642,"Ġenumerate":3643,"Ġ\"__":3644,"hex":3645,"('%":3646,"TIME":3647,"cords":3648,"remote":3649,"ITE":3650,"ested":3651,"17":3652,"fmt":3653,"Tree":3654,"sgi":3655,"Ġmultiple":3656,"detail":3657,"sive":3658,"ĠMy":3659,"ĠExample":3660,"Ġtesting":3661,"redirect":3662,"alchemy":3663,"ritems":3664,"05":3665,"SH":3666,"score":3667,"Ġ2014":3668,"Window":3669,"rl":3670,"UB":3671,"Ġdefaults":3672,"Ġattrs":3673,"basic":3674,"ĠKeyError":3675,"ationError":3676,"Ġappro":3677,"ferences":3678,"publish":3679,"IG":3680,"ĠImage":3681,"Ġprofile":3682,"Int":3683,"Ġdocuments":3684,">'":3685,"Output":3686,"Ġnova":3687,"fixture":3688,"VERSION":3689,"One":3690,"staticmethod":3691,"Ġnull":3692,"gettext":3693,"ram":3694,"Ġtrain":3695,"generate":3696,"NG":3697,"Ġgoogle":3698,"Address":3699,"Ġkeep":3700,"hello":3701,"Ġmatrix":3702,"force":3703,"agic":3704,"ĠGoogle":3705,"Ġcer":3706,"sec":3707,"SIZE":3708,"listen":3709,"Ġforce":3710,"ĠSoftware":3711,"card":3712,"mar":3713,"raise":3714,"MM":3715,"Ġhttps":3716,"lookup":3717,"Session":3718,"ority":3719,"Ġmember":3720,"controller":3721,"Ġleft":3722,"Ġrights":3723,"Ġfailed":3724,"lime":3725,"ĠCommand":3726,"interface":3727,"Serializer":3728,"custom":3729,"reverse":3730,"proto":3731,"rowser":3732,"Ġmanager":3733,"ĠModel":3734,"tore":3735,"localhost":3736,"Ġcharac":3737,"Ġwx":3738,"ĠTestCase":3739,"ude":3740,"pages":3741,"60":3742,"vs":3743,"Ġgit":3744,"Ġwait":3745,"verify":3746,"scale":3747,"changed":3748,"indices":3749,"`,":3750,"af":3751,"licit":3752,"stat":3753,"patterns":3754,"Ġpool":3755,"Ġcontents":3756,"permission":3757,"Ġhigh":3758,"mac":3759,"IM":3760,"lineno":3761,"Stream":3762,"signal":3763,"ĠAl":3764,"year":3765,"none":3766,"vis":3767,"ynam":3768,"templates":3769,"Ġclose":3770,"Ġagain":3771,"enabled":3772,"Point":3773,"her":3774,"parts":3775,"seq":3776,"arDown":3777,"ually":3778,"duce":3779,"404":3780,"Ġvolume":3781,"Ġsplit":3782,"eve":3783,"Ġdt":3784,"ored":3785,"nected":3786,"Ġjoin":3787,"platform":3788,"parameters":3789,"Ġ->":3790,"gment":3791,"lab":3792,"Ġcfg":3793,"lities":3794,"PC":3795,")\"":3796,"44":3797,"Ġignore":3798,"signed":3799,"Template":3800,"Ġproperties":3801,"WS":3802,"ĠUse":3803,"Ġexecute":3804,"Ġ################################################################":3805,"EC":3806,"ForeignKey":3807,"Ġreal":3808,"Oper":3809,"havi":3810,"dt":3811,"contents":3812,"Ġassoci":3813,"VE":3814,"('.":3815,"Ġencode":3816,"Ġreserved":3817,"gorithm":3818,"()),":3819,"include":3820,"Ġcommon":3821,"'re":3822,"Clo":3823,"Ġdriver":3824,"pipe":3825,"salt":3826,"Ġmodules":3827,"pose":3828,"verbose":3829,"Ġsignal":3830,"undle":3831,"Tag":3832,"Ġinvalid":3833,"Ġmulti":3834,"pendent":3835,"tab":3836,"Ġstri":3837,"Ġmodi":3838,"serve":3839,"Ġpermission":3840,"agicMock":3841,"86":3842,"google":3843,"nored":3844,"ongo":3845,"cing":3846,"1234":3847,"Update":3848,"bool":3849,"Ġimplementation":3850,"ĠAttributeError":3851,"cb":3852,"Ġrelated":3853,"AUT":3854,");":3855,"Ġparts":3856,"Ġretri":3857,"Ġcallable":3858,"structor":3859,"seconds":3860,"Ġvariables":3861,"pendency":3862,"Ġrest":3863,"Migration":3864,"rpc":3865,"Ġcommands":3866,"ordin":3867,"Ġlock":3868,"eds":3869,"Options":3870,"____":3871,"Ġwhether":3872,"ĠTime":3873,"****************":3874,"Ġtheir":3875,"pg":3876,"Ġbatch":3877,"ĠDi":3878,"report":3879,"defaults":3880,"')),":3881,"samples":3882,"suite":3883,"grid":3884,"unch":3885,"Ġreference":3886,"tist":3887,"Ġblank":3888,"(\"%":3889,"anti":3890,"pick":3891,"ĠMake":3892,"Ġsent":3893,"ground":3894,"Ġflags":3895,"Ġ],":3896,"Option":3897,"Ġuuid":3898,"Graph":3899,"numpy":3900,"Ġseconds":3901,"__()":3902,"regex":3903,"ĠĠĠĠĠĠĠĠĠĠĠĠĠĠĠĠĠĠĠĠĠĠĠĠĠĠĠĠĠĠĠĠĠĠĠĠ":3904,"Source":3905,"gf":3906,"faces":3907,"Ġsince":3908,"respon":3909,"ĠSub":3910,"udi":3911,"Ġenvironment":3912,"09":3913,"ouble":3914,"Ġconnect":3915,"NotFound":3916,"Ġthreading":3917,"rot":3918,"ometry":3919,"csv":3920,"cols":3921,"deo":3922,"matic":3923,"Ġwhat":3924,"XML":3925,"oriz":3926,"Ġwrap":3927,"tasks":3928,"Ġproduct":3929,"ĠOn":3930,"Ġ2013":3931,"Ġ##":3932,"Ġ'')":3933,"extensions":3934,"zeros":3935,"Ġsequence":3936,"owner":3937,"ĠSQL":3938,"nu":3939,"category":3940,"Ġshort":3941,"Ġdirect":3942,"ignore":3943,"periment":3944,"Ġanother":3945,"SQL":3946,"OUT":3947,"Ġnet":3948,"Ġlate":3949,"Ġtempfile":3950,"ancel":3951,"ĠOS":3952,"Ġdisable":3953,"ving":3954,"Ġctypes":3955,"Ġfactory":3956,"Ġverify":3957,"Ġchanges":3958,"ixed":3959,"Ġsuch":3960,"23":3961,"PS":3962,"sk":3963,"precated":3964,"ĠQt":3965,"Middleware":3966,"media":3967,"Ġlogin":3968,"Ġoperation":3969,"flush":3970,"Ġwho":3971,"('-":3972,"Ġsetting":3973,"false":3974,"Ġmath":3975,"UE":3976,"enter":3977,"Queue":3978,"bove":3979,"Ġdivision":3980,"ĠOptions":3981,":`.":3982,"ĠRa":3983,"tz":3984,"pare":3985,"tables":3986,"Ġinstances":3987,"Child":3988,"expi":3989,"ĠNode":3990,"mount":3991,"ĠOption":3992,"Pa":3993,"xtures":3994,"Ġsen":3995,"Ġglob":3996,"Map":3997,"ĠBu":3998,"scribe":3999,"255":4000,"tensor":4001,"Ġcommit":4002,"Ġexisting":4003,"dataset":4004,"endpoint":4005,"ROM":4006,"loaded":4007,"Ġdataset":4008,"require":4009,"Ġ#------------------------------------------------------------------------":4010,"Ġunit":4011,"setUp":4012,"Ġsk":4013,"pytest":4014,"pb":4015,"security":4016,"uring":4017,"Ġplot":4018,"ĠST":4019,"Ġpayload":4020,"ied":4021,"cell":4022,"fiers":4023,"Ġmanual":4024,"Ġupdated":4025,"Ġrole":4026,"alias":4027,"medi":4028,"Ġpresent":4029,"88":4030,"ĠQu":4031,"dient":4032,"vars":4033,"ĉĉĉĉ":4034,"utes":4035,"lim":4036,"ases":4037,"WARE":4038,"'\\":4039,"Ġloop":4040,"Count":4041,"payload":4042,"binary":4043,"this":4044,"boot":4045,"vari":4046,"Ġins":4047,"extension":4048,"Ġreason":4049,"commands":4050,"We":4051,",)":4052,"Stack":4053,"Ġmer":4054,"links":4055,"Ġproxy":4056,"AND":4057,"chain":4058,"VI":4059,"Ġreport":4060,"ssl":4061,"Ġdefer":4062,"six":4063,"DEBUG":4064,"System":4065,"bed":4066,"warning":4067,"math":4068,"chine":4069,"Ġpipe":4070,"ories":4071,"mpy":4072,"DF":4073,"LOC":4074,"fname":4075,"Ġendpoint":4076,"Ġuri":4077,"iver":4078,"deploy":4079,"GL":4080,"dat":4081,"Ġsim":4082,"Ġfilters":4083,"reference":4084,"Read":4085,"Exec":4086,"Ġboth":4087,"mpt":4088,"dire":4089,"Failed":4090,"lazy":4091,"ustome":4092,"Ġtuples":4093,"complete":4094,"control":4095,"Ġtemplates":4096,"Http":4097,"Ġshutil":4098,"upload":4099,"ence":4100,"Default":4101,"Ġmapping":4102,"ORS":4103,"lint":4104,"virt":4105,"Ġkw":4106,"ANG":4107,"Ġstderr":4108,"arge":4109,"Ġrv":4110,"Ġidx":4111,"Ġvia":4112,"ynamic":4113,"choices":4114,"Ġway":4115,"registry":4116,"translation":4117,"ĠHttpResponse":4118,"transport":4119,"Ġstorage":4120,"(\"/":4121,"Thread":4122,"Ġio":4123,"Ġcategory":4124,"Ġside":4125,"Layer":4126,"dispatch":4127,"iteritems":4128,"after":4129,"requests":4130,"Ġrows":4131,"blem":4132,"ternet":4133,"history":4134,"middleware":4135,"Ġheight":4136,"global":4137,"TING":4138,"Ġword":4139,"velop":4140,"Ġeval":4141,"ĠĠĠĠĠĠĠĠĠĠĠĠĠĠĠĠĠĠĠĠĠĠĠĠĠĠĠĠĠĠĠĠĠĠĠĠĠĠĠ":4142,"Ġusage":4143,"Ġbuiltin":4144,"Ġprimary":4145,"rr":4146,"}}":4147,"istration":4148,"Fail":4149,"Ġrep":4150,"Ġwould":4151,"ĠSimple":4152,"topic":4153,"tition":4154,"DU":4155,"Ġrequire":4156,"Ġfeature":4157,"rb":4158,"Ġwrapper":4159,"Ġig":4160,"hape":4161,"Ġsuite":4162,"yaml":4163,"hs":4164,"ĠDo":4165,"services":4166,"Ġalpha":4167,"Mo":4168,"cd":4169,"ier":4170,"ga":4171,"Ġbinary":4172,"fact":4173,"uted":4174,"If":4175,"__\":":4176,"istered":4177,"timeError":4178,"FORM":4179,"wik":4180,"Ġexit":4181,"MAX":4182,"Len":4183,"Ġsig":4184,"sock":4185,"inf":4186,"Ġcontrol":4187,"unct":4188,"copyright":4189,"Ġcould":4190,"Ġ[],":4191,"Ġ_('":4192,"Start":4193,"coun":4194,"Storage":4195,"Search":4196,"ural":4197,"Ġbuffer":4198,"ĠBy":4199,"Ġ_(\"":4200,"TypeError":4201,"cel":4202,"learn":4203,"aries":4204,"isten":4205,"Meta":4206,"Ġ%}":4207,">\\":4208,"ĠAND":4209,"CS":4210,"123":4211,"interval":4212,"ctype":4213,"uce":4214,"Ġneeds":4215,"Ġmissing":4216,"ĠĠĠĠĠĠĠĠĠĠĠĠĠĠĠĠĠĠĠĠĠĠĠĠĠĠĠĠĠĠĠĠĠĠĠĠĠĠ":4217,"handlers":4218,"Ġtool":4219,"Ġconver":4220,"ffic":4221,"Ġ((":4222,"Ġ\"<":4223,"tical":4224,"tives":4225,"Ġedit":4226,"Ġuses":4227,"runner":4228,"Ġlabels":4229,"AUTH":4230,"Ġcompile":4231,"Ġopts":4232,"ĠUp":4233,"arted":4234,"weight":4235,"Ġpublic":4236,"Ġpatterns":4237,"ĠĠĠĠĠĠĠĠĠĠĠĠĠĠĠĠĠĠĠĠĠĠĠĠĠĠĠĠĠĠĠĠĠĠĠĠĠ":4238,"cu":4239,"Ġlookup":4240,"suffix":4241,"66":4242,"LOG":4243,"MIN":4244,"esca":4245,"}\".":4246,"Entry":4247,"Ġren":4248,"Ġrepr":4249,"ia":4250,"Ġrelease":4251,"Be":4252,"Ġ--------------------------------":4253,"unds":4254,"Cl":4255,"Ġcompute":4256,"servers":4257,"Ġappend":4258,"ĠClient":4259,"Proxy":4260,"super":4261,"Ġallowed":4262,"ĠEvent":4263,"Ġreactor":4264,"Ġcalls":4265,"Unless":4266,"Ġtrack":4267,"Argument":4268,"Python":4269,"edge":4270,"Ġextensions":4271,"warn":4272,"Ġetc":4273,"branch":4274,"transform":4275,"hostname":4276,"Ġviews":4277,"Ġext":4278,"Ġkeyword":4279,"serialize":4280,"utc":4281,"Ġlisten":4282,"ks":4283,"note":4284,"Ġadditional":4285,"usage":4286,"Ġelements":4287,"gregate":4288,"memory":4289,"ĠSh":4290,"')(":4291,"Ġ])":4292,"basename":4293,"PAR":4294,"Ġplatform":4295,"Ġtraceback":4296,"prot":4297,"Network":4298,"Ġregion":4299,"Ġexpression":4300,"ĠWhen":4301,"support":4302,"ECT":4303,"Ġmat":4304,"Dec":4305,"ditions":4306,"ĠReserved":4307,"available":4308,"ustomer":4309,"roll":4310,"ĠAuthor":4311,"Ġscope":4312,"Ġ{})":4313,"75":4314,"lip":4315,"month":4316,"Ġtr":4317,"ERS":4318,"exclude":4319,"Pack":4320,"cimal":4321,"icro":4322,"eeded":4323,"Ġabove":4324,"Ġindic":4325,"Ġowner":4326,"ROOT":4327,"ools":4328,"rules":4329,"png":4330,"Ġcalc":4331,"Port":4332,"__.__":4333,"LS":4334,"Ġprevious":4335,"()]":4336,"Exten":4337,"Ġwithin":4338,"identity":4339,"ĠIO":4340,"Ġsuffix":4341,"unique":4342,"byte":4343,"lack":4344,"Ġalways":4345,"Application":4346,"ites":4347,"uplic":4348,"Ġotherwise":4349,"eries":4350,"Ġbind":4351,"Change":4352,"------":4353,"dash":4354,"ftime":4355,"yper":4356,"Ġperform":4357,"ĠLa":4358,"Ġbranch":4359,"PRE":4360,"menu":4361,"Of":4362,"missing":4363,"ĠtearDown":4364,"Ġ11":4365,"UD":4366,"na":4367,"Ġkind":4368,"Ġfolder":4369,"Ġprogram":4370,"LECT":4371,"cii":4372,"perly":4373,"done":4374,"Ġensure":4375,"ĠWindow":4376,"today":4377,"Bar":4378,"mapping":4379,"click":4380,"Ġhead":4381,"ĠRights":4382,"anization":4383,"prop":4384,"Link":4385,"FIG":4386,"ĠIndex":4387,"private":4388,"flag":4389,"']),":4390,"edirect":4391,"second":4392,"Loader":4393,"where":4394,"velopment":4395,"mox":4396,"Store":4397,"two":4398,"updated":4399,"meth":4400,"Ġpublish":4401,"Ġshown":4402,"Schema":4403,"36":4404,"metric":4405,"pair":4406,"question":4407,"mbed":4408,"Ġsubject":4409,"Ġqueryset":4410,"Te":4411,"attach":4412,"resolver":4413,"READ":4414,"az":4415,"Ġspecify":4416,"feed":4417,"Ġenti":4418,"ĠPRO":4419,"']))":4420,"Ġflag":4421,"mag":4422,"ACE":4423,"Ġsq":4424,"ones":4425,"upper":4426,"Ġdesc":4427,"PUT":4428,"components":4429,"plan":4430,"Ġpickle":4431,"Account":4432,"STAT":4433,"PY":4434,"stub":4435,"derer":4436,"Exist":4437,"alk":4438,"push":4439,"ĠLog":4440,"Load":4441,"Ġimg":4442,"Ag":4443,"worker":4444,"Ġcop":4445,"Ġ15":4446,"``,":4447,"cover":4448,"poch":4449,"baz":4450,"40":4451,"amily":4452,"Ġsepar":4453,"Ġpoints":4454,"appen":4455,"HER":4456,"elements":4457,"wsgi":4458,"Ġreceived":4459,"cm":4460,"ĠObject":4461,"tten":4462,"Ġdone":4463,"REQU":4464,"Ġcannot":4465,"backends":4466,"INT":4467,"vas":4468,"Ġrequires":4469,"MET":4470,"reshold":4471,"Owner":4472,"Ġitera":4473,"uting":4474,"Ġhelper":4475,"assertNot":4476,"gt":4477,"ons":4478,"ssh":4479,"distribu":4480,"Ġsqlalchemy":4481,"Ġtokens":4482,"dependent":4483,"xtra":4484,"tt":4485,"requires":4486,"rence":4487,"ĠTemplate":4488,"Ġpop":4489,"Ġactive":4490,"Ġshell":4491,"calls":4492,"lash":4493,"Ġissue":4494,"gramm":4495,"before":4496,"Ġclear":4497,"Ġ32":4498,"HOST":4499,"atible":4500,"seed":4501,"Host":4502,"Ren":4503,"leg":4504,"Ġbot":4505,"Array":4506,"omment":4507,"SA":4508,"quested":4509,"Cur":4510,"Color":4511,"ders":4512,"BO":4513,"Ġsympy":4514,"button":4515,"MENT":4516,"ĠTra":4517,"Ġexpi":4518,"Cannot":4519,"quote":4520,"Ġpackages":4521,"ĠDis":4522,"issue":4523,"ĠVer":4524,"ĠText":4525,"Ġraised":4526,"ational":4527,"Ġfp":4528,"roy":4529,")*":4530,"sync":4531,"ĠError":4532,"ĠForm":4533,"LL":4534,"Gui":4535,"Ġexpr":4536,"Ġassociated":4537,"Ġmp":4538,"Ġ\"--":4539,"Ġimages":4540,"Box":4541,"Dir":4542,"activ":4543,"Ġsouth":4544,"Ġfont":4545,"writer":4546,"Ġignored":4547,"77":4548,"Ġwin":4549,"blob":4550,"Flag":4551,"ring":4552,"instances":4553,"Ġaddresses":4554,"free":4555,"spe":4556,"tice":4557,"ĠLoc":4558,"CONF":4559,"############":4560,"crement":4561,":`~":4562,"SSL":4563,"Ġreset":4564,"endswith":4565,"glob":4566,"LED":4567,"ops":4568,"cut":4569,"><":4570,"named":4571,"Ġmatches":4572,"Ġoperator":4573,"ĠGeneral":4574,"Does":4575,"slice":4576,"appengine":4577,"holder":4578,"itter":4579,"hosts":4580,"assword":4581,"GR":4582,"Ġneeded":4583,"Ġoc":4584,"('--":4585,"pted":4586,"shell":4587,"DateTime":4588,"ceive":4589,"convert":4590,"cos":4591,"Ġmean":4592,"cached":4593,"Ġbuilder":4594,"Ġmask":4595,"HT":4596,"fill":4597,"INFO":4598,"Ġcorrespon":4599,"ĠBe":4600,"cesses":4601,"flat":4602,"states":4603,"Ġindent":4604,"Ġstandard":4605,"raft":4606,"kit":4607,"Buffer":4608,"Ġeven":4609,"ĠPO":4610,"exist":4611,"orary":4612,"Ġlet":4613,"Qt":4614,"2015":4615,"ILITY":4616,"ĠDEFAULT":4617,"JSON":4618,"SL":4619,"ĠTrans":4620,"pending":4621,"bstract":4622,"ĠDate":4623,"escape":4624,"THER":4625,".%":4626,"added":4627,"gb":4628,"Ġ'*":4629,"Ġinstalled":4630,"Ġterms":4631,"Ġ1000":4632,"(\\":4633,"ĠInvalid":4634,"_.":4635,"alpha":4636,"21":4637,"Ġmaster":4638,"font":4639,"Ġ\"-":4640,"feature":4641,"effect":4642,"enchmark":4643,"term":4644,")).":4645,"relation":4646,"Ġorm":4647,"/')":4648,"Cre":4649,"mem":4650,"Ġpolicy":4651,"Ġ>>":4652,"ifest":4653,"Ġput":4654,"times":4655,"izers":4656,":\\":4657,"pto":4658,"download":4659,"ornado":4660,"arn":4661,"Ġ30":4662,"layout":4663,"Ġoverride":4664,"supported":4665,"pkg":4666,"(%":4667,"single":4668,"Ġpd":4669,"Ġspa":4670,"mat":4671,"unic":4672,"()):":4673,"bound":4674,"Ġmany":4675,"br":4676,"bl":4677,"using":4678,"lueprint":4679,"Ġcopyright":4680,"andas":4681,"Ġnote":4682,"indent":4683,".',":4684,"ars":4685,"inline":4686,"apply":4687,"moves":4688,"ressed":4689,"days":4690,"ae":4691,"Ġmenu":4692,"ĠTests":4693,"Ġsetattr":4694,"configuration":4695,"voke":4696,"Met":4697,"Ġmigrations":4698,"Ġcredentials":4699,"/{":4700,"ĠFROM":4701,"Ġoperations":4702,"arguments":4703,"rong":4704,"Ġhand":4705,"Ġinterval":4706,"getattr":4707,"New":4708,"override":4709,"Warning":4710,"setdefault":4711,"modified":4712,"Controller":4713,"disk":4714,"Ġupload":4715,"Ġbyte":4716,"Ġtransaction":4717,"Ġchildren":4718,"Simple":4719,"ane":4720,"You":4721,"switch":4722,"counter":4723,"Delete":4724,"dirs":4725,"trace":4726,"CONT":4727,"permissions":4728,"unknown":4729,"....":4730,"panel":4731,"Ref":4732,"Ġcontrib":4733,"Ġurlparse":4734,"Ġ2012":4735,"Ġap":4736,"Ġslug":4737,"drop":4738,"DataCache":4739,",))":4740,"WORD":4741,"rst":4742,"inja":4743,"Args":4744,"Ġcell":4745,"Ġequal":4746,"bal":4747,"subject":4748,"alle":4749,"correct":4750,"Ġcomplete":4751,"ascii":4752,"Ġfetch":4753,"ending":4754,"Ġonce":4755,"cert":4756,"defined":4757,"Ġdirectly":4758,"Ġbad":4759,"Match":4760,"almost":4761,"FIX":4762,"Ġsci":4763,"relative":4764,"dummy":4765,"Ġfinal":4766,"gpu":4767,"scal":4768,"Ġstatement":4769,"Profile":4770,"ĠTw":4771,"CC":4772,"Top":4773,"ĠReg":4774,"sorted":4775,"Ġremoved":4776,"Spec":4777,"rove":4778,"Ġmanage":4779,"Ġlayer":4780,"Ġ------------------------------------------------------------------------":4781,"ĠLanguage":4782,"Ġbuf":4783,"Ġgot":4784,"Ġflow":4785,"Multi":4786,"Ġnose":4787,",'":4788,"Ġpe":4789,"Ġbucket":4790,"Ġaccept":4791,"consumer":4792,"My":4793,"ANT":4794,"Ġdeploy":4795,"Ġ\",":4796,"cessed":4797,".)":4798,"tificate":4799,"Ġmost":4800,"OFT":4801,"cookie":4802,"Ġfeatures":4803,"ness":4804,"zero":4805,"Level":4806,"compat":4807,"Ge":4808,"DATA":4809,"35":4810,"ĠAc":4811,"calc":4812,"06":4813,"Ġpylint":4814,"ulation":4815,"Ġgroups":4816,"failure":4817,"Ġchoices":4818,"Document":4819,"(\"\"\"":4820,"digest":4821,"ĠSta":4822,"Build":4823,"ĠSystem":4824,"Ġchanged":4825,"Ġinternal":4826,"isinstance":4827,"Panel":4828,"sertion":4829,"lap":4830,"Ġ))":4831,"NotExist":4832,"Ġdimen":4833,"Listen":4834,"FL":4835,"Suite":4836,"library":4837,"Runner":4838,"Ġapply":4839,"[:-":4840,"router":4841,"Ġdetermin":4842,"tokens":4843,"StringIO":4844,"Ġworks":4845,"Ġbit":4846,"UID":4847,"Ġbehavi":4848,"Ġexternal":4849,"Ġdependencies":4850,"chron":4851,"reduce":4852,"gl":4853,"MPLATE":4854,"ony":4855,"perm":4856,"bb":4857,"arm":4858,"ĠThey":4859,"rev":4860,"Variable":4861,"Ġbasic":4862,"Ġdecode":4863,"choice":4864,"Ġstat":4865,"Ġprovides":4866,"Ġsetuptools":4867,"Ġ-------":4868,"Ġraises":4869,"defer":4870,"tyle":4871,"Post":4872,"Ġworld":4873,"Ġsubclass":4874,"Ġ\"{":4875,"scheme":4876,"Ġstored":4877,"cf":4878,"Ġfig":4879,"stone":4880,"nn":4881,"reader":4882,"proc":4883,"1000":4884,"PT":4885,"just":4886,"sd":4887,"ĠField":4888,"127":4889,"iod":4890,"Ġfree":4891,"ĠXML":4892,"aris":4893,"kind":4894,"sep":4895,"Ġargparse":4896,"Foo":4897,"Rel":4898,"Ġconsi":4899,"37":4900,"Ġinspect":4901,"gg":4902,"ĠOut":4903,"Pool":4904,"eek":4905,"Ġpkg":4906,"DoesNotExist":4907,"')]":4908,"Pri":4909,"Ġidenti":4910,"revision":4911,"OFTWARE":4912,"abi":4913,"deredDict":4914,"cription":4915,"../":4916,"JECT":4917,"Ġcases":4918,"Ġ{},":4919,"\"}":4920,"contains":4921,"Range":4922,"internet":4923,"methods":4924,"builder":4925,"Boolean":4926,"CONFIG":4927,"Ġuntil":4928,"istri":4929,"Sy":4930,"ario":4931,"ĠResource":4932,"specific":4933,"Block":4934,"Ġinv":4935,"Ġscale":4936,"ĠWindows":4937,"ough":4938,"LEN":4939,"Buil":4940,"Target":4941,"ĠContent":4942,"visit":4943,"rv":4944,"ernel":4945,"Ġown":4946,"Backend":4947,"team":4948,"ublic":4949,"ĠHe":4950,"Ġhook":4951,"Bad":4952,"uses":4953,"Ġchain":4954,"ords":4955,"ĠFound":4956,"ater":4957,"queryset":4958,"Ġtasks":4959,"Ġselected":4960,"unctools":4961,"Redirect":4962,"tio":4963,"ĠProject":4964,"Failure":4965,"retry":4966,"umeric":4967,"ĠResponse":4968,"found":4969,"ixel":4970,"Ġfd":4971,"ĠRuntimeError":4972,"Ġcomb":4973,"priate":4974,"Struct":4975,"Writer":4976,"zz":4977,"when":4978,"iti":4979,"Ġreview":4980,"strap":4981,"Select":4982,"td":4983,"environment":4984,"Ġdecorator":4985,"ĠElement":4986,"ĠBo":4987,"scen":4988,"ĠMessage":4989,"ĠClo":4990,"ĠDB":4991,"inel":4992,"DR":4993,"watch":4994,"Ġugettext":4995,"Ġengine":4996,"Interface":4997,"cwd":4998,"builtin":4999,"Ġstd":5000,"Ġregex":5001,"Ġdirectories":5002,"Ġmemory":5003,"Ġrepository":5004,"Component":5005,"]*":5006,"WN":5007,"ara":5008,"Ġbuilt":5009,"review":5010,"delay":5011,":'":5012,"Ġtab":5013,"Ġincluded":5014,"Ġoauth":5015,"nova":5016,"Ġfeed":5017,"lendar":5018,"teration":5019,"ited":5020,"nan":5021,"256":5022,"TRI":5023,"ABILITY":5024,"plotlib":5025,"comments":5026,"setting":5027,"ĠĠĠĠĠĠĠĠĠĠĠĠĠĠĠĠĠĠĠĠĠĠĠĠĠĠĠĠĠĠĠĠĠĠĠĠĠĠĠĠ":5028,"ĠDec":5029,")/":5030,"Wrapper":5031,"norm":5032,"ĠMigration":5033,"Comm":5034,"Ġseq":5035,"Ġmd":5036,"ards":5037,"Ġ_,":5038,"versions":5039,"ĠThere":5040,"Ġworker":5041,"Ġentries":5042,"'\"":5043,"26":5044,"schedule":5045,"tty":5046,"Ġgl":5047,"Sign":5048,"LETE":5049,"Ġattemp":5050,"MODE":5051,"matically":5052,"]])":5053,"crypt":5054,"USE":5055,"getitem":5056,"29":5057,"Ġshared":5058,"Ġrelation":5059,"acy":5060,"aut":5061,"fp":5062,"ĠInitial":5063,"power":5064,"wrapper":5065,"Mode":5066,"expect":5067,"ĠMo":5068,"running":5069,"ĠInt":5070,"Ġqs":5071,"Hello":5072,"amo":5073,"Length":5074,"Parse":5075,"HTML":5076,"qa":5077,"Ġappropriate":5078,"ORY":5079,"AME":5080,"OM":5081,"Ġ60":5082,"Ġinte":5083,"Ġ(%":5084,"optional":5085,"processor":5086,"Ġdatastore":5087,"Ġtoo":5088,"ula":5089,"Ġprovider":5090,"factor":5091,"authentic":5092,"ocker":5093,"failUnless":5094,"URE":5095,"Ġprovide":5096,"istribu":5097,"Ġdst":5098,"Ġbutton":5099,"console":5100,"Ġ//":5101,"redis":5102,"generator":5103,"integer":5104,"ULL":5105,"Ġwere":5106,"Ġ,":5107,"Ġtables":5108,"ĠUpdate":5109,"cessary":5110,"pher":5111,"ĠServer":5112,"ctive":5113,"ullable":5114,"ĠDummy":5115,"refresh":5116,"details":5117,"BASE":5118,"figs":5119,"ĠĠĠĠĠĠĠĠĠĠĠĠĠĠĠĠĠĠĠĠĠĠĠĠĠĠĠĠĠĠĠĠĠĠĠĠĠĠĠĠĠ":5120,"ysql":5121,"ynchron":5122,"COL":5123,"ĠSOFTWARE":5124,"zen":5125,"metrics":5126,"ope":5127,"Ġflat":5128,"Label":5129,"ĠCustom":5130,"Ġ-=":5131,"Ġts":5132,"Ġtimes":5133,"Ġappen":5134,"NOT":5135,"/$',":5136,"identifier":5137,"Ġ[[":5138,"ird":5139,"stant":5140,"lations":5141,"Ġidentifier":5142,"Ġtimedelta":5143,"cpu":5144,"arr":5145,"Ġenable":5146,"Button":5147,"([\"":5148,"Ġalias":5149,"]).":5150,"pient":5151,"ĠFake":5152,"':'":5153,"ACT":5154,"Ġgenerator":5155,"84":5156,"Many":5157,"Ġfailure":5158,"27":5159,"Collection":5160,"Driver":5161,"management":5162,"gramming":5163,"Ġmail":5164,"divid":5165,"HERE":5166,"Helper":5167,"Ġdownload":5168,"Ġuseful":5169,"validation":5170,"inder":5171,"player":5172,"absolute":5173,"lent":5174,"ĠTe":5175,"editor":5176,"IntegerField":5177,"NING":5178,"Author":5179,"Ġscipy":5180,"Ġvector":5181,"_%":5182,"ĠRed":5183,"ube":5184,"Ġsafe":5185,"Ġrunner":5186,"Header":5187,".\\":5188,"asure":5189,"assertIsInstance":5190,"helpers":5191,"\"'":5192,"internal":5193,"===":5194,"Access":5195,"gres":5196,"',)":5197,"Settings":5198,"Provider":5199,"Ġoccur":5200,"Ġresources":5201,"Ġdat":5202,"ava":5203,"outer":5204,"Ġeditor":5205,"VENT":5206,"Ġbound":5207,"Core":5208,"lots":5209,"expand":5210,"statement":5211,"mitted":5212,"vec":5213,"ĠVi":5214,"_)":5215,"Ġversions":5216,"tangible":5217,"ĠĠĠĠĠĠĠĠĠĠĠĠĠĠĠĠĠĠĠĠĠĠĠĠĠĠĠĠĠĠĠĠĠĠĠĠĠĠĠĠĠĠĠ":5218,"requen":5219,"ĠTangible":5220,"ĠMagicMock":5221,"abstract":5222,"Lib":5223,"Ġvisit":5224,"riend":5225,"warnings":5226,"Param":5227,"Ġitertools":5228,"'%":5229,"utors":5230,"game":5231,"beta":5232,"cision":5233,"Project":5234,"Api":5235,"DATE":5236,"Mapp":5237,"Ġincluding":5238,"ked":5239,"allclose":5240,"cipient":5241,"Ġ50":5242,"cording":5243,"transaction":5244,"STATUS":5245,"wx":5246,"(\"\\":5247,"uest":5248,"Ġok":5249,"creen":5250,"Ġmodify":5251,"ĠBuild":5252,"paper":5253,"openstack":5254,"ev":5255,"orator":5256,"original":5257,"Ġinsert":5258,"Ġyaml":5259,"Ġenviron":5260,"SELECT":5261,"Ġarch":5262,"hn":5263,"INTER":5264,"Ġsc":5265,"Ġneutron":5266,"andid":5267,"manual":5268,"FORMAT":5269,"async":5270,"external":5271,"Ġextract":5272,"39":5273,"ire":5274,"ality":5275,"Ġrepresentation":5276,"dst":5277,"firm":5278,"em":5279,"='',":5280,"Exp":5281,"></":5282,"Ġdistribution":5283,"ffect":5284,"ulk":5285,"ĠThese":5286,"cores":5287,"framework":5288,"Job":5289,"=-":5290,"Ġsources":5291,"Can":5292,"CTION":5293,"ever":5294,")',":5295,"Ġnoqa":5296,"ines":5297,"Ġest":5298,"inc":5299,"subprocess":5300,"Ġspecial":5301,"raps":5302,"mq":5303,"uint":5304,"ĠTable":5305,"configure":5306,"ka":5307,"snapshot":5308,"2014":5309,"documents":5310,"uni":5311,"generic":5312,"Ġwell":5313,"cred":5314,"ĠRo":5315,"come":5316,"Encoder":5317,"ĠWork":5318,"Ġbegin":5319,"Ġrules":5320,"Ġlayout":5321,"Ġmeans":5322,")(":5323,"/\"":5324,"Var":5325,"Ġsecret":5326,"ĠQuery":5327,"Ġoptim":5328,"credentials":5329,"bits":5330,"ĠMIT":5331,"inputs":5332,"Ġloaded":5333,"Ġnumbers":5334,"Ġsock":5335,"Ġboolean":5336,"Record":5337,"08":5338,"ĠTask":5339,"dividual":5340,"workflow":5341,"NUM":5342,"ilar":5343,"fies":5344,"high":5345,"Ġaddr":5346,"dr":5347,"lert":5348,"fficient":5349,"blank":5350,"Auto":5351,"MAP":5352,"Ġfit":5353,"members":5354,"Ġagent":5355,"Ġcy":5356,"draw":5357,"Ġimports":5358,"hq":5359,"sender":5360,"reason":5361,"Ġscen":5362,"('_":5363,"Ġclassi":5364,"Ġtransform":5365,"locale":5366,"sistent":5367,"repository":5368,"ĠLI":5369,"ategy":5370,"Work":5371,">\"":5372,"Ġ42":5373,"deleted":5374,"tifact":5375,"Ġsender":5376,"////":5377,"okies":5378,"Ġknow":5379,"vals":5380,"Ġassign":5381,"plain":5382,"sn":5383,"Ġsets":5384,"hour":5385,"Control":5386,"icon":5387,"asy":5388,"LOW":5389,"constants":5390,"Ġmetric":5391,"summary":5392,"Ġduring":5393,"Ġdump":5394,"Ġvarious":5395,"utation":5396,"]):":5397,"otes":5398,"inger":5399,"ĠNumber":5400,"sim":5401,"sian":5402,"closed":5403,"extract":5404,"sequence":5405,"veloper":5406,"avi":5407,"Ġbox":5408,"center":5409,"period":5410,"28":5411,"Ġconditions":5412,"projects":5413,"lang":5414,"(('":5415,"peat":5416,"Ġstill":5417,"iso":5418,"PR":5419,"Ġtermin":5420,"rup":5421,"Ġur":5422,"Ġ2011":5423,"merge":5424,"Ġchart":5425,"Ġserializer":5426,"TeX":5427,"DES":5428,"dns":5429,"rift":5430,"Ġhttplib":5431,"Ġbelow":5432,"Ġzero":5433,"gmail":5434,"Ġpixel":5435,"scape":5436,"]+)":5437,"Ġcached":5438,"rays":5439,"mbols":5440,"Ġcurrently":5441,"primary":5442,"final":5443,"atibility":5444,"Ġproto":5445,"Sp":5446,"ART":5447,"Ġfuture":5448,"angle":5449,"flavor":5450,"ĠMan":5451,"ipping":5452,"oll":5453,"Ġloader":5454,"Ġiterable":5455,"\\'":5456,"ĠRead":5457,"uman":5458,"boo":5459,"DED":5460,"ĠIOError":5461,"fixtures":5462,"RECT":5463,"Ġthose":5464,"Op":5465,"SM":5466,"Ġslice":5467,"operator":5468,"Formatter":5469,"arison":5470,".\",":5471,"Cho":5472,"Sec":5473,"([[":5474,"]+":5475,"Ġyet":5476,"Ġ).":5477,"Ġauthentication":5478,"Ġcloud":5479,"199":5480,"failed":5481,"Ġdispatch":5482,"Ġmerge":5483,"Ġdisk":5484,"Ġsomething":5485,"layers":5486,"scriptor":5487,"grade":5488,"ategories":5489,"edges":5490,"ĠFlask":5491,"vance":5492,"Ġdeleted":5493,"allback":5494,"ĠPost":5495,"soft":5496,"Sup":5497,"Parameter":5498,"ĠInteger":5499,"ModelAdmin":5500,"Ġinputs":5501,"HEAD":5502,"[:]":5503,"connected":5504,"adding":5505,"Ġalgorithm":5506,"Device":5507,"Initial":5508,"Ġsublime":5509,"qs":5510,"roid":5511,"PIPE":5512,"dapter":5513,"Ġactions":5514,"DER":5515,"rm":5516,"export":5517,"Ġgrid":5518,"Ġast":5519,"ĠPre":5520,"pture":5521,"uation":5522,"Ġdeprecated":5523,"BUT":5524,"machine":5525,"So":5526,"sqrt":5527,"ĠExamples":5528,"IF":5529,"Ġdot":5530,"ĠCO":5531,"COMM":5532,"rp":5533,"__),":5534,"Ġ------------------------------------------------":5535,"ceiver":5536,"such":5537,"ĠWeb":5538,"Ġcharacters":5539,"Ġfname":5540,"00000000":5541,"CRET":5542,"sid":5543,"changes":5544,"ank":5545,"Ġsupp":5546,"AX":5547,"Ġnotice":5548,"Ġmedia":5549,"Ġ[('":5550,"Ġdelta":5551,"Transport":5552,"vector":5553,"siz":5554,"Ġexclude":5555,"processing":5556,"udio":5557,"ĠService":5558,"Doc":5559,"Jo":5560,"getvalue":5561,"fully":5562,"Password":5563,"condition":5564,"ĠLaTeX":5565,"tect":5566,"Ġcorresponding":5567,"multiple":5568,"etc":5569,"spi":5570,"Ġ['_":5571,"Ġvalidation":5572,"Ġperson":5573,"MAIL":5574,"bob":5575,"Ġtopic":5576,"poly":5577,"rappe":5578,"45":5579,"REQUEST":5580,"Ġ13":5581,"Builder":5582,"ified":5583,"Container":5584,"lon":5585,"Ġconstants":5586,"MD":5587,"Ġvm":5588,"span":5589,"ĠOutput":5590,"herit":5591,"mas":5592,">',":5593,"Layout":5594,"PES":5595,"enable":5596,"formed":5597,"OPY":5598,"pet":5599,"Ġorg":5600,"uplicate":5601,"Ġtakes":5602,"Ġpartic":5603,"Ġzone":5604,"Ġoslo":5605,"ĠCOPY":5606,"sparse":5607,"gative":5608,"Ġfix":5609,"Ġautomatically":5610,"ĠOrderedDict":5611,"07":5612,"Ġmaximum":5613,"Ġhashlib":5614,"pn":5615,"ĠOther":5616,"('/')":5617,"Ġagainst":5618,"Ġstructure":5619,"Ġscheduler":5620,"}'":5621,"Ġconstraint":5622,"Deferred":5623,"Ġrepresenting":5624,"Location":5625,"ĠCode":5626,"lists":5627,"leting":5628,"Ġus":5629,"texinfo":5630,"Fake":5631,"ĠConnection":5632,"mediate":5633,"Ġwords":5634,"decorators":5635,"ĠCre":5636,"sired":5637,"Ġfunctools":5638,"selected":5639,"logs":5640,"complex":5641,"amount":5642,"Ġdocs":5643,"Uti":5644,"mu":5645,"DIS":5646,"cv":5647,"colors":5648,"oid":5649,"ĠNe":5650,"Cal":5651,"Exit":5652,"many":5653,"Ġ?":5654,"Received":5655,"alg":5656,"Feed":5657,"road":5658,"Ġscore":5659,"ĠCa":5660,"Ġdefine":5661,"uate":5662,"MIT":5663,"rozen":5664,"Ġ')":5665,"clar":5666,"Ġcounter":5667,"izes":5668,"wiki":5669,"Ġlocale":5670,"Ġenabled":5671,"contact":5672,"Ġdefinition":5673,"recv":5674,"targets":5675,"strings":5676,"arange":5677,"Ġblob":5678,"mapper":5679,"Ġicon":5680,"ICE":5681,"hone":5682,"Ġbehavior":5683,"Ġcv":5684,"Ġmatching":5685,"Ġdistutils":5686,"Ġsecurity":5687,"sym":5688,"timer":5689,"ĠAS":5690,"Ġdestination":5691,"AA":5692,"Ġsym":5693,"gits":5694,"enu":5695,"Ġallows":5696,"__))":5697,"Ġids":5698,"Policy":5699,"inary":5700,"Ġcsv":5701,"Ġnecessary":5702,"Ġrequested":5703,"FIL":5704,"Ġtran":5705,"Ġindependent":5706,"__(*":5707,"Ġpandas":5708,"gration":5709,"roles":5710,"quick":5711,"orizon":5712,"Ġdummy":5713,"ARY":5714,"Ġfill":5715,"atom":5716,"tend":5717,"resolve":5718,"Ġfilenames":5719,"Programming":5720,"Listener":5721,"Ġ14":5722,"ducer":5723,"TEMPLATE":5724,"pipeline":5725,"Ġseries":5726,"depth":5727,"Ġlower":5728,"Ġleast":5729,"59":5730,"utdown":5731,"ĠĠĠĠĠĠĠĠĠĠĠĠĠĠĠĠĠĠĠĠĠĠĠĠĠĠĠĠĠĠĠĠĠĠĠĠĠĠĠĠĠĠ":5732,"Ġ[-":5733,"tries":5734,"ĠWS":5735,"ĠXXX":5736,"chart":5737,"world":5738,"Ġdescri":5739,"cipe":5740,"ips":5741,"Temp":5742,"Reader":5743,"wall":5744,"Ġlater":5745,"ĠDocumentation":5746,":-":5747,"BACK":5748,"Script":5749,"Ġrecur":5750,"wri":5751,"Ġpush":5752,"ĠFa":5753,"ptr":5754,"timezone":5755,"76":5756,"Ġmove":5757,"31":5758,"{{":5759,"irc":5760,"Ġdraw":5761,"Ġmatplotlib":5762,"Extension":5763,"pred":5764,"Ġtoday":5765,")],":5766,"more":5767,"parameter":5768,"mble":5769,"duration":5770,"ota":5771,"astype":5772,"500":5773,"Handle":5774,"analy":5775,"Ġisn":5776,"asset":5777,"Ġpypy":5778,"Ġimplemented":5779,"IME":5780,"ĠLoad":5781,"rive":5782,"mous":5783,"Ġrendered":5784,"ĠView":5785,"Ġscheme":5786,"parsed":5787,"ĠUSE":5788,"person":5789,"Mon":5790,"ĠNetwork":5791,"letter":5792,"Ġedge":5793,"teractive":5794,"jor":5795,"tick":5796,"bosity":5797,"fun":5798,"Ġpid":5799,"Ġindividual":5800,"Style":5801,"allowed":5802,"cancel":5803,"assign":5804,"Ġbits":5805,"Ġlists":5806,"MAIN":5807,"=\"\"":5808,"Ġmaps":5809,"epcopy":5810,"dashboard":5811,"Ġ'#":5812,"Ġprev":5813,"OUR":5814,"Ġprop":5815,"ĠFoundation":5816,"Ġorigin":5817,"subnet":5818,"cost":5819,"rency":5820,"steps":5821,"addCallback":5822,"ragment":5823,"Rule":5824,"lies":5825,"Email":5826,"ĠAUTH":5827,"execution":5828,"Ġrel":5829,"Ġmight":5830,"ically":5831,"cce":5832,"Ġconsole":5833,"counts":5834,"fixed":5835,"vely":5836,"Ġbest":5837,"MES":5838,"ĠModule":5839,"backup":5840,"Ġwrapped":5841,"GB":5842,"Ġimplements":5843,"expression":5844,"Ġpr":5845,"Ġsignature":5846,"Web":5847,"ĠPY":5848,"Ġcontroller":5849,"400":5850,"Flow":5851,"nail":5852,"structure":5853,"Ġavoid":5854,"Ġamount":5855,"sqlite":5856,"Ġexecution":5857,"elem":5858,"codes":5859,"2013":5860,"tended":5861,"Lock":5862,"aste":5863,"Database":5864,"Created":5865,"2016":5866,"scripts":5867,"Ġmem":5868,"Ġassume":5869,"Ġdecimal":5870,"etri":5871,"ĠFunction":5872,"Ġprivate":5873,"Ġrevision":5874,"Ġperiod":5875,"ialog":5876,"Ġpl":5877,"Ġtimezone":5878,"Ġcomponents":5879,"Ġwarning":5880,"Ġlin":5881,"Ġday":5882,"constraint":5883,"Ġregistered":5884,"amera":5885,"APP":5886,"__['":5887,"Ġpi":5888,"Ġyear":5889,"GER":5890,"ĠSy":5891,"Ġnullable":5892,"ĠLine":5893,"pus":5894,"Ġcs":5895,"Ġcalling":5896,"Ġexplicit":5897,"EW":5898,"Import":5899,"ĠAR":5900,"ĠGe":5901,"listener":5902,"live":5903,"accept":5904,"begin":5905,"PASS":5906,"Ġcookie":5907,"Ġmetrics":5908,"dicate":5909,"without":5910,"90":5911,"ĠMulti":5912,"Ġ25":5913,"_):":5914,"radi":5915,"Ġexact":5916,"Ġconnections":5917,"Ġhome":5918,"Ġcoordin":5919,"ĠImp":5920,"tit":5921,"operation":5922,"/(?":5923,"SIG":5924,",),":5925,"screen":5926,"signature":5927,"ĠAdditional":5928,"amma":5929,"records":5930,"Ġev":5931,"Ġactually":5932,"Ġstuff":5933,"Ġbasestring":5934,"ighb":5935,"++":5936,"Ġhostname":5937,":])":5938,"tile":5939,"compatible":5940,"FIEL":5941,"Generate":5942,"SERVER":5943,"Ġplay":5944,"Dictionary":5945,"equals":5946,"Pick":5947,"geo":5948,"Ġtx":5949,"Ġmade":5950,"covery":5951,"poll":5952,"GHT":5953,"5678":5954,"CI":5955,"Ġconsumer":5956,"rees":5957,"Ġplan":5958,"Ġlarge":5959,"alth":5960,"ĠCal":5961,"Ġpair":5962,"hi":5963,"URI":5964,"ĠOTHER":5965,"forum":5966,"prepare":5967,"serializer":5968,"Ġcross":5969,"Ġdid":5970,"Ġmime":5971,"ĠTEST":5972,"reshape":5973,"Ġlow":5974,"ORE":5975,"itions":5976,"reactor":5977,"Ġkernel":5978,"refs":5979,"Ġwriter":5980,"Ġns":5981,"monitor":5982,"Ġentities":5983,"fire":5984,"ele":5985,"Ġ''.":5986,"STRING":5987,"logy":5988,"SECRET":5989,"grad":5990,"requency":5991,"Ġrdf":5992,"Ġitself":5993,"Channel":5994,"Ġclick":5995,"green":5996,"runtime":5997,"Ġidentity":5998,"ouse":5999,"Ġmonth":6000,"px":6001,"authors":6002,"Write":6003,"Ġ2010":6004,"AndReturn":6005,"migrations":6006,"INST":6007,"Ġattach":6008,"Ġmodified":6009,"ĠArgument":6010,"cleaned":6011,"blog":6012,"tected":6013,"chan":6014,"rable":6015,"ĠDAT":6016,"gz":6017,"lopen":6018,"aging":6019,"Sequence":6020,"alloc":6021,"Ġ<<":6022,"break":6023,"{%":6024,"copi":6025,"calar":6026,"/<":6027,"TYPES":6028,"Ġannot":6029,"igrate":6030,"[^":6031,"nect":6032,"Ġindices":6033,"Ġlon":6034,"Url":6035,"ulated":6036,"ĠOne":6037,"Ġtransport":6038,"resolvers":6039,"Ġcat":6040,"vides":6041,"ĠĠĊ":6042,"rea":6043,"UNT":6044,"Ġretry":6045,"PREFIX":6046,"big":6047,"CA":6048,"ĠHow":6049,"omial":6050,"twisted":6051,"latest":6052,"Ġvim":6053,"*.":6054,"hy":6055,"sitions":6056,"Ġpartial":6057,"ĠQueue":6058,"subscription":6059,"Timeout":6060,"Ġhistory":6061,"Ġ\"_":6062,"lyph":6063,"ĠInstance":6064,"Ġworksheet":6065,"ĠPermission":6066,"gation":6067,"bile":6068,"Imp":6069,"ays":6070,"ĠOnly":6071,"Ġtornado":6072,"Configuration":6073,"ĠValidationError":6074,"89":6075,"mysql":6076,"Reference":6077,"mc":6078,"Row":6079,"ĠSome":6080,"OB":6081,"reater":6082,"Engine":6083,"CLASS":6084,"follow":6085,"origin":6086,"Ġnorm":6087,"Local":6088,"city":6089,"dl":6090,"Ġrecords":6091,"distance":6092,"Ġroute":6093,"Ġsupports":6094,"Role":6095,"maining":6096,"Wor":6097,"Ġknown":6098,"ĠFe":6099,"Ġweight":6100,"Tool":6101,"based":6102,"Ġwritten":6103,"tifications":6104,"_:":6105,"Ġurls":6106,"logo":6107,"Generator":6108,"linear":6109,"Ġhandlers":6110,"separ":6111,"Ġaround":6112,"lencode":6113,"sources":6114,"Ġcla":6115,"Package":6116,"Ġwatch":6117,"ACHE":6118,"iling":6119,"inte":6120,"enerated":6121,"Types":6122,"archive":6123,">`":6124,"unpack":6125,"variables":6126,"Ġelem":6127,"ket":6128,"nx":6129,"Ġgood":6130,"tl":6131,"Ġteam":6132,"trigger":6133,"Ġ}}":6134,"gp":6135,"Ġrouter":6136,"bra":6137,"umbnail":6138,"Ġpipeline":6139,"uess":6140,"Ġauthentic":6141,"49":6142,"Ġappe":6143,"hidden":6144,"ĠVER":6145,"ivar":6146,"pdf":6147,"price":6148,"Ġregistry":6149,"Ġsymbol":6150,"ĠNOTE":6151,":',":6152,"1111":6153,"Regex":6154,"same":6155,"dc":6156,"agraph":6157,"arb":6158,"eded":6159,"mime":6160,"Ġoverwrite":6161,"servation":6162,"Ġsleep":6163,"ĠMatrix":6164,"Files":6165,"ENTI":6166,"Ġworking":6167,"ĠIs":6168,"Ġ()":6169,"Ġanaly":6170,"Defin":6171,"functions":6172,"Ġcoun":6173,"Ġcreating":6174,"Ġ19":6175,"Ġabstract":6176,"Socket":6177,"Ġbackwards":6178,"jax":6179,"ĠOSError":6180,"AGS":6181,"Ġcorrectly":6182,"ardown":6183,"Some":6184,"double":6185,"DIA":6186,"fc":6187,"stdin":6188,"lict":6189,"ĠLe":6190,"SV":6191,"Ġpur":6192,"ĠĠĠĠĠĠĠĠĠĠĠĠĠĠĠĠĠĠĠĠĠĠĠĠĠĠĠĠĠĠĠĠĠĠĠĠĠĠĠĠĠĠĠĠ":6193,"isdir":6194,"#------------------------------------------------------------------------":6195,"dependency":6196,"âĶ":6197,"Ġtz":6198,")')":6199,"Ġdrop":6200,"processors":6201,"ensure":6202,"dx":6203,"Unit":6204,"ĠAdding":6205,"freq":6206,"ĠWSGI":6207,"executable":6208,"ĠNew":6209,"Ġaff":6210,"lsx":6211,"reply":6212,"conv":6213,"COMP":6214,"Ġfinished":6215,"isfile":6216,"timedelta":6217,"85":6218,"Unknown":6219,"Ġinitialize":6220,"ĠRaises":6221,"browser":6222,"gu":6223,"DELETE":6224,"lave":6225,"dimen":6226,"ĠSession":6227,"Fi":6228,"Ġderi":6229,"ĠPAR":6230,"Ġcopied":6231,"Over":6232,"scan":6233,"Could":6234,"classi":6235,"ral":6236,"quiva":6237,"Float":6238,"seek":6239,"Ġsamples":6240,"olved":6241,"UI":6242,"')))":6243,"ginator":6244,"Ġservices":6245,"TINGS":6246,"Basic":6247,"inv":6248,"ĠItem":6249,"kes":6250,"Ġupdates":6251,"Ġsaved":6252,"cap":6253,"ĠGraph":6254,"partial":6255,"Ġdistance":6256,"tract":6257,"interfaces":6258,"Ġll":6259,"Ġconstructor":6260,"')[":6261,"Metadata":6262,"atar":6263,"Ġcondition":6264,"Ġencoded":6265,"scalar":6266,"Ġproblem":6267,"Loop":6268,"Ġopenstack":6269,"ets":6270,"Ġcharacter":6271,"CRI":6272,"Dialog":6273,"lick":6274,"ĠURI":6275,"Description":6276,"Position":6277,"Ġlineno":6278,"urity":6279,"responses":6280,"Ġbottom":6281,"limiter":6282,"Ġdev":6283,"ĠProcess":6284,"rac":6285,"Ġsyntax":6286,"ancer":6287,"Ġmapper":6288,"CESS":6289,"ised":6290,"ĠOAuth":6291,"ĠQtGui":6292,"ĠClass":6293,"gy":6294,"ĠPath":6295,"got":6296,"channels":6297,"Last":6298,"Only":6299,"ris":6300,"Ġds":6301,"Min":6302,"aff":6303,"\"\")":6304,"itespace":6305,"Inline":6306,"submit":6307,"dictions":6308,"LOAD":6309,"echo":6310,"ought":6311,"Ġsklearn":6312,"'d":6313,"signals":6314,"pickle":6315,"onymous":6316,"PACE":6317,"Ġsess":6318,"Ġswitch":6319,"============":6320,"ffset":6321,"Ġ1024":6322,"Ġsimp":6323,"Ġstates":6324,"effs":6325,"Ali":6326,"validator":6327,"ĠProtocol":6328,"Agent":6329,"TRIBUT":6330,"inner":6331,"Ġssl":6332,"Ġresolve":6333,"Max":6334,"TEXT":6335,"ĠBad":6336,"clone":6337,"Ġatom":6338,"Ġpairs":6339,"ints":6340,"ĠPublic":6341,"ĠNS":6342,"Ġclosed":6343,"ĠAdmin":6344,"ability":6345,"collector":6346,"Configured":6347,"bum":6348,"Ġrate":6349,"sin":6350,"DULE":6351,"Ġplugins":6352,"Member":6353,"serted":6354,"cus":6355,"ulator":6356,"Ġ\"\"\")":6357,"Inst":6358,"ĠĠĠĠĠĠĠĠĠĠĠĠĠĠĠĠĠĠĠĠĠĠĠĠĠĠĠĠĠĠĠĠĠĠĠĠĠĠĠĠĠĠĠĠĠ":6359,"001":6360,"Permission":6361,"Ġnx":6362,"VALID":6363,"Extra":6364,"âĶĢ":6365,"FT":6366,"Ġinside":6367,"Ġnested":6368,"Ġterm":6369,"precation":6370,"Ġms":6371,"mongo":6372,"128":6373,"keyword":6374,"paces":6375,"tran":6376,"ValidationError":6377,"subscribe":6378,"raries":6379,"rypto":6380,"Order":6381,"ru":6382,"ĠInter":6383,"Ġtrigger":6384,"Editor":6385,"Copyright":6386,"\\.":6387,"Ġstrip":6388,"nb":6389,"Ġones":6390,"ICES":6391,"Ġreferences":6392,"Ġfails":6393,"('<":6394,"Ġactiv":6395,"strict":6396,"symbol":6397,"ĠPOST":6398,"ĠAnd":6399,"Ġtyp":6400,"sessions":6401,"proj":6402,"ipv":6403,"deli":6404,"Ġboto":6405,"RIGHT":6406,"Series":6407,"CODE":6408,"gon":6409,"Choice":6410,"ĠSH":6411,"ONG":6412,"Ġiterator":6413,"ĠFoo":6414,"riteri":6415,"Ġep":6416,"ĠSchema":6417,"specs":6418,"ĠOper":6419,"Ġsn":6420,"urllib":6421,"Clean":6422,"________":6423,"priority":6424,"syntax":6425,"Ġ24":6426,"deg":6427,"bundle":6428,"ln":6429,"(\"-":6430,"Ġworkflow":6431,"assertNotEqual":6432,"}/":6433,"units":6434,"how":6435,"Ġgame":6436,"compress":6437,"Ġcorehq":6438,"Ġcert":6439,"xs":6440,"Ġplayer":6441,"Ġhappen":6442,"hat":6443,"Ġden":6444,"ateway":6445,"Collector":6446,"Ġchecks":6447,"Django":6448,"ned":6449,"Ġnothing":6450,"NAMES":6451,"('.')":6452,"IGN":6453,"Ġfmt":6454,"ĠParse":6455,"klass":6456,"segment":6457,"ĠPage":6458,"existing":6459,"setter":6460,"visor":6461,"quivalent":6462,"modi":6463,"AST":6464,"RPC":6465,"Ġfactor":6466,"LOCK":6467,"ĠCLI":6468,"79":6469,"prev":6470,"Ġunknown":6471,"collect":6472,"Ġcreation":6473,"roadcast":6474,"FC":6475,"Ġapps":6476,"Ġcompare":6477,"ef":6478,"odoc":6479,"progress":6480,"âĶĢâĶĢ":6481,"ĠChange":6482,"nested":6483,"yes":6484,"visible":6485,"prob":6486,"DIRECT":6487,"readline":6488,"Ġordering":6489,"SU":6490,"Site":6491,"Cloud":6492,"lying":6493,"Ġround":6494,"Ġ404":6495,"duction":6496,"weights":6497,"Ġscan":6498,"ĠRemove":6499,"semble":6500,"selection":6501,"recur":6502,"cepted":6503,"optim":6504,"vide":6505,"Comple":6506,"Ġtrait":6507,"Ġweights":6508,"Ġ(-":6509,"jar":6510,"LIST":6511,"VALUE":6512,"Ġredis":6513,"enti":6514,"pay":6515,"ĠCan":6516,"CLUD":6517,"dn":6518,"ĠMGL":6519,"accounts":6520,"Ġlistener":6521,"amble":6522,"which":6523,":\"":6524,"=[\"":6525,"roperly":6526,"adap":6527,"({\"":6528,"Used":6529,"WIT":6530,"filepath":6531,"ĠValue":6532,"Ġproc":6533,"rou":6534,"Ġresponses":6535,")}":6536,"previous":6537,"Ġcause":6538,"tmpdir":6539,"threads":6540,"sentry":6541,"aemon":6542,"(',":6543,"notify":6544,"Sum":6545,"WR":6546,"foobar":6547,"Ġcb":6548,"iler":6549,"Ġdefaultdict":6550,"Ġoutputs":6551,"Root":6552,"Obj":6553,"lier":6554,"pends":6555,"dependencies":6556,"align":6557,"week":6558,"receive":6559,"networks":6560,"ĠGeneric":6561,"Ġspe":6562,"gi":6563,"ros":6564,"vers":6565,"ĠInitialize":6566,">')":6567,"customer":6568,"Ġdelay":6569,"ĠWHERE":6570,"ATIC":6571,"Ġgeneric":6572,"Make":6573,"Ġunits":6574,"Lookup":6575,"definition":6576,")\\":6577,"fast":6578,"Ġargv":6579,"disable":6580,"Hash":6581,"orph":6582,"ĠShould":6583,"matches":6584,"~~~~~~~~~~~~~~~~":6585,"ĠSup":6586,"compare":6587,"###############":6588,"PTION":6589,"Ġstarting":6590,"Ġseed":6591,"addresses":6592,"Fields":6593,"RC":6594,"strftime":6595,"Ġrot":6596,"Ġjobs":6597,"pairs":6598,"=('":6599,"CLI":6600,"ocial":6601,"sertionError":6602,"Ġsegment":6603,"blocks":6604,"quare":6605,"Ġ255":6606,"oked":6607,"CK":6608,"Ġconstruct":6609,"ĠContext":6610,"ĠLocal":6611,"vicon":6612,"000000":6613,"'ll":6614,"Red":6615,"ĠCl":6616,"Ġerrno":6617,"Custom":6618,"ĠAction":6619,"CannotContain":6620,"ĠindependentData":6621,"\"\\":6622,"Ġhref":6623,"Ġxs":6624,"csrf":6625,"actual":6626,"Ġescape":6627,"Tab":6628,"cum":6629,"scheduler":6630,"ĠGET":6631,"listdir":6632,"predict":6633,"floating":6634,"Ġretrieve":6635,"href":6636,"tices":6637,"DateTimeField":6638,"Mark":6639,"Ġvideo":6640,"Ġpriority":6641,"oring":6642,"Feature":6643,"traceback":6644,"ĠStatus":6645,"Ġalong":6646,"Entity":6647,"shift":6648,"Names":6649,"\"/":6650,"globals":6651,"rant":6652,"ĠComment":6653,"Ġcomments":6654,"Ne":6655,"Ġtenant":6656,"Directory":6657,"OKEN":6658,"jam":6659,"Ġ2016":6660,"Ġ[{'":6661,"exe":6662,"room":6663,"wap":6664,"Ġsphinx":6665,"Ġdash":6666,"Ġregular":6667,"assertIsNone":6668,"antity":6669,"Ġparsing":6670,"Ġprogress":6671,"neutron":6672,"hist":6673,"Ġemit":6674,"ably":6675,"MAG":6676,"2012":6677,"TF":6678,"Ġdesired":6679,"Volume":6680,"Ġboot":6681,"aws":6682,"olds":6683,"+'":6684,"cleanup":6685,"activate":6686,"configs":6687,"Stub":6688,"ierarch":6689,"Ġstrftime":6690,"threshold":6691,"mentation":6692,"Ġclone":6693,"Edit":6694,"Ġbrowser":6695,"('',":6696,"ĠAny":6697,"binding":6698,"Ġinner":6699,"aller":6700,"ADDR":6701,"typ":6702,"ĠAlso":6703,"thought":6704,"callable":6705,"Random":6706,"Repo":6707,"demo":6708,"Ġpoly":6709,"Ġ${":6710,"Abstract":6711,"Ġfixed":6712,"phone":6713,"Ġste":6714,"Report":6715,"Ġnotification":6716,"pad":6717,"wt":6718,"ĠOver":6719,"deployment":6720,"APPS":6721,"CLUDING":6722,"Ġ'[":6723,"Iter":6724,"ĠCur":6725,"ĠEd":6726,"ridge":6727,"rd":6728,"dep":6729,"frames":6730,"Ġnd":6731,"Parent":6732,"TOKEN":6733,"Ġparticular":6734,"roperlyConfigured":6735,"family":6736,"Ġschedule":6737,"itle":6738,"}\\":6739,"ĠMark":6740,"king":6741,"ĠUnicode":6742,"DOMAIN":6743,"ĠStart":6744,"TextField":6745,"gle":6746,"video":6747,"connections":6748,"titude":6749,"article":6750,"Ġklass":6751,"\"%":6752,"2000":6753,"Ġ18":6754,"LD":6755,"================================================================":6756,"epoch":6757,"ĠGit":6758,"ĠJo":6759,"Endpoint":6760,"Ġcontributors":6761,"draft":6762,"tence":6763,"IST":6764,"Ġturn":6765,"formatter":6766,"normalize":6767,"forward":6768,"mtree":6769,"java":6770,"hooks":6771,"Ġtm":6772,"ĠStr":6773,"destroy":6774,"Ġduration":6775,"AF":6776,"CACHE":6777,"coming":6778,"dims":6779,"Ġblocks":6780,"VICE":6781,"cid":6782,"ĠToken":6783,"tics":6784,"imate":6785,"CR":6786,"acl":6787,"Ġframework":6788,"ĠVERSION":6789,"ĠĠĠĠĠĠĠĠĠĠĠĠĊ":6790,"')])":6791,"examples":6792,"UST":6793,"mobile":6794,"ĠDatabase":6795,"alf":6796,"aving":6797,"EMAIL":6798,"NU":6799,"onical":6800,"ĠVerify":6801,"ĠPa":6802,"ĠComm":6803,"ĠDEBUG":6804,"partition":6805,"impl":6806,"ĠFloat":6807,"bilities":6808,"Ġbackup":6809,"andidate":6810,"Ġthings":6811,"sentinel":6812,"SETTINGS":6813,"METHO":6814,"rupt":6815,"Ġseen":6816,"Ġtranslation":6817,"diffe":6818,"300":6819,"Domain":6820,"Ġcolors":6821,"Ġautog":6822,"Ġthreads":6823,"ective":6824,"loss":6825,"ANCE":6826,"outputs":6827,"->":6828,"Ġdetermine":6829,"Ġsec":6830,"osite":6831,"Ġmis":6832,"notification":6833,"TIMEOUT":6834,"Ġsync":6835,"Ġstarted":6836,"ĠAD":6837,"Ġlogs":6838,"boolean":6839,"plt":6840,"Ġhosts":6841,"Stats":6842,"ni":6843,"ĠStop":6844,"IZ":6845,"Ġconfigure":6846,"crete":6847,"OCK":6848,"Ġ400":6849,"presen":6850,"NESS":6851,"ERCH":6852,"Ġcompatibility":6853,"65":6854,"have":6855,"{\"":6856,"erge":6857,"Ġmk":6858,"Ġrecent":6859,"jac":6860,"TCP":6861,"aggregate":6862,"ĠDelete":6863,"BooleanField":6864,"PASSWORD":6865,":\",":6866,"datastore":6867,"ALLED":6868,"ERCHANT":6869,"ROUP":6870,"maps":6871,"38":6872,"ĠTag":6873,"ĠApplication":6874,"ium":6875,"Library":6876,"Ġdepth":6877,"rn":6878,"allel":6879,"MagicMock":6880,"wb":6881,"='/":6882,"Ġ2009":6883,"getter":6884,"ĠTry":6885,"oute":6886,"Person":6887,"plus":6888,"Ġ################################":6889,"Ġreader":6890,"tenv":6891,"kt":6892,"Product":6893,"RED":6894,"Ġserialize":6895,"Ġansw":6896,"rides":6897,"ĠEach":6898,"Ġtensor":6899,"setitem":6900,"ĠDataFrame":6901,"ĠSite":6902,"urlresolvers":6903,"Ġradi":6904,"sli":6905,"stmt":6906,"sites":6907,"ĠOptional":6908,"Topic":6909,"chdir":6910,"program":6911,"tainer":6912,"ions":6913,"ingerprint":6914,"Has":6915,"Ġflavor":6916,"Memory":6917,"tar":6918,"Ġcomplex":6919,"OURCE":6920,"dele":6921,"xis":6922,"ascript":6923,"ĠPack":6924,"9999":6925,"Ġtools":6926,"subclass":6927,"Ġfast":6928,"variance":6929,"walk":6930,"Ġruns":6931,"Unable":6932,"finished":6933,"Multiple":6934,"dom":6935,"Ġgets":6936,"Ġlocals":6937,"Ġchoice":6938,"Ġfakes":6939,"Ġpixels":6940,"authorized":6941,"Rep":6942,"Contains":6943,"lev":6944,"ading":6945,"Ġvalidator":6946,"Alchemy":6947,"Ġexamples":6948,"Ġprompt":6949,"ĠExec":6950,"ynchronous":6951,"manifest":6952,"UNK":6953,"star":6954,"roved":6955,"ateri":6956,"ĠSSL":6957,"pin":6958,"Ġvis":6959,"Allow":6960,"MT":6961,"Send":6962,"alect":6963,"lace":6964,"parsers":6965,"Validator":6966,"ntaxError":6967,"adoop":6968,"utcnow":6969,"48":6970,"gui":6971,"Ġregard":6972,"CHE":6973,"Ġservers":6974,"atype":6975,"Registry":6976,"enum":6977,"Ġ500":6978,"Ġtargets":6979,"cases":6980,"Ġkeywords":6981,"translate":6982,"gun":6983,"ĠIndexError":6984,"CONTENT":6985,"Ġmac":6986,"avascript":6987,"ĠPoint":6988,">=":6989,"Ġcm":6990,"Ġdirec":6991,"DATAB":6992,"/{}":6993,"Ġarr":6994,"UND":6995,"WE":6996,"randn":6997,"anging":6998,"ITNESS":6999,"sto":7000,"=\"%":7001,"best":7002,"Coeffs":7003,"completed":7004,"Ġmar":7005,"cogn":7006,"ĠEns":7007,"organization":7008,"rng":7009,"Comment":7010,"Reactor":7011,"=_(\"":7012,"Ġthemes":7013,"********************************":7014,"ared":7015,"verter":7016,"Ġhex":7017,"prog":7018,"\"][\"":7019,"Ġalign":7020,"Ġ'*'":7021,"Ġtb":7022,"ctypes":7023,"Ġquote":7024,"destination":7025,"ian":7026,"cebook":7027,"ĠLib":7028,"capa":7029,"Menu":7030,"FR":7031,"Ġrec":7032,"Ġcover":7033,"ratio":7034,"servable":7035,"leton":7036,"decorator":7037,"Binary":7038,"kee":7039,"MODULE":7040,"orizont":7041,"Ġcompiler":7042,"allation":7043,"ĠinCoeffs":7044,"Execution":7045,"Ġsqlite":7046,"Ġsheet":7047,"Ġscreen":7048,"ĠDA":7049,"Environment":7050,"rdf":7051,"ensor":7052,"Ġnever":7053,"locals":7054,"Dummy":7055,"ragma":7056,"Ġhandling":7057,"Num":7058,"flask":7059,"Expected":7060,"prompt":7061,"Ġanything":7062,"Go":7063,"sublime":7064,"2010":7065,"Ġ\"\",":7066,"randint":7067,"kedirs":7068,"dp":7069,"hot":7070,"Mapping":7071,"Usage":7072,"VAR":7073,"Ġ17":7074,"Popen":7075,"ERCHANTABILITY":7076,"La":7077,"Ġrev":7078,"ussian":7079,"Example":7080,"zeug":7081,"Ġglobals":7082,"Ġrelationship":7083,"ffi":7084,"([(":7085,"windows":7086,"Ġmag":7087,"Ġplaces":7088,"ULAR":7089,"secure":7090,"Tw":7091,"Ġgreen":7092,"mkdir":7093,"Ġdue":7094,"LIED":7095,"Ġsidebar":7096,"TS":7097,"}:":7098,"}{":7099,"Ġbundle":7100,"blue":7101,"kzeug":7102,"urther":7103,"ini":7104,"hood":7105,"ĠNow":7106,"spam":7107,"chars":7108,"Ġnormalize":7109,"_{":7110,"keywords":7111,"ASK":7112,"vid":7113,"ĠĠĠĠĠĠĠĠĠĠĠĠĠĠĠĠĠĠĠĠĠĠĠĠĠĠĠĠĠĠĠĠĠĠĠĠĠĠĠĠĠĠĠĠĠĠ":7114,"CHAR":7115,"tb":7116,"inct":7117,"Ġty":7118,"wrapped":7119,"#'":7120,"black":7121,"Ġ':":7122,"Ġvirt":7123,"compiler":7124,"widgets":7125,"Required":7126,"Bytes":7127,"Ġsupplied":7128,"lio":7129,"']]":7130,"Stop":7131,"emit":7132,"adow":7133,"Functions":7134,"ĠHandle":7135,"Ġfooter":7136,"cuts":7137,".'''":7138,"gid":7139,"under":7140,"Ġimported":7141,")\")":7142,"strument":7143,"ek":7144,"ggest":7145,"ndarray":7146,"criptor":7147,"amp":7148,"gis":7149,"Ġreplacement":7150,"Ġgrr":7151,"Ġsnapshot":7152,"formats":7153,"Ġless":7154,"Ġprocessing":7155,"95":7156,"Ġ{%":7157,"ANY":7158,"Authentication":7159,"MB":7160,"Ġqueries":7161,"Ġ\"(":7162,"postgres":7163,"Arg":7164,"ĠOtherwise":7165,"Remote":7166,"iterable":7167,"fakes":7168,"ĠMERCHANTABILITY":7169,"Ġactor":7170,"Ġconfigured":7171,"slots":7172,"ĠEnsure":7173,"that":7174,"/.":7175,"_'":7176,"ification":7177,"ĠĠĠĠĠĠĠĠĠĠĠĠĠĠĠĠĠĠĠĠĠĠĠĠĠĠĠĠĠĠĠĠĠĠĠĠĠĠĠĠĠĠĠĠĠĠĠ":7178,"Ġsignals":7179,"utions":7180,"Ġthree":7181,"posed":7182,"ĠOK":7183,"Ġmarker":7184,"identi":7185,"Tri":7186,"Ġnone":7187,"Ġui":7188,"oration":7189,"getcwd":7190,"does":7191,"ĠMethod":7192,"Testing":7193,"Ġexpand":7194,"IMIT":7195,"endor":7196,"Results":7197,"foot":7198,"rank":7199,"ĠPerson":7200,"marker":7201,"ressions":7202,"dence":7203,"Ġdimension":7204,"ĠreST":7205,"Ġreduce":7206,"oted":7207,"ĠUsage":7208,"Ġcost":7209,"Ġproduce":7210,"ĠDeleting":7211,"installed":7212,"Transform":7213,"sur":7214,"Ġvery":7215,"ĠTwisted":7216,"Values":7217,"Ġdirname":7218,"ctl":7219,"Ob":7220,"Ġchunks":7221,"Missing":7222,"cmp":7223,"ĠBoolean":7224,"struction":7225,"cnt":7226,"Parameters":7227,"licies":7228,"Close":7229,"67":7230,"ua":7231,"usters":7232,"POSE":7233,"las":7234,"finder":7235,"Com":7236,"Ter":7237,"ĠCor":7238,"ĠWrite":7239,"SY":7240,"uda":7241,"versed":7242,"Track":7243,"erce":7244,"may":7245,"Ġsv":7246,"Constraint":7247,"ives":7248,"Remove":7249,"syn":7250,"Ġproperly":7251,"Ġ'/'":7252,"\"].":7253,"stit":7254,"iterator":7255,"virtual":7256,"ĠFilter":7257,"Ġhighlight":7258,"OwnerId":7259,"Poly":7260,"]}":7261,"tached":7262,"orizontal":7263,"trip":7264,"male":7265,"ĠDes":7266,"Ġ----------------------------------------":7267,"ĠDon":7268,"assertIsNot":7269,"mtime":7270,"eep":7271,"Ġpacket":7272,"velopers":7273,"Ġga":7274,"geom":7275,"Diff":7276,"DataFrame":7277,"good":7278,"Ġselection":7279,"]],":7280,"ĠRel":7281,"Ġmakes":7282,"jamas":7283,"tester":7284,"white":7285,"Ġdirection":7286,"country":7287,"AV":7288,"SUB":7289,"ells":7290,"httplib":7291,"Ġinserted":7292,"lemb":7293,"Ġssh":7294,"Ġtraining":7295,"ĠPlease":7296,"kill":7297,"mes":7298,"PROJECT":7299,"inux":7300,"Attr":7301,"gether":7302,"additional":7303,"ĠAbstract":7304,"Ġautogenerated":7305,"ffff":7306,"ĠDevelopment":7307,"Ġpower":7308,"authenticated":7309,"Ġcred":7310,"Ġconnected":7311,"vaila":7312,"Pickle":7313,"*(":7314,"Ġunpack":7315,"initialize":7316,"87":7317,"experiment":7318,"THON":7319,"ĠSearch":7320,"deepcopy":7321,"Ġsur":7322,"ĠAuto":7323,"jid":7324,"chor":7325,"Ġcontact":7326,"/?":7327,"ĠSign":7328,"Ġupper":7329,"ico":7330,"decla":7331,"isode":7332,"ital":7333,"Ġcapa":7334,"Items":7335,"hara":7336,"tcp":7337,"ĠWor":7338,"ĠSkip":7339,"Ġcodecs":7340,"ĠArray":7341,"Ġmu":7342,"Ġconv":7343,"park":7344,"Ġhour":7345,"Ġready":7346,"Ġcr":7347,"ĠAddress":7348,"CHO":7349,"lected":7350,"eros":7351,"ĠInput":7352,"Ġ{}'.":7353,"Ġbug":7354,"Ġci":7355,"ĠSpeci":7356,">,":7357,"lembic":7358,"Ġcc":7359,"ationTest":7360,"Ġformatted":7361,"OwnerAccount":7362,"`)":7363,"Ġpol":7364,"ĠPUR":7365,"moving":7366,"ARD":7367,"Matrix":7368,"Ġdoctest":7369,"volumes":7370,"pix":7371,"efficient":7372,"Ġ64":7373,"cookies":7374,"ĠPlugin":7375,"bottom":7376,"Success":7377,"Ġinstanti":7378,"bootstrap":7379,"={}":7380,"MAC":7381,"Ġsimilar":7382,"copia":7383,"Ġav":7384,"Ġ\"#":7385,"Ġrpc":7386,"Ġmachine":7387,"IDD":7388,"uffle":7389,"itude":7390,"ident":7391,"updates":7392,"ĠConfiguration":7393,"rator":7394,"Ġfunctionality":7395,"Ġtrace":7396,"flatten":7397,"Ġpanel":7398,"Ġbeta":7399,"ublish":7400,"DEX":7401,"findall":7402,"ĠOUT":7403,"Enum":7404,"FS":7405,"Pipe":7406,"pm":7407,"47":7408,"ĠLIMIT":7409,"preter":7410,"CUR":7411,"must":7412,"Ġtf":7413,"Ġbig":7414,"Ġgeneral":7415,"vailability":7416,"resize":7417,"Ġbackground":7418,"MAGE":7419,"acquire":7420,"Ġinitialized":7421,"IR":7422,"aliases":7423,"10000":7424,"Empty":7425,"rmtree":7426,"Ġquestion":7427,"bus":7428,"Ġexport":7429,"ĠDecimal":7430,"Ġps":7431,"Ġdim":7432,"Upload":7433,"Ġreply":7434,"ĠIPv":7435,"WORK":7436,"sizes":7437,"vl":7438,"otype":7439,"tn":7440,"Ġuid":7441,"istic":7442,"linux":7443,"ĠArticle":7444,"192":7445,"oom":7446,"ables":7447,"Ġable":7448,"setattr":7449,"ĠImproperlyConfigured":7450,"dec":7451,"Ġwrong":7452,"illi":7453,"inity":7454,"clients":7455,"quences":7456,"Operation":7457,"Step":7458,"registration":7459,"band":7460,"Renderer":7461,"BC":7462,"splitlines":7463,"Plan":7464,"until":7465,"ĠTree":7466,"ĠBasic":7467,"ivy":7468,"AIN":7469,"Current":7470,"selector":7471,"ping":7472,"ined":7473,"tour":7474,"Ġserve":7475,"ogram":7476,"Fixture":7477,"ĠPURPOSE":7478,"Iteration":7479,"pdu":7480,"Ġrespon":7481,"Ġperm":7482,"gradient":7483,"Ġsummary":7484,"exact":7485,"Ġlang":7486,"Ġworkbook":7487,"Descriptor":7488,"ĠTeam":7489,"Ġpprint":7490,"makedirs":7491,"urlpatterns":7492,"STATE":7493,"Ġleg":7494,"spawn":7495,",-":7496,"received":7497,"ender":7498,"Ġsyn":7499,"Ġdimensions":7500,"Wait":7501,"vile":7502,"roker":7503,"icrosoft":7504,"OAuth":7505,"()).":7506,"Ġlazy":7507,"egg":7508,"started":7509,"needs":7510,"Ġtemporary":7511,"Ġfreq":7512,"bounds":7513,"Ġexecuted":7514,"!!":7515,"hand":7516,"trl":7517,"TICULAR":7518,"ĠCall":7519,"edia":7520,"NET":7521,"Category":7522,"Ġ40":7523,"ags":7524,"()])":7525,"Ġedges":7526,"ĠThread":7527,"Ġattempt":7528,"dy":7529,"Ġexperiment":7530,"Ġrefresh":7531,"beat":7532,"2011":7533,"}),":7534,"ERY":7535,"ircu":7536,"Ġmembers":7537,"]'":7538,"(\"--":7539,"figure":7540,"69":7541,"roken":7542,"VM":7543,"JANG":7544,"tf":7545,"Ġiprot":7546,"Show":7547,"Ġconstant":7548,"coords":7549,"MEDIA":7550,"izing":7551,"reload":7552,"ĠFITNESS":7553,"ĠState":7554,"BE":7555,"Ġfo":7556,"associ":7557,"Ġadding":7558,"DataCacheDictionary":7559,"ĠPARTICULAR":7560,"}\"":7561,"cha":7562,"See":7563,"[(":7564,"Ġfrappe":7565,"Ġpants":7566,"Ġrc":7567,"validators":7568,"Ġlibs":7569,"dix":7570,"ĠOP":7571,"COUNT":7572,"()'":7573,"nor":7574,"lator":7575,"Ġconven":7576,"contenttypes":7577,"ĠSelect":7578,"Ġpip":7579,"Ġbal":7580,"Ġforwards":7581,"Ġlogged":7582,"andbox":7583,"Replay":7584,"234":7585,"TIVE":7586,"dae":7587,"Tuple":7588,"Ġwarn":7589,"abstractmethod":7590,"etree":7591,"Params":7592,"Main":7593,"Ġdns":7594,"ike":7595,"Ġforward":7596,"Ġord":7597,"combin":7598,"Detail":7599,"finish":7600,"Ġgevent":7601,"ko":7602,"ĠBook":7603,"decimal":7604,"ircle":7605,"chunks":7606,",\"":7607,"Ġfurther":7608,"Ġ'\"":7609,"ĠCloud":7610,"Ġcalculate":7611,"uniform":7612,":')":7613,"bla":7614,"Ġdouble":7615,"ĠExp":7616,"cuda":7617,"ectors":7618,"elif":7619,"ĠDocuments":7620,"relationship":7621,"atter":7622,"Ġdele":7623,"activity":7624,"background":7625,"ĠMAX":7626,"attachment":7627,"Use":7628,"mbedded":7629,"Zero":7630,"rstrip":7631,"ama":7632,"Ġwhose":7633,"METHOD":7634,"errno":7635,"GTH":7636,"LANG":7637,"BL":7638,"cture":7639,"gateway":7640,"Login":7641,"OFF":7642,"Ġinterfaces":7643,"devices":7644,"ĠFind":7645,"ĠUsed":7646,"Sample":7647,"Ġauthors":7648,"Ġcleanup":7649,"blueprint":7650,"MPLE":7651,"clock":7652,"TestSuite":7653,"Properties":7654,"ĠStatic":7655,"JANGO":7656,")\",":7657,"coordin":7658,"ATOR":7659,"patcher":7660,"Ġreading":7661,"Ġminimum":7662,"constant":7663,"Ġarchive":7664,"Ġcwd":7665,"Ġprepare":7666,"Ġdocstring":7667,"Ġgeo":7668,"AIL":7669,"[\\":7670,"ĠCL":7671,"ĠGNU":7672,"Ġcopies":7673,"native":7674,"Ġ~":7675,"Ġlanguages":7676,"README":7677,"eys":7678,"Ġcenter":7679,"odb":7680,"ĠOpenStack":7681,"ĠGrouping":7682,"0001":7683,"###########":7684,"Ġaltern":7685,"Positive":7686,"Ġrepresents":7687,"MAGES":7688,"cas":7689,"indexes":7690,"packet":7691,"ĠKeyword":7692,"edu":7693,"astic":7694,"inclu":7695,"Utils":7696,"Ġthrow":7697,"Ġsto":7698,"Setup":7699,"communic":7700,"Scheduler":7701,"erkzeug":7702,"ITS":7703,"Ġmarkup":7704,"Ġconverted":7705,"scores":7706,"ĠPri":7707,"Ġ\"'":7708,"Ġsubclasses":7709,"bench":7710,"Cell":7711,"izard":7712,"ĠBack":7713,"Ġcreates":7714,"Ġbash":7715,"ulates":7716,"define":7717,"SO":7718,"EV":7719,"zon":7720,"ads":7721,"serializers":7722,"scene":7723,"Ġaccording":7724,"\"]:":7725,"Ġsimplejson":7726,"jpg":7727,"Article":7728,"Json":7729,"Ġrepla":7730,"metaclass":7731,"qt":7732,"ysi":7733,"DEF":7734,"VarInt":7735,"Grid":7736,"Ġdeferred":7737,"blems":7738,"=======":7739,"you":7740,"=_('":7741,"honeNumber":7742,"Ġpragma":7743,"aten":7744,"Ġrand":7745,"catalog":7746,"ĠSource":7747,"car":7748,"hyper":7749,"allen":7750,"('''":7751,"Adapter":7752,"GROUP":7753,"ATCH":7754,"imit":7755,"Ġbook":7756,"Please":7757,"cov":7758,"Ġcols":7759,"launch":7760,"EM":7761,"LIN":7762,"ticket":7763,"Pr":7764,"RequestHandler":7765,"Ġanswer":7766,"!\")":7767,"asarray":7768,"canvas":7769,"Ġoptparse":7770,"Transaction":7771,")**":7772,"props":7773,"Vector":7774,"Ġpartition":7775,"Ġ{}\".":7776,"Ġ2007":7777,"FILES":7778,"share":7779,"rgb":7780,"ely":7781,"ĠExtra":7782,"Nodes":7783,"Ġbetter":7784,")+":7785,"_[":7786,"Ġdeal":7787,"percent":7788,"Ġindexes":7789,"600":7790,"FIELD":7791,"Bind":7792,"Ġct":7793,"Ġroom":7794,"aaaa":7795,"irt":7796,"Ġspecification":7797,"Ġreally":7798,"ABC":7799,"mesh":7800,"Ġunderlying":7801,"stand":7802,"Ġsli":7803,"artist":7804,"ĠEnvironment":7805,"lm":7806,"repeat":7807,"Ġthing":7808,"SCHE":7809,"categories":7810,"ierarchy":7811,"RUN":7812,"ĠSeries":7813,"Ġdeployment":7814,"Fetch":7815,"fh":7816,"Generic":7817,"Ġ#---------------------------------------------------------------------------":7818,"tempdir":7819,"ĠDefaults":7820,"direction":7821,"daemon":7822,"ĠIMPLIED":7823,"LENGTH":7824,"Ġ'+":7825,"Ġcounts":7826,"Ġappendix":7827,">\",":7828,"pie":7829,"ĠCONF":7830,"sensitive":7831,"ReplayAll":7832,"vors":7833,"Verify":7834,"argtypes":7835,")-":7836,"Ġgu":7837,"datasets":7838,"Ġarrays":7839,"Ġrobot":7840,"ĠTE":7841,"Ġeverything":7842,"Ġdisabled":7843,"Ġsmall":7844,"Ġsparse":7845,"sist":7846,"imator":7847,"ĠChar":7848,"pip":7849,"Ġweak":7850,"Ġquotes":7851,"Ġsigma":7852,"Ġborder":7853,"advance":7854,"ĠĠĠĠĠĠĠĠĠĠĠĠĠĠĠĠĠĠĠĠĠĠĠĠĠĠĠĠĠĠĠĠĠĠĠĠĠĠĠĠĠĠĠĠĠĠĠĠ":7855,"ĠCompute":7856,"Ġnamedtuple":7857,"joint":7858,"Ġfigure":7859,"Ġchecking":7860,"axes":7861,"area":7862,"Ġ80":7863,"requirements":7864,"Ġappended":7865,"Ġintera":7866,"tm":7867,"Offset":7868,"`:":7869,"Ġthreshold":7870,"Ġpyjamas":7871,"START":7872,"reet":7873,"aring":7874,"Ġapplied":7875,"Ġactivity":7876,"disconnect":7877,"Ġseparate":7878,"Copy":7879,"Ġsubscription":7880,"extended":7881,"Ġmetavar":7882,"BY":7883,"distribution":7884,"}',":7885,"Ġeffect":7886,"Ġshift":7887,"meter":7888,">.":7889,"bulk":7890,"Ġoprot":7891,"43":7892,"Ġhyper":7893,"ĠExten":7894,"Ġ23":7895,"ndim":7896,"Ġoutfile":7897,"EP":7898,"Ġexclu":7899,"GS":7900,"rack":7901,"loading":7902,"placeholder":7903,"Ġhandles":7904,"Ġlatest":7905,"standard":7906,"Ġscripts":7907,"Router":7908,"sibility":7909,"creator":7910,"restype":7911,"Ġletter":7912,"Ġrather":7913,"ĠUN":7914,"ĠGiven":7915,"crypted":7916,"Ġ'.'":7917,"appendices":7918,"rozenset":7919,"Ġdescribed":7920,"ĠProxy":7921,"special":7922,"gorithms":7923,"kwds":7924,"Ġ\"\")":7925,"Ġrng":7926,"Ġsubnet":7927,"Ġcollect":7928,"locations":7929,"Geometry":7930,"Desc":7931,"Ġmanuals":7932,"Ġpad":7933,"moo":7934,"ĠConvert":7935,"Ġshouldn":7936,"ĠEVENT":7937,"Ġversionadded":7938,"LOB":7939,"Actor":7940,"hexdigest":7941,"XY":7942,"ino":7943,"vtk":7944,"\"})":7945,"Ġetree":7946,"Ġ2008":7947,"Ġlooking":7948,"ttl":7949,"tol":7950,"lihood":7951,"Ġdays":7952,"pended":7953,"Ġentire":7954,"Ġbases":7955,"Print":7956,"Ġtimer":7957,"STATIC":7958,"70":7959,"Body":7960,"Hook":7961,"gri":7962,"Ġdynamic":7963,"ople":7964,"1024":7965,"Ġbi":7966,"PRESS":7967,"LIC":7968,"Ġinline":7969,"Render":7970,"Ġdialect":7971,"Constant":7972,"Processor":7973,"Ġsmart":7974,"Find":7975,"balance":7976,"Ġgran":7977,"currency":7978,"disabled":7979,"ĠAUTHORS":7980,"Func":7981,"teri":7982,"dian":7983,"Definition":7984,"hass":7985,"mul":7986,"Debug":7987,"ai":7988,"nick":7989,"Ġprocesses":7990,"Ġlibcloud":7991,"small":7992,"Ġplease":7993,"Ġserializers":7994,"lb":7995,"Ġaxes":7996,"Ġri":7997,"ridden":7998,"Classi":7999,"increment":8000,"Headers":8001,"Ġmonitor":8002,"__',":8003,"ĠPoly":8004,"cade":8005,"scopes":8006,"Pay":8007,"Ġhelpers":8008,"Ġstdin":8009,"etrieve":8010,"('')":8011,"([],":8012,"ĠRO":8013,"ASH":8014,"Ġpublished":8015,"Ġsteps":8016,"openid":8017,"ĠDict":8018,"diag":8019,"spli":8020,"building":8021,"={\"":8022,"Ġepoch":8023,"ĠAg":8024,"ocus":8025,"PU":8026,"Ġcp":8027,"Ġ\")":8028,"fileno":8029,"ĠBUT":8030,"=',":8031,"apon":8032,"Ġfs":8033,"RF":8034,"Ġpretty":8035,"ĠStorage":8036,"twitter":8037,"Ġdependency":8038,"sisten":8039,"queries":8040,"istribution":8041,"rename":8042,"Ġfun":8043,"Ġreturning":8044,"svn":8045,"dfs":8046,"generated":8047,"setLevel":8048,"lastic":8049,"EVENT":8050,"sudo":8051,"uous":8052,"Ġlogic":8053,"published":8054,"Ġgive":8055,"Ġ22":8056,"Ġassigned":8057,"SITE":8058,"ball":8059,"Ġdetail":8060,"Ġeas":8061,"tid":8062,"Ġincludes":8063,"rigin":8064,"ĠSQLAlchemy":8065,"SERT":8066,"assertIsNotNone":8067,"Ġfab":8068,"sib":8069,"Ġplain":8070,"Ġexplicitly":8071,"udo":8072,"lobs":8073,"onal":8074,"MODEL":8075,"addon":8076,"ENG":8077,"CREATE":8078,"sigma":8079,"Ġfixtures":8080,"CHOICES":8081,"elf":8082,"ĠCho":8083,"Ġutility":8084,"crypto":8085,"Inte":8086,"509":8087,"assemble":8088,"Exists":8089,"Ġexecutable":8090,"Common":8091,"retri":8092,"alice":8093,"cra":8094,"nl":8095,"ĠLink":8096,"Ġformats":8097,"major":8098,"Ġgc":8099,"ĠNULL":8100,"php":8101,"Ġlonger":8102,"ĠLab":8103,"Ġprevent":8104,"Raw":8105,"descriptor":8106,"Ġflush":8107,"Ġfire":8108,"expires":8109,"Ġndarray":8110,"\")),":8111,"Global":8112,"Ġwon":8113,"jection":8114,"mpa":8115,"ĠVector":8116,"keh":8117,"dates":8118,"worksheet":8119,"OPEN":8120,"bp":8121,"Ġagree":8122,"ipedia":8123,"Ġloading":8124,"Ġformatter":8125,"ILD":8126,"54":8127,"Ġiteration":8128,"ĠTex":8129,"ĠFrame":8130,"uncate":8131,"Ġfixture":8132,"TAG":8133,"paren":8134,"Font":8135,"ropy":8136,"rase":8137,"mmutable":8138,"Ġenum":8139,"\"},":8140,"TC":8141,"chemas":8142,"shutdown":8143,"Ġfron":8144,"Region":8145,"ĠCalc":8146,"djang":8147,"CONN":8148,"Cluster":8149,"........":8150,"ĠMax":8151,"adapter":8152,"BER":8153,"Ġhidden":8154,"Flask":8155,"Ġabort":8156,"TRACT":8157,"ordered":8158,"digits":8159,"Ġvisible":8160,"urlopen":8161,"Ġdeclar":8162,"Connect":8163,"=[],":8164,"={},":8165,"ArgumentParser":8166,"Net":8167,"constructor":8168,"nc":8169,"['_":8170,"artbeat":8171,"udit":8172,"SHA":8173,"Ġappear":8174,"auti":8175,"ana":8176,"usted":8177,"notes":8178,"POINT":8179,"encoder":8180,"anded":8181,"Errors":8182,"ĠMon":8183,"quiet":8184,"Ġlinear":8185,"answer":8186,"ĠVariable":8187,"Ġ'{}":8188,"Display":8189,"Ġterminal":8190,"afe":8191,"fron":8192,"DATABASE":8193,"sually":8194,"UTF":8195,"ached":8196,"OLD":8197,"Opt":8198,"ĉĠĠĠ":8199,"saved":8200,"Ġimmediate":8201,"qname":8202,"/(":8203,"VIDED":8204,"Click":8205,"KET":8206,"Ġsuccessfully":8207,"ENGINE":8208,"scr":8209,"(_('":8210,"Ġpull":8211,"logged":8212,"friend":8213,"then":8214,"dialog":8215,"Ġeventlet":8216,"Ġretrie":8217,"ilo":8218,"asis":8219,"tras":8220,"ĠGenerate":8221,"ĠEl":8222,"xyz":8223,"LIMIT":8224,"Ġmuch":8225,"quation":8226,"tistics":8227,"wraps":8228,"gination":8229,"consume":8230,"Ġdefines":8231,"geometry":8232,"ond":8233,"ĠZZ":8234,"Ġaliases":8235,"Ġprobably":8236,"ĠApi":8237,"heel":8238,"Prefix":8239,"shortcuts":8240,"lour":8241,"ĠForeignKey":8242,"ĠMay":8243,"HttpRequest":8244,"pw":8245,"Conf":8246,"cycle":8247,"Ġcharset":8248,"Ġchannels":8249,"bitrary":8250,"Ġcontributor":8251,"\"')":8252,"II":8253,"Ġdescriptor":8254,"ĠSec":8255,"Ġregarding":8256,"Ġsol":8257,"Done":8258,"dynamic":8259,"Ġlex":8260,"Ġequivalent":8261,"verbosity":8262,"Tools":8263,"avigation":8264,"bidden":8265,"ĠHost":8266,"terminal":8267,"cross":8268,"Ġeasy":8269,"Ġstub":8270,"Ġcatch":8271,"IX":8272,"coverage":8273,"Ġ10000":8274,"bold":8275,"Ġ'':":8276,"Ġsymbols":8277,"Ġ1234":8278,"cryption":8279,"!\"":8280,"Sm":8281,"Ġasync":8282,"Ġprocessed":8283,"ĠVM":8284,"corder":8285,"keeper":8286,"Ġls":8287,"tip":8288,"ĠFirst":8289,"Ġdefinitions":8290,"flo":8291,"\"\"\")":8292,"Ġnegative":8293,"ĠCOPYING":8294,"Cleanup":8295,"seudo":8296,"ropo":8297,"Ġpending":8298,"ĠCreates":8299,"ĠResult":8300,"recipient":8301,"(?:":8302,"IE":8303,"ancy":8304,"att":8305,"Ġrecipient":8306,"ĠEngine":8307,"Val":8308,"Ġcaller":8309,"atural":8310,"Ġred":8311,"ĠLIMITED":8312,"Ġcard":8313,"ism":8314,"ĠSu":8315,"Cookie":8316,"retty":8317,"^^":8318,"\":\"":8319,"fsm":8320,"precationWarning":8321,"UES":8322,"alive":8323,"Ġownership":8324,"dao":8325,"ĠJob":8326,"Ġmanagement":8327,"Ġrect":8328,"Ġarea":8329,"mited":8330,"asm":8331,"Ġfilepath":8332,"Named":8333,"Ġports":8334,"Ġvol":8335,"ĠColor":8336,"dm":8337,"seg":8338,"vim":8339,"Ġnodelist":8340,"topo":8341,"plural":8342,"EG":8343,"pret":8344,"migration":8345,"former":8346,"exer":8347,"within":8348,"benchmark":8349,"ssue":8350,"exchange":8351,"aker":8352,"ToMany":8353,"ECTION":8354,"Sheet":8355,"Ġnargs":8356,"Ġwsgi":8357,"ĠAP":8358,"Worker":8359,"Ġuni":8360,"failUnlessEqual":8361,"Non":8362,"TT":8363,"Ġremaining":8364,"ĠautoGenerate":8365,"ĠFIX":8366,"Ġsimply":8367,"Ġconsume":8368,"sqlalchemy":8369,"ĠAssertionError":8370,"assertNotIn":8371,"witch":8372,"Expression":8373,"caten":8374,"Ġnb":8375,"Ġwar":8376,"ĠArguments":8377,"mpaign":8378,"Gra":8379,"thumbnail":8380,"memo":8381,"ĠcStringIO":8382,"Ġpycopia":8383,"FLAGS":8384,"////////":8385,"CF":8386,"Cer":8387,"fr":8388,"Ġrestri":8389,"ĠSalt":8390,"ĠDAMAGES":8391,"Title":8392,"oned":8393,"ĠStream":8394,"WI":8395,"ALI":8396,"Ġvalidators":8397,"Ġminimal":8398,"Ġwindows":8399,"since":8400,"Ġscalar":8401,"bars":8402,"57":8403,"_('":8404,"Ġlicenses":8405,"acter":8406,"ĠIPython":8407,"Callbacks":8408,"dh":8409,"human":8410,"Ġunless":8411,"ĠĠĠĠĠĠĠĠĠĠĠĠĠĠĠĠĠĠĠĠĠĠĠĠĠĠĠĠĠĠĠĠĠĠĠĠĠĠĠĠĠĠĠĠĠĠĠĠĠ":8412,"topics":8413,"(_(\"":8414,"Ġprior":8415,"'m":8416,"MQ":8417,"PH":8418,"lst":8419,"ĠEmpty":8420,"ered":8421,"Ġlight":8422,"KeyError":8423,"Decimal":8424,"YY":8425,"too":8426,"ramid":8427,"sf":8428,"asc":8429,"scriber":8430,"ĠINST":8431,"Ġsuccessful":8432,"Ġdirectives":8433,"Ġcodes":8434,"][\"":8435,"Security":8436,"Ġ'?":8437,"Ġ{{":8438,"negative":8439,"Scale":8440,"gd":8441,"ĠSER":8442,"ĠNotes":8443,"issues":8444,"mr":8445,"Ġruntime":8446,"ĠProduct":8447,"!')":8448,"Ġqual":8449,"verts":8450,"Ġtraits":8451,"completion":8452,"Ġstrict":8453,"56789":8454,"Ġreceive":8455,"\"\",":8456,"Ġfloating":8457,"levant":8458,"Called":8459,"diction":8460,"UTE":8461,"ĠPygments":8462,"cells":8463,"HEADER":8464,"otal":8465,"ĠImple":8466,"Ġmeasure":8467,"ĠUti":8468,"Ġ21":8469,"Convert":8470,"books":8471,"Ġgradient":8472,"Windows":8473,"Git":8474,"Ġchecked":8475,"callbacks":8476,"Any":8477,"au":8478,"opro":8479,"Ġadds":8480,"Width":8481,"Ġ'..":8482,"Ġsever":8483,"serialization":8484,"Ġfinish":8485,"providers":8486,"Ġprefixes":8487,"Ġsorting":8488,"attrib":8489,"unused":8490,"=''):":8491,"Ġcurr":8492,"lify":8493,"ĠAllow":8494,"docker":8495,"ĠPackage":8496,"Ġ^":8497,"ctree":8498,"Ġmiddleware":8499,"Skip":8500,"stan":8501,"grant":8502,"Mis":8503,"Pos":8504,"keystone":8505,"Cmd":8506,"registered":8507,"Ġclients":8508,"strategy":8509,"ĠBlock":8510,"deferred":8511,"footnote":8512,"Ġfh":8513,"tablename":8514,"DataCacheFunctions":8515,"ĠContentType":8516,"Ġ'$":8517,"Ġdialog":8518,"checks":8519,":/":8520,"stage":8521,"Ġpadding":8522,"theta":8523,"Ġmonkey":8524,"fu":8525,"Ġserialized":8526,"rating":8527,"workers":8528,"bian":8529,"WARNING":8530,"Temporary":8531,"UUID":8532,"coord":8533,"ĠLabel":8534,"ĠSchemaMigration":8535,"([^":8536,"ModelForm":8537,"lr":8538,"ster":8539,"Ġserved":8540,"seen":8541,"deri":8542,"SSH":8543,"Ġdeg":8544,"ĠFree":8545,"ACCESS":8546,"ASES":8547,"une":8548,"Ġstarts":8549,"ESSAGE":8550,"assette":8551,"Ġhandled":8552,"products":8553,"Ġstati":8554,"operations":8555,"Ġhist":8556,"ESSION":8557,"ippet":8558,"aggreg":8559,"Ġmocked":8560,"ĠINCLUDING":8561,"SchemaMigration":8562,"Cursor":8563,"Ġclassifiers":8564,"Speci":8565,"Ġlocations":8566,"Statement":8567,"something":8568,"META":8569,"horizon":8570,"domains":8571,"ajax":8572,"Ġnor":8573,"achine":8574,"iteral":8575,"ĠSerial":8576,"BR":8577,"ĠSp":8578,"focus":8579,"ĠRule":8580,"Ġpassing":8581,"zed":8582,"ĠDIS":8583,"ĠHelp":8584,"collections":8585,"Del":8586,"Finder":8587,"First":8588,"iki":8589,"Cor":8590,"Dataset":8591,"Ġfamily":8592,"authorization":8593,"lapsed":8594,"CLIENT":8595,"urnal":8596,"Ġbuff":8597,"Sets":8598,"distributed":8599,"pixel":8600,"mdao":8601,"ĠALL":8602,"logout":8603,"Ġordered":8604,"Ġlst":8605,"MY":8606,"vpn":8607,"receiver":8608,"alter":8609,"ĠAccess":8610,"ĠSend":8611,"limits":8612,"Ġcertificate":8613,"SyntaxError":8614,">]":8615,"ny":8616,"trait":8617,"scenario":8618,"ĠRPC":8619,"ĠQtCore":8620,"directed":8621,"101":8622,"Ġ----------------":8623,"ĠTri":8624,"perms":8625,"Ġjinja":8626,"Arch":8627,"Ġtitles":8628,"Ġvars":8629,"ced":8630,"Ġ\\\\":8631,"creation":8632,"Ġdfp":8633,"ĠfunctionList":8634,"general":8635,"TERN":8636,"tifier":8637,"Ġtar":8638,"ĠRange":8639,"avg":8640,":],":8641,"attemp":8642,"ĠMin":8643,"Ġshare":8644,"Ġaggregate":8645,"Ġprocessor":8646,"speed":8647,"WID":8648,"udience":8649,"ĠPROVIDED":8650,"Authorization":8651,"46":8652,"border":8653,"dtemp":8654,"Ġunused":8655,"([])":8656,"ĠCOPYRIGHT":8657,"Ġenough":8658,"Ġsystems":8659,"DJANGO":8660,"Normal":8661,"Neg":8662,"AWS":8663,"BSD":8664,"trial":8665,"ENCE":8666,"Iterator":8667,"Ġstatist":8668,"xhtml":8669,"Ġplaceholder":8670,"semb":8671,"ene":8672,"ronic":8673,"ĠDeferred":8674,"ĠinDataCacheDictionary":8675,"Begin":8676,"pd":8677,"solver":8678,"xpath":8679,"Ġsudo":8680,"ĠGeo":8681,"alls":8682,"Ġaggreg":8683,"ientation":8684,"ĠDO":8685,"jinja":8686,"Ġpercent":8687,"Unicode":8688,"clip":8689,"ĠInst":8690,"confirm":8691,"ĠEmail":8692,"96":8693,"Ġpositive":8694,"voice":8695,"ii":8696,"Ġrhs":8697,"Ġwraps":8698,"take":8699,"Ġscenario":8700,"-+":8701,"mf":8702,"Ġlaunch":8703,"bg":8704,"Ġ=>":8705,"ĠMySQL":8706,"erature":8707,"ĠStack":8708,"Ġ\"[":8709,"ĠJava":8710,"bindings":8711,"ĠCreature":8712,"jected":8713,"Release":8714,"symbols":8715,"removed":8716,"tection":8717,"Ġrepe":8718,"Ġincorrect":8719,"radius":8720,"Ġinherit":8721,"Ġ\"\"\"\\":8722,"realpath":8723,"Identifier":8724,"Attributes":8725,"bf":8726,"Ġsucce":8727,"Ġprice":8728,"containers":8729,"imen":8730,"!'":8731,"loaders":8732,"Init":8733,"posts":8734,"stubs":8735,"tabs":8736,"calendar":8737,"ĠEnthought":8738,"FUN":8739,"pretty":8740,"annotation":8741,"ĠDOM":8742,"makeOne":8743,"NOWN":8744,"har":8745,"(\".":8746,"ORM":8747,"encoded":8748,"migrate":8749,"Ġfragment":8750,"Ġ*=":8751,"Sha":8752,"ban":8753,"mouse":8754,"Ġclf":8755,"Ġ################################################":8756,"chat":8757,"Ġcompatible":8758,"while":8759,"clause":8760,"thrift":8761,"ĠDATA":8762,"presented":8763,"Book":8764,"ĠCH":8765,"ductor":8766,"ordering":8767,"__:":8768,"ouch":8769,"howto":8770,"cts":8771,"viewer":8772,"ĠSetup":8773,"ĠHttpResponseRedirect":8774,"Ġwidgets":8775,"ĠBytes":8776,"ĠCalled":8777,"perform":8778,"Chart":8779,"999":8780,"Ġ###############################################################################":8781,"superuser":8782,"gamma":8783,"lp":8784,"Ġbenchmark":8785,"Ġwerkzeug":8786,"ĠTexinfo":8787,"MIS":8788,"Ġgs":8789,"ĠWhether":8790,"viding":8791,"/\",":8792,"=\"\"\"":8793,"xies":8794,"Ġcancel":8795,"ĠMain":8796,"mid":8797,"robot":8798,"Ġloss":8799,"ULTI":8800,"Relation":8801,"ircuit":8802,"Ġinf":8803,"morph":8804,"')):":8805,"168":8806,"Ġauthorization":8807,"ighbors":8808,"pow":8809,"declar":8810,"Ġprecision":8811,"('/',":8812,"levels":8813,"Ġgeometry":8814,"USERNAME":8815,"IDDLE":8816,"veri":8817,"Ġscene":8818,"PN":8819,"wrong":8820,"ĠLay":8821,"cele":8822,"Msg":8823,"minute":8824,"OPTIONS":8825,"infra":8826,"Save":8827,"fine":8828,"unlink":8829,"Setting":8830,"authenticate":8831,"entities":8832,"linalg":8833,"Merge":8834,"Ġhard":8835,"lette":8836,"elery":8837,"dimension":8838,"vlan":8839,"('{":8840,"ĠProtocolBuffer":8841,"Folder":8842,"illa":8843,"Ġdigest":8844,"pypi":8845,"Ġtrailing":8846,"Ġxmlns":8847,"Ġcertain":8848,"Split":8849,"hint":8850,"Ġdeli":8851,"ĠSSH":8852,"codec":8853,"ĠDateTime":8854,"Scen":8855,"bc":8856,"gc":8857,"stor":8858,"ĠcPickle":8859,"mpling":8860,"unity":8861,"ĠCache":8862,"large":8863,"Ġcmp":8864,"alph":8865,"FE":8866,"Ġenter":8867,"ĠHas":8868,"Creates":8869,"finite":8870,"ully":8871,"poses":8872,"PROTO":8873,"letterpaper":8874,"ĠMap":8875,"ĠRandom":8876,"Ġaverage":8877,"pider":8878,"kb":8879,"Ġvals":8880,"Ġfailures":8881,"Children":8882,"Ġexactly":8883,"CD":8884,"]',":8885,"yy":8886,"ĠWITH":8887,"Async":8888,"CLASSES":8889,"Ġderived":8890,"Batch":8891,"aniti":8892,"Ġtt":8893,"cay":8894,"presentation":8895,"Flavor":8896,"Ġbra":8897,"Ġgdata":8898,"ĠĠĠĠĠĠĠĠĠĠĠĠĠĠĠĠĠĠĠĠĠĠĠĠĠĠĠĠĠĠĠĠĠĠĠĠĠĠĠĠĠĠĠĠĠĠĠĠĠĠĠ":8899,"PACK":8900,"Stat":8901,"Ġcpu":8902,"Ġsentinel":8903,"yield":8904,"cks":8905,"Accept":8906,"ctivity":8907,"markdown":8908,"allenge":8909,"exclu":8910,"Ġdigits":8911,"potify":8912,"izations":8913,"dicts":8914,"notation":8915,"Running":8916,"Ġwhole":8917,"Ġfew":8918,"ĠTop":8919,"phi":8920,"drivers":8921,"Ġdirector":8922,"ov":8923,"Ġpor":8924,"RESP":8925,"()}":8926,"ĠACTION":8927,"Timer":8928,"Keys":8929,"Ġws":8930,"Ġpygments":8931,"measure":8932,"ĠWARRANTY":8933,"regions":8934,"ĠTABLE":8935,"routes":8936,"Ġagreements":8937,"deps":8938,"urlencode":8939,"copg":8940,"Ġgetting":8941,"OTE":8942,"AttributeError":8943,"LEV":8944,"Enter":8945,"Almost":8946,"ĠLaborator":8947,"']}":8948,"ocs":8949,"Ġwebsite":8950,"WRITE":8951,"ience":8952,"Ġ(.":8953,"Ġguess":8954,"Ġpyg":8955,"checked":8956,"DIRS":8957,"ĠFIXME":8958,"ĠSim":8959,"za":8960,"Ġve":8961,"Ġdelimiter":8962,"'](":8963,"ticles":8964,"Ġshard":8965,"bio":8966,"Operator":8967,"Ġsqrt":8968,",\\":8969,"BB":8970,"Null":8971,"Ġprops":8972,"weet":8973,"Ġtmpdir":8974,"(.":8975,"Ma":8976,"hide":8977,"mgr":8978,"Ġlatex":8979,"Ġslash":8980,"Ġdaemon":8981,"curacy":8982,"numbers":8983,"Ġlayers":8984,"RESULT":8985,"incip":8986,"Ġface":8987,"ighted":8988,"hub":8989,"erry":8990,"Ġblueprint":8991,"ellow":8992,"Ġvirtual":8993,"/*":8994,"([('":8995,"todo":8996,"altern":8997,"Ġintern":8998,"Ġes":8999,"Ġ(('":9000,"Notification":9001,"Ġliter":9002,"Ġdirs":9003,"Ġcallbacks":9004,"hours":9005,"Limit":9006,"Mar":9007,"Ġmagic":9008,"Card":9009,"Ġpt":9010,"ĠTY":9011,"Ġsubmit":9012,"Namespace":9013,"Ġcast":9014,"ĠParameter":9015,"ganization":9016,"quota":9017,"Ġroles":9018,"rollback":9019,"Ġec":9020,"Ġ300":9021,"latforms":9022,"dialect":9023,"ailgun":9024,"ĠAsync":9025,"Edge":9026,"Ġflatten":9027,"zA":9028,"Ġpaper":9029,"Structure":9030,"Space":9031,"Ġam":9032,"union":9033,"rab":9034,"itation":9035,"INDEX":9036,"Ġ###########################################################################":9037,"Ġcoordinates":9038,"irtual":9039,"three":9040,"upy":9041,"parame":9042,"ĠRecord":9043,"Ġclock":9044,"Ġrepresented":9045,"ĠMicrosoft":9046,"Ġfilesystem":9047,"nonce":9048,"imation":9049,"micro":9050,"andra":9051,"Ġlive":9052,"It":9053,"ĠBY":9054,"Chunk":9055,"Ġcustomize":9056,"FromString":9057,"72":9058,"Ġpie":9059,"Ġfiltered":9060,"58":9061,"Ġhorizon":9062,"EY":9063,"ISING":9064,"Ġmanifest":9065,"Ġtail":9066,"AlmostEqual":9067,"deprecated":9068,"Ġflex":9069,"ĠCase":9070,"capt":9071,"LANGU":9072,"Lost":9073,"Ġfore":9074,"vie":9075,"Ġartifact":9076,"Ġrequirements":9077,"ky":9078,"Summary":9079,"pointer":9080,"://%":9081,"magic":9082,"retries":9083,"ĠĠĠĠĠĠĠĠĠĠĠĠĠĠĠĠĠĠĠĠĠĠĠĠĠĠĠĠĠĠĠĠĠĠĠĠĠĠĠĠĠĠĠĠĠĠĠĠĠĠ":9084,"Ġstatements":9085,"ĠLocation":9086,"\\\"":9087,"oproject":9088,"JS":9089,"algorithm":9090,"Ġ[{":9091,"ĠMet":9092,"Linear":9093,"epub":9094,"033":9095,"######":9096,"Ġacross":9097,"certificate":9098,"QuerySet":9099,"separator":9100,"slave":9101,"Ġopenmdao":9102,"Manage":9103,"ĠWith":9104,"Ġproducts":9105,"ĠFormat":9106,"ĠSHALL":9107,"locate":9108,"was":9109,"TestBase":9110,"news":9111,"reports":9112,"assandra":9113,"alert":9114,"Ġ256":9115,"libs":9116,"Ġtaken":9117,"profiler":9118,"Ġauthenticate":9119,"vin":9120,"Ġcuda":9121,"Ġsending":9122,"Ġ-----------------------------------------------------------------------------":9123,"ICT":9124,"CCESS":9125,"ĠCurrent":9126,"tially":9127,"Ġpm":9128,"Regexp":9129,":\")":9130,"SP":9131,"xc":9132,"titions":9133,"')).":9134,"Ġsentry":9135,"ENABLE":9136,"AML":9137,"mpp":9138,"processes":9139,"Ġnotify":9140,"ĠSettings":9141,"mitive":9142,"Ġecho":9143,"Ġprojects":9144,"TLS":9145,"repos":9146,"ches":9147,"doctype":9148,"termine":9149,"Changed":9150,"ĠCategory":9151,"dicates":9152,"Ġselector":9153,"reporter":9154,"ipy":9155,"artifact":9156,"ada":9157,"Ġbounds":9158,"Ġspeed":9159,"Ġflash":9160,"ĠWHE":9161,"Classifier":9162,"Ġ'(":9163,"ĠARISING":9164,"fora":9165,"Rest":9166,"pygments":9167,"ĠProperty":9168,"Ġbuilding":9169,"Ġcoming":9170,"ACTION":9171,"Ġreplacing":9172,"raction":9173,"Ġminutes":9174,"Ġacts":9175,"Credentials":9176,"loy":9177,"confir":9178,"digit":9179,"Help":9180,"obs":9181,"Ġfu":9182,"Ġnative":9183,"pyc":9184,"Decorator":9185,"Area":9186,"Ġresolver":9187,"subset":9188,"Ġexpires":9189,"Dest":9190,"Ġmix":9191,"Ġdoing":9192,"Ġinstallation":9193,"evaluate":9194,"Ġconsidered":9195,"DESCRI":9196,"vol":9197,"ising":9198,"atory":9199,"ĠRFC":9200,"erring":9201,"?)":9202,"sts":9203,"('__":9204,"strs":9205,"LOCAL":9206,"DD":9207,"isco":9208,"Ġhit":9209,"Objects":9210,"uestion":9211,"hasattr":9212,"Ġgeom":9213,"ĠNon":9214,"Ġ([":9215,"Ġparagraph":9216,"Ġrenderer":9217,"ĠLIABLE":9218,"Ġannotation":9219,">/":9220,"Ġdom":9221,"aneous":9222,"Ġurlencode":9223,"OO":9224,"gre":9225,"maker":9226,"HOME":9227,"protocols":9228,"98":9229,"mg":9230,"Ġreload":9231,"unded":9232,"Ġhaving":9233,"Ġlost":9234,"Ġoverridden":9235,"ĠWHETHER":9236,"Identity":9237,"]\\":9238,"Decoder":9239,"weapon":9240,"RGB":9241,"etry":9242,"Ġticket":9243,"ĠExtension":9244,"MAN":9245,"tv":9246,"tested":9247,"Ġradius":9248,"restore":9249,"teardown":9250,"assertDict":9251,"misc":9252,"Shape":9253,"offer":9254,"readlines":9255,"Ġmatched":9256,"))))":9257,"buff":9258,"AGES":9259,"Register":9260,"mixin":9261,"Ġprom":9262,"Ġdp":9263,"unnel":9264,"ĠVAL":9265,"tzinfo":9266,"calculate":9267,"Pattern":9268,"VS":9269,"eriv":9270,"ranges":9271,"ĠShow":9272,"riteria":9273,"Ġcustomer":9274,"ĠStore":9275,"=\"/":9276,"construct":9277,"Ġresulting":9278,"about":9279,"Related":9280,"directories":9281,"silon":9282,"Ġoutside":9283,"ĠProfile":9284,"TABLE":9285,"](":9286,"Ġ31":9287,"ĠGets":9288,"charset":9289,"Ġ123":9290,"Side":9291,"Zip":9292,"),(":9293,"MSG":9294,"Ġaccepts":9295,"SIGN":9296,"Ġ-----":9297,"lain":9298,"quit":9299,"QUE":9300,"1997":9301,"=\"\",":9302,"Repository":9303,"Xml":9304,"ĠGa":9305,"Ġsoft":9306,"Single":9307,"}/{":9308,"izable":9309,"Ġcompiled":9310,"Ġverbosity":9311,"desk":9312,"ij":9313,"Ġ'\\\\":9314,"ĠUI":9315,"BadRequest":9316,"urable":9317,"health":9318,"Ġlearning":9319,"Ġbasename":9320,"Ġintegers":9321,"Lexer":9322,"Ġfrequency":9323,"Ġnn":9324,"Ġbel":9325,"ĠCONTRACT":9326,"splitext":9327,"dictionary":9328,"ĠOb":9329,"sr":9330,"Ġdepends":9331,"illow":9332,"ĠGE":9333,"ĉĉĉĉĉ":9334,"theses":9335,"Ġregistration":9336,"DOWN":9337,"factories":9338,"Ġcap":9339,"Events":9340,"Supported":9341,"multip":9342,"mpath":9343,"ĠUSER":9344,"neg":9345,"dirty":9346,"swap":9347,"Ġissubclass":9348,"ĠStopIteration":9349,"Route":9350,"Ġdep":9351,"Ġdetect":9352,"ĠRedis":9353,"----------------------------------------------------------------":9354,"Ġcipher":9355,"djangoproject":9356,"pur":9357,"Ġdates":9358,"Ġcompleted":9359,"Ġindicates":9360,"craw":9361,"Console":9362,"Ġcompat":9363,"Ġmultiprocessing":9364,"terms":9365,"Ġ(_":9366,"nodelist":9367,"Resolver":9368,"UPPORT":9369,"Ġcycle":9370,"Next":9371,"asource":9372,"Ġear":9373,"pared":9374,"Ġmemo":9375,"ADMIN":9376,"Ġextend":9377,"))]":9378,"ynomial":9379,"Ġgranted":9380,"inted":9381,"logical":9382,"specified":9383,"WIDTH":9384,"LC":9385,"Ġband":9386,"shake":9387,"Mail":9388,"quent":9389,"ĠContainer":9390,"Ġevalu":9391,"Ġdx":9392,"Counter":9393,"Ġjs":9394,"URN":9395,"Ġrecursive":9396,"dating":9397,"()['":9398,"Ġcalendar":9399,"Alias":9400,"Ġcf":9401,"vered":9402,"sic":9403,"Ġ|=":9404,"Blob":9405,"ulse":9406,"Ġproper":9407,"Ġcomparison":9408,"Ġmoduleauthor":9409,"iness":9410,"Ġinvoked":9411,"+\"":9412,"enium":9413,"()``":9414,"aming":9415,"favicon":9416,"swift":9417,"ualen":9418,"PK":9419,"Ġol":9420,"rian":9421,"authorize":9422,"Static":9423,"IDDLEWARE":9424,"outine":9425,"commen":9426,"52":9427,"Ġcid":9428,"visions":9429,"ĠSince":9430,"ĠKEY":9431,"communicate":9432,"Ġnavigation":9433,"peer":9434,"atrices":9435,"schematic":9436,"ĠDomain":9437,"spider":9438,"RST":9439,"vendor":9440,"notifications":9441,"Ġindicating":9442,".'),":9443,"Hub":9444,"Mod":9445,"Ġcar":9446,"ĠWidget":9447,"Ġprepended":9448,"Decode":9449,"ADD":9450,"xlsx":9451,"alone":9452,"Ġfriend":9453,"Ġsin":9454,"Ġperformance":9455,"Util":9456,"Ġgtk":9457,"Ġbecome":9458,"ATTR":9459,"Ġlisted":9460,"ĠCONTRIBUT":9461,"Ġupgrade":9462,"blocking":9463,"votes":9464,"Ġinitialization":9465,"tuples":9466,"Rpc":9467,"TemporaryFile":9468,"MI":9469,"PRI":9470,"tively":9471,"clusters":9472,"rfc":9473,"kg":9474,"Ġ28":9475,"formset":9476,"crease":9477,"ViewSet":9478,"ĠAttributes":9479,"53":9480,"Part":9481,"routing":9482,"(\"<":9483,"pts":9484,"Ġvisual":9485,"512":9486,"History":9487,"Publish":9488,"zure":9489,"into":9490,"ablish":9491,"cally":9492,"queues":9493,"Ġnormalized":9494,"ĠValidationTest":9495,"MULTI":9496,"RA":9497,"embed":9498,"invoke":9499,"ĠConfigParser":9500,"variant":9501,"'ve":9502,"eta":9503,"hits":9504,"land":9505,"Ġissues":9506,"ĠMongo":9507,"objs":9508,"going":9509,"decoder":9510,"sensor":9511,"annotations":9512,"Ġasyn":9513,"pyplot":9514,"threading":9515,"Ġlooks":9516,"anonymous":9517,"Ġrs":9518,"ĠWh":9519,"caps":9520,"ookeeper":9521,"written":9522,"ĠInte":9523,"Ġmimetype":9524,"ĠCONTRIBUTORS":9525,"DNS":9526,"GP":9527,"mx":9528,"Ġrefer":9529,"rit":9530,"smart":9531,"}')":9532,"tis":9533,"tax":9534,"ĠEnum":9535,"intercept":9536,"literal":9537,"Ġtransition":9538,"asket":9539,"illing":9540,"facebook":9541,"Ġreleased":9542,"sembly":9543,"Ip":9544,"album":9545,"minutes":9546,"Height":9547,"Ġstand":9548,"Ġstage":9549,"ĠCONN":9550,"Ġautos":9551,"ching":9552,"staff":9553,"Ġmount":9554,"WSGI":9555,"ircular":9556,"Ġgzip":9557,"97":9558,"]{":9559,"another":9560,"Ġcos":9561,"Ġproblems":9562,"Ġsep":9563,"ĠNAME":9564,"Ġthroughout":9565,"crop":9566,"Ġdistribute":9567,"']):":9568,"Ġobserver":9569,"Ctrl":9570,"ZZ":9571,"Ġage":9572,"Ġrepeat":9573,"Analy":9574,"Ġfallback":9575,"(\"{":9576,"bsocket":9577,"inspect":9578,"rottle":9579,"Spa":9580,"qos":9581,"Ġlu":9582,"atable":9583,"MPTY":9584,"ĠEXPRESS":9585,"Monitor":9586,"Ġpg":9587,"logic":9588,"Queryset":9589,"Note":9590,"Ġpoll":9591,"Ġmesh":9592,"Chain":9593,"serialized":9594,"assignment":9595,"'<":9596,"Public":9597,"audio":9598,"hd":9599,"orical":9600,"Ġincrement":9601,"Ġconversion":9602,"ĠUUID":9603,"Ġscra":9604,"ĠTYPE":9605,"cn":9606,"vided":9607,"Ġarbitrary":9608,"Ġshorter":9609,"Ġdifference":9610,"Ġtxt":9611,"('#":9612,"Ġspaces":9613,"zk":9614,"lets":9615,"Ġadapter":9616,"pike":9617,"TODO":9618,"ĠManager":9619,"Ġhighlighting":9620,"xform":9621,"always":9622,"Ġroutes":9623,"Ġcontextlib":9624,"tracker":9625,"Ġclause":9626,"Ġide":9627,"ĠTCP":9628,"mmar":9629,"fft":9630,"Section":9631,"modindex":9632,"Ġsell":9633,"ĠCommandError":9634,"Ġbinding":9635,"restart":9636,"pyeq":9637,"ĠBaseCommand":9638,"but":9639,"dead":9640,"tivi":9641,"locked":9642,"Checker":9643,"Mapper":9644,"ARCH":9645,"Ġzope":9646,"deserialize":9647,"Ġabc":9648,"Ġdisplayed":9649,"'\")":9650,"Ġsubset":9651,"Ġtranslate":9652,"ĠCollection":9653,"ĠOptionParser":9654,"]\"":9655,"mut":9656,"Ġ\"$":9657,"Ġframes":9658,"IRED":9659,"numeric":9660,"Ġvec":9661,"Ġdemo":9662,"touch":9663,"Ġvtk":9664,"Ġ2006":9665,"Ġhack":9666,"Ġsequences":9667,"ĠProvider":9668,"RuntimeError":9669,"andidates":9670,"hadoop":9671,"Ġfsm":9672,"preamble":9673,"ĠIntangible":9674,"ualenv":9675,"assets":9676,"ĠSave":9677,"trols":9678,"ĠGenerator":9679,"margin":9680,"Axis":9681,"chr":9682,"rences":9683,"Calc":9684,"Ġrestore":9685,"INSERT":9686,"Ġfactories":9687,"behavi":9688,"pan":9689,"Ġcategories":9690,"Enabled":9691,"Ġretval":9692,"ĠHowever":9693,"BAD":9694,"IMAGE":9695,"Ġwebob":9696,"Ġcanvas":9697,"ĠBytesIO":9698,"guid":9699,"Ġmouse":9700,"ĠET":9701,"Ġloads":9702,"ĠURLs":9703,"403":9704,"dry":9705,"}]":9706,"',),":9707,"party":9708,"policies":9709,"capture":9710,"Ġchr":9711,"creds":9712,"ĠPrint":9713,"Ġsigned":9714,"2009":9715,"mkdtemp":9716,"ĠDisplay":9717,"difference":9718,"Fin":9719,"through":9720,"Ġexchange":9721,"REAM":9722,"Ġtoplevel":9723,"realm":9724,"Signal":9725,"\"',":9726,"ocab":9727,"Ġreads":9728,"Initialize":9729,"postgresql":9730,"LEVEL":9731,"stock":9732,"working":9733,"Ġnewline":9734,"Ġexecfile":9735,"QtGui":9736,"ToManyField":9737,"ah":9738,"fb":9739,"Ġopp":9740,"unix":9741,"Ġcookies":9742,"addCleanup":9743,"ĠJson":9744,"posal":9745,"Ġcountry":9746,"NULL":9747,"rome":9748,"();":9749,"elastic":9750,"endpoints":9751,"phase":9752,":,":9753,"Pop":9754,"}):":9755,"tee":9756,"itable":9757,"problem":9758,"REGI":9759,"Validate":9760,"TOP":9761,"each":9762,"jit":9763,"ĠOp":9764,"Left":9765,"guest":9766,"Ġnumeric":9767,"Ġprog":9768,"ĠBar":9769,"ĠREAD":9770,")['":9771,"Pi":9772,"fm":9773,"ĠTheme":9774,"ipant":9775,"Ġapplications":9776,"Ġexpressions":9777,"inlineCallbacks":9778,"tearDown":9779,"Negative":9780,"MAR":9781,"Ġthird":9782,"ami":9783,"XXXX":9784,"ĠWorld":9785,"Ġstmt":9786,"funcs":9787,"Forms":9788,"PAGE":9789,"PUB":9790,"vey":9791,"Ġshall":9792,"centile":9793,"FACT":9794,"bet":9795,"Ġblue":9796,"Ġhuman":9797,"Ġdiction":9798,"Install":9799,"payment":9800,"(.*":9801,"compiled":9802,"Ġteardown":9803,"Ġimmediately":9804,"Lines":9805,"SESSION":9806,"cep":9807,"ĠREST":9808,"INET":9809,"Rect":9810,"Ġ========":9811,"Ġ(?":9812,"Ġmanually":9813,"COOK":9814,"Ġdevices":9815,"51":9816,"aves":9817,"ĠTimeout":9818,"NN":9819,"Ġcut":9820,"Ġinvoke":9821,"webapp":9822,".*')":9823,"chanism":9824,"bing":9825,"ldap":9826,"Ġ\"{}":9827,"Revision":9828,"ĠMac":9829,"...\"":9830,"defs":9831,"Ġmerged":9832,"ĠEOF":9833,"Intended":9834,"Interrupt":9835,"Ġseparator":9836,"vc":9837,"Ġmut":9838,"foreign":9839,"Ġcommented":9840,"Workflow":9841,"dimensions":9842,"mooth":9843,"ILED":9844,"PA":9845,"Ġsizes":9846,"Ġdy":9847,"Ġdecorated":9848,"Ġanalysis":9849,"Ġduplicate":9850,"mapp":9851,"Ġlibraries":9852,"Ġnetworks":9853,"âĶĢâĶĢâĶĢâĶĢ":9854,"rical":9855,"Ġlar":9856,"Ġtraj":9857,"arest":9858,"Disk":9859,"Sig":9860,"Users":9861,"Ġtrip":9862,"Ġcoordinate":9863,"lar":9864,"continue":9865,"gene":9866,"given":9867,"Ġmixin":9868,"ĠAudience":9869,"what":9870,"Ġmigration":9871,"ĠHelper":9872,"ORIZ":9873,"afka":9874,"INSTALLED":9875,"degree":9876,"ysical":9877,"ĠElse":9878,"Ġreversed":9879,"ĠLIABILITY":9880,"NAMESPACE":9881,"Ġdashes":9882,"gyp":9883,"Ġcss":9884,"Ġmultip":9885,"putVarInt":9886,"TRAN":9887,"ency":9888,"Conv":9889,"Ġtrying":9890,"Ġ128":9891,"ĠNameError":9892,"??":9893,"ĠPAT":9894,"...\")":9895,"Ġzeros":9896,"Ġcleaned":9897,"wikipedia":9898,"Err":9899,"Ġser":9900,"Ġite":9901,"Ġinteractive":9902,"Ġtodo":9903,"Ġtouch":9904,"Ġgreater":9905,"imports":9906,"Ġmaking":9907,"Ġassignment":9908,"Eval":9909,"Ġcrypto":9910,"Ġdevelopment":9911,"SED":9912,"Additional":9913,"expanduser":9914,"recursive":9915,"Ġcent":9916,"uby":9917,"photo":9918,"01234":9919,"rouped":9920,"ĠCluster":9921,"StubOut":9922,"atever":9923,"quot":9924,"=='":9925,"REF":9926,"Ġphone":9927,"Ġspecifying":9928,"Ġttl":9929,"sioned":9930,"{}'.":9931,"ĠEntity":9932,"ĠCorp":9933,"SING":9934,"lsxWriter":9935,"Ab":9936,"bam":9937,"Ġsheets":9938,"Sim":9939,"sal":9940,"}))":9941,"Ġalert":9942,"\")]":9943,"company":9944,"Optional":9945,"autodoc":9946,"Ġthough":9947,"Ġtogether":9948,"ĠCom":9949,"ĠFrom":9950,"Ġautodoc":9951,"hoo":9952,"weak":9953,"ĠXlsxWriter":9954,"ICATION":9955,"ĠQQ":9956,"ropout":9957,"Ġpyglet":9958,"sms":9959,"SCRI":9960,"ggle":9961,"Redis":9962,"Ġpb":9963,"ĠFail":9964,"Ġpay":9965,"irth":9966,"locator":9967,"staticfiles":9968,"assertDictEqual":9969,"ĠEntry":9970,"Ġarticle":9971,"scriptors":9972,"ĠParser":9973,"tls":9974,"Ġer":9975,"Ġaccepted":9976,"xxxx":9977,"Ġpositional":9978,"ĠFacebook":9979,"ĠRES":9980,"transfer":9981,"Encoding":9982,"ĠLaboratories":9983,"Word":9984,"Ġ'&":9985,"Ġsing":9986,"Ġsolution":9987,"Ġlevels":9988,"Traits":9989,"highlight":9990,"ĠMust":9991,"Ġpredicate":9992,"Ġtextwrap":9993,"Ġdebugging":9994,"retrieve":9995,"$')":9996,"Ġdatasets":9997,"Ġfeel":9998,"modify":9999}