#version: 0.2
Ġ Ġ
i n
Ġ =
u m
p r
in t
pr int
( "
< /
r s
Ġ </
" ,
Ġ a
e rs
n um
m e
ĠĠ Ġ
: ",
Ġ "
r e
n a
na me
b ers
num bers
i s
o u
Ġ print
u l
Ġ b
o n
Ġ 1
Ġ s
Ġ re
t e
g e
" )
n t
ou nt
. ")
o f
Ġ +
Ġ is
Ġ f
x t
te xt
e l
Ġ 2
o r
e v
c ount
e n
i f
Ġ count
Ġ numbers
ul t
) :
Ġ 0
Ġ x
Ġ in
Ġ num
r n
t u
Ġre tu
Ġretu rn
i on
Ġ name
r a
r o
a l
d e
a re
q u
Ġs um
qu are
e d
s e
Ġ >
Ġ of
ers on
Ġ m
Ġ de
el se
Ġde f
" :
a x
d ro
p al
p erson
t ion
Ġ %
Ġ text
Ġ ev
in dro
Ġ= =
ers ed
ul l
pal indro
Ġev en
palindro me
a s
Y ou
n ge
s ult
Ġ i
Ġ n
Ġa re
Ġa ge
Ġs quare
Ġre sult
l as
Ġ *
Ġ -
Ġ [
Ġ y
Ġ ra
Ġa n
Ġf or
Ġra nge
" ]
: -
: :-
[ "
[ ::-
a ge
d d
i rs
t w
v ersed
Ġ o
Ġ if
Ġ person
ĠĠ ĠĠ
Ġf irs
Ġm ax
las t
"] ,
tw o
ĠĠĠĠ ĠĠĠ
Ġfirs t
Ġ 3
e r
i l
Ġ 4
Ġ1 8
l i
Ġ 5
c a
ra c
c i
u s
l o
t y
I s
T h
h il
i p
u b
Ġ 6
um b
Ġ1 0
C ount
D i
M o
N umb
S um
S quare
d ult
e a
f or
l d
s um
v is
w hil
Ġ z
in or
Ġa dult
Ġ+ =
el lo
Ġ> =
Ġm inor
Ġ- =
Th e
Numb er
whil e
" }
) )
, ",
? ",
A dd
E n
E v
F ull
H ello
M ult
M ax
R ev
S ub
d ul
f ull
i tion
p u
t rac
y ea
{ "
Ġ '
Ġ /
Ġ else
Ġ palindrome
Ġ last
Ġ {"
Ġ" )
re versed
ou r
Ġ1 2
Ġre versed
te r
") )
Ġf ull
Ġin pu
Ġy our
Ġan d
Ġo dd
Ġo ld
li ca
ci ty
ip lica
Di vis
Mo dul
Add ition
En ter
Ev en
Mult iplica
Rev ersed
Sub trac
yea rs
Ġinpu t
Divis ion
Modul us
Multiplica tion
Subtrac tion
Ġ 7
Ġ 8
Ġ 9
Ġ1 1
Ġ1 3
a r
Ġ1 4
1 0
Ġ3 0
Ġ2 0
Ġ2 5
l ev
lev el
a n
Ġ1 5
Ġ4 0
Ġ6 0
i a
Ġ3 5
Ġ4 5
Ġ5 0
1 2
3 0
Ġ2 4
Ġ5 5
Ġ6 5
Ġ10 0
Ġ10 5
Ġ12 0
Ġ12 5
Ġ7 0
Ġ7 5
Ġ8 0
Ġ8 5
Ġ9 0
Ġ9 5
Ġ11 0
Ġ11 5
Ġ13 0
Ġ13 5
1 1
d ar
e z
m a
s t
t or
Ġ2 2
Ġ2 7
Ġ2 8
ro tor
2 0
a m
e t
g as
l a
l e
p h
s on
t in
Ġ1 6
Ġ2 1
Ġ2 3
Ġ2 6
rac e
Ġ14 0
1 5
4 0
6 0
8 0
C h
J a
M ar
a t
a gas
c k
d am
f er
n o
n et
s c
s agas
t h
v a
re fer
Ġ1 7
Ġ1 9
te net
Ġ2 9
ra dar
Ġ3 2
Ġ4 2
ca r
Ġ14 5
ma dam
st at
tin ez
race car
Ja ck
Mar tinez
no on
stat s
1 3
2 1
2 5
7 0
9 0
E l
J o
L o
O li
S an
g o
i c
i x
p er
v er
v il
Ġ3 3
Ġ3 4
Ġ3 6
Ġ3 8
Ġ3 9
Ġ4 4
Ġ4 8
Ġ5 4
ph ia
vil le
1 6
1 8
1 10
1 30
2 4
2 6
2 7
3 6
4 5
5 0
5 1
6 6
A n
A va
B o
D a
E m
G ar
H en
H an
I v
K a
L u
L ia
M e
M as
M il
M ia
N o
S o
W il
a b
a h
a va
c s
c as
d erson
e sc
g an
h n
h o
h ar
i r
i ed
j ava
l er
o e
p y
p esc
r y
r us
r ip
r ub
v ic
Ġ A
el la
el ix
if ied
al a
de ified
as h
Ġ3 1
Ġ3 7
Ġ4 3
Ġ5 2
Ġ5 7
Ġ5 8
ci a
ci vic
ty pesc
Is ab
Ġ6 3
Ġ6 9
10 0
Ġ15 0
12 0
dar t
st on
Ch ar
sc ala
th on
Jack son
El la
Jo hn
Oli ver
per l
An derson
Gar cia
Hen ry
Iv y
Ka te
Lu cas
Lia m
Mas on
Mil ler
No ah
So phia
cs har
py thon
rus t
rip t
rub y
elix ir
typesc ript
Isab ella
cshar p
