{"<s>":0,"<pad>":1,"</s>":2,"<unk>":3,"<mask>":4,"<N>":5,"!":6,"\"":7,"#":8,"$":9,"%":10,"&":11,"'":12,"(":13,")":14,"*":15,"+":16,",":17,"-":18,".":19,"/":20,"0":21,"1":22,"2":23,"3":24,"4":25,"5":26,"6":27,"7":28,"8":29,"9":30,":":31,";":32,"<":33,"=":34,">":35,"?":36,"@":37,"A":38,"B":39,"C":40,"D":41,"E":42,"F":43,"G":44,"H":45,"I":46,"J":47,"K":48,"L":49,"M":50,"N":51,"O":52,"P":53,"Q":54,"R":55,"S":56,"T":57,"U":58,"V":59,"W":60,"X":61,"Y":62,"Z":63,"[":64,"\\":65,"]":66,"^":67,"_":68,"`":69,"a":70,"b":71,"c":72,"d":73,"e":74,"f":75,"g":76,"h":77,"i":78,"j":79,"k":80,"l":81,"m":82,"n":83,"o":84,"p":85,"q":86,"r":87,"s":88,"t":89,"u":90,"v":91,"w":92,"x":93,"y":94,"z":95,"{":96,"|":97,"}":98,"~":99,"¡":100,"¢":101,"£":102,"¤":103,"¥":104,"¦":105,"§":106,"¨":107,"©":108,"ª":109,"«":110,"¬":111,"®":112,"¯":113,"°":114,"±":115,"²":116,"³":117,"´":118,"µ":119,"¶":120,"·":121,"¸":122,"¹":123,"º":124,"»":125,"¼":126,"½":127,"¾":128,"¿":129,"À":130,"Á":131,"Â":132,"Ã":133,"Ä":134,"Å":135,"Æ":136,"Ç":137,"È":138,"É":139,"Ê":140,"Ë":141,"Ì":142,"Í":143,"Î":144,"Ï":145,"Ð":146,"Ñ":147,"Ò":148,"Ó":149,"Ô":150,"Õ":151,"Ö":152,"×":153,"Ø":154,"Ù":155,"Ú":156,"Û":157,"Ü":158,"Ý":159,"Þ":160,"ß":161,"à":162,"á":163,"â":164,"ã":165,"ä":166,"å":167,"æ":168,"ç":169,"è":170,"é":171,"ê":172,"ë":173,"ì":174,"í":175,"î":176,"ï":177,"ð":178,"ñ":179,"ò":180,"ó":181,"ô":182,"õ":183,"ö":184,"÷":185,"ø":186,"ù":187,"ú":188,"û":189,"ü":190,"ý":191,"þ":192,"ÿ":193,"Ā":194,"ā":195,"Ă":196,"ă":197,"Ą":198,"ą":199,"Ć":200,"ć":201,"Ĉ":202,"ĉ":203,"Ċ":204,"ċ":205,"Č":206,"č":207,"Ď":208,"ď":209,"Đ":210,"đ":211,"Ē":212,"ē":213,"Ĕ":214,"ĕ":215,"Ė":216,"ė":217,"Ę":218,"ę":219,"Ě":220,"ě":221,"Ĝ":222,"ĝ":223,"Ğ":224,"ğ":225,"Ġ":226,"ġ":227,"Ģ":228,"ģ":229,"Ĥ":230,"ĥ":231,"Ħ":232,"ħ":233,"Ĩ":234,"ĩ":235,"Ī":236,"ī":237,"Ĭ":238,"ĭ":239,"Į":240,"į":241,"İ":242,"ı":243,"Ĳ":244,"ĳ":245,"Ĵ":246,"ĵ":247,"Ķ":248,"ķ":249,"ĸ":250,"Ĺ":251,"ĺ":252,"Ļ":253,"ļ":254,"Ľ":255,"ľ":256,"Ŀ":257,"ŀ":258,"Ł":259,"ł":260,"Ń":261,"><":262,"pa":263,"pad":264,"ĠĠ":265,"ĠĠĠĠ":266,"ĠĠĠ":267,"ĠĠĠĠĠĠĠ":268,"in":269,"or":270,"se":271,"on":272,"at":273,"er":274,"en":275,"Ġ=":276,"Ġt":277,"re":278,")<":279,"st":280,"de":281,"></":282,"im":283,"ĠĠĠĠĠĠĠĠĠĠĠ":284,"ro":285,":<":286,"le":287,"an":288,"ion":289,"al":290,"lf":291,"self":292,"ch":293,"it":294,"ar":295,"Ġf":296,"lo":297,"ut":298,"am":299,"as":300,"es":301,"he":302,"Ġ\"":303,",<":304,"ort":305,"ct":306,"Ġself":307,"Ġn":308,"port":309,"Ġm":310,"Ġre":311,"Ġc":312,"Ġi":313,"ge":314,"Ġs":315,"ode":316,"import":317,"ing":318,"Ġin":319,"ed":320,"rom":321,"ur":322,"Ġp":323,"ent":324,"ex":325,"Ġd":326,"ad":327,"pt":328,"Ġo":329,"):<":330,"ic":331,"Ġthe":332,"el":333,"Ġa":334,"def":335,"um":336,"ĠĠĠĠĠĠĠĠĠĠĠĠĠĠĠ":337,"un":338,"Ġ#":339,"th":340,"pe":341,"ra":342,"odel":343,"id":344,"ot":345,"ue":346,"ig":347,"Ġb":348,"Ġimport":349,"from":350,"iz":351,"urn":352,"turn":353,"ate":354,"ata":355,"__":356,"em":357,"str":358,"Ġl":359,"Ġw":360,"ul":361,"Ġ(":362,"Ġif":363,"ce":364,"ame":365,"int":366,"and":367,"--":368,"\"<":369,"Ġreturn":370,"ext":371,"di":372,"Ġfor":373,"Ġto":374,"co":375,"put":376,"orch":377,"is":378,"one":379,"age":380,"Ġdef":381,"il":382,"ĠĠĠĠĠĠĠĠ":383,"arg":384,"to":385,"ck":386,"]<":387,"ist":388,"po":389,"con":390,"et":391,"Ġ-":392,"get":393,"ĠT":394,".<":395,"()<":396,"pl":397,"ation":398,"orm":399,"ol":400,"qu":401,"ab":402,"log":403,"par":404,">#":405,"Ġas":406,"val":407,"ĠN":408,"Ġ*":409,"ize":410,"ple":411,"ile":412,"Ġ1":413,"ers":414,"Ġ[":415,"Ġis":416,"Ġ'":417,"cl":418,"args":419,"ens":420,"set":421,"(\"":422,"Ġtorch":423,"ĠA":424,"ran":425,"ĠC":426,"ction":427,"ht":428,"ĠL":429,"()":430,"\",":431,"ser":432,"ve":433,"res":434,"path":435,"\")<":436,"Ġg":437,"ess":438,"Ġof":439,"ass":440,"ke":441,"\"\"<":442,"Ġ{":443,"ult":444,"Ġcon":445,"if":446,"model":447,"ay":448,"(<":449,"ype":450,"name":451,"data":452,"ĠNone":453,"ep":454,"up":455,"size":456,"Ġ+":457,"Ġ0":458,"ĠS":459,"ri":460,"text":461,"all":462,"end":463,"om":464,"ption":465,"ith":466,"Ġh":467,"==":468,"..":469,"rain":470,"ap":471,"Ġand":472,"ax":473,"Ġst":474,"od":475,"\":":476,"ss":477,"Ġ2":478,"[\"":479,"ine":480,"##":481,"att":482,"ask":483,"\"]":484,"Ġ<":485,"atch":486,"Ġmodel":487,"class":488,"us":489,"Ġstr":490,"ight":491,"ime":492,"ĠD":493,"logg":494,"py":495,"form":496,"fig":497,"Ġx":498,"rans":499,"ver":500,"Ġde":501,"Ġr":502,"ag":503,"----":504,"Ġnot":505,"pro":506,"Ġnum":507,"ha":508,"image":509,"load":510,"Ġe":511,"emb":512,"ice":513,"Ġ\"\"\"<":514,"Ġel":515,"ĠF":516,"out":517,"rint":518,"ample":519,"ĠR":520,"der":521,"ensor":522,"cor":523,"able":524,"ken":525,"rue":526,"ĠP":527,"init":528,"Ġdata":529,"))<":530,"Ġex":531,"Ġ)<":532,"ĠI":533,"len":534,"ew":535,"ip":536,"Ġ==":537,"\",<":538,"che":539,"rompt":540,"ĠO":541,"num":542,"ĠĠĠĠĠĠĠĠĠĠĠĠĠĠĠĠĠĠĠ":543,"key":544,"Ġth":545,"os":546,"que":547,"],":548,"ase":549,"hape":550,"vi":551,"type":552,"ding":553,"ense":554,"ff":555,"Ġwith":556,"ter":557,"dim":558,"Ġres":559,"ow":560,"Ġnp":561,"file":562,"Ġ->":563,"vice":564,"',":565,"Ġpar":566,"ang":567,"icense":568,"ror":569,"ĠM":570,"est":571,"pre":572,"Ġelse":573,"=\"":574,"00":575,"Ġfrom":576,"Ġor":577,"ctor":578,").":579,"Ġos":580,"Ġpro":581,"Ġse":582,"train":583,"Ġprint":584,"Ġ__":585,"ment":586,"embed":587,"Ġout":588,"Ġ/":589,"gr":590,"ule":591,"ast":592,"logger":593,"ib":594,"Ġu":595,"izer":596,"Ġj":597,"torch":598,"Ġget":599,"app":600,"cess":601,"head":602,"ener":603,"ain":604,"ance":605,"per":606,"els":607,"add":608,"son":609,"Ġ_":610,"),":611,"gth":612,"lock":613,"Ġv":614,"Ġval":615,"com":616,"Ġdi":617,"ann":618,"time":619,"pon":620,"Ġ3":621,"ca":622,"ub":623,"Ġy":624,"util":625,"ages":626,"alse":627,"True":628,"je":629,"ure":630,"dict":631,"ĠE":632,"dir":633,"====":634,"Ġro":635,"('":636,"loat":637,"__(":638,"odule":639,"á´":640,"Ġqu":641,"ĠĠĠĠĠĠĠĠĠĠĠĠĠĠĠĠ":642,"ard":643,"ĠLicense":644,"ates":645,"ions":646,"ransform":647,"ave":648,"['":649,"kw":650,"IN":651,"config":652,"ack":653,"step":654,"kwargs":655,"Ġch":656,"Ġfile":657,"Ġinput":658,"####":659,"ry":660,"ant":661,"Ġint":662,"Ġlen":663,"quest":664,"}<":665,"code":666,"._":667,"Ġimage":668,"bo":669,"ptional":670,"Ġan":671,"batch":672,"append":673,"input":674,"...":675,"kens":676,"Ġon":677,"point":678,"eight":679,"ĠU":680,"ll":681,"ind":682,"lay":683,"Ġun":684,"idd":685,"unction":686,"Ġbe":687,"cri":688,"ĠB":689,"loss":690,"ise":691,"Ġnn":692,"ON":693,"yn":694,"pen":695,"ĠG":696,"shape":697,"),<":698,"list":699,"art":700,"essage":701,"ix":702,"me":703,"utils":704,"ponse":705,"Ġen":706,"ial":707,"Ġ>":708,"pos":709,"nn":710,"idden":711,"length":712,"ery":713,"ault":714,"inf":715,"ĠV":716,"token":717,"rror":718,"ids":719,"ĠW":720,"tent":721,"Ġ**":722,"av":723,"[:":724,"Ġtext":725,"red":726,"udi":727,"--------":728,"Error":729,"ument":730,"qui":731,"ir":732,"jo":733,"udio":734,"():<":735,"().":736,"ou":737,"ched":738,"ence":739,"EN":740,"param":741,"ps":742,"wer":743,"\"\"":744,"']":745,"ly":746,"Ġim":747,"device":748,"ity":749,"max":750,"Ġoutput":751,"wor":752,"logging":753,"Ġ`":754,"\"\"\"<":755,"ator":756,"ĠOptional":757,"its":758,"')<":759,"check":760,"Ġuse":761,"our":762,"und":763,"oc":764,"Ġcom":765,"ices":766,"dex":767,"Ġ:":768,"Ġmax":769,"Model":770,"ern":771,"Ġpa":772,"angle":773,"Con":774,"mask":775,"sert":776,"sh":777,"':":778,"arget":779,"ward":780,"ail":781,"ER":782,"unt":783,"Ġtime":784,"urr":785,"Ġwh":786,"ync":787,"mat":788,"ĠThe":789,"None":790,"output":791,"Ġdim":792,"Ġlist":793,"Ġk":794,"Ġmat":795,"prompt":796,"ject":797,"cept":798,"states":799,"Ġsup":800,"tokens":801,"Ġsh":802,"usion":803,"norm":804,"chann":805,"ention":806,"spe":807,"ĠRe":808,"])<":809,"nt":810,"embedding":811,"AT":812,"htt":813,"ace":814,"ient":815,"ool":816,"range":817,"Ġcl":818,"Ġap":819,"ition":820,"Ġresult":821,"Ġtrain":822,"iff":823,"].":824,"ph":825,"\")":826,"Ġit":827,"stance":828,"ac":829,"Ġpre":830,"//":831,"own":832,"ST":833,"chedul":834,"ber":835,"yp":836,"Ġatt":837,"ict":838,"sample":839,"Ġtoken":840,"ore":841,"Ġco":842,"Ġra":843,"coder":844,"eat":845,"ne":846,"Ġ.":847,"rg":848,"ive":849,"of":850,"Ġby":851,"://":852,"ory":853,"Ġlog":854,"ray":855,"tensor":856,"dataset":857,"inal":858,"idx":859,"value":860,"reate":861,"):":862,"SE":863,"low":864,"ning":865,"False":866,"loc":867,"Ġprompt":868,"iv":869,"Ġsy":870,"ipel":871,"ds":872,"DI":873,"Ġ[]<":874,"Ġargs":875,"state":876,"zer":877,"ud":878,"user":879,"weight":880,"cale":881,"Ġq":882,"back":883,"ses":884,"Ġtype":885,"info":886,"Ġ4":887,"Ġare":888,"Tensor":889,"array":890,"abel":891,"Ġlogging":892,"read":893,"env":894,"Ġkey":895,"ated":896,"Ġdevice":897,"ies":898,"wa":899,"Ġrequi":900,"ations":901,"ake":902,"np":903,"steps":904,"ob":905,"error":906,"thod":907,"plit":908,"ĠH":909,"OR":910,"nd":911,"fg":912,"DE":913,"trans":914,"AM":915,"Ġpo":916,"otion":917,"Ġbatch":918,"rit":919,"Ġ(<":920,"ĠTrue":921,"Ġthis":922,"float":923,"Ġsuper":924,"TI":925,"mo":926,"ames":927,"vel":928,"join":929,"Ġax":930,"ust":931,"Ġdefault":932,"col":933,"index":934,"ai":935,"ues":936,"let":937,"Ġsample":938,"channels":939,"json":940,"ĠList":941,"Ġal":942,"andom":943,"ans":944,"In":945,"Ġunder":946,"Ġ\"\"\"":947,"St":948,"node":949,"([":950,"cheduler":951,">#<":952,"ipeline":953,"inear":954,"Ġconfig":955,"andl":956,"Ġpy":957,"ded":958,"rix":959,"Ġ@":960,"ec":961,"ĠIn":962,"grad":963,"Ġdataset":964,"\"]<":965,"urrent":966,"'<":967,"],<":968,"atern":969,"Ġgener":970,"min":971,"='":972,"ok":973,"Ġid":974,"lat":975,"Ġnew":976,"ĠĠĠĠĠĠĠĠĠĠĠĠĠĠĠĠĠĠĠĠĠĠĠ":977,"Ġmask":978,"Ġload":979,"ersion":980,"base":981,"ĠCon":982,"Ġall":983,"Ġjson":984,"Ġexcept":985,"[:,":986,"block":987,"io":988,"ĠK":989,"mage":990,"result":991,"count":992,"ary":993,"Ġset":994,"\":<":995,"Ġassert":996,"LE":997,"Ġ%":998,"========":999,"core":1000,"}\")<":1001,"print":1002,"Ġrange":1003,"ign":1004,"ayer":1005,"gram":1006,"Ġ+=":1007,"Ġraise":1008,"Ġgr":1009,"strib":1010,"stribut":1011,"02":1012,"RE":1013,"ug":1014,"essages":1015,"op":1016,"eta":1017,"Ġme":1018,"Ġvalue":1019,"Lo":1020,"ptim":1021,"checkpoint":1022,"Ġlogger":1023,"vert":1024,"stem":1025,"ctory":1026,"heads":1027,"andler":1028,"ach":1029,"argument":1030,"view":1031,"test":1032,"roup":1033,"ree":1034,"ound":1035,"ere":1036,"Ġparam":1037,"ĠUn":1038,"AN":1039,"Ġname":1040,"ias":1041,"Ġelif":1042,"ters":1043,"ĠFalse":1044,"**":1045,"rop":1046,"process":1047,"uple":1048,"32":1049,"instance":1050,"Ġtensor":1051,"Ġtyp":1052,"lob":1053,"########":1054,"ransformers":1055,"rect":1056,"lot":1057,"Ġthat":1058,"PI":1059,"Ġ{<":1060,"layer":1061,"date":1062,"ision":1063,"trained":1064,"ropo":1065,"item":1066,"Ġ[\"":1067,"ropout":1068,"ak":1069,"12":1070,"ric":1071,"otal":1072,"Re":1073,"ress":1074,"unc":1075,"ill":1076,"ĠAn":1077,"ama":1078,"params":1079,"Ġhidden":1080,"Ġcontext":1081,"Ġspe":1082,"for":1083,"Ġob":1084,"context":1085,"his":1086,"Ġresponse":1087,"SI":1088,"hidden":1089,"\"])<":1090,"Ġ...":1091,"ces":1092,"Ġpos":1093,">>":1094,"ied":1095,"Ġhtt":1096,"())<":1097,"Ġstate":1098,"cription":1099,"Ġopen":1100,"ream":1101,">@":1102,"extra":1103,"ĠQ":1104,"...,":1105,"LI":1106,"ole":1107,"ĠArg":1108,"Ġtarget":1109,"ide":1110,"Ġtyping":1111,"Ġcont":1112,"Ġyou":1113,"LM":1114,"poch":1115,"empl":1116,"iffusion":1117,"Ġ5":1118,"start":1119,"Ġrun":1120,"plet":1121,"diff":1122,".\")<":1123,"format":1124,"cord":1125,"ĠModel":1126,">)<":1127,"Ġasync":1128,"gn":1129,"ĠEx":1130,"main":1131,"Ġle":1132,"query":1133,"cript":1134,"ĠReturn":1135,"fl":1136,"save":1137,"iel":1138,"content":1139,"pat":1140,"Ġtest":1141,"spect":1142,"uff":1143,"vide":1144,"new":1145,"ints":1146,"act":1147,"Ġfloat":1148,"Ġup":1149,"feat":1150,"ari":1151,"url":1152,"ents":1153,"ĠArgs":1154,"emplate":1155,"stributed":1156,"Ġcol":1157,"Ġmessage":1158,"ply":1159,"sum":1160,"Ġnumpy":1161,"work":1162,"ĠAny":1163,"((":1164,"split":1165,"AR":1166,"lib":1167,"ctions":1168,"ulti":1169,"16":1170,"Ġac":1171,"alue":1172,"Ġfunction":1173,"cont":1174,"response":1175,"conv":1176,"Ġper":1177,"etric":1178,"Module":1179,"method":1180,"Ġtry":1181,"eval":1182,"Ġhe":1183,"unk":1184,"rame":1185,"Ġshape":1186,"pose":1187,"mean":1188,"Ġ>>>":1189,"Ġtokenizer":1190,"Ġrot":1191,"box":1192,"Ġwor":1193,"]:<":1194,"cat":1195,"function":1196,"Ġca":1197,"los":1198,"Ġnode":1199,"Ġne":1200,"Ġmodule":1201,"oft":1202,"ute":1203,"Ġpath":1204,"[-":1205,"idth":1206,"Ġspec":1207,"message":1208,"ron":1209,"Ġcode":1210,"ES":1211,"Ġbool":1212,"af":1213,"Ġhas":1214,"ource":1215,"ĠReturns":1216,"ameters":1217,"iter":1218,"Ġquery":1219,"lt":1220,"ends":1221,"abels":1222,"ath":1223,"Ġ!":1224,"uto":1225,"Ġloss":1226,"Ġsub":1227,"right":1228,"pache":1229,"AG":1230,"pu":1231,"To":1232,"with":1233,"prob":1234,"CH":1235,"pretrained":1236,"----------------":1237,"ures":1238,"run":1239,"Ġ!=":1240,"cur":1241,"().__":1242,"sed":1243,"ader":1244,"DIR":1245,"])":1246,"ww":1247,"Ġaxis":1248,"Ġat":1249,"cfg":1250,"layers":1251,"Ġclass":1252,"lect":1253,"stru":1254,"ĠSt":1255,"da":1256,"Ġans":1257,"gener":1258,"place":1259,"iss":1260,"plic":1261,"Ġaudio":1262,"Ġparser":1263,"ailable":1264,"arch":1265,"erate":1266,"etun":1267,"parse":1268,"wait":1269,"scale":1270,"ark":1271,"ception":1272,"ilter":1273,"indow":1274,"ms":1275,"Pipeline":1276,"sq":1277,"Ġsys":1278,"Ġmay":1279,"Ġdtype":1280,"rot":1281,"ution":1282,"Ġquatern":1283,"Ġ}<":1284,"ING":1285,"ĠDe":1286,"Par":1287,"Ġuser":1288,"angles":1289,"audio":1290,"Ġbase":1291,"Ġforward":1292,"Ġnumber":1293,"zero":1294,"dtype":1295,"))":1296,"Ġblock":1297,"Ġno":1298,"ĠData":1299,"ĠDict":1300,"loader":1301,"models":1302,"tes":1303,"ody":1304,"irst":1305,"gist":1306,"cho":1307,"ma":1308,"ual":1309,"viron":1310,"sc":1311,"by":1312,"Ġembedding":1313,"encoder":1314,"task":1315,"ines":1316,"ĠY":1317,"no":1318,"ally":1319,"ampl":1320,"Ġinspect":1321,"eps":1322,"\"{":1323,"Ġdistributed":1324,"module":1325,"Ġweight":1326,"question":1327,"Ġexp":1328,"ĠSe":1329,"Data":1330,"Ġeval":1331,"sub":1332,"root":1333,"ther":1334,"valid":1335,"Ġrandom":1336,"attr":1337,"__()<":1338,"ĠCo":1339,"erence":1340,"Ġidx":1341,"itial":1342,"Ġspecif":1343,"df":1344,"PT":1345,"Ġstart":1346,"cls":1347,"sent":1348,"Ġsave":1349,"10":1350,"alc":1351,"Ġrequest":1352,"raph":1353,"lobal":1354,"net":1355,"ml":1356,"mode":1357,"Ġwe":1358,"cogn":1359,"=-":1360,"ho":1361,"target":1362,"ns":1363,"Ġlast":1364,"Ġprocess":1365,"'s":1366,"tra":1367,"angu":1368,"arning":1369,"Ġnorm":1370,"Ġisinstance":1371,"anguage":1372,"``":1373,"rol":1374,"ull":1375,"sy":1376,"amb":1377,"db":1378,"uil":1379,"imit":1380,"alueError":1381,"64":1382,"IG":1383,"Ġtask":1384,"Ġawait":1385,"Ġ[<":1386,"ĠThis":1387,"Linear":1388,"group":1389,"tr":1390,"uld":1391,"plot":1392,"values":1393,"down":1394,"Ġadd":1395,"enc":1396,"scor":1397,"dm":1398,"Ġ|":1399,"embeds":1400,"Ġrequired":1401,"AS":1402,"fix":1403,"open":1404,"ick":1405,"isode":1406,"ield":1407,"TH":1408,"line":1409,"api":1410,"ments":1411,"Ġconv":1412,"cache":1413,"Ġtotal":1414,"reed":1415,"itions":1416,"nection":1417,"call":1418,"the":1419,"Ġmodels":1420,"map":1421,"ote":1422,"diffusion":1423,"\"],<":1424,"hat":1425,"Ġmessages":1426,"attention":1427,"Ġmatrix":1428,"video":1429,"Type":1430,"Ġz":1431,"Ġpad":1432,"llm":1433,"img":1434,"ger":1435,"Config":1436,"')":1437,"blocks":1438,"stat":1439,"label":1440,"Ġcontent":1441,"ptions":1442,"gister":1443,"ft":1444,"over":1445,"Ġcopy":1446,"ptimizer":1447,"\".":1448,"comm":1449,"Ġdict":1450,"Dict":1451,"utput":1452,"tool":1453,"ich":1454,"Ð°":1455,"Ġ{\"":1456,"ĠValueError":1457,"Ġdo":1458,"Mix":1459,"RO":1460,"Ġmin":1461,"Ġpart":1462,"Ġcurrent":1463,"object":1464,"emotion":1465,"uc":1466,"ze":1467,"use":1468,"ins":1469,"Ġag":1470,";<":1471,"[...,":1472,"UL":1473,"rate":1474,"body":1475,"seed":1476,"bar":1477,"dot":1478,"Ġlabel":1479,"Ġsystem":1480,"Ġrequires":1481,"async":1482,"Ġeach":1483,"Ġattention":1484,"Net":1485,"Ġsize":1486,"thon":1487,"ld":1488,"iginal":1489,"ov":1490,"Ġve":1491,"role":1492,"Ġimages":1493,"istory":1494,"olution":1495,"Mixin":1496,".\"\"\"<":1497,"func":1498,"points":1499,"uda":1500,"old":1501,"pyright":1502,"(-":1503,"Scheduler":1504,"Ġdis":1505,"TO":1506,"][":1507,"backends":1508,"TION":1509,"ambda":1510,"Ġfl":1511,"attn":1512,"atter":1513,"ware":1514,"ey":1515,"org":1516,"available":1517,"Ġll":1518,"Ġwill":1519,"Ġrow":1520,"shot":1521,"TE":1522,"og":1523,"axis":1524,"complet":1525,"Ġtraining":1526,"bias":1527,"ature":1528,"Ġhttps":1529,"']<":1530,"FA":1531,"Ġattn":1532,"Pro":1533,"rite":1534,"Ġsc":1535,"Ġ//":1536,"fa":1537,"pth":1538,"zeros":1539,"last":1540,"ization":1541,"coding":1542,"Ġus":1543,"Ġimg":1544,"word":1545,"={":1546,"ĠCopyright":1547,"ould":1548,"ĠUnion":1549,"emory":1550,"cond":1551,"Ġtrans":1552,"Ġcor":1553,"Ġdire":1554,"inputs":1555,"matrix":1556,"request":1557,"ized":1558,"Ġdes":1559,"Ġcreate":1560,"pute":1561,"Image":1562,"epoch":1563,"cel":1564,"asses":1565,").<":1566,"qdm":1567,"coded":1568,"aw":1569,"(__":1570,"},<":1571,"á´ĩ":1572,"answer":1573,"nake":1574,"024":1575,"vision":1576,"ists":1577,"names":1578,"Ġtransformers":1579,"level":1580,"queue":1581,"te":1582,"episode":1583,"Ġad":1584,"ĠĠĠĠĠ":1585,"ash":1586,"tokenizer":1587,"Diffusion":1588,"EY":1589,"current":1590,"ude":1591,"ENSE":1592,"cuda":1593,"}\"<":1594,"part":1595,"parser":1596,"Prompt":1597,"Ġstep":1598,"File":1599,"Res":1600,"Ġcfg":1601,"20":1602,"are":1603,"Ġ8":1604,"drop":1605,"Cl":1606,"top":1607,">\"\"\"<":1608,"ĠImage":1609,"weights":1610,"Ġtop":1611,"':<":1612,"CENSE":1613,"Ġfound":1614,"play":1615,"Train":1616,"vent":1617,"pred":1618,"patch":1619,"Ġinputs":1620,"ĠException":1621,"color":1622,"transform":1623,"itle":1624,"Ġanswer":1625,"pert":1626,"25":1627,"IL":1628,"game":1629,"mark":1630,"ðĿ":1631,"Ġlo":1632,"default":1633,"string":1634,"heck":1635,"Ġmatch":1636,"emper":1637,"ilen":1638,"Ġgenerate":1639,"ging":1640,"ĠÐ":1641,"round":1642,"Ġdiff":1643,"row":1644,"raw":1645,"features":1646,"Ġstring":1647,"',<":1648,"strip":1649,"ID":1650,"cpu":1651,"ange":1652,"etrics":1653,"Ġass":1654,"update":1655,"emperature":1656,"]]":1657,"off":1658,"Ġsource":1659,"Output":1660,"motion":1661,"local":1662,"AL":1663,"mb":1664,"Ġvalues":1665,"kv":1666,"tain":1667,"chat":1668,"Ġinf":1669,"Ġlength":1670,"Ġmath":1671,"Ġtqdm":1672,"Ġlanguage":1673,"Handler":1674,"Ġend":1675,"Form":1676,"ike":1677,"var":1678,"images":1679,"Ġcan":1680,"Ġgrad":1681,"bits":1682,"book":1683,"handler":1684,"example":1685,"iven":1686,"oftware":1687,"Ex":1688,"keys":1689,"Ġextra":1690,"100":1691,"Ġá´":1692,"uration":1693,"adata":1694,"etadata":1695,"action":1696,"width":1697,"Ġindex":1698,"inter":1699,"Ġ..":1700,"UT":1701,"du":1702,"version":1703,"post":1704,"alcul":1705,"Ġscale":1706,"Ġparams":1707,"gpt":1708,"mm":1709,"transformers":1710,"proj":1711,"results":1712,"CON":1713,"rc":1714,"rt":1715,"uffer":1716,"Ð°Ð":1717,"Se":1718,"================":1719,"pha":1720,"ĠJ":1721,"Ġone":1722,"Ġline":1723,"chunk":1724,"ĠApache":1725,"Ġpass":1726,"Ġmodules":1727,"Ġvari":1728,"ng":1729,"abs":1730,"Ġprob":1731,"API":1732,"dropout":1733,"ous":1734,"Ġtra":1735,"rich":1736,"ATA":1737,"ong":1738,"Ġtransform":1739,"Ġrotation":1740,"})<":1741,"Ð¸":1742,"Ġinst":1743,"List":1744,"ĠVersion":1745,"environ":1746,"older":1747,"ocab":1748,"Ġresults":1749,"scores":1750,"KEY":1751,"rl":1752,"uild":1753,"Ġ''":1754,"indices":1755,"ele":1756,"messages":1757,"plement":1758,"template":1759,"Ġused":1760,"ULT":1761,"IM":1762,"PE":1763,"Ġ6":1764,"register":1765,"Ġbias":1766,"vec":1767,"ved":1768,"Ġ):<":1769,"Ġhead":1770,"connection":1771,"Ġwhile":1772,"ugging":1773,"we":1774,"Ġfeat":1775,"exec":1776,"Ġ(`":1777,"ameter":1778,"=[":1779,"be":1780,"rames":1781,"Ġent":1782,"sm":1783,"}\\":1784,"llama":1785,"DO":1786,"ite":1787,"ĠYou":1788,"\"):<":1789,"LO":1790,"Ġfirst":1791,"copy":1792,"quence":1793,"ĠAd":1794,"FAULT":1795,"Ġ]<":1796,"ithub":1797,"losses":1798,"lr":1799,"Ġstream":1800,"HT":1801,"Ġ)":1802,"replace":1803,"move":1804,"ĠTuple":1805,"lama":1806,"opt":1807,"Ġform":1808,"Ġgiven":1809,"Ġspecific":1810,"dec":1811,"led":1812,"classes":1813,"ĠPy":1814,"################":1815,"transpose":1816,"Ġlimit":1817,"11":1818,"icro":1819,"ĠDE":1820,"items":1821,"Ġinter":1822,"ernel":1823,"AGE":1824,"github":1825,"Ġchann":1826,"Ġenum":1827,"Ġquaternion":1828,"Ġusing":1829,"ä¸":1830,"seq":1831,"ODE":1832,"ĠCreate":1833,"etune":1834,"Ġfin":1835,"000":1836,"irc":1837,"Ġele":1838,"ĠRole":1839,"ilename":1840,".__":1841,"Ġerror":1842,"ref":1843,"olver":1844,"Ġonly":1845,"ross":1846,"Ġind":1847,"rag":1848,"numpy":1849,"phone":1850,"Ġgpt":1851,"score":1852,"Ġrecord":1853,"Ġdown":1854,"AI":1855,"xt":1856,"ï¼":1857,"}.":1858,"lease":1859,"Ġhave":1860,"Text":1861,"cos":1862,"ting":1863,"MP":1864,"Im":1865,"clo":1866,"(),<":1867,"uccess":1868,"fn":1869,"uit":1870,"Arg":1871,"gment":1872,"lp":1873,"match":1874,"arm":1875,"Ġmethod":1876,"Ġhttp":1877,"random":1878,"plied":1879,"timesteps":1880,"Ġcorrect":1881,"Norm":1882,"RAN":1883,"Ġref":1884,"Ġexample":1885,"Ġvalid":1886,"ome":1887,"users":1888,"Ġexpress":1889,"create":1890,"sim":1891,"Ġarg":1892,"igma":1893,"Ġsoftware":1894,"quee":1895,"(),":1896,"cted":1897,"ither":1898,"Ġwhich":1899,"ndarray":1900,"queeze":1901,"VI":1902,"miss":1903,"Ġtokens":1904,"resh":1905,"Ġapi":1906,"ities":1907,"({":1908,"bs":1909,"labels":1910,"ĠCom":1911,"ĠOR":1912,"https":1913,"Ġkwargs":1914,"Ġcheck":1915,"mbed":1916,"Que":1917,"write":1918,"Ġplt":1919,"ift":1920,"ava":1921,"squeeze":1922,"less":1923,"Ġwrit":1924,"icrophone":1925,"stack":1926,"Ġcho":1927,"Ġpygame":1928,"aly":1929,"amp":1930,"email":1931,"Ġ10":1932,"ĠSet":1933,"Ġroot":1934,"ĠĠĠĠĠĠĠĠĠĠĠĠĠĠĠĠĠĠĠĠĠĠĠĠĠĠĠĠĠĠĠĠ":1935,"window":1936,"stant":1937,"Ġitem":1938,"Argument":1939,"alize":1940,"empt":1941,"Ġcaption":1942,"CO":1943,"ating":1944,"allable":1945,"ender":1946,"Ġlogits":1947,"Ġ%(":1948,"\"].":1949,"Ġright":1950,"Ġeither":1951,"Message":1952,"ative":1953,"ason":1954,"Ġact":1955,"Ġlat":1956,"sqrt":1957,"dotenv":1958,"},":1959,"requi":1960,"ential":1961,"reshape":1962,"Ġshould":1963,"Code":1964,"pi":1965,"reak":1966,"record":1967,"Ġsnake":1968,"keep":1969,"det":1970,"eam":1971,"umm":1972,"Ġlayer":1973,"Ġ12":1974,"position":1975,"ĠTask":1976,"Ġapplic":1977,"50":1978,"UR":1979,"Ġ),<":1980,"ssion":1981,"www":1982,"ircuit":1983,"lation":1984,"exists":1985,"Ġdf":1986,"dire":1987,"ypes":1988,"Ġcheckpoint":1989,"alculate":1990,"For":1991,"stra":1992,"aster":1993,"DATA":1994,"ollow":1995,"ocument":1996,"ier":1997,"Ġzero":1998,"Ġsent":1999,"Ġwork":2000,"ĠText":2001,"usal":2002,"cut":2003,"çļ":2004,"(\"--":2005,"\"],":2006,"Ġoriginal":2007,"çļĦ":2008,"ZE":2009,"Ġscore":2010,"Ġinit":2011,"PO":2012,"KEN":2013,"Ġ\"__":2014,"grid":2015,"man":2016,"Ġtool":2017,"ĠCON":2018,"ATE":2019,"uth":2020,"afet":2021,".\"<":2022,"ench":2023,"Ġmulti":2024,"Log":2025,"40":2026,"client":2027,"Ġ{}<":2028,"channel":2029,"Ġneed":2030,"rand":2031,"Ġmust":2032,"Ġlaw":2033,"location":2034,"reetune":2035,"Ġasyncio":2036,"gt":2037,"emp":2038,"Loader":2039,"OUT":2040,"Ġsim":2041,"Ġbet":2042,"parameters":2043,"(\"\\":2044,"ĠCheck":2045,"ĠBA":2046,"Dataset":2047,"55":2048,"ech":2049,"ian":2050,"lambda":2051,"bin":2052,"Ġaction":2053,"igh":2054,"Ġgroup":2055,"samples":2056,"ĠSee":2057,"quatern":2058,"Ġkeys":2059,"Ġobject":2060,"Ġrich":2061,"stream":2062,"__\":<":2063,"Ġrole":2064,"rices":2065,"utt":2066,"Ġvector":2067,"area":2068,"LU":2069,"circuit":2070,"std":2071,"Conv":2072,"cognizer":2073,"De":2074,"Gener":2075,"cre":2076,"pace":2077,"face":2078,"frame":2079,"ĠOF":2080,"Ġover":2081,"ĠLLM":2082,"Ġjo":2083,"SIZE":2084,"Ġdirectory":2085,"Client":2086,"ors":2087,"Ġback":2088,"Ġglobal":2089,"Ġobtain":2090,"License":2091,"au":2092,"license":2093,"txt":2094,"Ġcur":2095,"ension":2096,"ĠAN":2097,"ĠQu":2098,"cent":2099,"lear":2100,"Ġformat":2101,"Ġstride":2102,"Ġheight":2103,"(*":2104,"graph":2105,"Ġchat":2106,"obj":2107,"ia":2108,"ĠPath":2109,"ĠPIL":2110,"IND":2111,"itialize":2112,"trf":2113,"GR":2114,"ITH":2115,"Ġman":2116,"ĠWAR":2117,"ampling":2118,"player":2119,"Ġpat":2120,"system":2121,"TIONS":2122,"At":2123,"itude":2124,"ume":2125,"ĠIf":2126,"ustom":2127,"mbedding":2128,"Ġav":2129,"State":2130,"Base":2131,"tri":2132,"atio":2133,"Ġtw":2134,"ortcut":2135,"ĠIS":2136,"lta":2137,"Ġweights":2138,"factor":2139,"Ġargparse":2140,"Ġsplit":2141,"Ġsupport":2142,"Ġpoints":2143,"ME":2144,"Ġangle":2145,"ora":2146,"ĠDef":2147,"Block":2148,"alo":2149,"exp":2150,"ĠDataset":2151,"Ġkeep":2152,"ĠĠĠĠĠĠĠĠĠĠĠĠĠĠĠĠĠĠĠĠĠĠĠĠĠĠĠ":2153,"Ġcomm":2154,"dis":2155,"getenv":2156,"ĠLo":2157,"\");<":2158,"Process":2159,"ful":2160,"gy":2161,"rypt":2162,"ĠWITH":2163,"Ġarea":2164,"ODEL":2165,"Ġwriting":2166,"Ġbreak":2167,"bool":2168,"ĠGener":2169,"Ġmean":2170,"Éª":2171,"Ġwidth":2172,"Ġ(...,":2173,"pli":2174,"ĠAPI":2175,"ĠFile":2176,"forward":2177,"missions":2178,"ĠANY":2179,"uation":2180,"Ġdropout":2181,"Ġany":2182,"TOKEN":2183,"ĠWARRAN":2184,"Col":2185,"char":2186,"istant":2187,"ransformer":2188,"Ġmatrices":2189,"TIES":2190,"Token":2191,"licenses":2192,"MA":2193,"yle":2194,"Ġtemperature":2195,"ĠAuto":2196,"Ġwhen":2197,"pliance":2198,"filter":2199,"mp":2200,"program":2201,"correct":2202,"AMP":2203,"Ġdescription":2204,"atalo":2205,"Ġab":2206,"rap":2207,"classmethod":2208,"ĠFunction":2209,"ĠBase":2210,"acy":2211,"ĠKIND":2212,"LICENSE":2213,"Ġpermissions":2214,"ĠWARRANTIES":2215,"OT":2216,"uid":2217,"wh":2218,"Ġfollow":2219,"Ġpd":2220,"Ġdot":2221,"Ġapplicable":2222,"ĠWITHOUT":2223,"buffer":2224,"Ġplayer":2225,"Ġdate":2226,"\"][":2227,"ĠLicensed":2228,"Ġexist":2229,"Ġimplied":2230,"Ġcompliance":2231,"Ġpadding":2232,"apache":2233,"Ġgover":2234,"very":2235,"Ġ>=":2236,"DITIONS":2237,"Ġpost":2238,"SIS":2239,"Ġagreed":2240,"ĠCONDITIONS":2241,"ĠBASIS":2242,"Ġgoverning":2243,"Ġsk":2244,"Ġlabels":2245,"Ġchunk":2246,"ĠUnless":2247,"Ġlimitations":2248,"cum":2249,"jang":2250,"erge":2251,"Ġmo":2252,"Url":2253,"pend":2254,"encode":2255,"ĠTool":2256,"rank":2257,"struct":2258,"Ġ100":2259,"\"][\"":2260,"bytes":2261,"jango":2262,"Fa":2263,"cs":2264,"hot":2265,"ique":2266,"Ġtr":2267,"return":2268,"KING":2269,"total":2270,"files":2271,"etuning":2272,"IGHT":2273,"bot":2274,"µÐ":2275,"ences":2276,"fore":2277,"meta":2278,"decode":2279,"__(<":2280,"ataloader":2281,"global":2282,"Ġemotion":2283,"Ġmain":2284,"Ġthread":2285,"status":2286,"Ġepoch":2287,"ĠFl":2288,"modules":2289,"afety":2290,"En":2291,"title":2292,"verse":2293,"Ġquaternions":2294,"Ġenumerate":2295,":\\":2296,"_(":2297,"try":2298,"ÑĢ":2299,"Ġed":2300,"ĠPar":2301,"CT":2302,"ingle":2303,"ivation":2304,"rad":2305,"rary":2306,"dition":2307,"roll":2308,"Ġ{}":2309,"Ġexec":2310,"ĠConvert":2311,"aded":2312,"Ġtreetune":2313,"alled":2314,"Ġsin":2315,"Ġscor":2316,"server":2317,"choices":2318,")]<":2319,"only":2320,"Ġclos":2321,"atten":2322,"propert":2323,"ĠIm":2324,"Ġprogram":2325,"ROM":2326,"Ġargument":2327,"eng":2328,"utf":2329,"ible":2330,"batches":2331,"number":2332,"Ġcomplet":2333,"embeddings":2334,"eed":2335,"ont":2336,"ify":2337,"EP":2338,"oth":2339,"ql":2340,"ta":2341,"Ġquestion":2342,"Ġinto":2343,"Ġ20":2344,"=(":2345,"search":2346,"Ġcontain":2347,"choice":2348,"Ġfinal":2349,"ckpt":2350,"Ġrate":2351,"ĠPro":2352,"inference":2353,"Ġkernel":2354,"Ġassign":2355,"Ġyour":2356,"\"\\":2357,"vis":2358,"É´":2359,"udent":2360,"next":2361,"atCode":2362,"Ġtuple":2363,"req":2364,"Ġdeep":2365,"cheatCode":2366,"Ġcount":2367,"\"),<":2368,"30":2369,"vari":2370,"Ġdist":2371,"Ġ[`":2372,"á´ı":2373,"Ġoutputs":2374,"The":2375,"ĠGet":2376,"Tokenizer":2377,"gress":2378,"ular":2379,"Ġalpha":2380,"Ġchannels":2381,"Key":2382,"Name":2383,"frames":2384,"ox":2385,"Ġsame":2386,"avg":2387,"17":2388,"Ġ\"\\":2389,"ENT":2390,">)":2391,"Com":2392,"folder":2393,"ui":2394,"Ġpoint":2395,"curacy":2396,"48":2397,"FI":2398,"lem":2399,"lower":2400,"Ġoptimizer":2401,"qubits":2402,"mov":2403,"ĠConfig":2404,"90":2405,"Ġscheduler":2406,"like":2407,"Ġllm":2408,"celerate":2409,"MODEL":2410,"ats":2411,"height":2412,"Ġread":2413,"processor":2414,"NAM":2415,"Ġvideo":2416,"Ġmode":2417,"Ġlr":2418,"quential":2419,"Ġframe":2420,"ish":2421,"positions":2422,"chedule":2423,"lete":2424,"nodes":2425,"Ġcontin":2426,"Ġcolor":2427,"ickle":2428,"\"))<":2429,"XT":2430,"uffle":2431,"Ġdiffusers":2432,"ĠDEFAULT":2433,"linear":2434,"optim":2435,"ras":2436,"Ġ\\":2437,"Ġ\"/":2438,")):<":2439,"Ca":2440,"Float":2441,"find":2442,"lu":2443,"med":2444,"Ġmetrics":2445,"workers":2446,"Logger":2447,"14":2448,"wise":2449,"Ad":2450,"OP":2451,"lines":2452,"Ġnon":2453,"Ġencoding":2454,"FO":2455,"ik":2456,"Ġ\"\"<":2457,"ĠCLI":2458,"ifier":2459,"tern":2460,"Ġrequests":2461,"completion":2462,"epochs":2463,"Audio":2464,"multi":2465,"sin":2466,"scheduler":2467,"tree":2468,"entity":2469,"unsqueeze":2470,"oftmax":2471,"late":2472,"Ġct":2473,"otebook":2474,"empty":2475,"orage":2476,"irs":2477,"Layer":2478,"bit":2479,"Ð¾":2480,"alf":2481,"Ġevent":2482,"Ġtwo":2483,"Id":2484,"Ġsav":2485,"Ġpred":2486,"ics":2487,"Ġ[[":2488,"Ġ202":2489,"tention":2490,"Ġnoise":2491,"Processor":2492,"fin":2493,"Ġconvert":2494,"./":2495,"WOR":2496,"mul":2497,"logits":2498,"dataclass":2499,"Ġfiles":2500,"Ġgrid":2501,"Ġinfo":2502,"FIG":2503,"Qu":2504,"eries":2505,"Ġ\"<":2506,"quant":2507,"ĠĠĠĠĠĠĠĠĠĠĠĠĠĠĠĠĠĠĠĠĠĠĠĠ":2508,"ĠimageUrl":2509,"'])<":2510,"By":2511,"ÑĤ":2512,"Ġ7":2513,"Ġother":2514,"ĠHugging":2515,"''":2516,"Un":2517,"full":2518,"vant":2519,"Ġwindow":2520,"andle":2521,").__":2522,"ATI":2523,"roq":2524,"Ġoptional":2525,"struction":2526,"execute":2527,"ead":2528,"eff":2529,"Ġso":2530,"ĠCallable":2531,"ewshot":2532,"ï¼Į":2533,"Ġcall":2534,"Ġwhere":2535,"spec":2536,"Ġiter":2537,"Formatter":2538,"Le":2539,"US":2540,"reward":2541,"depth":2542,"Ġsum":2543,"Ġlib":2544,"á´Ľ":2545,"Ġhelp":2546,"15":2547,"metadata":2548,"qa":2549,"[:-":2550,"leton":2551,"CHE":2552,"reshold":2553,"final":2554,"memory":2555,"way":2556,"inst":2557,"ones":2558,"Ġnext":2559,"Ġgt":2560,"Ġlevel":2561,"Ġdoes":2562,"Ġdatetime":2563,"An":2564,"ord":2565,"Ġinstance":2566,"keleton":2567,"common":2568,"offset":2569,"22":2570,"LAM":2571,"Ġlay":2572,"functional":2573,"groups":2574,"duct":2575,"ÊĢ":2576,"served":2577,"ĠUp":2578,"Ġrights":2579,"FloatTensor":2580,"LAMA":2581,"ĠX":2582,"ableDiffusion":2583,"joints":2584,"ampler":2585,"Arguments":2586,"Not":2587,"ner":2588,"ratio":2589,"joint":2590,"bench":2591,"ost":2592,"Ġ},<":2593,"predict":2594,"ourse":2595,"ummy":2596,"pand":2597,"chain":2598,"Ġmake":2599,"icy":2600,"Ġ['":2601,"generate":2602,"Ġfollowing":2603,"GE":2604,"Ġemb":2605,"Ġparameters":2606,"ields":2607,"Ġdownload":2608,"PU":2609,"forms":2610,"prefix":2611,"'],":2612,"AB":2613,"doc":2614,"Ġeps":2615,"ĠĠĠĠĠĠ":2616,"sen":2617,"Ġcos":2618,"uler":2619,"present":2620,"training":2621,"ency":2622,"Ġsr":2623,"umn":2624,"dist":2625,"ĠAll":2626,"jection":2627,"sys":2628,"CONFIG":2629,"utton":2630,"apt":2631,"pri":2632,"warning":2633,"warm":2634,"des":2635,"Ġdrop":2636,"ĠSample":2637,"Ġbased":2638,"Queue":2639,"GRAM":2640,"ĠImport":2641,".,":2642,"Face":2643,"ÐµÐ":2644,"ĠAp":2645,"ags":2646,"Ġshot":2647,"transcript":2648,"Ġpositions":2649,"leep":2650,"Ġdiffusion":2651,"quat":2652,"Ġclosd":2653,")[":2654,"_{":2655,"flow":2656,"filename":2657,"just":2658,"sl":2659,"Ġtemplate":2660,"math":2661,"EPGRAM":2662,"ĠHuggingFace":2663,"IT":2664,"][\"":2665,"cle":2666,"history":2667,"idget":2668,"cessed":2669,"36":2670,"Ġtree":2671,"Ġpl":2672,"uman":2673,"clip":2674,"dirname":2675,"close":2676,"Ñĥ":2677,"Ġcurr":2678,"ĠNot":2679,"Embedding":2680,"Path":2681,"enu":2682,"'].":2683,"Ġword":2684,"curr":2685,"initial":2686,"jectory":2687,":\",":2688,"Ġfilter":2689,"('--":2690,"'t":2691,"mes":2692,"uous":2693,"xy":2694,"agent":2695,"generator":2696,"ĠAdd":2697,"direction":2698,"FF":2699,"case":2700,"ipe":2701,"seen":2702,"qual":2703,"ĠPre":2704,"ĠGR":2705,"Ġencoder":2706,"ĠInitialize":2707,"--------------------------------":2708,"SC":2709,"sor":2710,"Ġrecognizer":2711,"abil":2712,"html":2713,"Ġ<=":2714,"ponent":2715,"pack":2716,"Ġmicrophone":2717,"iled":2718,"Ġposition":2719,"Ġconvention":2720,"ĠFlax":2721,"reason":2722,"stop":2723,"imum":2724,"Ġmore":2725,"Ġbuild":2726,"INFO":2727,"Ġupdate":2728,"Param":2729,"episodes":2730,"Ġvariable":2731,"Trans":2732,"pipeline":2733,"Ġsm":2734,"small":2735,"Ġelement":2736,"usalLM":2737,"ank":2738,"hed":2739,"Ġreserved":2740,"Ġ``":2741,"}'":2742,"Ġlet":2743,"vector":2744,"objects":2745,"NAME":2746,"80":2747,"BA":2748,"Notebook":2749,"`]":2750,"Ġmemory":2751,"Ġrecor":2752,"ical":2753,"rib":2754,"Ġcompute":2755,"locity":2756,"Ġdisable":2757,"property":2758,"FT":2759,"enable":2760,"fter":2761,"true":2762,"Ġqueue":2763,"Ġembeddings":2764,"quaternion":2765,"pr":2766,"Ġurl":2767,"left":2768,"Ġinitial":2769,"izes":2770,"ĠRes":2771,"Invalid":2772,"counts":2773,"worker":2774,"vironment":2775,"decay":2776,"Ġcontinue":2777,"NE":2778,"This":2779,"inov":2780,"ars":2781,"Ġdocument":2782,"Ġwas":2783,"ĠOpen":2784,"Ġallow":2785,"control":2786,"tings":2787,"Ġpatch":2788,")))<":2789,"68":2790,"optimizer":2791,"}/":2792,"unet":2793,"Ġdataclasses":2794,"SET":2795,"Transformer":2796,"Ġrepresent":2797,"except":2798,"ightrag":2799,"ager":2800,"ĠRot":2801,"Ġgetattr":2802,"tensors":2803,"Ġkeepdim":2804,"az":2805,"go":2806,"dif":2807,"Ġoff":2808,"Ġstat":2809,"prod":2810,"LLM":2811,"auto":2812,"beta":2813,"stion":2814,"Ġmetadata":2815,"Ġign":2816,"tower":2817,"prev":2818,"Ġsearch":2819,"required":2820,"istr":2821,"assert":2822,"Ġreal":2823,"ĠTensor":2824,"Ġhere":2825,"Ġindices":2826,"detach":2827,":.":2828,"tn":2829,"ene":2830,"delta":2831,"etch":2832,"Ġopenai":2833,"ĠDefault":2834,"Ġ2023":2835,"cam":2836,"vocab":2837,"session":2838,"Ġsrc":2839,"Ġlicense":2840,"andb":2841,"ilar":2842,"conds":2843,"words":2844,"With":2845,"ae":2846,"pg":2847,"script":2848,"plt":2849,"Ġ*<":2850,"Ġspecified":2851,"Ġinstall":2852,"pass":2853,"Ġfull":2854,"Ġaff":2855,"ili":2856,"jector":2857,"Ġbeen":2858,"Ġdimension":2859,"plemented":2860,"Node":2861,"kpt":2862,"ĠZ":2863,"Ġpipe":2864,"umns":2865,"ific":2866,"Ġclient":2867,"Ġsentence":2868,"01":2869,"?<":2870,"UP":2871,"dum":2872,"master":2873,"Ġembed":2874,"Ġpickle":2875,"ĠTest":2876,"á´Ģ":2877,"ĠWe":2878,"ails":2879,"ĠInc":2880,"Ġlatent":2881,"auss":2882,"`,":2883,"metrics":2884,"nown":2885,"Ġ--":2886,"reg":2887,"Ġsl":2888,"Ġdb":2889,"__)<":2890,"diction":2891,"ĠEn":2892,"ĠDataLoader":2893,"99":2894,"do":2895,"lector":2896,"thread":2897,"ĠFor":2898,"annot":2899,"Ġ:,":2900,"Ġfinetuning":2901,"hf":2902,"uch":2903,"Ġangles":2904,"Ġbeta":2905,"ĠTo":2906,"shift":2907,"latent":2908,"Parameter":2909,"Ch":2910,"LA":2911,"now":2912,"rally":2913,"Ġsigma":2914,"uring":2915,"umber":2916,"show":2917,"Trained":2918,"ForCa":2919,"ForCausalLM":2920,"blob":2921,"vents":2922,"Ñģ":2923,"Ġits":2924,"Ġdjango":2925,"ĠLI":2926,"Ġdec":2927,"Ġbefore":2928,"masks":2929,"hook":2930,"Factory":2931,"AD":2932,"CE":2933,"lim":2934,"uate":2935,"win":2936,"Ġjnp":2937,"ĠGPT":2938,"Ġencoded":2939,"noise":2940,"Result":2941,"Ġfeature":2942,"uccessful":2943,"ÊŁ":2944,"Ġfa":2945,"Ġcalculate":2946,"Ġstop":2947,"world":2948,"Field":2949,"Please":2950,"trol":2951,"order":2952,"latitude":2953,"afe":2954,"sentence":2955,"parts":2956,"qkv":2957,"Ġsign":2958,"ement":2959,"pop":2960,"ĠMeta":2961,"http":2962,"host":2963,"ĠGRID":2964,"first":2965,"imes":2966,"loaded":2967,"asure":2968,"hether":2969,"ished":2970,"plan":2971,"Ġdataclass":2972,"speed":2973,"Ġapply":2974,"tuple":2975,"select":2976,"Ġincl":2977,"Ġdepth":2978,"Ġseq":2979,"perm":2980,"Ġqueries":2981,"stants":2982,"Ġlayers":2983,"\").":2984,">}<":2985,"RL":2986,"bject":2987,"Ġplot":2988,"pect":2989,"Ġbut":2990,"Ġ'{":2991,"csv":2992,"`<":2993,"flat":2994,"options":2995,"Ġ$":2996,"Ġteam":2997,"lems":2998,"ries":2999,"Ġrad":3000,"Ġquant":3001,"\"\"\"":3002,"56":3003,"</":3004,"RA":3005,"Ġio":3006,"getLogger":3007,"formatter":3008,"FILE":3009,"70":3010,"DB":3011,"land":3012,"erator":3013,"LOG":3014,"Ġbetas":3015,"Generator":3016,"oid":3017,"æľ":3018,"Ġ&":3019,"Ġopt":3020,"ĠID":3021,"Ġchar":3022,"Ġpython":3023,"flatten":3024,"ogle":3025,"Ġmultiple":3026,"ĠLICENSE":3027,"VER":3028,"pk":3029,"cket":3030,"ĠTO":3031,"olve":3032,"ĠAt":3033,"Ġcons":3034,"loads":3035,"ATION":3036,"reated":3037,"Ġsequence":3038,"transcription":3039,"Ġrunning":3040,"sql":3041,"rotation":3042,"Implemented":3043,"Ġdotenv":3044,"ĠNotImplemented":3045,"Ġignore":3046,"Pre":3047,"fp":3048,"schedul":3049,"Ġpipeline":3050,"cour":3051,"../":3052,"vided":3053,"19":3054,"33":3055,"mak":3056,"pdf":3057,"arx":3058,"Ġden":3059,"concat":3060,"ynam":3061,"STAMP":3062,"plication":3063,"Parser":3064,"ĠsystemPrompt":3065,"EM":3066,"Mo":3067,"ped":3068,"Ġet":3069,"deep":3070,"Ġversion":3071,"INT":3072,"normal":3073,"ĠNotImplementedError":3074,"ait":3075,"gments":3076,"md":3077,"})":3078,"Ġafter":3079,"Ġ16":3080,"Loss":3081,"Ġcontrol":3082,"Ġzip":3083,"Ġradi":3084,"Function":3085,"src":3086,"arange":3087,"caption":3088,"outputs":3089,"Ġrotations":3090,"Ġgradient":3091,"stract":3092,"Attention":3093,"LAN":3094,"bl":3095,"Ġvi":3096,"urer":3097,"ĠIN":3098,"description":3099,"POR":3100,"dictions":3101,"ilters":3102,"Ġprovided":3103,"Ġlibrary":3104,"Frame":3105,"`):<":3106,"dit":3107,"ges":3108,"source":3109,"tag":3110,"Ġlambda":3111,"(\"/":3112,"ĠPython":3113,"Bytes":3114,"ĠImportError":3115,"arxiv":3116,"User":3117,"eger":3118,"Ġmerge":3119,"cker":3120,"ranch":3121,"Ġstd":3122,"issing":3123,"Ġnormal":3124,"Spe":3125,"UN":3126,"]):<":3127,"softmax":3128,"wers":3129,"æĺ":3130,"Ġoptim":3131,"Ġ(\"":3132,"ester":3133,"ABLE":3134,"ram":3135,"sign":3136,"Ġfix":3137,"Ġfilename":3138,"astype":3139,"Ġsamples":3140,"Ġgenerator":3141,"Ġsetup":3142,"tools":3143,"ground":3144,"hash":3145,"jpg":3146,"sd":3147,"äº":3148,"Ġ9":3149,"utes":3150,"Ġckpt":3151,"Ġ2024":3152,"Ġparse":3153,"ipelines":3154,"stribution":3155,"static":3156,")).":3157,"Ġ],<":3158,"padding":3159,"ances":3160,"Ġduring":3161,"otions":3162,"ĠTeam":3163,"Ġhistory":3164,"Ġshuffle":3165,"riter":3166,"probs":3167,"cognition":3168,"Ġflag":3169,"lora":3170,"Ġfind":3171,"Ġcats":3172,"Ġpredict":3173,"Ġtypeof":3174,"starts":3175,"Ġjoints":3176,"ED":3177,"GN":3178,"LLAMA":3179,"Test":3180,"cy":3181,"Ġtk":3182,"Ġtitle":3183,"Ġ\",":3184,"Ġlines":3185,"Ġsteps":3186,"Ġseed":3187,"YPE":3188,"gative":3189,"her":3190,"ater":3191,"edirs":3192,"entry":3193,"expand":3194,"ollama":3195,"Ġquat":3196,"Ġgenerated":3197,"plotlib":3198,"Ġdirection":3199,"77":3200,"table":3201,"ink":3202,"stable":3203,"itive":3204,"Ġfewshot":3205,"ateg":3206,"ĠCat":3207,"Ġ255":3208,"prec":3209,"oug":3210,"Ġllava":3211,"Ġextract":3212,"Object":3213,"arn":3214,"threshold":3215,"parent":3216,"Ġgo":3217,"python":3218,"ĠDeep":3219,"scorer":3220,"={\"":3221,"RI":3222,"Ġreg":3223,"Ġwarning":3224,"ĠCl":3225,"],[":3226,"ĠUNet":3227,"callback":3228,"makedirs":3229,"ynamic":3230,":]<":3231,"Th":3232,"Ġarray":3233,"Ġlocal":3234,"stamp":3235,"Ġcalc":3236,"Ġsegment":3237,"IO":3238,"bug":3239,"mit":3240,"pare":3241,"Ġmm":3242,"Ġclo":3243,"pected":3244,"checker":3245,"Ġclip":3246,"34":3247,"Options":3248,"cross":3249,"parator":3250,"Ġthan":3251,"Ġparameter":3252,"lengths":3253,"Ġcls":3254,"Ġapp":3255,"Ġpretrained":3256,"nect":3257,"Input":3258,"flax":3259,"DiffusionPipeline":3260,"Trainer":3261,"element":3262,"'.":3263,"Template":3264,"sigma":3265,"vels":3266,"Ġ\"{":3267,"Ġmov":3268,"board":3269,"inalg":3270,"Ġ'''":3271,"Ð¾Ð":3272,"azy":3273,"Ġaffili":3274,"%(":3275,"PRE":3276,"`):":3277,"eet":3278,"ven":3279,"encoded":3280,"alpha":3281,"Ġsingle":3282,"Ġsuccessful":3283,"Ġlightrag":3284,"ĠPrompt":3285,"Ġorder":3286,"ModelType":3287,"aussian":3288,"Dropout":3289,"MScheduler":3290,"Set":3291,"]).":3292,"cv":3293,"day":3294,"wd":3295,"Ġter":3296,"exit":3297,"ely":3298,"unct":3299,"addHandler":3300,"={<":3301,"uidance":3302,"Ġaffiliates":3303,"DP":3304,"sk":3305,"utor":3306,"amed":3307,"ĠCh":3308,"ather":3309,"MPL":3310,"Ġsmall":3311,"CA":3312,"analy":3313,"Ġscript":3314,"need":3315,"TIME":3316,"ĠModelType":3317,"Tokens":3318,"ĠStableDiffusion":3319,"Ġloop":3320,"lst":3321,"zen":3322,"ĠcheatCode":3323,"remove":3324,"Ġcv":3325,"ider":3326,"Ġ'.":3327,"Ġdet":3328,"****":3329,"offload":3330,"Sequential":3331,"Ġactivation":3332,"ROMPT":3333,"ĠRotation":3334,"Action":3335,"HO":3336,"Run":3337,"tot":3338,"temperature":3339,"uce":3340,"pan":3341,"lection":3342,"ĠRun":3343,"Ġvocab":3344,"complete":3345,"################################":3346,"({\"":3347,"ĠTODO":3348,"BU":3349,"Role":3350,"build":3351,"åı":3352,"enate":3353,"DEFAULT":3354,"Ġthreading":3355,"permute":3356,"ble":3357,"|>":3358,"åĪ":3359,"insert":3360,"era":3361,"Ġ\"-":3362,"Ġmap":3363,"Ġlike":3364,"olume":3365,"ersation":3366,"apply":3367,"vious":3368,"Ġtimesteps":3369,"apter":3370,"warmup":3371,"37":3372,"Get":3373,"Time":3374,"bone":3375,"original":3376,"setup":3377,"normalize":3378,"flag":3379,"command":3380,"engine":3381,"Ġlicensed":3382,"Ve":3383,"You":3384,"ire":3385,"iew":3386,"sizes":3387,"çĲ":3388,"itor":3389,"Ġremove":3390,"numel":3391,"Ġenc":3392,"Ġbytes":3393,"checkpoints":3394,"functions":3395,"Level":3396,"half":3397,"oice":3398,"sis":3399,"inv":3400,"reset":3401,"Ġsampling":3402,"iguous":3403,"assistant":3404,"Ġsession":3405,"Ġtargets":3406,"Response":3407,"ðĿĹ":3408,"Ġexamples":3409,"Ġcommand":3410,"CHEC":3411,")}":3412,"18":3413,"\\\\":3414,"sync":3415,"arge":3416,"Ġcent":3417,"Ġold":3418,"ĠPlat":3419,"apping":3420,"á´ľ":3421,"ready":3422,"feature":3423,"msg":3424,"ĠParameters":3425,"Ġsaving":3426,"SON":3427,"success":3428,"ãĢ":3429,"ĠShape":3430,"ĠDiffusion":3431,"Ġselect":3432,"trainer":3433,"ĠGroq":3434,"Ġrag":3435,"ĠKey":3436,"processing":3437,"staticmethod":3438,"EIGHT":3439,"Head":3440,"fast":3441,"mel":3442,"ose":3443,"sr":3444,"types":3445,"âĢ":3446,"è¯":3447,"rozen":3448,"Ġpe":3449,"coeff":3450,"convert":3451,"ĠAudio":3452,"Ġ{'":3453,"Ġunet":3454,"Ġcomput":3455,"DEEPGRAM":3456,"BASE":3457,"DER":3458,"EW":3459,"]))<":3460,"dataloader":3461,"iate":3462,"lm":3463,"side":3464,"temp":3465,"wrap":3466,"å¤":3467,"rew":3468,"ctionary":3469,"comp":3470,"itional":3471,"Ġevaluation":3472,"256":3473,"Ġmany":3474,"Query":3475,"Player":3476,"PROMPT":3477,"TMP":3478,"fields":3479,"linalg":3480,"qpos":3481,"êľ":3482,"Ġutils":3483,"segment":3484,"Ġfake":3485,"Ġ\"\",":3486,"Ġsome":3487,"etas":3488,"Ġ1024":3489,"ession":3490,"Ġ32":3491,"jections":3492,"Ġmeans":3493,"plementation":3494,"ĠPlatforms":3495,"ET":3496,"No":3497,"ä½":3498,"encoding":3499,"Ġsound":3500,"Ġlinear":3501,"olicy":3502,"ĠChat":3503,"ĠSql":3504,"Ġjob":3505,"Condition":3506,"contiguous":3507,"smpl":3508,"Encoder":3509,"WORKING":3510,"ĠSqlQueue":3511,"GU":3512,"RAG":3513,"Value":3514,"`.<":3515,"actions":3516,"tolist":3517,"paths":3518,"Ġstory":3519,"term":3520,"Ġmethods":3521,"ĠLoad":3522,"Ġstatus":3523,"startswith":3524,"23":3525,"44":3526,"UE":3527,"Ġver":3528,"style":3529,"Ġdataloader":3530,"\"])":3531,"Ġenvironment":3532,"ATH":3533,"phas":3534,"ĠCompute":3535,"URR":3536,"'''<":3537,"trolNet":3538,"*,":3539,"solver":3540,"tk":3541,"}\"":3542,"Ġreplace":3543,"Ġschedule":3544,"verage":3545,"loaders":3546,"Ġdatabase":3547,"Ġseconds":3548,"uggingface":3549,"1024":3550,"ci":3551,"reen":3552,"delete":3553,"Ġframes":3554,"orted":3555,"Ġsolver":3556,"peat":3557,"ĠTrain":3558,"addMessage":3559,"variance":3560,"History":3561,"fo":3562,"fer":3563,"human":3564,"ount":3565,"Ġplay":3566,"Ġoptions":3567,"Ġwant":3568,"ĠType":3569,"Ġrender":3570,"questions":3571,"Ġshortcut":3572,"ools":3573,"ĠQue":3574,"celerator":3575,"special":3576,"Check":3577,"home":3578,"pix":3579,"ystem":3580,"asic":3581,"Ġ\".":3582,"Ġregister":3583,"ĠTh":3584,"ĠUse":3585,"Ġpack":3586,"Ġdatasets":3587,"================================":3588,"cloud":3589,"Question":3590,"LANGU":3591,"Py":3592,"RIGHT":3593,"ball":3594,"event":3595,"solution":3596,"dev":3597,"itch":3598,"ĠĠĠĠĠĠĠĠĠĠ":3599,"ĠNumber":3600,"setLevel":3601,"ĠPer":3602,"Ġmatplotlib":3603,"Ġhasattr":3604,"Ġchoice":3605,"URRENT":3606,">_":3607,"cx":3608,"mod":3609,"Ġfield":3610,"texts":3611,"Ġproduct":3612,"ĠURL":3613,"Ġtimeout":3614,"Ġprev":3615,"iteral":3616,"ÑĢÐ°Ð":3617,"needle":3618,"LANGUAGE":3619,"'):<":3620,"UM":3621,"]]:<":3622,"cc":3623,"fill":3624,"mix":3625,"so":3626,"onal":3627,"ĠTE":3628,"formation":3629,"ĠFn":3630,"Ġpand":3631,"accuracy":3632,"Ġnodes":3633,"Ġedge":3634,"Ġpandas":3635,"known":3636,"ural":3637,"compute":3638,"END":3639,"Ġobj":3640,"traj":3641,"Ġfeatures":3642,"ummyObject":3643,"(_":3644,"ECH":3645,"ITION":3646,"SPE":3647,"metric":3648,"png":3649,"âķ":3650,"ength":3651,")</":3652,"store":3653,"ĠTYPE":3654,"iform":3655,"Ġthen":3656,"Ġraw":3657,"RECO":3658,"Ġworld":3659,"download":3660,"SchedulerMixin":3661,"dified":3662,"GNITION":3663,"CHECKING":3664,"ECHRECO":3665,"ECHRECOGNITION":3666,">]<":3667,"Found":3668,"SH":3669,"Vision":3670,"]]<":3671,"ference":3672,"lang":3673,"åĲ":3674,"Ġcase":3675,"disc":3676,"ild":3677,"ĠCURRENT":3678,"\"]:<":3679,"openai":3680,"Ġchannel":3681,"center":3682,"Ġtrunc":3683,"Ġoffset":3684,"45":3685,">):<":3686,"CK":3687,"freq":3688,"ring":3689,"eras":3690,"ropy":3691,"Ġcalled":3692,"Ġ[],":3693,"river":3694,"Ġhf":3695,"ush":3696,"Ġevery":3697,"Ġ_,":3698,"ubl":3699,"antic":3700,"listen":3701,"Ġlisten":3702,"Ġprefix":3703,"Request":3704,"ween":3705,"Ġentry":3706,"DOW":3707,"Ġabout":3708,"Ġscores":3709,"ĠCLIP":3710,"concatenate":3711,"96":3712,"bins":3713,"ä»":3714,"relu":3715,"rogram":3716,"aml":3717,"Ġcreated":3718,"__)":3719,"ĠLlama":3720,"ĠMulti":3721,"...\")<":3722,"Ġenv":3723,"Class":3724,"examples":3725,"Ġchoices":3726,"oxel":3727,"Chat":3728,"TT":3729,"ipy":3730,"safety":3731,"Ġext":3732,"Ġheads":3733,"aling":3734,"Ġmu":3735,"ĠNode":3736,"problem":3737,"problems":3738,"Ġworker":3739,"vantages":3740,"xyz":3741,"TIMESTAMP":3742,"deg":3743,"Ġfig":3744,"Ġcustom":3745,"unter":3746,"ulation":3747,"ĠLayer":3748,"Ġtimestep":3749,"Ġpyaudio":3750,"ĠExample":3751,"feats":3752,"Ġaccelerate":3753,"theta":3754,"Ġrows":3755,"Ġ{}\".":3756,"View":3757,"bos":3758,"cast":3759,"gpu":3760,"Ġlosses":3761,"Ġtemp":3762,"Ġfast":3763,"ell":3764,"ategy":3765,"andard":3766,"resize":3767,"ĠRich":3768,"Ġunique":3769,"Ġshutil":3770,"Ġqkv":3771,"Ġjsonlogger":3772,"Ġtransforms":3773,"Ġskip":3774,"Ġcompletion":3775,"LayerNorm":3776,"TrainedModel":3777,"-<":3778,"ML":3779,"Open":3780,"Êľ":3781,"extras":3782,"logs":3783,"ĠScore":3784,"ĠIF":3785,"trajectory":3786,"DOWN":3787,"31":3788,"cwd":3789,"ops":3790,"Ð»":3791,"Ġutil":3792,"Ġ64":3793,"sequence":3794,"lections":3795,"Ġ\"--":3796,"Ġwandb":3797,"distributed":3798,"ĠĠĠĠĠĠĠĠĠĠĠĠ":3799,"etwork":3800,"anner":3801,"SION":3802,"ngine":3803,"ArgumentParser":3804,"metaclass":3805,"iktoken":3806,"ability":3807,"ĠRichHandler":3808,"kernel":3809,"til":3810,"Ġtf":3811,"idual":3812,"ĠNOT":3813,"Ġdel":3814,"Ġyield":3815,"INDE":3816,"Ġ50":3817,"mlp":3818,"ification":3819,"INDEX":3820,"Edit":3821,"Filter":3822,"free":3823,"mt":3824,"non":3825,"å®":3826,"Ġdinov":3827,"ulator":3828,"cost":3829,"Ġgen":3830,"Ġconnection":3831,"Ġdictionary":3832,"Ġalready":3833,"Stream":3834,"Ġcache":3835,"Ġsubprocess":3836,"Ġsupported":3837,"stractmethod":3838,"SPEECHRECOGNITION":3839,"breed":3840,"custom":3841,"ople":3842,"sa":3843,"sleep":3844,"ination":3845,"direct":3846,"dims":3847,"ĠUser":3848,"iddle":3849,"anglement":3850,"shortcut":3851,"mini":3852,"vertices":3853,"activation":3854,"Ġpathlib":3855,"cursor":3856,"CONST":3857,"Ġvariance":3858,"VIEW":3859,"course":3860,"Ġwarnings":3861,"PREVIEW":3862,"24":3863,"DCondition":3864,"DummyObject":3865,"Emotion":3866,"long":3867,"Ġ).":3868,"Ġtiktoken":3869,"Ġfunc":3870,"clone":3871,"Ġjax":3872,"Ġqubits":3873,"cribe":3874,"accelerate":3875,"patial":3876,"quaternions":3877,"ĠGenerate":3878,"cumprod":3879,"Ġscorer":3880,"Menu":3881,"UD":3882,"dat":3883,"fc":3884,"light":3885,"ru":3886,"vit":3887,"wav":3888,"Ġemail":3889,"Ġsql":3890,"getcwd":3891,"Ġpast":3892,"LEFT":3893,"Ġhash":3894,"atermark":3895,"GPT":3896,"Up":3897,"ping":3898,"send":3899,"decoder":3900,"Ġret":3901,"distance":3902,"ĠFROM":3903,"á´ħ":3904,"Ġchange":3905,"Ġeng":3906,"flash":3907,"acter":3908,"directory":3909,"manual":3910,"âķĲ":3911,"/{":3912,"render":3913,"used":3914,"pay":3915,"allet":3916,"ĠTrans":3917,"ĠSim":3918,"Ġsecond":3919,"Ġprevious":3920,"Ġweb":3921,"transformer":3922,"ðĿĴ":3923,"Ġassistant":3924,"Ġ\\<":3925,"ĠApply":3926,"Ġdocumentation":3927,"ĠOpenAI":3928,"\"})<":3929,">__":3930,"EX":3931,"bers":3932,"handle":3933,"limit":3934,"mon":3935,"make":3936,"nly":3937,"Ð½":3938,"åĬ":3939,"Ġfeet":3940,"Ġcam":3941,"connect":3942,"())":3943,"resolution":3944,"allen":3945,"pytorch":3946,"Ġwithout":3947,"bose":3948,"ORM":3949,"Ġneedle":3950,"Ġvectors":3951,"Ġjoint":3952,"57":3953,"Hel":3954,"mester":3955,"optional":3956,"demo":3957,"Ġfree":3958,"Ġ'\\":3959,"Ġ'__":3960,"modeling":3961,"omic":3962,"agn":3963,"Ġprocessed":3964,"Ġshift":3965,"gradient":3966,"Ġperform":3967,"Ġexpr":3968,"Ġrecords":3969,"totypes":3970,"ired":3971,"lens":3972,"lava":3973,"mu":3974,"skeleton":3975,"ty":3976,"åº":3977,"Ġge":3978,"Ġreward":3979,"Ġop":3980,"Ġ##":3981,"pool":3982,"termin":3983,"trainable":3984,"generation":3985,"Ġproblem":3986,"Ġtrack":3987,"=[<":3988,"requires":3989,"learn":3990,"Ġavailable":3991,"Ġletter":3992,"çĲĥ":3993,"âķĲâķĲ":3994,"'))<":3995,".\",<":3996,"not":3997,"sampling":3998,"Êı":3999,"ÑĦ":4000,"è®":4001,"lean":4002,"arras":4003,"amount":4004,"Ġmissing":4005,"icient":4006,"Ġauto":4007,"Ġwave":4008,"istic":4009,"Ġattr":4010,"123":4011,"124":4012,"Ġfunctions":4013,"Ġdiffer":4014,"Ġavg":4015,"\"}<":4016,"Ġpool":4017,"coll":4018,"tok":4019,"Ġgraph":4020,"Ġexpert":4021,"Ġarguments":4022,"google":4023,"dump":4024,"Dec":4025,"bn":4026,"ssed":4027,"}:":4028,"Ð´":4029,"student":4030,"Ġmotion":4031,"Ġwrite":4032,"ĠLog":4033,"ĠDown":4034,"measure":4035,"Real":4036,"Ġevaluate":4037,"```":4038,"TEXT":4039,"Ġscipy":4040,"Ġbetween":4041,"Ġcounts":4042,"NotFound":4043,"AP":4044,"BO":4045,"MS":4046,"System":4047,"ef":4048,"language":4049,"mult":4050,"ðŁ":4051,"ert":4052,"unique":4053,"ensions":4054,"Ġthere":4055,"ĠEuler":4056,"acc":4057,"Storage":4058,"ĠConv":4059,"requests":4060,"levelname":4061,"Ġlengths":4062,"DConditionModel":4063,"13":4064,"GB":4065,"Llama":4066,"Tuple":4067,"bind":4068,"gent":4069,"widget":4070,"iment":4071,"ctime":4072,"Ġinformation":4073,"Ġdoc":4074,"ĠNote":4075,"ĠSh":4076,"Ġdelta":4077,"0000":4078,"Ġ```":4079,"latents":4080,"Ġleft":4081,"active":4082,"ASS":4083,"Ġtranscript":4084,"Ġvalidation":4085,"randint":4086,"ĠUpdate":4087,"istral":4088,"Ġengine":4089,"Eval":4090,"II":4091,"Of":4092,"](":4093,"]['":4094,"sing":4095,"Ġretri":4096,"Ġtheir":4097,"pol":4098,"setFormatter":4099,"Ġhow":4100,"Ġhandler":4101,"apes":4102,"ĠOutput":4103,"layout":4104,"Ġtrainable":4105,"account":4106,"ĠHow":4107,"Ġpaths":4108,"Ġagent":4109,"IMAGE":4110,"roller":4111,"schedulers":4112,"Ġradians":4113,"BUG":4114,"512":4115,">%":4116,"buil":4117,"Ġnow":4118,"Ġsure":4119,"stride":4120,"login":4121,"Ġexists":4122,"estim":4123,"Ġjust":4124,"iteration":4125,"Ġsubject":4126,"lecturer":4127,"factory":4128,"simple":4129,"rewards":4130,"ilarity":4131,"Engine":4132,"ROR":4133,"ea":4134,"safe":4135,"atic":4136,"change":4137,"Ġmark":4138,"Ġredu":4139,"ilon":4140,"ĠASC":4141,"upper":4142,"Ġstates":4143,"###":4144,"ĠDis":4145,"Ġbatches":4146,"evals":4147,"endswith":4148,"Ġmatches":4149,"web":4150,"ĠConfigMixin":4151,"landing":4152,"PRO":4153,"eb":4154,"ear":4155,"feed":4156,"la":4157,"sg":4158,"real":4159,"Ġdone":4160,"Ġbound":4161,"__))<":4162,"ightRAG":4163,"ĠInput":4164,"Ġloader":4165,"summ":4166,"Ġaccuracy":4167,"runtime":4168,"TEMPL":4169,"Ġlatents":4170,"Ġinclude":4171,"PORT":4172,"ublic":4173,"27":4174,"CLI":4175,"Dis":4176,"PATH":4177,"Ġå":4178,"Ġserver":4179,"Ġsleep":4180,"Ġbuffer":4181,"ĠNew":4182,"Ġprovide":4183,"Ġvar":4184,"ERS":4185,"collector":4186,"ĠJSON":4187,"ĠQuery":4188,"OPEN":4189,"Ġvia":4190,"28":4191,">{":4192,"done":4193,"ook":4194,"rnn":4195,"Ġepisode":4196,"alid":4197,"alphas":4198,"asctime":4199,"Ġpip":4200,"unch":4201,"oney":4202,"Ġcondition":4203,"Ġ:]<":4204,"Ġmaximum":4205,"after":4206,"Ġ'''<":4207,"Ġindic":4208,"where":4209,"ĠToken":4210,"allenge":4211,"\"),":4212,"Ans":4213,"Events":4214,"Torch":4215,"betas":4216,"motions":4217,"Ġser":4218,"Ġ--------------------------------":4219,"recor":4220,"Ġclean":4221,"Ġdg":4222,"Ġoper":4223,"conn":4224,"planner":4225,"ĠCalculate":4226,"antum":4227,"gramClient":4228,"Ġnormalize":4229,"ÐµÐ½":4230,"planation":4231,"ĠDeepgramClient":4232,"agnitude":4233,"Answer":4234,"21":4235,"Enum":4236,"IST":4237,"here":4238,"ius":4239,"wen":4240,"inspect":4241,"Ġthey":4242,"Ġwin":4243,"--<":4244,"ĠAsync":4245,"obs":4246,"columns":4247,"Ġsettings":4248,"Ġcollections":4249,"DataFrame":4250,"Ġelements":4251,"POST":4252,"LoaderMixin":4253,"ighb":4254,"mediate":4255,"ordin":4256,"blue":4257,"ĠLlamaFactory":4258,"ĠLayerNorm":4259,"NotFoundError":4260,"IF":4261,"SW":4262,"SER":4263,"aa":4264,"Ġsafety":4265,"adapter":4266,"Ġboth":4267,"strategy":4268,"div":4269,"Ġ[-":4270,"Ġhigh":4271,"application":4272,"ERROR":4273,"prompts":4274,"Ġdefaults":4275,"Ġmessagebox":4276,"AMPLE":4277,"Ġsuccessfully":4278,"unctools":4279,"TEMPLATE":4280,"Sampler":4281,"]),":4282,"sound":4283,"schedule":4284,"tmp":4285,"paint":4286,"stage":4287,"Ġ\")<":4288,"Ġcourse":4289,"ĠAc":4290,"oment":4291,"Ġstyle":4292,"Ġrand":4293,"prototypes":4294,"Ġdir":4295,"ĠWhether":4296,"ĠmaxTokens":4297,"contin":4298,"Ġpartial":4299,"Ġinference":4300,"crete":4301,"ĠAutoModel":4302,":%":4303,"HE":4304,"kdir":4305,"none":4306,"sup":4307,"ys":4308,"debug":4309,"Ġ\"_":4310,"Ġids":4311,"Ġbest":4312,"ĠLive":4313,"Ġcond":4314,"textand":4315,"Ġequ":4316,"á´Ħ":4317,"inds":4318,"Ġunit":4319,"jsonl":4320,"Ġalign":4321,"Ġlearning":4322,"Ġnegative":4323,"patches":4324,"manager":4325,"Ġcosine":4326,"Ġetc":4327,"smpllib":4328,"button":4329,"eve":4330,"ls":4331,"ts":4332,"tan":4333,"Ñĭ":4334,"åħ":4335,"Ġepisodes":4336,"reply":4337,"Ġfunctools":4338,"constants":4339,"Ġ15":4340,"Ġhalf":4341,"odal":4342,"Ġappro":4343,"aking":4344,"Ġvelocity":4345,"Ġá´Ľ":4346,"Ġtraj":4347,"URL":4348,"Ġtools":4349,"Ġexecute":4350,"ought":4351,"Ġsqlite":4352,"fut":4353,"gen":4354,"huggingface":4355,"pisode":4356,"rid":4357,"}\".":4358,"loy":4359,"Ġpm":4360,"thing":4361,"Ġ:]":4362,"column":4363,"akes":4364,"Ġsaved":4365,"RAIN":4366,"ĠPerform":4367,"Al":4368,"branch":4369,"document":4370,"ect":4371,"æĸ":4372,"stim":4373,"ĠĠĠĠĠĠĠĠĠ":4374,"ĠTransformer":4375,"textonly":4376,"projector":4377,"predictions":4378,"configs":4379,"Ġprediction":4380,"Ġtypes":4381,"ways":4382,"predicted":4383,"merge":4384,"single":4385,"}')<":4386,"æĹ":4387,"als":4388,"arrange":4389,"esh":4390,"portion":4391,"Ġmetric":4392,"Ġph":4393,"Ġ[],<":4394,"ĠOr":4395,"timeout":4396,"ĠEns":4397,"Ġanaly":4398,"shapes":4399,"128":4400,"cesses":4401,"ummary":4402,"rypted":4403,"Ġmove":4404,"Ġiteration":4405,"Char":4406,"(**":4407,".\\":4408,"Fl":4409,"Pool":4410,"btn":4411,"eck":4412,"sig":4413,"snake":4414,"Ġempty":4415,"repeat":4416,"ams":4417,"()</":4418,"ĠAl":4419,"Ġresolution":4420,"Ġprogress":4421,"astic":4422,"ĠĠĠĠĠĠĠĠĠĠĠĠĠĠĠĠĠĠĠĠĠĠĠĠĠĠĠĠĠĠĠ":4423,"infer":4424,"Ġgeneration":4425,"hisper":4426,"pattern":4427,"ESS":4428,"Exec":4429,"Ġcursor":4430,"Ġfactor":4431,"').":4432,"Ent":4433,"HER":4434,"]+":4435,"can":4436,"filters":4437,"hub":4438,"high":4439,"mkdir":4440,"Ġview":4441,"Ġtimes":4442,"room":4443,"chem":4444,"amma":4445,"edge":4446,"pyplot":4447,"ĠMo":4448,"dirs":4449,"configure":4450,"crib":4451,"Ġ512":4452,"Ġlower":4453,"latest":4454,"reasoning":4455,"Ġallowed":4456,"OPENAI":4457,"05":4458,"=[\"":4459,"FORM":4460,"Json":4461,"MM":4462,"YST":4463,"dated":4464,"hit":4465,"llo":4466,"ndim":4467,"Ñı":4468,"Ġnames":4469,"Ġcast":4470,"Ġcross":4471,"Ġbu":4472,"ĠAss":4473,"ĠLightRAG":4474,"Ġstudent":4475,"Ġstandard":4476,"Ġequal":4477,"ĠIt":4478,"ĠEmbedding":4479,"Ġroom":4480,"']:<":4481,"Ġclasses":4482,"ĠlogFile":4483,"DEBUG":4484,"LECT":4485,"ugh":4486,"scaled":4487,"subject":4488,"Ġimgui":4489,"Ð¸Ð":4490,"ĠDefine":4491,"display":4492,"Ġpredicted":4493,"Button":4494,"MIN":4495,"Send":4496,"USE":4497,"every":4498,"fetch":4499,"ç»":4500,"Ġsd":4501,"Ġinher":4502,"__.":4503,"etry":4504,"ĠLiteral":4505,"respon":4506,"database":4507,"Ġhandle":4508,"Ġprojections":4509,"addr":4510,"Ġpassed":4511,"\")[-":4512,"datasets":4513,"Ġaccount":4514,"Ġparts":4515,"straint":4516,"ategory":4517,"êľ±":4518,"35":4519,":`":4520,":\")<":4521,"Me":4522,"NN":4523,"OI":4524,"driver":4525,"pip":4526,"vid":4527,"}_":4528,"Ġens":4529,"rees":4530,"Ġcpu":4531,"andbox":4532,"abstractmethod":4533,"Ġ1000":4534,"ĠLinear":4535,"ssible":4536,"Ġ200":4537,"derr":4538,"periment":4539,"timestep":4540,"ocent":4541,"ideo":4542,"convention":4543,"PipelineOutput":4544,"Ġusage":4545,"Ġcontains":4546,"clean":4547,"Ġdeno":4548,"pixel":4549,"DS":4550,"duration":4551,"hip":4552,"my":4553,"pipelines":4554,"rb":4555,"sole":4556,"è§":4557,"instruction":4558,"Ġip":4559,"Ġsolution":4560,"Ġsolve":4561,"pture":4562,"uniform":4563,"cope":4564,"ĠLlava":4565,"alleng":4566,"ĠRed":4567,"answers":4568,"Ġloading":4569,"Ġprocessor":4570,"Ġdescrib":4571,"Exception":4572,"ĠGenerator":4573,"ĠAutoTokenizer":4574,"Ġdeepcopy":4575,"UDA":4576,"ĠEnsure":4577,"allenges":4578,"200":4579,"font":4580,"repo":4581,"Ġrel":4582,"Ġsorted":4583,"entions":4584,"ceed":4585,"eter":4586,"quences":4587,"(\".":4588,"ĠSpe":4589,"anges":4590,"energy":4591,"Inter":4592,"cognize":4593,"Ġadjust":4594,"ĠTaskState":4595,"uthor":4596,"movement":4597,"summary":4598,"?\",":4599,"AE":4600,"Man":4601,"Meta":4602,"gate":4603,"yaml":4604,"zip":4605,"{\"":4606,"Ġport":4607,"levels":4608,"Ġclear":4609,"Ġconf":4610,"classifier":4611,"Ġtexts":4612,"ouse":4613,"masked":4614,"Ġappend":4615,"extractor":4616,"16000":4617,"condition":4618,"transforms":4619,"ĠLoss":4620,"Ġ[`~":4621,"ĠTEXT":4622,"åº¦":4623,"omentum":4624,"'{":4625,")),":4626,">-":4627,"Di":4628,"]],":4629,"mic":4630,"sol":4631,"sampl":4632,"tin":4633,"pause":4634,"rough":4635,"Ġreason":4636,"Ġcallable":4637,"Ġwere":4638,"plex":4639,"Ġglob":4640,"Ġconn":4641,"product":4642,"corator":4643,"Ġvis":4644,"Ġinteger":4645,"shuffle":4646,"speech":4647,"Ġqs":4648,"Ġpose":4649,"Ġspeech":4650,"Ġllama":4651,"ograph":4652,"completions":4653,"Ġtranscription":4654,"Ġplace":4655,"password":4656,"Ġterms":4657,"HOST":4658,"policy":4659,">\"\"\"":4660,"CL":4661,"Session":4662,"aken":4663,"beat":4664,"bbox":4665,"lap":4666,"uding":4667,"inverse":4668,"anc":4669,"allow":4670,"Ġfn":4671,"loop":4672,"cture":4673,"Ġdon":4674,"Ġoption":4675,"Ġwarm":4676,"conf":4677,"logps":4678,"Ġstore":4679,"Ġvision":4680,"eights":4681,"Ġcombin":4682,"Ġmasked":4683,"opponent":4684,"ART":4685,"tasks":4686,"rowser":4687,"multiply":4688,"pkl":4689,"æĺ¯":4690,"Ġcenter":4691,"ĠASCII":4692,"YSTEM":4693,"ocentric":4694,":-":4695,"dinov":4696,"pp":4697,"tf":4698,"ving":4699,"Ðº":4700,"è¿":4701,"invalid":4702,"Ġmon":4703,"gest":4704,"ĠTime":4705,"sets":4706,"velocity":4707,"ifest":4708,"usy":4709,"Ġdelete":4710,"fft":4711,"ĠEval":4712,"Ġalso":4713,"Ġdesired":4714,"radius":4715,"177":4716,"finished":4717,"Ġmerged":4718,"EIGHTS":4719,",))<":4720,":,":4721,"Des":4722,"Line":4723,"dp":4724,"each":4725,"Ġduration":4726,"Ġlang":4727,"Ġreturns":4728,"Ġstar":4729,"project":4730,"Ġexpected":4731,"ĠĠĠĠĠĠĠĠĠĠĠĠĠĠĠĠĠĠĠĠĠ":4732,"Ġimplementation":4733,"Content":4734,"Ġcost":4735,"Ġrequire":4736,"PIL":4737,"Ġcolumns":4738,"ĠSequence":4739,"Ġadded":4740,"vars":4741,"Ġ''',":4742,"install":4743,"analysis":4744,"95":4745,"::":4746,"Int":4747,"NING":4748,"VAL":4749,"field":4750,"ga":4751,"gor":4752,"hore":4753,"ky":4754,"space":4755,"åĽ":4756,"ero":4757,"recognition":4758,"alar":4759,"Ġfill":4760,"Ġfeed":4761,"Ġfields":4762,"Ġrearrange":4763,"Ġsha":4764,"Ġinsert":4765,"Ġforce":4766,"ily":4767,"istics":4768,"Ġ-=":4769,"ĠLazy":4770,"ĠDATA":4771,"Ġprojection":4772,"ĠBreed":4773,"quired":4774,"Ġtimestamp":4775,"ReLU":4776,"library":4777,"tract":4778,"Ġ60":4779,"Ġheaders":4780,"ä¸Ģ":4781,"Img":4782,"Colors":4783,"Ġcontaining":4784,"Unknown":4785,"Ġpeople":4786,"Ġinherits":4787,"Could":4788,"Ser":4789,"Util":4790,"WAR":4791,"What":4792,"crop":4793,"mote":4794,"sha":4795,"ux":4796,"wn":4797,"ÑĨ":4798,"Ġtakes":4799,"alle":4800,"hex":4801,"Ġpt":4802,"entence":4803,"Ġreturned":4804,"plements":4805,"ĠCOR":4806,"usage":4807,"ĠDi":4808,"Ġxs":4809,"Ġ/=":4810,"andlers":4811,"validation":4812,"Ġtasks":4813,"Ġtrajectory":4814,"elem":4815,"Ġreference":4816,"trib":4817,"ÑĥÐ´":4818,"Modified":4819,"Ġrandn":4820,"textandimage":4821,"ĠASCIIColors":4822,"gorith":4823,"nan":4824,"ork":4825,"rec":4826,"Ġreset":4827,"Ġshe":4828,"icon":4829,"pet":4830,"Ġbone":4831,"andid":4832,"counter":4833,"ĠCourse":4834,"Ġguidance":4835,"Ġparent":4836,"address":4837,"ĠBy":4838,"means":4839,"backward":4840,"Ġpossible":4841,"StableDiffusion":4842,"ugment":4843,"Ġleast":4844,"Ġcolumn":4845,"Ġscene":4846,"Add":4847,"ĠDefaults":4848,"dumps":4849,"Ġsignal":4850,"INTER":4851,"ĠDiffusionPipeline":4852,":]":4853,"Label":4854,"`.":4855,"eos":4856,"eural":4857,"hy":4858,"kl":4859,"oriz":4860,"storage":4861,"Ġmsg":4862,"Ġcat":4863,"Ġsol":4864,"entities":4865,"Ġour":4866,"__.__":4867,"stron":4868,"ĠtoSend":4869,"ĠScheduler":4870,"Ġeff":4871,"Ġ30":4872,"('''":4873,"ĠGPU":4874,"aces":4875,"ĠInitial":4876,"opied":4877,"extract":4878,"running":4879,"eye":4880,"Ġcorrespon":4881,"FileHandler":4882,"Training":4883,"Ġá´Ģ":4884,"ĠDEEPGRAM":4885,"details":4886,"Ġcheckpoints":4887,"Failed":4888,"others":4889,"Ġcallback":4890,"Ġrepresenting":4891,"QueryParam":4892,"BOX":4893,"GRE":4894,"LR":4895,"]*":4896,"actor":4897,"bi":4898,"eded":4899,"fewshot":4900,"gs":4901,"kit":4902,"sv":4903,"xx":4904,"çĶ":4905,"dete":4906,"Ġfid":4907,"Ġ\"\")<":4908,"Ġmix":4909,"otor":4910,"Ġbl":4911,"Ġwhether":4912,"pow":4913,"ĠSentence":4914,"endpoint":4915,"Ġnote":4916,"progress":4917,"Ġsegments":4918,"Ġdistribution":4919,"reduce":4920,"Ġapple":4921,"Ġtrainer":4922,"STR":4923,"lative":4924,"Ġanswers":4925,"Ġloaded":4926,"ALL":4927,"}/{":4928,"Executor":4929,"HERE":4930,"allel":4931,"Ac":4932,"KL":4933,"URE":4934,"gin":4935,"mc":4936,"nx":4937,"tab":4938,"section":4939,"eri":4940,"rome":4941,"igr":4942,"Ġbs":4943,"into":4944,"\"<|":4945,"getitem":4946,"ĠCopied":4947,"()[":4948,"ĠSE":4949,"Ġthree":4950,"configuration":4951,"Ġenable":4952,"ĠKarras":4953,"ĠuserNotebook":4954,"network":4955,"ULL":4956,"Ġvariant":4957,"Ġformatt":4958,"DATASET":4959,"Identity":4960,"enabled":4961,")')<":4962,">\"\"":4963,"ium":4964,"lint":4965,"vae":4966,"xlabel":4967,"æķ":4968,"semester":4969,"leg":4970,"align":4971,"Ġmel":4972,"Ġpipelines":4973,"construct":4974,"á´į":4975,"Ġbelow":4976,"letter":4977,"Ġpylint":4978,"ANNE":4979,"ĠStart":4980,"Ġusername":4981,"mesh":4982,"abilities":4983,"ributes":4984,"Hello":4985,"Ġdifferent":4986,"ordinates":4987,");<":4988,"CAL":4989,"FL":4990,"NUM":4991,"SS":4992,"clear":4993,"gra":4994,"ren":4995,"ten":4996,"å°":4997,"Ġ?<":4998,"Ġquestions":4999,"Ġfolder":5000,"utions":5001,"Ġnull":5002,"Ġma":5003,"geocentric":5004,"Ġdt":5005,"Ġdynamic":5006,"logit":5007,"()):<":5008,"Ġded":5009,"agram":5010,"inite":5011,"ĠInt":5012,"Ġseparator":5013,"heading":5014,"INE":5015,"positive":5016,"ControlNet":5017,"userNotebook":5018,"Ġconfiguration":5019,"ideollama":5020,"Ġnoqa":5021,"encies":5022,"ĠPyTorch":5023,"Ġpattern":5024,"pending":5025,"ĠProgram":5026,"ĠUpload":5027,"Ġdownloading":5028,"docs":5029,"skip":5030,"Ġdetails":5031,"([\"":5032,"RGB":5033,"dig":5034,"draw":5035,"sp":5036,"Ġlock":5037,"Ġrank":5038,"edges":5039,"Ġland":5040,"Ġwf":5041,"()]<":5042,"Ġhis":5043,"Ġdecoded":5044,"Ġsend":5045,"Ġpredictions":5046,"rgb":5047,"moid":5048,"uster":5049,"grads":5050,"204":5051,"ĠapiKey":5052,"Ġdeepspeed":5053,"Transcription":5054,"sqlqueue":5055,"ĠSentenceTransformer":5056,"ANNEL":5057,"Agent":5058,"Down":5059,"PASS":5060,"QL":5061,"gather":5062,"pers":5063,"alty":5064,"ctx":5065,"gether":5066,"Ġsuch":5067,"Ġinner":5068,"unfinished":5069,"Ġstor":5070,"Ġdeprec":5071,"Ġratio":5072,"processed":5073,"('%(":5074,"Ġintent":5075,"llava":5076,"'][":5077,"Ġ`(":5078,"ocal":5079,"accelerator":5080,"neg":5081,"ĠHe":5082,"PImage":5083,"Ġdisplay":5084,"Ġexisting":5085,"Ġ768":5086,"ĠAttention":5087,"Ġselected":5088,"Ġplaying":5089,"builder":5090,"66":5091,"98":5092,"La":5093,"Max":5094,"Raw":5095,"SYSTEM":5096,"hparams":5097,"spatial":5098,"vance":5099,"inator":5100,"impl":5101,"ality":5102,"Ġthem":5103,"ump":5104,"emo":5105,"ĠĠĠĠĠĠĠĠĠĠĠĠĠ":5106,"concept":5107,"Ġ[]":5108,"clamp":5109,"settings":5110,"ĠDDP":5111,"Ġrmat":5112,"ĠEnum":5113,"Ġuses":5114,"Ġpaper":5115,"DIA":5116,"structor":5117,"Ġvec":5118,"Ġdisc":5119,"shots":5120,"MAX":5121,"media":5122,"ĠĠĠĠĠĠĠĠĠĠĠĠĠĠĠĠĠĠĠĠĠĠĠĠĠĠ":5123,"offsets":5124,"æľī":5125,"Ġgradients":5126,"ãĢĤ":5127,"Ġindicating":5128,"samplerate":5129,"\"[":5130,".)<":5131,"42":5132,"Only":5133,"TS":5134,"brew":5135,"brid":5136,"fake":5137,"spa":5138,"sage":5139,"åľ":5140,"Ġ----------------":5141,"orth":5142,"Ġinstruction":5143,"__':<":5144,"etri":5145,"Ġ11":5146,"()}<":5147,"ables":5148,"header":5149,"ryan":5150,"Ġkl":5151,"ives":5152,"ignore":5153,"flags":5154,"ModuleList":5155,"structions":5156,"abspath":5157,"Ġinstances":5158,"Forward":5159,"Ġrepresentation":5160,"istry":5161,"OpenAI":5162,"ĠDownload":5163,"SWER":5164,"Ġensure":5165,"78":5166,"Bar":5167,"Co":5168,"PUT":5169,"RATE":5170,"bank":5171,"bryan":5172,"mem":5173,"wb":5174,"}\",":5175,"¼ÐµÐ½":5176,"¿Ð¸":5177,"æł":5178,"ined":5179,"eric":5180,"Ġtait":5181,"stand":5182,"hello":5183,"Ġsafe":5184,"exception":5185,"Ġaai":5186,"ride":5187,"ending":5188,"Ġhq":5189,"Ġeven":5190,"ised":5191,"Ġencode":5192,"matmul":5193,"udge":5194,"mooth":5195,"Inversion":5196,"Recognizer":5197,"Ġobs":5198,"Ġclassifier":5199,"')[":5200,"Ð°Ð¿Ð¸":5201,"visible":5202,"Analy":5203,"ĠResponse":5204,"Ġclose":5205,"ÑĭÐ":5206,"Ġwarmup":5207,"ÑĨÐ¸":5208,"Ð°Ð¿Ð¸Ñģ":5209,"500":5210,"aive":5211,"bine":5212,"fd":5213,"fra":5214,"spl":5215,"É¢":5216,"ÊĻ":5217,"Ġ--------":5218,"Ġfp":5219,"Ġmaster":5220,"Ġrelation":5221,"Ġspa":5222,"Ġpr":5223,"admin":5224,"Ġthemes":5225,"Ġbin":5226,"poses":5227,"ĠLLAMA":5228,"Ġdecoder":5229,"preview":5230,"listdir":5231,"oled":5232,"generated":5233,"sentences":5234,"rategy":5235,"randn":5236,"Ġbackend":5237,"ĠQuatern":5238,"ĠQuantum":5239,"Ġmanage":5240,"Ġconsole":5241,"Ġverbose":5242,"Ġcamera":5243,"Ġcorresponding":5244,"Ġdedent":5245,"->":5246,"Sc":5247,"Valid":5248,"cnt":5249,"dense":5250,"gl":5251,"iver":5252,"jit":5253,"keras":5254,"uuid":5255,"orig":5256,"Ġmagnitude":5257,"Ġsq":5258,"Ġpers":5259,"adam":5260,"Ġaverage":5261,"Ġ#<":5262,"rable":5263,"Ġwrap":5264,"ĠNULL":5265,"Ġ[(":5266,"allback":5267,"ĠModule":5268,"Ġseen":5269,"Ġdirect":5270,"penalty":5271,"Ġdefaultdict":5272,"latform":5273,"diffusers":5274,"maphore":5275,"Example":5276,"Ġinstead":5277,"Ġentity":5278,"Ġgroups":5279,"centage":5280,"Ġchatbot":5281,"BaseModel":5282,"Ġsklearn":5283,"Ġctx":5284,"Params":5285,"LAY":5286,"Vector":5287,"ĠQueue":5288,".*":5289,"04":5290,"768":5291,"92":5292,"Multi":5293,"Qt":5294,"]],<":5295,"bx":5296,"bra":5297,"busy":5298,"card":5299,"fname":5300,"gab":5301,"holder":5302,"iod":5303,"mpy":5304,"press":5305,"vers":5306,"çº":5307,"Ġar":5308,"oral":5309,"Ġtag":5310,"rel":5311,"Ġredirect":5312,"Ġsummary":5313,"Ġaz":5314,"__<":5315,"Ġ(*,":5316,"Ġask":5317,"ĠNorm":5318,"ĠSub":5319,"Ġexplanation":5320,"Ġsee":5321,"bound":5322,"infos":5323,"jected":5324,"Ġsuperclass":5325,"ANSWER":5326,"conversation":5327,"evaluation":5328,"CHANNEL":5329,"stats":5330,"ĠComput":5331,"Ġ128":5332,"Comm":5333,"Ġvariables":5334,"HeadAttention":5335,"ĠAutoModelForCausalLM":5336,"BE":5337,"MO":5338,"kh":5339,"large":5340,"mail":5341,"option":5342,"such":5343,"wandb":5344,"åĴ":5345,"è¦":5346,"repr":5347,"learning":5348,"any":5349,"Ġ\"@":5350,"Ġmul":5351,"Ġsandbox":5352,"Ġplease":5353,"else":5354,"Ġbox":5355,"Ġ('":5356,"argmax":5357,"Ġ'#":5358,"Ġ',":5359,"Ġdecode":5360,"Ġdiag":5361,"ĠWhisper":5362,"ĠWHERE":5363,"ird":5364,"ship":5365,"Strategy":5366,"acts":5367,"Ġaccess":5368,"controller":5369,"PText":5370,"Ġprocessing":5371,"asyncio":5372,"ilenames":5373,"cret":5374,"iao":5375,"disable":5376,"properties":5377,"vantage":5378,"Ġslice":5379,"scheduling":5380,"Ġcontrolnet":5381,"BytesIO":5382,"ĠThread":5383,"EXAMPLE":5384,"ography":5385,"WARNING":5386,")}<":5387,")}\")<":5388,"06":5389,"Drop":5390,"Min":5391,"ND":5392,"Web":5393,"ein":5394,"menu":5395,"pil":5396,"wallet":5397,"ĉĉ":5398,"ino":5399,"ings":5400,"Ġinitialize":5401,"entries":5402,"Ġbot":5403,"Ġ([":5404,"Ġexceed":5405,"prepare":5406,"cause":5407,"Ġpreprocess":5408,"Ġlogs":5409,"Ġkeyword":5410,"Load":5411,"Ġflax":5412,"VIDIA":5413,"404":5414,"Attn":5415,"Ġepochs":5416,"Adam":5417,"USER":5418,"æĺŁ":5419,"stronomic":5420,"erior":5421,"PImageProcessor":5422,"gabatch":5423,"åĴĮ":5424,"\"}":5425,"Brew":5426,"COR":5427,"TP":5428,"[~":5429,"_,":5430,"`].":5431,"js":5432,"pot":5433,"sil":5434,"å¼":5435,"æī":5436,"Ġreport":5437,"Ġresize":5438,"Ġinverse":5439,"Ġpenc":5440,"advantages":5441,"eli":5442,"Ġbody":5443,"constant":5444,"ĠLi":5445,"()).":5446,"rive":5447,"attentions":5448,"Ġ<<":5449,"ĠDropout":5450,"ĠDraw":5451,"Ġestim":5452,"ensors":5453,"timestamp":5454,"Ġround":5455,"ryption":5456,"ĠVe":5457,"'],<":5458,"String":5459,"([<":5460,"Ġgeneric":5461,"Ġsubmit":5462,"dapt":5463,"ĠYour":5464,"Ġpartic":5465,"Ġprobabilities":5466,"systemPrompt":5467,"efficient":5468,"TrainedTokenizer":5469,"PyAudio":5470,"gorithm":5471,"ĠQuaternions":5472,"Ġpencil":5473,")*":5474,"/%":5475,"537":5476,"DING":5477,"Is":5478,"PD":5479,"Video":5480,"named":5481,"sampler":5482,"uint":5483,"}\",<":5484,"Ġlow":5485,"sec":5486,"Ġnetwork":5487,"Ġsoftmax":5488,"Ġpolicy":5489,"izers":5490,"Ġlink":5491,"tocol":5492,"Ġ*=":5493,"Ġground":5494,"textEdit":5495,"pyaudio":5496,"ĠFind":5497,"ĠIM":5498,"prediction":5499,"headers":5500,"á´ĺ":5501,"aveform":5502,"rylib":5503,"ĠWh":5504,"Ġimplements":5505,"ocap":5506,"Ġdimensions":5507,"chedulers":5508,"based":5509,"Ġ%.":5510,"plicit":5511,"encoderKL":5512,"epsilon":5513,"Ġpassword":5514,"cosine":5515,"({<":5516,"ĠPreTrainedModel":5517,"controlnet":5518,"Ġdecay":5519,"selected":5520,"deepspeed":5521,"precision":5522,"Êľá´ĩ":5523,"Discrete":5524,"Ġprovides":5525,"Ġunittest":5526,"khrylib":5527,"Ġparticular":5528,")/":5529,"03":5530,"=['":5531,">=":5532,"DModel":5533,"Stop":5534,"TRAIN":5535,"].<":5536,"fps":5537,"kip":5538,"rm":5539,"}.\")<":5540,"Ġ^":5541,"second":5542,"onem":5543,"rep":5544,"road":5545,"iters":5546,"Ġfont":5547,"Ġfilters":5548,"Ġollama":5549,"thought":5550,"andins":5551,"qua":5552,">#!":5553,"Ġhour":5554,"Ġdev":5555,"ember":5556,"ĠFeed":5557,"ĠRetri":5558,"ower":5559,"cessary":5560,"------------":5561,"username":5562,"ĠListen":5563,"AND":5564,"utoff":5565,"Seq":5566,"Ġentries":5567,"Ġchunks":5568,"finish":5569,"ĠZh":5570,"Speed":5571,"Speech":5572,"ĠClass":5573,"Runtime":5574,"ĠRuntime":5575,"ĠQuestion":5576,"ildren":5577,"Ġhashlib":5578,"andinsky":5579,"?,":5580,"Ap":5581,"Labels":5582,"Long":5583,"OS":5584,"VE":5585,"]}":5586,"bu":5587,"fr":5588,"jnp":5589,"°å":5590,"Ġannot":5591,"star":5592,"dest":5593,"les":5594,"Ġmesh":5595,"edDict":5596,"Ġforms":5597,"ility":5598,"tom":5599,"Ġtorchvision":5600,"resnet":5601,"resume":5602,"oding":5603,"Ġrally":5604,"Ġvoxel":5605,"ĠEnt":5606,"('\\":5607,"ĠGE":5608,"ĠVideollama":5609,"background":5610,"translation":5611,"Ġsampled":5612,"Ġsetattr":5613,"Ġtensors":5614,"gistrable":5615,"localhost":5616,"Ġscaled":5617,"Ġchosen":5618,"COL":5619,"Ġsentences":5620,"Decoder":5621,"(\"/\")[-":5622,"Checker":5623,"degree":5624,"è¦ģ":5625,"PTextModel":5626,"60":5627,"75":5628,"PS":5629,"]:":5630,"cr":5631,"lit":5632,"Ġur":5633,"inem":5634,"Ġfut":5635,"Ġmed":5636,"Ġrec":5637,"Ġinv":5638,"Ġpitch":5639,"Ġast":5640,"ulary":5641,"Ġgold":5642,"ified":5643,"usic":5644,"formers":5645,"Ġdesc":5646,"ĠField":5647,"Ġprofile":5648,"Ġsequences":5649,"joco":5650,"DIMScheduler":5651,"jsonlogger":5652,"Ġpyrogram":5653,"ĠControlNet":5654,"Ġaccept":5655,"commit":5656,"funcName":5657,"rows":5658,"Ġ...<":5659,"before":5660,"multiple":5661,"slug":5662,"Ġpythonjsonlogger":5663,"Ġradius":5664,"sdp":5665,"cii":5666,"collate":5667,"JsonFormatter":5668,"ĠSpeech":5669,"Ġreasoning":5670,"plexity":5671,"roadcast":5672,"And":5673,"CUDA":5674,"Iter":5675,"NO":5676,"Ro":5677,"WEIGHTS":5678,"fail":5679,"mid":5680,"rins":5681,"va":5682,"ylabel":5683,"²Ð°Ð":5684,"³Ð":5685,"½Ñģ":5686,"âĶ":5687,"Ġ----":5688,"ĠÐ°":5689,"pal":5690,"orn":5691,"onnx":5692,"atypes":5693,"Ġfreq":5694,"Ġfetch":5695,"Ġmult":5696,"Ġcy":5697,"Ġcum":5698,"Ġpp":5699,"entropy":5700,"Ġdil":5701,"Ġaround":5702,"Ġlora":5703,"assign":5704,"Ġhook":5705,"Ġstt":5706,"ssa":5707,"Ġeuler":5708,"ĠRE":5709,"('.":5710,"Ġchain":5711,"Step":5712,"Ġgenerating":5713,"ĠKEY":5714,"illa":5715,"104":5716,"Ð¸Ð¾":5717,"elems":5718,"manifest":5719,"stdout":5720,"Ġavoid":5721,"ÉªÉ´":5722,"while":5723,"µÐ¼":5724,"Ġdeepgram":5725,"quantization":5726,"Union":5727,"ÊĢá´ĩ":5728,"ÐµÐ¼":5729,"jectories":5730,"signal":5731,"********":5732,"compile":5733,"ÑĢÐ°Ð³Ð":5734,"datatypes":5735,"ÑĦÑĢÐ°Ð³Ð":5736,"ÐºÑĢ":5737,"ÑĥÐ´Ð¸Ð¾":5738,"orizont":5739,"TranscriptionEvents":5740,"¼ÐµÐ½ÑĤ":5741,"ĠÐ°ÑĥÐ´Ð¸Ð¾":5742,"ÑĦÑĢÐ°Ð³Ð¼ÐµÐ½ÑĤ":5743,"43":5744,"AZ":5745,"SP":5746,"TR":5747,"Voice":5748,"Work":5749,"cap":5750,"called":5751,"duc":5752,"ka":5753,"éĩ":5754,"Ġamount":5755,"pair":5756,"incl":5757,"semaphore":5758,"atan":5759,"err":5760,"Ġfo":5761,"Ġmod":5762,"Ġremain":5763,"unit":5764,"ulative":5765,"ĠNO":5766,"ĠStop":5767,"Ġ256":5768,"ased":5769,"Ġwithin":5770,"ĠVocab":5771,"Ġapplied":5772,"bert":5773,"ORE":5774,"Info":5775,"gradio":5776,"ĠArgument":5777,"Ġ500":5778,"Ġacross":5779,"contrib":5780,"icks":5781,"Ġconversation":5782,"Projection":5783,"elements":5784,"VISION":5785,"á´ıá´ľ":5786,"sender":5787,"assertIs":5788,"Ġincluding":5789,"Ġconsider":5790,"SystemPrompt":5791,"AZURE":5792,")),<":5793,":',":5794,"Func":5795,"Optimizer":5796,"SO":5797,"browser":5798,"candid":5799,"faces":5800,"jax":5801,"ral":5802,"sw":5803,"uan":5804,"uplic":5805,"voxel":5806,"wo":5807,"}}<":5808,"éĹ":5809,"Ġ._":5810,"past":5811,"reens":5812,"retri":5813,"rops":5814,"rosa":5815,"ascii":5816,"Ġsa":5817,"Ġslow":5818,"Ġpk":5819,"adjust":5820,"icate":5821,"cover":5822,"argin":5823,"ĠTarget":5824,"olutions":5825,"Ġ'-":5826,"Ġconstant":5827,"ĠPlease":5828,"Ġresp":5829,"ĠMe":5830,"Ġsepar":5831,"ponents":5832,"negative":5833,"Ġlogvar":5834,"collection":5835,"ĠKe":5836,"============":5837,"viewer":5838,"Record":5839,"olean":5840,"Ġneighb":5841,"251":5842,"255":5843,"Ġlook":5844,"Ġinterval":5845,"ï¼ļ":5846,"bsite":5847,"pendencies":5848,"Ġ2048":5849,"PreTrainedModel":5850,"cycle":5851,"Ġtkinter":5852,"ough":5853,"-%":5854,"Do":5855,"django":5856,"mapping":5857,"ness":5858,"tic":5859,"times":5860,"ually":5861,"vllm":5862,"æĪ":5863,"Ġ})<":5864,"separator":5865,"report":5866,"lex":5867,"Ġretry":5868,"Ġcsv":5869,"Ġcoding":5870,"rase":5871,"Ġbbox":5872,"Ġbuil":5873,"Ġwidget":5874,"extend":5875,"Ġ''<":5876,"ĠCode":5877,"Ġconcurrent":5878,"havi":5879,"osk":5880,"Ġresidual":5881,"filepath":5882,"ĠĠĠĠĠĠĠĠĠĠĠĠĠĠĠĠĠĠĠĠ":5883,"Ġshort":5884,"Ġconfigure":5885,"Required":5886,"Ġresponses":5887,"Ġwords":5888,"Ġspecial":5889,"Ġblocks":5890,"ualInversion":5891,"track":5892,"truth":5893,"Ġaddress":5894,"arest":5895,"marks":5896,"chunks":5897,"Images":5898,"visual":5899,"Ġplan":5900,"STRING":5901,"LongTensor":5902,"orizontal":5903,"ualInversionLoaderMixin":5904,"Batch":5905,"GPU":5906,"QUE":5907,"yz":5908,"æĢ":5909,"ç®":5910,"Ġloc":5911,"Ġturn":5912,"requ":5913,"imodal":5914,"gex":5915,"Ġdump":5916,"Ġoc":5917,"Ġball":5918,"Ġ(-":5919,"ĠNetwork":5920,"ĠNVIDIA":5921,"click":5922,"Ġ25":5923,"corer":5924,"ĠPlot":5925,"Ġparents":5926,"ested":5927,"']['":5928,"Ġpay":5929,"spection":5930,"backend":5931,"transaction":5932,"Ġtensorflow":5933,"extraction":5934,"ĠStable":5935,"Ġflask":5936,"interval":5937,"NotNone":5938,"Ġdetail":5939,"Ġsubjects":5940,"Ġreduce":5941,"CLIP":5942,"ĠFeedForward":5943,"assertIsNotNone":5944,"'),":5945,"Missing":5946,"UB":5947,"eot":5948,"has":5949,"ie":5950,"lin":5951,"mos":5952,"vic":5953,"vate":5954,"watch":5955,"Ġvert":5956,"inspection":5957,"ords":5958,"Ġfps":5959,"Ġmoney":5960,"Ġabs":5961,"uncond":5962,"Ġwell":5963,"ulate":5964,"Ġ((":5965,"ĠTra":5966,"Ġhad":5967,"Ġdelet":5968,"Ġdete":5969,"ĠMake":5970,"('/":5971,"idxs":5972,"Ġpytorch":5973,"Ġlevels":5974,"Ġupload":5975,"Ġcoll":5976,"Ġcapture":5977,"probas":5978,"indows":5979,"Ġnoinspection":5980,"chosen":5981,"olders":5982,"Ġformatter":5983,"Ġrefresh":5984,"pipe":5985,"çļĦå":5986,"Ġobjects":5987,"305":5988,"benchmark":5989,"camera":5990,"ĠTrainer":5991,"terministic":5992,"tribute":5993,"emove":5994,"Dep":5995,"QA":5996,"frozen":5997,"gui":5998,"mouse":5999,"npy":6000,"qwen":6001,"tp":6002,"xl":6003,"Ġvertices":6004,"atus":6005,"Ġtaken":6006,"hest":6007,"heart":6008,"Ġnet":6009,"Ġtok":6010,"Ġdefine":6011,"plus":6012,"ĠNo":6013,"(\"-":6014,"Ġgamma":6015,"endof":6016,"Ġrng":6017,"Ġresume":6018,"fileMenu":6019,"Ġbecause":6020,"Ġimplement":6021,"ived":6022,"ivity":6023,"ĠState":6024,"ickl":6025,"ĠAdjust":6026,"HTTP":6027,"Ġinterpo":6028,"ä¸į":6029,"Ġfinish":6030,"straints":6031,"Generate":6032,"ĠAutoencoderKL":6033,"variable":6034,"ĠCLIPImageProcessor":6035,"ĠCLIPTextModel":6036,"Ġrecording":6037,"Ġfixed":6038,"Ġregular":6039,"bleu":6040,"humanml":6041,"ĠMultiHeadAttention":6042,"âķĲâķĲâķĲâķĲ":6043,"pisodeGenerator":6044,"ĠGELU":6045,".\",":6046,"08":6047,"38":6048,"47":6049,"?)":6050,"Av":6051,"Vec":6052,"auth":6053,"fit":6054,"guidance":6055,"ln":6056,"microphone":6057,"oints":6058,"treetune":6059,"warn":6060,"watermark":6061,"Ġarch":6062,"paInt":6063,"Ġteach":6064,"recv":6065,"remote":6066,"utom":6067,"hell":6068,"Ġcalcul":6069,"Ġday":6070,"igger":6071,"---<":6072,"istep":6073,"console":6074,"quare":6075,"parameter":6076,"Ġassum":6077,"ĠCustom":6078,"Ġgra":6079,"rior":6080,"ometry":6081,"Ġher":6082,"attempt":6083,"Ġdest":6084,"Ġrule":6085,"ĠOver":6086,"numbers":6087,"Ġthreshold":6088,"Ġuuid":6089,"ĠBatch":6090,"Context":6091,"ĠRequest":6092,"accum":6093,"Ġprec":6094,"Instance":6095,"RECT":6096,"Ġpositive":6097,"patible":6098,"uffix":6099,"videollama":6100,"Ġneg":6101,"subplot":6102,"ĠlastModified":6103,"TED":6104,"á´ĩÊĢ":6105,"Ġadvantages":6106,"ðĿĳ":6107,"ðĿļ":6108,"]]]:<":6109,"IME":6110,"Ġelem":6111,"Ġsimilar":6112,"ĠchatHistory":6113,"variant":6114,"ĠApple":6115,"366":6116,"packages":6117,"ĠEnvironment":6118,"docker":6119,"ĠIDs":6120,"Ġnormalized":6121,"bosity":6122,"Ġoperation":6123,"CharField":6124,"sigmoid":6125,"Ġ----------<":6126,"Ġdilation":6127,"endoftext":6128,"(?":6129,"58":6130,"AU":6131,"CRI":6132,"LATION":6133,"LDER":6134,"Mult":6135,"Microphone":6136,"SV":6137,"Safety":6138,"Widget":6139,"public":6140,"Ġutt":6141,"segments":6142,"Ġtake":6143,"imm":6144,"route":6145,"utable":6146,"Ġreverse":6147,"Ġskeleton":6148,"Ġthese":6149,"this":6150,"Ġbranch":6151,"Ġlarge":6152,"quiz":6153,"abc":6154,"ĠSkeleton":6155,"Ġdeg":6156,"projection":6157,"Ġnumbers":6158,"ĠPrint":6159,"Ġexit":6160,"001":6161,"Ġchallenge":6162,"ocus":6163,"Ġshow":6164,"ATCH":6165,"ĠExtract":6166,"uffers":6167,"acters":6168,"Ġnecessary":6169,"dmm":6170,"TEST":6171,"Ġproblems":6172,"DOC":6173,"similarity":6174,"({'":6175,"programs":6176,"Any":6177,"UNK":6178,"Ġfreeze":6179,"Ġopponent":6180,"OfEmotion":6181,"ĠReduce":6182,"ĠCORPOR":6183,"Ġ([`":6184,"SafetyChecker":6185,"\"},<":6186,"(\"<":6187,")\":":6188,"+)":6189,"Auto":6190,"Det":6191,"Graph":6192,"KV":6193,"Number":6194,"Task":6195,"Writer":6196,"best":6197,"euler":6198,"equal":6199,"hi":6200,"holders":6201,"nap":6202,"sph":6203,"sparse":6204,"Ġes":6205,"pairs":6206,"decoded":6207,"help":6208,"Ġcour":6209,"export":6210,"Ġdid":6211,"advance":6212,"izing":6213,"ulated":6214,"Ġtogether":6215,"ĠTIME":6216,"(\"./":6217,"ĠSolver":6218,"Ġhost":6219,"Ġstorage":6220,"figsize":6221,"deredDict":6222,"ĠOn":6223,"preds":6224,"=\"\")<":6225,"Ġonce":6226,"ĠBe":6227,"ĠGaussian":6228,"Ġ:-":6229,"\")[":6230,"Ġcould":6231,"Ġtests":6232,"Ġá´Ħ":6233,"Ġbackground":6234,"Ġcomplete":6235,"ĠProcess":6236,"Ġdistance":6237,"findall":6238,"224":6239,"GET":6240,"riterion":6241,"Thread":6242,"devices":6243,"rupt":6244,"super":6245,"Manager":6246,"anced":6247,"Ġcombined":6248,"frac":6249,"DiscreteScheduler":6250,"reenshot":6251,"ĠCORPORATION":6252,"AC":6253,"NL":6254,"Pos":6255,"cot":6256,"hn":6257,"li":6258,"other":6259,"rng":6260,"Ġart":6261,"seg":6262,"decorator":6263,"Ġfaster":6264,"ported":6265,"Ġcard":6266,"Ġcannot":6267,"gelu":6268,"gemini":6269,"Ġincorrect":6270,"ellow":6271,"Ġbw":6272,"Ġlong":6273,"Ġwav":6274,"ĠCO":6275,"ĠLe":6276,"usoid":6277,"pygame":6278,"ĠFrozen":6279,"ĠRandom":6280,"Ġexpand":6281,"Ġresnet":6282,"ĠMask":6283,"Ġvae":6284,"codes":6285,"ĠRecognition":6286,"Ġ42":6287,"errors":6288,"Ġident":6289,"hood":6290,"callable":6291,"Ġagain":6292,"ongo":6293,"afetensors":6294,"enchmark":6295,"factors":6296,"Ġmodif":6297,"Ġtrust":6298,"Ġconverted":6299,"Ġslug":6300,"limiter":6301,"Ġcharacter":6302,"Ġdenom":6303,"EMB":6304,"Ġterm":6305,"Ġtruncated":6306,"datas":6307,"è®¡":6308,"Realtime":6309,"ĠRuntimeError":6310,"ç®Ĺ":6311,"\"/":6312,"Cat":6313,"Course":6314,"DM":6315,"Length":6316,"MENT":6317,"Miao":6318,"Sup":6319,"Source":6320,"Schedulers":6321,"hand":6322,"oint":6323,"volume":6324,"zh":6325,"Ñİ":6326,"æŀ":6327,"éĢ":6328,"padded":6329,"enum":6330,"Ġface":6331,"Ġ\"./":6332,"Ġins":6333,"expected":6334,"Ġbo":6335,"power":6336,"olation":6337,"Ġaspect":6338,"ĠScorer":6339,"Ġhop":6340,"Ġstru":6341,"numeric":6342,"dimension":6343,"ĠEX":6344,"criber":6345,"ĠWeights":6346,"Ġdims":6347,"Ġknow":6348,"Ġprepare":6349,"Ġqvel":6350,"Start":6351,"Ġlect":6352,"ARY":6353,"Ġaccelerator":6354,"ĠStep":6355,"DiffusionSchedulers":6356,"partition":6357,"ĠÐŀ":6358,"Ġinfer":6359,"Ġgradio":6360,"expr":6361,"Ġmost":6362,"private":6363,"192":6364,"normalized":6365,"Ġnormalization":6366,"CACHE":6367,"fastprompt":6368,"ÑĢÐ°Ð½Ñģ":6369,"listening":6370,"feedback":6371,"ĠOrderedDict":6372,"MINI":6373,"ÑĭÐ²Ð°Ð":6374,"ĠWhisperModel":6375,"ÐºÑĢÐ¸Ð":6376,"ĠÐ°ÑĥÐ´Ð¸Ð¾ÑĦÑĢÐ°Ð³Ð¼ÐµÐ½ÑĤ":6377,"utomatic":6378,"ÑĢÐ°Ð½ÑģÐºÑĢÐ¸Ð":6379,")`":6380,"150":6381,"94":6382,":],":6383,"Dense":6384,"Group":6385,"LEN":6386,"Mistral":6387,"]**":6388,"aff":6389,"groq":6390,"pickle":6391,"tar":6392,"tun":6393,"yes":6394,"}{":6395,"æİ":6396,"Ġ}\")<":6397,"erc":6398,"alk":6399,"asy":6400,"Ġrece":6401,"Ġcrop":6402,"Ġinp":6403,"Ġdst":6404,"Ġaw":6405,"Ġactions":6406,"Ġbz":6407,"emon":6408,"Ġ({":6409,"ceil":6410,"ising":6411,"logvar":6412,"ĠCPU":6413,"ĠSkip":6414,"Ġhit":6415,"usr":6416,"ĠDP":6417,"projections":6418,"ĠPipeline":6419,"Ġvosk":6420,"Ġinte":6421,"Ġwhat":6422,"Ġship":6423,"ĠRead":6424,"ORS":6425,"([[":6426,"Ġpytest":6427,"Ġmasks":6428,"checkpointing":6429,"datetime":6430,"Ġupper":6431,"Ġneeded":6432,"scene":6433,"fixed":6434,"overlap":6435,"Ġflash":6436,"Ġscaling":6437,"IDTH":6438,"tains":6439,"intermediate":6440,"ä¸ª":6441,"simulator":6442,"Ġ123":6443,"VERS":6444,"ĠKeyboard":6445,"êľ°":6446,"###<":6447,"blueprint":6448,"æĹ¶":6449,"PoolExecutor":6450,"fetchall":6451,"Utils":6452,"Validation":6453,"Ġexceeds":6454,"Ġpencils":6455,"Depend":6456,"EMBED":6457,"26":6458,"220":6459,"FE":6460,"Random":6461,"ah":6462,"basic":6463,"jor":6464,"mantic":6465,"ons":6466,"Ġtxt":6467,"Ġfew":6468,"Ġrepo":6469,"Ġcap":6470,"Ġsun":6471,"Ġswe":6472,"Ġspace":6473,"Ġpot":6474,"Ġpix":6475,"exist":6476,"elation":6477,"unbind":6478,"Ġimportlib":6479,"ĠĠĠĠĠĠĠĠĠĠĠĠĠĠ":6480,"(\"%":6481,"()))<":6482,"Ġ{{":6483,"Ġconstruct":6484,"Ġconstructor":6485,"ĠST":6486,"aging":6487,"ipher":6488,"Ġprocesses":6489,"START":6490,"Ġattributes":6491,"boxed":6492,"ĠStudent":6493,"Ġscan":6494,"Ġinstalled":6495,"####################":6496,"Ġreflect":6497,"Ġsupports":6498,"ryptography":6499,"finetuning":6500,"Ġletters":6501,"autograd":6502,"âĢĻ":6503,"ĠExamples":6504,"Ġ```<":6505,"tanh":6506,"MMAND":6507,"è§Ĵ":6508,"Interrupt":6509,"åĽŀ":6510,"ĠDATASET":6511,"Ġcumulative":6512,"ĠTIMESTAMP":6513,"usoidal":6514,"ĠKeyboardInterrupt":6515,"-{":6516,".')<":6517,"Fin":6518,"Split":6519,"Total":6520,"_.":6521,"big":6522,"dst":6523,"dynamic":6524,"hour":6525,"lins":6526,"momentum":6527,"nb":6528,"ted":6529,"uator":6530,"åĩ":6531,"sequential":6532,"recognize":6533,"alog":6534,"challenges":6535,"loth":6536,"asm":6537,"asis":6538,"Ġmy":6539,"Ġcre":6540,"Ġ#################################":6541,"Ġbits":6542,"Ġbreed":6543,"Ġwait":6544,"Ġ'./":6545,"ĠLO":6546,"()),":6547,"ĠDo":6548,"Ġdemo":6549,"Ġeos":6550,"ĠFilter":6551,"Ġexperiment":6552,"ĠOther":6553,"llib":6554,"ĠWait":6555,"ĠReset":6556,"backbone":6557,"Status":6558,"Ġmegabatch":6559,"emplates":6560,"Ġqueryset":6561,"rotations":6562,"Ġstarts":6563,"ambient":6564,"downsample":6565,"Ġconvolution":6566,"Ġcontents":6567,"Ġ80":6568,"Ġentire":6569,"Color":6570,"Column":6571,"Ġedges":6572,"480":6573,"ĠConfigure":6574,"controls":6575,"Ġquantum":6576,"Ġckpts":6577,"expanduser":6578,"pander":6579,"å¤©":6580,"balls":6581,"Ġperformance":6582,"Ġconditioning":6583,"Ġconditions":6584,"igrations":6585,"æķ°":6586,"legend":6587,"LaMA":6588,"LAYER":6589,"Ġdiagonal":6590,"Ġoccur":6591,"è®¡ç®Ĺ":6592,"!\")<":6593,"$$":6594,"'\\":6595,"(\\":6596,")]":6597,"355":6598,"AX":6599,"Font":6600,"PC":6601,"Var":6602,"ever":6603,"glob":6604,"ohot":6605,"æĿ":6606,"Ġ=================================":6607,"Ġtemb":6608,"chuan":6609,"Ġmight":6610,"Ġreply":6611,"iding":6612,"Ġlm":6613,"Ġlon":6614,"olute":6615,"ĠSession":6616,"ĠSQL":6617,"Ġstable":6618,"outer":6619,"Ġthrough":6620,"uble":6621,"__(**":6622,"Ġchanges":6623,"ĠGo":6624,"mega":6625,"quire":6626,"Connection":6627,"short":6628,"phonem":6629,"aichuan":6630,"Ġunderstand":6631,"Ġconfigs":6632,"ĠInter":6633,"ĠContext":6634,"arguments":6635,"videos":6636,"tesIO":6637,"screen":6638,"THER":6639,"Extra":6640,"Ġapplication":6641,"Ġabc":6642,"ckpts":6643,"ĠConfiguration":6644,"Ġsocket":6645,"slice":6646,"slices":6647,"Ġgolf":6648,"Ġcloud":6649,"åĪĨ":6650,"ĠCLIPVision":6651,"Classifier":6652,"Ġfastapi":6653,"Ġreduction":6654,"Ġ------------------------------------------------":6655,"ĠBytesIO":6656,"INTERPO":6657,"çĶ¨":6658,"ĠIMAGE":6659,"Application":6660,"Ġurllib":6661,"requency":6662,"linspace":6663,"'%":6664,"''<":6665,"/\",":6666,">\",":6667,"EE":6668,"Mode":6669,"Post":6670,"Score":6671,"TY":6672,"Using":6673,"]])<":6674,"cnn":6675,"cmd":6676,"crops":6677,"middle":6678,"tqdm":6679,"levant":6680,"aldi":6681,"Ġflat":6682,"Ġcuda":6683,"Ġay":6684,"uming":6685,"Ġbx":6686,"Ġbar":6687,"Ġlik":6688,"intents":6689,"coord":6690,"ĠTr":6691,"plac":6692,"Ġ'<":6693,"Ġ'_":6694,"ensity":6695,"(\"[":6696,"Ġconstants":6697,"Ġexc":6698,"ĠIter":6699,"song":6700,"Ġvolume":6701,"Ġdivision":6702,"ĠGame":6703,"Ġcomment":6704,"Ġshard":6705,"STAN":6706,"Ġ48":6707,"ĠHEIGHT":6708,"ORY":6709,"trainedConfig":6710,"Ġ502":6711,"Ġminimum":6712,"markdown":6713,"ĠÐ²":6714,"ĠÐº":6715,"interface":6716,"Ġfinished":6717,"Ġactual":6718,"Ġworking":6719,"Ġsimilarity":6720,"MAP":6721,"Ġdots":6722,"Ġcompleted":6723,"reqs":6724,"moving":6725,"ATILE":6726,"../\")<":6727,"ĠAudioPlayer":6728,"needles":6729,"ĠSimple":6730,"APP":6731,"hipu":6732,"ĠSELECT":6733,"Analyzer":6734,"elihood":6735,"ĠZhou":6736,"Ġteacher":6737,"VERSATILE":6738,"\".<":6739,")])<":6740,"CTION":6741,"Created":6742,"Pass":6743,"Sl":6744,"Table":6745,"VA":6746,"]):":6747,"category":6748,"fea":6749,"greg":6750,"gaussian":6751,"ially":6752,"lazy":6753,"mas":6754,"money":6755,"templates":6756,"ying":6757,"à¸":6758,"å¾":6759,"enes":6760,"Ġtags":6761,"ret":6762,"recon":6763,"stderr":6764,"aries":6765,"Ġflo":6766,"uter":6767,"ctrl":6768,"Ġmp":6769,"Ġsw":6770,"advantage":6771,"unity":6772,"intent":6773,"Ġ14":6774,"\"]),<":6775,"embers":6776,"ĠFin":6777,"ĠFast":6778,"ĠRo":6779,"ĠRemove":6780,"comput":6781,"ĠEmotion":6782,"ĠĠĠĠĠĠĠĠĠĠĠĠĠĠĠĠĠĠĠĠĠĠ":6783,"Ġsympy":6784,"ĠHTT":6785,"moved":6786,"Inference":6787,"ious":6788,"trunc":6789,"Ġadditional":6790,"Ġflags":6791,"Program":6792,"Ġtransfer":6793,"Ġextracted":6794,"ĠTextualInversionLoaderMixin":6795,"created":6796,"NAMES":6797,"ĠDeepSpeed":6798,"ĠClient":6799,"ĠTraining":6800,"ĠCLIPTokenizer":6801,"Ġattrs":6802,"ĠShortcut":6803,"Ġretrieve":6804,"chema":6805,"Ġdescribed":6806,"Ġrelated":6807,"ĠKarrasDiffusionSchedulers":6808,"ĠInteger":6809,"digit":6810,"Ġ[]}<":6811,"Examples":6812,"çº¬":6813,"INTERPOLATION":6814,",)).":6815,"2024":6816,"62":6817,"86":6818,"FR":6819,"dates":6820,"ftime":6821,"fsdp":6822,"rist":6823,"sort":6824,"zz":6825,"}%":6826,"åĨ":6827,"èĩ":6828,"Ġ),":6829,"ended":6830,"lfw":6831,"ites":6832,"ports":6833,"Ġmid":6834,"ged":6835,"Ġplatform":6836,"Ġdyn":6837,"Ġdraw":6838,"Ġocc":6839,"ighest":6840,"Ġbroadcast":6841,"strftime":6842,"getMessage":6843,"Ġ13":6844,"resp":6845,"Ġglfw":6846,"Ġhy":6847,"Ġ24":6848,"pycache":6849,"verbose":6850,"agents":6851,"ĠPD":6852,"ĠPack":6853,"ĠPost":6854,"ĠMan":6855,"lockwise":6856,"ĠĠĠĠĠĠĠĠĠĠĠĠĠĠĠĠĠĠĠĠĠĠĠĠĠĠĠĠĠĠĠĠĠĠĠ":6857,"Ġenough":6858,"undred":6859,"Ġcover":6860,"Ġalways":6861,"REATE":6862,"Lock":6863,"Reader":6864,"Ġcollate":6865,"sqDict":6866,"ASSI":6867,"Network":6868,"ðĿĺ":6869,"1000":6870,"Ġprobability":6871,"Ġtransformer":6872,"BaseOutput":6873,"disk":6874,"Ġexecution":6875,"Admin":6876,"currency":6877,"Transcript":6878,"Ġinitialized":6879,"limits":6880,"VERSION":6881,"åĬł":6882,"future":6883,"futures":6884,"Ġanalysis":6885,"biased":6886,"Ġformatting":6887,"ĠThreadPoolExecutor":6888,"Ġdevices":6889,"EMBEDDING":6890,"Bench":6891,"Ele":6892,"Equal":6893,"HI":6894,"Kit":6895,"MESS":6896,"ValueError":6897,"fw":6898,"hw":6899,"hop":6900,"handlers":6901,"iLM":6902,"sloth":6903,"vstack":6904,"å¹":6905,"èµ":6906,"è½":6907,"Ġ~":6908,"ĠÑĤ":6909,"Ġ?,":6910,"ored":6911,"relation":6912,"demos":6913,"router":6914,"chrome":6915,"Ġds":6916,"Ġder":6917,"Ġabo":6918,"Ġbenchmark":6919,"Ġwatermark":6920,"Ġ'--":6921,"setdefault":6922,"(\",":6923,"epre":6924,"ĠSave":6925,"Ġhorizontal":6926,"Ġ240":6927,"Ġstrict":6928,"pytest":6929,"figure":6930,"profile":6931,"ĠFI":6932,"ĠFrom":6933,"ĠPR":6934,"ases":6935,"','":6936,"Ġparsed":6937,"ĠMetric":6938,"ĠMODEL":6939,"preprocess":6940,"Ġorig":6941,"Ġpropert":6942,"pond":6943,"Ġye":6944,"á´ł":6945,"[::-":6946,"Ġsho":6947,"Ġattempt":6948,"Ġprompts":6949,"reader":6950,"DEVI":6951,"transcribe":6952,"Ġpooled":6953,"TICAL":6954,"Ġpyd":6955,"Ġgeneral":6956,"Ġmeals":6957,"Return":6958,"Ġupdated":6959,"Ġperm":6960,"Ġcaptions":6961,"Ġcausal":6962,"Ġsubproblem":6963,"scaling":6964,"mlu":6965,"ROOT":6966,"roles":6967,"Ġscreen":6968,"Ġstrings":6969,"Search":6970,"website":6971,"execution":6972,"ĠPyAudio":6973,"}.\"<":6974,"POINT":6975,"ĠBaseOutput":6976,"ĠGPTModel":6977,"è¯·":6978,"freeze":6979,"records":6980,"documents":6981,"Flax":6982,">#!/":6983,"inematic":6984,"ĠOtherwise":6985,"ĠHTTP":6986,"ĠPacket":6987,"Ġabove":6988,">â":6989,"Cho":6990,"Callback":6991,"Ed":6992,"SM":6993,"Save":6994,"UES":6995,"UNet":6996,"[<":6997,"]\",":6998,"den":6999,"dummy":7000,"ians":7001,"lb":7002,"syn":7003,"soft":7004,"tick":7005,"tags":7006,"}_{":7007,"Òĵ":7008,"seconds":7009,"Ġttk":7010,"ited":7011,"Ġsp":7012,"Ġsyn":7013,"odetic":7014,"Ġinside":7015,"icle":7016,"Ġwould":7017,"Ġ(:":7018,"ĠNeural":7019,"ĠSend":7020,"ĠSoftware":7021,"Ġdebug":7022,"ĠOnly":7023,"Ġvllm":7024,"('''<":7025,"INO":7026,"INPUT":7027,"Ġtextwrap":7028,"redit":7029,"colates":7030,"LETE":7031,"Ġcolors":7032,"Ġaccum":7033,"without":7034,"calls":7035,"Ġendpoint":7036,"Ġá´ı":7037,"Ġindent":7038,"matches":7039,"Ġbackward":7040,"aux":7041,"Ġtwice":7042,"oraLoaderMixin":7043,"ĠLoRA":7044,"etuningArguments":7045,"GELU":7046,"docstring":7047,"flowers":7048,"Ġencrypted":7049,"payload":7050,"åĬĽ":7051,"Ġappropri":7052,"FORMAT":7053,">\"\"\".":7054,"ĠDDPMScheduler":7055,"ãĢĤ<":7056,"ĠsqDict":7057,"brace":7058,"Dropdown":7059,"Ġcollision":7060,"Ġsunflowers":7061,"epresent":7062,"!<":7063,"*.":7064,"202":7065,"312":7066,"88":7067,">\"<":7068,"Act":7069,"Db":7070,"First":7071,"aint":7072,"calculate":7073,"ek":7074,"iated":7075,"lper":7076,"lator":7077,"qasm":7078,"vq":7079,"yellow":7080,"zA":7081,"çĤ":7082,"çĽ":7083,"ĥ½":7084,"research":7085,"look":7086,"assets":7087,"Ġmiddle":7088,"Ġinvalid":7089,"coordinates":7090,"ĠTABLE":7091,"Ġ17":7092,"ĠCa":7093,"Ġ{},<":7094,"Ġconstraints":7095,"upload":7096,"ria":7097,"omain":7098,"Ġhighest":7099,"Ġstderr":7100,"Ġxyz":7101,"versed":7102,"verify":7103,"cording":7104,"ĠOptimizer":7105,"keywords":7106,"ĠMax":7107,"008":7108,"Ġjpos":7109,"Ġ_(\"":7110,"ĠError":7111,"}</":7112,"Ġbehavi":7113,"ĠBY":7114,"ĠBl":7115,"ModelArguments":7116,"\")))<":7117,"\")),<":7118,"ivations":7119,"Index":7120,"lotter":7121,"Ġcurrently":7122,"Ġflatten":7123,"Ġassoc":7124,"chatbot":7125,"Texts":7126,"Attribute":7127,"Ġcommon":7128,"Collector":7129,"character":7130,"Ġlibrosa":7131,"VeScheduler":7132,"ä½ł":7133,"Êıá´ıá´ľ":7134,"painting":7135,"loyd":7136,"Description":7137,"RawTexts":7138,"Workers":7139,"Ġfood":7140,"Ġprecision":7141,"Multistep":7142,"basicConfig":7143,"Ġ#####################################################":7144,"MESSAGE":7145,"-\\":7146,"89":7147,":])<":7148,"Author":7149,"CESS":7150,"Diff":7151,"It":7152,"Live":7153,"Out":7154,"Tree":7155,"Volume":7156,"[(":7157,"cutoff":7158,"gre":7159,"pus":7160,"waveform":7161,"xim":7162,"xml":7163,"zilla":7164,"·Ð°Ð¿Ð¸Ñģ":7165,"¹Ð»":7166,"½Ð°Ð":7167,"å¯":7168,"ĠÑĦ":7169,"Ġtrue":7170,"rete":7171,"imize":7172,"lose":7173,"Ġmotions":7174,"Ġrelease":7175,"Ġrelative":7176,"Ġcot":7177,"Ġcore":7178,"Ġpwn":7179,"adj":7180,"icode":7181,"etched":7182,"queries":7183,"Ġ177":7184,"ĠCREATE":7185,"serv":7186,"Ġgot":7187,"omial":7188,"ĠDDIMScheduler":7189,"ĠFa":7190,"Ġthose":7191,"ĠMicrophone":7192,"Ġproject":7193,"ibility":7194,"comment":7195,"Ġchallenges":7196,"Ġunbiased":7197,"ĠGeck":7198,"ModelMixin":7199,"Ġpair":7200,"Ġlists":7201,"neighb":7202,"SES":7203,"ively":7204,"Ġ40":7205,"transcriber":7206,"Instruct":7207,"contexts":7208,"criptCollector":7209,"savefig":7210,"iterations":7211,"ĠaudioBytes":7212,"rotmat":7213,"scroll":7214,"ĠSearch":7215,"attrs":7216,"trace":7217,"dots":7218,"Ġadding":7219,"2048":7220,"ĠÐ¿":7221,"ĠÐĹ":7222,"ĠÐ·Ð°Ð¿Ð¸Ñģ":7223,"Ð°Ð¹Ð»":7224,"IMARY":7225,"Ġentanglement":7226,"111":7227,"Ġworkers":7228,"Ġneeds":7229,"white":7230,"WORD":7231,"quantum":7232,"Ġcalling":7233,"instagram":7234,"999":7235,"latitudes":7236,"Ġmoves":7237,"Ð¾Ðº":7238,"SHOT":7239,"discrete":7240,"ĠTranscriptCollector":7241,"ĠassistantVoice":7242,"recorder":7243,"ĠDeepgramClientOptions":7244,"ĠLiveOptions":7245,"Ġequations":7246,"cleaned":7247,"Ġstoring":7248,"Command":7249,"quared":7250,"buf":7251,"COLOR":7252,"Ġfuture":7253,"ĠControlNetModel":7254,"Ġseparate":7255,"Ġdeleted":7256,"Available":7257,"iggered":7258,"CRITICAL":7259,"Ġlecturer":7260,"ÑĭÐ²Ð°ÐµÐ¼":7261,"ÑĢÐ°Ð½ÑģÐºÑĢÐ¸Ð¿":7262,"ĠGoogle":7263,"ĠÑĤÑĢÐ°Ð½ÑģÐºÑĢÐ¸Ð¿":7264,"LiveTranscriptionEvents":7265,"ĠGecko":7266,"(.*":7267,")\")<":7268,")],":7269,",)":7270,"76":7271,"CRE":7272,"Duration":7273,"GTH":7274,"LD":7275,"Row":7276,"Sh":7277,"bf":7278,"bal":7279,"ders":7280,"ddim":7281,"ddp":7282,"dino":7283,"notebook":7284,"oT":7285,"uv":7286,"your":7287,"year":7288,"{'":7289,"ä¹":7290,"ĠÊĻ":7291,"pac":7292,"ening":7293,"arvis":7294,"Ġfilenames":7295,"asarray":7296,"Ġ\"#":7297,"Ġnamed":7298,"Ġinplace":7299,"Ġpol":7300,"Ġtheta":7301,"Ġborder":7302,"Ġbasic":7303,"strict":7304,"distribution":7305,"const":7306,"Ġ*,<":7307,"ĠCross":7308,"ĠLIM":7309,"Ġ23":7310,"Ġdecor":7311,"Ġdevi":7312,"ĠRelation":7313,"Ġrescale":7314,"Ġprodu":7315,"captions":7316,"ured":7317,"ĠĠĠĠĠĠĠĠĠĠĠĠĠĠĠĠĠ":7318,"Ġbeing":7319,"irm":7320,"ENOI":7321,"Ġ:].":7322,"Constraint":7323,"until":7324,"Ġpresent":7325,"ritic":7326,"indexes":7327,"aker":7328,"())</":7329,"urls":7330,"CHUNK":7331,"curity":7332,"Ġusers":7333,"))[":7334,"scalar":7335,"={\"<|":7336,"Ġadapt":7337,"Segment":7338,"Ġtransformed":7339,"Ġheader":7340,"emails":7341,"Ġitems":7342,"Device":7343,"Ġoverall":7344,"Ġbackbone":7345,"ĠParams":7346,"Ġsince":7347,"Ġdoesn":7348,"GEMINI":7349,"initialize":7350,"`]):<":7351,"TransformerBlock":7352,"goal":7353,"registry":7354,"Ġquantity":7355,"Ġcharacters":7356,"Mozilla":7357,"Spec":7358,"ategor":7359,"mixed":7360,"Ġwavelet":7361,"Ġdenoised":7362,"FLAG":7363,"Ġdeprecate":7364,"Ġannotations":7365,"accumulation":7366,"ENOISER":7367,",)<":7368,"300":7369,"KAN":7370,"Lay":7371,"Router":7372,"Sim":7373,"Tool":7374,"augment":7375,"dd":7376,"dt":7377,"feet":7378,"ience":7379,"mx":7380,"ration":7381,"ti":7382,"tins":7383,"vas":7384,"writer":7385,"{}":7386,"ä¼":7387,"æį":7388,"è¡":7389,"inner":7390,"onion":7391,"Ġtable":7392,"children":7393,"heat":7394,"Ġ\"\"":7395,"Ġscope":7396,"Ġpur":7397,"ĠdB":7398,"__}":7399,"Ġway":7400,"Ġwallet":7401,"ulder":7402,"isual":7403,"plain":7404,"logprobs":7405,"ressed":7406,"essian":7407,"Ġhand":7408,"Ġhuggingface":7409,"ĠDec":7410,"Ġdeterm":7411,"ĠPM":7412,"ĠPolicy":7413,"terns":7414,"ĠMemory":7415,"=\"\\":7416,"Ġyaml":7417,"ĠEle":7418,"ĠĠĠĠĠĠĠĠĠĠĠĠĠĠĠĠĠĠ":7419,"ĠValue":7420,"ĠWav":7421,"ĠtextTo":7422,"Ġkv":7423,"ĠReg":7424,"nee":7425,"lette":7426,"ĠQApplication":7427,"ĠExec":7428,"Ġlearn":7429,"flip":7430,"Ġuploaded":7431,"))))<":7432,"ĠCohere":7433,"Ġflush":7434,"Ġtranscribe":7435,"team":7436,"258":7437,"ĠgenerateSystemPrompt":7438,"mbol":7439,"Ġtransformation":7440,"require":7441,"facebook":7442,"Ġposterior":7443,"Ġclosure":7444,"Ġotherwise":7445,"Ġlayout":7446,"assertEqual":7447,"WithP":7448,"showerror":7449,"Ġfailed":7450,"anticlockwise":7451,"Ġipdb":7452,"bboxes":7453,"hybrid":7454,"ĠDownloadSource":7455,"CHANNELS":7456,"ĠVector":7457,"ĠFrozenDict":7458,"Ġoccurred":7459,"ĠPRIMARY":7460,"Ġassociated":7461,"MultistepScheduler":7462,"Ġ########################################################<":7463,")[:,":7464,"Epoch":7465,"EVAL":7466,"GER":7467,"Limit":7468,"LINE":7469,"Mat":7470,"Or":7471,"PAR":7472,"SR":7473,"XL":7474,"]),<":7475,"dic":7476,"fmt":7477,"ipo":7478,"metas":7479,"tight":7480,"åĮ":7481,"æ®":7482,"ç½":7483,"Ġtgt":7484,"Ġtrees":7485,"rece":7486,"relative":7487,"itting":7488,"arr":7489,"aring":7490,"arly":7491,"Ġmic":7492,"Ġreduc":7493,"Ġcnt":7494,"Ġsmooth":7495,"enter":7496,"Ġastronomic":7497,"otes":7498,"emester":7499,"constraint":7500,"quit":7501,"parents":7502,"ĠAly":7503,"ĠAdapt":7504,"Ġgc":7505,"ĠSplit":7506,"allies":7507,"verbosity":7508,"corr":7509,"ĠPos":7510,"ĠInd":7511,"ĠMain":7512,"ĠMIT":7513,"Ġsec":7514,"Ġvers":7515,"Ġdiv":7516,"codebook":7517,"indx":7518,"nnx":7519,"ocalize":7520,"mats":7521,"Ġresulting":7522,"SELECT":7523,"DIM":7524,"ĠKandinsky":7525,"Ġpercentage":7526,"Ġperiod":7527,"evaluate":7528,"Ġclassification":7529,"lecture":7530,"cognized":7531,"tral":7532,"ImageProcessor":7533,"colors":7534,"marker":7535,"Listening":7536,"begin":7537,"LOW":7538,"copysign":7539,"ĠAdded":7540,"Ġintersection":7541,"ä¸ĭ":7542,"Ġfinally":7543,"Ġcorrectly":7544,"ĠĠĠĠĠĠĠĠĠĠĠĠĠĠĠĠĠĠĠĠĠĠĠĠĠĠĠĠĠĠĠĠĠĠĠĠĠ":7545,"binary":7546,"ĠFileNotFoundError":7547,"chars":7548,"rapper":7549,"Ġtruth":7550,"globals":7551,"á´ıÉ´":7552,"gression":7553,"MODELS":7554,"Ġepsilon":7555,"Ġsmpl":7556,"ĠRotations":7557,"ĠZero":7558,"á´ĢÉ´":7559,"Ġ-->":7560,"Ġcases":7561,"sendline":7562,"ISTS":7563,"ĠAcquire":7564,"Ġá´ĽÊľá´ĩ":7565,"Distribution":7566,"pression":7567,"SpeechBytes":7568,"candidates":7569,"Ġintervals":7570,"Ġturned":7571,"ĠEXISTS":7572,"LENGTH":7573,"ĠPDF":7574,"Ġdeviation":7575,"ĠAlyssa":7576,"++":7577,".,<":7578,"423":7579,"BC":7580,"Case":7581,"Date":7582,"GRO":7583,"Neural":7584,"Play":7585,"SD":7586,"UI":7587,"Windows":7588,"\\.":7589,"gamma":7590,"mag":7591,"ners":7592,"ppo":7593,"slow":7594,"çŃ":7595,"é¢":7596,"Ġlocation":7597,"Ġanticlockwise":7598,"pag":7599,"once":7600,"recognizer":7601,"Ġrepeat":7602,"Ġrecover":7603,"editor":7604,"people":7605,"identity":7606,"isc":7607,"argv":7608,"ĠNT":7609,"ĠLabel":7610,"()}":7611,"()])<":7612,"Ġdependencies":7613,"Ġein":7614,"ĠFace":7615,"ĠRepresent":7616,"Ġexception":7617,"preprocessing":7618,"Ġsemester":7619,"addAction":7620,"Ġvoice":7621,"Ġchild":7622,"artial":7623,"job":7624,"Convert":7625,"berta":7626,"ivative":7627,"envs":7628,"uesday":7629,"minimum":7630,"basename":7631,">>>":7632,"ĠQMenu":7633,"ĠDevice":7634,"major":7635,"DataSet":7636,"triggered":7637,"apiKey":7638,"failed":7639,"players":7640,"Ġmatching":7641,"Ġtrace":7642,"executor":7643,"executable":7644,"Ġexpression":7645,"403":7646,"randrange":7647,"Ġsimulation":7648,"Deep":7649,"Based":7650,"rypto":7651,"Enter":7652,"Encoding":7653,"Complet":7654,"ABC":7655,"Ġstatistics":7656,"WithProjection":7657,"ĠGPTDataSet":7658,"ÊŁá´ĩ":7659,"asurement":7660,"åı¯":7661,"|>\"})<":7662,"RequestError":7663,"estimation":7664,"ĠQueryParam":7665,"vidia":7666,"Ġdirectly":7667,"MiniLM":7668,"plicitly":7669,"-------------<":7670,"rinsics":7671,"ĠfetchAudio":7672,"Ġremaining":7673,"Ġpayload":7674,"Ġrules":7675,"èµ¤":7676,"Ġdetermine":7677,"ĠGPTDataSetV":7678,"'.<":7679,"400":7680,"54":7681,"<<":7682,"IP":7683,"MIT":7684,"Policy":7685,"[[":7686,"]`":7687,"aut":7688,"fs":7689,"gan":7690,"gers":7691,"games":7692,"gold":7693,"iT":7694,"link":7695,"vity":7696,"xs":7697,"æ¯":7698,"Ġate":7699,"sens":7700,"atile":7701,"desc":7702,"iminator":7703,"amily":7704,"Ġ\"\".":7705,"Ġsampler":7706,"Ġdummy":7707,"Ġage":7708,"raction":7709,"raise":7710,"ema":7711,"Ġgather":7712,"Ġ{',":7713,"Ġhandlers":7714,"Ġren":7715,"corners":7716,"ĠPad":7717,"ĠPatch":7718,"Ġsen":7719,"llipo":7720,"ĠGraph":7721,"ĠVQ":7722,"ĠOptionalDepend":7723,"accounts":7724,"nections":7725,"udnn":7726,"Ġaxs":7727,"Ġalgorithm":7728,"ĠContent":7729,"Ġless":7730,"Ġsubset":7731,"ĠaddMessage":7732,"FAIL":7733,"Ġscreenshot":7734,"Ġtransaction":7735,"á´ĩá´ħ":7736,"dropdown":7737,"Ġá´ĺ":7738,"interfaces":7739,"Ġfeats":7740,"Ġintermediate":7741,"ï¼Ī":7742,"ï¼ī":7743,"Ġhttpx":7744,"amping":7745,"Ġsimpl":7746,"rolling":7747,"Ġprograms":7748,"installed":7749,"NotAvailable":7750,"encyNotAvailable":7751,"Ġdocuments":7752,"aussians":7753,"LACE":7754,"PreTrainedTokenizer":7755,"Ġcomputers":7756,"ĠChatMessage":7757,"Checkpoint":7758,"Ġoffsets":7759,"ä»¥":7760,"å®¹":7761,"monitor":7762,"multimodal":7763,"ImgPipeline":7764,"UnknownValueError":7765,"systemPromptTemplate":7766,"uplicated":7767,"BatchNorm":7768,"vicorn":7769,"ĠEnvironmentState":7770,"napshot":7771,"ĠBelow":7772,"çĤ¹":7773,"ĠLIMIT":7774,"llipops":7775,"ĠOptionalDependencyNotAvailable":7776,"'),<":7777,")],<":7778,"033":7779,"74":7780,"84":7781,"8192":7782,"Ass":7783,"All":7784,"EpisodeGenerator":7785,"Here":7786,"JSON":7787,"LP":7788,"OK":7789,"Sample":7790,"Shot":7791,"TF":7792,"Usage":7793,"VD":7794,"]])":7795,"`]<":7796,"eved":7797,"glm":7798,"jpe":7799,"judge":7800,"kp":7801,"kle":7802,"nv":7803,"pied":7804,"sAnd":7805,"safetensors":7806,"tv":7807,"uum":7808,"ves":7809,"za":7810,"}}":7811,"ÃĹ":7812,"éĿ":7813,"Ġ]":7814,"Ġam":7815,"instruct":7816,"selection":7817,"ately":7818,"rejected":7819,"implementation":7820,"alib":7821,"alore":7822,"Ġnfeats":7823,"Ġmomentum":7824,"Ġresearch":7825,"Ġprag":7826,"Ġdrive":7827,"__).":7828,"Ġlim":7829,"ullet":7830,"diag":7831,"poken":7832,"poly":7833,"getattr":7834,"ĠAL":7835,"ĠAr":7836,"ĠCH":7837,"Ġconcept":7838,"Ġhuman":7839,"\"]]":7840,"ĠFinal":7841,"ĠRAG":7842,"Ġexact":7843,"vie":7844,"percent":7845,"ponential":7846,"Ġtimedelta":7847,"Ġalong":7848,"latex":7849,"stributions":7850,"Read":7851,"force":7852,"Ġcontroller":7853,"differ":7854,"ĠStore":7855,"statistics":7856,"Ġdocker":7857,"Ġadj":7858,"topic":7859,"Format":7860,"Ġá´į":7861,"ĠORDER":7862,"windows":7863,"ĠBaseModel":7864,"ĠParse":7865,"Keyboard":7866,"Ġpatches":7867,"ĠAttn":7868,"CAUSE":7869,"ãĢģ":7870,"ĠUserNotebook":7871,"Evaluation":7872,"PROCESS":7873,"SERT":7874,"Allocation":7875,"merged":7876,"detected":7877,"Ġnotebook":7878,"ControlNetPipeline":7879,"spline":7880,"NDMScheduler":7881,"einsum":7882,"CORRECT":7883,"Ġstructure":7884,"utomatically":7885,"Ġ=================================================================":7886,"ĠSQLite":7887,"aldiRecognizer":7888,"sAndEvents":7889,"Ġpragma":7890,")}\"<":7891,")},":7892,"/<":7893,"Ar":7894,"Breed":7895,"Buffer":7896,"Create":7897,"Embed":7898,"Hz":7899,"Last":7900,"Mark":7901,"Over":7902,"PLU":7903,"Schema":7904,"WS":7905,"Zero":7906,"\\{":7907,"bil":7908,"cer":7909,"ected":7910,"fram":7911,"iloc":7912,"ktop":7913,"mpt":7914,"mistral":7915,"mocap":7916,"note":7917,"pjoin":7918,"qid":7919,"qvel":7920,"tur":7921,"uction":7922,"ĠðŁ":7923,"ħå®¹":7924,"inp":7925,"iny":7926,"del":7927,"challenge":7928,"Ġfine":7929,"Ġfetched":7930,"aspect":7931,"Ġmeta":7932,"Ġrevision":7933,"ingular":7934,"Ġpublic":7935,"entanglement":7936,"Ġdriver":7937,"ication":7938,"ements":7939,"issh":7940,"olving":7941,"Ġ120":7942,"cluster":7943,"Ġrnn":7944,"processes":7945,"Ġelastic":7946,"gru":7947,"Ġvo":7948,"llms":7949,"ĠVari":7950,"ĠWin":7951,"aving":7952,"maxTokens":7953,"Ġ`__":7954,"ernal":7955,"Ġwhite":7956,"Ġknn":7957,"acuum":7958,"STOP":7959,"RESET":7960,"127":7961,"actic":7962,"Ġperplexity":7963,"Ġcare":7964,"ĠStream":7965,"targets":7966,"ConfigMixin":7967,"Select":7968,"Ġtrajectories":7969,"HTML":7970,"ä¸º":7971,"ĠCombine":7972,"pired":7973,"recordId":7974,"4096":7975,"Def":7976,"Collator":7977,"Ġposted":7978,"WORK":7979,"cases":7980,"ribute":7981,"})\"<":7982,"blank":7983,"terminal":7984,"Update":7985,"è®°å":7986,"Ġwaveform":7987,"continue":7988,"ç»ĵ":7989,"exceptions":7990,"ĠModuleNotFoundError":7991,"Ġasking":7992,"ĠWhen":7993,"Ġcycle":7994,"Ġcourses":7995,"tuning":7996,"ĠLOG":7997,"Slider":7998,"ĠFastAPI":7999,"Ġoccured":8000,"Ġyears":8001,"DEVICE":8002,"dickens":8003,"*:":8004,",),":8005,"91":8006,":].":8007,"Box":8008,"CES":8009,"Eric":8010,"PN":8011,"Print":8012,"Qwen":8013,"Uns":8014,"Weights":8015,"Yes":8016,"Your":8017,"_<":8018,"buffers":8019,"ee":8020,"gu":8021,"hist":8022,"nes":8023,"rule":8024,"swe":8025,"tax":8026,"ture":8027,"åŃ":8028,"è¾":8029,"èĥ½":8030,"Ġ])<":8031,"pact":8032,"eration":8033,"Ġtray":8034,"revision":8035,"Ġfbx":8036,"uted":8037,"utation":8038,"amm":8039,"Ġ\"[":8040,"Ġ\"\",<":8041,"Ġcmd":8042,"Ġincre":8043,"Ġpick":8044,"Ġpunct":8045,"Ġdmm":8046,"Ġomega":8047,"elastic":8048,"una":8049,"unsloth":8050,"Ġbra":8051,"fromarray":8052,"Ġtoo":8053,"getpoint":8054,"ational":8055,"abl":8056,"ĠAx":8057,"ĠLanguage":8058,"resolve":8059,"Ġgpu":8060,"endall":8061,"Ġ21":8062,"inese":8063,"ĠFetch":8064,"))</":8065,"ĠOnnx":8066,"Ġthresh":8067,"ĠMAX":8068,"codebrew":8069,"ĠBuild":8070,"ĠBasic":8071,"ĠValid":8072,"Ġ`[":8073,"ators":8074,"ĠThey":8075,"\"):":8076,"Ġprevents":8077,"udents":8078,"TIM":8079,"Ġalphas":8080,"Initial":8081,"ĠInstruction":8082,"ĠConsole":8083,"LED":8084,"processRawTexts":8085,"contain":8086,"Ġhelper":8087,"afari":8088,"Toe":8089,"ĠlastView":8090,"dbName":8091,"Ġpadx":8092,"Ġpadded":8093,"completed":8094,"namespace":8095,"ĠJson":8096,"Ð¸ÑĢ":8097,"ĠPyQt":8098,"refusal":8099,"ĠrecordId":8100,"omega":8101,"mission":8102,"detail":8103,"ĠFiles":8104,"ĠConverts":8105,"linearity":8106,"optimization":8107,"finetune":8108,"quantize":8109,"ĠĠĠĠĠĠĠĠĠĠĠĠĠĠĠĠĠĠĠĠĠĠĠĠĠĠĠĠ":8110,"vectors":8111,"Ġdisabled":8112,"ĠdbName":8113,"ÑģÑĤ":8114,"pects":8115,"Ġclosed":8116,"Ġmovement":8117,"çĲĨ":8118,"Ġcentral":8119,"âĢĶ":8120,"compress":8121,"Ġverify":8122,"Ġlistening":8123,"Ġfigure":8124,"Ġboundary":8125,"Ġá´Ľá´ı":8126,"æĹ¥":8127,"ĠAssume":8128,"ĠEmbeddingFunc":8129,"Mean":8130,"conditioning":8131,"tiny":8132,"ĠLazyAttribute":8133,"ĠBreedName":8134,"Serve":8135,"GREEN":8136,"\"[\\":8137,"TRUE":8138,"ĠArguments":8139,"ĠKeep":8140,"Ġneighbor":8141,"Ġassume":8142,"Ġbehavior":8143,"ddpm":8144,"Ġdecorated":8145,"éĿ¢":8146,"isshu":8147,"ĠlastViewed":8148,")\"<":8149,")\",":8150,"85":8151,":{":8152,"ARE":8153,"BLE":8154,"BLO":8155,"Event":8156,"Grad":8157,"Ne":8158,"New":8159,"Pix":8160,"Size":8161,"Wrapper":8162,"]\\":8163,"`\")<":8164,"bet":8165,"gb":8166,"magnitude":8167,"px":8168,"ratch":8169,"suffix":8170,"vider":8171,"vanced":8172,"xz":8173,"xformers":8174,"èİ":8175,"Ġ}":8176,"Ġ))<":8177,"Ġhtml":8178,"ĠÊıá´ıá´ľ":8179,"lout":8180,"Ġcr":8181,"Ġslot":8182,"Ġspatial":8183,"uri":8184,"unicate":8185,"rast":8186,"Ġbook":8187,"dilation":8188,"distributions":8189,"ism":8190,"Ġ'\"":8191,"ĠAs":8192,"ĠCol":8193,"ĠCSV":8194,"Ġgroq":8195,"apple":8196,"\"]]<":8197,"ĠDI":8198,"Ġrv":8199,"outError":8200,"ĠRight":8201,"Ġthird":8202,"Ġproj":8203,"Ġprotot":8204,"Ġjudge":8205,"Ġdivisible":8206,"Ġuniform":8207,"ONG":8208,"ĠVision":8209,"ĠVAL":8210,"tokenize":8211,"tokenization":8212,"aved":8213,"quival":8214,"ocast":8215,"Ġknown":8216,"Ġkinematic":8217,"ĠReplace":8218,"Ġcoord":8219,"Ġcoordinates":8220,"Ġcopied":8221,"readlines":8222,"transactions":8223,"ĠUni":8224,"***":8225,"Ġcontextlib":8226,"ĠQcoeff":8227,"LIMIT":8228,"Ġtesting":8229,"Ġsubclass":8230,"ĠString":8231,"Parameters":8232,"))]<":8233,"ĠDataFrame":8234,"IGN":8235,"interpo":8236,"Import":8237,"bsz":8238,"405":8239,"Decode":8240,"Ġedit":8241,"Ġcontinuous":8242,"á´Ģá´Ľ":8243,"panel":8244,"ChatMessage":8245,"Ġmujoco":8246,"Ġrewards":8247,"launch":8248,"Ġpipmaster":8249,"Ġequation":8250,"Ġphrase":8251,"Ġviewer":8252,"Ġvisual":8253,"Desktop":8254,"ĠInitialization":8255,"Ġformatted":8256,"Ġmaint":8257,"personal":8258,"åľ°":8259,"ĠComputer":8260,"AttnProcessor":8261,"caps":8262,"æĢ§":8263,"Ġagainst":8264,"Ġboolean":8265,"Ġcreating":8266,"Ġbroadcasting":8267,"Layout":8268,"PLUS":8269,"framerate":8270,"èİ·":8271,"Ġprototype":8272,"!!":8273,"09":8274,"070":8275,"29":8276,"69":8277,"73":8278,"Bot":8279,"Cor":8280,"CKEN":8281,"Cannot":8282,"From":8283,"FIL":8284,"Pl":8285,"Vari":8286,"aunch":8287,"bt":8288,"basis":8289,"flo":8290,"follow":8291,"facts":8292,"naive":8293,"pies":8294,"ploy":8295,"rer":8296,"rstrip":8297,"sbox":8298,"timm":8299,"vens":8300,"Ġè®¡ç®Ĺ":8301,"page":8302,"enign":8303,"Ġtg":8304,"stft":8305,"imation":8306,"changes":8307,"Ġremoved":8308,"Ġclock":8309,"Ġphot":8310,"exe":8311,"experiment":8312,"Ġddim":8313,"umb":8314,"__,":8315,"integer":8316,"Ġreturning":8317,"coders":8318,"copies":8319,"isnan":8320,"Ġ-*":8321,"ĠTransformers":8322,"ĠTRAIN":8323,"ĠAgent":8324,"ĠLet":8325,"series":8326,"Ġgu":8327,"upported":8328,"ĠSec":8329,"ĠSET":8330,"ĠSemester":8331,"Ġhps":8332,"\"]=\"":8333,"Ġstrength":8334,"ĠDynamic":8335,"ĠMC":8336,"ĠMon":8337,"perparameters":8338,"Ġbegin":8339,"reddit":8340,"']}\"<":8341,"ources":8342,"ĠReal":8343,"\"))":8344,"\")]<":8345,"acity":8346,"Ġprevent":8347,"bermetric":8348,"AME":8349,"Initialize":8350,"Store":8351,"([-":8352,"aky":8353,"Ġruntime":8354,"ARS":8355,"Ġacc":8356,"responses":8357,"Ġheard":8358,"audioPlayer":8359,"trail":8360,"opened":8361,"Ġagents":8362,"Ġdiscrete":8363,"Ġtranslation":8364,"Ġinfinite":8365,"Ġá´ľ":8366,"duction":8367,"absolute":8368,"Ġprobs":8369,"itecture":8370,"icrosoft":8371,"Ġinteractive":8372,"armful":8373,"similar":8374,"ĠĠĠĠĠĠĠĠĠĠĠĠĠĠĠĠĠĠĠĠĠĠĠĠĠĠĠĠĠĠĠĠĠĠ":8375,"Ġbetter":8376,"Ġcommit":8377,"charge":8378,"ditional":8379,"moves":8380,"Ġreading":8381,"Ġpreds":8382,"Quantum":8383,"Ġinitialization":8384,"Ġdecrypted":8385,"Ġquantized":8386,"courses":8387,"äºĨ":8388,"Ġmmcv":8389,"irection":8390,"ĠAudioSegment":8391,"ĠTypeError":8392,"Ġutilities":8393,"Ġmarkdown":8394,"ĠDisplay":8395,"Ġdirs":8396,"branching":8397,"æĸĩ":8398,"ĠOriginal":8399,"Ġeffort":8400,"TrainingArguments":8401,"Stopping":8402,"Ġ-------<":8403,"include":8404,"ĠNOTE":8405,"ĠVocabulary":8406,"timescale":8407,"guided":8408,"Ġintegers":8409,"åĩº":8410,"ĠCLIPVisionModel":8411,"itespace":8412,"Choice":8413,"Ġaccumulated":8414,"Ġappropriate":8415,"ï¼ī<":8416,"Ġ=============================================================================":8417,"$\",":8418,"Callable":8419,"Match":8420,"PLACE":8421,"await":8422,"cp":8423,"floyd":8424,"gres":8425,"meter":8426,"music":8427,"mmlu":8428,"qc":8429,"sat":8430,"two":8431,"yy":8432,"ºÐ¾Ð":8433,"¿Ð»":8434,"å¿":8435,"éķ":8436,"éľ":8437,"Ġvery":8438,"ĠâĶ":8439,"atives":8440,"reverse":8441,"leu":8442,"alic":8443,"Ġfmt":8444,"hemat":8445,"ortho":8446,"Ġnaive":8447,"Ġmembers":8448,"Ġrest":8449,"Ġretain":8450,"racle":8451,"Ġbad":8452,"Ġbutton":8453,"Ġlate":8454,"andbytes":8455,"digest":8456,"onehot":8457,"olved":8458,"Ġ[{\"":8459,"Ġ'/":8460,"setattr":8461,"(\"_":8462,"(\">>>":8463,"ĠAI":8464,"ĠAverage":8465,"()[:":8466,"upsample":8467,"ĠSTT":8468,"Ġstage":8469,"Ġstars":8470,"attern":8471,"classify":8472,"embs":8473,"lenium":8474,"Ġresample":8475,"Ġselenium":8476,"trainers":8477,"ĠgetDuration":8478,"ube":8479,"('<":8480,"Ġunsafe":8481,"reduction":8482,"Ġimpro":8483,"Ġ`{":8484,"Ġcombine":8485,"Ġcomponents":8486,"Ġpage":8487,"speaking":8488,"Ġcoords":8489,"nearest":8490,"Ġposes":8491,"Style":8492,"achine":8493,"aka":8494,"Registrable":8495,"ĠAns":8496,"Ġobserver":8497,"ĠModels":8498,"Ġlex":8499,"flush":8500,"Ġaccessed":8501,"Ġaccording":8502,"methods":8503,"cats":8504,"losing":8505,"Ġsubfolder":8506,"runner":8507,"curs":8508,"Ġclassify":8509,"ĠaudioPlayer":8510,"groupby":8511,"ASH":8512,"theme":8513,"TEGER":8514,"Ġscalar":8515,"ĠÐ½Ð°Ð":8516,"10000":8517,"intersection":8518,"Ð°Ð»":8519,"Ġ''')<":8520,"ĠAdam":8521,"ĠĠĠĠĠĠĠĠĠĠĠĠĠĠĠĠĠĠĠĠĠĠĠĠĠĠĠĠĠĠĠĠĠĠĠĠĠĠĠĠĠĠ":8522,"ĠQuiz":8523,"ĠGeneration":8524,"Ġabstractmethod":8525,"cumsum":8526,"Ġ\"/../":8527,"Ð¾ÑĤ":8528,"prior":8529,"ÑĥÐ½":8530,"ÑĥÐµÐ¼":8531,"ÑĥÑİ":8532,"generators":8533,"ĠPredict":8534,"SCRI":8535,"scripts":8536,"Ġoptimization":8537,"ategies":8538,"Ġpackages":8539,"Ġpackaging":8540,"Ð»Ñı":8541,"Ġwebdriver":8542,"ĠConvBlock":8543,"ĠNewsAndEvents":8544,"HEAD":8545,"ĠMock":8546,"Ġbuzz":8547,"Ġconfirm":8548,"solved":8549,"Ġbinary":8550,"ĠQuantumC":8551,"Loading":8552,"silu":8553,"destination":8554,"âĶĢ":8555,"éĩı":8556,"Ġbboxes":8557,"Super":8558,"æŀľ":8559,"ĠInterface":8560,"Ġlikelihood":8561,"ĠBlue":8562,"ĠÑĦÐ°Ð¹Ð»":8563,"ĠÐĹÐ°Ð¿Ð¸Ñģ":8564,"ĠÐ·Ð°Ð¿Ð¸ÑģÐ¸":8565,"ĠÑĤÑĢÐ°Ð½ÑģÐºÑĢÐ¸Ð¿ÑĨÐ¸":8566,"EricNeural":8567,"Ġbracket":8568,"ĠAxis":8569,"Ð¸ÑĢÑĥÐµÐ¼":8570,"ĠVALUES":8571,"ºÐ¾Ð¿Ð»":8572,"éľĢ":8573,"ĠÐ½Ð°ÐºÐ¾Ð¿Ð»":8574,"Ġ\"/../../\")<":8575,"Ð¾ÑĤÐ¾Ðº":8576,"ĠÐ½Ð°ÐºÐ¾Ð¿Ð»ÐµÐ½":8577,"715":8578,"AFE":8579,"CODE":8580,"KHTML":8581,"Mpt":8582,"Motion":8583,"Optional":8584,"Per":8585,"TYPE":8586,"WE":8587,"_%":8588,"aug":8589,"bg":8590,"bmm":8591,"cb":8592,"dark":8593,"eq":8594,"family":8595,"harn":8596,"lc":8597,"mse":8598,"misc":8599,"pin":8600,"spoken":8601,"tlen":8602,"review":8603,"regex":8604,"stars":8605,"Ġfrozen":8606,"Ġmlp":8607,"Ġmapping":8608,"Ġmtv":8609,"Ġcriterion":8610,"gela":8611,"geodetic":8612,"Ġsig":8613,"Ġsil":8614,"Ġside":8615,"edit":8616,"Ġps":8617,"Ġpower":8618,"explanation":8619,"added":8620,"Ġaio":8621,"Ġauth":8622,"peft":8623,"Ġbleu":8624,"strategies":8625,"Ġlive":8626,"extensions":8627,"isfile":8628,"ĠTTS":8629,"plat":8630,"ĠCrypto":8631,"()),<":8632,"Ġconcat":8633,"ĠSc":8634,"ĠSafari":8635,"Ġhundred":8636,"Ġstats":8637,"Ġ</":8638,"usc":8639,"ĠDiff":8640,"Ġdecoding":8641,"Ġdeterministic":8642,"proc":8643,"protocol":8644,"ĠPl":8645,"Ġresolutions":8646,"ĠMLP":8647,"Ġsequential":8648,"Ġsemantic":8649,"percentage":8650,"Ġ300":8651,"cape":8652,"Ġrobot":8653,"('-":8654,"ĠtextLine":8655,"ocator":8656,"Ġlisting":8657,"Ġtrained":8658,"phot":8659,"STM":8660,"Ġtokenize":8661,"Ġcoefficient":8662,"Ġkeywords":8663,"ĠInference":8664,"ĠContin":8665,"REE":8666,"READ":8667,"patterns":8668,"Ġaccur":8669,"Ġfunctional":8670,"ĠStyle":8671,"daemon":8672,"chocolates":8673,"Ġweighted":8674,"overwatch":8675,"ULTI":8676,"Ġdiscret":8677,"Ġtranspose":8678,"topk":8679,"kvs":8680,"ListOf":8681,"=[],":8682,"Ġinterface":8683,"Ġerrors":8684,"emporal":8685,"ĠAutoConfig":8686,"bottom":8687,"Cache":8688,"OPTIM":8689,"ĠPreTrainedTokenizer":8690,"Ġpositional":8691,"Ġoffload":8692,"Ġsigns":8693,"Ġsignature":8694,"deepcopy":8695,"Ġviolation":8696,"ĠINTO":8697,"ĠINTEGER":8698,"UND":8699,"Ġregion":8700,"ĠChrome":8701,"åĲĳ":8702,"ruption":8703,"Ġgeo":8704,"terminate":8705,"estimator":8706,"Ġ---------------------------------------------<":8707,"canvas":8708,"highlight":8709,"Ġdescribing":8710,"Ġplaceholders":8711,"Ġfeedback":8712,"icontains":8713,"petition":8714,"igration":8715,"Ġlanding":8716,"ĠNormalize":8717,"WebKit":8718,"ĠRetrieve":8719,"Iteration":8720,"éĹ®":8721,"ï¼ļ<":8722,"ĠAppleWebKit":8723,"KVStorage":8724,"NLocator":8725,"Ġmodify":8726,"Ġinspired":8727,"ĠDPM":8728,"Ġ{{<":8729,"Extractor":8730,"STANT":8731,"Ġflops":8732,"Ġderivative":8733,"Completion":8734,"IGNORE":8735,"rerun":8736,"similarities":8737,"ĠAnswer":8738,"harness":8739,"tleneck":8740,"ListOfDict":8741,"(['":8742,"044":8743,"79":8744,"?\\":8745,"DU":8746,"Draw":8747,"Emotions":8748,"Joints":8749,"Like":8750,"OM":8751,"OSE":8752,"Red":8753,"Ret":8754,"Sde":8755,"Snake":8756,"Tra":8757,"Warning":8758,"aDec":8759,"astronomic":8760,"bad":8761,"bullet":8762,"calc":8763,"eef":8764,"gmail":8765,"hq":8766,"hom":8767,"knn":8768,"nel":8769,"oup":8770,"sorted":8771,"square":8772,"trees":8773,"xies":8774,"ä¿":8775,"Ġæ":8776,"indata":8777,"sep":8778,"Ġten":8779,"Ġtall":8780,"aler":8781,"Ġnhead":8782,"Ġrelevant":8783,"Ġsort":8784,"Ġspl":8785,"Ġsuccess":8786,"Ġinstructions":8787,"Ġpil":8788,"Ġactor":8789,"Ġaugment":8790,"Ġbank":8791,"Ġdefined":8792,"ilv":8793,"Ġ[]).":8794,"ĠAct":8795,"ĠLu":8796,"serve":8797,"Ġgui":8798,"aystack":8799,"ĠSho":8800,"Ġ224":8801,"[\"_":8802,"ĠDes":8803,"formatt":8804,"Ġxformers":8805,"loading":8806,"Ġearly":8807,"ĠFL":8808,"ĠRcoeff":8809,"ĠMat":8810,"=\"./":8811,"Ġosp":8812,"Ġsep":8813,"compatible":8814,"ĠUPD":8815,"listbox":8816,"ĠVae":8817,"ĠVisual":8818,"ENABLE":8819,"should":8820,"ĠThese":8821,"ĠRegistrable":8822,"ATT":8823,"Ġitself":8824,"STER":8825,"Ġlogin":8826,"Ġqc":8827,"transfer":8828,"aia":8829,"Ġpygments":8830,"ĠInsert":8831,"ĠInspect":8832,"Ġspect":8833,"Ġfunctionality":8834,"CHOI":8835,"ĠYang":8836,"ĠSequential":8837,"submit":8838,"```<":8839,"SchedulerOutput":8840,"Resolution":8841,"ðĿĲ":8842,"TextInput":8843,"Ġrefusal":8844,"missing":8845,"Ġactive":8846,"streaming":8847,"Ġmodified":8848,"Ġ{}'.":8849,"Ġsinusoidal":8850,"Comput":8851,"sincos":8852,"ĠAppend":8853,"prime":8854,"assertion":8855,"deepfloyd":8856,"TestCase":8857,"irectory":8858,"ĠChatbot":8859,"ĠChatHistory":8860,"mixer":8861,"Ġtruncate":8862,"measurement":8863,"APH":8864,"MSolver":8865,"estimate":8866,"Ġconditional":8867,"ĠTokenizer":8868,"Ġaligned":8869,"æĸ¹":8870,"Entropy":8871,"Ġplaceholder":8872,"ä¸Ģä¸ª":8873,"spam":8874,"Ġvoxelized":8875,"Ġacceptable":8876,"Ġballs":8877,"Ġinterpolate":8878,"attempts":8879,"Ġdenominator":8880,"Ġ50257":8881,"Element":8882,"è½¬":8883,"lbow":8884,"æį®":8885,"requirements":8886,"Ġeinops":8887,"Ġtraceback":8888,"Unsupported":8889,"personality":8890,"irectional":8891,"Ġlatest":8892,"044715":8893,"ĠUPDATE":8894,"ĠVaeImageProcessor":8895,"ĠChatHistoryDB":8896,")[:":8897,"+\",":8898,">ðŁ":8899,"Ab":8900,"Adapt":8901,"CG":8902,"Cheat":8903,"EMA":8904,"EXT":8905,"IC":8906,"IS":8907,"IZ":8908,"If":8909,"JO":8910,"Karras":8911,"Literal":8912,"Messages":8913,"RY":8914,"Vis":8915,"^\\":8916,"_()<":8917,"band":8918,"bquat":8919,"egr":8920,"filenames":8921,"kto":8922,"ohn":8923,"pitch":8924,"qs":8925,"same":8926,"sual":8927,"uge":8928,"uded":8929,"vp":8930,"writ":8931,"Ġ,":8932,"ĠÃĹ":8933,"inria":8934,"seud":8935,"rest":8936,"alt":8937,"altern":8938,"chans":8939,"aming":8940,"Ġmigrations":8941,"Ġcategory":8942,"imports":8943,"edmm":8944,"Ġput":8945,"Ġpending":8946,"entially":8947,"Ġdp":8948,"Ġdat":8949,"__',":8950,"__`<":8951,"Ġlaunch":8952,"dies":8953,"dialog":8954,"iskit":8955,"tobytes":8956,"gets":8957,"logHandler":8958,"Ġ180":8959,"Ġiss":8960,"ĠAfter":8961,"ĠCA":8962,"ĠCan":8963,"ĠCUDA":8964,"htein":8965,"Ġ{},":8966,"Ġconsum":8967,"ĠSpa":8968,"ĠSer":8969,"rial":8970,"allas":8971,"Ġhome":8972,"attributes":8973,"verg":8974,"verter":8975,"agination":8976,"ĠOS":8977,"ffff":8978,"angvel":8979,"previous":8980,"Ġproxy":8981,"ĠjFunction":8982,"period":8983,"components":8984,"care":8985,"á´ĭ":8986,"ĠUsual":8987,"ĠGroup":8988,"ialog":8989,"Ġ>>":8990,"ĠVal":8991,"ĠWIDTH":8992,"--------<":8993,"psample":8994,"ĠRecognize":8995,"accs":8996,"nected":8997,"):\")<":8998,"Ġqiskit":8999,"ĠHuman":9000,"ndmm":9001,"Inspect":9002,"Std":9003,"ĠInst":9004,"ĠConstruct":9005,"Ġsetting":9006,"uggets":9007,"testClient":9008,"patibility":9009,"convers":9010,"unknown":9011,"ront":9012,"issa":9013,"ĠDataArguments":9014,"nova":9015,"rollout":9016,"Ġdog":9017,"ucible":9018,"Ġadmin":9019,"Ġ800":9020,"ĠImagePipelineOutput":9021,"Ġstreamlit":9022,"decs":9023,"TextOnly":9024,"Ġvalidate":9025,"piry":9026,"Ġworks":9027,"Ġmultiprocessing":9028,"(\"\\\\":9029,"binding":9030,"Generation":9031,"Generated":9032,"Ġoverl":9033,"ĠQuant":9034,"Ġstrides":9035,"GRU":9036,"Ġcompletions":9037,"Ġcontainer":9038,"É´á´ħ":9039,"Compose":9040,"Quant":9041,"Ankle":9042,"ĠFlaxStableDiffusion":9043,"ÊŁÉª":9044,"pectrogram":9045,"åıĸ":9046,"åĪ°":9047,"temporal":9048,"ĠThere":9049,"Ġpackage":9050,"Ġtruncation":9051,"Ġeverything":9052,"}:{":9053,"Ġmarker":9054,"Ġhighlight":9055,"continu":9056,"åħ³":9057,"Ġanalyze":9058,"FORMERS":9059,"Ġclearly":9060,"è¿Ļ":9061,"ĠEvaluation":9062,"Ġshared":9063,"Ġenabled":9064,">\"\"\",<":9065,"constructClient":9066,"digits":9067,"æłĩ":9068,"Ġperson":9069,"Ġwrapper":9070,"ĠNormal":9071,"disabled":9072,"menuBar":9073,"Ġmeshpose":9074,"subplots":9075,"Ġreceived":9076,"å¯¹":9077,"(.*?)":9078,"Ġproduce":9079,"ĠtextToSpeechBytes":9080,"çŃĶ":9081,"é¢ĺ":9082,"Ġdriveways":9083,"Default":9084,"venshtein":9085,"Ġphoto":9086,"Ġ=============================================================================<":9087,"uscenes":9088,"ĠFLAG":9089,"!\\":9090,"%<":9091,"502":9092,":**":9093,"CAM":9094,"Dialog":9095,"GING":9096,"Gui":9097,"Hip":9098,"Lab":9099,"Sho":9100,"Solver":9101,"SQL":9102,"TXT":9103,"`:":9104,"acos":9105,"average":9106,"break":9107,"cdf":9108,"dg":9109,"fbx":9110,"mma":9111,"pissa":9112,"sde":9113,"tas":9114,"tgt":9115,"ucl":9116,"vote":9117,"æ³":9118,"éĺ":9119,"orld":9120,"atural":9121,"erical":9122,"eno":9123,"rection":9124,"remain":9125,"replay":9126,"ster":9127,"story":9128,"deterministic":9129,"imic":9130,"ane":9131,"anel":9132,"alth":9133,"alloc":9134,"Ġ\"\":<":9135,"Ġnd":9136,"Ġnx":9137,"Ġmis":9138,"Ġmuch":9139,"Ġreview":9140,"Ġremote":9141,"Ġsingular":9142,"ednes":9143,"Ġpdf":9144,"adow":9145,"than":9146,"idirectional":9147,"strength":9148,"---":9149,"pooled":9150,"ĠTHE":9151,".</":9152,"paris":9153,"parallel":9154,"Ġ192":9155,"(\"`":9156,"(\"\",":9157,"Ġgaussian":9158,"Ġconcurrency":9159,"ĠSin":9160,"ĠShe":9161,"ĠScript":9162,"ĠSpectrogram":9163,"==\"":9164,"===":9165,"attery":9166,"ĠDuplicated":9167,"ĠFirst":9168,"ĠPass":9169,"eward":9170,"ffn":9171,"Ġrespond":9172,"Ġparsing":9173,"Ġseg":9174,"additional":9175,"ĠEach":9176,"Ġintra":9177,"ONT":9178,"Ġenviron":9179,"Ġ::":9180,"ĠRefer":9181,"Ġcounter":9182,"Ġcohere":9183,"valuehead":9184,"andling":9185,"Recognition":9186,"LIC":9187,"idean":9188,"formats":9189,"ĠModelArguments":9190,"Ġcols":9191,"ARG":9192,"rong":9193,"rotate":9194,"ĠDatabase":9195,"lineKeyboard":9196,"overflow":9197,"={'":9198,"ledge":9199,"Ġfinetune":9200,"matched":9201,"Ġchecker":9202,"COMMAND":9203,"triu":9204,"mpc":9205,"Ġabort":9206,"ĠBaseAE":9207,"Ġ10000":9208,"á´ıÊĢ":9209,"Compute":9210,"Ġitertools":9211,"package":9212,"Translation":9213,"Ġsliding":9214,"ĠEncoder":9215,"uccessfully":9216,"Ġfaiss":9217,"æľĪ":9218,"ramers":9219,"Ġgoal":9220,"Ġsounddevice":9221,"food":9222,"Python":9223,"Ġtempfile":9224,"Upload":9225,"ĠSimulate":9226,"mujoco":9227,"ĠLogger":9228,"Ġdocs":9229,"feedforward":9230,"ĠMove":9231,"ĠAssuming":9232,"subjects":9233,"Ġdenoising":9234,"allowed":9235,"Ġmonth":9236,"ĠCourseAllocation":9237,"Ġeffect":9238,"Ġblank":9239,"FLASH":9240,"grade":9241,"ĠEntity":9242,"Ġmedia":9243,"ĠMethod":9244,"Ġinterpolation":9245,"recvuntil":9246,"GroupNorm":9247,"phoneme":9248,"èĩª":9249,"Ġpydantic":9250,"ĠSQLiteDict":9251,"magnitudes":9252,"Ġaiohttp":9253,"ilvus":9254,"uclidean":9255,"ednesday":9256,"ĠDuplicatedCode":9257,"'ve":9258,"($":9259,"/\"<":9260,"39":9261,"63":9262,"72":9263,"Bo":9264,"Cross":9265,"Cost":9266,"Free":9267,"LLaMA":9268,"QU":9269,"Transform":9270,"Wrist":9271,"bugging":9272,"dc":9273,"equ":9274,"fil":9275,"false":9276,"hd":9277,"ja":9278,"jarvis":9279,"ks":9280,"lightrag":9281,"mine":9282,"mps":9283,"oper":9284,"pur":9285,"push":9286,"scope":9287,"wi":9288,"whisper":9289,"walk":9290,"}\"\"\"<":9291,"¦Ĥ":9292,"æĥ":9293,"æĦ":9294,"ç§":9295,"éģ":9296,"Ġem":9297,"Ġkw":9298,"ĠÉ´":9299,"invert":9300,"sel":9301,"Ġ=>":9302,"deploy":9303,"chastic":9304,"arcy":9305,"Ġfail":9306,"Ġrecon":9307,"Ġrejected":9308,"Ġcut":9309,"Ġcredit":9310,"gemma":9311,"Ġpjoin":9312,"Ġdol":9313,"Ġdense":9314,"raft":9315,"Ġbit":9316,"__,<":9317,"coco":9318,"toys":9319,"Ġ18":9320,"Ġ'%":9321,"(\"{":9322,"ĠAD":9323,"ĠCho":9324,"Ġgl":9325,"Ġgaussians":9326,"Ġconnect":9327,"iful":9328,"ĠSampling":9329,"Ġhist":9330,"Ġhml":9331,"ssl":9332,"ĠDeter":9333,"ĠDINO":9334,"Ġest":9335,"ĠPa":9336,"Ġreshape":9337,"ĠMark":9338,"=\"#":9339,"Ġprojector":9340,"Ġchic":9341,"ĠUsage":9342,"ourier":9343,"Ġwhole":9344,"Ġqrot":9345,"verts":9346,"acher":9347,"flu":9348,"Ġcodebrew":9349,"AGEN":9350,"ĠDecoder":9351,"ĠDelete":9352,"trajectories":9353,"imitives":9354,"grouped":9355,"downloaded":9356,"override":9357,"Ġdiscription":9358,"á´ĩs":9359,"rowson":9360,"OutputWithP":9361,"Former":9362,"Ġá´ħ":9363,"posterior":9364,"ä¸Ĭ":9365,"Ġchecking":9366,"Ġwriter":9367,"URI":9368,"ĠTextTo":9369,"Ġsimple":9370,"Ġmanager":9371,"ĠBased":9372,"tailed":9373,"ĠProgress":9374,"142":9375,"sense":9376,"Ġshots":9377,"Embeddings":9378,"ĠEnc":9379,"pkgs":9380,"äº¤":9381,"Ġmoved":9382,"venllm":9383,"skel":9384,"HOLDER":9385,"Running":9386,"Ġpeft":9387,"å¤§":9388,"ĠURLs":9389,"ENDPOINT":9390,"discr":9391,"Chatbot":9392,"StreamHandler":9393,"ĠTransaction":9394,"Ġretries":9395,"Ġoperations":9396,"databases":9397,"ĠSchedulerMixin":9398,"Ġmixup":9399,"spaces":9400,"æīĭ":9401,"ĠLiu":9402,"ĠVelocity":9403,"Root":9404,"ĠArgumentParser":9405,"Ġsaid":9406,"Ġneighbors":9407,"QUEST":9408,"ĠNetworks":9409,"Ġvertex":9410,"ickler":9411,"âķĲâķĲâķĲâķĲâķĲâķĲâķĲâķĲ":9412,"Ġarchitecture":9413,"á´ĩÊĢÉª":9414,"AUTH":9415,"partitioned":9416,"æİ¥":9417,"Ġpixel":9418,"Edge":9419,"neighbor":9420,"ategorical":9421,"ç½®":9422,"åı¯èĥ½":9423,"èµ¤çº¬":9424,"ĠAssert":9425,"Retries":9426,"ResolutionPipeline":9427,"OutputWithPast":9428,"\"*":9429,"'}<":9430,")\\":9431,")\",<":9432,"=(\"":9433,">\"":9434,"Build":9435,"Estim":9436,"Lines":9437,"MN":9438,"MSE":9439,"OST":9440,"Platform":9441,"Rot":9442,"SAMPLE":9443,"Successfully":9444,"audi":9445,"green":9446,"kandinsky":9447,"slot":9448,"smooth":9449,"tension":9450,"upt":9451,"vo":9452,"vocalize":9453,"zers":9454,"}'<":9455,"âĪ":9456,"åĢ":9457,"æŃ":9458,"ĠÉª":9459,"ĠðĿĹ":9460,"Ġ}}<":9461,"Łåº¦":9462,"orge":9463,"orval":9464,"sequences":9465,"ony":9466,"enance":9467,"encoders":9468,"retry":9469,"redirect":9470,"deem":9471,"delimiter":9472,"arding":9473,"Ġff":9474,"Ġfname":9475,"Ġfbank":9476,"Ġfrequency":9477,"heel":9478,"Ġns":9479,"Ġmongo":9480,"Ġregex":9481,"Ġrecognized":9482,"geometry":9483,"Ġpc":9484,"Ġpdb":9485,"Ġdy":9486,"Ġdue":9487,"iced":9488,"ateLimit":9489,"intra":9490,"ister":9491,"oly":9492,"olding":9493,">##":9494,"cli":9495,"(\"#":9496,"ĠAU":9497,"ĠABC":9498,"ĠCurrent":9499,"()],<":9500,"Ġgender":9501,"ĠSystem":9502,"Ġstill":9503,"Ġdetailed":9504,"Ġrgb":9505,"cords":9506,"ĠOllama":9507,"ĠOracle":9508,"Ġparallel":9509,"ĠMix":9510,"comes":9511,"Ġquotes":9512,"Ġchildren":9513,"anti":9514,"bodies":9515,"ĠGrad":9516,"ĠVideo":9517,"redential":9518,"Ġcomp":9519,"Ġcompatible":9520,"Ġ:],":9521,"Ġpairs":9522,"Control":9523,"Constants":9524,"ERAT":9525,"ERTS":9526,"phrase":9527,"Ġ401":9528,"ORT":9529,"collect":9530,"ĠIntent":9531,"ĠInstant":9532,"='+":9533,"baseline":9534,"REG":9535,"Ġmeasure":9536,"tests":9537,"**:":9538,"processors":9539,"Records":9540,"Ġruns":9541,"Ġtester":9542,"ĠmessageId":9543,"scatter":9544,"THO":9545,"linebuf":9546,"icha":9547,"ambdaLR":9548,"teacher":9549,"Ġadapter":9550,"transformation":9551,"]]]":9552,"DOT":9553,"LOCAL":9554,"114":9555,"Ġintern":9556,"ä¸Ń":9557,"reference":9558,"Textbox":9559,"Ġlater":9560,"gts":9561,"Ġgrouped":9562,"Ġmanually":9563,"Ġskel":9564,"Ġhelpful":9565,"Ġcurrency":9566,"PathLike":9567,"initialized":9568,"WithImages":9569,"iliary":9570,"æľĢ":9571,"Ġcontrolled":9572,"tables":9573,"Ġordered":9574,"analyze":9575,"VeOutput":9576,"Ġencryption":9577,"ä½į":9578,"Ġjoblib":9579,"ĠTEST":9580,"åĲį":9581,"ä»¶":9582,"Ġdeliver":9583,"ĠTranspose":9584,"Ġshifted":9585,"collator":9586,"Decision":9587,"LlamaForCausalLM":9588,"builtins":9589,"Ġservice":9590,"chemy":9591,"viders":9592,"Server":9593,"Ġshell":9594,"Ġmixed":9595,"åľ¨":9596,"Ġspaces":9597,"å¼ı":9598,"éĹ´":9599,"Ġgrade":9600,"Ġlargest":9601,"éĢŁåº¦":9602,"Starting":9603,"}%\")<":9604,"Ġproperties":9605,"pacity":9606,"ĠEleven":9607,"platform":9608,"ĠShould":9609,"vergence":9610,"Ġoverlapping":9611,"\"(":9612,"\"`":9613,")(":9614,")[-":9615,"07":9616,"46":9617,"51":9618,":])":9619,">\")<":9620,">',":9621,"?\")<":9622,"Age":9623,"Arial":9624,"Current":9625,"Document":9626,"Every":9627,"FPS":9628,"GEN":9629,"Gaussian":9630,"HF":9631,"Hand":9632,"Knee":9633,"Let":9634,"Llava":9635,"Memory":9636,"MULTI":9637,"Op":9638,"Pose":9639,"SG":9640,"Sm":9641,"Sub":9642,"Soup":9643,"Version":9644,"][:":9645,"_)<":9646,"ao":9647,"author":9648,"blog":9649,"bfloat":9650,"bserver":9651,"baichuan":9652,"benign":9653,"cf":9654,"density":9655,"fy":9656,"fid":9657,"gcr":9658,"hum":9659,"may":9660,"ny":9661,"nOptions":9662,"sft":9663,"sized":9664,"tile":9665,"tau":9666,"zure":9667,"¥è¯":9668,"èģ":9669,"Ġer":9670,"Ġep":9671,"Ġerr":9672,"Ġêľ°":9673,"inplace":9674,"incorrect":9675,"atomic":9676,"Ġtot":9677,"release":9678,"leave":9679,"child":9680,"arded":9681,"Ġfri":9682,"Ġfocus":9683,"utiful":9684,"ctm":9685,"Ġnq":9686,"Ġnuggets":9687,"Ġmow":9688,"Ġrecomm":9689,"Ġreversed":9690,"Ġsquare":9691,"uru":9692,"Ġprior":9693,"Ġdl":9694,"unded":9695,"frombuffer":9696,"izza":9697,"ilib":9698,"getvalue":9699,"about":9700,"abstract":9701,"Ġasdict":9702,"Ġ'')<":9703,"clude":9704,"ĠAM":9705,"ĠLin":9706,"residual":9707,"dataframe":9708,"updates":9709,"ĠShot":9710,"ĠSMPL":9711,"rium":9712,"Ġstmt":9713,"odon":9714,"\"]))<":9715,"\"][-":9716,"Ġstrip":9717,"Ġstrategy":9718,"ĠDjango":9719,"Ġnumerical":9720,"ĠForm":9721,"ĠFix":9722,"ĠRR":9723,"ĠPagination":9724,"ĠIP":9725,"ĠIGN":9726,"ipient":9727,"keyword":9728,"anger":9729,"angular":9730,"astodon":9731,"Ġ36":9732,"ĠEpisode":9733,"Ġquiz":9734,"Ġfilepath":9735,"codeBrew":9736,"Ġones":9737,"Ġuntil":9738,"ĠBot":9739,"ĠBea":9740,"listing":9741,"ĠWrite":9742,"']}\")<":9743,"Ġ:=":9744,"sho":9745,"\")).":9746,"AMES":9747,"Ġpop":9748,"([])<":9749,"ĠKendall":9750,"uncate":9751,"ĠAng":9752,"extracted":9753,"Ġrunner":9754,"ĠExit":9755,"activations":9756,"Ġnearest":9757,"Ġmaybe":9758,"subclass":9759,"Ġspecify":9760,"Ġstarted":9761,"Ġnorms":9762,"Ġ|]\",":9763,"maps":9764,"')}\\":9765,"partment":9766,"partial":9767,"playlist":9768,"interest":9769,"Ġtrail":9770,"Ġtracker":9771,"beams":9772,"ircle":9773,"Normal":9774,"VIDE":9775,"(*,":9776,"Ġeditor":9777,"CTOR":9778,"FIER":9779,"optimize":9780,"FOLDER":9781,"EmbeddingFunc":9782,"cased":9783,"ĠPretrainedConfig":9784,"}'\"<":9785,"annotation":9786,"plane":9787,"court":9788,"Ġregulator":9789,"lstm":9790,"panded":9791,"ĠTypeVar":9792,"ĠMultiply":9793,"Ġåľ":9794,"Ġserve":9795,"IFPipeline":9796,"Ġhigher":9797,"continuous":9798,"ĠTransformerBlock":9799,"Entanglement":9800,"]+\",":9801,"MetaModel":9802,"solar":9803,"Ġcallables":9804,"Ġmonitor":9805,"Accept":9806,"å°ı":9807,"ControlNetModel":9808,"splits":9809,"glctx":9810,"BECAUSE":9811,"rinsic":9812,"assigned":9813,"retries":9814,"ĠKeely":9815,"ĠCodeBrew":9816,"ickling":9817,"recvline":9818,"Ġsimilarities":9819,"GraphStorage":9820,"ercise":9821,"Ġexperimental":9822,"ĠTruncate":9823,"(\"[|":9824,"åĨħå®¹":9825,"ASSIFIER":9826,"åĬłéĢŁåº¦":9827,"2023":9828,"receiver":9829,"ĠAdapted":9830,"Ġsimplify":9831,"Ġvocoder":9832,"ammer":9833,"ĠJsonDict":9834,"EntropyLoss":9835,"Shoulder":9836,"Ġchicken":9837,"AGENET":9838,"redentials":9839,"DOTALL":9840,"utifulSoup":9841,"ilibrium":9842,"ĠIGNORE":9843,"ĠBeautifulSoup":9844,")^":9845,"*(":9846,"+\\":9847,"67":9848,"71":9849,"=_":9850,"?\"<":9851,"Be":9852,"DDP":9853,"Ge":9854,"OF":9855,"OL":9856,"Prot":9857,"Rem":9858,"SBOX":9859,"SUB":9860,"Tr":9861,"Target":9862,"VQ":9863,"We":9864,"WSI":9865,"`)<":9866,"`\"<":9867,"criterion":9868,"cudnn":9869,"don":9870,"epal":9871,"fov":9872,"gg":9873,"git":9874,"iLU":9875,"jin":9876,"ler":9877,"margin":9878,"nq":9879,"nip":9880,"nContext":9881,"pid":9882,"squared":9883,"uates":9884,"wave":9885,"yber":9886,"à¹":9887,"å·":9888,"åĿ":9889,"çŁ":9890,"Ġzeros":9891,"ĶåĽŀ":9892,"ľâĶĢ":9893,"ini":9894,"ori":9895,"security":9896,"Ġtone":9897,"Ġtmp":9898,"delay":9899,"chron":9900,"Ġfrag":9901,"lost":9902,"Ġnest":9903,"Ġnjoints":9904,"Ġmse":9905,"Ġremoves":9906,"Ġcutoff":9907,"geo":9908,"Ġinflu":9909,"expert":9910,"exponential":9911,"ptr":9912,"peci":9913,"otian":9914,"Ġlab":9915,"internal":9916,"integr":9917,"coords":9918,"etration":9919,"plies":9920,"Ġ150":9921,"Ġ'../":9922,"ĠCre":9923,"ĠClear":9924,"resolutions":9925,"Ġgame":9926,"keepal":9927,"uploaded":9928,"updated":9929,"ĠSup":9930,"omp":9931,"Ġhint":9932,"Ġhref":9933,"Ġhandling":9934,"ĠDot":9935,"ĠDENOISER":9936,"Ġdetermin":9937,"Ġrl":9938,"Ġev":9939,"Ġeot":9940,"ĠIs":9941,"ĠMult":9942,"ĠMistral":9943,"ĠMesh":9944,"ctories":9945,"Ġproxies":9946,"Ġvol":9947,"anno":9948,"anny":9949,"('./":9950,"__(*":9951,"boot":9952,"ĠBert":9953,"ĠWEIGHTS":9954,"ENAME":9955,"Ġkind":9956,"ĠRequired":9957,"DIS":9958,"Ġqk":9959,"Ġ480":9960,"ĠHandle":9961,"minus":9962,"ĠConcurrent":9963,"blockchain":9964,"aryBlock":9965,"ĠAnaly":9966,"ĠModelMixin":9967,"ĠtestClient":9968,"Ġcollect":9969,"Ġaccounts":9970,"Ġcapa":9971,"AGES":9972,"placeholders":9973,"Parse":9974,"ĠSeq":9975,"validate":9976,"Ġstarting":9977,"nsfw":9978,"trl":9979,"Ġaddition":9980,"ASK":9981,"Ġminimize":9982,"Ġflip":9983,"FAI":9984,"ĠImageNet":9985,"rown":9986,"Ġindexes":9987,"Ð°Ð½":9988,"Ġlinestyle":9989,"ĠstreamRun":9990,"Ġdownloaded":9991,"RANS":9992,"ĠTextStore":9993,"558":9994,"dispatch":9995,"which":9996,"Ġmock":9997,"Env":9998,"Ġexecutor":9999}