{"<s>":0,"</s>":1,"[PAD]":2,"!":3,"\"":4,"#":5,"$":6,"%":7,"&":8,"'":9,"(":10,")":11,"*":12,"+":13,",":14,"-":15,".":16,"/":17,"0":18,"1":19,"2":20,"3":21,"4":22,"5":23,"6":24,"7":25,"8":26,"9":27,":":28,";":29,"<":30,"=":31,">":32,"?":33,"@":34,"A":35,"B":36,"C":37,"D":38,"E":39,"F":40,"G":41,"H":42,"I":43,"J":44,"K":45,"L":46,"M":47,"N":48,"O":49,"P":50,"Q":51,"R":52,"S":53,"T":54,"U":55,"V":56,"W":57,"X":58,"Y":59,"Z":60,"[":61,"\\":62,"]":63,"^":64,"_":65,"`":66,"a":67,"b":68,"c":69,"d":70,"e":71,"f":72,"g":73,"h":74,"i":75,"j":76,"k":77,"l":78,"m":79,"n":80,"o":81,"p":82,"q":83,"r":84,"s":85,"t":86,"u":87,"v":88,"w":89,"x":90,"y":91,"z":92,"{":93,"|":94,"}":95,"~":96,"¡":97,"¢":98,"£":99,"¤":100,"¥":101,"¦":102,"§":103,"¨":104,"©":105,"ª":106,"«":107,"¬":108,"®":109,"¯":110,"°":111,"±":112,"²":113,"³":114,"´":115,"µ":116,"¶":117,"·":118,"¸":119,"¹":120,"º":121,"»":122,"¼":123,"½":124,"¾":125,"¿":126,"À":127,"Á":128,"Â":129,"Ã":130,"Ä":131,"Å":132,"Æ":133,"Ç":134,"È":135,"É":136,"Ê":137,"Ë":138,"Ì":139,"Í":140,"Î":141,"Ï":142,"Ð":143,"Ñ":144,"Ò":145,"Ó":146,"Ô":147,"Õ":148,"Ö":149,"×":150,"Ø":151,"Ù":152,"Ú":153,"Û":154,"Ü":155,"Ý":156,"Þ":157,"ß":158,"à":159,"á":160,"â":161,"ã":162,"ä":163,"å":164,"æ":165,"ç":166,"è":167,"é":168,"ê":169,"ë":170,"ì":171,"í":172,"î":173,"ï":174,"ð":175,"ñ":176,"ò":177,"ó":178,"ô":179,"õ":180,"ö":181,"÷":182,"ø":183,"ù":184,"ú":185,"û":186,"ü":187,"ý":188,"þ":189,"ÿ":190,"Ā":191,"ā":192,"Ă":193,"ă":194,"Ą":195,"ą":196,"Ć":197,"ć":198,"Ĉ":199,"ĉ":200,"Ċ":201,"ċ":202,"Č":203,"č":204,"Ď":205,"ď":206,"Đ":207,"đ":208,"Ē":209,"ē":210,"Ĕ":211,"ĕ":212,"Ė":213,"ė":214,"Ę":215,"ę":216,"Ě":217,"ě":218,"Ĝ":219,"ĝ":220,"Ğ":221,"ğ":222,"Ġ":223,"ġ":224,"Ģ":225,"ģ":226,"Ĥ":227,"ĥ":228,"Ħ":229,"ħ":230,"Ĩ":231,"ĩ":232,"Ī":233,"ī":234,"Ĭ":235,"ĭ":236,"Į":237,"į":238,"İ":239,"ı":240,"Ĳ":241,"ĳ":242,"Ĵ":243,"ĵ":244,"Ķ":245,"ķ":246,"ĸ":247,"Ĺ":248,"ĺ":249,"Ļ":250,"ļ":251,"Ľ":252,"ľ":253,"Ŀ":254,"ŀ":255,"Ł":256,"ł":257,"Ń":258,"ĠĠ":259,"ĠĠĠĠ":260,"ĠĠĠ":261,"se":262,"ĠĠĠĠĠĠĠ":263,"re":264,"in":265,"on":266,"te":267,"or":268,"st":269,"de":270,"Ġ=":271,"ĠĠĠĠĠĠĠĠ":272,"th":273,"sel":274,"self":275,"le":276,"me":277,"Ġa":278,"ti":279,"er":280,"Ġi":281,"al":282,"--":283,"Ġc":284,"ar":285,"en":286,"ro":287,"Ġself":288,"mp":289,"an":290,"Ġf":291,"ĠĠĠĠĠĠĠĠĠĠĠ":292,"at":293,"):":294,"Ġre":295,"\"\"":296,"Ġth":297,"Ġ'":298,"ur":299,"as":300,"ge":301,"Ġp":302,"ce":303,"tion":304,"def":305,"##":306,"Ġs":307,"Ġt":308,"ser":309,"li":310,"ing":311,"ue":312,"Ġthe":313,"ort":314,"Ġn":315,"Ġo":316,"ame":317,"Ġin":318,"ct":319,"ate":320,"lo":321,"Ġd":322,"----":323,"mport":324,"un":325,"Ġe":326,"Ġdef":327,"',":328,"()":329,"fi":330,"ri":331,"co":332,"ch":333,"Ġb":334,"Ġm":335,"Ġw":336,"__":337,"pe":338,"urn":339,"ĠĠĠĠĠĠĠĠĠĠĠĠĠĠĠĠ":340,"turn":341,"si":342,"\"\"\"":343,"ut":344,"nt":345,"rom":346,"ck":347,"ra":348,"is":349,"ul":350,"ter":351,"get":352,"id":353,"('":354,"name":355,"Ġreturn":356,"Ġ\"":357,"it":358,"ad":359,"Ġif":360,"Ġimport":361,"Ġfor":362,"el":363,"Ġto":364,"Ġ#":365,"test":366,"ot":367,"')":368,"ĠT":369,"ass":370,"pa":371,"from":372,"####":373,"Ġ\"\"\"":374,"one":375,"sert":376,"Ġ(":377,"val":378,"ver":379,"la":380,"ed":381,"Ġis":382,"up":383,"ma":384,"ode":385,"qu":386,"Ġan":387,"ss":388,"il":389,"ata":390,"set":391,"ĠĠĠĠĠĠĠĠĠĠĠĠĠĠĠ":392,"Ġh":393,"con":394,"cl":395,"ke":396,"ect":397,"di":398,"ol":399,"ty":400,"es":401,"der":402,"--------":403,"None":404,"vi":405,"Ġex":406,"ult":407,"pp":408,"ex":409,"Ġst":410,"od":411,"gs":412,"ation":413,"Ġof":414,"ent":415,"==":416,"op":417,"sion":418,"Ġas":419,"))":420,"bj":421,"Ġ[":422,"ta":423,"ction":424,"ment":425,"res":426,"Ġu":427,"ĠA":428,"':":429,"Ġcon":430,"ble":431,"ĠS":432,"._":433,"ith":434,"and":435,"ase":436,"ĠC":437,"age":438,"ile":439,"ror":440,"assert":441,"']":442,"ic":443,"he":444,"ĠI":445,"et":446,"value":447,"Ġtest":448,"ve":449,"Ġ1":450,"class":451,"ted":452,"ĠL":453,"rue":454,"Ġnot":455,"Ġand":456,"um":457,"que":458,"ls":459,"import":460,"Ġg":461,"to":462,"),":463,"key":464,"int":465,"bject":466,"time":467,"path":468,"['":469,"Ġ%":470,"\",":471,"ht":472,"am":473,"xt":474,"for":475,"bu":476,"ĠF":477,"Ġres":478,"(\"":479,"file":480,"tr":481,"all":482,"Ġ*":483,"00":484,"us":485,"ption":486,"ĠNone":487,"ew":488,"Ġ_":489,"ense":490,"Re":491,"type":492,"args":493,"eld":494,"par":495,"Ġ{":496,"qual":497,"pro":498,"Ġ2":499,"Ġco":500,"Ġor":501,"lin":502,"Ġdi":503,"ĠP":504,"quest":505,"ow":506,"Ġde":507,"Ġbe":508,"ub":509,"Ġ0":510,"Ġ+":511,"ON":512,"end":513,"Ġr":514,"########":515,"est":516,"pt":517,"list":518,"rror":519,"ance":520,"Ġ==":521,"log":522,"Ġ-":523,"Error":524,"text":525,"\")":526,"ĠĠĠĠĠ":527,"che":528,"per":529,"ĠM":530,"app":531,"Ġ:":532,"Ġfile":533,"Ġwith":534,"ang":535,"ig":536,"data":537,"ĠD":538,"Ġname":539,"Ġ__":540,"fo":541,"Ġme":542,"alse":543,"po":544,"Equal":545,"ack":546,"Ġun":547,"icense":548,"red":549,"mple":550,"our":551,"Ġma":552,"able":553,"str":554,"reate":555,"fig":556,"Ġpro":557,"tem":558,"mo":559,"ise":560,"sh":561,"oc":562,"url":563,"iz":564,"='":565,"out":566,"assertEqual":567,"ys":568,"put":569,"----------------":570,"len":571,"====":572,"mm":573,"form":574,"pec":575,"Ġget":576,"lic":577,"ĠO":578,"pon":579,"ĠLicense":580,"Ġset":581,"TI":582,"py":583,"Ġassert":584,"ure":585,"ault":586,"ield":587,"ype":588,"Ġy":589,"stance":590,"code":591,"Ġdata":592,"ule":593,"ĠB":594,"art":595,"ho":596,"ource":597,"Ġse":598,"Ġvalue":599,"add":600,"ry":601,"tri":602,"ER":603,"uth":604,"wor":605,"ponse":606,"object":607,"__(":608,"Ġon":609,"ly":610,"lient":611,"ĠE":612,"date":613,"ff":614,"pi":615,"Ġthis":616,"ger":617,"ctor":618,"late":619,"IN":620,"tp":621,"atch":622,"True":623,"ĠĠĠĠĠĠĠĠĠĠĠĠĠĠĠĠĠĠĠ":624,"user":625,"sc":626,"])":627,"ist":628,"odel":629,"Ġar":630,"ĠN":631,"Ġel":632,"Ġfrom":633,"Test":634,").":635,"cess":636,"ock":637,"Ġelse":638,"ES":639,"kw":640,"ting":641,"ĠW":642,"Ġx":643,"Ġ@":644,"Ġra":645,"Ġthat":646,"thod":647,"Ġuse":648,"Ġos":649,"ange":650,"cept":651,"temp":652,"rint":653,"ll":654,"jang":655,"In":656,"pre":657,"init":658,"line":659,"ssage":660,"..":661,"],":662,"Ġstr":663,"jo":664,"jango":665,"dex":666,"ĠU":667,"ument":668,"bo":669,"ten":670,"Ġpar":671,"rent":672,"ĠThe":673,"Ġpa":674,"EN":675,"ind":676,"unt":677,"ader":678,"ou":679,"low":680,"ĠTrue":681,"Ġby":682,"Ġv":683,"ml":684,"fa":685,"error":686,"version":687,"ne":688,"om":689,"ca":690,"ĠĠĠĠĠĠĠĠĠĠĠĠĠĠĠĠĠĠĠĠĠĠĠĠ":691,"Ġat":692,"():":693,"read":694,"kwargs":695,"``":696,"ator":697,"ph":698,"ok":699,"Con":700,"Ġwh":701,"col":702,"min":703,"ĠG":704,"//":705,"dd":706,"ception":707,"Ġraise":708,"ip":709,"if":710,"load":711,"andle":712,"odule":713,"Ġresult":714,"ild":715,"Ġit":716,"dir":717,"ask":718,"ĠR":719,"son":720,"**":721,"Ġkey":722,"param":723,"Ġen":724,"tent":725,"Ġlog":726,"Ġcl":727,"roup":728,"vent":729,"tain":730,">>":731,"lib":732,"gin":733,"port":734,"ans":735,"''":736,"cal":737,"valid":738,"vice":739,"thon":740,"ber":741,"ore":742,"01":743,"result":744,"AS":745,"Ġapp":746,"ĠFalse":747,"ary":748,"ec":749,"uti":750,"\":":751,"Ġch":752,"Ġla":753,"mmand":754,"################":755,"unction":756,"Ġl":757,"ĠV":758,"Ġexcept":759,"os":760,"mage":761,"ĠRe":762,"request":763,"odels":764,"wa":765,"Ġ)":766,"ext":767,"Ġ**":768,"base":769,"Ġuser":770,"Ġlist":771,"view":772,"qui":773,"OR":774,"Ġtime":775,"ill":776,"ther":777,"ght":778,"Ġ3":779,"Ġrequest":780,"ds":781,"ery":782,"atus":783,"ĠH":784,"Ġpy":785,"Ġout":786,".__":787,"AT":788,"=\"":789,"ute":790,"ac":791,"://":792,"Ġ<":793,"opy":794,"instance":795,"template":796,"db":797,"TION":798,"ĠĠĠĠĠĠĠĠĠĠĠĠĠĠĠĠĠĠĠĠĠĠĠĠĠĠĠĠĠĠĠĠ":799,"stri":800,"ir":801,"ST":802,"Ġare":803,"ses":804,"ust":805,"ener":806,"Ġprint":807,"Ġso":808,"back":809,"config":810,"ample":811,"pen":812,"tic":813,"Ġlo":814,"Ġpass":815,"create":816,"IC":817,"LE":818,"Ġunder":819,"json":820,"og":821,"False":822,"Ġobject":823,"Ġlen":824,"den":825,"AR":826,"Ġtry":827,"append":828,"ave":829,"rite":830,"scri":831,"Ġwe":832,"Ġdjango":833,"ze":834,"DI":835,"und":836,"ctory":837,"ĉĉ":838,"Ex":839,"ab":840,"ded":841,"update":842,"ren":843,"format":844,"server":845,"Ġsys":846,"ms":847,"ize":848,"main":849,"tive":850,"com":851,"uld":852,"join":853,"field":854,"Ġsh":855,"ces":856,"pla":857,"client":858,"Ġro":859,"tes":860,"own":861,"no":862,"========":863,"ken":864,"tribu":865,"Ġno":866,"ft":867,"ject":868,"count":869,"Ġhe":870,"tings":871,"his":872,"ters":873,"auth":874,"tions":875,"())":876,"info":877,"UT":878,"right":879,"SE":880,"da":881,"Ġ('":882,"Ġpath":883,"dict":884,"ning":885,"ttp":886,"orm":887,"ww":888,"Ġcomp":889,"Ġdefault":890,"query":891,"work":892,"attr":893,"ts":894,"fe":895,"ĠĠĠĠĠĠ":896,"'),":897,"Ġclass":898,"ag":899,"Ġ}":900,"IT":901,"fic":902,"comp":903,"lu":904,"Ġurl":905,"Ġsup":906,"Pro":907,"sed":908,"([":909,"Ġtype":910,"ies":911,"Ġ[]":912,"ĠIn":913,"with":914,"size":915,"Ġwill":916,"Ġcol":917,"cor":918,"AN":919,"return":920,"Ġpre":921,"RE":922,"Field":923,"im":924,"andler":925,"Ġper":926,"peci":927,"Ġresponse":928,"default":929,"cur":930,"ree":931,"tern":932,"ray":933,"ĠIf":934,"ard":935,"ated":936,"ost":937,"umn":938,"Co":939,"mis":940,"umber":941,"tial":942,"Ġnp":943,"ocument":944,"start":945,"Ġcan":946,"Ġhas":947,"Ġdo":948,"index":949,"Ġli":950,"utils":951,"nd":952,"nection":953,"ron":954,"iv":955,"mit":956,"Ġnew":957,"Ġall":958,"word":959,"heck":960,".\"\"\"":961,"mb":962,"--------------------------------":963,"Ġ['":964,"http":965,"Ġconfig":966,"Ġal":967,"du":968,"Ġcreate":969,"Ġmay":970,"Ġform":971,"string":972,"tra":973,"(),":974,"Ġ{}":975,"unc":976,"reg":977,"ations":978,"Ġfield":979,"lock":980,"Ġk":981,"arget":982,"sub":983,"ee":984,"sions":985,"item":986,"html":987,"node":988,"ume":989,"Case":990,"Ġ4":991,"ix":992,"Ġmethod":993,"method":994,"Ġadd":995,"ĠTest":996,"stribu":997,"Ġ.":998,"Ġ{'":999,"St":1000,"led":1001,"response":1002,"ĠThis":1003,"gn":1004,"sp":1005,"Ġhttp":1006,"Ġsub":1007,"arg":1008,"api":1009,"run":1010,"fix":1011,"sing":1012,"ress":1013,"ory":1014,"Ġstring":1015,"by":1016,"ware":1017,"'],":1018,"Ġbu":1019,"ĠK":1020,"pected":1021,"ial":1022,"ME":1023,"TIONS":1024,"ite":1025,"write":1026,"lement":1027,"Type":1028,"ging":1029,"Ġoption":1030,"status":1031,"man":1032,"arch":1033,"bel":1034,"service":1035,"alue":1036,"tle":1037,"*-":1038,"ity":1039,"ari":1040,"AL":1041,"group":1042,"message":1043,"Ġfa":1044,"mail":1045,"Ġspeci":1046,"Ġdistribu":1047,"sha":1048,"lete":1049,"gra":1050,"Ġyou":1051,"Ġ-*-":1052,"hould":1053,"Ġ`":1054,"Ġcur":1055,"Res":1056,"DE":1057,"the":1058,"obj":1059,"Ġfunction":1060,"Ġnode":1061,"Ġ``":1062,"org":1063,"Name":1064,"De":1065,"ĠĠĠĠĠĠĠĠĠĠĠĠĠĠĠĠĠĠĠĠĠĠĠ":1066,"perty":1067,"models":1068,"Ġarg":1069,"tribute":1070,"pace":1071,"RO":1072,"foo":1073,"Ġac":1074,"quired":1075,"Ġrun":1076,"Ġwor":1077,"gth":1078,"~~":1079,"state":1080,"ant":1081,"Ġdate":1082,"fil":1083,"IS":1084,"va":1085,"ers":1086,"aders":1087,"vel":1088,"Ġargs":1089,"host":1090,"10":1091,"Ġmodule":1092,"md":1093,"link":1094,"Ġshould":1095,"title":1096,"lit":1097,"ign":1098,"TestCase":1099,"rame":1100,"ager":1101,"().":1102,"pache":1103,"parse":1104,"context":1105,"objects":1106,"nel":1107,"clu":1108,"'])":1109,"table":1110,"Ġmessage":1111,"ull":1112,"sta":1113,"do":1114,"Ġversion":1115,"ash":1116,"Ġinstance":1117,"rect":1118,"bs":1119,"Ġdistributed":1120,"ID":1121,"call":1122,"max":1123,"Ġ'''":1124,"clo":1125,"ay":1126,"scription":1127,"map":1128,"ich":1129,"ĠEx":1130,"Ġerror":1131,"rans":1132,">>>":1133,"Ġoutput":1134,"Ġline":1135,"].":1136,"lif":1137,"ding":1138,"not":1139,"model":1140,"utf":1141,"ey":1142,"Ġ\\":1143,"loat":1144,"Ġle":1145,"Ġbase":1146,"core":1147,"Ġ>":1148,"angu":1149,"anguage":1150,"Ġ+=":1151,"Ġpo":1152,"su":1153,"MP":1154,"Ġmock":1155,"'s":1156,"Ġcopy":1157,"ight":1158,"lugin":1159,"ody":1160,"'))":1161,"license":1162,"Ġ..":1163,"ine":1164,"tring":1165,"[\"":1166,"Data":1167,"ally":1168,"we":1169,"use":1170,"ps":1171,"Ġisinstance":1172,"Ġused":1173,"Ġitem":1174,"module":1175,"'t":1176,"12":1177,"Ġmodel":1178,"Ġsuper":1179,"lob":1180,"ream":1181,"check":1182,"row":1183,"dis":1184,"pr":1185,"'.":1186,"ĠCon":1187,"Ġ5":1188,"ved":1189,"Ġca":1190,"bin":1191,"Ġcode":1192,"Ser":1193,"net":1194,"ulti":1195,"ound":1196,"sys":1197,"Ġmodels":1198,"token":1199,"Ġz":1200,"ime":1201,"my":1202,"content":1203,"Ġint":1204,"ump":1205,"ittest":1206,"Model":1207,"process":1208,"names":1209,"Ġne":1210,"bug":1211,"Ġsu":1212,"Ġstart":1213,"Ġelif":1214,"Ġgo":1215,"ises":1216,"ols":1217,"Me":1218,"ner":1219,"Ġother":1220,"yn":1221,"})":1222,"be":1223,"rectory":1224,"Ġag":1225,"action":1226,"Ġcheck":1227,"oo":1228,"HO":1229,"\"]":1230,"image":1231,"cre":1232,"Ġwhich":1233,"Ġclient":1234,"andom":1235,"Ġdb":1236,"Ġindex":1237,"new":1238,"ĠY":1239,"icode":1240,"lean":1241,"array":1242,"point":1243,"men":1244,"ark":1245,"Ġ/":1246,"ors":1247,"sg":1248,"ref":1249,"sign":1250,"Ch":1251,"Ġdis":1252,"pack":1253,"move":1254,"File":1255,"ments":1256,"Ġj":1257,"uple":1258,"bar":1259,"opyright":1260,"elp":1261,"Fa":1262,"ual":1263,"AC":1264,"Ġ>>>":1265,"ĠĠĠĠĠĠĠĠĠ":1266,"ome":1267,"Base":1268,"cs":1269,"ap":1270,"trans":1271,"Ġcontext":1272,"Ġcontain":1273,"ĠĊ":1274,"Ġdict":1275,"doc":1276,"source":1277,"Ġcall":1278,"ĠDe":1279,"Ġtext":1280,"PI":1281,"ĠUn":1282,"Ġauth":1283,"Ġlogging":1284,"types":1285,"Ġopen":1286,"ler":1287,"try":1288,"ĠSee":1289,"ĠIS":1290,":`":1291,"func":1292,"ax":1293,"lable":1294,"filter":1295,"Ġ201":1296,"Ġevent":1297,"lication":1298,"HE":1299,"RL":1300,"mock":1301,"ci":1302,"Ġdocument":1303,"print":1304,"ftware":1305,"Set":1306,"settings":1307,"ties":1308,"Ġexpected":1309,"open":1310,"((":1311,"split":1312,"Ġvalues":1313,"Ġid":1314,"command":1315,"tro":1316,"comm":1317,"ython":1318,"Up":1319,"orted":1320,"'):":1321,"ĠReturn":1322,"Ġ!":1323,"www":1324,"################################":1325,"patch":1326,"play":1327,"ĠOR":1328,"Ġstate":1329,"ong":1330,"project":1331,"Ġwork":1332,"Ġsource":1333,"Ġrequired":1334,"ĠAN":1335,"ĠX":1336,"output":1337,"ĠCopyright":1338,"ion":1339,"ach":1340,"its":1341,"ersion":1342,"iven":1343,"Ġcurrent":1344,"fied":1345,"Ġwhen":1346,"Ġhave":1347,"lection":1348,"conn":1349,"viron":1350,"Ġ|":1351,"Ġimage":1352,"Ġany":1353,"ENT":1354,"sent":1355,"Ġone":1356,"Ġcal":1357,"lay":1358,"Ġ!=":1359,"ED":1360,"queue":1361,"indow":1362,"Ġfiles":1363,"Ġend":1364,"event":1365,"Ġgener":1366,"als":1367,"less":1368,"itial":1369,"env":1370,"Exception":1371,"delete":1372,"uto":1373,"ep":1374,"TP":1375,"uture":1376,"Ġtra":1377,"params":1378,"tity":1379,"equal":1380,"ĠJ":1381,"uration":1382,"SI":1383,"Di":1384,"ML":1385,"cls":1386,"assertTrue":1387,"Ġimp":1388,"ak":1389,"Ġjson":1390,"fields":1391,"Un":1392,"Par":1393,"Ġcontent":1394,"Ġrange":1395,"ister":1396,"Ġad":1397,"plo":1398,"Ġcommand":1399,"Form":1400,"Ġobj":1401,"options":1402,"[:":1403,"ched":1404,"trol":1405,"label":1406,"trib":1407,"Ġdatetime":1408,"tail":1409,"GE":1410,"ither":1411,"****":1412,"32":1413,"Ġsettings":1414,"missions":1415,"Ġmax":1416,"place":1417,"ĠOF":1418,"cache":1419,"Ġformat":1420,"},":1421,"Ġreg":1422,"Vi":1423,"List":1424,"arning":1425,"length":1426,"tin":1427,"uct":1428,"clude":1429,"inter":1430,"Ġserver":1431,"ql":1432,"Ġpage":1433,"FI":1434,"ICEN":1435,"Ġspecific":1436,"Ġquery":1437,"filename":1438,"page":1439,"values":1440,"================":1441,"umpy":1442,"pass":1443,"ICENSE":1444,"ify":1445,"lines":1446,"ĠCON":1447,"ameters":1448,"LO":1449,"Ġnumber":1450,"ĉĊ":1451,"Ġlimit":1452,"ration":1453,"Ġvalid":1454,"idget":1455,"Ġup":1456,"loc":1457,"cri":1458,"Ġparam":1459,"Ġwri":1460,"sor":1461,"ocket":1462,"lat":1463,"rc":1464,"function":1465,"serial":1466,"alueError":1467,"Ġlanguage":1468,"store":1469,"Ġpython":1470,"property":1471,"ĠMO":1472,"chema":1473,"Ra":1474,"Ġoptions":1475,"Ġgiven":1476,"RAN":1477,"Ġeither":1478,"ĠĠĠĠĊ":1479,"Ġtemplate":1480,"mbda":1481,"emp":1482,"ICA":1483,"uid":1484,"django":1485,"::":1486,"ariable":1487,"Ġbo":1488,"Ġnames":1489,"face":1490,"Ġver":1491,"python":1492,"attern":1493,"Ġob":1494,"admin":1495,"job":1496,"lan":1497,"Ġ--":1498,"input":1499,"stra":1500,"TTP":1501,"post":1502,"Key":1503,"Ġmatch":1504,"ists":1505,"DIF":1506,"adata":1507,"task":1508,"Ġcod":1509,"ĠQ":1510,"Ġman":1511,"AD":1512,"exec":1513,"Ġutf":1514,"tocol":1515,"Ġkwargs":1516,"ures":1517,"Ġonly":1518,"En":1519,"shape":1520,"session":1521,"Ġcoding":1522,"lied":1523,"xy":1524,"Not":1525,"UL":1526,"annel":1527,"Ġargument":1528,"Ġread":1529,"\".":1530,"ld":1531,"ud":1532,"Ġmake":1533,"close":1534,"ICATIONS":1535,"Ġview":1536,"range":1537,"resource":1538,"root":1539,"tag":1540,"Ġcls":1541,"pri":1542,"local":1543,"util":1544,"unk":1545,"debug":1546,"ustom":1547,"64":1548,"ĠMODIF":1549,"Ġ10":1550,"{'":1551,"(*":1552,"ĠMODIFICATIONS":1553,"String":1554,"Ġtoken":1555,"future":1556,"feren":1557,"Ġsoftware":1558,"0000":1559,"coding":1560,"build":1561,"keys":1562,"ĠYou":1563,"Ġbut":1564,"ature":1565,"MA":1566,"Ġtrans":1567,"Ġ]":1568,"Ġinput":1569,"ilter":1570,"Ġmsg":1571,"Ġback":1572,"Ġtw":1573,"items":1574,"river":1575,"ĠANY":1576,"View":1577,"Ġtarget":1578,"ĠWAR":1579,"idth":1580,"exception":1581,"conf":1582,"target":1583,"lass":1584,"ccess":1585,"ĠCo":1586,"ell":1587,"OT":1588,"Id":1589,"sition":1590,"Get":1591,"column":1592,"PE":1593,"ĠPro":1594,"Ġdirectory":1595,"lease":1596,"teger":1597,"IND":1598,"ats":1599,"User":1600,"irst":1601,"err":1602,"Ġupdate":1603,"df":1604,"ran":1605,"lation":1606,"msg":1607,"yle":1608,"copy":1609,"Ġaction":1610,"match":1611,"ĠWARRAN":1612,"Request":1613,"files":1614,"ING":1615,"var":1616,"AB":1617,"11":1618,"ateg":1619,"ns":1620,"To":1621,"onent":1622,"gine":1623,"ffer":1624,"201":1625,"ake":1626,"entry":1627,"np":1628,"licenses":1629,"TIES":1630,"Ġprovi":1631,"Ġdoes":1632,"ain":1633,"ĠReturns":1634,"orage":1635,"ĠVersion":1636,"NA":1637,"dent":1638,"press":1639,"num":1640,"dition":1641,"Ġgroup":1642,"License":1643,"Ġhost":1644,"Ġusing":1645,"raw":1646,"Ġvi":1647,"Ġpermissions":1648,"change":1649,"Raises":1650,"fter":1651,"CO":1652,"('/":1653,"Ar":1654,"save":1655,"cy":1656,"Ġmust":1657,"pk":1658,"Ġ'%":1659,"raph":1660,"select":1661,"Ġtable":1662,"Ġinter":1663,"Ġexception":1664,"Ġsize":1665,"cord":1666,"pect":1667,"imple":1668,"Ġtask":1669,"ste":1670,"ĠPython":1671,"Se":1672,"Col":1673,"ĠĠĠĠĠĠĠĠĠĠĠĠĠĠĠĠĠĠĠĠĠĠĠĠĠ":1674,"ates":1675,"tadata":1676,"iter":1677,"has":1678,"ĠApache":1679,"Ġ'/":1680,"top":1681,"Ġpack":1682,"find":1683,"ĠWARRANTIES":1684,"CE":1685,"Handler":1686,"izer":1687,"here":1688,"handler":1689,"ĠWIT":1690,"RI":1691,"Ġ200":1692,"fir":1693,"uri":1694,"ous":1695,"tiv":1696,"level":1697,"assertRaises":1698,"Ġrow":1699,"PO":1700,")),":1701,"Ġuti":1702,"Ġproject":1703,"tools":1704,"Ġhelp":1705,"Ġq":1706,"Ġ6":1707,"Ġobtain":1708,"HOUT":1709,"Ġmo":1710,"inal":1711,"exten":1712,"Ġstatus":1713,"Ġnumpy":1714,"verse":1715,"').":1716,"ized":1717,"Log":1718,")))":1719,"ization":1720,"Ġapplic":1721,"=[":1722,"ker":1723,"Time":1724,"Ġyield":1725,"ĠĠĠĠĠĠĠĠĠĠĠĠĠĠĠĠĠĠĠĠĠĠĠĠĠĠĠ":1726,"site":1727,"Ġinto":1728,"ped":1729,"DO":1730,"tests":1731,"asses":1732,"Ġwriting":1733,"xml":1734,"current":1735,"email":1736,"contrib":1737,"vai":1738,"manager":1739,"fore":1740,"Ġhere":1741,"mber":1742,"Man":1743,"mation":1744,"Ġmin":1745,"usr":1746,"nder":1747,"Ġparams":1748,"sa":1749,"order":1750,"apache":1751,"LICENSE":1752,"Ġconnection":1753,"Return":1754,"older":1755,"sit":1756,"parser":1757,"bi":1758,"ote":1759,"Ġgover":1760,"ĠKIND":1761,"Ġfilename":1762,"Ġfirst":1763,"ath":1764,"~~~~":1765,"Ġimplied":1766,"body":1767,"rap":1768,"Ġover":1769,"register":1770,"mission":1771,"of":1772,"ĠBAS":1773,"EST":1774,"connection":1775,"quen":1776,"uster":1777,"Ġexp":1778,"ĠWITHOUT":1779,"000":1780,"Ġinst":1781,"US":1782,"ick":1783,"Po":1784,"mon":1785,"reed":1786,"25":1787,"liance":1788,"lear":1789,"headers":1790,"Ġunittest":1791,"other":1792,"pub":1793,"Ġparser":1794,"CON":1795,"author":1796,"parent":1797,"(_":1798,"ha":1799,"old":1800,"child":1801,"Ġport":1802,"\");":1803,"Ġtuple":1804,"cmd":1805,"iled":1806,"tributes":1807,"IO":1808,"</":1809,"inx":1810,"Ġcompliance":1811,"domain":1812,"cript":1813,"ogle":1814,"ĠLicensed":1815,"kip":1816,"Ġapplicable":1817,"Ġexpress":1818,"ĠCONDI":1819,"atri":1820,"\"),":1821,"ĠCONDITIONS":1822,"Ġgoverning":1823,"option":1824,"TY":1825,"ĠBASIS":1826,"box":1827,"connect":1828,"'''":1829,"show":1830,"Ġdoc":1831,"mt":1832,"prefix":1833,"ĠAr":1834,"rid":1835,"dout":1836,"Ġtrue":1837,"Ġresource":1838,"olume":1839,"last":1840,"etwork":1841,"Ġlaw":1842,"Ġparent":1843,"ĠValueError":1844,"password":1845,"Ġlib":1846,"ating":1847,"The":1848,"Ġagreed":1849,"ast":1850,"fail":1851,"float":1852,"alt":1853,"99":1854,"search":1855,"ternal":1856,"Lo":1857,"Ġsome":1858,"plugin":1859,"Client":1860,"rate":1861,"phinx":1862,"Ġchange":1863,"pos":1864,"Config":1865,"Ġprocess":1866,"spec":1867,"Ġ''":1868,"Ġfields":1869,"Ġsetup":1870,"ush":1871,"Ġneed":1872,"gener":1873,"username":1874,"ive":1875,"let":1876,"Ġmore":1877,"Ġlimitations":1878,"ĠBE":1879,"ĠĠĠĠĠĠĠĠĠĠ":1880,"Ġeach":1881,"are":1882,"mented":1883,"Ġcolumn":1884,")]":1885,"vailable":1886,"Value":1887,"package":1888,"frame":1889,"UN":1890,"block":1891,"Response":1892,"ĠUnless":1893,"#!":1894,"Ġunicode":1895,"Ġheaders":1896,"Ġcase":1897,"ug":1898,").__":1899,"Ġexec":1900,"stack":1901,"fla":1902,"script":1903,"Ġret":1904,"so":1905,"cted":1906,"sup":1907,"UM":1908,"Object":1909,"example":1910,"thing":1911,"04":1912,"pper":1913,"next":1914,"stamp":1915,"atrix":1916,"Ġses":1917,"Ġ####":1918,"CT":1919,"make":1920,"Ġlabel":1921,"ĠUser":1922,"Ġload":1923,"static":1924,"ference":1925,"LI":1926,"ormal":1927,"ATE":1928,"Ġdescription":1929,"Ġelement":1930,"itor":1931,"ants":1932,"stream":1933,"olute":1934,"ĠAdd":1935,"Ġresults":1936,"pop":1937,"Ġwhile":1938,"flow":1939,"rt":1940,"mark":1941,"Ġservice":1942,"elper":1943,"ĠImport":1944,"ollow":1945,"send":1946,"vo":1947,"abs":1948,"lt":1949,"ĠMe":1950,"][":1951,"number":1952,"space":1953,"Command":1954,"down":1955,"datetime":1956,"Ġpri":1957,"Add":1958,"fier":1959,"mary":1960,"Ġcor":1961,"Ġ8":1962,"ync":1963,"ameter":1964,"denti":1965,"vert":1966,"#!/":1967,"description":1968,"mode":1969,"Auth":1970,"fy":1971,"Ġoper":1972,"IL":1973,"mote":1974,"duct":1975,"environ":1976,"formation":1977,"les":1978,"ĠĠĠĠĠĠĠĠĠĠĠĠĠĠĠĠĠĠĠĠĠ":1979,"Ġmode":1980,"FA":1981,"Ġsession":1982,"vision":1983,"ctionary":1984,"sum":1985,"Ġbody":1986,"fer":1987,"exp":1988,"assertEquals":1989,"Node":1990,"Ġorder":1991,"off":1992,"Ġsa":1993,"lect":1994,"address":1995,"Ġ...":1996,"now":1997,"ĠException":1998,"Ġ'.":1999,"cket":2000,"Mock":2001,"Ġ::":2002,"Ġmain":2003,"ASE":2004,"random":2005,"strip":2006,"Ġimple":2007,"Ġfe":2008,"Factory":2009,"remove":2010,"Ġtitle":2011,"cer":2012,"ution":2013,"(__":2014,"VER":2015,"lobal":2016,"unittest":2017,"ression":2018,"ĠPar":2019,"ice":2020,"Ġwas":2021,"logger":2022,"lity":2023,"go":2024,"Ġabs":2025,"Ġobjects":2026,"sible":2027,"Ġgetattr":2028,"aster":2029,"TML":2030,"alid":2031,"ĠSt":2032,"ultip":2033,"meta":2034,"NAME":2035,"Ġfloat":2036,"Ġfound":2037,"Ġconn":2038,"Ġlocal":2039,"ie":2040,"Ġbuild":2041,"Ġsy":2042,"Ġallow":2043,"perties":2044,"network":2045,"swith":2046,"URL":2047,"case":2048,"chedule":2049,"20":2050,"No":2051,"Ġpackage":2052,"Ġlink":2053,"Ġtop":2054,"Ġsign":2055,"Ġthread":2056,"contain":2057,"cho":2058,"gen":2059,"ĠLO":2060,"EX":2061,"lower":2062,"Ġval":2063,"Ġapi":2064,"Ġthen":2065,"rary":2066,"ĠNot":2067,"CH":2068,"Is":2069,"ĠTHE":2070,"licy":2071,"igh":2072,"INE":2073,"lish":2074,"lug":2075,"attribute":2076,"At":2077,"argument":2078,"###":2079,"Ġroot":2080,"KE":2081,"ators":2082,"Ġsha":2083,"can":2084,"Ġab":2085,"inst":2086,"Ġlast":2087,"Create":2088,"nown":2089,"ative":2090,"Ġattr":2091,"direct":2092,"Class":2093,"present":2094,"Ġextra":2095,"urls":2096,"isted":2097,"ui":2098,"Ġexten":2099,"etch":2100,"entic":2101,"Dict":2102,"Ġtests":2103,"Ġcount":2104,"Ġsame":2105,"fault":2106,"element":2107,"ixin":2108,"Comp":2109,"Ġtag":2110,"34":2111,"App":2112,"ĠIN":2113,"except":2114,"200":2115,"ĠĠĠĠĠĠĠĠĠĠĠĠĠ":2116,"bose":2117,"_(":2118,"Ġ(\"":2119,"tific":2120,"Ġpart":2121,"graph":2122,"ton":2123,"ids":2124,"Ġsee":2125,"setup":2126,"Message":2127,"asic":2128,"tails":2129,"mod":2130,"ont":2131,"lso":2132,"ĠsetUp":2133,"Ġpos":2134,"reak":2135,"Ġparse":2136,"Ad":2137,"Ġresp":2138,"book":2139,"ĠFor":2140,"served":2141,"called":2142,"exists":2143,"Ġdiff":2144,"ready":2145,".\"":2146,"Ġdefin":2147,"16":2148,"Ġcomm":2149,"ĠĠĠĠĠĠĠĠĠĠĠĠĠĠĠĠĠĠĠĠĠĠĠĠĠĠĠĠĠ":2150,"Ġafter":2151,"hash":2152,"abled":2153,"Ġnum":2154,"ĠBase":2155,"io":2156,"first":2157,"fg":2158,"amples":2159,"ĠURL":2160,"{}":2161,"AY":2162,"common":2163,"----------------------------------------":2164,"quire":2165,"Resource":2166,"Bu":2167,"TH":2168,"Ġlogger":2169,"ĠĠĠĠĠĠĠĠĠĠĠĠ":2170,"lask":2171,"Ġchild":2172,"ĠĠĠĠĠĠĠĠĠĠĠĠĠĠĠĠĠ":2173,"ULT":2174,"Text":2175,"del":2176,"dle":2177,"color":2178,"ĠNO":2179,"war":2180,"cond":2181,"dic":2182,"Ġclo":2183,"Ġ'__":2184,"derr":2185,"OP":2186,"replace":2187,"des":2188,"Ġhandle":2189,"lated":2190,"Ġed":2191,"okup":2192,"stop":2193,"tinue":2194,"Ġhandler":2195,"Ġfla":2196,"ful":2197,"ĠĠĠĠĠĠĠĠĠĠĠĠĠĠĠĠĠĠĠĠ":2198,"Ġlambda":2199,"Ġfind":2200,"width":2201,"iddle":2202,"Ġpassword":2203,"Ġinfo":2204,"MPL":2205,"fs":2206,"---":2207,"system":2208,"ategory":2209,"Ġdel":2210,"Ġcom":2211,"Ġarray":2212,"ique":2213,"req":2214,"ĠĠĠĠĠĠĠĠĊ":2215,"ĠAPI":2216,"plot":2217,"errors":2218,"troller":2219,"Ġspecified":2220,"ATION":2221,"Ġtemp":2222,"[-":2223,"Ġrandom":2224,"lative":2225,"Ġsw":2226,"rule":2227,"wh":2228,"Ġsp":2229,"Ġ[\"":2230,"This":2231,"ĠĠĠĠĠĠĠĠĠĠĠĠĠĠĠĠĠĠĠĠĠĠĠĠĠĠ":2232,"cp":2233,"Ġyour":2234,"ĠĠĠĠĠĠĠĠĠĠĠĠĠĠ":2235,"50":2236,"__)":2237,"Ġcmd":2238,"Ġfunc":2239,"ĠĠĠĠĠĠĠĠĠĠĠĠĠĠĠĠĠĠ":2240,"fin":2241,"Ġcache":2242,"ĠString":2243,"comple":2244,"ish":2245,"Ġ\"%":2246,"Qu":2247,"forms":2248,"ĠWe":2249,"ĠĠĠĠĠĠĠĠĠĠĠĠĠĠĠĠĠĠĠĠĠĠĠĠĠĠĠĠ":2250,"mpty":2251,"engine":2252,"ĠAll":2253,"Ġ\"\"":2254,"Manager":2255,"ported":2256,"Ca":2257,"Char":2258,"HTTP":2259,"'].":2260,"pc":2261,"header":2262,"AP":2263,"encode":2264,"extra":2265,"ĠGet":2266,"av":2267,"zer":2268,"Ġconfiguration":2269,"Ġfilter":2270,"Path":2271,"struct":2272,"({":2273,"Ġbuil":2274,"compile":2275,"very":2276,"Ġvariable":2277,"dered":2278,"cope":2279,"cale":2280,"sten":2281,"Ġarguments":2282,".')":2283,"Ġinitial":2284,"Ġinformation":2285,"Ġqu":2286,"'}":2287,"driver":2288,"100":2289,"Ġcreated":2290,"actor":2291,"Imple":2292,"pattern":2293,"QL":2294,"ob":2295,"Ġte":2296,"cli":2297,"timeout":2298,"Ġfollow":2299,"Ġright":2300,"ummy":2301,"Ġ9":2302,"resh":2303,"rapper":2304,"PER":2305,"txt":2306,"Ġrender":2307,"Ġfail":2308,"ings":2309,"termin":2310,"expected":2311,"********":2312,"Ġact":2313,"gex":2314,"Ġax":2315,"ord":2316,"handle":2317,"Tests":2318,"istr":2319,"ng":2320,"backend":2321,"Ġblock":2322,"ĠSet":2323,"Run":2324,"Ġattribute":2325,"Server":2326,"Ġ7":2327,"atures":2328,"ould":2329,"application":2330,"callback":2331,"sets":2332,"style":2333,"ditional":2334,"Ġpoint":2335,"Ġdatabase":2336,"OC":2337,"dential":2338,"ĠFOR":2339,"ĠCreate":2340,"penden":2341,"classmethod":2342,"Ġorig":2343,"Ġchar":2344,"quence":2345,"execute":2346,"Ġop":2347,"Ġabsolute":2348,"\"))":2349,"tree":2350,"Ġits":2351,"dump":2352,"']['":2353,"Ġcollection":2354,"ultiple":2355,"ĠImportError":2356,"ĠTO":2357,"Ġcontinue":2358,"ide":2359,"ĠData":2360,"Item":2361,"FAULT":2362,"dia":2363,"ib":2364,".\")":2365,"Event":2366,"Ġnon":2367,"ONE":2368,"Service":2369,"sy":2370,"repo":2371,"Ġdest":2372,"Ġnext":2373,"ĠAn":2374,"git":2375,"ESS":2376,"Ġexist":2377,"ular":2378,"GIN":2379,"uuid":2380,"heet":2381,"iddleware":2382,"Ġtimeout":2383,"TER":2384,"tera":2385,"Ġiter":2386,"vider":2387,"login":2388,"Ġauto":2389,"metadata":2390,"Ġfin":2391,"------------------------------------------------------------------------":2392,"Ġdir":2393,"Ġreturns":2394,"assi":2395,"exit":2396,"igration":2397,"Ġloc":2398,"Ġexample":2399,"sen":2400,"zone":2401,"latform":2402,"Ġalso":2403,"sca":2404,"ĠKey":2405,"shared":2406,"results":2407,"ĠHTML":2408,"Ġwrite":2409,"Mixin":2410,"DB":2411,"Ġhasattr":2412,"SS":2413,"round":2414,"unicode":2415,"ector":2416,"SON":2417,"Ġcustom":2418,"Ġthere":2419,"SION":2420,"Ġavailable":2421,"Ġheader":2422,"repr":2423,"Ġoff":2424,"Ġcre":2425,"sume":2426,"tw":2427,"fake":2428,"ĠSE":2429,"ĠĠĠĠĠĠĠĠĠĠĠĠĠĠĠĠĠĠĠĠĠĠ":2430,"Ġauthor":2431,"Ġshow":2432,"act":2433,"GET":2434,"Ġinclude":2435,"24":2436,"Ġhash":2437,"__,":2438,"over":2439,"Ġpub":2440,"conds":2441,"Ġprefix":2442,"ĠEX":2443,"\\\\":2444,"schema":2445,"Ġpost":2446,"ink":2447,"ves":2448,"aml":2449,"true":2450,"web":2451,"Connection":2452,"side":2453,"cen":2454,"ear":2455,"stdout":2456,"Al":2457,"char":2458,"mory":2459,"tmp":2460,"lambda":2461,"Ġentry":2462,"dirname":2463,"ĠType":2464,"argv":2465,"location":2466,"ĠFI":2467,"Ġserial":2468,"UR":2469,"thread":2470,"ship":2471,"document":2472,"Ġjob":2473,"ello":2474,"ĠHTTP":2475,"pping":2476,"Ġsupport":2477,"Implemented":2478,"TE":2479,"Option":2480,"channel":2481,"Ġstream":2482,"Ġencoding":2483,"AG":2484,"Ġ12":2485,"lot":2486,"olver":2487,"users":2488,"ingle":2489,"Ġold":2490,"arnings":2491,"active":2492,"Parser":2493,"Ġframe":2494,"QU":2495,"Ġerr":2496,"Logger":2497,"]))":2498,"Ġcalled":2499,"Ġ{\"":2500,"https":2501,"ĠAt":2502,"only":2503,"insert":2504,"kernel":2505,"Ġdocumentation":2506,"ĠĠĠĠĠĠĠĠĠĠĠĠĠĠĠĠĠĠĠĠĠĠĠĠĠĠĠĠĠĠĠ":2507,"imal":2508,"Ġkeys":2509,"Ġsocket":2510,"Ġparameters":2511,"Ġdictionary":2512,"cret":2513,"LINE":2514,"Ġlength":2515,"rop":2516,"API":2517,"Ġopt":2518,"ĠCol":2519,"ĠList":2520,"assed":2521,"lice":2522,"gest":2523,"=['":2524,"ĠInc":2525,"ba":2526,"LY":2527,"factory":2528,"commit":2529,"ven":2530,"TYPE":2531,"For":2532,"CharField":2533,"Trans":2534,"Ġwhere":2535,"ik":2536,"liter":2537,"ĠĠĠĠĠĠĠĠĠĠĠĠĠĠĠĠĠĠĠĠĠĠĠĠĠĠĠĠĠĠ":2538,"Group":2539,"tags":2540,"Ġbefore":2541,".,":2542,"Ġta":2543,"startswith":2544,"ĠAUT":2545,"ceiv":2546,"Ġlike":2547,"ride":2548,")):":2549,"Ġaddress":2550,"02":2551,"Ġcallback":2552,"Ġ>=":2553,"Ġemail":2554,"coder":2555,"(['":2556,"ĠGener":2557,"ploy":2558,"={":2559,"Ġbreak":2560,"views":2561,"PAT":2562,"day":2563,"Ġrequests":2564,"BU":2565,"State":2566,"Ġpla":2567,"Ġitems":2568,"dices":2569,"imp":2570,"Ġaccess":2571,"Ġnetwork":2572,"MO":2573,"board":2574,"=(":2575,"Ac":2576,"anel":2577,"]:":2578,"Admin":2579,"`.":2580,"access":2581,"Call":2582,"Ġlevel":2583,"ati":2584,"yload":2585,"tuple":2586,"Ġmethods":2587,"istry":2588,"DIR":2589,"ĠCh":2590,"rs":2591,"ook":2592,"Ġthan":2593,"Ġutils":2594,"Ġsearch":2595,"limit":2596,"ason":2597,"Ġsix":2598,"tex":2599,"Ġplugin":2600,"clean":2601,"CL":2602,"Ġass":2603,"Ġtwo":2604,"stract":2605,"ĠOption":2606,"zy":2607,"Ġtypes":2608,"exc":2609,"bytes":2610,"ĠEn":2611,"tx":2612,"ĠRes":2613,"assertFalse":2614,"sw":2615,"','":2616,"Ġcolor":2617,"ĠTH":2618,"ranch":2619,"Ġpattern":2620,"Ġscript":2621,"Per":2622,"decode":2623,"aded":2624,"diff":2625,"KEY":2626,"src":2627,"PRO":2628,"TO":2629,"emplate":2630,"exceptions":2631,"tach":2632,"raises":2633,"33":2634,"Ġenv":2635,"rec":2636,"Ġfull":2637,"/%":2638,"TR":2639,"Ġlines":2640,"Instance":2641,"tot":2642,"ĠSer":2643,"=%":2644,"ĠNo":2645,"Ġbeen":2646,"ORT":2647,"Ġnow":2648,"train":2649,"Ġerrors":2650,"\",\"":2651,"pha":2652,"SD":2653,"Ġ'--":2654,"ND":2655,"Ġ'_":2656,"wd":2657,"render":2658,"tml":2659,"Ġqueue":2660,"ĠNotImplemented":2661,"gr":2662,"sure":2663,"lank":2664,"Th":2665,"stats":2666,"delta":2667,"profile":2668,"ATED":2669,"Ġsend":2670,"Ġ'-":2671,"ices":2672,"Ġlicense":2673,"IP":2674,"56":2675,"gram":2676,"xture":2677,"Ġrepresent":2678,"ights":2679,"ipe":2680,"member":2681,"Ġref":2682,"...":2683,"18":2684,"Out":2685,"tep":2686,"stru":2687,"dev":2688,"used":2689,"oly":2690,":%":2691,"quires":2692,"bind":2693,"Frame":2694,"ĠIMP":2695,"Element":2696,"ffix":2697,"Ġsystem":2698,"UP":2699,"Content":2700,"Ġreq":2701,"peri":2702,"ured":2703,"Ġimplement":2704,"({'":2705,"groups":2706,"'^":2707,"OG":2708,"Ġcomple":2709,"device":2710,"tered":2711,"Ġ&":2712,"velo":2713,"ĉĉĉ":2714,"ugh":2715,"Ġtree":2716,"Index":2717,"nodes":2718,"storage":2719,"ĠIt":2720,"OF":2721,"auto":2722,"Ġmark":2723,"Cache":2724,"Ġdomain":2725,"Ġmap":2726,"ĠApp":2727,"(?":2728,"pool":2729,"loads":2730,"socket":2731,"alled":2732,"unter":2733,"ret":2734,"30":2735,"Check":2736,"fn":2737,"Ġwithout":2738,"oper":2739,"ling":2740,"Ġweb":2741,"full":2742,"From":2743,"Query":2744,"Ġapplication":2745,"window":2746,"TICE":2747,"ged":2748,"widget":2749,"Ġ$":2750,"Date":2751,"lue":2752,"ceived":2753,"(**":2754,"Ġreturned":2755,"leep":2756,"Ġempty":2757,"Ġ},":2758,"Ġdetails":2759,"literals":2760,"words":2761,"classes":2762,"Result":2763,"Ġrepo":2764,"ĠON":2765,"Ġrule":2766,"Task":2767,"Ġdelete":2768,"Ġfoo":2769,"ĠArgs":2770,"wner":2771,"Ġexc":2772,"Ġspec":2773,"EL":2774,"ĠNOTICE":2775,"With":2776,"Ġeq":2777,"volume":2778,"cluster":2779,"By":2780,"15":2781,"Ġpassed":2782,"dentials":2783,"offset":2784,"assertIs":2785,"sql":2786,"ĠTHIS":2787,"iff":2788,"account":2789,"ĠPy":2790,"validate":2791,"Action":2792,"Ġrelative":2793,"Ġ--------":2794,"mer":2795,"__':":2796,"Reg":2797,"tom":2798,"Pre":2799,"vironment":2800,"messages":2801,"ait":2802,"Ġtwisted":2803,"ible":2804,"ystem":2805,"Ġbin":2806,"addr":2807,"required":2808,"istory":2809,"ĠSe":2810,"ries":2811,"wise":2812,"Ġusername":2813,"Ġalready":2814,"non":2815,"ano":2816,"comment":2817,"rough":2818,"ince":2819,"sm":2820,"Ġ100":2821,"ithub":2822,"ected":2823,"series":2824,"ĠTODO":2825,"Ġreverse":2826,"================================":2827,"like":2828,"Ġ'\\":2829,"ulate":2830,"dentity":2831,"bot":2832,"simple":2833,"oolean":2834,"ĉĉĊ":2835,"Ġpatch":2836,"shot":2837,"bility":2838,"Ġremove":2839,"Ġsimple":2840,"Context":2841,"vate":2842,"uter":2843,"ĠIF":2844,"PATH":2845,"itch":2846,"POST":2847,"Ġstyle":2848,"reen":2849,"Ġattributes":2850,"sitory":2851,"release":2852,"rag":2853,"layer":2854,"sage":2855,"Ġgraph":2856,"+)":2857,"tim":2858,"buil":2859,"Ġprovided":2860,"route":2861,"Ġsql":2862,"cause":2863,"empty":2864,"Ġsingle":2865,"ĠNotImplementedError":2866,"Ġim":2867,"help":2868,"oken":2869,"prec":2870,":]":2871,"idx":2872,"container":2873,"ges":2874,"55":2875,"Gener":2876,"buffer":2877,"Ġjust":2878,"14":2879,"Ġge":2880,"proxy":2881,"annot":2882,"Valid":2883,"encoding":2884,"Ġdon":2885,"olve":2886,"orig":2887,"Ġchannel":2888,"FOR":2889,"utton":2890,"DEFAULT":2891,"sis":2892,"okie":2893,"mi":2894,"rand":2895,"ĠCheck":2896,"latex":2897,"ĠEND":2898,"ward":2899,"Ġsel":2900,"sue":2901,"ĠDefault":2902,"Ġ<=":2903,"Ġsta":2904,"dentifier":2905,"Ġdiffe":2906,"cry":2907,"dest":2908,"Ġhtml":2909,"initial":2910,"cent":2911,"\"],":2912,"Or":2913,"He":2914,"zip":2915,"ĠSo":2916,"sv":2917,"left":2918,"collection":2919,"sq":2920,"Ġlay":2921,"children":2922,"ĠFILE":2923,"Ġurllib":2924,"Ġstruct":2925,"ENER":2926,"Ġmetadata":2927,"']:":2928,"pend":2929,"orter":2930,"80":2931,"Down":2932,"Dis":2933,"={'":2934,"oreign":2935,"modules":2936,"cloud":2937,"ceback":2938,"Ġmy":2939,"Ġgenerated":2940,"oci":2941,"tal":2942,"\"):":2943,"ession":2944,"Ġip":2945,"Ġsure":2946,"ET":2947,"stderr":2948,"greg":2949,"Ġ})":2950,"UMENT":2951,"Image":2952,"til":2953,"\"])":2954,"utable":2955,"ail":2956,"ali":2957,"Table":2958,"bit":2959,"Ġcho":2960,"stead":2961,"tric":2962,"opts":2963,"directory":2964,"Ġmeta":2965,"const":2966,"And":2967,"Ġverbose":2968,"dified":2969,"imum":2970,"edi":2971,"skip":2972,"sole":2973,"Code":2974,"Ġbytes":2975,"pl":2976,"invalid":2977,"any":2978,"wrap":2979,"ctions":2980,"Ġmapp":2981,"getLogger":2982,"riter":2983,"Ġparameter":2984,"points":2985,"Ġfollowing":2986,"Sta":2987,"aly":2988,"Ġwindow":2989,"ĠMock":2990,"Ġbet":2991,"chemy":2992,"Sub":2993,"eff":2994,"Ġ###":2995,"Ġdtype":2996,"rations":2997,"ĠAuth":2998,"Ġpaths":2999,"Ġ'',":3000,"component":3001,"ĠZ":3002,"ics":3003,"SER":3004,"slug":3005,"Ġfake":3006,"An":3007,"ĠFile":3008,"dist":3009,"Ġshape":3010,"ux":3011,"19":3012,"angible":3013,"ERR":3014,"Ġali":3015,"wait":3016,"Ġxml":3017,"Ġrecord":3018,"Lay":3019,"sample":3020,"sumer":3021,"sort":3022,"Ġoptional":3023,"-------":3024,"success":3025,"some":3026,"part":3027,"testing":3028,"LEASE":3029,"Ġdown":3030,"################################################################":3031,"straint":3032,"Do":3033,"]['":3034,"ĠDE":3035,"curity":3036,"keep":3037,"Ġwidget":3038,"Ġfunctions":3039,"sheet":3040,"Ġinterface":3041,"Ġglobal":3042,"ical":3043,")[":3044,"XX":3045,"Ġraw":3046,"div":3047,"axis":3048,"ABLE":3049,"total":3050,"Ġdf":3051,"Info":3052,"]),":3053,"ric":3054,"AMPL":3055,"As":3056,"Ġselect":3057,"Ġproperty":3058,"Ġcontaining":3059,"position":3060,"most":3061,"ĠIP":3062,"Loc":3063,"ĠPer":3064,"Invalid":3065,"nap":3066,"ĠBEGIN":3067,"Ġthey":3068,"WAR":3069,"AMPLES":3070,"ĠDOC":3071,"MS":3072,"Column":3073,"rf":3074,"Ġlong":3075,"Filter":3076,"Integer":3077,"03":3078,"Ġsubprocess":3079,"opt":3080,"Ġthem":3081,"Ġclean":3082,"Ġ%(":3083,"andard":3084,"ĠID":3085,"sphinx":3086,"Sh":3087,"vor":3088,"defin":3089,"Ġforms":3090,"Le":3091,"Ġsorted":3092,"attrs":3093,"resp":3094,"ueue":3095,"ctx":3096,"Ġtri":3097,"else":3098,"Bo":3099,"fetch":3100,"Ġzip":3101,"issing":3102,"allow":3103,"Su":3104,"ĠRun":3105,"Inter":3106,"events":3107,"Property":3108,"ROPER":3109,"ĠSEE":3110,"ntax":3111,"ENERATED":3112,"Ġswg":3113,"Version":3114,"Format":3115,"13":3116,"Ġbar":3117,"ĠDOCUMENT":3118,"loop":3119,"stf":3120,"Ġswgpy":3121,"ĠDONE":3122,"ĠMAY":3123,"~~~~~~~~":3124,"Ġcorrect":3125,"OK":3126,"Ġsalt":3127,"ĠPLEASE":3128,"step":3129,"ĠEXAMPLES":3130,"cies":3131,"Contain":3132,"OGENERATED":3133,"ĠONLINE":3134,"ĠAUTOGENERATED":3135,"22":3136,"Ġdisplay":3137,"display":3138,"ĠDOCUMENTATION":3139,"ĠLOST":3140,"ĠIMPROPER":3141,"ctories":3142,"logging":3143,"stfName":3144,"ĠIMPROPERLY":3145,"Ġmessages":3146,"Ġgenerate":3147,"ĠHttp":3148,"ition":3149,"NO":3150,"wn":3151,"irs":3152,"install":3153,"Ġinclu":3154,"TEST":3155,"Des":3156,"ĠOpen":3157,"Ġbecause":3158,"FO":3159,"lector":3160,"Ġfil":3161,"Ġthese":3162,"Ġconst":3163,"ween":3164,"rep":3165,"Ġstop":3166,"(-":3167,"Ġmon":3168,"Ġcomponent":3169,"timestamp":3170,"Ġwant":3171,"abspath":3172,"once":3173,"hook":3174,"ticle":3175,"ĠComp":3176,"record":3177,"Ġsave":3178,"ACK":3179,"dumps":3180,"Ġnodes":3181,"ja":3182,"dtype":3183,"Ġsum":3184,"Ġstatic":3185,"protocol":3186,"vious":3187,"Ġdire":3188,"Ġexists":3189,"Number":3190,"Ġadmin":3191,"ift":3192,"Serial":3193,"Function":3194,"js":3195,"role":3196,"Ġtotal":3197,"cheduler":3198,"lush":3199,"ĠName":3200,"Ġbackend":3201,"win":3202,"gor":3203,"secret":3204,"ily":3205,"Ġlook":3206,"Ġdist":3207,"Ġ',":3208,"\">":3209,"speci":3210,"Found":3211,"known":3212,"unit":3213,"master":3214,"Process":3215,"'})":3216,"Ġinstead":3217,"folder":3218,"public":3219,"Ġvar":3220,"Ġ\"/":3221,"cle":3222,"github":3223,"database":3224,"Ġpk":3225,"gument":3226,"pu":3227,".*":3228,"ntry":3229,"cat":3230,"$',":3231,"Ġinteger":3232,"Ġbool":3233,"language":3234,"vm":3235,"Ġchunk":3236,"DAT":3237,"properties":3238,"ĠAd":3239,"cheme":3240,"All":3241,"Ġ'<":3242,"DS":3243,"serv":3244,"Ġdoesn":3245,"alog":3246,"Ġter":3247,"light":3248,"gger":3249,"USER":3250,"Attribute":3251,"short":3252,"Ġdebug":3253,"Str":3254,"FILE":3255,"Ġ),":3256,"rest":3257,"helper":3258,"BUG":3259,"ĠGo":3260,"compute":3261,"Ġpick":3262,"ways":3263,"dot":3264,"ower":3265,"FF":3266,"aa":3267,"ĠTypeError":3268,"gorith":3269,"policy":3270,"rows":3271,"ĠAttribute":3272,"ValueError":3273,"OS":3274,"resses":3275,"ins":3276,"Ġabout":3277,"ĠParameters":3278,"lex":3279,"section":3280,"normal":3281,"filters":3282,"ĠDjango":3283,"Ġph":3284,"see":3285,"oto":3286,"oreignKey":3287,"cc":3288,"]]":3289,"ĠOr":3290,"Line":3291,"Ġinstall":3292,"NS":3293,"hether":3294,"abc":3295,"apps":3296,"hen":3297,"clear":3298,"should":3299,"tivity":3300,"mbol":3301,"Ġpages":3302,"ZE":3303,"css":3304,"Ġstrings":3305,"ĠNote":3306,"dim":3307,"Ġusers":3308,"gnore":3309,"Ġcontainer":3310,"created":3311,"AGE":3312,"leted":3313,"Ġadded":3314,"ĠDocument":3315,"ports":3316,"ĠAs":3317,"Fe":3318,"Ġtags":3319,"Tra":3320,"ĠĠĠĠĠĠĠĠĠĠĠĠĠĠĠĠĠĠĠĠĠĠĠĠĠĠĠĠĠĠĠĠĠ":3321,"Ġtheme":3322,"ĠMeta":3323,"expr":3324,"multi":3325,"idden":3326,"Ġtmp":3327,"VAL":3328,"Ġnormal":3329,"extend":3330,"Ġclasses":3331,"ork":3332,"head":3333,"xx":3334,"entication":3335,"provider":3336,"cla":3337,"track":3338,"tify":3339,"ench":3340,"Ġconf":3341,"columns":3342,"Protocol":3343,"%(":3344,"uff":3345,"[:,":3346,"Ġdevice":3347,"Ġdefined":3348,"tact":3349,"loader":3350,"ĠĠĠĠĠĠĠĠĠĠĠĠĠĠĠĠĠĠĠĠĠĠĠĠĠĠĠĠĠĠĠĠĠĠĠ":3351,"Ġflask":3352,"ination":3353,"ĠJSON":3354,"Ġspace":3355,"'][":3356,"Ġwidth":3357,"Ġextension":3358,"mk":3359,"eval":3360,"OL":3361,"Fla":3362,"tc":3363,"product":3364,"chunk":3365,"eq":3366,"Ġwarnings":3367,"Ġexpect":3368,"Ġoffset":3369,"Ġthrough":3370,"igrations":3371,"flags":3372,"ero":3373,"images":3374,"Ġredirect":3375,"Ġunique":3376,"}.":3377,"Widget":3378,"RES":3379,"AM":3380,"ĠConfig":3381,"resources":3382,"()[":3383,"Ġsort":3384,"Ġactual":3385,"tems":3386,"ĠLICENSE":3387,"SC":3388,"Ġprotocol":3389,"Method":3390,"Ġbeing":3391,"Ġ\".":3392,"Input":3393,"Ġstore":3394,"labels":3395,"cursor":3396,".'":3397,"=_":3398,"Ġremote":3399,"Ġsite":3400,"agent":3401,"spa":3402,"napshot":3403,"Ġour":3404,"sted":3405,"ado":3406,"tification":3407,"ERROR":3408,"real":3409,"\").":3410,"Ġsection":3411,"78":3412,"void":3413,"ĠNOT":3414,"Ġsrc":3415,"pid":3416,"entity":3417,"ALL":3418,"yp":3419,"lem":3420,"assertIn":3421,"entries":3422,"Ġdifferent":3423,"paths":3424,"Ed":3425,"Size":3426,"sitive":3427,"Ġoriginal":3428,"abel":3429,"Status":3430,"theme":3431,"sig":3432,"Plugin":3433,"packages":3434,"attributes":3435,"Ġvalidate":3436,"fit":3437,"Ġcollections":3438,"ĠColumn":3439,"tenant":3440,"Ġxrange":3441,"ĠStringIO":3442,"Ġutil":3443,"fd":3444,"ASS":3445,"cast":3446,"safe":3447,"Ġlocation":3448,"WOR":3449,"ITY":3450,"Ġcluster":3451,"edit":3452,"way":3453,"Ġ[(":3454,"pendencies":3455,"Ġsuccess":3456,"Returns":3457,"Ġinit":3458,"Ġtimestamp":3459,"CRE":3460,"Ġ20":3461,"docs":3462,"Ġ----------":3463,"ection":3464,"Ġenume":3465,"Module":3466,"mask":3467,"Ġplace":3468,"END":3469,"Ver":3470,"'},":3471,"batch":3472,"Ġ):":3473,"scope":3474,"Ġ16":3475,"reset":3476,"Ġ\"\\":3477,"Ġevery":3478,"Ġcontains":3479,"_,":3480,"ross":3481,"oauth":3482,"lite":3483,"Callback":3484,"Ġfi":3485,"TIC":3486,"eg":3487,"namespace":3488,"Py":3489,"long":3490,"sleep":3491,"Ġ'{":3492,"SET":3493,"Ġcolumns":3494,"Ġsm":3495,"Ġschema":3496,"ĠĠĠĠĠĠĠĠĠĠĠĠĠĠĠĠĠĠĠĠĠĠĠĠĠĠĠĠĠĠĠĠĠĠ":3497,"wards":3498,")])":3499,"uch":3500,"Ġcli":3501,"rel":3502,"med":3503,"variable":3504,"ĠRequest":3505,"Ġposition":3506,"Ġnamed":3507,"-----":3508,"Ġcursor":3509,"rer":3510,"plugins":3511,"Ġtake":3512,"actions":3513,"gate":3514,"tool":3515,"utron":3516,"LOG":3517,"On":3518,"Ġbetween":3519,"linen":3520,"ĠValid":3521,"PL":3522,"std":3523,"ĠSphinx":3524,"cfg":3525,"Ġsecond":3526,"PORT":3527,"GI":3528,"height":3529,"Ġevents":3530,"cr":3531,"sity":3532,"ose":3533,"__.":3534,"returns":3535,"gh":3536,"Ġgen":3537,"tod":3538,"Ġ[])":3539,"Ġsupported":3540,"null":3541,"matrix":3542,"/'":3543,"Ġtheano":3544,"Ġvari":3545,"manage":3546,"Ġstdout":3547,"Ġnamespace":3548,"Ġreplace":3549,"End":3550,"Ġstep":3551,"Ġpytest":3552,"CP":3553,"Ġbased":3554,"img":3555,"-%":3556,"Ġti":3557,"decor":3558,"Ġfn":3559,"Ġskip":3560,"ferred":3561,"ĠBSD":3562,"Ġdecor":3563,"orn":3564,"sl":3565,"TIME":3566,"desc":3567,"Ġcore":3568,"gress":3569,"pth":3570,"buf":3571,"Ġrunning":3572,"Token":3573,"Ġmod":3574,"Ġgra":3575,"Ġlibrary":3576,"``.":3577,"dar":3578,"trics":3579,"dap":3580,"VERSION":3581,"Ġpossible":3582,"}'.":3583,"rtype":3584,"verage":3585,"bucket":3586,"tk":3587,"gments":3588,"('\\":3589,"ĠLo":3590,"related":3591,"STR":3592,"jobs":3593,"Ġsample":3594,"Ġctx":3595,"bad":3596,"Open":3597,"ient":3598,"titem":3599,"Back":3600,"Ġhow":3601,"fication":3602,"Ġ2015":3603,"umb":3604,"Ġaccount":3605,"Ġexceptions":3606,"utor":3607,"moved":3608,"/',":3609,"Ġfalse":3610,"Ġconvert":3611,"()))":3612,"Ġcomment":3613,"ĠPo":3614,"olution":3615,"features":3616,"Ġstats":3617,"Ġentity":3618,"region":3619,"ished":3620,"EXT":3621,"Ro":3622,"ws":3623,"mean":3624,"Page":3625,"pol":3626,"home":3627,"Ġaxis":3628,"42":3629,"Ġfinally":3630,"hex":3631,"Ġparsed":3632,")'":3633,"Ġlinks":3634,"Ġstack":3635,"Ġprob":3636,"remote":3637,"Ġplt":3638,"Ġenumerate":3639,"ITE":3640,"Ġ\"__":3641,"ĠGroup":3642,"('%":3643,"cords":3644,"fmt":3645,"ested":3646,"17":3647,"Tree":3648,"SH":3649,"sgi":3650,"Ġmultiple":3651,"redirect":3652,"detail":3653,"sive":3654,"alchemy":3655,"ritems":3656,"05":3657,"basic":3658,"Window":3659,"score":3660,"ĠTh":3661,"ĠMy":3662,"rl":3663,"Int":3664,"Ġ2014":3665,"UB":3666,"publish":3667,"ĠKeyError":3668,"ationError":3669,"Ġattrs":3670,"Output":3671,"ferences":3672,"Ġappro":3673,"Ġdefaults":3674,"IG":3675,"One":3676,"Ġtesting":3677,"Ġdocuments":3678,"Ġprofile":3679,">'":3680,"fixture":3681,"generate":3682,"gettext":3683,"Ġnova":3684,"staticmethod":3685,"ram":3686,"Ġnull":3687,"ĠImage":3688,"Address":3689,"NG":3690,"hello":3691,"force":3692,"raise":3693,"SIZE":3694,"listen":3695,"Ġgoogle":3696,"Ġkeep":3697,"agic":3698,"Ġmatrix":3699,"sec":3700,"card":3701,"mar":3702,"MM":3703,"ĠSoftware":3704,"Ġcer":3705,"ĠGoogle":3706,"lookup":3707,"Ġforce":3708,"EC":3709,"Session":3710,"controller":3711,"ority":3712,"interface":3713,"custom":3714,"Ġrights":3715,"Ġmember":3716,"Ġleft":3717,"lime":3718,"reverse":3719,"Ġfailed":3720,"Serializer":3721,"proto":3722,"Ġtrain":3723,"rowser":3724,"tore":3725,"localhost":3726,"Ġcharac":3727,"ĠModel":3728,"ude":3729,"pages":3730,"ĠTestCase":3731,"Ġwx":3732,"60":3733,"scale":3734,"vs":3735,"verify":3736,"Ġhttps":3737,"Ġmanager":3738,"WS":3739,"Ġregister":3740,"changed":3741,"af":3742,"Ġwait":3743,"indices":3744,"stat":3745,"Ġaut":3746,"`,":3747,"licit":3748,"templates":3749,"signal":3750,"AUT":3751,"Ġgit":3752,"patterns":3753,"mac":3754,"permission":3755,"vis":3756,"Stream":3757,"Ġcontents":3758,"year":3759,"Ġhigh":3760,"enabled":3761,"none":3762,"lineno":3763,"ynam":3764,"Point":3765,"Ġclose":3766,"Ġagain":3767,"her":3768,"Ġpool":3769,"parts":3770,"seq":3771,"IM":3772,"arDown":3773,"platform":3774,"ually":3775,"eve":3776,"404":3777,"duce":3778,"ored":3779,"parameters":3780,"nected":3781,"ĠCommand":3782,"Ġsplit":3783,"Ġdt":3784,"lab":3785,"gment":3786,"PC":3787,"Ġvolume":3788,"Template":3789,"Ġ->":3790,"lities":3791,"signed":3792,"Ġjoin":3793,")\"":3794,"44":3795,"VE":3796,"Options":3797,"Ġproperties":3798,"Oper":3799,"ForeignKey":3800,"dt":3801,"havi":3802,"Ġexecute":3803,"Ġignore":3804,"contents":3805,"Ġreal":3806,"ĠAl":3807,"Ġcfg":3808,"verbose":3809,"Ġassoci":3810,"include":3811,"DEBUG":3812,"('.":3813,"Clo":3814,"gorithm":3815,"()),":3816,"pipe":3817,"Ġreserved":3818,"'re":3819,"salt":3820,"pose":3821,"Tag":3822,"Ġencode":3823,"undle":3824,"google":3825,"tab":3826,"pendent":3827,"ĠExample":3828,"Ġmodules":3829,"serve":3830,"Ġinvalid":3831,"Update":3832,"Ġcommon":3833,"Ġdriver":3834,"ĠTo":3835,"Ġsignal":3836,"Ġmodi":3837,"agicMock":3838,"86":3839,"nored":3840,"1234":3841,"bool":3842,"Ġpermission":3843,"ongo":3844,"Ġmulti":3845,"Ġstri":3846,"cing":3847,"cb":3848,"Ġimplementation":3849,"ĠAttributeError":3850,"If":3851,"Ġrelated":3852,"ĠUse":3853,");":3854,"Ġparts":3855,"structor":3856,"seconds":3857,"Ġcallable":3858,"Ġretri":3859,"rpc":3860,"pendency":3861,"Ġvariables":3862,"Migration":3863,"Unless":3864,"Ġrest":3865,"eds":3866,"defaults":3867,"ordin":3868,"****************":3869,"Ġlock":3870,"____":3871,"Ġwhether":3872,"report":3873,"Ġtheir":3874,"grid":3875,"pick":3876,"pg":3877,"ĠTime":3878,"samples":3879,"suite":3880,"')),":3881,"tist":3882,"unch":3883,"numpy":3884,"Ġreference":3885,"Ġcommands":3886,"Ġblank":3887,"(\"%":3888,"anti":3889,"ground":3890,"Graph":3891,"Source":3892,"Ġsent":3893,"Ġ],":3894,"regex":3895,"XML":3896,"Ġuuid":3897,"extensions":3898,"SQL":3899,"Ġ#:":3900,"__()":3901,"ĠDi":3902,"Ġseconds":3903,"ĠĠĠĠĠĠĠĠĠĠĠĠĠĠĠĠĠĠĠĠĠĠĠĠĠĠĠĠĠĠĠĠĠĠĠĠ":3904,"gf":3905,"faces":3906,"ĠMake":3907,"Ġsince":3908,"Ġbatch":3909,"respon":3910,"csv":3911,"udi":3912,"09":3913,"cols":3914,"rot":3915,"ouble":3916,"NotFound":3917,"ometry":3918,"Ġenvironment":3919,"deo":3920,"ĠSub":3921,"Ġthreading":3922,"tasks":3923,"oriz":3924,"Ġconnect":3925,"Ġwhat":3926,"matic":3927,"ignore":3928,"owner":3929,"Ġ2013":3930,"zeros":3931,"Ġ'')":3932,"Ġproduct":3933,"OUT":3934,"category":3935,"Ġwrap":3936,"Ġsequence":3937,"Ġflags":3938,"Ġdirect":3939,"Ġshort":3940,"periment":3941,"We":3942,"Ġanother":3943,"ĠRE":3944,"nu":3945,"Ġlate":3946,"Ġtempfile":3947,"ancel":3948,"ĉĉĉĉ":3949,"Ġdisable":3950,"ving":3951,"Ġctypes":3952,"PS":3953,"Ġsuch":3954,"23":3955,"Ġnet":3956,"ixed":3957,"Ġverify":3958,"Ġchanges":3959,"sk":3960,"media":3961,"precated":3962,"Ġfactory":3963,"Middleware":3964,"ĠOS":3965,"ĠQt":3966,"Ġoperation":3967,"flush":3968,"('-":3969,"false":3970,"Ġwho":3971,"require":3972,"Ġsetting":3973,"Ġmath":3974,"ĠSQL":3975,"Queue":3976,"UE":3977,"enter":3978,"bove":3979,"Ġdivision":3980,"tables":3981,":`.":3982,"tz":3983,"pare":3984,"pytest":3985,"ĠRa":3986,"expi":3987,"Child":3988,"Ġinstances":3989,"mount":3990,"Pa":3991,"ĠOn":3992,"dataset":3993,"Map":3994,"MAX":3995,"xtures":3996,"ĠNode":3997,"endpoint":3998,"this":3999,"scribe":4000,"255":4001,"pb":4002,"loaded":4003,"cell":4004,"Ġsen":4005,"tensor":4006,"Ġexisting":4007,"ROM":4008,"Ġcommit":4009,"Ġlogin":4010,"Ġglob":4011,"setUp":4012,"security":4013,"#------------------------------------------------------------------------":4014,"uring":4015,"commands":4016,"Ġunit":4017,"Ġsk":4018,"ied":4019,"Ġpayload":4020,"fiers":4021,"binary":4022,"VI":4023,"Ġdataset":4024,"LOC":4025,"Ġmanual":4026,"alias":4027,"medi":4028,"Ġupdated":4029,"Ġrole":4030,"vars":4031,"Ġpresent":4032,"88":4033,"dient":4034,"boot":4035,"ROOT":4036,"lim":4037,"Count":4038,"ases":4039,"WARE":4040,"ĠBu":4041,"utes":4042,"vari":4043,"payload":4044,"'\\":4045,"extension":4046,"Ġloop":4047,"Ġins":4048,"Ġreason":4049,"ĠQu":4050,",)":4051,"ssl":4052,"links":4053,"Stack":4054,"chain":4055,"AND":4056,"six":4057,"Ġmer":4058,"ĠOptions":4059,"DF":4060,"Ġreport":4061,"math":4062,"System":4063,"warning":4064,"Ġdefer":4065,"bed":4066,"fname":4067,"dat":4068,"Ġproxy":4069,"Read":4070,"chine":4071,"GL":4072,"global":4073,"ories":4074,"mpy":4075,"deploy":4076,"Default":4077,"iver":4078,"Ġpipe":4079,"dire":4080,"Exec":4081,"Ġuri":4082,"Ġendpoint":4083,"reference":4084,"control":4085,"mpt":4086,"Failed":4087,"Ġboth":4088,"complete":4089,"lazy":4090,"Ġplot":4091,"registry":4092,"ustome":4093,"Ġfilters":4094,"upload":4095,"Ġtuples":4096,"Http":4097,"########################################################################":4098,"Ġsim":4099,"ence":4100,"Ġshutil":4101,"Ġmapping":4102,"virt":4103,"lint":4104,"ORS":4105,"Ġtemplates":4106,"Thread":4107,"ANG":4108,"arge":4109,"Ġrv":4110,"choices":4111,"AUTH":4112,"requests":4113,"translation":4114,"Ġvia":4115,"ynamic":4116,"Ġkw":4117,"transport":4118,"ĠHttpResponse":4119,"Ġway":4120,"Ġio":4121,"dispatch":4122,"Ġstderr":4123,"(\"/":4124,"ĠĠĠĠĠĠĠĠĠĠĠĠĠĠĠĠĠĠĠĠĠĠĠĠĠĠĠĠĠĠĠĠĠĠĠĠĠĠĠ":4125,"history":4126,"Ġstorage":4127,"iteritems":4128,"Layer":4129,"after":4130,"Ġcategory":4131,"middleware":4132,"Ġidx":4133,"blem":4134,"ternet":4135,"FORM":4136,"Ġrows":4137,"Ġside":4138,"TING":4139,"Ġheight":4140,"velop":4141,"rr":4142,"Mo":4143,"}}":4144,"yaml":4145,"Ġword":4146,"istration":4147,"DU":4148,"Fail":4149,"topic":4150,"rb":4151,"Ġprimary":4152,"tition":4153,"Ġeval":4154,"inf":4155,"Ġwrapper":4156,"services":4157,"cd":4158,"ga":4159,"Ġwould":4160,"Ġrep":4161,"hape":4162,"hs":4163,"Ġig":4164,"Ġbuiltin":4165,"Ġsuite":4166,"ier":4167,"fact":4168,"uted":4169,"Ġalpha":4170,"__\":":4171,"istered":4172,"timeError":4173,"wik":4174,"Ġfeature":4175,"Len":4176,"sock":4177,"coun":4178,"Start":4179,"copyright":4180,"ctype":4181,"Meta":4182,"ĠLOG":4183,"Ġbinary":4184,"Search":4185,"CS":4186,"Cl":4187,"ĠSimple":4188,"Ġcould":4189,"ĠDo":4190,"Ġ[],":4191,"Ġ_('":4192,"Storage":4193,"Be":4194,"Ġcontrol":4195,"ural":4196,"MIN":4197,"Ġ_(\"":4198,"TypeError":4199,"usage":4200,"handlers":4201,"cel":4202,"learn":4203,"aries":4204,"isten":4205,"Ġsig":4206,"Ġexit":4207,"Ġ%}":4208,"Ġbuffer":4209,">\\":4210,"interval":4211,"123":4212,"ĠAND":4213,"ĠĠĠĠĠĠĠĠĠĠĠĠĠĠĠĠĠĠĠĠĠĠĠĠĠĠĠĠĠĠĠĠĠĠĠĠĠĠ":4214,"uce":4215,"unct":4216,"Ġrequire":4217,"CONF":4218,"ffic":4219,"Ġ((":4220,"Ġ\"<":4221,"Ġneeds":4222,"Python":4223,"cu":4224,"Ġconver":4225,"Ġusage":4226,"tical":4227,"Ġmissing":4228,"runner":4229,"tives":4230,"Ġtool":4231,"Ġuses":4232,"Ġedit":4233,"weight":4234,"arted":4235,"branch":4236,"PY":4237,"ĠĠĠĠĠĠĠĠĠĠĠĠĠĠĠĠĠĠĠĠĠĠĠĠĠĠĠĠĠĠĠĠĠĠĠĠĠ":4238,"Argument":4239,"esca":4240,"suffix":4241,"PAR":4242,"Ġpatterns":4243,"66":4244,"Ġlookup":4245,"Ġlabels":4246,"Entry":4247,"}\".":4248,"super":4249,"ĠUp":4250,"Proxy":4251,"ia":4252,"Ġcompile":4253,"unds":4254,"servers":4255,"Ġrepr":4256,"Ġrelease":4257,"edge":4258,"Ġappend":4259,"warn":4260,"Ġopts":4261,"Ġ--------------------------------":4262,"Ġcalls":4263,"hostname":4264,"transform":4265,"Ġetc":4266,"Ġallowed":4267,"ĠClient":4268,"note":4269,"serialize":4270,"Ġren":4271,"Ġkeyword":4272,"Ġcompute":4273,"memory":4274,"Ġtrack":4275,"utc":4276,"Ġviews":4277,"ks":4278,"gregate":4279,"Ġelements":4280,"ĠEvent":4281,"Ġadditional":4282,"basename":4283,"')(":4284,"ĠBy":4285,"Ġlisten":4286,"REQU":4287,"Ġ])":4288,"Network":4289,"Ġreactor":4290,"support":4291,"Ġtraceback":4292,"prot":4293,"Ġplatform":4294,"ĠSh":4295,"Pack":4296,"Ġexpression":4297,"available":4298,"exclude":4299,"ECT":4300,"ditions":4301,"Ġregion":4302,"Ġext":4303,"ĠReserved":4304,"month":4305,"Ġextensions":4306,"ustomer":4307,"roll":4308,"Ġmat":4309,"Ġ{})":4310,"na":4311,"Ġscope":4312,"75":4313,"Ġpublic":4314,"lip":4315,"Exten":4316,"ERS":4317,"rules":4318,"cimal":4319,"icro":4320,"PRE":4321,"eeded":4322,"Ġabove":4323,"Ġindic":4324,"ools":4325,"png":4326,"Ġowner":4327,"Port":4328,"Application":4329,"__.__":4330,"identity":4331,"()]":4332,"Change":4333,"Ġcalc":4334,"unique":4335,"Ġwithin":4336,"byte":4337,"Ġprevious":4338,"Of":4339,"Ġsuffix":4340,"dash":4341,"lack":4342,"eries":4343,"LS":4344,"Ġalways":4345,"uplic":4346,"ĠIO":4347,"menu":4348,"ites":4349,"Ġotherwise":4350,"Ġtr":4351,"Link":4352,"where":4353,"------":4354,"missing":4355,"ftime":4356,"yper":4357,"Ġperform":4358,"ĠLa":4359,"Ġbind":4360,"ĠtearDown":4361,"UD":4362,"READ":4363,"Ġkind":4364,"Ġ11":4365,"LECT":4366,"today":4367,"done":4368,"cii":4369,"perly":4370,"Ġfolder":4371,"second":4372,"mapping":4373,"STAT":4374,"click":4375,"Bar":4376,"flag":4377,"You":4378,"prop":4379,"ĠWindow":4380,"FIG":4381,"ĠRights":4382,"Ġprogram":4383,"private":4384,"anization":4385,"ĠST":4386,"']),":4387,"edirect":4388,"Loader":4389,"Store":4390,"Ġhead":4391,"two":4392,"velopment":4393,"mox":4394,"updated":4395,"Ġbranch":4396,"metric":4397,"meth":4398,"pair":4399,"Schema":4400,"Ġshown":4401,"36":4402,"resolver":4403,"Te":4404,"question":4405,"mbed":4406,"Ġqueryset":4407,"attach":4408,"feed":4409,"HER":4410,"Ġpublish":4411,"ĠIndex":4412,"Ġsubject":4413,"az":4414,"mag":4415,"Ġspecify":4416,"']))":4417,"components":4418,"plan":4419,"Ġenti":4420,"ACE":4421,"upper":4422,"PUT":4423,"Account":4424,"ones":4425,"Load":4426,"requires":4427,"MET":4428,"Ġflag":4429,"push":4430,"stub":4431,"Exist":4432,"worker":4433,"Ag":4434,"derer":4435,"alk":4436,"HOST":4437,"Ġcop":4438,"``,":4439,"Ġsq":4440,"Ġ15":4441,"Ġpickle":4442,"cover":4443,"poch":4444,"baz":4445,"Ġdesc":4446,"40":4447,"amily":4448,"elements":4449,"cm":4450,"appen":4451,"ĠWhen":4452,"Cur":4453,"wsgi":4454,"Ġsepar":4455,"Ġreceived":4456,"Ġimg":4457,"INT":4458,"Ġpoints":4459,"ĠAuthor":4460,"tten":4461,"Ġdone":4462,"backends":4463,"Ġcannot":4464,"SA":4465,"ĠObject":4466,"vas":4467,"ĠLog":4468,"ssh":4469,"reshold":4470,"Owner":4471,"uting":4472,"Ġitera":4473,"distribu":4474,"gt":4475,"assertNot":4476,"ons":4477,"Ġhelper":4478,"Ġsqlalchemy":4479,"BO":4480,"dependent":4481,"xtra":4482,"tt":4483,"calls":4484,"rence":4485,"gramm":4486,"before":4487,"Ren":4488,"seed":4489,"leg":4490,"lash":4491,"Ġtokens":4492,"Ġactive":4493,"Ġpop":4494,"Ġensure":4495,"Ġ32":4496,"Array":4497,"atible":4498,"Host":4499,"ĠTemplate":4500,"Ġissue":4501,"Ġshell":4502,"Ġclear":4503,"omment":4504,"Color":4505,"quested":4506,"button":4507,"Ġbot":4508,"Ġsympy":4509,"MENT":4510,"issue":4511,"quote":4512,"Cannot":4513,"Ġexpi":4514,"ders":4515,"Ġrequires":4516,"Ġraised":4517,"ational":4518,"sync":4519,"roy":4520,")*":4521,"ĠTra":4522,"activ":4523,"Ġfp":4524,"Gui":4525,"writer":4526,"ĠText":4527,"Box":4528,"Ġassociated":4529,"Ġ\"--":4530,"Dir":4531,"Ġsouth":4532,"SSL":4533,"ĠDis":4534,"blob":4535,"spe":4536,"Ġexpr":4537,"Ġignored":4538,"77":4539,"instances":4540,"Ġfont":4541,"glob":4542,"Ġimages":4543,"Flag":4544,"free":4545,"ring":4546,"Ġmp":4547,"tice":4548,"Ġaddresses":4549,"ĠError":4550,"Ġpackages":4551,"cut":4552,"crement":4553,":`~":4554,"GR":4555,"LL":4556,"ĠForm":4557,"endswith":4558,"LED":4559,"Does":4560,"ops":4561,"Ġwin":4562,"ĠLoc":4563,"named":4564,"><":4565,"Ġreset":4566,"slice":4567,"Ġmatches":4568,"INFO":4569,"shell":4570,"convert":4571,"appengine":4572,"hosts":4573,"Ġoperator":4574,"holder":4575,"itter":4576,"cos":4577,"cached":4578,"DateTime":4579,"assword":4580,"('--":4581,"pted":4582,"ĠVer":4583,"states":4584,"Ġneeded":4585,"Ġoc":4586,"ceive":4587,"JSON":4588,"fill":4589,"ĠGeneral":4590,"HT":4591,"flat":4592,"Ġcorrespon":4593,"cesses":4594,"Buffer":4595,"raft":4596,"Ġmean":4597,"kit":4598,"Ġmask":4599,"exist":4600,"Ġstandard":4601,"Ġindent":4602,"Ġeven":4603,"Qt":4604,"orary":4605,"pending":4606,"Ġbuilder":4607,"2015":4608,"ILITY":4609,"feature":4610,"escape":4611,"bstract":4612,"Ġlet":4613,".%":4614,"added":4615,"download":4616,"gb":4617,"alpha":4618,"Ġ'*":4619,"Ġterms":4620,"_.":4621,"(\\":4622,"Ġ1000":4623,"THER":4624,"font":4625,"ĠDate":4626,"ĠInvalid":4627,"Ġinstalled":4628,"SL":4629,"21":4630,"Cre":4631,"effect":4632,"Ġ\"-":4633,"term":4634,"enchmark":4635,"CONT":4636,"times":4637,"ĠTrans":4638,"ĠPRO":4639,"mem":4640,")).":4641,"relation":4642,"Ġorm":4643,"/')":4644,"ĠPO":4645,"layout":4646,"ifest":4647,"supported":4648,"Ġmaster":4649,"izers":4650,":\\":4651,"pto":4652,"Ġ>>":4653,"pkg":4654,"ornado":4655,"mat":4656,"Ġ30":4657,"Ġput":4658,"single":4659,"Ġpolicy":4660,"ĠBe":4661,"Ġoverride":4662,"arn":4663,"(%":4664,"Simple":4665,"br":4666,"unic":4667,"using":4668,"bound":4669,"()):":4670,"arguments":4671,"bl":4672,"Ġmany":4673,"Ġspa":4674,"Ġpd":4675,"New":4676,"lueprint":4677,"apply":4678,"Dec":4679,"indent":4680,"andas":4681,"inline":4682,"days":4683,".',":4684,"FL":4685,"moves":4686,"Warning":4687,"ars":4688,"Ġnote":4689,"Ġcopyright":4690,"Met":4691,"ae":4692,"ressed":4693,"configuration":4694,"/{":4695,"voke":4696,"Ġmigrations":4697,"rong":4698,"Ġoperations":4699,"getattr":4700,"Ġcredentials":4701,"Ġhand":4702,"override":4703,"Ġsetattr":4704,"Controller":4705,"disk":4706,"setdefault":4707,"modified":4708,"Ġinterval":4709,"ĠFROM":4710,"Ġmenu":4711,"counter":4712,"switch":4713,"ane":4714,"Ġchildren":4715,"Ġbyte":4716,"trace":4717,"Ġtransaction":4718,"dirs":4719,"Delete":4720,"Ġupload":4721,"FIX":4722,"Args":4723,"panel":4724,"permissions":4725,"unknown":4726,"WORD":4727,"Ref":4728,"....":4729,"drop":4730,"Ġcontrib":4731,"Ġ2012":4732,"rst":4733,"DataCache":4734,"Ġurlparse":4735,"DATA":4736,"Ġslug":4737,",))":4738,"inja":4739,"ascii":4740,"subject":4741,"cert":4742,"bal":4743,"gpu":4744,"dummy":4745,"Ġequal":4746,"correct":4747,"alle":4748,"Match":4749,"Ġonce":4750,"defined":4751,"Ġdirectly":4752,"Ġfetch":4753,"Ġcomplete":4754,"relative":4755,"Profile":4756,"scal":4757,"almost":4758,"Top":4759,"ending":4760,"Spec":4761,"Ġap":4762,"Ġsci":4763,"sorted":4764,"My":4765,"Document":4766,"rove":4767,"Ġremoved":4768,"Multi":4769,"Ġcell":4770,"Ġstatement":4771,"Ġfinal":4772,"Ġmanage":4773,"Ġlayer":4774,"USE":4775,"Ġbuf":4776,"consumer":4777,"Ġgot":4778,"Ġ------------------------------------------------------------------------":4779,"Ġflow":4780,"ĠLanguage":4781,",'":4782,"CC":4783,"Ġnose":4784,"Ġbucket":4785,"Ġaccept":4786,"ĠTw":4787,"Ġbad":4788,"ANT":4789,"Ġ\",":4790,"cessed":4791,"cookie":4792,".)":4793,"tificate":4794,"Ġpe":4795,"zero":4796,"OFT":4797,"Ge":4798,"Ġmost":4799,"Ġdeploy":4800,"ĠTests":4801,"ĠReg":4802,"Level":4803,"ness":4804,"compat":4805,"Build":4806,"calc":4807,"35":4808,"06":4809,"Ġpylint":4810,"ulation":4811,"failure":4812,"router":4813,"Ġchoices":4814,"(\"\"\"":4815,"digest":4816,"Ġgroups":4817,"ĠSystem":4818,"isinstance":4819,"Panel":4820,"ĠSta":4821,"Ġchanged":4822,"Ġinternal":4823,"ĠAc":4824,"tokens":4825,"sertion":4826,"gl":4827,"Ġ))":4828,"Ġfeatures":4829,"lap":4830,"NotExist":4831,"library":4832,"Ġdimen":4833,"Suite":4834,"Listen":4835,"Runner":4836,"[:-":4837,"StringIO":4838,"UID":4839,"CONFIG":4840,"Ġdetermin":4841,"Ġworks":4842,"Ġbehavi":4843,"Ġapply":4844,"arm":4845,"chron":4846,"perm":4847,"reduce":4848,"Ġexternal":4849,"Ġ</":4850,"Rel":4851,"MPLATE":4852,"bb":4853,"rev":4854,"ony":4855,"Ġbit":4856,"Variable":4857,"cription":4858,"Ġdependencies":4859,"Post":4860,"choice":4861,"defer":4862,"Ġ-------":4863,"Ġraises":4864,"Ġprovides":4865,"Ġdecode":4866,"ĠThey":4867,"cf":4868,"tyle":4869,"Ġsubclass":4870,"scheme":4871,"nn":4872,"reader":4873,"Ġ\"{":4874,"Ġstat":4875,"Ġbasic":4876,"Ġstored":4877,"proc":4878,"stone":4879,"sd":4880,"revision":4881,"just":4882,"Ġworld":4883,"Ġsetuptools":4884,"1000":4885,"Foo":4886,"127":4887,"iod":4888,"sep":4889,"aris":4890,"kind":4891,"Ġargparse":4892,"eek":4893,"Pool":4894,"Ġfree":4895,"Pri":4896,"Ġconsi":4897,"37":4898,"gg":4899,"ĠField":4900,"Ġinspect":4901,"DoesNotExist":4902,"BASE":4903,"')]":4904,"builder":4905,"Ġidenti":4906,"OFTWARE":4907,"abi":4908,"deredDict":4909,"Sy":4910,"../":4911,"Ġpkg":4912,"JECT":4913,"methods":4914,"Ġ{},":4915,"contains":4916,"\"}":4917,"Boolean":4918,"Block":4919,"Range":4920,"Buil":4921,"LEN":4922,"internet":4923,"Ġcases":4924,"PT":4925,"Ġuntil":4926,"istri":4927,"ario":4928,"specific":4929,"ĠOut":4930,"ĠXML":4931,"Ġinv":4932,"ĠResource":4933,"ough":4934,"Target":4935,"clar":4936,"ĠWindows":4937,"team":4938,"visit":4939,"uses":4940,"Backend":4941,"rv":4942,"Ġscale":4943,"Bad":4944,"Ġown":4945,"ords":4946,"ĠFound":4947,"ater":4948,"scen":4949,"Ġchain":4950,"ernel":4951,"queryset":4952,"retry":4953,"Ġhook":4954,"ĠContent":4955,"unctools":4956,"ublic":4957,"found":4958,"Redirect":4959,"tio":4960,"Ġselected":4961,"Failure":4962,"umeric":4963,"Select":4964,"Ġtasks":4965,"environment":4966,"Struct":4967,"ĠRuntimeError":4968,"cwd":4969,"ixel":4970,"priate":4971,"when":4972,"builtin":4973,"Writer":4974,"zz":4975,"td":4976,"ĠResponse":4977,"iti":4978,"Interface":4979,"Ġcomb":4980,"strap":4981,"Ġfd":4982,"DR":4983,"Ġdecorator":4984,"watch":4985,"inel":4986,"Ġreview":4987,"Author":4988,"Ġugettext":4989,"ĠElement":4990,"ĠMessage":4991,"Component":4992,"Ġdirectories":4993,"Ġfig":4994,"ĠClo":4995,"review":4996,"Ġrepository":4997,"MODE":4998,"delay":4999,"]*":5000,"WN":5001,"Ġmemory":5002,"ara":5003,"Ġstd":5004,":'":5005,"Ġbuilt":5006,"Ġincluded":5007,"nova":5008,"TRI":5009,"ĠProject":5010,"nan":5011,"lendar":5012,"Ġregex":5013,"ited":5014,"teration":5015,"Ġtab":5016,"comments":5017,"256":5018,"Comm":5019,"ABILITY":5020,"plotlib":5021,"setting":5022,"Ġengine":5023,"ĠBo":5024,"Ġfeed":5025,"ĠĠĠĠĠĠĠĠĠĠĠĠĠĠĠĠĠĠĠĠĠĠĠĠĠĠĠĠĠĠĠĠĠĠĠĠĠĠĠĠ":5026,"Wrapper":5027,"norm":5028,"aut":5029,")/":5030,"versions":5031,"expect":5032,"NOT":5033,"ĠMigration":5034,"Mode":5035,"schedule":5036,"ards":5037,"HTML":5038,"Ġseq":5039,"Sign":5040,"ĠDB":5041,"crypt":5042,"'\"":5043,"26":5044,"tty":5045,"Ġ_,":5046,"Ġentries":5047,"LETE":5048,"Ġoauth":5049,"Ġmd":5050,"Ġworker":5051,"Ġattemp":5052,"matically":5053,"]])":5054,"getitem":5055,"29":5056,"power":5057,"Ġshared":5058,"Ġrelation":5059,"acy":5060,"Ġgl":5061,"ĠHe":5062,"fp":5063,"running":5064,"wrapper":5065,"Parse":5066,"Hello":5067,"amo":5068,"Ġqs":5069,"Length":5070,"COL":5071,"ĠInitial":5072,"qa":5073,"Ġappropriate":5074,"ORY":5075,"optional":5076,"console":5077,"Ġ60":5078,"OM":5079,"Ġ(%":5080,"processor":5081,"generator":5082,"ĠMo":5083,"Ġinte":5084,"Ġtoo":5085,"ĠInt":5086,"ula":5087,"redis":5088,"ULL":5089,"Ġdatastore":5090,"authentic":5091,"ocker":5092,"factor":5093,"Ġprovider":5094,"failUnless":5095,"URE":5096,"Ġprovide":5097,"istribu":5098,"Ġ##":5099,"integer":5100,"Ġwere":5101,"Ġ,":5102,"Ġdst":5103,"Ġbutton":5104,"cessary":5105,"pher":5106,"ctive":5107,"ullable":5108,"details":5109,"refresh":5110,"metrics":5111,"ĠĠĠĠĠĠĠĠĠĠĠĠĠĠĠĠĠĠĠĠĠĠĠĠĠĠĠĠĠĠĠĠĠĠĠĠĠĠĠĠĠ":5112,"figs":5113,"Ġtables":5114,"ysql":5115,"ynchron":5116,"ĠDummy":5117,"zen":5118,"ĠSOFTWARE":5119,"Label":5120,"identifier":5121,"ĠUpdate":5122,"ope":5123,"arr":5124,"ĠServer":5125,"Ġ-=":5126,"Many":5127,"HERE":5128,"warnings":5129,"Ġappen":5130,"Ġflat":5131,"cpu":5132,"/$',":5133,"ird":5134,"stant":5135,"lations":5136,"Button":5137,"Ġtimedelta":5138,"Ġts":5139,"([\"":5140,"]).":5141,"pient":5142,"Ġtimes":5143,"Ġalias":5144,"Ġidentifier":5145,"Ġ[[":5146,"ACT":5147,"Collection":5148,"Driver":5149,"':'":5150,"ĠCustom":5151,"TEMPLATE":5152,"84":5153,"Ġfailure":5154,"27":5155,"management":5156,"gramming":5157,"Helper":5158,"ĠFake":5159,"validation":5160,"Ġenable":5161,"player":5162,"divid":5163,"ĠĠĠĠĠĠĠĠĠĠĠĠĠĠĠĠĠĠĠĠĠĠĠĠĠĠĠĠĠĠĠĠĠĠĠĠĠĠĠĠĠĠĠ":5164,"absolute":5165,"Lib":5166,"Ġuseful":5167,"AME":5168,"editor":5169,"Project":5170,"inder":5171,"lent":5172,"Ġgenerator":5173,"DATE":5174,"Ġmail":5175,"IntegerField":5176,"NING":5177,"ĠTe":5178,"_%":5179,"Header":5180,"ube":5181,"Settings":5182,"Ġscipy":5183,"Ġvector":5184,"STATUS":5185,"Access":5186,"internal":5187,".\\":5188,"Core":5189,"asure":5190,"Ġrunner":5191,"assertIsInstance":5192,"helpers":5193,"\"'":5194,"Provider":5195,"INTER":5196,"Ġsafe":5197,"gres":5198,"',)":5199,"Ġoccur":5200,"expand":5201,"statement":5202,"ava":5203,"outer":5204,"VENT":5205,"Ġbound":5206,"mitted":5207,"lots":5208,"===":5209,"Ġeditor":5210,"vec":5211,"game":5212,"Ġresources":5213,"_)":5214,"tangible":5215,"requen":5216,"ĠTangible":5217,"ĠMagicMock":5218,"abstract":5219,"beta":5220,"Ġdownload":5221,"Mapp":5222,"Ġdat":5223,"Param":5224,"Ġvisit":5225,"Ġversions":5226,"'%":5227,"riend":5228,"Ġitertools":5229,"Api":5230,"FORMAT":5231,"utors":5232,"ev":5233,"cision":5234,"Ġ//":5235,"wx":5236,"Ġincluding":5237,"ked":5238,"ines":5239,"allclose":5240,"cipient":5241,"transaction":5242,"Ġ50":5243,"NUM":5244,"SELECT":5245,"cording":5246,"Ġyaml":5247,"original":5248,"(\"\\":5249,"ĠVi":5250,"uest":5251,"Ġmodify":5252,"Ġok":5253,"paper":5254,"creen":5255,"openstack":5256,"orator":5257,"async":5258,"hn":5259,"mu":5260,"andid":5261,"manual":5262,"Ġinsert":5263,"dst":5264,"external":5265,"Ġenviron":5266,"ĠBuild":5267,"39":5268,"ire":5269,"Ġsc":5270,"uni":5271,"ality":5272,"Ġrepresentation":5273,"firm":5274,"Can":5275,"Ġarch":5276,"Exp":5277,"Ġextract":5278,"='',":5279,"Ġneutron":5280,"></":5281,"Ġdistribution":5282,"DES":5283,"ffect":5284,"ulk":5285,"Job":5286,"configure":5287,"subprocess":5288,"cores":5289,"framework":5290,"=-":5291,"generic":5292,"ever":5293,")',":5294,"Ġnoqa":5295,"uint":5296,"ka":5297,"snapshot":5298,"2014":5299,"raps":5300,"Ġsources":5301,"documents":5302,"mq":5303,"cred":5304,"Ġest":5305,"come":5306,"Ġwell":5307,"inc":5308,"inputs":5309,"Encoder":5310,"ĠDec":5311,"credentials":5312,"Ġspecial":5313,"Var":5314,")(":5315,"/\"":5316,"Auto":5317,"Ġbegin":5318,"Ġmeans":5319,"Ġsecret":5320,"bits":5321,"dr":5322,"ĠThere":5323,"MAP":5324,"Record":5325,"Ġoptim":5326,"Ġlayout":5327,"ĠMIT":5328,"CTION":5329,"ĠRo":5330,"08":5331,"draw":5332,"Ġrules":5333,"dividual":5334,"Work":5335,"workflow":5336,"Ġnumbers":5337,"ĠQuery":5338,"high":5339,"Ġboolean":5340,"ilar":5341,"fies":5342,"Ġloaded":5343,"lert":5344,"fficient":5345,"blank":5346,"Ġaddr":5347,"sender":5348,"Ġsock":5349,"ĠWork":5350,"locale":5351,"members":5352,"ĠTask":5353,"hq":5354,"reason":5355,"('_":5356,"repository":5357,"Ġcy":5358,"Ġtransform":5359,"sistent":5360,"Ġagent":5361,"sn":5362,"wer":5363,"Ġimports":5364,"ategy":5365,"////":5366,">\"":5367,"vals":5368,"Ġ42":5369,"deleted":5370,"tifact":5371,"Control":5372,"plain":5373,"Ġfit":5374,"okies":5375,"Ġknow":5376,"ĠRed":5377,"LOW":5378,"hour":5379,"icon":5380,"Ġsets":5381,"constants":5382,"sim":5383,"summary":5384,"asy":5385,"PR":5386,"Ġsender":5387,"ĠDEFAULT":5388,"Ġassign":5389,"Ġduring":5390,"extract":5391,"Ġmetric":5392,"Ġvarious":5393,"utation":5394,"COMM":5395,"]):":5396,"inger":5397,"otes":5398,"sequence":5399,"sian":5400,"Ġscen":5401,"closed":5402,"ĠNumber":5403,"Sup":5404,"Ġdump":5405,"projects":5406,"center":5407,"veloper":5408,"iso":5409,"avi":5410,"period":5411,"lang":5412,"28":5413,"ĠTable":5414,"(('":5415,"peat":5416,"Ġstill":5417,"merge":5418,"oll":5419,"rup":5420,"Ġconditions":5421,"dns":5422,"SM":5423,"Ġtermin":5424,"REQUEST":5425,"INST":5426,"Ġclassi":5427,"Ġ2011":5428,"Ġbox":5429,"TeX":5430,"Ġserializer":5431,"final":5432,"rift":5433,"Ġur":5434,"ĠĠĊ":5435,"Ġbelow":5436,"Ġchart":5437,"gmail":5438,"primary":5439,"]+)":5440,"ĠLI":5441,"Ġhttplib":5442,"Ġpixel":5443,"rays":5444,"mbols":5445,"Ġzero":5446,"Ġproto":5447,"Ġcurrently":5448,"Sp":5449,"scape":5450,"atibility":5451,"angle":5452,"flavor":5453,"Ġfuture":5454,"HEAD":5455,"ART":5456,"Ġcached":5457,"boo":5458,"ipping":5459,"Ġiterable":5460,"\\'":5461,"uman":5462,"DED":5463,"fixtures":5464,"ĠIOError":5465,"Op":5466,"Ġloader":5467,"Cho":5468,"Sec":5469,"RECT":5470,"Ġthose":5471,"Formatter":5472,"arison":5473,"operator":5474,".\",":5475,"Ġslice":5476,"ĠMan":5477,"failed":5478,"PIPE":5479,"So":5480,"([[":5481,"layers":5482,"]+":5483,"Ġ).":5484,"Ġyet":5485,"Ġauthentication":5486,"199":5487,"export":5488,"ĠRead":5489,"Ġsomething":5490,"Ġmerge":5491,"Initial":5492,"scriptor":5493,"edges":5494,"grade":5495,"Ġdisk":5496,"ategories":5497,"soft":5498,"vance":5499,"Ġdeleted":5500,"Parameter":5501,"allback":5502,"Device":5503,"Ġdispatch":5504,"rm":5505,"ModelAdmin":5506,"DER":5507,"connected":5508,"[:]":5509,"adding":5510,"Ġalgorithm":5511,"qs":5512,"roid":5513,"Created":5514,"Ġsublime":5515,"dapter":5516,"ĠFlask":5517,"ĠInteger":5518,"Ġcloud":5519,"Ġinputs":5520,"Ġast":5521,"pture":5522,"sqrt":5523,"BUT":5524,"machine":5525,"ĠPost":5526,"ĠThese":5527,"Ġactions":5528,"uation":5529,"IF":5530,"Ġgrid":5531,"changes":5532,"__),":5533,"ceiver":5534,"such":5535,"Ġ------------------------------------------------":5536,"Doc":5537,"Ġcharacters":5538,"Ġdot":5539,"00000000":5540,"CRET":5541,"sid":5542,"Ġdeprecated":5543,"Ġsupp":5544,"ank":5545,"Ġnotice":5546,"Jo":5547,"Ġ[('":5548,"vector":5549,"Ġfname":5550,"siz":5551,"processing":5552,"Transport":5553,"rp":5554,"condition":5555,"Password":5556,"udio":5557,"ĠPre":5558,"Ġmedia":5559,"fully":5560,"ĠWeb":5561,"MAIL":5562,"getvalue":5563,"Ġdelta":5564,"ĠLaTeX":5565,"tect":5566,"multiple":5567,"Ġcorresponding":5568,"spi":5569,"etc":5570,"Builder":5571,"Ġ['_":5572,"poly":5573,"bob":5574,"enable":5575,"Ġperson":5576,"rappe":5577,"45":5578,"Ġtopic":5579,"MD":5580,"Ġ13":5581,"Ġvalidation":5582,"Container":5583,"ified":5584,"lon":5585,"DIS":5586,"span":5587,"Uti":5588,"Ġexclude":5589,"Ġconstants":5590,"Copyright":5591,"Layout":5592,"herit":5593,"Ġvm":5594,"mas":5595,">',":5596,"pet":5597,"PES":5598,"formed":5599,"sparse":5600,"uplicate":5601,"Ġtakes":5602,"em":5603,"Ġorg":5604,"Ġoslo":5605,"colors":5606,"Ġzone":5607,"gative":5608,"Ġpartic":5609,"07":5610,"Ġautomatically":5611,"ĠOrderedDict":5612,"Ġmaximum":5613,"Ġhashlib":5614,"pn":5615,"('/')":5616,"texinfo":5617,"Ġagainst":5618,"Location":5619,"Fake":5620,"Ġstructure":5621,"Ġfix":5622,"OPY":5623,"}'":5624,"lists":5625,"Deferred":5626,"Ġrepresenting":5627,"leting":5628,"Ġscheduler":5629,"ĠService":5630,"decorators":5631,"ĠCOPY":5632,"Cal":5633,"Ġconstraint":5634,"complex":5635,"Ġus":5636,"mediate":5637,"ĠOutput":5638,"cv":5639,"selected":5640,"sired":5641,"ĠConnection":5642,"amount":5643,"Ġfunctools":5644,"logs":5645,"MIT":5646,"Ġwords":5647,"ĠExamples":5648,"Exit":5649,"many":5650,"Feed":5651,"Ġ?":5652,"alg":5653,"Received":5654,"FIL":5655,"road":5656,"uate":5657,"contact":5658,"wiki":5659,"rozen":5660,"Ġ')":5661,"ĠCode":5662,"mapper":5663,"ĠCre":5664,"Ġdocs":5665,"Ġscore":5666,"izes":5667,"recv":5668,"ĠNe":5669,"targets":5670,"BACK":5671,"Ġdefinition":5672,"strings":5673,"AA":5674,"arange":5675,"timer":5676,"Ġcounter":5677,"ICE":5678,"ĠCa":5679,"ĠOther":5680,"Ġlocale":5681,"hone":5682,"Ġbehavior":5683,"Ġicon":5684,"Ġblob":5685,"Ġmatching":5686,"sym":5687,"Ġsecurity":5688,"Ġenabled":5689,"Ġdestination":5690,"Ġsym":5691,"Ġdistutils":5692,"gits":5693,"enu":5694,"Policy":5695,"Ġcv":5696,"__))":5697,"Ġallows":5698,"inary":5699,"roles":5700,"Ġnecessary":5701,"Ġrequested":5702,"Ġids":5703,"__(*":5704,"Ġindependent":5705,"gration":5706,"Ġpandas":5707,"quick":5708,"orizon":5709,"atom":5710,"ARY":5711,"resolve":5712,"world":5713,"Script":5714,"tend":5715,"Ġcsv":5716,"Ġfill":5717,"pipeline":5718,"Programming":5719,"ĠĠĠĠĠĠĠĠĠĠĠĠĠĠĠĠĠĠĠĠĠĠĠĠĠĠĠĠĠĠĠĠĠĠĠĠĠĠĠĠĠĠ":5720,"Ġtran":5721,"chart":5722,"tries":5723,"ducer":5724,"depth":5725,"{{":5726,"Ġ14":5727,"Ġfilenames":5728,"Ġleast":5729,"59":5730,"utdown":5731,"Ġ[-":5732,"Listener":5733,"Temp":5734,"Ġdefine":5735,"Ġdescri":5736,"cipe":5737,"Ġlower":5738,"Ġdummy":5739,"ips":5740,"Reader":5741,"wall":5742,"Ġseries":5743,"ĠAS":5744,"Ġlater":5745,":-":5746,"oid":5747,"wri":5748,"timezone":5749,"ptr":5750,"76":5751,"31":5752,"irc":5753,"Extension":5754,"pred":5755,"fun":5756,"Ġmove":5757,"Handle":5758,"Ġpush":5759,"Ġrecur":5760,"duration":5761,"more":5762,")],":5763,"parameter":5764,"APP":5765,"mble":5766,"analy":5767,"ota":5768,"astype":5769,"Ġtoday":5770,"500":5771,"asset":5772,"Ġisn":5773,"Ġmatplotlib":5774,"Ġdraw":5775,"ĠXXX":5776,"Ġimplemented":5777,"rive":5778,"Mon":5779,"parsed":5780,"mous":5781,"person":5782,"Ġpypy":5783,"letter":5784,"Ġrendered":5785,"allowed":5786,"tick":5787,"Ġscheme":5788,"dashboard":5789,"ĠLoad":5790,"teractive":5791,"MES":5792,"jor":5793,"ĠNetwork":5794,"assign":5795,"bosity":5796,"MAIN":5797,"Ġedge":5798,"Style":5799,"Ġindividual":5800,"cancel":5801,"SECRET":5802,"ĠDocumentation":5803,"cost":5804,"Ġbits":5805,"ĠView":5806,"=\"\"":5807,"Ġlists":5808,"Ġpid":5809,"epcopy":5810,"Ġmaps":5811,"subnet":5812,"ĠFa":5813,"OUR":5814,"ĠFoundation":5815,"Rule":5816,"Web":5817,"Ġorigin":5818,"Email":5819,"rency":5820,"Ġprev":5821,"steps":5822,"Ġprop":5823,"addCallback":5824,"ragment":5825,"lies":5826,"fixed":5827,"Database":5828,"execution":5829,"Ġmight":5830,"ically":5831,"backup":5832,"counts":5833,"cce":5834,"expression":5835,"############################################################################":5836,"vely":5837,"GB":5838,"Ġimplements":5839,"sqlite":5840,"Ġrel":5841,"codes":5842,"Flow":5843,"Ġwrapped":5844,"Ġbest":5845,"structure":5846,"400":5847,"Lock":5848,"nail":5849,"Ġavoid":5850,"Ġamount":5851,"Ġsignature":5852,"Ġ'#":5853,"Ġcontroller":5854,"elem":5855,"Ġexecution":5856,"scripts":5857,"2013":5858,"ĠWS":5859,"SERVER":5860,"aste":5861,"tended":5862,"2016":5863,"Ġassume":5864,"Import":5865,"Ġpr":5866,"Ġdecimal":5867,"constraint":5868,"Ġconsole":5869,"PASS":5870,"ialog":5871,"Ġperiod":5872,"Ġprivate":5873,"etri":5874,"Ġtimezone":5875,"Ġmem":5876,"amera":5877,"Ġwarning":5878,"Ġlin":5879,"GER":5880,"__['":5881,"Ġday":5882,"FIEL":5883,"Ġcomponents":5884,"pus":5885,"Ġnullable":5886,"Ġregistered":5887,"Ġlow":5888,"ĠCO":5889,"accept":5890,"Ġcalling":5891,"listener":5892,"EW":5893,"ĠModule":5894,"Ġyear":5895,"begin":5896,"Ġexplicit":5897,"ĠLine":5898,"Ġpi":5899,"live":5900,"without":5901,"SIG":5902,"AX":5903,"radi":5904,"dicate":5905,"90":5906,"Generate":5907,"Ġcookie":5908,"Ġrevision":5909,"Ġ25":5910,"ĠGe":5911,"_):":5912,"reactor":5913,"Ġexact":5914,"Ġmetrics":5915,"ĠSy":5916,"geo":5917,"screen":5918,"Permission":5919,"Ġconnections":5920,"signature":5921,"ĠMulti":5922,"tit":5923,"Ġcoordin":5924,"operation":5925,"/(?":5926,"records":5927,"++":5928,",),":5929,"amma":5930,"Ġactually":5931,"Ġstuff":5932,"Ġbasestring":5933,"Ġpl":5934,"ighb":5935,"ĠImp":5936,"Pick":5937,"tile":5938,":])":5939,"Dictionary":5940,"compatible":5941,"STRING":5942,"Some":5943,"equals":5944,"Ġhostname":5945,"poll":5946,"Ġcs":5947,"Ġmade":5948,"GHT":5949,"Ġplay":5950,"Ġtx":5951,"covery":5952,"Ġhome":5953,"URI":5954,"5678":5955,"rees":5956,"KEN":5957,"Ġev":5958,"Ġlarge":5959,"alth":5960,"CI":5961,"hi":5962,"Ġconsumer":5963,"prepare":5964,"Ġpair":5965,"forum":5966,"serializer":5967,"ensure":5968,"Ġplan":5969,"reshape":5970,"ORE":5971,"Ġdid":5972,"itions":5973,"Tool":5974,"monitor":5975,"refs":5976,"Configuration":5977,"fire":5978,"ĠOTHER":5979,"Ġcross":5980,"ĠCal":5981,"ĠAdditional":5982,"green":5983,"{%":5984,"Ġ''.":5985,"grad":5986,"Write":5987,"logy":5988,"Ġmime":5989,"TYPES":5990,"Channel":5991,"Ġentities":5992,"ele":5993,"ĠAR":5994,"requency":5995,"Ġitself":5996,"runtime":5997,"authors":5998,"Ġkernel":5999,"Ġwriter":6000,"px":6001,"mc":6002,"Ġclick":6003,"Ġrdf":6004,"ouse":6005,"AndReturn":6006,"migrations":6007,"blog":6008,"Ġidentity":6009,"Ġns":6010,"cleaned":6011,"PREFIX":6012,"tected":6013,"chan":6014,"Sequence":6015,"Ġattach":6016,"Ġmodified":6017,"alloc":6018,"rable":6019,"break":6020,"lopen":6021,"aging":6022,"gz":6023,"Ġmonth":6024,"Ġ2010":6025,"Ġ<<":6026,"copi":6027,"/<":6028,"ĠFunction":6029,"igrate":6030,"[^":6031,"calar":6032,"Url":6033,"nect":6034,"big":6035,"Ġindices":6036,"Ġannot":6037,"resolvers":6038,"ulated":6039,"vides":6040,"Ġlon":6041,"Reference":6042,"rea":6043,"Ġtransport":6044,"UNT":6045,"twisted":6046,"IME":6047,"ĠAUTH":6048,"omial":6049,"Imp":6050,"Ġretry":6051,"latest":6052,"subscription":6053,"Package":6054,"*.":6055,"OB":6056,"Timeout":6057,"FLAG":6058,"hy":6059,"Ġcat":6060,"sitions":6061,"Usage":6062,"ĠQueue":6063,"Ġ\"_":6064,"lyph":6065,"gation":6066,"mysql":6067,"bile":6068,"Ġpartial":6069,"CLASS":6070,"ĠArgument":6071,"dl":6072,"Local":6073,"Ġvim":6074,"89":6075,"Wor":6076,"follow":6077,"Ġhistory":6078,"ays":6079,"Engine":6080,"ĠValidationError":6081,"Row":6082,"CA":6083,"origin":6084,"reater":6085,"city":6086,"distance":6087,"Defin":6088,"ĠInstance":6089,"Role":6090,"based":6091,"Ġroute":6092,"sources":6093,"Ġnorm":6094,"ĠOne":6095,"maining":6096,"Ġrecords":6097,"Ġtornado":6098,"Ġsupports":6099,"_:":6100,"separ":6101,"logo":6102,"linear":6103,"Generator":6104,"inte":6105,"Ġwritten":6106,"tifications":6107,"arb":6108,"Ġaround":6109,"lencode":6110,"pdf":6111,"Ġweight":6112,"ACHE":6113,"Ġcla":6114,"Types":6115,"ĠOnly":6116,"iling":6117,"archive":6118,"tl":6119,"unpack":6120,"variables":6121,"nx":6122,"enerated":6123,"Ġknown":6124,">`":6125,"Ġwatch":6126,"ket":6127,"gp":6128,"Ġelem":6129,"bra":6130,"trigger":6131,"Description":6132,"hidden":6133,"Ġ}}":6134,"Regex":6135,"umbnail":6136,"ENTI":6137,"price":6138,"COMP":6139,"uess":6140,"Ġteam":6141,"49":6142,"Ġauthentic":6143,"mime":6144,"ivar":6145,"Ġpipeline":6146,"Ġhandlers":6147,"Ġappe":6148,"Ġurls":6149,"Files":6150,"same":6151,":',":6152,"ĠFe":6153,"1111":6154,"dc":6155,"Ġsymbol":6156,"eded":6157,"agraph":6158,"functions":6159,"Ġoverwrite":6160,"servation":6161,"classi":6162,"Ġworking":6163,"Ġ()":6164,"Ġsleep":6165,"ĠMatrix":6166,"Socket":6167,"Ġanaly":6168,"Ġabstract":6169,"Ġcreating":6170,"Ġ19":6171,"Ġbackwards":6172,"Basic":6173,"jax":6174,"Ġcorrectly":6175,"ĠOSError":6176,"double":6177,"ardown":6178,"Unit":6179,"stdin":6180,"DIA":6181,"DATAB":6182,"ĠIs":6183,"lict":6184,"SV":6185,"Ġrouter":6186,"fc":6187,"Ġpur":6188,"ĠĠĠĠĠĠĠĠĠĠĠĠĠĠĠĠĠĠĠĠĠĠĠĠĠĠĠĠĠĠĠĠĠĠĠĠĠĠĠĠĠĠĠĠ":6189,"isdir":6190,"Ġ#------------------------------------------------------------------------":6191,"dependency":6192,"ĠHow":6193,"Ġgood":6194,"ĠLe":6195,"dx":6196,"âĶ":6197,"Ġcoun":6198,")')":6199,"processors":6200,"Over":6201,"freq":6202,"Ġtz":6203,"DELETE":6204,"Ġdrop":6205,"conv":6206,"executable":6207,"Ġaff":6208,"Ġregistry":6209,"Example":6210,"Ġworksheet":6211,"ĠAdding":6212,"lsx":6213,"Fi":6214,"browser":6215,"reply":6216,"timedelta":6217,"Float":6218,"isfile":6219,"Unknown":6220,"VALID":6221,"85":6222,"Ġfinished":6223,"dimen":6224,"ĠPY":6225,"Could":6226,"lave":6227,"scan":6228,"ĠUSE":6229,"gu":6230,"Ġderi":6231,"ral":6232,"Ġcopied":6233,"Ġinitialize":6234,"quiva":6235,"cap":6236,"seek":6237,"FT":6238,"partial":6239,"olved":6240,"ĠRaises":6241,"')))":6242,"ginator":6243,"TINGS":6244,"Only":6245,"UI":6246,"inv":6247,"kes":6248,"ĠSession":6249,"signals":6250,"Ġupdates":6251,"Metadata":6252,"ĠItem":6253,"interfaces":6254,"Ġsaved":6255,"scalar":6256,"tract":6257,"Ġsamples":6258,"Inst":6259,"')[":6260,"Ġconstructor":6261,"Ġservices":6262,"CESS":6263,"atar":6264,"Ġdistance":6265,"Loop":6266,"ets":6267,"ĠNew":6268,"Ġopenstack":6269,"ĠNOTE":6270,"Position":6271,"Dialog":6272,"responses":6273,"Ġencoded":6274,"Min":6275,"lick":6276,"Ġcondition":6277,"ĠGraph":6278,"Ġproblem":6279,"Ġll":6280,"Ġlineno":6281,"urity":6282,"Ġcharacter":6283,"limiter":6284,"Ġbottom":6285,"got":6286,"ĠĠĠĠĠĠĠĠĠĠĠĠĊ":6287,"LOAD":6288,"Last":6289,"rac":6290,"ancer":6291,"pickle":6292,"ised":6293,"ĠQtGui":6294,"gy":6295,"ĠOAuth":6296,"ĠURI":6297,"channels":6298,"ĠProcess":6299,"ris":6300,"aff":6301,"Ġsyntax":6302,"Ġmapper":6303,"echo":6304,"Inline":6305,"\"\")":6306,"itespace":6307,"ĠPath":6308,"Ġdev":6309,"submit":6310,"'d":6311,"CRI":6312,"dictions":6313,"Ali":6314,"ought":6315,"============":6316,"Ġsklearn":6317,"PACE":6318,"onymous":6319,"ffset":6320,"Ġ1024":6321,"Agent":6322,"Max":6323,"Red":6324,"inner":6325,"Ġsess":6326,"effs":6327,"plt":6328,"Ġsimp":6329,"validator":6330,"Ġswitch":6331,"ĠSome":6332,"TEXT":6333,"TRIBUT":6334,"Extra":6335,"clone":6336,"collector":6337,"sin":6338,"Ġresolve":6339,"ints":6340,"ĠProtocol":6341,"Ġclosed":6342,"ability":6343,"Ġssl":6344,"Configured":6345,"bum":6346,"ĠBad":6347,"Ġpairs":6348,"ĠAdmin":6349,"Ġatom":6350,"Ġds":6351,"DULE":6352,"ĠĠĠĠĠĠĠĠĠĠĠĠĠĠĠĠĠĠĠĠĠĠĠĠĠĠĠĠĠĠĠĠĠĠĠĠĠĠĠĠĠĠĠĠĠ":6353,"Ġrate":6354,"Member":6355,"serted":6356,"ĠPAR":6357,"Ġstates":6358,"ulator":6359,"Ġplugins":6360,"001":6361,"mongo":6362,"ĠClass":6363,"cus":6364,"ĠWSGI":6365,"âĶĢ":6366,"Ġnx":6367,"Order":6368,"SU":6369,"Ġinside":6370,"Editor":6371,"precation":6372,"ValidationError":6373,"nb":6374,"keyword":6375,"tran":6376,"128":6377,"Ġterm":6378,"Ġnested":6379,"paces":6380,"subscribe":6381,"Ġms":6382,"CODE":6383,"raries":6384,"ipv":6385,"ĠPublic":6386,"Ġtrigger":6387,"ru":6388,"rypto":6389,"Django":6390,"\\.":6391,"ICES":6392,"Ġones":6393,"xs":6394,"Ġreferences":6395,"strict":6396,"sessions":6397,"NAMES":6398,"Ġfails":6399,"('<":6400,"symbol":6401,"proj":6402,"Ġstrip":6403,"deli":6404,"Choice":6405,"Series":6406,"RIGHT":6407,"Ġtyp":6408,"Ġactiv":6409,"gon":6410,"ONG":6411,"Clean":6412,"syntax":6413,"riteri":6414,"Ġiterator":6415,"ĠSchema":6416,"urllib":6417,"specs":6418,"priority":6419,"deg":6420,"Ġboto":6421,"bundle":6422,"units":6423,"IGN":6424,"________":6425,"ĠOper":6426,"Ġ24":6427,"ln":6428,"ĠFoo":6429,"(\"-":6430,"ĠNS":6431,"compress":6432,"assertNotEqual":6433,"how":6434,"}/":6435,"Ġworkflow":6436,"Ġcorehq":6437,"FC":6438,"Ġsn":6439,"ĠPOST":6440,"Ġhappen":6441,"Collector":6442,"hat":6443,"segment":6444,"LOCK":6445,"Ġep":6446,"Ġ\"\"\")":6447,"ateway":6448,"ned":6449,"Ġchecks":6450,"('.')":6451,"Ġnothing":6452,"Ġcert":6453,"existing":6454,"klass":6455,"Ġplayer":6456,"modi":6457,"AST":6458,"RPC":6459,"Ġden":6460,"collect":6461,"setter":6462,"visor":6463,"quivalent":6464,"prev":6465,"Ġgame":6466,"Ġfmt":6467,"ĠParse":6468,"79":6469,"progress":6470,"nested":6471,"ĠInter":6472,"LIST":6473,"Ġcreation":6474,"roadcast":6475,"DIRECT":6476,"ef":6477,"odoc":6478,"which":6479,"prob":6480,"Ġunknown":6481,"Ġfactor":6482,"Cloud":6483,"yes":6484,"visible":6485,"âĶĢâĶĢ":6486,"readline":6487,"Ġapps":6488,"recur":6489,"Ġcompare":6490,"weights":6491,"Site":6492,"Comple":6493,"Ġordering":6494,"ĠPage":6495,"urlpatterns":6496,"lying":6497,"VALUE":6498,"optim":6499,"Make":6500,"selection":6501,"Ġround":6502,"Ġ404":6503,"Used":6504,"duction":6505,"semble":6506,"enti":6507,"cepted":6508,"Ġscan":6509,"pay":6510,"ĠSH":6511,"vide":6512,"ĠRemove":6513,"Ġtrait":6514,"CLI":6515,"jar":6516,"Ġ(-":6517,"WR":6518,"accounts":6519,"adap":6520,"dn":6521,"previous":6522,"CLUD":6523,"WIT":6524,"dependencies":6525,"ĠAnd":6526,"amble":6527,"filepath":6528,"Ġlistener":6529,":\"":6530,"=[\"":6531,"roperly":6532,"Ġweights":6533,"notify":6534,"({\"":6535,"threads":6536,"tmpdir":6537,"ĠPermission":6538,"Sum":6539,"week":6540,")}":6541,"rou":6542,"Ġcause":6543,"sentry":6544,"ĠChange":6545,"Root":6546,"(',":6547,"aemon":6548,"Obj":6549,"Ġresponses":6550,"foobar":6551,"iler":6552,"align":6553,"ros":6554,"Ġproc":6555,"Ġdefaultdict":6556,"Ġredis":6557,"lier":6558,"ĠCan":6559,"networks":6560,"pends":6561,"gi":6562,"receive":6563,"Ġcb":6564,"vers":6565,"ĠCLI":6566,"Ġoutputs":6567,"Custom":6568,"customer":6569,">')":6570,"ĠValue":6571,"ATIC":6572,"exe":6573,"ĠInitialize":6574,"Hash":6575,"ĠWHERE":6576,"disable":6577,"definition":6578,"Ġdelay":6579,"Lookup":6580,"compare":6581,"Ġspe":6582,")\\":6583,"matches":6584,"CR":6585,"Ġunits":6586,"Fields":6587,"orph":6588,"addresses":6589,"ĠGeneric":6590,"~~~~~~~~~~~~~~~~":6591,"csrf":6592,"fast":6593,"pairs":6594,"Ġstarting":6595,"Ġgeneric":6596,"Ġargv":6597,"strftime":6598,"DOMAIN":6599,"=('":6600,"Ġjobs":6601,"ocial":6602,"oked":6603,"Ġseed":6604,"blocks":6605,"sertionError":6606,"quare":6607,"Ġ255":6608,"TOKEN":6609,"Ġrot":6610,"vicon":6611,"Ġconstruct":6612,"000000":6613,"globals":6614,"'ll":6615,"See":6616,"Mark":6617,"scheduler":6618,"actual":6619,"Ġerrno":6620,"CannotContain":6621,"ĠindependentData":6622,"ĠContext":6623,"\"\\":6624,"Tab":6625,"cum":6626,"Ġhref":6627,"ĠAction":6628,"Ġsegment":6629,"ĠShould":6630,"Ne":6631,"floating":6632,"predict":6633,"Directory":6634,"MAG":6635,"ĠLocal":6636,"listdir":6637,"Feature":6638,"Ġretrieve":6639,"href":6640,"tices":6641,"Entity":6642,"DateTimeField":6643,"examples":6644,"Ġescape":6645,"oring":6646,"traceback":6647,"ĠTEST":6648,"Ġalong":6649,"Ġpriority":6650,"neutron":6651,"Names":6652,"\"/":6653,"Ġvideo":6654,"ĠStatus":6655,"rant":6656,"Ġtenant":6657,"jam":6658,"ĠComment":6659,"Ġ2016":6660,"Ġ[{'":6661,"CACHE":6662,"Stub":6663,"Ġcomments":6664,"room":6665,"wap":6666,"Ġregular":6667,"assertIsNone":6668,"antity":6669,"Ġparsing":6670,"hist":6671,"demo":6672,"phone":6673,"activate":6674,"ADDR":6675,"Volume":6676,"threshold":6677,"Ġxs":6678,"ably":6679,"cleanup":6680,"EMAIL":6681,"2012":6682,"aws":6683,"configs":6684,"Ġsphinx":6685,"olds":6686,"Ġdesired":6687,"Ġprogress":6688,"+'":6689,"Ġemit":6690,"Edit":6691,"LD":6692,"TF":6693,"ĠGET":6694,"binding":6695,"ierarch":6696,"mentation":6697,"Ġstrftime":6698,"Abstract":6699,"PTION":6700,"('',":6701,"Ġclone":6702,"Random":6703,"typ":6704,"aller":6705,"Report":6706,"Repo":6707,"callable":6708,"thought":6709,"Ġbrowser":6710,"pad":6711,"Ġinner":6712,"APPS":6713,"Ġdash":6714,"Ġboot":6715,"deployment":6716,"wt":6717,"Ġpoly":6718,"Ġ${":6719,"CLUDING":6720,"dep":6721,"Ġ'[":6722,"frames":6723,"Iter":6724,"Ġnotification":6725,"ridge":6726,"OCK":6727,"shift":6728,"Parent":6729,"Ġste":6730,"epoch":6731,"Ġfixed":6732,"Ġparticular":6733,"roperlyConfigured":6734,"family":6735,"ALI":6736,"rd":6737,"video":6738,"itle":6739,"king":6740,"}\\":6741,"connections":6742,"Ġnd":6743,"TextField":6744,"Ġschedule":6745,"ATA":6746,"SETTINGS":6747,"titude":6748,"article":6749,"ĠSup":6750,"CK":6751,"Ġklass":6752,"\"%":6753,"2000":6754,"ĠMark":6755,"ĠEd":6756,"Ġ18":6757,"================================================================":6758,"normalize":6759,"draft":6760,"Endpoint":6761,"Ġcontributors":6762,"ĠOver":6763,"ĠVER":6764,"RC":6765,"tence":6766,"formatter":6767,"ĠUnicode":6768,"java":6769,"AF":6770,"Ġturn":6771,"forward":6772,"mtree":6773,"hooks":6774,"ĠGit":6775,"destroy":6776,"ĠStart":6777,"TIMEOUT":6778,"cid":6779,"METHO":6780,"ĠJo":6781,"dims":6782,"ĠCl":6783,"coming":6784,"Ġduration":6785,"VICE":6786,"tics":6787,"Ġblocks":6788,"NU":6789,"imate":6790,"Ġframework":6791,"ĠStr":6792,"UST":6793,"')])":6794,"mobile":6795,"ĠAny":6796,"Contains":6797,"alf":6798,"aving":6799,"onical":6800,"sentinel":6801,"Ġtm":6802,"impl":6803,"partition":6804,"Domain":6805,"bilities":6806,"ĠToken":6807,"andidate":6808,"Ġthings":6809,"outputs":6810,"diffe":6811,"rupt":6812,"->":6813,"300":6814,"GRO":6815,"ĠPa":6816,"have":6817,"Ġtranslation":6818,"Library":6819,"loss":6820,"ective":6821,"notification":6822,"Ġautog":6823,"ANCE":6824,"Ġbackup":6825,"PASSWORD":6826,"ĠFloat":6827,"boolean":6828,"Ġthreads":6829,"Ġdetermine":6830,"Person":6831,"osite":6832,"Stats":6833,"Ġlogs":6834,"Ġmis":6835,"Ġstarted":6836,"ĠAlso":6837,"Ġsec":6838,"ĠComm":6839,"ni":6840,"Ġseen":6841,"Ġsync":6842,"Ġhosts":6843,"crete":6844,"{\"":6845,"Ġ400":6846,"presen":6847,"NESS":6848,"ĠStop":6849,"ERCH":6850,"Ġcompatibility":6851,"65":6852,"Product":6853,"erge":6854,"jac":6855,"datastore":6856,"ĠDatabase":6857,"Ġrecent":6858,"TCP":6859,"aggregate":6860,"Ġmk":6861,"maps":6862,"BooleanField":6863,":\",":6864,"ALLED":6865,"CONTENT":6866,"ERCHANT":6867,"wb":6868,"ĠDelete":6869,"38":6870,"ĠCur":6871,"ium":6872,"rn":6873,"program":6874,"gle":6875,"Ġdepth":6876,"RED":6877,"Ġconfigure":6878,"allel":6879,"MagicMock":6880,"getter":6881,"='/":6882,"ĠTag":6883,"oute":6884,"plus":6885,"Ġ2009":6886,"kt":6887,"tenv":6888,"Ġcolors":6889,"setitem":6890,"stmt":6891,"chdir":6892,"rides":6893,"Topic":6894,"Ġtensor":6895,"Ġserialize":6896,"ĠDataFrame":6897,"Multiple":6898,"sli":6899,"Ġansw":6900,"WE":6901,"Ġreader":6902,"sites":6903,"urlresolvers":6904,"tar":6905,"ĠSite":6906,"Has":6907,"Memory":6908,"ions":6909,"ingerprint":6910,"ĠApplication":6911,"ĠTry":6912,"dele":6913,"tainer":6914,"OURCE":6915,"Ġradi":6916,"Ġflavor":6917,"walk":6918,"Allow":6919,"xis":6920,"ascript":6921,"9999":6922,"variance":6923,"subclass":6924,"finished":6925,"dom":6926,"Ġruns":6927,"Unable":6928,"elif":6929,"Ġgets":6930,"Ġfakes":6931,"Ġfast":6932,"authorized":6933,"Ġtools":6934,"Rep":6935,"Ġlocals":6936,"enum":6937,"Ġcomplex":6938,"Ġchoice":6939,"Ġpixels":6940,"star":6941,"pin":6942,"ading":6943,"manifest":6944,"Alchemy":6945,"Send":6946,"lev":6947,"Ġvalidator":6948,"ĠVerify":6949,"Validator":6950,"ynchronous":6951,"roved":6952,"cases":6953,"ateri":6954,"Ġprompt":6955,"ĠOptional":6956,"Registry":6957,"ua":6958,"parsers":6959,"lace":6960,"ntaxError":6961,"adoop":6962,"FR":6963,"atype":6964,"utcnow":6965,"48":6966,"MT":6967,"gui":6968,"Ġregard":6969,"rng":6970,"Ġservers":6971,"ĠExec":6972,"translate":6973,"Ġ500":6974,"Functions":6975,"gun":6976,"ĠIndexError":6977,"Ġtargets":6978,"avascript":6979,"Ġvis":6980,">=":6981,"best":6982,"/{}":6983,"UND":6984,"randn":6985,"sto":6986,"Ġkeywords":6987,"prog":6988,"ĠPack":6989,"anging":6990,"ĠPoint":6991,"ffi":6992,"ITNESS":6993,"MODULE":6994,"=\"%":6995,"completed":6996,"Ġmac":6997,"Coeffs":6998,"UNK":6999,"Ġdirec":7000,"********************************":7001,"cogn":7002,"Comment":7003,"Go":7004,"Ġcm":7005,"organization":7006,"CHE":7007,"Ġmar":7008,"Reactor":7009,"PROJECT":7010,"=_(\"":7011,"2010":7012,"Ġthemes":7013,"ared":7014,"verter":7015,"Ġarr":7016,"capa":7017,"ctypes":7018,"ĠSSL":7019,"\"][\"":7020,"Ġ'*'":7021,"destination":7022,"Menu":7023,"Expected":7024,"acl":7025,"flask":7026,"ian":7027,"Ġalign":7028,"Binary":7029,"IST":7030,"Tw":7031,"Ġquote":7032,"ratio":7033,"Environment":7034,"rdf":7035,"Ġcover":7036,"Execution":7037,"servable":7038,"Dummy":7039,"cebook":7040,"ĠEns":7041,"leton":7042,"decorator":7043,"alect":7044,"kee":7045,"orizont":7046,"VAR":7047,"dp":7048,"allation":7049,"Ġtb":7050,"ĠinCoeffs":7051,"prompt":7052,"locals":7053,"windows":7054,"Num":7055,"Ġcompiler":7056,"Mapping":7057,"ensor":7058,"sublime":7059,"Ġnever":7060,"Parameters":7061,"ragma":7062,"Ġhandling":7063,"ĠDA":7064,"La":7065,"Ġscreen":7066,"Ġanything":7067,"Ġsqlite":7068,"TS":7069,"Ġsheet":7070,"Ġhex":7071,"CHAR":7072,"Ġ\"\",":7073,"randint":7074,"kedirs":7075,"Popen":7076,"hot":7077,"Ġ17":7078,"ERCHANTABILITY":7079,"Ġrec":7080,"ussian":7081,"zeug":7082,"Ġrelationship":7083,"secure":7084,"([(":7085,"mkdir":7086,"keywords":7087,"ULAR":7088,"Ġplaces":7089,"blue":7090,"Required":7091,"tb":7092,"ini":7093,"Ġdue":7094,"LIED":7095,"}:":7096,"}{":7097,"Ġsidebar":7098,"ĠĠĠĠĠĠĠĠĠĠĠĠĠĠĠĠĠĠĠĠĠĠĠĠĠĠĠĠĠĠĠĠĠĠĠĠĠĠĠĠĠĠĠĠĠĠ":7099,"spam":7100,"black":7101,"kzeug":7102,"vid":7103,"urther":7104,"wrapped":7105,"hood":7106,"chars":7107,"Ġbundle":7108,"ASK":7109,"_{":7110,"#'":7111,"Ġrev":7112,"Ġgreen":7113,"Ġmag":7114,"inct":7115,"compiler":7116,"Ġ':":7117,"Bytes":7118,"Stop":7119,"widgets":7120,"Ġglobals":7121,"emit":7122,"Ġexamples":7123,"Ġnormalize":7124,"Ġsupplied":7125,"lio":7126,"']]":7127,"ĠLib":7128,"ANY":7129,"adow":7130,"Ġvirt":7131,"gid":7132,"under":7133,"cuts":7134,".'''":7135,"formats":7136,"ndarray":7137,")\")":7138,"gis":7139,"strument":7140,"amp":7141,"ggest":7142,"criptor":7143,"Remote":7144,"Ġimported":7145,"SY":7146,"Ġfooter":7147,"Ġreplacement":7148,"Ġgrr":7149,"Authentication":7150,"MB":7151,"Ġless":7152,"postgres":7153,"95":7154,"ĠHandle":7155,"Ġprocessing":7156,"Ġsnapshot":7157,"ĠĠĠĠĠĠĠĠĠĠĠĠĠĠĠĠĠĠĠĠĠĠĠĠĠĠĠĠĠĠĠĠĠĠĠĠĠĠĠĠĠĠĠĠĠĠĠ":7158,"Arg":7159,"Ġ\"(":7160,"ek":7161,"iterable":7162,"fakes":7163,"ĠMERCHANTABILITY":7164,"Tri":7165,"Ġqueries":7166,"slots":7167,"that":7168,"Ġconfigured":7169,"Results":7170,"ĠOtherwise":7171,"Ġactor":7172,"good":7173,"/.":7174,"_'":7175,"ification":7176,"Testing":7177,"identi":7178,"utions":7179,"posed":7180,"Values":7181,"TAG":7182,"ĠEach":7183,"Ġthree":7184,"Ġmarker":7185,"oration":7186,"getcwd":7187,"does":7188,"Ġui":7189,"Ġnone":7190,"endor":7191,"rank":7192,"marker":7193,"Com":7194,"sur":7195,"foot":7196,"installed":7197,"Ob":7198,"ressions":7199,"dence":7200,"ĠEnsure":7201,"Ġdimension":7202,"ĠreST":7203,"Transform":7204,"oted":7205,"Ġreduce":7206,"Ġexpand":7207,"Ġproduce":7208,"Missing":7209,"ĠDeleting":7210,"IMIT":7211,"cmp":7212,"Ġvery":7213,"ĠPerson":7214,"ĠTwisted":7215,"SUB":7216,"Ter":7217,"ctl":7218,"cnt":7219,"Ġchunks":7220,"Close":7221,"ĠOK":7222,"struction":7223,"Ġ{%":7224,"Track":7225,"licies":7226,"may":7227,"67":7228,"usters":7229,"POSE":7230,"finder":7231,"Remove":7232,"Ġcost":7233,"versed":7234,"Constraint":7235,"ĠBoolean":7236,"ĠNow":7237,"Ġdirname":7238,"las":7239,"syn":7240,"uda":7241,"erce":7242,"ives":7243,"Diff":7244,"MEDIA":7245,"iterator":7246,"virtual":7247,"Poly":7248,"Ġproperly":7249,"trip":7250,"Ġ'/'":7251,"###############################################################################":7252,"\"].":7253,"LANG":7254,"stit":7255,"AV":7256,"ĠMethod":7257,"ĠCor":7258,"ĠWrite":7259,"Ġhighlight":7260,"country":7261,"OwnerId":7262,"]}":7263,"Ġsv":7264,"tached":7265,"orizontal":7266,"male":7267,"ORI":7268,"Ġsignals":7269,"Ġ----------------------------------------":7270,"eep":7271,"assertIsNot":7272,"mtime":7273,"geom":7274,"velopers":7275,"white":7276,"httplib":7277,"Ġpacket":7278,"STATIC":7279,"DataFrame":7280,"Current":7281,"]],":7282,"Ġmakes":7283,"jamas":7284,"tester":7285,"Ġselection":7286,"kill":7287,"ined":7288,"Ġdirection":7289,"Ġinserted":7290,"ĠDon":7291,"lemb":7292,"additional":7293,"ells":7294,"inux":7295,"attrib":7296,"mes":7297,"Attr":7298,"CHO":7299,"Ġga":7300,"gether":7301,"initialize":7302,"ffff":7303,"Ġautogenerated":7304,"experiment":7305,"Ġtraining":7306,"authenticated":7307,"Pickle":7308,"Ġssh":7309,"vaila":7310,"*(":7311,"Ġconnected":7312,"ĠDevelopment":7313,"87":7314,"Ġcred":7315,"THON":7316,"jid":7317,"ĠFilter":7318,"deepcopy":7319,"chor":7320,"ĠAbstract":7321,"Ġunpack":7322,"Use":7323,"/?":7324,"decla":7325,"SITE":7326,"ico":7327,"MAC":7328,"tcp":7329,"isode":7330,"ital":7331,"Ġupper":7332,"Ġpower":7333,"Ġsur":7334,"Items":7335,"hara":7336,"Ġcontact":7337,"ĠSign":7338,"park":7339,"Ġcapa":7340,"Ġhour":7341,"lected":7342,"ĠSkip":7343,"Ġ{}'.":7344,"Ġcodecs":7345,"Ġready":7346,"ĠSearch":7347,"bootstrap":7348,"CUR":7349,"Matrix":7350,"eros":7351,"Ġty":7352,"WORK":7353,">,":7354,"Ġbug":7355,"lembic":7356,"ationTest":7357,"ĠAddress":7358,"volumes":7359,"OwnerAccount":7360,"`)":7361,"moving":7362,"pix":7363,"ARD":7364,"#------------------------------------------------------------------------------":7365,"ĠPUR":7366,"Ġformatted":7367,"ĠArray":7368,"ĠDes":7369,"ident":7370,"Ġconv":7371,"Ġci":7372,"cookies":7373,"ĠAuto":7374,"Success":7375,"efficient":7376,"Ġ64":7377,"bottom":7378,"ĠWor":7379,"Ġinstanti":7380,"flatten":7381,"={}":7382,"copia":7383,"Ġcc":7384,"IDD":7385,"uffle":7386,"Ġsimilar":7387,"itude":7388,"updates":7389,"Empty":7390,"Ġmachine":7391,"STATE":7392,"Pipe":7393,"pm":7394,"rator":7395,"Ġcr":7396,"DEX":7397,"Ġfunctionality":7398,"Enum":7399,"ublish":7400,"findall":7401,"aliases":7402,"Main":7403,"setattr":7404,"ĠPlugin":7405,"########################":7406,"resize":7407,"Ġmu":7408,"47":7409,"NET":7410,"Ġrpc":7411,"preter":7412,"must":7413,"acquire":7414,"vailability":7415,"MAGE":7416,"Ġdoctest":7417,"vl":7418,"bus":7419,"Ġtrace":7420,"Ġtf":7421,"Ġinitialized":7422,"10000":7423,"FS":7424,"rmtree":7425,"Ġgeneral":7426,"Ġav":7427,"Upload":7428,"sizes":7429,"Ġbig":7430,"Ġreply":7431,"Ġpanel":7432,"otype":7433,"Ġbeta":7434,"ĠIPv":7435,"band":7436,"Ġ\"#":7437,"ĠLIMIT":7438,"Step":7439,"tn":7440,"linux":7441,"Ġdim":7442,"ĠArticle":7443,"192":7444,"ĠDecimal":7445,"oom":7446,"Ġquestion":7447,"Ġps":7448,"Ġuid":7449,"ables":7450,"Ġable":7451,"clients":7452,"Ġbackground":7453,"ĠImproperlyConfigured":7454,"istic":7455,"ĠRel":7456,"illi":7457,"inity":7458,"quences":7459,"Operation":7460,"Ġwrong":7461,"registration":7462,"Plan":7463,"Renderer":7464,"BC":7465,"ivy":7466,"splitlines":7467,"until":7468,"ping":7469,"selector":7470,"Ġpol":7471,"tour":7472,"BE":7473,"ogram":7474,"Fixture":7475,"ĠPURPOSE":7476,"Iteration":7477,"ĠTree":7478,"pdu":7479,"needs":7480,"gradient":7481,"Descriptor":7482,"Ġserve":7483,"Ġrespon":7484,"received":7485,"exact":7486,"ĠTeam":7487,"makedirs":7488,"Wait":7489,"spawn":7490,"Ġlang":7491,"Ġsummary":7492,"ĠVERSION":7493,",-":7494,"AIN":7495,"Ġdimensions":7496,"vile":7497,"Ġperm":7498,"OAuth":7499,"roker":7500,"Ġexport":7501,"egg":7502,"icrosoft":7503,"VM":7504,"started":7505,"hand":7506,"Ġsyn":7507,"()).":7508,"Ġpprint":7509,"bounds":7510,"ĠInput":7511,"Ġtemporary":7512,"Ġexecuted":7513,"ender":7514,"TICULAR":7515,"Category":7516,"figure":7517,"edia":7518,"!!":7519,"TT":7520,"trl":7521,"Ġleg":7522,"Show":7523,"reload":7524,"Ġ40":7525,"Ġlazy":7526,"2011":7527,"ags":7528,"dy":7529,"()])":7530,"Ġattempt":7531,"ĠOUT":7532,"beat":7533,"Ġedges":7534,"Ġrefresh":7535,"Ġfreq":7536,"}),":7537,"ERY":7538,"ircu":7539,"]'":7540,"(\"--":7541,"ĠPlease":7542,"69":7543,"roken":7544,"Ġmembers":7545,"tf":7546,"coords":7547,"Ġexperiment":7548,"JANG":7549,"Ġiprot":7550,"ĠSpeci":7551,"validators":7552,"Ġconstant":7553,"associ":7554,"izing":7555,"COUNT":7556,"Please":7557,"ĠFITNESS":7558,"Sample":7559,"Ġadding":7560,"DataCacheDictionary":7561,"ĠPARTICULAR":7562,"BL":7563,"}\"":7564,"Ġfo":7565,"cha":7566,"uniform":7567,"nor":7568,"[(":7569,"Ġpants":7570,"dix":7571,"ĠConfiguration":7572,"()'":7573,"Ġworkbook":7574,"lator":7575,"contenttypes":7576,"Ġlibs":7577,"Tuple":7578,"Ġconven":7579,"ĠState":7580,"define":7581,"Ġforwards":7582,"ĠThread":7583,"234":7584,"Ġlogged":7585,"atter":7586,"Ġbal":7587,"andbox":7588,"Replay":7589,"IR":7590,"dae":7591,"Params":7592,"blueprint":7593,"etree":7594,"TIVE":7595,"Ġpip":7596,"abstractmethod":7597,"Ġrc":7598,"Detail":7599,"Ġdns":7600,"ĠBasic":7601,"background":7602,"README":7603,"ike":7604,"ko":7605,"Ġforward":7606,"Ġord":7607,"finish":7608,"decimal":7609,"ĠBook":7610,"ircle":7611,"chunks":7612,"METHOD":7613,",\"":7614,"Ġfurther":7615,"Ġ'\"":7616,"cuda":7617,"Ġwarn":7618,"ĠCall":7619,":')":7620,"bla":7621,"activity":7622,"Ġgevent":7623,"ectors":7624,"OFF":7625,"Ġcalculate":7626,"ĠExp":7627,"ĠSelect":7628,"relationship":7629,"ĠDocuments":7630,"Ġdouble":7631,"attachment":7632,"Zero":7633,"Ġdele":7634,"ĠCloud":7635,"mbedded":7636,"rstrip":7637,"errno":7638,"Ġwhose":7639,"gateway":7640,"GTH":7641,"Login":7642,"cture":7643,"ama":7644,"clock":7645,"devices":7646,"Ġinterfaces":7647,"Setup":7648,"Verify":7649,"Properties":7650,"patcher":7651,"TestSuite":7652,"coordin":7653,"Ġauthors":7654,"native":7655,"ĠAD":7656,"Ġcleanup":7657,"JANGO":7658,")\",":7659,"Ġreading":7660,"ATOR":7661,"constant":7662,"scene":7663,"LIN":7664,"GROUP":7665,"MPLE":7666,"Ġminimum":7667,"ĠStatic":7668,"bench":7669,"[\\":7670,"ĠGNU":7671,"Ġcopies":7672,"Ġarchive":7673,"scores":7674,"Ġ~":7675,"Ġprepare":7676,"Ġlanguages":7677,"Ġdocstring":7678,"ĠUsed":7679,"eys":7680,"odb":7681,"dec":7682,"Positive":7683,"ĠGrouping":7684,"inclu":7685,"ĠFind":7686,"0001":7687,"indexes":7688,"packet":7689,"Ġrepresents":7690,"requirements":7691,"cas":7692,"Ġcenter":7693,"communic":7694,"MAGES":7695,"Scheduler":7696,"edu":7697,"DEF":7698,"Utils":7699,"Ġaltern":7700,"Cell":7701,"ITS":7702,"ĠOpenStack":7703,"erkzeug":7704,"Ġthrow":7705,"Ġconverted":7706,"SO":7707,"Ġ\"'":7708,"Ġsubclasses":7709,"Ġmarkup":7710,"Ġsto":7711,"izard":7712,"ulates":7713,"Ġcreates":7714,"serializers":7715,"SCHE":7716,"FIELD":7717,"zon":7718,"Ġbash":7719,"Ġgeo":7720,"Ġaccording":7721,"\"]:":7722,"astic":7723,"ĠKeyword":7724,"Grid":7725,"Json":7726,"RUN":7727,"cov":7728,"ads":7729,"jpg":7730,"you":7731,"Article":7732,"canvas":7733,"Ġcwd":7734,"metaclass":7735,"qt":7736,"ysi":7737,"Ġrepla":7738,"VarInt":7739,"AIL":7740,"Lim":7741,"Ġsimplejson":7742,"hyper":7743,"blems":7744,"ĠPri":7745,"catalog":7746,"=_('":7747,"honeNumber":7748,"Ġpragma":7749,"aten":7750,"Ġdeferred":7751,"Vector":7752,"ĠBack":7753,"Transaction":7754,"FILES":7755,"allen":7756,"('''":7757,"launch":7758,"Ġrand":7759,"Adapter":7760,"Pr":7761,"ticket":7762,"Nodes":7763,"RequestHandler":7764,"asarray":7765,"props":7766,"=======":7767,")**":7768,"!\")":7769,"It":7770,"Ġpartition":7771,"Ġ{}\".":7772,"Ġanswer":7773,"Ġcols":7774,"share":7775,"Ġ2007":7776,"Ġoptparse":7777,"rgb":7778,"ATCH":7779,"Generic":7780,"ely":7781,"percent":7782,"Ġbetter":7783,")+":7784,"Bind":7785,"_[":7786,"Ġdeal":7787,"aaaa":7788,"EM":7789,"tempdir":7790,"Ġbook":7791,"600":7792,"lm":7793,"Ġindexes":7794,"EV":7795,"irt":7796,"START":7797,"Ġroom":7798,"Ġspecification":7799,"ABC":7800,"stand":7801,"Ġreally":7802,"mesh":7803,"Ġunderlying":7804,"fh":7805,"categories":7806,"artist":7807,"Ġfrappe":7808,"repeat":7809,"Fetch":7810,"LENGTH":7811,"Ġct":7812,"Ġsli":7813,"ĠSource":7814,"ierarchy":7815,"datasets":7816,"Ġthing":7817,"pie":7818,"ĠSeries":7819,"direction":7820,"daemon":7821,"ĠOP":7822,"ĠIMPLIED":7823,"Ġdeployment":7824,"worksheet":7825,"sensitive":7826,"ĠEnvironment":7827,"Ġappendix":7828,">\",":7829,"LIC":7830,"Ġ'+":7831,"ReplayAll":7832,"vors":7833,"ĠExtra":7834,"car":7835,"pip":7836,"argtypes":7837,")-":7838,"axes":7839,"Ġcounts":7840,"ĠDefaults":7841,"BY":7842,"Ġeverything":7843,"ĠĠĠĠĠĠĠĠĠĠĠĠĠĠĠĠĠĠĠĠĠĠĠĠĠĠĠĠĠĠĠĠĠĠĠĠĠĠĠĠĠĠĠĠĠĠĠĠ":7844,"imator":7845,"Ġarrays":7846,"Ġweak":7847,"extended":7848,"Ġquotes":7849,"sist":7850,"advance":7851,"Ġdisabled":7852,"Copy":7853,"Ġborder":7854,"area":7855,"Ġnamedtuple":7856,"joint":7857,"Ġrobot":7858,"Offset":7859,"Ġgu":7860,"Ġchecking":7861,"Ġ80":7862,"Ġappended":7863,"Ġsparse":7864,"ĉĠĠĠ":7865,"EP":7866,"`:":7867,"Ġintera":7868,"Ġpyjamas":7869,"disconnect":7870,"Ġsmall":7871,"reet":7872,"Ġapplied":7873,"MGL":7874,"ĠChar":7875,"Ġmetavar":7876,"distribution":7877,"Ġseparate":7878,"Ġfigure":7879,"bulk":7880,"}',":7881,"meter":7882,"Ġsubscription":7883,"Ġactivity":7884,"Ġsigma":7885,"Ġeffect":7886,">.":7887,"GS":7888,"Ġthreshold":7889,"ĠCompute":7890,"special":7891,"Ġoprot":7892,"Ġexclu":7893,"43":7894,"standard":7895,"Ġ23":7896,"Router":7897,"ndim":7898,"placeholder":7899,"rack":7900,"Ġhyper":7901,"loading":7902,"Ġhandles":7903,"Ġlatest":7904,"Ġbi":7905,"sibility":7906,"kwds":7907,"Ġoutfile":7908,"creator":7909,"restype":7910,"Ġrather":7911,"crypted":7912,"Find":7913,"Ġ'.'":7914,"appendices":7915,"rozenset":7916,"Ġdescribed":7917,"locations":7918,"gorithms":7919,"Ġ\"\")":7920,"Desc":7921,"Ġletter":7922,"Geometry":7923,"aring":7924,"Ġmanuals":7925,"claration":7926,"moo":7927,"Ġscripts":7928,"FLAGS":7929,"Hook":7930,"ino":7931,"Ġsubnet":7932,"Ġshouldn":7933,"Print":7934,"XY":7935,"vtk":7936,"Ġversionadded":7937,"LOB":7938,"CREATE":7939,"Actor":7940,"Debug":7941,"hexdigest":7942,"Ġ#---------------------------------------------------------------------------":7943,"tol":7944,"Ġpad":7945,"ttl":7946,"ĠConvert":7947,"Render":7948,"\"})":7949,"ĠProxy":7950,"Ġ2008":7951,"Ġlooking":7952,"lihood":7953,"pended":7954,"Ġcollect":7955,"Ġentire":7956,"Ġetree":7957,"#-------------------------------------------------------------------------------":7958,"OPEN":7959,"PRESS":7960,"70":7961,"Body":7962,"Note":7963,"gri":7964,"ople":7965,"1024":7966,"Constant":7967,"ĠExten":7968,"small":7969,"Inte":7970,"disabled":7971,"Processor":7972,"Ġsmart":7973,"balance":7974,"Ġdays":7975,"currency":7976,"Definition":7977,"Ġgran":7978,"Ġtimer":7979,"Ġbases":7980,"fron":7981,"Func":7982,"hass":7983,"Ġinline":7984,"dian":7985,"EVENT":7986,"ai":7987,"Ġrng":7988,"Classi":7989,"nick":7990,"bp":7991,"mul":7992,"Pay":7993,"ASH":7994,"ĠAUTHORS":7995,"RF":7996,"Ġplease":7997,"Ġlibcloud":7998,"Headers":7999,"Ġdynamic":8000,"ridden":8001,"increment":8002,"Ġprocesses":8003,"ĠEVENT":8004,"openid":8005,"Ġserializers":8006,"scopes":8007,"__',":8008,"ocus":8009,"cade":8010,"building":8011,"twitter":8012,"Ġhelpers":8013,"etrieve":8014,"Ġfun":8015,"('')":8016,"diag":8017,"([],":8018,"Ġmonitor":8019,"sudo":8020,"Ġpublished":8021,"DATABASE":8022,"Ġri":8023,"queries":8024,"ĠPoly":8025,"spli":8026,"ĠDEBUG":8027,"Ġsteps":8028,"={\"":8029,"Ġaxes":8030,"Ġstdin":8031,"rename":8032,"Ġ\")":8033,"fileno":8034,"=',":8035,"apon":8036,"svn":8037,"ĠCL":8038,"ĠBUT":8039,"MODEL":8040,"sisten":8041,"Ġpretty":8042,"istribution":8043,"PU":8044,"Ġreturning":8045,"ĠStorage":8046,"dfs":8047,"generated":8048,"Ġdependency":8049,"setLevel":8050,"ĠAg":8051,"ĠDict":8052,"ĠGiven":8053,"tm":8054,"uous":8055,"Ġlogic":8056,"published":8057,"sigma":8058,"ball":8059,"Ġ22":8060,"Ġassigned":8061,"Ġgive":8062,"Ġshift":8063,"Ġfs":8064,"teri":8065,"Ġeas":8066,"Common":8067,"tid":8068,"Ġcp":8069,"Ġepoch":8070,"######":8071,"SERT":8072,"rigin":8073,"Ġdetail":8074,"major":8075,"addon":8076,"ENG":8077,"CHOICES":8078,"nl":8079,"Ġincludes":8080,"assertIsNotNone":8081,"udo":8082,"sib":8083,"lastic":8084,"lobs":8085,"Ġdialect":8086,"Ġexplicitly":8087,"onal":8088,"crypto":8089,"elf":8090,"Ġplain":8091,"Global":8092,"alice":8093,"Exists":8094,"Ġutility":8095,"509":8096,"retri":8097,"assemble":8098,"Ġfab":8099,"CONN":8100,"Ġexecutable":8101,"cra":8102,"Raw":8103,"lb":8104,"Ġfixtures":8105,"php":8106,"dates":8107,"while":8108,"Ġlonger":8109,"Flask":8110,"ĠCho":8111,"ĠLab":8112,"Ġgc":8113,"Ġprevent":8114,"descriptor":8115,"Ġflush":8116,"expires":8117,"\")),":8118,"Ġwon":8119,"Ġfire":8120,"jection":8121,"mpa":8122,"Ġformats":8123,"keh":8124,"Ġndarray":8125,"\"\"\")":8126,"paren":8127,"Ġagree":8128,"ipedia":8129,"Ġloading":8130,"Font":8131,"ILD":8132,"ĠSQLAlchemy":8133,"54":8134,"uncate":8135,"Ġiteration":8136,"ĠTex":8137,"SHA":8138,"ropy":8139,"rase":8140,"mmutable":8141,"Connect":8142,"Region":8143,"Cluster":8144,"INSTALLED":8145,"\"},":8146,"digits":8147,"chemas":8148,"shutdown":8149,"ĠVector":8150,"adapter":8151,"nc":8152,"urlopen":8153,"ĠFrame":8154,"........":8155,"BER":8156,"djang":8157,"POINT":8158,"Errors":8159,"Net":8160,"TRACT":8161,"Ġfixture":8162,"ordered":8163,"ĠUN":8164,"=[],":8165,"Ġabort":8166,"={},":8167,"ĠCalc":8168,"constructor":8169,"notes":8170,"Ġvisible":8171,"ArgumentParser":8172,"Ġhidden":8173,"ĠMax":8174,"answer":8175,"['_":8176,"artbeat":8177,"ĠNULL":8178,"udit":8179,"Display":8180,"Ġappear":8181,"auti":8182,"encoder":8183,"ana":8184,"usted":8185,"anded":8186,"quiet":8187,"Ġformatter":8188,"then":8189,"Ġ'{}":8190,"Ġlinear":8191,"afe":8192,"UTF":8193,"sually":8194,"saved":8195,"Click":8196,"ached":8197,"LIMIT":8198,"Ġterminal":8199,"Opt":8200,"Ġenum":8201,"tistics":8202,"ENGINE":8203,"qname":8204,"ĠMon":8205,"scr":8206,"#:":8207,"/(":8208,"VIDED":8209,"PH":8210,"ilo":8211,"dialog":8212,"KET":8213,"Ġimmediate":8214,"Ġsuccessfully":8215,"friend":8216,"ĠVariable":8217,"(_('":8218,"cryption":8219,"Ġ################################":8220,"logged":8221,"dynamic":8222,"asis":8223,"tras":8224,"xyz":8225,"Ġretrie":8226,"Ġpull":8227,"quation":8228,"wraps":8229,"Ġmuch":8230,"gination":8231,"consume":8232,"Tools":8233,"Ġdefines":8234,"Pos":8235,"pw":8236,"geometry":8237,"ĠEl":8238,"ond":8239,"cycle":8240,"Prefix":8241,"Ġprobably":8242,"heel":8243,"ĠZZ":8244,"shortcuts":8245,"HttpRequest":8246,"lour":8247,"coverage":8248,"verbosity":8249,"ĠForeignKey":8250,"ĠLink":8251,"Conf":8252,"bitrary":8253,"Ġcontributor":8254,"\"')":8255,"Ġdescriptor":8256,"Ġeventlet":8257,"Ġchannels":8258,"Ġregarding":8259,"Done":8260,"cross":8261,"ĠApi":8262,"Ġcharset":8263,"II":8264,"terminal":8265,"Ġaliases":8266,"Ġequivalent":8267,"WI":8268,"avigation":8269,"Sm":8270,"bidden":8271,"Ġsol":8272,"IX":8273,"flo":8274,"ĠMay":8275,"ĠHost":8276,"TC":8277,"Ġstub":8278,"ĠSec":8279,"Ġ10000":8280,"bold":8281,"Ġ'':":8282,"Ġcatch":8283,"Ġprocessed":8284,"corder":8285,"keeper":8286,"!\"":8287,"Cleanup":8288,"tip":8289,"Any":8290,"recipient":8291,"seudo":8292,"Ġnegative":8293,"ĠGenerate":8294,"Ġeasy":8295,"Ġlex":8296,"Ġsymbols":8297,"Ġdefinitions":8298,"(?:":8299,"ĠCOPYING":8300,"ropo":8301,"att":8302,"OLD":8303,"ancy":8304,"Val":8305,"topo":8306,"Ġ1234":8307,"atural":8308,"Ġls":8309,"Ġrecipient":8310,"ism":8311,"vim":8312,"Cookie":8313,"Ġcaller":8314,"ĠEngine":8315,"ĠLIMITED":8316,"seg":8317,"alive":8318,"Named":8319,"fsm":8320,"retty":8321,"Worker":8322,"^^":8323,"Ġasync":8324,"\":\"":8325,"ĠCreates":8326,"precationWarning":8327,"asm":8328,"ĠSu":8329,"dao":8330,"Ġownership":8331,"IE":8332,"Non":8333,"ĠVM":8334,"mited":8335,"plural":8336,"Ġmanagement":8337,"HEADER":8338,"Speci":8339,"dm":8340,"ered":8341,"Ġcard":8342,"UES":8343,"Ġarea":8344,"benchmark":8345,"Ġpending":8346,"Ġfilepath":8347,"Ġvol":8348,"Ġnodelist":8349,"Cer":8350,"pret":8351,"ĠJob":8352,"Ġports":8353,"CF":8354,"Gra":8355,"migration":8356,"exchange":8357,"exer":8358,"within":8359,"ssue":8360,"aker":8361,"ToMany":8362,"ECTION":8363,"Sheet":8364,"Ġred":8365,"Ġnargs":8366,"Ġwsgi":8367,"ĠColor":8368,"sqlalchemy":8369,"failUnlessEqual":8370,"Ġrect":8371,"memo":8372,"Ġremaining":8373,"ĠautoGenerate":8374,"Ġsimply":8375,"Ġconsume":8376,"ĠAssertionError":8377,"assertNotIn":8378,"lst":8379,"witch":8380,"former":8381,"ADMIN":8382,"ĠResult":8383,"Expression":8384,"caten":8385,"mpaign":8386,"fr":8387,"thumbnail":8388,"ĠcStringIO":8389,"Ġwar":8390,"Ġpycopia":8391,"////////":8392,"Ġfron":8393,"topics":8394,"Ġrestri":8395,"ĠDAMAGES":8396,"Title":8397,"human":8398,"oned":8399,"acter":8400,"dh":8401,"since":8402,"bars":8403,"callbacks":8404,"MAN":8405,"'m":8406,"57":8407,"_('":8408,"sf":8409,"Ġminimal":8410,"Decimal":8411,"Callbacks":8412,"Ġscalar":8413,"ĠSalt":8414,"Ġunless":8415,"ĠĠĠĠĠĠĠĠĠĠĠĠĠĠĠĠĠĠĠĠĠĠĠĠĠĠĠĠĠĠĠĠĠĠĠĠĠĠĠĠĠĠĠĠĠĠĠĠĠ":8416,"(_(\"":8417,"ĠStream":8418,"Ġlicenses":8419,"ĠIPython":8420,"providers":8421,"SES":8422,"Ġnb":8423,"YY":8424,"KeyError":8425,"Security":8426,"MQ":8427,"too":8428,"ĠFirst":8429,"ramid":8430,"asc":8431,"scriber":8432,"Ġlight":8433,"Ġprior":8434,"Ġwindows":8435,"Ġvalidators":8436,"Ġsuccessful":8437,"issues":8438,"Git":8439,"completion":8440,"Scale":8441,"][\"":8442,"gd":8443,"Ġ'?":8444,"negative":8445,"Windows":8446,"First":8447,"Convert":8448,"UTE":8449,"WARNING":8450,"verts":8451,"mr":8452,"Ġtraits":8453,"cells":8454,"56789":8455,"Ġdirectives":8456,"Ġreceive":8457,"\"\",":8458,"ĠEmpty":8459,"Ġruntime":8460,"levant":8461,"Called":8462,"Ġqual":8463,"diction":8464,"Ġstrict":8465,"!')":8466,"Mis":8467,"otal":8468,"CLIENT":8469,"au":8470,"Ġmeasure":8471,"registered":8472,"Ġfloating":8473,"books":8474,"Ġgradient":8475,"opro":8476,"Ġadds":8477,"UUID":8478,"docker":8479,"Ġchecked":8480,"Width":8481,"Ġ'..":8482,"Ġ21":8483,"ĠMAX":8484,"Ġuni":8485,"theta":8486,"serialization":8487,"Ġfinish":8488,"unused":8489,"Ġcodes":8490,"ACCESS":8491,"Ġsorting":8492,"Skip":8493,"=''):":8494,"lify":8495,"SSH":8496,"Ġsever":8497,"Ġprefixes":8498,"seen":8499,"Ġ^":8500,"ctree":8501,"PACK":8502,"keystone":8503,"grant":8504,"META":8505,"ĠArguments":8506,"Cmd":8507,"MY":8508,"Ġmiddleware":8509,"strategy":8510,"deferred":8511,"Ġcurr":8512,"rating":8513,"tablename":8514,"ĠPygments":8515,"Ġ{{":8516,"checks":8517,"footnote":8518,"fu":8519,"Ġclients":8520,"DataCacheFunctions":8521,"LANGU":8522,"stage":8523,"Ġ'$":8524,"ĠProduct":8525,":/":8526,"workers":8527,"ĠContentType":8528,"Ġpadding":8529,"lr":8530,"Ġdialog":8531,"bian":8532,"Ġserialized":8533,"Temporary":8534,"coord":8535,"ĠSchemaMigration":8536,"([^":8537,"ModelForm":8538,"domains":8539,"aggreg":8540,"ĠFIX":8541,"ster":8542,"Ġserved":8543,"deri":8544,"Cursor":8545,"AWS":8546,"BR":8547,"ĠLabel":8548,"ASES":8549,"products":8550,"une":8551,"ESSAGE":8552,"operations":8553,"assette":8554,"Ġfh":8555,"Ġstarts":8556,"Cor":8557,"horizon":8558,"Ġhandled":8559,"something":8560,"ĠAllow":8561,"Ġdeg":8562,"ippet":8563,"Ġmocked":8564,"ĠINCLUDING":8565,"Statement":8566,"SchemaMigration":8567,"DJANGO":8568,"ĠBlock":8569,"Del":8570,"ajax":8571,"Ġhist":8572,"achine":8573,"iteral":8574,"collections":8575,"Ġpassing":8576,"Ġlocations":8577,"zed":8578,"Ġstati":8579,"Dataset":8580,"Sets":8581,"Finder":8582,"ĠFree":8583,"ĠSerial":8584,"Ġmonkey":8585,"Ġnor":8586,"ĠSp":8587,"ĠHelp":8588,"pixel":8589,"authorization":8590,"iki":8591,"WID":8592,"receiver":8593,"focus":8594,"ĠRule":8595,"Ġfamily":8596,"urnal":8597,"distributed":8598,"mdao":8599,"logout":8600,"scenario":8601,"ny":8602,"vpn":8603,"alter":8604,"Ġordered":8605,"Arch":8606,"directed":8607,"lapsed":8608,"limits":8609,"SyntaxError":8610,">]":8611,"trait":8612,"general":8613,"Ġcertificate":8614,"Normal":8615,"perms":8616,"Ġbuff":8617,"avg":8618,"ĠPackage":8619,"101":8620,"ced":8621,"ĠQtCore":8622,"Ġ\\\\":8623,"creation":8624,"Attributes":8625,"Ġdfp":8626,"jinja":8627,"attemp":8628,"ĠAccess":8629,"speed":8630,"pd":8631,"tifier":8632,"ĠRPC":8633,"ĠfunctionList":8634,":],":8635,"Ġ----------------":8636,"Unicode":8637,"Authorization":8638,"border":8639,"ĠSend":8640,"Ġshare":8641,"Ġvars":8642,"udience":8643,"ĠPROVIDED":8644,"46":8645,"Neg":8646,"dtemp":8647,"([])":8648,"Ġaggregate":8649,"Ġtitles":8650,"FUN":8651,"Ġtar":8652,"Ġunused":8653,"Ġenough":8654,"Ġlst":8655,"Ġprocessor":8656,"trial":8657,"ĠRange":8658,"ĠNotes":8659,"BSD":8660,"ĠTri":8661,"ĠUti":8662,"Iterator":8663,"xhtml":8664,"stan":8665,"ENCE":8666,"semb":8667,"ene":8668,"ĠDeferred":8669,"solver":8670,"ĠinDataCacheDictionary":8671,"Ġplaceholder":8672,"Begin":8673,"xpath":8674,"Release":8675,"Ġsystems":8676,"alls":8677,"Ġjinja":8678,"ientation":8679,"clip":8680,"/*":8681,"mf":8682,"confirm":8683,"take":8684,"ronic":8685,"Ġpercent":8686,"ĠGeo":8687,"Ġstatist":8688,"voice":8689,"96":8690,"Ġaggreg":8691,"ĠCOPYRIGHT":8692,"ii":8693,"symbols":8694,"Ġwraps":8695,"Ġrhs":8696,"ĠMin":8697,"radius":8698,"-+":8699,"ĠEmail":8700,"Ġpositive":8701,"bg":8702,"Ġsudo":8703,"erature":8704,"bindings":8705,"Ġclassifiers":8706,"Ġ=>":8707,"Ġlaunch":8708,"ĠStack":8709,"ĠCreature":8710,"har":8711,"jected":8712,"removed":8713,"Ġ\"[":8714,"Ġscenario":8715,"tection":8716,"Ġincorrect":8717,"ĠJava":8718,"posts":8719,"containers":8720,"Identifier":8721,"USERNAME":8722,"PN":8723,"Ġrepe":8724,"realpath":8725,"ban":8726,"migrate":8727,"loaders":8728,"Ġsucce":8729,"encoded":8730,"MIS":8731,"Init":8732,"calendar":8733,"imen":8734,"bf":8735,"Ġinherit":8736,"tabs":8737,"annotation":8738,"stubs":8739,"pretty":8740,"OPTIONS":8741,"ĠEnthought":8742,"FE":8743,"ORM":8744,"makeOne":8745,"Ġprice":8746,"Sha":8747,"(\".":8748,"NOWN":8749,"!'":8750,"mouse":8751,"Ġ*=":8752,"PROTO":8753,"ĠDOM":8754,"chat":8755,"Ġcompatible":8756,"clause":8757,"ĠMySQL":8758,"Relation":8759,"Book":8760,"gamma":8761,"thrift":8762,"viewer":8763,"Chart":8764,"presented":8765,"robot":8766,"perform":8767,"ductor":8768,"ordering":8769,"__:":8770,"ouch":8771,"howto":8772,"ĠHttpResponseRedirect":8773,"mid":8774,"Ġwidgets":8775,"superuser":8776,"ĠCalled":8777,"codec":8778,"INDEX":8779,"999":8780,"Ġwerkzeug":8781,"ĠTexinfo":8782,"pow":8783,"cele":8784,"cts":8785,"TERN":8786,"ĠBytes":8787,"viding":8788,"/\",":8789,"=\"\"\"":8790,"MUL":8791,"xies":8792,"Ġcancel":8793,"ircuit":8794,"morph":8795,"Ġloss":8796,"Setting":8797,"Ġbenchmark":8798,"')):":8799,"ĠWhether":8800,"levels":8801,"168":8802,"ighbors":8803,"veri":8804,"Ġauthorization":8805,"entities":8806,"EG":8807,"Save":8808,"ĠDIS":8809,"LEV":8810,"('/',":8811,"Ġgeometry":8812,"IDDLE":8813,"Merge":8814,"wrong":8815,"Ġfragment":8816,"bc":8817,"Ġprecision":8818,"Async":8819,"Ġgs":8820,"ĠImple":8821,"minute":8822,"Ġclf":8823,"Msg":8824,"infra":8825,"fine":8826,"gc":8827,"unlink":8828,"Ġ\"\"\"\\":8829,"authenticate":8830,"ĠLay":8831,"linalg":8832,"ĠUsage":8833,"lette":8834,"###########################################################################":8835,"dimension":8836,"vlan":8837,"Ġhard":8838,"Creates":8839,"Split":8840,"alph":8841,"('{":8842,"ĠALL":8843,"pypi":8844,"ĠProtocolBuffer":8845,"Folder":8846,"Scen":8847,"illa":8848,"Ġtrailing":8849,"Ġxmlns":8850,"Ġcertain":8851,"hint":8852,"unity":8853,"large":8854,"stor":8855,"ĠcPickle":8856,"mpling":8857,"Ġdigest":8858,"Running":8859,"CD":8860,"Keys":8861,"Ġdeli":8862,"ĠSetup":8863,"dialect":8864,"yield":8865,"poses":8866,"Ġenter":8867,"ĠHas":8868,"RESP":8869,"ĠDateTime":8870,"letterpaper":8871,"Batch":8872,"lp":8873,"finite":8874,"todo":8875,"elery":8876,"CLASSES":8877,"kb":8878,"Ġcmp":8879,"ully":8880,"pider":8881,"Ġaverage":8882,"Children":8883,"DESCRI":8884,"Ġexactly":8885,"yy":8886,"Ġfailures":8887,"]',":8888,"Ġderived":8889,"aniti":8890,"exclu":8891,"cay":8892,"Stat":8893,"presentation":8894,"Flavor":8895,"RESULT":8896,"ĠCache":8897,"phi":8898,"ĠRandom":8899,"Ġvals":8900,"Ma":8901,"ĠĠĠĠĠĠĠĠĠĠĠĠĠĠĠĠĠĠĠĠĠĠĠĠĠĠĠĠĠĠĠĠĠĠĠĠĠĠĠĠĠĠĠĠĠĠĠĠĠĠĠ":8902,"ĠInst":8903,"ĠWITH":8904,"Accept":8905,"MI":8906,"Ġtt":8907,"markdown":8908,"routes":8909,"ĠMap":8910,"drivers":8911,"Ġbra":8912,"Ġscene":8913,"ĠSSH":8914,"Ġgdata":8915,"ctivity":8916,"allenge":8917,"potify":8918,"izations":8919,"dicts":8920,"notation":8921,"Ġfew":8922,"cks":8923,"ov":8924,"Timer":8925,"Ġwhole":8926,"()}":8927,"regions":8928,"Ġsentinel":8929,"measure":8930,"Ġcpu":8931,"urlencode":8932,"Ġpor":8933,"ĠWARRANTY":8934,"Ġdirector":8935,"deps":8936,"Ġdigits":8937,"OTE":8938,"WRITE":8939,"Ġagreements":8940,"copg":8941,"Ġgetting":8942,"Almost":8943,"AttributeError":8944,"BB":8945,"ĠSER":8946,"checked":8947,"Enter":8948,"ĠLaborator":8949,"']}":8950,"DIRS":8951,"Null":8952,"ience":8953,"ĠTop":8954,"Ġ(.":8955,"ocs":8956,"ticles":8957,"Operator":8958,"za":8959,"'](":8960,"Ġshard":8961,"bio":8962,"numbers":8963,"Limit":8964,",\\":8965,"hub":8966,"weet":8967,"Ġwebsite":8968,"hide":8969,"Ġdelimiter":8970,"Ġprops":8971,"Notification":8972,"ĠFIXME":8973,"(.":8974,"mgr":8975,"deprecated":8976,"Ġinf":8977,"Mar":8978,"SP":8979,"altern":8980,"Ġslash":8981,"curacy":8982,"Ġtmpdir":8983,"incip":8984,"Ġdaemon":8985,"ĠAP":8986,"Ġguess":8987,"ighted":8988,"erry":8989,"ellow":8990,"ĠLim":8991,"Ġface":8992,"Ġsqrt":8993,"([('":8994,"union":8995,"Ġ(('":8996,"Namespace":8997,"hours":8998,"Ġvirtual":8999,"Card":9000,"Edge":9001,"rollback":9002,"ganization":9003,"quota":9004,"Ġsubmit":9005,"Ġ300":9006,"Ġpygments":9007,"Ġliter":9008,"latforms":9009,"Structure":9010,"Ġpyg":9011,"Ġdirs":9012,"ailgun":9013,"zA":9014,"three":9015,"Ġintern":9016,"itation":9017,"Ġpaper":9018,"Ġcast":9019,"Space":9020,"Revision":9021,"Ġroles":9022,"Chunk":9023,"Ġlayers":9024,"magic":9025,"Ġcoordinates":9026,"irtual":9027,"rab":9028,"ĠTABLE":9029,"upy":9030,"parame":9031,"ĠParameter":9032,"nonce":9033,"micro":9034,"Ġam":9035,"Ġrepresented":9036,"ĠMicrosoft":9037,"Ġfilesystem":9038,"imation":9039,"Ġes":9040,"andra":9041,"ACTION":9042,"TODO":9043,"ĠRecord":9044,"Ġlive":9045,"Ġcustomize":9046,"FromString":9047,"Ġflatten":9048,"72":9049,"Ġpt":9050,"Manage":9051,"Ġfiltered":9052,"Ġmagic":9053,"58":9054,"Ġve":9055,"capt":9056,"ISING":9057,"Ġtail":9058,"AlmostEqual":9059,"JS":9060,"ĠACTION":9061,"pointer":9062,"Lost":9063,"ky":9064,"retries":9065,"Ġflex":9066,"Ġpie":9067,"Ġhorizon":9068,"vie":9069,"LOCAL":9070,"Related":9071,"Summary":9072,"Ġclock":9073,"Ġws":9074,"ĠĠĠĠĠĠĠĠĠĠĠĠĠĠĠĠĠĠĠĠĠĠĠĠĠĠĠĠĠĠĠĠĠĠĠĠĠĠĠĠĠĠĠĠĠĠĠĠĠĠ":9075,"\\\"":9076,"alert":9077,"ENABLE":9078,"://%":9079,"epub":9080,"Ġmanifest":9081,"ĠCase":9082,"ĠDATA":9083,"Linear":9084,"algorithm":9085,"Ġec":9086,"ĠSim":9087,"Ġartifact":9088,"certificate":9089,"QuerySet":9090,"oproject":9091,"slave":9092,"Ġ[{":9093,"pygments":9094,"Ġstatements":9095,"Ġcallbacks":9096,"separator":9097,"There":9098,"profiler":9099,"033":9100,"ĠMain":9101,"ĠBY":9102,"Ġacross":9103,"news":9104,"was":9105,"Ġopenmdao":9106,"ĠAsync":9107,"Ġfore":9108,"libs":9109,"locate":9110,"ĠSHALL":9111,"AML":9112,"reports":9113,"Ġblueprint":9114,"ĠLocation":9115,"TestBase":9116,"Ġproducts":9117,"assandra":9118,"ĠMet":9119,"vin":9120,"ada":9121,"Ġ256":9122,"ĠDO":9123,"Regexp":9124,"Ġauthenticate":9125,"processes":9126,"doctype":9127,"Ġtaken":9128,"Ġsending":9129,"WSGI":9130,"xc":9131,"tially":9132,"Ġcuda":9133,"Ġ-----------------------------------------------------------------------------":9134,":\")":9135,"TLS":9136,"repos":9137,"titions":9138,"')).":9139,"ICT":9140,"ipy":9141,"mpp":9142,"Ġpm":9143,"Ġsentry":9144,"artifact":9145,"mitive":9146,"Changed":9147,"reporter":9148,"ches":9149,"termine":9150,"dicates":9151,"obs":9152,"Ġselector":9153,"ĠCategory":9154,"fora":9155,"ĉĉĉĉĉ":9156,"Ġnotify":9157,"Ġbounds":9158,"Classifier":9159,"Ġ'(":9160,"Rest":9161,"Ġprojects":9162,"Credentials":9163,"ĠARISING":9164,"Ġspeed":9165,"Ġflash":9166,"Ġcoming":9167,"Help":9168,"digit":9169,"pyc":9170,"ĠProperty":9171,"Ġecho":9172,"raction":9173,"confir":9174,"Ġminutes":9175,"evaluate":9176,"Ġreplacing":9177,"loy":9178,"Ġacts":9179,"Decorator":9180,"ĠWHE":9181,"subset":9182,"ĠSettings":9183,"Area":9184,"Dest":9185,"Ġbuilding":9186,"Ġexpires":9187,"DD":9188,"vol":9189,"Ġdoing":9190,"Ġconsidered":9191,"TABLE":9192,"Ġmix":9193,"ising":9194,"atory":9195,"erring":9196,"?)":9197,"Ġfu":9198,"Objects":9199,"CCESS":9200,"clarative":9201,"('__":9202,"strs":9203,"HOME":9204,"Ġinstallation":9205,"gre":9206,"sts":9207,"isco":9208,"uestion":9209,"RGB":9210,"hasattr":9211,"Ġnative":9212,"Ġhit":9213,"OO":9214,"Ġ([":9215,"Register":9216,"ĠLIABLE":9217,"SIGN":9218,">/":9219,"maker":9220,"Ġgeom":9221,"aneous":9222,"buff":9223,"Decoder":9224,"protocols":9225,"Ġannotation":9226,"98":9227,"Identity":9228,"Shape":9229,"mg":9230,"Ġdom":9231,"unded":9232,"Ġhaving":9233,"Ġresolver":9234,"Ġparagraph":9235,"Ġlost":9236,"Ġoverridden":9237,"ĠWHETHER":9238,"]\\":9239,"weapon":9240,"Supported":9241,"Ġurlencode":9242,"tv":9243,"etry":9244,"Ġticket":9245,"restore":9246,"tested":9247,"teardown":9248,"assertDict":9249,"about":9250,"misc":9251,"Ġrenderer":9252,"offer":9253,"readlines":9254,"QUE":9255,"ĠFormat":9256,"calculate":9257,"Pattern":9258,"))))":9259,"Ġmatched":9260,"AGES":9261,"tzinfo":9262,"VS":9263,"mixin":9264,"unnel":9265,"ĠExtension":9266,"ranges":9267,"REQUI":9268,"Single":9269,"eriv":9270,"ĠCH":9271,"ĠNon":9272,"riteria":9273,"Ġradius":9274,"construct":9275,"=\"/":9276,"MSG":9277,"directories":9278,"Ġcustomer":9279,"Ġprom":9280,"Ġresulting":9281,"authorize":9282,"charset":9283,"ALLOW":9284,"silon":9285,"quit":9286,"Ġoutside":9287,"Side":9288,"](":9289,"Ġreload":9290,"Ġ31":9291,"DOWN":9292,"Repository":9293,"Zip":9294,"Ġ123":9295,"Xml":9296,"ĠStore":9297,"),(":9298,"Ġaccepts":9299,"lain":9300,"1997":9301,"=\"\",":9302,"Ġdp":9303,"----------------------------------------------------------------":9304,"desk":9305,"ĠGets":9306,"}/{":9307,"Ġ-----":9308,"Ġ###########################################################################":9309,"dictionary":9310,"Events":9311,"Next":9312,"PRI":9313,"ij":9314,"izable":9315,"ĠShow":9316,"bine":9317,"Ġ'\\\\":9318,"neg":9319,"BadRequest":9320,"PK":9321,"urable":9322,"health":9323,"ĠUI":9324,"ATTR":9325,"Ġcompiled":9326,"ADD":9327,"multip":9328,"factories":9329,"Ġintegers":9330,"Lexer":9331,"sr":9332,"Ġbel":9333,"Ġsoft":9334,"ĠCONTRACT":9335,"ĠProfile":9336,"splitext":9337,"Ġfrequency":9338,"illow":9339,"ĠGa":9340,"theses":9341,"Ġbasename":9342,"Ġregistration":9343,"Ġverbosity":9344,"Route":9345,"mpath":9346,"ĠRFC":9347,"Ġdepends":9348,"dirty":9349,"Ġrequirements":9350,"WIDTH":9351,"LC":9352,"RA":9353,"craw":9354,"swap":9355,"ĠTY":9356,"Ġissubclass":9357,"ĠStopIteration":9358,"Ġnn":9359,"djangoproject":9360,"pur":9361,"Ġdep":9362,"Ġindicates":9363,"terms":9364,"ĠOb":9365,"Console":9366,"Ġcompleted":9367,"Ġ(_":9368,"Ġdetect":9369,"nodelist":9370,"Resolver":9371,"Ġlearning":9372,"Ġcap":9373,"UPPORT":9374,"Ġcipher":9375,"asource":9376,"pared":9377,"MULTI":9378,"clusters":9379,"))]":9380,"ĠWith":9381,"Ġcompat":9382,"ynomial":9383,"URN":9384,"specified":9385,"Ġmultiprocessing":9386,"Ġgranted":9387,"Blob":9388,"Mail":9389,"inted":9390,"logical":9391,"Ġcycle":9392,"ĠRedis":9393,"Part":9394,"shake":9395,"Ġdates":9396,"quent":9397,"Ġmemo":9398,"Counter":9399,"Ġextend":9400,"Ġevalu":9401,"Alias":9402,"dating":9403,"Ġear":9404,"()['":9405,"vered":9406,"ĠContainer":9407,"Ġrecursive":9408,"EY":9409,"sic":9410,"Ġ|=":9411,"swift":9412,"Static":9413,"ulse":9414,"Ġproper":9415,"Ġmoduleauthor":9416,"iness":9417,"Ġcalendar":9418,"Ġinvoked":9419,"+\"":9420,"enium":9421,"()``":9422,"Ġband":9423,"aming":9424,"favicon":9425,"Ġcomparison":9426,"ualen":9427,"Mod":9428,"RST":9429,"rian":9430,"ĠGE":9431,"vendor":9432,"Ġol":9433,"Ġdx":9434,"communicate":9435,"IDDLEWARE":9436,"IMAGE":9437,"peer":9438,"outine":9439,"commen":9440,"ĠCurrent":9441,"52":9442,"visions":9443,"Ġpoll":9444,"notifications":9445,"atrices":9446,"schematic":9447,"spider":9448,"Ġnavigation":9449,".'),":9450,"Hub":9451,"History":9452,"Ġprepended":9453,"Decode":9454,"Ġindicating":9455,"Rpc":9456,"Util":9457,"xlsx":9458,"alone":9459,"Ġcf":9460,"votes":9461,"Ġcar":9462,"Ġcid":9463,"pyplot":9464,"blocking":9465,"tuples":9466,"rfc":9467,"variant":9468,"Publish":9469,"Ġfriend":9470,"Ġbecome":9471,"Ġlisted":9472,"queues":9473,"Ġupgrade":9474,"Ġinitialization":9475,"threading":9476,"ĠDomain":9477,"Ġperformance":9478,"TemporaryFile":9479,"tively":9480,"Ġgtk":9481,"pts":9482,"ĠCONTRIBUT":9483,"SESSION":9484,"kg":9485,"routing":9486,"formset":9487,"objs":9488,"crease":9489,"ViewSet":9490,"53":9491,"embed":9492,"into":9493,"invoke":9494,"(\"<":9495,"Ġ28":9496,"512":9497,"zure":9498,"Ġsin":9499,"ablish":9500,"cally":9501,"sensor":9502,"ĠValidationTest":9503,"land":9504,"ĠConfigParser":9505,"'ve":9506,"DNS":9507,"eta":9508,"hits":9509,"decoder":9510,"Ip":9511,"Ġjs":9512,"going":9513,"annotations":9514,"GP":9515,"anonymous":9516,"ĠWidget":9517,"caps":9518,"facebook":9519,"Ġnormalized":9520,"Ġlooks":9521,"Public":9522,"ZZ":9523,"ookeeper":9524,"Ġissues":9525,"written":9526,"Ġvisual":9527,"mx":9528,"Eval":9529,"Ġrefer":9530,"ĠMongo":9531,"smart":9532,"Ġmimetype":9533,"ĠCONTRIBUTORS":9534,"}')":9535,"tis":9536,"tax":9537,"intercept":9538,"literal":9539,"album":9540,"asket":9541,"rit":9542,"illing":9543,"Ġreleased":9544,"Ġtransition":9545,"sembly":9546,"ĠEnum":9547,"minutes":9548,"ARCH":9549,"Height":9550,"Analy":9551,"LEVEL":9552,"ching":9553,"Ġstage":9554,"Ġasyn":9555,"staff":9556,"ircular":9557,"Ġgzip":9558,"97":9559,"]{":9560,"another":9561,"Ġstand":9562,"ĠSince":9563,"Ġthroughout":9564,"Ctrl":9565,"crop":9566,"Ġproblems":9567,"Chain":9568,"Ġmount":9569,"']):":9570,"Ġobserver":9571,"Spa":9572,"inspect":9573,"Monitor":9574,"Fin":9575,"PAGE":9576,"Ġrepeat":9577,"(\"{":9578,"Ġsep":9579,"bsocket":9580,"Queryset":9581,"rottle":9582,"qos":9583,"Ġage":9584,"Ġfallback":9585,"atable":9586,"Ġdistribute":9587,"MPTY":9588,"assignment":9589,"BAD":9590,"hd":9591,"logic":9592,"serialized":9593,"Ġmesh":9594,"ĠInte":9595,"ĠEXPRESS":9596,"'<":9597,"audio":9598,"cn":9599,"zk":9600,"orical":9601,"Ġincrement":9602,"Ġconversion":9603,"Ġcos":9604,"modindex":9605,"TOP":9606,"always":9607,"Ġpg":9608,"vided":9609,"Ġshorter":9610,"REGI":9611,"Ġdifference":9612,"xform":9613,"Ġarbitrary":9614,"tracker":9615,"Ġspaces":9616,"restart":9617,"lets":9618,"fft":9619,"Ġscra":9620,"Section":9621,"Ġhighlighting":9622,"NULL":9623,"but":9624,"pyeq":9625,"Ġcontextlib":9626,"autodoc":9627,"Mapper":9628,"Ġclause":9629,"Install":9630,"Ġadapter":9631,"Ġtxt":9632,"pike":9633,"ĠAttributes":9634,"MAR":9635,"PUB":9636,"ĠCommandError":9637,"THE":9638,"numeric":9639,"dead":9640,"Ġsell":9641,"ĠManager":9642,"tivi":9643,"preamble":9644,"locked":9645,"ĠCONN":9646,"Checker":9647,"${":9648,"ĠBaseCommand":9649,"deserialize":9650,"assets":9651,"Ġzope":9652,"Ġdisplayed":9653,"Ġautos":9654,"Ġbinding":9655,"'\")":9656,"mut":9657,"Ġide":9658,"ĠOptionParser":9659,"Calc":9660,"]\"":9661,"touch":9662,"mmar":9663,"INSERT":9664,"Ġsubset":9665,"Ġtranslate":9666,"Ġ2006":9667,"hadoop":9668,"chr":9669,"Ġabc":9670,"RuntimeError":9671,"Ġframes":9672,"andidates":9673,"Ġsequences":9674,"Ġroutes":9675,"margin":9676,"ĠIntangible":9677,"ualenv":9678,"frappe":9679,"pan":9680,"Ġfsm":9681,"ĠUUID":9682,"trols":9683,"Additional":9684,"Axis":9685,"Ġhack":9686,"Ġvtk":9687,"rences":9688,"ĠProvider":9689,"behavi":9690,"ĠGenerator":9691,"Ġrestore":9692,"ĠCONF":9693,"Enabled":9694,"ĠCollection":9695,"dry":9696,"guid":9697,"party":9698,"policies":9699,"capture":9700,"Ġwebob":9701,"problem":9702,"SERVICE":9703,"Initialize":9704,"ĠBytesIO":9705,"403":9706,"Ġcategories":9707,"ĠSave":9708,"Ġfactories":9709,"Ġloads":9710,"2009":9711,"}]":9712,"',),":9713,"Ġmouse":9714,"ĠTCP":9715,"creds":9716,"through":9717,"ĠVAL":9718,"REAM":9719,"ĠURLs":9720,"mkdtemp":9721,"realm":9722,"Signal":9723,"difference":9724,"stock":9725,"unix":9726,"phase":9727,"Ġtoplevel":9728,"\"',":9729,"PA":9730,"tee":9731,"endpoints":9732,"ocab":9733,"Ġchr":9734,"working":9735,"COOK":9736,"NAMESPACE":9737,"postgresql":9738,"Ġexchange":9739,"Ġreads":9740,"QtGui":9741,"ToManyField":9742,"ah":9743,"fb":9744,"jit":9745,"Ġvec":9746,"addCleanup":9747,"posal":9748,"Pop":9749,"rome":9750,"Ġopp":9751,"();":9752,"Ġcookies":9753,"Ġnewline":9754,"Validate":9755,"ĠDisplay":9756,":,":9757,"fm":9758,"guest":9759,"}):":9760,"itable":9761,"Ġsigned":9762,"Left":9763,"each":9764,"given":9765,"vc":9766,"ĠWh":9767,"ĠJson":9768,"SCRI":9769,"Pi":9770,"ĠPrint":9771,"ĠBar":9772,")['":9773,"TRAN":9774,"Negative":9775,"FACT":9776,"Ġdemo":9777,"ĠTheme":9778,"ipant":9779,"Ġretval":9780,"inlineCallbacks":9781,"tearDown":9782,"Conv":9783,"Ġcanvas":9784,"Sim":9785,"ami":9786,"Intended":9787,"funcs":9788,"Ġapplications":9789,"Ġexpressions":9790,"XXXX":9791,"ĠWorld":9792,"defs":9793,"Forms":9794,"payment":9795,"bet":9796,"Ġnumeric":9797,"vey":9798,"Ġshall":9799,"compiled":9800,"foreign":9801,"centile":9802,"Rect":9803,"Ġdiction":9804,"Users":9805,"Workflow":9806,"(.*":9807,"Lines":9808,"Tags":9809,"Ġthird":9810,"INET":9811,"Ġteardown":9812,"webapp":9813,"Ġimmediately":9814,"NN":9815,"ldap":9816,"cep":9817,"('#":9818,"elastic":9819,"Ġexecfile":9820,"ĠOp":9821,"Ġmanually":9822,"Optional":9823,"Ġdevices":9824,"Ġcountry":9825,"51":9826,"Ġ(?":9827,"aves":9828,"Ġblue":9829,".*')":9830,"chanism":9831,"bing":9832,"Ġ\"{}":9833,"Ġhuman":9834,"Ġstmt":9835,"Ġprog":9836,"...\"":9837,"Ġmerged":9838,"Ġinvoke":9839,"Interrupt":9840,"ĠTimeout":9841,"continue":9842,"Ġcommented":9843,"dimensions":9844,"mooth":9845,"ILED":9846,"Sig":9847,"Ġmut":9848,"gene":9849,"Ġdecorated":9850,"Ġseparator":9851,"Ġdy":9852,"Ġduplicate":9853,"mapp":9854,"ĠMac":9855,"what":9856,"Disk":9857,"Ġanalysis":9858,"âĶĢâĶĢâĶĢâĶĢ":9859,"Ġsizes":9860,"rical":9861,"INPUT":9862,"Ġlar":9863,"REF":9864,"arest":9865,"imports":9866,"Ġlibraries":9867,"Ġnetworks":9868,"ĠTYPE":9869,"Ġ========":9870,"Ab":9871,"Ġmixin":9872,"ĠAudience":9873,"ĠKEY":9874,"Encoding":9875,"degree":9876,"Ġmigration":9877,"afka":9878,"Ġcoordinate":9879,"ORIZ":9880,"ysical":9881,"gyp":9882,"Ġreversed":9883,"Ġtrip":9884,"ĠLIABILITY":9885,"putVarInt":9886,"ĠEOF":9887,"wikipedia":9888,"Ġdashes":9889,"ency":9890,"photo":9891,"Ġtraj":9892,"Ġ128":9893,"ĠNameError":9894,"ĠElse":9895,"??":9896,"...\")":9897,"Ġtrying":9898,"Ġcleaned":9899,"recursive":9900,"Err":9901,"Ġcut":9902,"Ġinteractive":9903,"quot":9904,"Ġmaking":9905,"01234":9906,"SED":9907,"Ġzeros":9908,"Ġtouch":9909,"Ġgreater":9910,"expanduser":9911,"SING":9912,"Ġser":9913,"Ġmultip":9914,"Ġdevelopment":9915,"uby":9916,"Ġassignment":9917,"rouped":9918,"StubOut":9919,"Ġite":9920,"Ġcent":9921,"atever":9922,"=='":9923,"Redis":9924,"bam":9925,"Ġcrypto":9926,"sioned":9927,"Ġrs":9928,"{}'.":9929,"Ġspecifying":9930,"ĠCorp":9931,"recipe":9932,"lsxWriter":9933,"ĠCluster":9934,"RESPON":9935,"sal":9936,"Ġttl":9937,"company":9938,"Ġsheets":9939,"}))":9940,"\")]":9941,"ĠHelper":9942,"Ġcss":9943,"Ġtogether":9944,"ĠEntity":9945,"ĠHowever":9946,"Ġthough":9947,"hoo":9948,"weak":9949,"ĠXlsxWriter":9950,"ICATION":9951,"ropout":9952,"sms":9953,"ĠQQ":9954,"ggle":9955,"irth":9956,"locator":9957,"staticfiles":9958,"assertDictEqual":9959,"tls":9960,"Ġarticle":9961,"readonly":9962,"transfer":9963,"scriptors":9964,"Ass":9965,"ĠFail":9966,"filenames":9967,"Provides":9968,"Traits":9969,"xxxx":9970,"ĠFacebook":9971,"MESSAGE":9972,"ĠLaboratories":9973,"Word":9974,"Ġ'&":9975,"Ġsolution":9976,"Ġaccepted":9977,"FAIL":9978,"highlight":9979,"ess":9980,"Ġpredicate":9981,"Ġtextwrap":9982,"retrieve":9983,"$')":9984,"coll":9985,"Ġpay":9986,"modify":9987,"Ġseveral":9988,"Ġalert":9989,"parents":9990,"Ġfeel":9991,"styles":9992,"Ġlevels":9993,"Ġsing":9994,"ĠMust":9995,"untjac":9996,"Ġgoing":9997,"Ġqis":9998,"bias":9999}