#version: 0.2
Ġ Ġ
ĠĠ ĠĠ
ĠĠ Ġ
s e
ĠĠĠĠ ĠĠĠ
r e
i n
o n
t e
o r
s t
d e
Ġ =
ĠĠĠĠ ĠĠĠĠ
t h
se l
sel f
l e
m e
Ġ a
t i
e r
Ġ i
a l
- -
Ġ c
a r
e n
r o
Ġ self
m p
a n
Ġ f
ĠĠĠĠ ĠĠĠĠĠĠĠ
a t
) :
Ġ re
" "
Ġ th
Ġ '
u r
a s
g e
Ġ p
c e
ti on
de f
# #
Ġ s
Ġ t
se r
l i
in g
u e
Ġth e
or t
Ġ n
Ġ o
a me
Ġ in
c t
a te
l o
Ġ d
-- --
mp ort
u n
Ġ e
Ġ def
' ,
( )
f i
r i
c o
c h
Ġ b
Ġ m
Ġ w
_ _
p e
ur n
ĠĠĠĠĠĠĠĠ ĠĠĠĠĠĠĠĠ
t urn
s i
"" "
u t
n t
ro m
c k
r a
i s
u l
te r
ge t
i d
( '
n ame
Ġre turn
Ġ "
i t
a d
Ġi f
Ġi mport
Ġf or
e l
Ġt o
Ġ #
te st
o t
' )
Ġ T
as s
p a
f rom
## ##
Ġ """
on e
ser t
Ġ (
v al
v er
l a
e d
Ġi s
u p
m a
o de
q u
Ġa n
s s
i l
at a
se t
ĠĠĠĠĠĠĠĠ ĠĠĠĠĠĠĠ
Ġ h
c on
c l
k e
e ct
d i
o l
t y
e s
de r
---- ----
N one
v i
Ġe x
ul t
p p
e x
Ġ st
o d
g s
a tion
Ġo f
en t
= =
o p
si on
Ġa s
) )
b j
Ġ [
t a
c tion
me nt
re s
Ġ u
Ġ A
' :
Ġc on
b le
Ġ S
. _
i th
an d
a se
Ġ C
a ge
i le
r or
as sert
' ]
i c
h e
Ġ I
e t
val ue
Ġ test
v e
Ġ 1
cl ass
te d
Ġ L
r ue
Ġn ot
Ġan d
u m
q ue
l s
i mport
Ġ g
t o
) ,
ke y
in t
bj ect
ti me
pa th
[ '
Ġ %
" ,
h t
a m
x t
f or
b u
Ġ F
Ġre s
( "
fi le
t r
al l
Ġ *
0 0
u s
p tion
Ġ None
e w
Ġ _
en se
R e
ty pe
ar gs
el d
p ar
Ġ {
qu al
p ro
Ġ 2
Ġc o
Ġ or
l in
Ġd i
Ġ P
que st
o w
Ġ de
Ġb e
u b
Ġ 0
Ġ +
O N
en d
Ġ r
#### ####
e st
p t
li st
r ror
an ce
Ġ= =
lo g
Ġ -
E rror
te xt
" )
ĠĠĠĠ Ġ
ch e
p er
Ġ M
a pp
Ġ :
Ġf ile
Ġw ith
an g
i g
d ata
Ġ D
Ġn ame
Ġ __
f o
Ġ me
al se
p o
E qual
a ck
Ġ un
ic ense
re d
mp le
o ur
Ġm a
a ble
st r
re ate
fi g
Ġp ro
te m
m o
i se
s h
o c
ur l
i z
= '
o ut
assert Equal
y s
p ut
-------- --------
le n
== ==
m m
for m
pe c
Ġ get
li c
Ġ O
p on
ĠL icense
Ġ set
T I
p y
Ġas sert
u re
a ult
i eld
y pe
Ġ y
st ance
co de
Ġd ata
u le
Ġ B
ar t
h o
our ce
Ġ se
Ġ value
ad d
r y
t ri
E R
u th
w or
pon se
o bject
__ (
Ġ on
l y
li ent
Ġ E
d ate
f f
p i
Ġth is
g er
ct or
l ate
I N
t p
at ch
T rue
ĠĠĠĠĠĠĠĠ ĠĠĠĠĠĠĠĠĠĠĠ
u ser
s c
] )
i st
ode l
Ġa r
Ġ N
Ġe l
Ġf rom
T est
) .
ce ss
o ck
Ġel se
E S
k w
t ing
Ġ W
Ġ x
Ġ @
Ġ ra
Ġth at
th od
Ġu se
Ġo s
an ge
ce pt
te mp
r int
l l
j ang
I n
p re
in it
lin e
ss age
. .
] ,
Ġst r
j o
jang o
de x
Ġ U
u ment
b o
te n
Ġp ar
re nt
ĠT he
Ġp a
E N
in d
un t
a der
o u
lo w
ĠT rue
Ġb y
Ġ v
m l
f a
er ror
ver sion
n e
o m
c a
ĠĠĠĠĠĠĠĠĠĠĠĠĠĠĠĠ ĠĠĠĠĠĠĠĠ
Ġa t
( ):
re ad
kw args
` `
at or
p h
o k
C on
Ġw h
co l
m in
Ġ G
/ /
d d
ce ption
Ġra ise
i p
i f
lo ad
and le
od ule
Ġres ult
il d
Ġi t
di r
as k
Ġ R
s on
* *
Ġ key
par am
Ġ en
te nt
Ġ log
Ġc l
ro up
v ent
ta in
> >
li b
g in
p ort
an s
' '
c al
val id
vi ce
th on
b er
o re
0 1
res ult
A S
Ġa pp
ĠF alse
ar y
e c
u ti
" :
Ġc h
Ġ la
mm and
######## ########
un ction
Ġ l
Ġ V
Ġex cept
o s
ma ge
Ġ Re
re quest
ode ls
w a
Ġ )
ex t
Ġ* *
b ase
Ġu ser
Ġ list
vi ew
qu i
O R
Ġ time
il l
th er
g ht
Ġ 3
Ġre quest
d s
er y
at us
Ġ H
Ġp y
Ġo ut
. __
A T
= "
u te
a c
: //
Ġ <
op y
in stance
temp late
d b
TI ON
ĠĠĠĠĠĠĠĠĠĠĠĠĠĠĠĠ ĠĠĠĠĠĠĠĠĠĠĠĠĠĠĠĠ
st ri
i r
S T
Ġa re
se s
u st
en er
Ġp rint
Ġs o
b ack
con fig
a mple
p en
ti c
Ġ lo
Ġp ass
c reate
I C
L E
Ġun der
j son
o g
F alse
Ġo bject
Ġ len
de n
A R
Ġt ry
app end
a ve
ri te
sc ri
Ġw e
Ġd jango
z e
D I
un d
ctor y
ĉ ĉ
E x
a b
de d
up date
re n
form at
ser ver
Ġs ys
m s
iz e
ma in
ti ve
co m
ul d
jo in
fi eld
Ġs h
ce s
p la
c lient
Ġ ro
te s
ow n
n o
==== ====
k en
tri bu
Ġn o
f t
j ect
co unt
Ġh e
ting s
h is
ter s
a uth
tion s
() )
in fo
U T
ri ght
S E
d a
Ġ ('
Ġpa th
di ct
n ing
t tp
or m
w w
Ġco mp
Ġdef ault
qu ery
wor k
at tr
t s
f e
ĠĠĠĠ ĠĠ
') ,
Ġcl ass
a g
Ġ }
I T
fi c
co mp
l u
Ġ url
Ġs up
P ro
se d
( [
Ġt ype
i es
Ġ[ ]
ĠI n
w ith
si ze
Ġw ill
Ġc ol
c or
A N
re turn
Ġp re
R E
F ield
i m
andle r
Ġp er
pec i
Ġres ponse
def ault
c ur
re e
ter n
ra y
ĠI f
ar d
ate d
o st
um n
C o
m is
um ber
ti al
Ġn p
oc ument
st art
Ġc an
Ġh as
Ġd o
in dex
Ġ li
uti ls
n d
ne ction
r on
i v
m it
Ġn ew
Ġa ll
wor d
he ck
. """
m b
---------------- ----------------
Ġ[ '
ht tp
Ġcon fig
Ġa l
d u
Ġc reate
Ġma y
Ġfor m
str ing
t ra
() ,
Ġ{ }
un c
re g
ation s
Ġf ield
lo ck
Ġ k
ar get
s ub
e e
sion s
i tem
ht ml
n ode
u me
C ase
Ġ 4
i x
Ġme thod
me thod
Ġa dd
ĠT est
stri bu
Ġ .
Ġ{ '
S t
le d
res ponse
ĠT his
g n
s p
Ġh ttp
Ġs ub
ar g
a pi
r un
fi x
s ing
re ss
or y
Ġstr ing
b y
wa re
'] ,
Ġb u
Ġ K
pec ted
i al
M E
TION S
i te
w rite
le ment
T ype
g ing
Ġo ption
st atus
m an
ar ch
b el
ser vice
al ue
t le
* -
it y
ar i
A L
g roup
me ssage
Ġf a
ma il
Ġs peci
Ġdi stribu
sh a
le te
g ra
Ġy ou
Ġ- *-
ho uld
Ġ `
Ġc ur
R es
D E
th e
o bj
Ġf unction
Ġn ode
Ġ ``
or g
N ame
D e
ĠĠĠĠĠĠĠĠĠĠĠĠĠĠĠĠ ĠĠĠĠĠĠĠ
per ty
m odels
Ġar g
tribu te
pa ce
R O
fo o
Ġa c
qui red
Ġr un
Ġw or
g th
~ ~
st ate
an t
Ġd ate
fi l
I S
v a
er s
ader s
v el
Ġar gs
ho st
1 0
Ġm odule
m d
lin k
Ġs hould
ti tle
li t
ig n
Test Case
r ame
a ger
() .
pa che
par se
con text
object s
n el
cl u
'] )
ta ble
Ġme ssage
ul l
st a
d o
Ġ version
as h
Ġin stance
re ct
b s
Ġdistribu ted
I D
c all
ma x
Ġ' ''
c lo
a y
scri ption
ma p
i ch
ĠE x
Ġ error
r ans
>> >
Ġout put
Ġ line
] .
li f
d ing
n ot
m odel
ut f
e y
Ġ \
lo at
Ġ le
Ġb ase
co re
Ġ >
ang u
angu age
Ġ+ =
Ġp o
s u
M P
Ġm ock
' s
Ġc opy
ig ht
lu gin
od y
') )
lic ense
Ġ ..
in e
tr ing
[ "
D ata
all y
w e
u se
p s
Ġis instance
Ġuse d
Ġi tem
m odule
' t
1 2
Ġm odel
Ġsup er
lo b
re am
che ck
ro w
d is
p r
' .
ĠC on
Ġ 5
v ed
Ġc a
b in
Ġc ode
S er
n et
ul ti
o und
s ys
Ġm odels
to ken
Ġ z
i me
m y
con tent
Ġin t
u mp
it test
M odel
pro cess
name s
Ġn e
bu g
Ġs u
Ġst art
Ġe lif
Ġg o
ise s
ol s
M e
n er
Ġo ther
y n
} )
b e
re ctory
Ġa g
a ction
Ġc heck
o o
H O
" ]
i mage
c re
Ġwh ich
Ġc lient
and om
Ġd b
Ġin dex
n ew
Ġ Y
i code
le an
ar ray
po int
me n
ar k
Ġ /
or s
s g
re f
si gn
C h
Ġd is
pa ck
mo ve
F ile
ment s
Ġ j
up le
b ar
opy right
el p
F a
u al
A C
Ġ >>>
ĠĠĠĠĠĠĠĠ Ġ
o me
B ase
c s
a p
tr ans
Ġcon text
Ġcon tain
Ġ Ċ
Ġdi ct
d oc
s ource
Ġc all
ĠD e
Ġ text
P I
ĠU n
Ġa uth
Ġlog ging
type s
Ġo pen
le r
tr y
ĠS ee
ĠI S
: `
f unc
a x
la ble
fil ter
Ġ2 01
Ġe vent
lic ation
H E
R L
mo ck
c i
Ġd ocument
p rint
ft ware
S et
set tings
ti es
Ġex pected
op en
( (
sp lit
Ġvalue s
Ġi d
co mmand
t ro
co mm
y thon
U p
or ted
' ):
ĠRe turn
Ġ !
ww w
################ ################
p atch
pla y
ĠO R
Ġst ate
on g
pro ject
Ġwor k
Ġs ource
Ġre quired
ĠA N
Ġ X
out put
ĠC opyright
i on
a ch
it s
er sion
iv en
Ġcur rent
fi ed
Ġwh en
Ġh ave
le ction
con n
vi ron
Ġ |
Ġi mage
Ġan y
EN T
se nt
Ġ one
Ġc al
la y
Ġ! =
E D
que ue
ind ow
Ġfile s
Ġ end
e vent
Ġg ener
al s
le ss
i tial
en v
Ex ception
de lete
ut o
e p
T P
ut ure
Ġt ra
param s
ti ty
e qual
Ġ J
ur ation
S I
D i
M L
cl s
assert True
Ġi mp
a k
Ġ json
field s
U n
P ar
Ġcon tent
Ġr ange
is ter
Ġa d
p lo
Ġco mmand
F orm
Ġo bj
op tions
[ :
ch ed
tro l
la bel
tri b
Ġdate time
ta il
G E
ith er
** **
3 2
Ġset tings
mis sions
Ġma x
pla ce
ĠO F
ca che
Ġform at
} ,
Ġre g
V i
L ist
ar ning
len gth
t in
u ct
clu de
in ter
Ġ server
q l
Ġp age
F I
IC EN
Ġspeci fic
Ġ query
file name
pa ge
value s
======== ========
ump y
p ass
ICEN SE
if y
lin es
ĠC ON
ame ters
L O
Ġn umber
ĉ Ċ
Ġli mit
ra tion
Ġ valid
id get
Ġ up
lo c
c ri
Ġpar am
Ġw ri
s or
ock et
l at
r c
f unction
ser ial
alue Error
Ġl anguage
st ore
Ġpy thon
pro perty
ĠM O
che ma
R a
Ġoption s
Ġg iven
R AN
Ġe ither
ĠĠĠĠ Ċ
Ġ template
mb da
e mp
IC A
u id
d jango
: :
ari able
Ġb o
Ġname s
fa ce
Ġ ver
py thon
at tern
Ġo b
ad min
jo b
l an
Ġ --
in put
st ra
T TP
po st
K ey
Ġm atch
ist s
DI F
ad ata
t ask
Ġc od
Ġ Q
Ġm an
A D
ex ec
Ġ utf
to col
Ġ kwargs
u res
Ġon ly
E n
sha pe
ses sion
Ġcod ing
li ed
x y
N ot
U L
an nel
Ġarg ument
Ġre ad
" .
l d
u d
Ġma ke
clo se
ICA TIONS
Ġ view
r ange
res ource
ro ot
ta g
Ġc ls
p ri
lo cal
uti l
un k
de bug
ust om
6 4
ĠMO DIF
Ġ1 0
{ '
( *
ĠMODIF ICATIONS
S tring
Ġto ken
f uture
fe ren
Ġso ftware
00 00
co ding
bu ild
key s
ĠY ou
Ġb ut
at ure
M A
Ġt rans
Ġ ]
Ġin put
il ter
Ġm sg
Ġb ack
Ġt w
item s
ri ver
ĠAN Y
Vi ew
Ġt arget
ĠW AR
id th
ex ception
con f
t arget
l ass
c cess
ĠC o
el l
O T
I d
si tion
G et
col umn
P E
ĠP ro
Ġdi rectory
le ase
te ger
IN D
at s
U ser
ir st
er r
Ġ update
d f
r an
la tion
ms g
y le
co py
Ġa ction
m atch
ĠWAR RAN
Re quest
file s
IN G
v ar
A B
1 1
ate g
n s
T o
on ent
gin e
ff er
2 01
a ke
ent ry
n p
license s
TI ES
Ġpro vi
Ġdo es
a in
ĠReturn s
or age
ĠV ersion
N A
de nt
pre ss
n um
di tion
Ġg roup
L icense
Ġh ost
Ġu sing
ra w
Ġ vi
Ġper missions
ch ange
Ra ises
f ter
C O
(' /
A r
s ave
c y
Ġm ust
p k
Ġ' %
ra ph
sel ect
Ġt able
Ġin ter
Ġex ception
Ġs ize
cor d
pe ct
i mple
Ġt ask
s te
ĠP ython
S e
C ol
ĠĠĠĠĠĠĠĠĠĠĠĠĠĠĠĠĠĠĠĠĠĠĠĠ Ġ
ate s
t adata
i ter
h as
ĠA pache
Ġ' /
t op
Ġp ack
f ind
ĠWARRAN TIES
C E
H andler
iz er
he re
h andler
ĠW IT
R I
Ġ2 00
fi r
ur i
o us
ti v
le vel
assert Raises
Ġro w
P O
)) ,
Ġu ti
Ġpro ject
to ols
Ġh elp
Ġ q
Ġ 6
Ġob tain
HO UT
Ġm o
in al
ex ten
Ġst atus
Ġn umpy
ver se
') .
iz ed
L og
)) )
iz ation
Ġapp lic
= [
k er
T ime
Ġy ield
ĠĠĠĠĠĠĠĠĠĠĠĠĠĠĠĠ ĠĠĠĠĠĠĠĠĠĠĠ
si te
Ġin to
pe d
D O
test s
as ses
Ġwri ting
x ml
cur rent
e mail
con trib
va i
man ager
fo re
Ġhe re
m ber
M an
ma tion
Ġm in
us r
n der
Ġparam s
s a
or der
a pache
L ICENSE
Ġcon nection
Re turn
ol der
si t
par ser
b i
o te
Ġgo ver
ĠK IND
Ġfile name
Ġf irst
a th
~~ ~~
Ġimp lied
b ody
ra p
Ġo ver
reg ister
mis sion
o f
ĠB AS
ES T
con nection
qu en
us ter
Ġex p
ĠWIT HOUT
00 0
Ġin st
U S
i ck
P o
m on
re ed
2 5
li ance
le ar
he aders
Ġun ittest
o ther
p ub
Ġpar ser
C ON
auth or
pa rent
( _
h a
ol d
ch ild
Ġp ort
") ;
Ġt uple
c md
ile d
tribu tes
I O
< /
in x
Ġcomp liance
do main
cri pt
og le
ĠLicense d
k ip
Ġapplic able
Ġex press
ĠCON DI
at ri
" ),
ĠCONDI TIONS
Ġgover ning
op tion
T Y
ĠBAS IS
bo x
conn ect
'' '
sh ow
Ġd oc
m t
pre fix
ĠA r
ri d
d out
Ġt rue
Ġres ource
ol ume
la st
et work
Ġla w
Ġpa rent
ĠV alueError
pass word
Ġ lib
at ing
T he
Ġag reed
a st
fa il
f loat
al t
9 9
se arch
tern al
L o
Ġso me
p lugin
C lient
r ate
ph inx
Ġch ange
po s
Con fig
Ġpro cess
s pec
Ġ' '
Ġfield s
Ġset up
us h
Ġne ed
g ener
user name
i ve
le t
Ġm ore
Ġlimit ations
ĠB E
ĠĠĠĠĠĠĠĠ ĠĠ
Ġe ach
a re
men ted
Ġcol umn
) ]
vai lable
V alue
pack age
f rame
U N
b lock
Res ponse
ĠUn less
# !
Ġun icode
Ġhe aders
Ġc ase
u g
). __
Ġex ec
st ack
f la
scri pt
Ġre t
s o
c ted
s up
U M
O bject
ex ample
th ing
0 4
pp er
n ext
sta mp
atri x
Ġse s
Ġ ####
C T
ma ke
Ġla bel
ĠU ser
Ġ load
sta tic
feren ce
L I
orm al
AT E
Ġde scription
Ġe lement
it or
an ts
st ream
ol ute
ĠA dd
Ġresult s
p op
Ġwh ile
f low
r t
m ark
Ġ service
el per
ĠI mport
ol low
se nd
v o
ab s
l t
ĠM e
] [
n umber
s pace
Co mmand
d own
date time
Ġp ri
A dd
fi er
m ary
Ġc or
Ġ 8
yn c
ame ter
den ti
ver t
#! /
de scription
m ode
A uth
f y
Ġo per
I L
mo te
du ct
en viron
for mation
le s
ĠĠĠĠĠĠĠĠĠĠĠĠĠĠĠĠ ĠĠĠĠĠ
Ġm ode
F A
Ġses sion
vi sion
ction ary
s um
Ġb ody
f er
ex p
assertEqual s
N ode
Ġor der
o ff
Ġs a
le ct
add ress
Ġ.. .
n ow
ĠEx ception
Ġ' .
ck et
M ock
Ġ: :
Ġma in
AS E
r andom
stri p
Ġi mple
Ġf e
Fa ctory
re move
Ġ title
c er
u tion
( __
V ER
lob al
un ittest
res sion
ĠP ar
i ce
Ġw as
log ger
li ty
g o
Ġa bs
Ġobject s
si ble
Ġget attr
as ter
T ML
al id
ĠS t
ulti p
me ta
NA ME
Ġf loat
Ġf ound
Ġcon n
Ġlo cal
i e
Ġbu ild
Ġs y
Ġal low
per ties
net work
s with
U RL
c ase
ched ule
2 0
N o
Ġpack age
Ġ link
Ġto p
Ġs ign
Ġth read
con tain
ch o
g en
ĠL O
E X
low er
Ġ val
Ġa pi
Ġth en
r ary
ĠN ot
C H
I s
ĠT HE
lic y
ig h
IN E
li sh
lu g
at tribute
A t
arg ument
## #
Ġro ot
K E
ator s
Ġsh a
c an
Ġa b
in st
Ġla st
C reate
n own
a tive
Ġat tr
di rect
C lass
pre sent
Ġex tra
ur ls
is ted
u i
Ġex ten
et ch
en tic
Di ct
Ġtest s
Ġco unt
Ġs ame
f ault
e lement
ix in
Co mp
Ġt ag
3 4
A pp
ĠI N
ex cept
2 00
ĠĠĠĠĠĠĠĠ ĠĠĠĠĠ
bo se
_ (
Ġ( "
ti fic
Ġp art
gra ph
t on
id s
Ġse e
set up
Me ssage
as ic
tail s
m od
on t
ls o
Ġset Up
Ġp os
re ak
Ġpar se
A d
Ġres p
bo ok
ĠF or
ser ved
cal led
ex ists
Ġdi ff
read y
. "
Ġdef in
1 6
Ġco mm
ĠĠĠĠĠĠĠĠĠĠĠĠĠĠĠĠĠĠĠĠĠĠĠĠ ĠĠĠĠĠ
Ġa fter
h ash
able d
Ġn um
ĠB ase
i o
fir st
f g
ample s
ĠU RL
{ }
A Y
comm on
-------------------------------- --------
qui re
Res ource
B u
T H
Ġlog ger
ĠĠĠĠĠĠĠĠ ĠĠĠĠ
l ask
Ġch ild
ĠĠĠĠĠĠĠĠĠĠĠĠĠĠĠĠ Ġ
UL T
T ext
de l
d le
col or
ĠN O
w ar
con d
di c
Ġc lo
Ġ' __
der r
O P
re place
de s
Ġh andle
late d
Ġe d
ok up
st op
tin ue
Ġh andler
Ġf la
f ul
ĠĠĠĠĠĠĠĠĠĠĠĠĠĠĠĠ ĠĠĠĠ
Ġla mbda
Ġf ind
w idth
id dle
Ġpass word
Ġin fo
MP L
f s
-- -
sys tem
ateg ory
Ġde l
Ġco m
Ġar ray
i que
re q
ĠĠĠĠĠĠĠĠ Ċ
ĠA PI
plo t
error s
trol ler
Ġspeci fied
A TION
Ġ temp
[ -
Ġr andom
la tive
Ġs w
r ule
w h
Ġs p
Ġ[ "
T his
ĠĠĠĠĠĠĠĠĠĠĠĠĠĠĠĠĠĠĠĠĠĠĠĠ ĠĠ
c p
Ġy our
ĠĠĠĠĠĠĠĠ ĠĠĠĠĠĠ
5 0
__ )
Ġc md
Ġf unc
ĠĠĠĠĠĠĠĠĠĠĠĠĠĠĠĠ ĠĠ
f in
Ġca che
ĠS tring
co mple
is h
Ġ" %
Q u
form s
ĠW e
ĠĠĠĠĠĠĠĠĠĠĠĠĠĠĠĠĠĠĠĠĠĠĠĠ ĠĠĠĠ
mp ty
en gine
ĠA ll
Ġ ""
Man ager
p orted
C a
Ch ar
H TTP
'] .
p c
he ader
A P
en code
ext ra
ĠG et
a v
z er
Ġconfig uration
Ġf ilter
P ath
str uct
( {
Ġbu il
comp ile
ver y
Ġv ariable
de red
co pe
ca le
s ten
Ġargument s
. ')
Ġin itial
Ġin formation
Ġ qu
' }
d river
1 00
Ġcreate d
a ctor
I mple
p attern
Q L
o b
Ġ te
c li
time out
Ġf ollow
Ġ right
um my
Ġ 9
res h
ra pper
P ER
t xt
Ġre nder
Ġfa il
ing s
ter min
ex pected
**** ****
Ġa ct
ge x
Ġa x
or d
h andle
Test s
i str
n g
back end
Ġb lock
ĠS et
R un
Ġat tribute
Ser ver
Ġ 7
at ures
o uld
app lication
call back
set s
st yle
dition al
Ġpo int
Ġdata base
O C
den tial
ĠF OR
ĠC reate
pen den
class method
Ġor ig
Ġch ar
quen ce
exec ute
Ġo p
Ġabs olute
" ))
t ree
Ġit s
du mp
'] ['
Ġcol lection
ultip le
ĠImport Error
ĠT O
Ġcon tinue
i de
ĠD ata
I tem
FA ULT
di a
i b
. ")
E vent
Ġn on
ON E
Ser vice
s y
re po
Ġde st
Ġn ext
ĠA n
g it
ES S
Ġex ist
ul ar
G IN
u uid
he et
iddle ware
Ġtime out
T ER
te ra
Ġi ter
vi der
log in
Ġa uto
me tadata
Ġf in
-------------------------------- ----------------------------------------
Ġdi r
Ġreturn s
as si
ex it
ig ration
Ġlo c
Ġex ample
se n
z one
lat form
Ġa lso
sc a
ĠK ey
sha red
result s
ĠH TML
Ġw rite
M ixin
D B
Ġhas attr
S S
ro und
un icode
ect or
S ON
Ġc ustom
Ġthe re
SI ON
Ġa vailable
Ġhe ader
re pr
Ġof f
Ġc re
s ume
t w
fa ke
ĠS E
ĠĠĠĠĠĠĠĠĠĠĠĠĠĠĠĠ ĠĠĠĠĠĠ
Ġauth or
Ġsh ow
a ct
GE T
Ġin clude
2 4
Ġhas h
__ ,
o ver
Ġp ub
con ds
Ġpre fix
ĠE X
\ \
s chema
Ġp ost
in k
v es
am l
t rue
we b
Con nection
si de
c en
e ar
st dout
A l
ch ar
m ory
t mp
la mbda
Ġ entry
dir name
ĠT ype
arg v
loc ation
ĠF I
Ġ serial
U R
th read
sh ip
d ocument
Ġ job
el lo
ĠH TTP
pp ing
Ġsup port
Imple mented
T E
O ption
ch annel
Ġst ream
Ġen coding
A G
Ġ1 2
lo t
ol ver
user s
ing le
Ġo ld
arning s
ac tive
Par ser
Ġf rame
Q U
Ġ err
Log ger
] ))
Ġcal led
Ġ{ "
http s
ĠA t
on ly
in sert
ker nel
Ġdocument ation
ĠĠĠĠĠĠĠĠĠĠĠĠĠĠĠĠ ĠĠĠĠĠĠĠĠĠĠĠĠĠĠĠ
im al
Ġkey s
Ġs ocket
Ġpar ameters
Ġdi ctionary
cre t
L INE
Ġlen gth
ro p
A PI
Ġo pt
ĠC ol
ĠL ist
as sed
li ce
ge st
= ['
ĠIn c
b a
L Y
fa ctory
comm it
v en
TY PE
F or
Char Field
T rans
Ġw here
i k
li ter
ĠĠĠĠĠĠĠĠĠĠĠĠĠĠĠĠĠĠĠĠĠĠĠĠ ĠĠĠĠĠĠ
G roup
ta gs
Ġbe fore
. ,
Ġt a
start swith
ĠA UT
ce iv
Ġli ke
ri de
) ):
Ġadd ress
0 2
Ġcall back
Ġ> =
Ġe mail
co der
( ['
ĠG ener
plo y
= {
Ġb reak
view s
P AT
da y
Ġrequest s
B U
St ate
Ġp la
Ġitem s
di ces
i mp
Ġac cess
Ġn etwork
M O
bo ard
= (
A c
an el
] :
Ad min
` .
ac cess
C all
Ġle vel
a ti
y load
t uple
Ġmethod s
istr y
DI R
ĠC h
r s
o ok
Ġth an
Ġuti ls
Ġse arch
li mit
as on
Ġs ix
te x
Ġp lugin
c lean
C L
Ġa ss
Ġtw o
stra ct
ĠO ption
z y
Ġtype s
ex c
by tes
ĠE n
t x
ĠR es
assert False
s w
', '
Ġcol or
ĠT H
ran ch
Ġp attern
Ġs cript
P er
de code
a ded
di ff
KE Y
s rc
P RO
T O
emp late
exception s
ta ch
ra ises
3 3
Ġen v
re c
Ġf ull
/ %
T R
Ġ lines
In stance
t ot
ĠS er
= %
ĠN o
Ġbe en
OR T
Ġn ow
tra in
Ġerror s
", "
ph a
S D
Ġ' --
N D
Ġ' _
w d
ren der
t ml
Ġ queue
ĠNot Implemented
g r
s ure
lan k
T h
st ats
del ta
pro file
AT ED
Ġse nd
Ġ' -
i ces
Ġ license
I P
5 6
gra m
xt ure
Ġre present
ight s
i pe
me mber
Ġre f
.. .
1 8
O ut
te p
str u
de v
u sed
ol y
: %
qui res
b ind
F rame
ĠI MP
E lement
f fix
Ġsys tem
U P
Con tent
Ġre q
per i
u red
Ġimple ment
( {'
group s
' ^
O G
Ġco mple
de vice
te red
Ġ &
ve lo
ĉĉ ĉ
ug h
Ġt ree
In dex
node s
st orage
ĠI t
O F
a uto
Ġm ark
Ca che
Ġdo main
Ġma p
ĠA pp
( ?
po ol
load s
s ocket
al led
un ter
re t
3 0
C heck
f n
Ġwith out
op er
l ing
Ġwe b
f ull
F rom
Qu ery
Ġapp lication
w indow
TI CE
ge d
w idget
Ġ $
D ate
l ue
ceiv ed
( **
Ġreturn ed
le ep
Ġe mpty
Ġ} ,
Ġde tails
liter als
wor ds
cl asses
Res ult
Ġre po
Ġ ON
Ġr ule
T ask
Ġde lete
Ġf oo
ĠAr gs
w ner
Ġex c
Ġs pec
E L
ĠNO TICE
W ith
Ġe q
v olume
cl uster
B y
1 5
Ġp assed
dential s
off set
assert Is
s ql
ĠTH IS
i ff
ac count
ĠP y
valid ate
A ction
Ġre lative
Ġ --------
me r
__ ':
Re g
to m
P re
viron ment
message s
a it
Ġtw isted
i ble
ys tem
Ġb in
add r
re quired
ist ory
ĠS e
ri es
w ise
Ġuser name
Ġal ready
n on
an o
com ment
ro ugh
in ce
s m
Ġ1 00
ith ub
ec ted
ser ies
ĠTO DO
Ġre verse
================ ================
li ke
Ġ' \
ul ate
den tity
b ot
si mple
oo lean
ĉĉ Ċ
Ġp atch
sh ot
bi lity
Ġre move
Ġs imple
Con text
v ate
u ter
ĠI F
PAT H
it ch
PO ST
Ġst yle
re en
Ġat tributes
sit ory
re lease
ra g
lay er
s age
Ġg raph
+ )
ti m
bu il
Ġprovi ded
ro ute
Ġs ql
ca use
emp ty
Ġs ingle
ĠNotImplemented Error
Ġi m
h elp
ok en
pre c
: ]
id x
contain er
ge s
5 5
G ener
bu ffer
Ġj ust
1 4
Ġ ge
pro xy
an not
V alid
en coding
Ġd on
ol ve
or ig
Ġch annel
F OR
ut ton
DE FAULT
si s
ok ie
m i
r and
ĠC heck
late x
ĠE ND
w ard
Ġ sel
s ue
ĠDe fault
Ġ< =
Ġst a
denti fier
Ġdiff e
c ry
de st
Ġh tml
in itial
c ent
" ],
O r
H e
z ip
ĠS o
s v
le ft
col lection
s q
Ġla y
child ren
ĠFI LE
Ġurl lib
Ġstr uct
EN ER
Ġme tadata
'] :
p end
or ter
8 0
D own
D is
= {'
ore ign
module s
clo ud
ce back
Ġm y
Ġgener ated
oc i
t al
" ):
es sion
Ġi p
Ġs ure
E T
st derr
g reg
Ġ} )
UM ENT
I mage
ti l
" ])
ut able
a il
al i
T able
b it
Ġc ho
ste ad
tri c
op ts
di rectory
Ġme ta
con st
A nd
Ġver bose
di fied
im um
ed i
s kip
so le
C ode
Ġby tes
p l
in valid
an y
w rap
ction s
Ġm app
get Logger
ri ter
Ġpar ameter
point s
Ġfollow ing
S ta
al y
Ġw indow
ĠM ock
Ġb et
che my
S ub
e ff
Ġ ###
Ġd type
ra tions
ĠA uth
Ġpath s
Ġ' ',
comp onent
Ġ Z
ic s
S ER
s lug
Ġfa ke
A n
ĠF ile
di st
Ġsha pe
u x
1 9
ang ible
ER R
Ġa li
wa it
Ġx ml
Ġre cord
L ay
s ample
sume r
s ort
Ġoption al
---- ---
su ccess
s ome
par t
test ing
LE ASE
Ġd own
################################ ################################
stra int
D o
] ['
ĠD E
cur ity
ke ep
Ġw idget
Ġfunction s
s heet
Ġinter face
Ġg lobal
ic al
) [
X X
Ġra w
di v
ax is
AB LE
tot al
Ġd f
In fo
] ),
ri c
A MPL
A s
Ġ select
Ġpro perty
Ġcontain ing
po sition
mo st
ĠI P
L oc
ĠP er
In valid
n ap
ĠBE GIN
Ġthe y
W AR
AMPL ES
ĠD OC
M S
Col umn
r f
Ġl ong
F ilter
In teger
0 3
Ġsub process
op t
Ġthe m
Ġc lean
Ġ% (
and ard
ĠI D
s phinx
S h
v or
def in
Ġfor ms
L e
Ġs orted
attr s
res p
ue ue
ct x
Ġt ri
el se
B o
f etch
Ġz ip
is sing
al low
S u
ĠR un
In ter
event s
Pro perty
RO PER
ĠSE E
nt ax
ENER ATED
Ġsw g
V ersion
Form at
1 3
Ġb ar
ĠDOC UMENT
lo op
st f
Ġswg py
ĠD ONE
ĠM AY
~~~~ ~~~~
Ġcor rect
O K
Ġs alt
ĠP LEASE
ste p
ĠEX AMPLES
c ies
Con tain
OG ENERATED
ĠON LINE
ĠAUT OGENERATED
2 2
Ġdis play
dis play
ĠDOCUMENT ATION
ĠLO ST
ĠIMP ROPER
ctor ies
log ging
stf Name
ĠIMPROPER LY
Ġmessage s
Ġgener ate
ĠH ttp
i tion
N O
w n
ir s
inst all
Ġin clu
T EST
D es
ĠO pen
Ġbe cause
F O
le ctor
Ġf il
Ġthe se
Ġcon st
we en
re p
Ġst op
( -
Ġm on
Ġcomp onent
time stamp
Ġw ant
abs path
on ce
ho ok
tic le
ĠCo mp
re cord
Ġs ave
AC K
dump s
Ġnode s
j a
d type
Ġs um
Ġsta tic
pro tocol
vi ous
Ġdi re
Ġex ists
N umber
Ġad min
if t
Ser ial
F unction
j s
ro le
Ġto tal
chedule r
l ush
ĠN ame
Ġback end
w in
g or
se cret
il y
Ġlo ok
Ġdi st
Ġ' ,
" >
s peci
F ound
k nown
un it
m aster
Pro cess
' })
Ġin stead
f older
pub lic
Ġv ar
Ġ" /
c le
g ithub
data base
Ġp k
g ument
p u
. *
nt ry
c at
$ ',
Ġin teger
Ġbo ol
l anguage
v m
Ġch unk
D AT
pro perties
ĠA d
che me
A ll
Ġ' <
D S
ser v
Ġdoes n
al og
Ġ ter
li ght
g ger
US ER
At tribute
sh ort
Ġde bug
S tr
FI LE
Ġ ),
re st
h elper
BU G
ĠG o
comp ute
Ġp ick
wa ys
d ot
ow er
F F
a a
ĠType Error
gor ith
po licy
row s
ĠAt tribute
V alueError
O S
res ses
in s
Ġab out
ĠPar ameters
le x
se ction
n ormal
fil ters
ĠD jango
Ġp h
se e
ot o
oreign Key
c c
] ]
ĠO r
L ine
Ġinst all
N S
he ther
ab c
app s
h en
c lear
sh ould
tiv ity
mb ol
Ġpage s
Z E
c ss
Ġstring s
ĠN ote
di m
Ġuser s
gn ore
Ġcontain er
create d
A GE
le ted
Ġad ded
ĠD ocument
port s
ĠA s
F e
Ġta gs
T ra
ĠĠĠĠĠĠĠĠĠĠĠĠĠĠĠĠĠĠĠĠĠĠĠĠĠĠĠĠĠĠĠĠ Ġ
Ġthe me
ĠMe ta
ex pr
m ulti
id den
Ġt mp
V AL
Ġn ormal
exten d
Ġcl asses
or k
he ad
x x
entic ation
pro vider
c la
tra ck
ti fy
en ch
Ġcon f
column s
Pro tocol
% (
u ff
[: ,
Ġde vice
Ġdefin ed
ta ct
lo ader
ĠĠĠĠĠĠĠĠĠĠĠĠĠĠĠĠ ĠĠĠĠĠĠĠĠĠĠĠĠĠĠĠĠĠĠĠ
Ġf lask
in ation
ĠJ SON
Ġs pace
'] [
Ġw idth
Ġexten sion
m k
e val
O L
F la
t c
pro duct
ch unk
e q
Ġw arnings
Ġex pect
Ġoff set
Ġth rough
ig rations
fla gs
er o
image s
Ġre direct
Ġun ique
} .
W idget
R ES
A M
ĠCon fig
resource s
() [
Ġs ort
Ġact ual
tem s
ĠL ICENSE
S C
Ġpro tocol
Me thod
Ġbe ing
Ġ" .
In put
Ġst ore
label s
cur sor
. '
= _
Ġre mote
Ġs ite
ag ent
s pa
nap shot
Ġo ur
s ted
ad o
tific ation
ERR OR
re al
") .
Ġse ction
7 8
vo id
ĠN OT
Ġs rc
p id
en tity
AL L
y p
le m
assert In
ent ries
Ġdiffe rent
path s
E d
S ize
si tive
Ġorig inal
ab el
St atus
the me
si g
P lugin
package s
at tributes
Ġvalid ate
fi t
Ġcollection s
ĠCol umn
ten ant
Ġx range
ĠString IO
Ġuti l
f d
AS S
ca st
sa fe
Ġloc ation
W OR
IT Y
Ġcl uster
ed it
wa y
Ġ[ (
penden cies
Ġsu ccess
Return s
Ġin it
Ġtime stamp
C RE
Ġ2 0
doc s
Ġ-------- --
e ction
Ġen ume
M odule
m ask
Ġpla ce
EN D
V er
' },
b atch
Ġ ):
s cope
Ġ1 6
re set
Ġ" \
Ġe very
Ġcontain s
_ ,
ro ss
o auth
li te
Call back
Ġf i
TI C
e g
names pace
P y
l ong
s leep
Ġ' {
SE T
Ġcolumn s
Ġs m
Ġs chema
ĠĠĠĠĠĠĠĠĠĠĠĠĠĠĠĠĠĠĠĠĠĠĠĠĠĠĠĠĠĠĠĠ ĠĠ
war ds
) ])
u ch
Ġc li
re l
me d
v ariable
ĠRe quest
Ġpo sition
Ġname d
---- -
Ġcur sor
re r
plugin s
Ġt ake
action s
g ate
to ol
ut ron
LO G
O n
Ġbet ween
lin en
ĠV alid
P L
st d
ĠS phinx
c fg
Ġse cond
P ORT
G I
he ight
Ġevent s
c r
si ty
o se
__ .
return s
g h
Ġg en
t od
Ġ[ ])
Ġsup ported
n ull
m atrix
/ '
Ġthe ano
Ġv ari
man age
Ġst dout
Ġnames pace
Ġre place
E nd
Ġs tep
Ġpy test
C P
Ġbase d
im g
- %
Ġ ti
de cor
Ġf n
Ġs kip
fer red
ĠB SD
Ġde cor
or n
s l
TI ME
de sc
Ġco re
g ress
p th
bu f
Ġrun ning
T oken
Ġm od
Ġg ra
Ġlib rary
`` .
d ar
tri cs
da p
VER SION
Ġpos sible
} '.
r type
ver age
bu cket
t k
g ments
(' \
ĠL o
re lated
ST R
jo bs
Ġs ample
Ġc tx
b ad
O pen
i ent
ti tem
B ack
Ġh ow
fic ation
Ġ201 5
um b
Ġac count
Ġexception s
ut or
mo ved
/ ',
Ġf alse
Ġcon vert
() ))
Ġcom ment
ĠP o
ol ution
fe atures
Ġst ats
Ġen tity
reg ion
ish ed
EX T
R o
w s
me an
P age
p ol
ho me
Ġax is
4 2
Ġfin ally
h ex
Ġpar sed
) '
Ġlink s
Ġst ack
Ġpro b
re mote
Ġp lt
Ġenume rate
IT E
Ġ" __
ĠG roup
(' %
cor ds
f mt
es ted
1 7
T ree
S H
sg i
Ġm ultiple
re direct
de tail
si ve
al chemy
ri tems
0 5
b asic
W indow
s core
ĠT h
ĠM y
r l
I nt
Ġ201 4
U B
pub lish
ĠKey Error
ation Error
Ġattr s
Out put
feren ces
Ġapp ro
Ġdefault s
I G
O ne
Ġtest ing
Ġdocument s
Ġpro file
> '
fi xture
gener ate
get text
Ġno va
static method
ra m
Ġn ull
ĠI mage
Add ress
N G
h ello
for ce
ra ise
SI ZE
li sten
Ġgo ogle
Ġ keep
ag ic
Ġm atrix
se c
c ard
m ar
M M
ĠSo ftware
Ġc er
ĠGo ogle
lo okup
Ġfor ce
E C
S ession
con troller
or ity
inter face
c ustom
Ġright s
Ġme mber
Ġle ft
li me
re verse
Ġfa iled
Serial izer
pro to
Ġtra in
row ser
to re
local host
Ġchar ac
ĠM odel
u de
page s
ĠTest Case
Ġw x
6 0
sca le
v s
ver ify
Ġhttp s
Ġman ager
W S
Ġreg ister
change d
a f
Ġw ait
in dices
st at
Ġa ut
` ,
lic it
template s
sign al
A UT
Ġg it
pattern s
ma c
per mission
v is
St ream
Ġcontent s
y ear
Ġh igh
en abled
n one
linen o
yn am
Po int
Ġclo se
Ġag ain
h er
Ġpo ol
par ts
se q
I M
ar Down
p latform
u ally
e ve
4 04
du ce
o red
par ameters
ne cted
ĠCo mmand
Ġsp lit
Ġd t
la b
g ment
P C
Ġv olume
T emplate
Ġ- >
li ties
sign ed
Ġ join
) "
4 4
V E
Option s
Ġpro perties
O per
F oreignKey
d t
ha vi
Ġexec ute
Ġi gnore
content s
Ġre al
ĠA l
Ġc fg
ver bose
Ġass oci
in clude
DE BUG
(' .
C lo
gorith m
() ),
pi pe
Ġre served
' re
s alt
po se
T ag
Ġen code
und le
go ogle
ta b
pen dent
ĠEx ample
Ġmodule s
ser ve
Ġin valid
Up date
Ġcomm on
Ġd river
ĠT o
Ġsign al
Ġmo di
agic Mock
8 6
no red
12 34
bo ol
Ġper mission
ong o
Ġm ulti
Ġst ri
c ing
c b
Ġimplement ation
ĠAttribute Error
I f
Ġre lated
ĠU se
) ;
Ġpart s
stru ctor
se conds
Ġcal lable
Ġre tri
r pc
penden cy
Ġvariable s
M igration
Un less
Ġre st
ed s
default s
ord in
******** ********
Ġlo ck
__ __
Ġw hether
re port
Ġthe ir
g rid
pi ck
p g
ĠT ime
s amples
su ite
') ),
ti st
un ch
n umpy
Ġre ference
Ġcommand s
Ġb lank
(" %
an ti
g round
G raph
S ource
Ġse nt
Ġ ],
re gex
X ML
Ġu uid
exten sions
S QL
Ġ# :
__ ()
ĠD i
Ġse conds
ĠĠĠĠĠĠĠĠĠĠĠĠĠĠĠĠĠĠĠĠĠĠĠĠĠĠĠĠĠĠĠĠ ĠĠĠĠ
g f
fa ces
ĠM ake
Ġs ince
Ġb atch
res pon
cs v
u di
0 9
co ls
ro t
ou ble
Not Found
ome try
Ġen vironment
de o
ĠS ub
Ġthread ing
task s
or iz
Ġconn ect
Ġwh at
ma tic
ign ore
own er
Ġ201 3
zer os
Ġ' ')
Ġpro duct
O UT
c ategory
Ġw rap
Ġse quence
Ġfla gs
Ġdi rect
Ġsh ort
peri ment
W e
Ġan other
ĠR E
n u
Ġ late
Ġtemp file
ance l
ĉĉ ĉĉ
Ġdis able
v ing
Ġc types
P S
Ġsu ch
2 3
Ġn et
ix ed
Ġver ify
Ġchange s
s k
me dia
prec ated
Ġfa ctory
M iddleware
ĠO S
ĠQ t
Ġoper ation
f lush
(' -
f alse
Ġw ho
re quire
Ġset ting
Ġma th
ĠS QL
Q ueue
U E
en ter
bo ve
Ġdi vision
table s
:` .
t z
pa re
py test
ĠR a
ex pi
Ch ild
Ġinstance s
mo unt
P a
ĠO n
data set
M ap
MA X
xt ures
ĠN ode
end point
th is
scri be
25 5
p b
lo aded
ce ll
Ġse n
ten sor
Ġexist ing
RO M
Ġcomm it
Ġlog in
Ġg lob
set Up
se curity
# ------------------------------------------------------------------------
ur ing
command s
Ġun it
Ġs k
i ed
Ġpa yload
fi ers
bin ary
V I
Ġdata set
LO C
Ġman ual
ali as
me di
Ġupdate d
Ġro le
var s
Ġpre sent
8 8
di ent
bo ot
RO OT
li m
Co unt
ase s
WAR E
ĠB u
ute s
v ari
pa yload
' \
exten sion
Ġlo op
Ġin s
Ġre ason
ĠQ u
, )
ss l
link s
Sta ck
ch ain
AN D
si x
Ġme r
ĠOption s
D F
Ġre port
ma th
S ystem
w arning
Ġdef er
b ed
f name
d at
Ġpro xy
Re ad
ch ine
G L
g lobal
or ies
mp y
de ploy
De fault
i ver
Ġp ipe
di re
Ex ec
Ġ uri
Ġend point
re ference
con trol
mp t
Fa iled
Ġbo th
comple te
la zy
Ġp lot
reg istry
ust ome
Ġfil ters
up load
Ġtuple s
H ttp
################################################################ ########
Ġs im
en ce
Ġsh util
Ġmapp ing
vi rt
l int
OR S
Ġtemplate s
Th read
AN G
ar ge
Ġr v
cho ices
AUT H
request s
trans lation
Ġvi a
ynam ic
Ġ kw
trans port
ĠHttp Response
Ġw ay
Ġi o
dis patch
Ġst derr
(" /
ĠĠĠĠĠĠĠĠĠĠĠĠĠĠĠĠĠĠĠĠĠĠĠĠĠĠĠĠĠĠĠĠ ĠĠĠĠĠĠĠ
h istory
Ġst orage
ite ritems
Lay er
a fter
Ġc ategory
m iddleware
Ġid x
ble m
tern et
FOR M
Ġrow s
Ġs ide
TI NG
Ġhe ight
velo p
r r
M o
} }
y aml
Ġwor d
ist ration
D U
Fa il
top ic
r b
Ġpri mary
ti tion
Ġe val
in f
Ġw rapper
service s
c d
g a
Ġw ould
Ġre p
ha pe
h s
Ġi g
Ġbuil tin
Ġsu ite
i er
fa ct
u ted
Ġal pha
__ ":
is tered
time Error
w ik
Ġfe ature
L en
s ock
co un
St art
copy right
ct ype
Me ta
ĠLO G
Ġbin ary
Se arch
C S
C l
ĠS imple
Ġco uld
ĠD o
Ġ[ ],
Ġ_ ('
St orage
B e
Ġcon trol
ur al
M IN
Ġ_ ("
Type Error
us age
handler s
ce l
lear n
ar ies
is ten
Ġs ig
Ġex it
Ġ% }
Ġbu ffer
> \
inter val
12 3
ĠAN D
ĠĠĠĠĠĠĠĠĠĠĠĠĠĠĠĠĠĠĠĠĠĠĠĠĠĠĠĠĠĠĠĠ ĠĠĠĠĠĠ
u ce
un ct
Ġre quire
CON F
f fic
Ġ( (
Ġ" <
Ġneed s
P ython
c u
Ġcon ver
Ġu sage
ti cal
Ġm issing
run ner
tiv es
Ġto ol
Ġuse s
Ġed it
we ight
ar ted
b ranch
P Y
ĠĠĠĠĠĠĠĠĠĠĠĠĠĠĠĠĠĠĠĠĠĠĠĠĠĠĠĠĠĠĠĠ ĠĠĠĠĠ
Ar gument
es ca
su ffix
P AR
Ġpattern s
6 6
Ġlo okup
Ġlabel s
E ntry
} ".
sup er
ĠU p
Pro xy
i a
Ġcomp ile
un ds
server s
Ġre pr
Ġre lease
ed ge
Ġapp end
war n
Ġopt s
Ġ --------------------------------
Ġcal ls
host name
trans form
Ġe tc
Ġallow ed
ĠC lient
no te
serial ize
Ġre n
Ġkey word
Ġcomp ute
me mory
Ġtra ck
ut c
Ġview s
k s
greg ate
Ġelement s
ĠE vent
Ġad ditional
base name
') (
ĠB y
Ġli sten
RE QU
Ġ ])
N etwork
Ġre actor
sup port
Ġtra ceback
pro t
Ġp latform
ĠS h
P ack
Ġexp ression
a vailable
ex clude
E CT
di tions
Ġreg ion
Ġex t
ĠRe served
mon th
Ġexten sions
ustome r
ro ll
Ġm at
Ġ{} )
n a
Ġs cope
7 5
Ġpub lic
li p
Ex ten
ER S
rule s
c imal
ic ro
P RE
ee ded
Ġa bove
Ġin dic
o ols
p ng
Ġo wner
P ort
App lication
__ .__
i dentity
() ]
Ch ange
Ġcal c
un ique
Ġwith in
by te
Ġpre vious
O f
Ġsu ffix
d ash
la ck
er ies
L S
Ġal ways
up lic
ĠI O
men u
i tes
Ġother wise
Ġt r
L ink
w here
---- --
mis sing
f time
y per
Ġper form
ĠL a
Ġb ind
Ġte arDown
U D
RE AD
Ġk ind
Ġ1 1
LE CT
tod ay
d one
ci i
per ly
Ġf older
se cond
ma pping
ST AT
cli ck
B ar
fla g
Y ou
pro p
ĠW indow
FI G
ĠR ights
Ġpro gram
pri vate
an ization
ĠS T
'] ),
edi rect
Lo ader
S tore
Ġhe ad
tw o
velop ment
mo x
update d
Ġb ranch
me tric
me th
pa ir
S chema
Ġsh own
3 6
res olver
T e
quest ion
mb ed
Ġquery set
at tach
fe ed
H ER
Ġpub lish
ĠIn dex
Ġsu bject
a z
ma g
Ġspec ify
'] ))
component s
p lan
Ġen ti
AC E
up per
P UT
Ac count
one s
Lo ad
re quires
ME T
Ġfla g
p ush
st ub
Ex ist
work er
A g
de rer
al k
HO ST
Ġc op
`` ,
Ġs q
Ġ1 5
Ġpick le
co ver
po ch
ba z
Ġde sc
4 0
am ily
element s
c m
app en
ĠW hen
C ur
w sgi
Ġse par
Ġre ceived
Ġim g
IN T
Ġpoint s
ĠAuth or
t ten
Ġd one
backend s
Ġcan not
S A
ĠO bject
v as
ĠL og
ss h
resh old
O wner
ut ing
Ġi tera
di stribu
g t
assert Not
on s
Ġh elper
Ġsql alchemy
B O
de pendent
xt ra
t t
cal ls
ren ce
gra mm
be fore
R en
se ed
le g
l ash
Ġtoken s
Ġac tive
Ġp op
Ġen sure
Ġ3 2
Ar ray
ati ble
H ost
ĠT emplate
Ġis sue
Ġsh ell
Ġc lear
om ment
Col or
que sted
b utton
Ġb ot
Ġsy mpy
M ENT
is sue
qu ote
C annot
Ġex pi
der s
Ġre quires
Ġraise d
ation al
s ync
ro y
) *
ĠT ra
ac tiv
Ġf p
G ui
w riter
ĠT ext
Bo x
Ġassoci ated
Ġ" --
D ir
Ġso uth
SS L
ĠD is
b lob
s pe
Ġex pr
Ġig nored
7 7
instance s
Ġf ont
g lob
Ġimage s
Fla g
f ree
r ing
Ġ mp
ti ce
Ġadd resses
Ġ Error
Ġpackage s
c ut
cre ment
:` ~
G R
L L
ĠF orm
end swith
LE D
Do es
op s
Ġw in
ĠL oc
name d
> <
Ġre set
s lice
Ġmatch es
IN FO
sh ell
con vert
app engine
host s
Ġoper ator
h older
it ter
co s
ca ched
Date Time
ass word
(' --
p ted
ĠV er
state s
Ġn eeded
Ġo c
ce ive
J SON
fi ll
ĠGener al
H T
f lat
Ġcor respon
ces ses
Bu ffer
ra ft
Ġme an
k it
Ġm ask
ex ist
Ġst andard
Ġin dent
Ġe ven
Q t
or ary
pend ing
Ġbuil der
201 5
IL ITY
fe ature
esca pe
b stract
Ġle t
. %
ad ded
down load
g b
al pha
Ġ' *
Ġter ms
_ .
( \
Ġ1 000
TH ER
f ont
ĠD ate
ĠIn valid
Ġinst alled
S L
2 1
C re
eff ect
Ġ" -
ter m
ench mark
CON T
time s
ĠT rans
ĠP RO
me m
)) .
re lation
Ġor m
/ ')
ĠP O
lay out
if est
sup ported
Ġm aster
iz ers
: \
p to
Ġ >>
pk g
orn ado
m at
Ġ3 0
Ġp ut
sing le
Ġpo licy
ĠB e
Ġover ride
ar n
( %
S imple
b r
un ic
us ing
bo und
() ):
argument s
b l
Ġman y
Ġs pa
Ġp d
N ew
lue print
app ly
D ec
in dent
and as
in line
da ys
. ',
F L
mo ves
W arning
ar s
Ġno te
Ġcopy right
M et
a e
res sed
config uration
/ {
vo ke
Ġm igrations
ron g
Ġoper ations
get attr
Ġcre dentials
Ġh and
over ride
Ġset attr
Con troller
dis k
set default
mo dified
Ġinter val
ĠF ROM
Ġme nu
co unter
sw itch
an e
Ġchild ren
Ġby te
tra ce
Ġtrans action
dir s
De lete
Ġup load
FI X
Ar gs
p anel
per missions
unk nown
WOR D
Re f
.. ..
d rop
Ġcon trib
Ġ201 2
r st
Data Cache
Ġurl parse
DAT A
Ġs lug
, ))
in ja
as cii
su bject
cer t
b al
g pu
d ummy
Ġe qual
cor rect
al le
M atch
Ġon ce
defin ed
Ġdirect ly
Ġf etch
Ġcomple te
re lative
Pro file
sc al
al most
T op
end ing
S pec
Ġa p
Ġs ci
s orted
M y
D ocument
ro ve
Ġre moved
M ulti
Ġc ell
Ġstate ment
Ġf inal
Ġman age
Ġlay er
U SE
Ġbu f
con sumer
Ġg ot
Ġ ------------------------------------------------------------------------
Ġf low
ĠL anguage
, '
C C
Ġno se
Ġbu cket
Ġac cept
ĠT w
Ġb ad
AN T
Ġ" ,
ces sed
co okie
. )
tific ate
Ġp e
zer o
OF T
G e
Ġm ost
Ġde ploy
ĠTest s
ĠRe g
Le vel
ne ss
comp at
Bu ild
cal c
3 5
0 6
Ġpy lint
ul ation
fail ure
ro uter
Ġcho ices
( """
di gest
Ġgroup s
ĠS ystem
is instance
P anel
ĠS ta
Ġchange d
Ġin ternal
ĠA c
token s
ser tion
g l
Ġ ))
Ġfe atures
la p
Not Exist
lib rary
Ġdi men
Su ite
L isten
Run ner
[: -
String IO
U ID
CON FIG
Ġde termin
Ġwork s
Ġbe havi
Ġapp ly
ar m
ch ron
per m
red uce
Ġex ternal
Ġ< /
R el
MPL ATE
b b
re v
on y
Ġb it
V ariable
cri ption
Ġde pendencies
P ost
cho ice
def er
Ġ -------
Ġraise s
Ġprovi des
Ġde code
ĠThe y
c f
ty le
Ġsub class
s cheme
n n
re ader
Ġ" {
Ġst at
Ġb asic
Ġst ored
pro c
st one
s d
re vision
j ust
Ġwor ld
Ġsetup tools
1 000
F oo
12 7
i od
se p
ar is
k ind
Ġarg parse
ee k
Po ol
Ġf ree
P ri
Ġcon si
3 7
g g
ĠF ield
Ġins pect
Does NotExist
B ASE
') ]
buil der
Ġi denti
OFT WARE
ab i
dered Dict
S y
.. /
Ġpk g
J ECT
method s
Ġ{} ,
contain s
" }
B oolean
B lock
R ange
Bu il
L EN
in ternet
Ġcase s
P T
Ġun til
ist ri
ari o
speci fic
ĠO ut
ĠX ML
Ġin v
ĠRes ource
ou gh
T arget
cl ar
ĠWindow s
te am
vi sit
u ses
Back end
r v
Ġs cale
B ad
Ġo wn
or ds
ĠF ound
ate r
sc en
Ġch ain
er nel
query set
re try
Ġh ook
ĠCon tent
unct ools
ub lic
fo und
R edirect
ti o
Ġsel ected
Fail ure
ume ric
Se lect
Ġtask s
environ ment
Str uct
ĠRun timeError
c wd
ix el
pri ate
wh en
buil tin
W riter
z z
t d
ĠRes ponse
i ti
Inter face
Ġco mb
stra p
Ġf d
D R
Ġdecor ator
w atch
in el
Ġre view
Auth or
Ġu gettext
ĠE lement
ĠMe ssage
Comp onent
Ġdire ctories
Ġf ig
ĠC lo
re view
Ġrepo sitory
MO DE
de lay
] *
W N
Ġme mory
ar a
Ġst d
: '
Ġbuil t
Ġinclu ded
no va
T RI
ĠPro ject
n an
len dar
Ġre gex
i ted
te ration
Ġt ab
com ments
25 6
Co mm
AB ILITY
plot lib
set ting
Ġen gine
ĠB o
Ġfe ed
ĠĠĠĠĠĠĠĠĠĠĠĠĠĠĠĠ ĠĠĠĠĠĠĠĠĠĠĠĠĠĠĠĠĠĠĠĠĠĠĠĠ
W rapper
n orm
a ut
) /
version s
ex pect
N OT
ĠM igration
M ode
s chedule
ar ds
H TML
Ġse q
S ign
ĠD B
cry pt
' "
2 6
t ty
Ġ_ ,
Ġ entries
LE TE
Ġo auth
Ġm d
Ġwork er
Ġat temp
matic ally
] ])
ge titem
2 9
p ower
Ġsha red
Ġre lation
ac y
Ġg l
ĠH e
f p
run ning
w rapper
Par se
H ello
am o
Ġq s
Len gth
CO L
ĠIn itial
q a
Ġappro priate
OR Y
option al
con sole
Ġ6 0
O M
Ġ( %
process or
gener ator
ĠM o
Ġin te
Ġto o
ĠI nt
ul a
red is
UL L
Ġdata store
auth entic
ock er
fa ctor
Ġprovi der
fail Unless
U RE
Ġprovi de
istri bu
Ġ ##
in teger
Ġwe re
Ġ ,
Ġd st
Ġbut ton
cess ary
ph er
c tive
ul lable
de tails
ref resh
me trics
ĠĠĠĠĠĠĠĠĠĠĠĠĠĠĠĠ ĠĠĠĠĠĠĠĠĠĠĠĠĠĠĠĠĠĠĠĠĠĠĠĠĠ
fi gs
Ġtable s
ys ql
yn chron
ĠD ummy
z en
ĠS OFTWARE
L abel
i dentifier
ĠUp date
o pe
ar r
ĠSer ver
Ġ- =
Man y
HER E
w arnings
Ġapp en
Ġf lat
cp u
/ $',
ir d
st ant
la tions
B utton
Ġtime delta
Ġt s
([ "
]) .
pi ent
Ġtime s
Ġali as
Ġi dentifier
Ġ[ [
AC T
Col lection
D river
': '
ĠC ustom
TE MPLATE
8 4
Ġfail ure
2 7
manage ment
gramm ing
H elper
ĠF ake
valid ation
Ġen able
play er
div id
ĠĠĠĠĠĠĠĠĠĠĠĠĠĠĠĠĠĠĠĠĠĠĠĠĠĠĠĠĠĠĠĠ ĠĠĠĠĠĠĠĠĠĠĠ
abs olute
L ib
Ġuse ful
A ME
ed itor
Pro ject
in der
le nt
Ġgener ator
D ATE
Ġma il
Integer Field
N ING
ĠT e
_ %
He ader
ub e
Set tings
Ġsci py
Ġv ector
STAT US
A ccess
in ternal
. \
C ore
as ure
Ġrun ner
assertIs Instance
helper s
" '
Pro vider
IN TER
Ġsa fe
g res
', )
Ġoc cur
exp and
state ment
a va
ou ter
V ENT
Ġb ound
mit ted
lo ts
== =
Ġed itor
ve c
g ame
Ġresource s
_ )
t angible
re quen
ĠT angible
ĠM agicMock
ab stract
be ta
Ġdown load
M app
Ġd at
Par am
Ġvi sit
Ġversion s
' %
ri end
Ġiter tools
A pi
FORM AT
ut ors
e v
ci sion
Ġ //
w x
Ġinclu ding
k ed
in es
all close
ci pient
trans action
Ġ5 0
N UM
SE LECT
cor ding
Ġy aml
orig inal
(" \
ĠV i
ue st
Ġmodi fy
Ġo k
pa per
cre en
open stack
or ator
as ync
h n
m u
and id
man ual
Ġin sert
d st
ex ternal
Ġen viron
ĠBu ild
3 9
i re
Ġs c
un i
al ity
Ġrepresent ation
fir m
C an
Ġar ch
Ex p
Ġextra ct
=' ',
Ġne utron
> </
Ġdistribu tion
D ES
ff ect
ul k
J ob
config ure
sub process
co res
frame work
= -
gener ic
e ver
) ',
Ġno qa
u int
k a
s napshot
201 4
ra ps
Ġsource s
document s
m q
c red
Ġe st
co me
Ġw ell
in c
input s
En coder
ĠD ec
cre dentials
Ġspeci al
V ar
) (
/ "
A uto
Ġbe gin
Ġme ans
Ġse cret
b its
d r
ĠThe re
MA P
Re cord
Ġop tim
Ġlay out
ĠM IT
C TION
ĠR o
0 8
d raw
Ġrule s
divid ual
W ork
work flow
Ġnumber s
ĠQu ery
h igh
Ġb oolean
il ar
fi es
Ġlo aded
ler t
ffic ient
b lank
Ġadd r
se nder
Ġs ock
ĠW ork
lo cale
member s
ĠT ask
h q
re ason
(' _
repo sitory
Ġc y
Ġtrans form
sis tent
Ġag ent
s n
w er
Ġimport s
ateg y
// //
> "
val s
Ġ4 2
de leted
ti fact
Con trol
pla in
Ġf it
ok ies
Ġk now
ĠR ed
LO W
h our
i con
Ġset s
const ants
si m
sum mary
as y
P R
Ġse nder
ĠDE FAULT
Ġas sign
Ġd uring
extra ct
Ġme tric
Ġvari ous
ut ation
CO MM
] ):
ing er
o tes
se quence
si an
Ġs cen
clo sed
ĠN umber
S up
Ġd ump
project s
cen ter
velo per
is o
a vi
peri od
l ang
2 8
ĠT able
( ('
pe at
Ġst ill
mer ge
ol l
r up
Ġcon ditions
d ns
S M
Ġ termin
REQU EST
IN ST
Ġcl assi
Ġ201 1
Ġbo x
Te X
Ġserial izer
f inal
ri ft
Ġ ur
ĠĠ Ċ
Ġbe low
Ġch art
g mail
pri mary
] +)
ĠL I
Ġhttp lib
Ġp ixel
ra ys
mb ols
Ġz ero
Ġpro to
Ġcurrent ly
S p
sca pe
ati bility
ang le
fla vor
Ġf uture
HE AD
AR T
Ġca ched
bo o
i pping
Ġitera ble
\ '
um an
DE D
fi xtures
ĠIO Error
O p
Ġlo ader
C ho
S ec
RE CT
Ġth ose
Format ter
aris on
oper ator
. ",
Ġs lice
ĠM an
fa iled
PI PE
S o
([ [
lay ers
] +
Ġ ).
Ġy et
Ġauth entication
1 99
ex port
ĠRe ad
Ġsome thing
Ġmer ge
In itial
script or
ed ges
gra de
Ġdis k
ateg ories
so ft
v ance
Ġde leted
Par ameter
all back
De vice
Ġdis patch
r m
Model Admin
D ER
con nected
[: ]
add ing
Ġal gorithm
q s
ro id
Create d
Ġsub lime
dap ter
ĠF lask
ĠIn teger
Ġclo ud
Ġinput s
Ġa st
pt ure
sq rt
B UT
ma chine
ĠP ost
ĠThe se
Ġaction s
u ation
I F
Ġg rid
change s
__ ),
ce iver
su ch
Ġ-------------------------------- ----------------
D oc
Ġcharac ters
Ġd ot
0000 0000
CRE T
si d
Ġde precated
Ġsup p
an k
Ġno tice
J o
Ġ[ ('
v ector
Ġf name
si z
process ing
Trans port
r p
con dition
P assword
udi o
ĠP re
Ġme dia
ful ly
ĠWe b
MA IL
get value
Ġdel ta
ĠLa TeX
te ct
m ultiple
Ġcorrespon ding
s pi
et c
Buil der
Ġ[' _
p oly
bo b
en able
Ġper son
rap pe
4 5
Ġtop ic
M D
Ġ1 3
Ġvalid ation
Contain er
i fied
l on
DI S
sp an
U ti
Ġex clude
Ġconst ants
C opyright
Lay out
her it
Ġv m
m as
> ',
pe t
P ES
for med
s parse
uplic ate
Ġtake s
e m
Ġor g
Ġos lo
col ors
Ġz one
g ative
Ġpar tic
0 7
Ġauto matically
ĠOr deredDict
Ġmax imum
Ġhash lib
p n
('/ ')
tex info
Ġagain st
Loc ation
Fa ke
Ġstruct ure
Ġf ix
OP Y
} '
list s
De ferred
Ġrepresent ing
le ting
Ġs cheduler
ĠSer vice
decor ators
ĠC OPY
C al
Ġcon straint
comple x
Ġu s
medi ate
ĠOut put
c v
sel ected
si red
ĠCon nection
amo unt
Ġf unctools
lo gs
M IT
Ġwor ds
ĠEx amples
Ex it
man y
Fe ed
Ġ ?
al g
Re ceived
FI L
ro ad
u ate
con tact
wik i
ro zen
Ġ' )
ĠC ode
ma pper
ĠC re
Ġdoc s
Ġs core
iz es
rec v
ĠN e
target s
B ACK
Ġdefin ition
string s
A A
ar ange
time r
Ġco unter
IC E
ĠC a
ĠO ther
Ġlo cale
h one
Ġbehavi or
Ġi con
Ġb lob
Ġmatch ing
sy m
Ġse curity
Ġen abled
Ġdest ination
Ġsy m
Ġdist utils
g its
en u
Po licy
Ġc v
__ ))
Ġallow s
in ary
ro les
Ġne cessary
Ġre quested
Ġi ds
__( *
Ġin dependent
gra tion
Ġp andas
qui ck
oriz on
at om
AR Y
res olve
wor ld
S cript
ten d
Ġc sv
Ġf ill
pipe line
Pro gramming
ĠĠĠĠĠĠĠĠĠĠĠĠĠĠĠĠ ĠĠĠĠĠĠĠĠĠĠĠĠĠĠĠĠĠĠĠĠĠĠĠĠĠĠ
Ġt ran
ch art
tri es
du cer
de pth
{ {
Ġ1 4
Ġfile names
Ġle ast
5 9
ut down
Ġ[ -
Listen er
T emp
Ġdef ine
Ġde scri
ci pe
Ġ lower
Ġd ummy
ip s
Re ader
w all
Ġ series
ĠA S
Ġlate r
: -
o id
w ri
time zone
p tr
7 6
3 1
ir c
Exten sion
p red
f un
Ġmo ve
H andle
Ġp ush
Ġre cur
d uration
mo re
) ],
par ameter
AP P
m ble
an aly
ot a
ast ype
Ġto day
5 00
as set
Ġis n
Ġmat plotlib
Ġd raw
ĠX XX
Ġimple mented
ri ve
M on
par sed
mo us
per son
Ġpy py
let ter
Ġren dered
allow ed
ti ck
Ġs cheme
dash board
ĠLo ad
tera ctive
M ES
j or
ĠN etwork
as sign
bo sity
MA IN
Ġed ge
S tyle
Ġin dividual
c ancel
SE CRET
ĠDocument ation
co st
Ġb its
ĠVi ew
= ""
Ġlist s
Ġp id
ep copy
Ġma ps
sub net
ĠF a
O UR
ĠFound ation
R ule
We b
Ġorig in
E mail
ren cy
Ġpre v
ste ps
Ġpro p
add Callback
rag ment
li es
fix ed
Data base
exec ution
Ġm ight
ic ally
back up
count s
c ce
exp ression
######################################################################## ####
vel y
G B
Ġimple ments
sq lite
Ġre l
code s
F low
Ġwrap ped
Ġbe st
struct ure
4 00
L ock
n ail
Ġa void
Ġa mount
Ġsign ature
Ġ' #
Ġcon troller
e lem
Ġexec ution
script s
201 3
ĠW S
SER VER
as te
ten ded
201 6
Ġass ume
I mport
Ġp r
Ġde cimal
con straint
Ġcon sole
P ASS
ial og
Ġper iod
Ġpri vate
et ri
Ġtime zone
Ġme m
ame ra
Ġw arning
Ġ lin
G ER
__ ['
Ġd ay
FI EL
Ġcomponent s
p us
Ġn ullable
Ġreg istered
Ġ low
ĠC O
ac cept
Ġcall ing
listen er
E W
ĠM odule
Ġy ear
be gin
Ġexp licit
ĠL ine
Ġp i
li ve
with out
SI G
A X
ra di
dic ate
9 0
Gener ate
Ġco okie
Ġre vision
Ġ2 5
ĠG e
_ ):
re actor
Ġex act
Ġme trics
ĠS y
ge o
sc reen
Per mission
Ġconnection s
sign ature
ĠM ulti
ti t
Ġco ordin
oper ation
/ (?
re cords
+ +
, ),
am ma
Ġact ually
Ġst uff
Ġbase string
Ġp l
igh b
ĠI mp
P ick
ti le
: ])
Di ctionary
comp atible
STR ING
S ome
equal s
Ġhost name
pol l
Ġc s
Ġma de
G HT
Ġp lay
Ġt x
co very
Ġh ome
U RI
56 78
re es
K EN
Ġe v
Ġl arge
al th
C I
h i
Ġcon sumer
pre pare
Ġpa ir
for um
serial izer
en sure
Ġp lan
res hape
OR E
Ġd id
i tions
To ol
mon itor
ref s
Config uration
fi re
ĠO THER
Ġc ross
ĠC al
ĠAd ditional
g reen
{ %
Ġ' '.
gra d
W rite
log y
Ġm ime
TY PES
Ch annel
Ġenti ties
e le
ĠA R
requen cy
Ġit self
run time
auth ors
Ġk ernel
Ġwri ter
p x
m c
Ġcli ck
Ġr df
ou se
And Return
m igrations
b log
Ġi dentity
Ġn s
clean ed
PRE FIX
te cted
ch an
Se quence
Ġat tach
Ġmo dified
al loc
ra ble
b reak
lo pen
ag ing
g z
Ġmon th
Ġ201 0
Ġ< <
co pi
/ <
ĠF unction
ig rate
[ ^
cal ar
U rl
n ect
b ig
Ġin dices
Ġan not
resolver s
ul ated
vi des
Ġl on
Re ference
re a
Ġtrans port
UN T
tw isted
I ME
ĠAUT H
om ial
I mp
Ġre try
late st
sub scription
Pack age
* .
O B
Time out
FL AG
h y
Ġc at
si tions
U sage
ĠQ ueue
Ġ" _
ly ph
g ation
m ysql
b ile
Ġpar tial
CL ASS
ĠAr gument
d l
Loc al
Ġvi m
8 9
W or
f ollow
Ġh istory
a ys
En gine
ĠValid ationError
R ow
C A
orig in
reate r
c ity
di stance
De fin
ĠIn stance
Ro le
base d
Ġro ute
source s
Ġn orm
ĠO ne
main ing
Ġre cords
Ġt ornado
Ġsupport s
_ :
se par
log o
line ar
Gener ator
in te
Ġwri tten
tific ations
ar b
Ġa round
len code
p df
Ġwe ight
AC HE
Ġc la
Type s
ĠOn ly
il ing
arch ive
t l
un pack
variable s
n x
ener ated
Ġk nown
> `
Ġw atch
ke t
g p
Ġe lem
b ra
tri gger
Des cription
h idden
Ġ} }
Re gex
umb nail
EN TI
pri ce
CO MP
ue ss
Ġte am
4 9
Ġauth entic
m ime
iv ar
Ġpipe line
Ġhandler s
Ġap pe
Ġ urls
File s
s ame
: ',
ĠF e
11 11
d c
Ġsy mbol
e ded
ag raph
function s
Ġover write
serv ation
cl assi
Ġwork ing
Ġ ()
Ġs leep
ĠM atrix
S ocket
Ġan aly
Ġab stract
Ġcre ating
Ġ1 9
Ġback wards
B asic
j ax
Ġcorrect ly
ĠOS Error
d ouble
ard own
Un it
std in
DI A
DAT AB
ĠI s
li ct
S V
Ġro uter
f c
Ġp ur
ĠĠĠĠĠĠĠĠĠĠĠĠĠĠĠĠ ĠĠĠĠĠĠĠĠĠĠĠĠĠĠĠĠĠĠĠĠĠĠĠĠĠĠĠĠ
is dir
Ġ# ------------------------------------------------------------------------
de pendency
ĠH ow
Ġgo od
ĠL e
d x
â Ķ
Ġco un
) ')
process ors
O ver
f req
Ġt z
DE LETE
Ġd rop
con v
exec utable
Ġa ff
Ġreg istry
Ex ample
Ġwork sheet
ĠAdd ing
ls x
F i
b rowser
rep ly
time delta
F loat
is file
Un known
VAL ID
8 5
Ġfin ished
di men
ĠP Y
Co uld
la ve
sc an
ĠU SE
g u
Ġde ri
r al
Ġcop ied
Ġinitial ize
qui va
ca p
see k
F T
par tial
ol ved
ĠRa ises
') ))
gin ator
TING S
On ly
U I
in v
ke s
ĠS ession
sign als
Ġupdate s
Met adata
ĠI tem
inter faces
Ġsa ved
scal ar
tra ct
Ġs amples
In st
') [
Ġcon structor
Ġservice s
C ESS
at ar
Ġdi stance
Lo op
et s
ĠN ew
Ġopen stack
ĠNOT E
Po sition
D ialog
response s
Ġencode d
M in
li ck
Ġcon dition
ĠG raph
Ġpro blem
Ġ ll
Ġ lineno
ur ity
Ġcharac ter
lim iter
Ġbot tom
g ot
ĠĠĠĠĠĠĠĠ ĠĠĠĠĊ
LO AD
L ast
ra c
an cer
pick le
ise d
ĠQt Gui
g y
ĠO Auth
ĠU RI
channel s
ĠPro cess
ri s
a ff
Ġsy ntax
Ġmapp er
e cho
In line
"" )
ites pace
ĠP ath
Ġde v
sub mit
' d
C RI
di ctions
A li
ou ght
======== ====
Ġsk learn
P ACE
ony mous
ff set
Ġ10 24
Ag ent
M ax
R ed
in ner
Ġse ss
eff s
p lt
Ġs imp
valid ator
Ġsw itch
ĠS ome
T EXT
TRI BUT
E xtra
cl one
col lector
s in
Ġres olve
int s
ĠPro tocol
Ġclo sed
abi lity
Ġs sl
Config ured
b um
ĠB ad
Ġpa irs
ĠAd min
Ġa tom
Ġd s
DU LE
ĠĠĠĠĠĠĠĠĠĠĠĠĠĠĠĠ ĠĠĠĠĠĠĠĠĠĠĠĠĠĠĠĠĠĠĠĠĠĠĠĠĠĠĠĠĠ
Ġr ate
Me mber
ser ted
ĠP AR
Ġstate s
ul ator
Ġplugin s
00 1
m ongo
ĠC lass
c us
ĠWS GI
âĶ Ģ
Ġn x
Or der
S U
Ġin side
Ed itor
prec ation
Valid ationError
n b
key word
tr an
12 8
Ġter m
Ġn ested
pa ces
sub scribe
Ġm s
CO DE
r aries
ip v
ĠP ublic
Ġtri gger
r u
ry pto
D jango
\ .
IC ES
Ġone s
x s
Ġre ferences
stri ct
ses sions
NA MES
Ġfail s
(' <
sy mbol
pro j
Ġstri p
de li
Cho ice
Ser ies
RI GHT
Ġt yp
Ġac tiv
g on
ON G
C lean
sy ntax
rite ri
Ġiter ator
ĠS chema
url lib
spec s
pri ority
de g
Ġb oto
b undle
un its
IG N
____ ____
ĠO per
Ġ2 4
l n
ĠF oo
(" -
ĠN S
comp ress
assertNot Equal
h ow
} /
Ġwork flow
Ġcore hq
F C
Ġs n
ĠPO ST
Ġh appen
Col lector
h at
se gment
LOC K
Ġe p
Ġ""" )
ate way
n ed
Ġcheck s
(' .')
Ġno thing
Ġcer t
exist ing
k lass
Ġp layer
mo di
AS T
R PC
Ġde n
col lect
set ter
vis or
quiva lent
pre v
Ġg ame
Ġf mt
ĠPar se
7 9
pro gress
n ested
ĠIn ter
LI ST
Ġcre ation
road cast
DI RECT
e f
od oc
wh ich
pro b
Ġun known
Ġfa ctor
Clo ud
y es
vi sible
âĶĢ âĶĢ
read line
Ġapp s
re cur
Ġcomp are
we ights
S ite
Co mple
Ġorder ing
ĠP age
url patterns
ly ing
VAL UE
op tim
M ake
sel ection
Ġro und
Ġ4 04
U sed
du ction
se mble
en ti
ce pted
Ġs can
pa y
ĠS H
vi de
ĠRe move
Ġtra it
C LI
j ar
Ġ( -
W R
account s
ad ap
d n
pre vious
CL UD
W IT
de pendencies
ĠA nd
am ble
file path
Ġlisten er
: "
= ["
ro perly
Ġwe ights
no tify
({ "
thread s
tmp dir
ĠPer mission
S um
w eek
) }
ro u
Ġca use
sent ry
ĠCh ange
Ro ot
( ',
ae mon
O bj
Ġresponse s
foo bar
ile r
al ign
ro s
Ġpro c
Ġdefault dict
Ġre dis
li er
ĠC an
network s
pend s
g i
re ceive
Ġc b
ver s
ĠC LI
Ġoutput s
C ustom
c ustomer
> ')
ĠV alue
A TIC
ex e
ĠInitial ize
H ash
ĠW HERE
dis able
defin ition
Ġde lay
Lo okup
comp are
Ġs pe
) \
match es
C R
Ġun its
Field s
or ph
add resses
ĠGener ic
~~~~~~~~ ~~~~~~~~
cs rf
fa st
pa irs
Ġstart ing
Ġgener ic
Ġarg v
str ftime
DO MAIN
= ('
Ġ jobs
oc ial
ok ed
Ġse ed
block s
sertion Error
qu are
Ġ2 55
TO KEN
Ġro t
vi con
Ġcon struct
0000 00
glob als
' ll
S ee
M ark
s cheduler
act ual
Ġerr no
Cannot Contain
Ġindependent Data
ĠCon text
" \
T ab
c um
Ġh ref
ĠA ction
Ġse gment
ĠS hould
N e
float ing
pre dict
Di rectory
MA G
ĠLoc al
list dir
Fe ature
Ġretri eve
h ref
ti ces
En tity
DateTime Field
example s
Ġe scape
or ing
tra ceback
ĠT EST
Ġal ong
Ġpri ority
ne utron
Name s
" /
Ġvi deo
ĠSt atus
r ant
Ġ tenant
j am
ĠC omment
Ġ201 6
Ġ[ {'
C ACHE
St ub
Ġcom ments
ro om
wa p
Ġreg ular
assertIs None
an tity
Ġpar sing
h ist
de mo
ph one
activ ate
AD DR
V olume
th reshold
Ġx s
ab ly
clean up
E MAIL
201 2
a ws
con figs
Ġs phinx
ol ds
Ġde sired
Ġpro gress
+ '
Ġe mit
Ed it
L D
T F
ĠG ET
bind ing
ier arch
ment ation
Ġstr ftime
A bstract
P TION
(' ',
Ġcl one
R andom
ty p
al ler
Re port
Re po
cal lable
th ought
Ġb rowser
p ad
Ġin ner
AP PS
Ġd ash
Ġbo ot
deploy ment
w t
Ġp oly
Ġ$ {
CLUD ING
de p
Ġ' [
frame s
I ter
Ġno tification
rid ge
OC K
sh ift
Pa rent
Ġs te
e poch
Ġf ixed
Ġpartic ular
roperly Configured
f amily
AL I
r d
vi deo
it le
k ing
} \
connection s
Ġn d
Text Field
Ġs chedule
AT A
SET TINGS
tit ude
ar ticle
ĠS up
C K
Ġk lass
" %
2 000
ĠM ark
ĠE d
Ġ1 8
================================ ================================
normal ize
d raft
End point
Ġcontrib utors
ĠO ver
ĠV ER
R C
ten ce
format ter
ĠUn icode
ja va
A F
Ġt urn
for ward
mt ree
hook s
ĠG it
dest roy
ĠSt art
TIME OUT
c id
MET HO
ĠJ o
di ms
ĠC l
com ing
Ġd uration
V ICE
tic s
Ġblock s
N U
im ate
Ġframe work
ĠS tr
U ST
') ])
mo bile
ĠAn y
Contain s
al f
av ing
on ical
sent inel
Ġt m
imp l
par tition
Do main
bi lities
ĠT oken
andid ate
Ġth ings
output s
diff e
rup t
- >
3 00
G RO
ĠP a
h ave
Ġtrans lation
Lib rary
lo ss
ec tive
no tification
Ġaut og
AN CE
Ġback up
PASS WORD
ĠF loat
boo lean
Ġthread s
Ġdetermin e
Per son
o site
St ats
Ġlo gs
Ġm is
Ġst arted
ĠA lso
Ġse c
ĠCo mm
n i
Ġse en
Ġs ync
Ġhost s
cre te
{ "
Ġ4 00
pre sen
N ESS
ĠS top
ER CH
Ġcomp atibility
6 5
Pro duct
er ge
j ac
data store
ĠData base
Ġre cent
T CP
ag gregate
Ġm k
map s
Boolean Field
: ",
AL LED
CONT ENT
ERCH ANT
w b
ĠDe lete
3 8
ĠC ur
i um
r n
pro gram
g le
Ġde pth
RE D
Ġconfig ure
alle l
M agicMock
get ter
=' /
ĠT ag
ou te
pl us
Ġ200 9
k t
ten v
Ġcol ors
se titem
st mt
ch dir
ri des
Top ic
Ġ tensor
Ġserial ize
ĠData Frame
M ultiple
s li
Ġan sw
W E
Ġre ader
si tes
url resolvers
t ar
ĠS ite
H as
Me mory
ion s
inger print
ĠApp lication
ĠT ry
de le
tain er
OUR CE
Ġra di
Ġfla vor
w alk
Al low
x is
as cript
99 99
vari ance
sub class
fin ished
d om
Ġrun s
Un able
e lif
Ġget s
Ġfake s
Ġfa st
author ized
Ġto ols
Re p
Ġlocal s
en um
Ġcomple x
Ġcho ice
Ġpixel s
st ar
p in
ad ing
man ifest
Al chemy
S end
le v
Ġvalid ator
ĠVer ify
Valid ator
ynchron ous
ro ved
case s
ate ri
Ġpro mpt
ĠOption al
Reg istry
u a
parser s
la ce
ntax Error
ado op
F R
at ype
utc now
4 8
M T
g ui
Ġreg ard
r ng
Ġserver s
ĠEx ec
trans late
Ġ5 00
Function s
g un
ĠIndex Error
Ġtarget s
av ascript
Ġv is
> =
b est
/ {}
UN D
rand n
st o
Ġkey words
pro g
ĠP ack
ang ing
ĠPo int
f fi
IT NESS
MO DULE
=" %
comple ted
Ġma c
Co effs
UN K
Ġdi rec
**************** ****************
co gn
C omment
G o
Ġc m
org anization
C HE
Ġm ar
Re actor
PRO JECT
=_ ("
201 0
Ġtheme s
a red
ver ter
Ġar r
ca pa
ctype s
ĠS SL
"] ["
Ġ'* '
dest ination
M enu
Ex pected
a cl
f lask
i an
Ġali gn
B inary
I ST
T w
Ġqu ote
ra tio
En vironment
r df
Ġco ver
Exec ution
serv able
D ummy
ce book
ĠE ns
let on
decor ator
a lect
ke e
oriz ont
V AR
d p
al lation
Ġt b
Ġin Coeffs
pro mpt
local s
window s
N um
Ġcompile r
Mapp ing
en sor
sub lime
Ġne ver
Par ameters
rag ma
Ġhand ling
ĠD A
L a
Ġs creen
Ġany thing
Ġsq lite
T S
Ġs heet
Ġh ex
CH AR
Ġ"" ,
rand int
ked irs
P open
h ot
Ġ1 7
ERCHANT ABILITY
Ġre c
us sian
ze ug
Ġrelation ship
sec ure
([ (
mk dir
key words
UL AR
Ġpla ces
b lue
Re quired
t b
in i
Ġd ue
LI ED
} :
} {
Ġside bar
ĠĠĠĠĠĠĠĠĠĠĠĠĠĠĠĠ ĠĠĠĠĠĠĠĠĠĠĠĠĠĠĠĠĠĠĠĠĠĠĠĠĠĠĠĠĠĠ
spa m
b lack
k zeug
v id
ur ther
wrap ped
ho od
char s
Ġb undle
AS K
_ {
# '
Ġre v
Ġg reen
Ġma g
in ct
compile r
Ġ' :
By tes
St op
widget s
Ġglob als
e mit
Ġex amples
Ġnormal ize
Ġsupp lied
li o
'] ]
ĠL ib
AN Y
ad ow
Ġvi rt
g id
un der
cut s
. '''
format s
nd array
) ")
g is
str ument
a mp
g gest
cript or
Re mote
Ġimp orted
S Y
Ġfoo ter
Ġreplace ment
Ġg rr
Auth entication
M B
Ġle ss
post gres
9 5
ĠH andle
Ġprocess ing
Ġs napshot
ĠĠĠĠĠĠĠĠĠĠĠĠĠĠĠĠĠĠĠĠĠĠĠĠĠĠĠĠĠĠĠĠ ĠĠĠĠĠĠĠĠĠĠĠĠĠĠĠ
Ar g
Ġ" (
e k
ite rable
fake s
ĠM ERCHANTABILITY
T ri
Ġqu eries
s lots
th at
Ġconfig ured
Result s
ĠOther wise
Ġa ctor
go od
/ .
_ '
i fication
Test ing
i denti
u tions
po sed
Value s
T AG
ĠE ach
Ġth ree
Ġmark er
or ation
get cwd
do es
Ġu i
Ġn one
end or
ran k
mark er
C om
s ur
fo ot
inst alled
O b
res sions
den ce
ĠEns ure
Ġdimen sion
Ġre ST
Trans form
o ted
Ġre duce
Ġexp and
Ġpro duce
M issing
ĠDe leting
IM IT
c mp
Ġver y
ĠPer son
ĠTw isted
S UB
T er
ct l
c nt
Ġchunk s
Clo se
ĠO K
stru ction
Ġ{ %
Tra ck
lic ies
ma y
6 7
us ters
PO SE
fin der
Re move
Ġco st
ver sed
Con straint
ĠB oolean
ĠN ow
Ġdir name
l as
s yn
u da
er ce
iv es
Di ff
ME DIA
iter ator
virt ual
P oly
Ġpro perly
tri p
Ġ'/ '
############################################################################ ###
" ].
L ANG
st it
A V
ĠMe thod
ĠC or
ĠW rite
Ġhigh light
coun try
Owner Id
] }
Ġs v
ta ched
orizont al
ma le
OR I
Ġsign als
Ġ ----------------------------------------
ee p
assertIs Not
m time
ge om
veloper s
wh ite
http lib
Ġpack et
ST ATIC
Data Frame
Cur rent
] ],
Ġmake s
jam as
tes ter
Ġsel ection
k ill
in ed
Ġdire ction
Ġin serted
ĠD on
le mb
ad ditional
el ls
in ux
at trib
me s
At tr
C HO
Ġg a
ge ther
initial ize
ff ff
Ġautog enerated
ex periment
Ġtrain ing
authentic ated
Pick le
Ġs sh
vai la
* (
Ġcon nected
ĠDe velopment
8 7
Ġc red
TH ON
j id
ĠF ilter
de epcopy
ch or
ĠA bstract
Ġun pack
U se
/ ?
de cla
S ITE
i co
M AC
t cp
is ode
it al
Ġup per
Ġp ower
Ġs ur
Item s
h ara
Ġcon tact
ĠS ign
par k
Ġca pa
Ġh our
le cted
ĠS kip
Ġ{} '.
Ġcode cs
Ġread y
ĠSe arch
boot strap
C UR
M atrix
er os
Ġt y
WOR K
> ,
Ġbu g
lemb ic
ation Test
ĠAdd ress
volume s
Owner Account
` )
mo ving
pi x
AR D
#------------------------------------------------------------------------ ------
ĠP UR
Ġformat ted
ĠAr ray
ĠD es
i dent
Ġcon v
Ġc i
co okies
ĠA uto
Su ccess
e fficient
Ġ 64
bot tom
ĠW or
Ġinst anti
flat ten
= {}
copi a
Ġc c
ID D
uff le
Ġsim ilar
it ude
update s
E mpty
Ġma chine
ST ATE
P ipe
p m
r ator
Ġc r
DE X
Ġfunction ality
En um
ub lish
find all
ali ases
M ain
set attr
ĠP lugin
################ ########
re size
Ġm u
4 7
N ET
Ġr pc
pre ter
m ust
ac quire
vaila bility
MA GE
Ġdoc test
v l
bu s
Ġtra ce
Ġt f
Ġinitial ized
1 0000
F S
r mtree
Ġgener al
Ġa v
Up load
siz es
Ġb ig
Ġrep ly
Ġp anel
ot ype
Ġbe ta
ĠIP v
b and
Ġ" #
ĠL IMIT
S tep
t n
lin ux
Ġdi m
ĠAr ticle
19 2
ĠDec imal
o om
Ġ question
Ġp s
Ġu id
able s
Ġa ble
client s
Ġback ground
ĠImp roperlyConfigured
ist ic
ĠR el
il li
init y
quen ces
Oper ation
Ġw rong
reg istration
P lan
Ren derer
B C
iv y
split lines
un til
p ing
select or
Ġp ol
to ur
B E
og ram
Fi xture
ĠPUR POSE
I teration
ĠT ree
p du
ne eds
gra dient
Des criptor
Ġ serve
Ġres pon
re ceived
ex act
ĠTe am
ma kedirs
W ait
spa wn
Ġl ang
Ġsum mary
ĠVER SION
, -
A IN
Ġdimen sions
vi le
Ġper m
O Auth
ro ker
Ġex port
eg g
icro soft
V M
st arted
h and
Ġs yn
() ).
Ġp print
bo unds
ĠIn put
Ġtemp orary
Ġexec uted
en der
TIC ULAR
C ategory
fig ure
edi a
! !
T T
tr l
Ġle g
Sh ow
re load
Ġ4 0
Ġla zy
201 1
a gs
d y
() ])
Ġattemp t
ĠO UT
be at
Ġed ges
Ġref resh
Ġf req
} ),
ER Y
ir cu
] '
(" --
ĠP lease
6 9
ro ken
Ġmember s
t f
co ords
Ġex periment
J ANG
Ġi prot
ĠS peci
valid ators
Ġconst ant
ass oci
iz ing
CO UNT
P lease
ĠF ITNESS
S ample
Ġadd ing
DataCache Dictionary
ĠPAR TICULAR
B L
} "
Ġf o
ch a
uni form
n or
[ (
Ġp ants
di x
ĠConfig uration
() '
Ġwork book
l ator
content types
Ġlib s
T uple
Ġcon ven
ĠSt ate
def ine
Ġfor wards
ĠTh read
2 34
Ġlog ged
at ter
Ġb al
and box
Re play
I R
da e
Param s
b lueprint
et ree
TI VE
Ġp ip
abstract method
Ġr c
De tail
Ġd ns
ĠB asic
back ground
READ ME
i ke
k o
Ġfor ward
Ġor d
fin ish
de cimal
ĠB ook
ir cle
chunk s
METHO D
, "
Ġf urther
Ġ' "
cu da
Ġw arn
ĠC all
: ')
b la
ac tivity
Ġge vent
ect ors
OF F
Ġcalc ulate
ĠEx p
ĠSe lect
relation ship
ĠDocument s
Ġd ouble
attach ment
Z ero
Ġde le
ĠClo ud
mbed ded
r strip
err no
Ġwho se
gate way
G TH
Lo gin
ct ure
a ma
c lock
device s
Ġinter faces
Set up
Ver ify
Pro perties
patch er
Test Suite
co ordin
Ġauth ors
n ative
ĠA D
Ġclean up
JANG O
) ",
Ġread ing
AT OR
const ant
scen e
L IN
GRO UP
MP LE
Ġmin imum
ĠSta tic
b ench
[ \
ĠG NU
Ġcop ies
Ġarch ive
s cores
Ġ ~
Ġpre pare
Ġlanguage s
Ġdoc string
ĠU sed
e ys
od b
de c
Po sitive
ĠGroup ing
in clu
ĠF ind
00 01
index es
pack et
Ġrepresent s
require ments
c as
Ġc enter
comm unic
MAG ES
S cheduler
ed u
DE F
Uti ls
Ġal tern
C ell
IT S
ĠOpen Stack
er kzeug
Ġth row
Ġconver ted
S O
Ġ" '
Ġsub classes
Ġmark up
Ġst o
iz ard
ul ates
Ġcreate s
serial izers
SC HE
FIEL D
z on
Ġb ash
Ġge o
Ġac cording
"] :
ast ic
ĠKey word
G rid
J son
R UN
co v
ad s
j pg
y ou
Ar ticle
can vas
Ġc wd
meta class
q t
y si
Ġre pla
Var Int
A IL
L im
Ġsimple json
h yper
ble ms
ĠP ri
cat alog
=_ ('
hone Number
Ġp ragma
ate n
Ġdefer red
V ector
ĠB ack
Trans action
FIL ES
al len
(' ''
la unch
Ġr and
A dapter
P r
ti cket
Node s
Request Handler
as array
pro ps
==== ===
) **
! ")
I t
Ġpar tition
Ġ{} ".
Ġansw er
Ġcol s
sha re
Ġ200 7
Ġopt parse
r gb
AT CH
Gener ic
el y
per cent
Ġbet ter
) +
B ind
_ [
Ġde al
aa aa
E M
temp dir
Ġbo ok
6 00
l m
Ġindex es
E V
ir t
ST ART
Ġro om
Ġspecific ation
AB C
st and
Ġre ally
me sh
Ġunder lying
f h
c ategories
ar tist
Ġf rappe
re peat
F etch
LEN GTH
Ġc t
Ġs li
ĠS ource
ierarch y
data sets
Ġth ing
pi e
ĠSer ies
dire ction
dae mon
ĠO P
ĠIMP LIED
Ġdeploy ment
work sheet
sen sitive
ĠEn vironment
Ġappen dix
> ",
L IC
Ġ' +
Replay All
v ors
ĠE xtra
c ar
pi p
arg types
) -
ax es
Ġcount s
ĠDefault s
B Y
Ġevery thing
ĠĠĠĠĠĠĠĠĠĠĠĠĠĠĠĠĠĠĠĠĠĠĠĠĠĠĠĠĠĠĠĠ ĠĠĠĠĠĠĠĠĠĠĠĠĠĠĠĠ
im ator
Ġar rays
Ġwe ak
exten ded
Ġqu otes
si st
ad vance
Ġdis abled
C opy
Ġb order
are a
Ġnamed tuple
jo int
Ġro bot
O ffset
Ġg u
Ġcheck ing
Ġ8 0
Ġappen ded
Ġs parse
ĉ ĠĠĠ
E P
` :
Ġin tera
Ġpy jamas
dis connect
Ġsm all
re et
Ġapp lied
M GL
ĠCh ar
Ġmeta var
distribu tion
Ġsepar ate
Ġfig ure
b ulk
} ',
me ter
Ġsub scription
Ġac tivity
Ġsig ma
Ġe ffect
> .
G S
Ġth reshold
ĠComp ute
speci al
Ġo prot
Ġex clu
4 3
st andard
Ġ2 3
R outer
n dim
place holder
ra ck
Ġh yper
load ing
Ġhandle s
Ġlate st
Ġb i
si bility
kw ds
Ġout file
cre ator
rest ype
Ġra ther
cry pted
F ind
Ġ'. '
appen dices
rozen set
Ġdescri bed
loc ations
gorith ms
Ġ"" )
Des c
Ġlet ter
Ge ometry
ar ing
Ġmanual s
clar ation
mo o
Ġscript s
FLAG S
H ook
in o
Ġsub net
Ġshould n
P rint
X Y
v tk
Ġversion added
LO B
CRE ATE
A ctor
De bug
hex digest
Ġ#------------------------------------------------------------------------ ---
t ol
Ġp ad
tt l
ĠCon vert
Ren der
" })
ĠPro xy
Ġ200 8
Ġlook ing
li hood
pen ded
Ġcol lect
Ġenti re
Ġe tree
#------------------------------------------------------------------------ -------
OP EN
PR ESS
7 0
B ody
N ote
g ri
op le
10 24
Con stant
ĠEx ten
sm all
In te
dis abled
Process or
Ġsm art
bal ance
Ġd ays
cur rency
Defin ition
Ġg ran
Ġtime r
Ġbase s
f ron
F unc
h ass
Ġin line
di an
E VENT
a i
Ġr ng
Cl assi
n ick
b p
m ul
P ay
AS H
ĠAUTH ORS
R F
Ġp lease
Ġlib cloud
He aders
Ġd ynamic
rid den
in crement
Ġpro cesses
ĠE VENT
open id
Ġserial izers
scope s
__ ',
oc us
ca de
build ing
tw itter
Ġhelper s
etri eve
Ġf un
(' ')
di ag
([ ],
Ġmon itor
su do
Ġpublish ed
DATAB ASE
Ġ ri
qu eries
ĠP oly
sp li
ĠDE BUG
Ġste ps
={ "
Ġax es
Ġstd in
re name
Ġ" )
file no
= ',
a pon
sv n
ĠC L
ĠB UT
MODE L
si sten
Ġpre tty
istribu tion
P U
Ġreturn ing
ĠSt orage
df s
gener ated
Ġde pendency
set Level
ĠA g
ĠDi ct
ĠG iven
t m
u ous
Ġlog ic
publish ed
sig ma
b all
Ġ2 2
Ġas signed
Ġg ive
Ġsh ift
Ġf s
te ri
Ġe as
Comm on
ti d
Ġc p
Ġe poch
#### ##
SER T
ri gin
Ġde tail
ma jor
add on
EN G
CHO ICES
n l
Ġinclude s
assertIsNot None
u do
si b
last ic
lo bs
Ġdi alect
Ġexplicit ly
on al
cry pto
el f
Ġpla in
G lobal
al ice
Ex ists
Ġuti lity
50 9
re tri
as semble
Ġf ab
CON N
Ġexec utable
c ra
Ra w
l b
Ġfi xtures
ph p
date s
wh ile
Ġlon ger
F lask
ĠC ho
ĠL ab
Ġg c
Ġpre vent
de scriptor
Ġf lush
expi res
" )),
Ġw on
Ġfi re
j ection
mp a
Ġformat s
ke h
Ġnd array
""" )
pa ren
Ġag ree
ipe dia
Ġload ing
F ont
IL D
ĠSQL Alchemy
5 4
unc ate
Ġi teration
ĠT ex
SH A
ro py
ra se
mm utable
Con nect
Reg ion
Cl uster
INST ALLED
" },
di gits
che mas
sh utdown
ĠV ector
adap ter
n c
ur lopen
ĠF rame
.... ....
B ER
d jang
PO INT
Error s
N et
TR ACT
Ġfi xture
or dered
ĠU N
=[ ],
Ġab ort
={ },
ĠCal c
con structor
no tes
Ġvi sible
Argument Parser
Ġh idden
ĠM ax
ans wer
[' _
art beat
ĠN ULL
ud it
Dis play
Ġappe ar
a uti
en coder
an a
us ted
an ded
qui et
Ġformat ter
th en
Ġ' {}
Ġline ar
a fe
UT F
su ally
sa ved
C lick
ach ed
LI MIT
Ġtermin al
O pt
Ġen um
tist ics
ENG INE
q name
ĠM on
sc r
# :
/ (
VI DED
P H
i lo
di alog
KE T
Ġim mediate
Ġsuccess fully
f riend
ĠV ariable
(_ ('
cry ption
Ġ ################################
log ged
d ynamic
as is
tr as
xy z
Ġretri e
Ġp ull
qu ation
w raps
Ġm uch
gin ation
con sume
To ols
Ġdefin es
P os
p w
ge ometry
ĠE l
on d
cy cle
Pre fix
Ġprob ably
he el
ĠZ Z
short cuts
Http Request
lo ur
co verage
ver bosity
ĠF oreignKey
ĠL ink
Con f
bit rary
Ġcontrib utor
" ')
Ġde scriptor
Ġevent let
Ġchannel s
Ġregard ing
D one
c ross
ĠA pi
Ġchar set
I I
termin al
Ġali ases
Ġe quivalent
W I
avi gation
S m
b idden
Ġs ol
I X
f lo
ĠM ay
ĠH ost
T C
Ġst ub
ĠS ec
Ġ1 0000
b old
Ġ' ':
Ġc atch
Ġpro cessed
cor der
kee per
! "
Clean up
ti p
An y
re cipient
se udo
Ġne gative
ĠGener ate
Ġe asy
Ġle x
Ġsy mbols
Ġdefin itions
(? :
ĠCOPY ING
ro po
at t
OL D
an cy
V al
top o
Ġ12 34
at ural
Ġ ls
Ġre cipient
is m
vi m
Co okie
Ġcal ler
ĠEn gine
ĠLIMIT ED
se g
al ive
Name d
fs m
ret ty
Wor ker
^ ^
Ġas ync
": "
ĠCreate s
precation Warning
as m
ĠS u
da o
Ġowner ship
I E
N on
ĠV M
mi ted
pl ural
Ġmanage ment
HEAD ER
S peci
d m
e red
Ġc ard
U ES
Ġare a
b enchmark
Ġp ending
Ġfile path
Ġv ol
Ġnode list
C er
pre t
ĠJ ob
Ġport s
C F
G ra
m igration
ex change
ex er
with in
ss ue
ak er
To Many
EC TION
S heet
Ġre d
Ġn args
Ġw sgi
ĠCol or
sql alchemy
failUnless Equal
Ġre ct
me mo
Ġre maining
Ġauto Generate
Ġsimp ly
Ġcon sume
ĠAs sertionError
assertNot In
l st
w itch
for mer
AD MIN
ĠRes ult
Exp ression
c aten
mpa ign
f r
th umbnail
Ġc StringIO
Ġw ar
Ġpy copia
//// ////
Ġf ron
top ics
Ġre stri
ĠDA MAGES
T itle
h uman
one d
ac ter
d h
s ince
bar s
callback s
M AN
' m
5 7
_ ('
s f
Ġmin imal
Dec imal
Callback s
Ġs calar
ĠS alt
Ġun less
ĠĠĠĠĠĠĠĠĠĠĠĠĠĠĠĠĠĠĠĠĠĠĠĠĠĠĠĠĠĠĠĠ ĠĠĠĠĠĠĠĠĠĠĠĠĠĠĠĠĠ
(_ ("
ĠSt ream
Ġ licenses
ĠIP ython
provider s
S ES
Ġn b
Y Y
Key Error
Sec urity
M Q
to o
ĠF irst
ram id
as c
scri ber
Ġli ght
Ġpri or
Ġwindow s
Ġvalid ators
Ġsuccess ful
issue s
G it
comple tion
S cale
] ["
g d
Ġ' ?
ne gative
Window s
F irst
Con vert
UT E
WAR NING
ver ts
m r
Ġtra its
cel ls
5678 9
Ġdirec tives
Ġre ceive
"" ,
ĠE mpty
Ġrun time
lev ant
C alled
Ġ qual
di ction
Ġstri ct
! ')
M is
ot al
CLI ENT
a u
Ġme asure
reg istered
Ġfloat ing
book s
Ġgra dient
op ro
Ġadd s
U UID
d ocker
Ġcheck ed
W idth
Ġ' ..
Ġ2 1
ĠM AX
Ġun i
the ta
serial ization
Ġfin ish
un used
Ġcode s
AC CESS
Ġsort ing
S kip
=' '):
lif y
SS H
Ġse ver
Ġprefix es
se en
Ġ ^
ct ree
P ACK
key stone
gr ant
MET A
ĠArgument s
C md
M Y
Ġm iddleware
str ategy
defer red
Ġcur r
r ating
table name
ĠPy gments
Ġ{ {
check s
foot note
f u
Ġclient s
DataCache Functions
LANG U
st age
Ġ' $
ĠPro duct
: /
work ers
ĠContent Type
Ġp adding
l r
Ġdi alog
bi an
Ġserial ized
Temp orary
co ord
ĠSchema Migration
([ ^
Model Form
domain s
ag greg
ĠFI X
s ter
Ġ served
de ri
Cur sor
A WS
B R
ĠL abel
AS ES
product s
un e
ESS AGE
oper ations
asset te
Ġf h
Ġstart s
C or
h orizon
Ġhandle d
some thing
ĠAl low
Ġde g
ip pet
Ġmock ed
ĠIN CLUDING
State ment
Schema Migration
D JANGO
ĠB lock
D el
a jax
Ġh ist
ach ine
iter al
collection s
Ġpass ing
Ġloc ations
z ed
Ġst ati
Data set
Set s
F inder
ĠF ree
ĠSer ial
Ġmon key
Ġn or
ĠS p
ĠH elp
pix el
author ization
ik i
W ID
re ceiver
fo cus
ĠR ule
Ġf amily
urn al
distribu ted
m dao
log out
scen ario
n y
v pn
al ter
Ġor dered
Ar ch
dire cted
lap sed
limit s
Sy ntaxError
> ]
tra it
gener al
Ġcer tificate
N ormal
per ms
Ġbu ff
av g
ĠPack age
1 01
ce d
ĠQt Core
Ġ\ \
cre ation
At tributes
Ġdf p
j inja
at temp
ĠA ccess
spe ed
p d
ti fier
ĠR PC
Ġfunction List
: ],
Ġ ----------------
Un icode
Author ization
b order
ĠS end
Ġsh are
Ġvar s
udi ence
ĠPRO VIDED
4 6
N eg
d temp
([ ])
Ġag gregate
Ġtitle s
F UN
Ġt ar
Ġun used
Ġen ough
Ġl st
Ġprocess or
tri al
ĠR ange
ĠNo tes
B SD
ĠT ri
ĠU ti
Iter ator
x html
st an
EN CE
se mb
en e
ĠDe ferred
s olver
Ġin DataCacheDictionary
Ġplace holder
Be gin
x path
Re lease
Ġsystem s
al ls
Ġj inja
ient ation
cli p
/ *
m f
con firm
ta ke
ron ic
Ġper cent
ĠGe o
Ġstati st
vo ice
9 6
Ġag greg
ĠCOPY RIGHT
i i
sy mbols
Ġw raps
Ġr hs
ĠM in
radi us
- +
ĠE mail
Ġpo sitive
b g
Ġsu do
er ature
bind ings
Ġclassi fiers
Ġ= >
Ġla unch
ĠSta ck
ĠCre ature
h ar
j ected
re moved
Ġ" [
Ġscen ario
te ction
Ġin correct
ĠJ ava
post s
contain ers
I dentifier
USER NAME
P N
Ġre pe
real path
b an
m igrate
lo aders
Ġsu cce
encode d
M IS
In it
ca lendar
ime n
b f
Ġin herit
ta bs
annot ation
stub s
pre tty
OP TIONS
ĠEn thought
F E
OR M
make One
Ġpri ce
S ha
(" .
NO WN
! '
mo use
Ġ* =
PRO TO
ĠD OM
ch at
Ġcomp atible
cla use
ĠMy SQL
Rel ation
B ook
g amma
th rift
view er
Ch art
presen ted
ro bot
per form
du ctor
order ing
__ :
ou ch
how to
ĠHttpResponse Redirect
m id
Ġwidget s
super user
ĠC alled
code c
IN DEX
99 9
Ġw erkzeug
ĠTex info
p ow
ce le
ct s
TER N
ĠBy tes
vid ing
/ ",
= """
M UL
x ies
Ġc ancel
ircu it
m orph
Ġlo ss
Set ting
Ġb enchmark
') ):
ĠW hether
level s
16 8
ighb ors
ver i
Ġauthor ization
enti ties
E G
S ave
ĠD IS
LE V
('/ ',
Ġge ometry
IDD LE
M erge
w rong
Ġf ragment
b c
Ġpre cision
As ync
Ġ gs
ĠI mple
min ute
Ġcl f
M sg
inf ra
f ine
g c
un link
Ġ""" \
authentic ate
ĠL ay
lin alg
ĠU sage
let te
######################################################################## ###
dimen sion
v lan
Ġh ard
Create s
Sp lit
al ph
(' {
ĠA LL
py pi
ĠProtocol Buffer
F older
S cen
il la
Ġtra iling
Ġxml ns
Ġcer tain
h int
un ity
l arge
st or
Ġc Pickle
mp ling
Ġdi gest
Run ning
C D
K eys
Ġde li
ĠSet up
dia lect
y ield
po ses
Ġen ter
ĠH as
RES P
ĠDate Time
letter paper
B atch
l p
fin ite
tod o
ele ry
CLASS ES
k b
Ġc mp
ul ly
pi der
Ġa verage
Child ren
DES CRI
Ġexact ly
y y
Ġfail ures
] ',
Ġderi ved
an iti
ex clu
ca y
St at
present ation
Fla vor
RES ULT
ĠCa che
ph i
ĠR andom
Ġval s
M a
ĠĠĠĠĠĠĠĠĠĠĠĠĠĠĠĠĠĠĠĠĠĠĠĠĠĠĠĠĠĠĠĠ ĠĠĠĠĠĠĠĠĠĠĠĠĠĠĠĠĠĠĠ
ĠIn st
ĠWIT H
Ac cept
M I
Ġt t
mark down
route s
ĠM ap
driver s
Ġb ra
Ġscen e
ĠS SH
Ġg data
c tivity
allen ge
po tify
iz ations
dict s
not ation
Ġf ew
ck s
o v
Time r
Ġwho le
() }
region s
Ġsent inel
me asure
Ġc pu
ur lencode
Ġp or
ĠWARRAN TY
Ġdire ctor
de ps
Ġdi gits
OT E
WR ITE
Ġagree ments
co pg
Ġget ting
Al most
Attribute Error
B B
ĠS ER
check ed
En ter
ĠLab orator
'] }
DIR S
N ull
i ence
ĠT op
Ġ( .
oc s
tic les
Oper ator
z a
'] (
Ġsh ard
bi o
number s
Lim it
, \
h ub
we et
Ġweb site
h ide
Ġde limiter
Ġpro ps
No tification
ĠFIX ME
( .
m gr
de precated
Ġin f
M ar
S P
al tern
Ġs lash
cur acy
Ġtmp dir
inc ip
Ġd aemon
ĠA P
Ġg uess
igh ted
er ry
el low
ĠL im
Ġfa ce
Ġsq rt
([ ('
un ion
Ġ( ('
Name space
hour s
Ġvirt ual
C ard
Ed ge
roll back
g anization
qu ota
Ġsub mit
Ġ3 00
Ġpy gments
Ġli ter
lat forms
Struct ure
Ġpy g
Ġdir s
ail gun
z A
th ree
Ġin tern
it ation
Ġpa per
Ġca st
S pace
Re vision
Ġro les
Ch unk
Ġlay ers
mag ic
Ġcoordin ates
irt ual
ra b
ĠT ABLE
up y
par ame
ĠPar ameter
non ce
m icro
Ġa m
Ġre presented
ĠM icrosoft
Ġfile system
i mation
Ġe s
and ra
AC TION
TO DO
ĠRe cord
Ġli ve
Ġcustom ize
From String
Ġflat ten
7 2
Ġp t
Man age
Ġfil tered
Ġmag ic
5 8
Ġ ve
ca pt
IS ING
Ġta il
Almost Equal
J S
ĠA CTION
po inter
L ost
k y
re tries
Ġf lex
Ġp ie
Ġh orizon
vi e
LOC AL
Rel ated
Sum mary
Ġc lock
Ġw s
ĠĠĠĠĠĠĠĠĠĠĠĠĠĠĠĠĠĠĠĠĠĠĠĠĠĠĠĠĠĠĠĠ ĠĠĠĠĠĠĠĠĠĠĠĠĠĠĠĠĠĠ
\ "
a lert
EN ABLE
:// %
ep ub
Ġman ifest
ĠC ase
ĠD ATA
Line ar
al gorithm
Ġe c
ĠS im
Ġar tifact
cer tificate
Query Set
opro ject
s lave
Ġ[ {
py gments
Ġstate ments
Ġcallback s
separ ator
T here
profile r
0 33
ĠM ain
ĠB Y
Ġac ross
new s
w as
Ġopen mdao
ĠAs ync
Ġf ore
lib s
loc ate
ĠSH ALL
A ML
re ports
Ġb lueprint
ĠLoc ation
Test Base
Ġproduct s
ass andra
ĠM et
v in
ad a
Ġ2 56
ĠD O
Regex p
Ġauthentic ate
pro cesses
do ctype
Ġta ken
Ġsend ing
WS GI
x c
ti ally
Ġc uda
Ġ------------------------------------------------------------------------ -----
: ")
T LS
re pos
ti tions
') ).
IC T
i py
mp p
Ġp m
Ġse ntry
ar tifact
mi tive
Change d
rep orter
ch es
termin e
dic ates
o bs
Ġselect or
ĠC ategory
for a
ĉĉ ĉĉĉ
Ġno tify
Ġbo unds
Classi fier
Ġ' (
Re st
Ġproject s
Cre dentials
ĠAR ISING
Ġspe ed
Ġf lash
Ġcom ing
H elp
di git
py c
ĠPro perty
Ġe cho
ra ction
con fir
Ġmin utes
eval uate
Ġrepla cing
lo y
Ġact s
Dec orator
ĠW HE
sub set
ĠSet tings
A rea
D est
Ġbuild ing
Ġexpi res
D D
v ol
Ġdo ing
Ġconsi dered
T ABLE
Ġm ix
is ing
ator y
err ing
? )
Ġf u
Object s
CC ESS
clar ative
(' __
str s
HO ME
Ġinst allation
g re
st s
is co
uest ion
R GB
has attr
Ġn ative
Ġh it
O O
Ġ( [
Reg ister
ĠLI ABLE
SIG N
> /
ma ker
Ġge om
ane ous
bu ff
De coder
proto cols
Ġannot ation
9 8
I dentity
S hape
m g
Ġd om
un ded
Ġh aving
Ġres olver
Ġpar agraph
Ġlo st
Ġover ridden
ĠWHE THER
] \
we apon
Sup ported
Ġur lencode
t v
et ry
Ġti cket
re store
tes ted
te ardown
assert Dict
ab out
mis c
Ġren derer
o ffer
read lines
QU E
ĠForm at
calc ulate
P attern
)) ))
Ġmatch ed
AG ES
tz info
V S
m ixin
un nel
ĠExten sion
range s
REQU I
S ingle
er iv
ĠC H
ĠN on
riteri a
Ġradi us
con struct
=" /
MS G
dire ctories
Ġc ustomer
Ġp rom
Ġresult ing
author ize
char set
AL LOW
si lon
qu it
Ġout side
S ide
] (
Ġre load
Ġ3 1
DO WN
Repo sitory
Z ip
Ġ12 3
X ml
ĠS tore
), (
Ġaccept s
la in
199 7
="" ,
Ġd p
-------------------------------- --------------------------------
des k
ĠGet s
} /{
Ġ -----
Ġ ###########################################################################
di ctionary
Event s
N ext
P RI
i j
iz able
ĠSh ow
b ine
Ġ' \\
ne g
Bad Request
P K
ur able
he alth
ĠU I
AT TR
Ġcomp iled
AD D
m ultip
fa ctories
Ġinteger s
L exer
s r
Ġb el
Ġso ft
ĠCON TRACT
ĠPro file
spli text
Ġf requency
il low
ĠG a
the ses
Ġbase name
Ġreg istration
Ġver bosity
R oute
mp ath
ĠR FC
Ġde pends
dir ty
Ġrequire ments
WID TH
L C
R A
c raw
s wap
ĠT Y
Ġis subclass
ĠStop Iteration
Ġn n
djang oproject
p ur
Ġde p
Ġindic ates
ter ms
ĠO b
Con sole
Ġcomple ted
Ġ( _
Ġde tect
node list
Res olver
Ġle arning
Ġca p
UP PORT
Ġci pher
as ource
pa red
MUL TI
cl usters
)) ]
ĠW ith
Ġcomp at
yn omial
UR N
speci fied
Ġmulti processing
Ġgran ted
B lob
M ail
in ted
log ical
Ġcy cle
ĠRed is
P art
sha ke
Ġdate s
qu ent
Ġme mo
Co unter
Ġexten d
Ġeval u
Ali as
d ating
Ġe ar
() ['
ve red
ĠCon tainer
Ġrecur sive
E Y
si c
Ġ| =
sw ift
Sta tic
ul se
Ġpro per
Ġmodule author
ine ss
Ġca lendar
Ġinv oked
+ "
en ium
() ``
Ġb and
am ing
fa vicon
Ġcomp arison
ua len
M od
R ST
ri an
ĠG E
v endor
Ġo l
Ġd x
communic ate
IDDLE WARE
I MAGE
pe er
out ine
com men
ĠCur rent
5 2
vi sions
Ġp oll
no tifications
atri ces
schema tic
spi der
Ġn avigation
. '),
H ub
H istory
Ġpre pended
De code
Ġindic ating
R pc
U til
x lsx
al one
Ġc f
vo tes
Ġc ar
Ġc id
py plot
block ing
tuple s
rf c
vari ant
P ublish
Ġf riend
Ġbe come
Ġli sted
queue s
Ġup grade
Ġinitial ization
thread ing
ĠDo main
Ġperform ance
Temporary File
ti vely
Ġg tk
pt s
ĠCON TRIBUT
SES SION
k g
ro uting
form set
obj s
cre ase
View Set
5 3
e mbed
in to
in voke
(" <
Ġ2 8
5 12
z ure
Ġs in
ab lish
call y
sen sor
ĠValid ationTest
l and
ĠConfig Parser
' ve
D NS
e ta
h its
de coder
I p
Ġj s
go ing
annot ations
G P
an onymous
ĠW idget
ca ps
face book
Ġnormal ized
Ġlook s
P ublic
Z Z
oo keeper
Ġissue s
wri tten
Ġvis ual
m x
E val
Ġre fer
ĠM ongo
sm art
Ġmime type
ĠCONTRIBUT ORS
} ')
ti s
ta x
inter cept
liter al
al bum
as ket
ri t
ill ing
Ġrelease d
Ġtran sition
semb ly
ĠE num
min utes
AR CH
He ight
An aly
LEV EL
ch ing
Ġst age
Ġas yn
sta ff
irc ular
Ġg zip
9 7
] {
an other
Ġst and
ĠS ince
Ġthrough out
C trl
c rop
Ġpro blems
Ch ain
Ġmo unt
'] ):
Ġob server
S pa
ins pect
Mon itor
F in
P AGE
Ġre peat
(" {
Ġse p
bs ocket
Query set
rot tle
q os
Ġa ge
Ġf allback
ata ble
Ġdistribu te
MP TY
assign ment
B AD
h d
log ic
serial ized
Ġme sh
ĠIn te
ĠEX PRESS
' <
a udio
c n
z k
or ical
Ġin crement
Ġcon version
Ġco s
mod index
T OP
al ways
Ġp g
vi ded
Ġsh orter
RE GI
Ġdiffe rence
x form
Ġar bitrary
track er
Ġspa ces
re start
le ts
ff t
Ġsc ra
Se ction
Ġhighlight ing
N ULL
b ut
py eq
Ġcontext lib
aut odoc
Mapp er
Ġcla use
Inst all
Ġa dapter
Ġt xt
pi ke
ĠAt tributes
M AR
P UB
ĠCommand Error
T HE
n umeric
de ad
Ġsel l
ĠMan ager
ti vi
pre amble
lock ed
ĠCON N
Check er
$ {
ĠBase Command
de serialize
as sets
Ġz ope
Ġdisplay ed
Ġaut os
Ġbind ing
' ")
m ut
Ġi de
ĠOption Parser
Cal c
] "
to uch
mm ar
IN SERT
Ġsub set
Ġtrans late
Ġ200 6
h adoop
ch r
Ġab c
Run timeError
Ġframe s
andid ates
Ġse quences
Ġro utes
mar gin
ĠInt angible
ualen v
f rappe
p an
Ġf sm
ĠU UID
tro ls
Ad ditional
A xis
Ġh ack
Ġv tk
ren ces
ĠPro vider
be havi
ĠGener ator
Ġre store
ĠCON F
En abled
ĠCol lection
d ry
g uid
par ty
po licies
ca pture
Ġwe bob
pro blem
SER VICE
Initial ize
ĠBytes IO
4 03
Ġc ategories
ĠS ave
Ġfa ctories
Ġload s
200 9
} ]
', ),
Ġm ouse
ĠT CP
cred s
th rough
ĠV AL
RE AM
ĠURL s
mk dtemp
real m
Sign al
diffe rence
st ock
un ix
ph ase
Ġtop level
" ',
P A
te e
end points
oc ab
Ġch r
work ing
CO OK
NAMES PACE
postgres ql
Ġex change
Ġread s
Qt Gui
ToMany Field
a h
f b
j it
Ġ vec
add Cleanup
pos al
P op
ro me
Ġo pp
() ;
Ġco okies
Ġnew line
Valid ate
ĠDis play
: ,
f m
g uest
} ):
it able
Ġsign ed
Le ft
e ach
g iven
v c
ĠW h
ĠJ son
SC RI
P i
ĠP rint
ĠB ar
) ['
T RAN
Neg ative
F ACT
Ġde mo
ĠThe me
ip ant
Ġret val
inline Callbacks
te arDown
Con v
Ġcan vas
S im
am i
In tended
func s
Ġapplic ations
Ġexp ressions
XX XX
ĠWor ld
def s
For ms
pay ment
b et
Ġn umeric
ve y
Ġsh all
comp iled
fore ign
cen tile
R ect
Ġdi ction
User s
Work flow
( .*
L ines
T ags
Ġth ird
INE T
Ġte ardown
web app
Ġimmediate ly
N N
l dap
ce p
(' #
el astic
Ġexec file
ĠO p
Ġman ually
Option al
Ġdevice s
Ġcoun try
5 1
Ġ( ?
av es
Ġb lue
.* ')
chan ism
b ing
Ġ" {}
Ġh uman
Ġst mt
Ġpro g
.. ."
Ġmer ged
Ġin voke
Inter rupt
ĠTime out
con tinue
Ġcom mented
dimen sions
moo th
I LED
S ig
Ġm ut
gen e
Ġdecor ated
Ġsepar ator
Ġd y
Ġd uplicate
ma pp
ĠM ac
wh at
Dis k
Ġanaly sis
âĶĢâĶĢ âĶĢâĶĢ
Ġs izes
ri cal
IN PUT
Ġl ar
RE F
are st
import s
Ġlib raries
Ġnetwork s
ĠTY PE
Ġ= =======
A b
Ġm ixin
ĠA udience
ĠK EY
En coding
deg ree
Ġm igration
af ka
Ġcoordin ate
ORI Z
ysi cal
g yp
Ġre versed
Ġtri p
ĠLI ABILITY
put VarInt
ĠE OF
wik ipedia
Ġdash es
en cy
ph oto
Ġtra j
Ġ12 8
ĠName Error
ĠEl se
? ?
.. .")
Ġtry ing
Ġclean ed
recur sive
E rr
Ġc ut
Ġin teractive
qu ot
Ġma king
01 234
SE D
Ġz eros
Ġto uch
Ġg reater
expand user
S ING
Ġ ser
Ġm ultip
Ġde velopment
ub y
Ġassign ment
rou ped
Stub Out
Ġi te
Ġc ent
ate ver
== '
Red is
b am
Ġc rypto
si oned
Ġr s
{} '.
Ġspecify ing
ĠCor p
re cipe
lsx Writer
ĠCl uster
RESP ON
s al
Ġt tl
comp any
Ġsheet s
} ))
") ]
ĠH elper
Ġc ss
Ġto gether
ĠEn tity
ĠHow ever
Ġth ough
ho o
we ak
ĠX lsxWriter
ICA TION
ropo ut
s ms
ĠQ Q
gg le
ir th
loc ator
static files
assertDict Equal
t ls
Ġar ticle
read only
trans fer
script ors
A ss
ĠF ail
file names
Pro vides
Tra its
xx xx
ĠFa cebook
M ESSAGE
ĠLaborator ies
W ord
Ġ' &
Ġs olution
Ġac cepted
FA IL
high light
e ss
Ġpre dicate
Ġtext wrap
retri eve
$ ')
co ll
Ġpa y
modi fy
Ġsever al
Ġa lert
parent s
Ġfe el
style s
Ġlevel s
Ġs ing
ĠM ust
unt jac
Ġgo ing
Ġq is
bi as
