{"<s>":0,"</s>":1,"!":2,"\"":3,"#":4,"$":5,"%":6,"&":7,"'":8,"(":9,")":10,"*":11,"+":12,",":13,"-":14,".":15,"/":16,"0":17,"1":18,"2":19,"3":20,"4":21,"5":22,"6":23,"7":24,"8":25,"9":26,":":27,";":28,"<":29,"=":30,">":31,"?":32,"@":33,"A":34,"B":35,"C":36,"D":37,"E":38,"F":39,"G":40,"H":41,"I":42,"J":43,"K":44,"L":45,"M":46,"N":47,"O":48,"P":49,"Q":50,"R":51,"S":52,"T":53,"U":54,"V":55,"W":56,"X":57,"Y":58,"Z":59,"[":60,"\\":61,"]":62,"^":63,"_":64,"`":65,"a":66,"b":67,"c":68,"d":69,"e":70,"f":71,"g":72,"h":73,"i":74,"j":75,"k":76,"l":77,"m":78,"n":79,"o":80,"p":81,"q":82,"r":83,"s":84,"t":85,"u":86,"v":87,"w":88,"x":89,"y":90,"z":91,"{":92,"|":93,"}":94,"~":95,"¡":96,"¢":97,"£":98,"¤":99,"¥":100,"¦":101,"§":102,"¨":103,"©":104,"ª":105,"«":106,"¬":107,"®":108,"¯":109,"°":110,"±":111,"²":112,"³":113,"´":114,"µ":115,"¶":116,"·":117,"¸":118,"¹":119,"º":120,"»":121,"¼":122,"½":123,"¾":124,"¿":125,"À":126,"Á":127,"Â":128,"Ã":129,"Ä":130,"Å":131,"Æ":132,"Ç":133,"È":134,"É":135,"Ê":136,"Ë":137,"Ì":138,"Í":139,"Î":140,"Ï":141,"Ð":142,"Ñ":143,"Ò":144,"Ó":145,"Ô":146,"Õ":147,"Ö":148,"×":149,"Ø":150,"Ù":151,"Ú":152,"Û":153,"Ü":154,"Ý":155,"Þ":156,"ß":157,"à":158,"á":159,"â":160,"ã":161,"ä":162,"å":163,"æ":164,"ç":165,"è":166,"é":167,"ê":168,"ë":169,"ì":170,"í":171,"î":172,"ï":173,"ð":174,"ñ":175,"ò":176,"ó":177,"ô":178,"õ":179,"ö":180,"÷":181,"ø":182,"ù":183,"ú":184,"û":185,"ü":186,"ý":187,"þ":188,"ÿ":189,"Ā":190,"ā":191,"Ă":192,"ă":193,"Ą":194,"ą":195,"Ć":196,"ć":197,"Ĉ":198,"ĉ":199,"Ċ":200,"ċ":201,"Č":202,"č":203,"Ď":204,"ď":205,"Đ":206,"đ":207,"Ē":208,"ē":209,"Ĕ":210,"ĕ":211,"Ė":212,"ė":213,"Ę":214,"ę":215,"Ě":216,"ě":217,"Ĝ":218,"ĝ":219,"Ğ":220,"ğ":221,"Ġ":222,"ġ":223,"Ģ":224,"ģ":225,"Ĥ":226,"ĥ":227,"Ħ":228,"ħ":229,"Ĩ":230,"ĩ":231,"Ī":232,"ī":233,"Ĭ":234,"ĭ":235,"Į":236,"į":237,"İ":238,"ı":239,"Ĳ":240,"ĳ":241,"Ĵ":242,"ĵ":243,"Ķ":244,"ķ":245,"ĸ":246,"Ĺ":247,"ĺ":248,"Ļ":249,"ļ":250,"Ľ":251,"ľ":252,"Ŀ":253,"ŀ":254,"Ł":255,"ł":256,"Ń":257,"ĠĠ":258,"ĠĠĠĠ":259,"ĠĠĠ":260,"se":261,"ĠĠĠĠĠĠĠ":262,"re":263,"in":264,"on":265,"te":266,"or":267,"st":268,"de":269,"Ġ<":270,"Ġ=":271,"Ġ</":272,"th":273,"ĠĠĠĠĠĠĠĠ":274,"sel":275,"self":276,"le":277,"me":278,"Ġa":279,"ti":280,"er":281,"Ġi":282,"al":283,"--":284,"Ġc":285,"ar":286,"en":287,"Ġf":288,"ro":289,"Ġself":290,"mp":291,"an":292,"at":293,"):":294,"Ġre":295,"\"\"":296,"ĠĠĠĠĠĠĠĠĠĠĠ":297,"Ġth":298,"Ġ'":299,"ur":300,"as":301,"ge":302,"Ġp":303,"ce":304,"tion":305,"Ġde":306,"##":307,"Ġs":308,"Ġt":309,"ser":310,"li":311,"ing":312,"ue":313,"Ġthe":314,"ort":315,"Ġn":316,"Ġdef":317,"Ġo":318,"ame":319,"Ġin":320,"ct":321,"ate":322,"lo":323,"Ġd":324,"----":325,"mport":326,"un":327,"Ġe":328,"',":329,"()":330,"fi":331,"ri":332,"co":333,"Ġ#":334,"Ġb":335,"ch":336,"Ġm":337,"Ġw":338,"__":339,"pe":340,"urn":341,"ĠĠĠĠĠĠĠĠĠĠĠĠĠĠĠĠ":342,"turn":343,"si":344,"\"\"\"":345,"ut":346,"nt":347,"rom":348,"ck":349,"ra":350,"Ġimport":351,"is":352,"ul":353,"ter":354,"get":355,"id":356,"('":357,"Ġif":358,"name":359,"Ġreturn":360,"Ġ\"":361,"it":362,"ad":363,"Ġfor":364,"Ġto":365,"el":366,"ĠT":367,"test":368,"Ġ\"\"\"":369,"ot":370,"')":371,"ass":372,"pa":373,"####":374,"one":375,"sert":376,"Ġ(":377,"val":378,"ver":379,"la":380,"ed":381,"Ġis":382,"up":383,"ma":384,"ode":385,"qu":386,"Ġan":387,"ss":388,"il":389,"ata":390,"set":391,"Ġh":392,"con":393,"ke":394,"ect":395,"ĠĠĠĠĠĠĠĠĠĠĠĠĠĠĠ":396,"di":397,"ol":398,"lass":399,"ty":400,"es":401,"der":402,"from":403,"--------":404,"None":405,"vi":406,"Ġex":407,"ult":408,"pp":409,"Ġst":410,"od":411,"ex":412,"gs":413,"ation":414,"Ġof":415,"ent":416,"==":417,"sion":418,"Ġas":419,"op":420,"))":421,"bj":422,"Ġ[":423,"ction":424,"ta":425,"ment":426,"ĠA":427,"res":428,"Ġu":429,"':":430,"ĠS":431,"Ġcon":432,"ble":433,"ĠC":434,"._":435,"ith":436,"and":437,"ase":438,"age":439,"ile":440,"ror":441,"ĠI":442,"assert":443,"']":444,"ic":445,"he":446,"et":447,"Ġtest":448,"ls":449,"value":450,"ve":451,"Ġ1":452,"ĠL":453,"ted":454,"rue":455,"Ġnot":456,"Ġand":457,"um":458,"que":459,"Ġg":460,"to":461,"),":462,"key":463,"Ġfrom":464,"bject":465,"int":466,"time":467,"path":468,"['":469,"Ġ%":470,"\",":471,"am":472,"ht":473,"xt":474,"ĠF":475,"bu":476,"for":477,"Ġres":478,"(\"":479,"file":480,"Ġclass":481,"Ġ*":482,"all":483,"Ġ_":484,"00":485,"ption":486,"us":487,"ĠNone":488,"tr":489,"ew":490,"ense":491,"Re":492,"type":493,"eld":494,"args":495,"Ġ{":496,"par":497,"qual":498,"pro":499,"ĠP":500,"Ġco":501,"Ġ2":502,"Ġor":503,"lin":504,"Ġdi":505,"quest":506,"ow":507,"Ġbe":508,"ub":509,"Ġ0":510,"Ġ+":511,"ON":512,"Ġr":513,"end":514,"pt":515,"Ġlo":516,"########":517,"est":518,"list":519,"rror":520,"ance":521,"Ġ==":522,"Ġ-":523,"Error":524,"text":525,"ĠM":526,"\")":527,"che":528,"per":529,"Ġ__":530,"Ġ:":531,"import":532,"app":533,"Ġfile":534,"Ġwith":535,"ĠD":536,"ang":537,"ĠĠĠĠĠ":538,"ig":539,"fa":540,"data":541,"Ġname":542,"fo":543,"Ġme":544,"alse":545,"po":546,"Equal":547,"ack":548,"Ġun":549,"icense":550,"red":551,"mple":552,"our":553,"Ġma":554,"able":555,"str":556,"Ġpro":557,"reate":558,"fig":559,"tem":560,"mo":561,"oc":562,"ise":563,"sh":564,"url":565,"iz":566,"='":567,"out":568,"assertEqual":569,"ys":570,"put":571,"----------------":572,"len":573,"====":574,"mm":575,"form":576,"ĠO":577,"pec":578,"Ġget":579,"lic":580,"ĠLicense":581,"Ġset":582,"pon":583,"TI":584,"ry":585,"Ġassert":586,"py":587,"ure":588,"Ġ@":589,"ĠB":590,"ield":591,"Ġy":592,"Ġdata":593,"stance":594,"ype":595,"code":596,"ule":597,"art":598,"ho":599,"ource":600,"Ġse":601,"Ġvalue":602,"add":603,"tri":604,"ER":605,"uth":606,"wor":607,"ponse":608,"ĠE":609,"__(":610,"object":611,"Ġon":612,"ly":613,"lient":614,"date":615,"ff":616,"pi":617,"Ġthis":618,"ger":619,"ctor":620,"late":621,"tp":622,"IN":623,"atch":624,"True":625,"user":626,"sc":627,"])":628,"ĠN":629,"ist":630,"Ġar":631,"odel":632,"ĠĠĠĠĠĠĠĠĠĠĠĠĠĠĠĠĠĠĠ":633,"Ġel":634,"Test":635,"class":636,").":637,"cess":638,"ĠW":639,"Ġelse":640,"ock":641,"kw":642,"ES":643,"Ġx":644,"ting":645,"Ġra":646,"Ġthat":647,"Ġos":648,"Ġuse":649,"thod":650,"ange":651,"cept":652,"temp":653,"rint":654,"ĠThe":655,"ĠU":656,"ll":657,"jang":658,"pre":659,"init":660,"line":661,"ssage":662,"..":663,"In":664,"Ġstr":665,"],":666,"jo":667,"jango":668,"Ġpar":669,"dex":670,"ument":671,"bo":672,"ten":673,"rent":674,"Ġpa":675,"lu":676,"gin":677,"EN":678,"ind":679,"unt":680,"ader":681,"ou":682,"ĠTrue":683,"Ġv":684,"Ġby":685,"ml":686,"error":687,"version":688,"ne":689,"om":690,"Ġat":691,"ca":692,"ĠĠĠĠĠĠĠĠĠĠĠĠĠĠĠĠĠĠĠĠĠĠĠĠ":693,"():":694,"read":695,"low":696,"kwargs":697,"``":698,"ator":699,"ph":700,"ok":701,"Ġwh":702,"ĠG":703,"col":704,"Con":705,"min":706,"//":707,"dd":708,"ception":709,"Ġraise":710,"ĠR":711,"ip":712,"andle":713,"Ġresult":714,"odule":715,"ild":716,"Ġit":717,"dir":718,"ask":719,"son":720,"Ġen":721,"Ġkey":722,"**":723,"param":724,"tent":725,"roup":726,"vent":727,"tain":728,">>":729,"lib":730,"port":731,"ans":732,"Ġlog":733,"cal":734,"valid":735,"vice":736,"Ġapp":737,"thon":738,"ber":739,"ore":740,"ec":741,"01":742,"result":743,"AS":744,"ĠFalse":745,"ary":746,"ĠV":747,"Ġch":748,"\":":749,"Ġla":750,"mmand":751,"uti":752,"################":753,"Ġexcept":754,"unction":755,"ĠRe":756,"mage":757,"Ġl":758,"os":759,"request":760,"odels":761,"wa":762,"''":763,"Ġ**":764,"log":765,"Ġ)":766,"ext":767,"base":768,"Ġuser":769,"def":770,"Ġlist":771,"view":772,"ac":773,"qui":774,"Ġtime":775,"ĠH":776,"ill":777,"OR":778,"ther":779,"Ġ3":780,"ght":781,"Ġrequest":782,"ds":783,"ery":784,"Ġpy":785,"atus":786,"Ġtry":787,"Ġout":788,".__":789,"=\"":790,"AT":791,"ute":792,"Ġprint":793,"://":794,"opy":795,"template":796,"instance":797,"TION":798,"db":799,"stri":800,"ĠĠĠĠĠĠĠĠĠĠĠĠĠĠĠĠĠĠĠĠĠĠĠĠĠĠĠĠĠĠĠĠ":801,"ir":802,"Ġare":803,"ses":804,"ener":805,"ust":806,"ST":807,"Ġso":808,"ft":809,"back":810,"load":811,"pen":812,"ample":813,"tic":814,"fault":815,"config":816,"Ġpass":817,"create":818,"IC":819,"Ġunder":820,"json":821,"LE":822,"og":823,"False":824,"Ġobject":825,"Ġlen":826,"den":827,"AR":828,"append":829,"ave":830,"rite":831,"Ġwe":832,"scri":833,"Ġdjango":834,"Ġsys":835,"ze":836,"und":837,"ctory":838,"DI":839,"ab":840,"ded":841,"update":842,"ren":843,"server":844,"format":845,"ms":846,"ize":847,"Ex":848,"tive":849,"main":850,"com":851,"uld":852,"Ġsh":853,"join":854,"field":855,"ces":856,"Ġro":857,"pla":858,"client":859,"tes":860,"ĉĉ":861,"own":862,"========":863,"ken":864,"no":865,"tribu":866,"Ġno":867,"ault":868,"if":869,"ject":870,"Ġhe":871,"count":872,"tings":873,"his":874,"ters":875,"tions":876,"auth":877,"())":878,"info":879,"UT":880,"right":881,"Ġ('":882,"da":883,"ttp":884,"Ġpath":885,"ning":886,"SE":887,"dict":888,"Ġdefault":889,"orm":890,"ww":891,"Ġcomp":892,"query":893,"work":894,"attr":895,"fe":896,"ts":897,"'),":898,"ag":899,"Ġ}":900,"IT":901,"fic":902,"Ġurl":903,"comp":904,"ĠĠĠĠĠĠ":905,"Ġsup":906,"sed":907,"Pro":908,"ĠIn":909,"([":910,"Ġtype":911,"ies":912,"Ġ[]":913,"size":914,"Ġcol":915,"Ġwill":916,"cor":917,"AN":918,"Ġpre":919,"with":920,"Field":921,"im":922,"ĠIf":923,"andler":924,"Ġper":925,"peci":926,"Ġresponse":927,"return":928,"ree":929,"tern":930,"ray":931,"cur":932,"default":933,"ard":934,"RE":935,"ost":936,"ated":937,"umn":938,"mis":939,"umber":940,"Co":941,"tial":942,"Ġnp":943,"ocument":944,"Ġcan":945,"Ġhas":946,"start":947,"Ġdo":948,"Ġli":949,"index":950,"nd":951,"nection":952,"ron":953,"iv":954,"Ġnew":955,"mit":956,"utils":957,"Ġall":958,"heck":959,"Ġconfig":960,"word":961,".\"\"\"":962,"mb":963,"--------------------------------":964,"Ġ['":965,"Ġal":966,"Ġcreate":967,"du":968,"ĠThis":969,"http":970,"Ġform":971,"Ġmay":972,"string":973,"(),":974,"Ġ{}":975,"tra":976,"unc":977,"Ġk":978,"Ġfield":979,"ations":980,"lock":981,"arget":982,"ee":983,"sub":984,"sions":985,"item":986,"html":987,"node":988,"reg":989,"ume":990,"Ġ4":991,"Case":992,"ix":993,"ĠTest":994,"Ġmethod":995,"Ġadd":996,"method":997,"stribu":998,"Ġ.":999,"Ġ{'":1000,"led":1001,"Ġhttp":1002,"St":1003,"response":1004,"gn":1005,"sp":1006,"Ġsub":1007,"arg":1008,"fix":1009,"sing":1010,"api":1011,"ress":1012,"run":1013,"ory":1014,"Ġstring":1015,"by":1016,"ware":1017,"ĠK":1018,"'],":1019,"Ġbu":1020,"pected":1021,"ial":1022,"ite":1023,"TIONS":1024,"write":1025,"lement":1026,"Ġoption":1027,"ME":1028,"ging":1029,"Type":1030,"status":1031,"man":1032,"arch":1033,"bel":1034,"service":1035,"alue":1036,"tle":1037,"*-":1038,"ity":1039,"Ġfa":1040,"ari":1041,"group":1042,"message":1043,"mail":1044,"Ġspeci":1045,"Ġdistribu":1046,"AL":1047,"lete":1048,"Ġyou":1049,"sha":1050,"Ġcur":1051,"gra":1052,"Ġ`":1053,"Ġ-*-":1054,"hould":1055,"Res":1056,"the":1057,"Ġfunction":1058,"Ġ``":1059,"Ġnode":1060,"obj":1061,"Ġ'''":1062,"Ġac":1063,"org":1064,"Name":1065,"Ġarg":1066,"perty":1067,"tribute":1068,"models":1069,"pace":1070,"foo":1071,"Ġwor":1072,"Ġrun":1073,"DE":1074,"quired":1075,"gth":1076,"De":1077,"~~":1078,"RO":1079,"ĠĠĠĠĠĠĠĠĠĠĠĠĠĠĠĠĠĠĠĠĠĠĠ":1080,"ant":1081,"state":1082,"Ġdate":1083,"fil":1084,"IS":1085,"va":1086,"Ġargs":1087,"ers":1088,"aders":1089,"Ġmodule":1090,"vel":1091,"link":1092,"host":1093,"10":1094,"Ġshould":1095,"md":1096,"title":1097,"ign":1098,"lit":1099,"TestCase":1100,"rame":1101,"ager":1102,"().":1103,"pache":1104,"parse":1105,"context":1106,"objects":1107,"nel":1108,"Ġversion":1109,"clu":1110,"Ġmessage":1111,"'])":1112,"ull":1113,"table":1114,"sta":1115,"do":1116,"Ġinstance":1117,"ash":1118,"ĠEx":1119,"rect":1120,"Ġ..":1121,"bs":1122,"Ġdistributed":1123,"ID":1124,"max":1125,"call":1126,"ay":1127,"clo":1128,"Ġoutput":1129,"Ġerror":1130,"scription":1131,"ich":1132,"map":1133,"rans":1134,">>>":1135,"Ġline":1136,"].":1137,"Ġ\\":1138,"lif":1139,"ding":1140,"not":1141,"utf":1142,"ey":1143,"Ġle":1144,"model":1145,"loat":1146,"Ġbase":1147,"Ġ>":1148,"core":1149,"angu":1150,"Ġpo":1151,"anguage":1152,"Ġ+=":1153,"su":1154,"MP":1155,"Ġmock":1156,"'s":1157,"Ġcopy":1158,"ight":1159,"lugin":1160,"ody":1161,"'))":1162,"license":1163,"tring":1164,"bin":1165,"[\"":1166,"ally":1167,"we":1168,"Data":1169,"Ġisinstance":1170,"ps":1171,"use":1172,"Ġitem":1173,"Ġused":1174,"'t":1175,"Ġmodel":1176,"module":1177,"12":1178,"ĠCon":1179,"Ġsuper":1180,"lob":1181,"ream":1182,"check":1183,"row":1184,"pr":1185,"dis":1186,"'.":1187,"Ġ5":1188,"Ġca":1189,"ved":1190,"Ġcode":1191,"ine":1192,"Ser":1193,"net":1194,"ulti":1195,"ound":1196,"Ġmodels":1197,"Ġz":1198,"token":1199,"ime":1200,"Ġint":1201,"cl":1202,"content":1203,"my":1204,"ittest":1205,"ump":1206,"Ġelif":1207,"Model":1208,"Ġne":1209,"process":1210,"names":1211,"Ġsu":1212,"bug":1213,"Ġstart":1214,"Ġgo":1215,"sys":1216,"ises":1217,"ols":1218,"Ġother":1219,"ner":1220,"Me":1221,"yn":1222,"})":1223,"be":1224,"rectory":1225,"Ġag":1226,"Ġcheck":1227,"ĠY":1228,"action":1229,"oo":1230,"Ġclient":1231,"\"]":1232,"Ġdb":1233,"Ġwhich":1234,"cre":1235,"HO":1236,"image":1237,"andom":1238,"Ġ>>>":1239,"Ġindex":1240,"new":1241,"icode":1242,"lean":1243,"array":1244,"point":1245,"Ġ/":1246,"ark":1247,"men":1248,"sg":1249,"ors":1250,"ref":1251,"Ġdis":1252,"sign":1253,"Ġj":1254,"Ch":1255,"move":1256,"ments":1257,"uple":1258,"File":1259,"pack":1260,"bar":1261,"opyright":1262,"elp":1263,"ĠUn":1264,"ual":1265,"Ġcontext":1266,"ome":1267,"Fa":1268,"trans":1269,"AC":1270,"ap":1271,"cs":1272,"Ġcontain":1273,"Ġdict":1274,"Base":1275,"Ġcall":1276,"doc":1277,"Ġlogging":1278,"source":1279,"ĠDe":1280,"Ġtext":1281,"ĠSee":1282,"Ġauth":1283,"PI":1284,"Ġopen":1285,"types":1286,"ler":1287,"ĠIS":1288,":`":1289,"func":1290,"Ġevent":1291,"lable":1292,"Ġ201":1293,"filter":1294,"lication":1295,"ĠĠĠĠĠĠĠĠĠ":1296,"RL":1297,"ax":1298,"Ġdocument":1299,"HE":1300,"ci":1301,"mock":1302,"ftware":1303,"Ġexpected":1304,"Set":1305,"ties":1306,"settings":1307,"Ġid":1308,"((":1309,"Ġvalues":1310,"open":1311,"split":1312,"ĠReturn":1313,"tro":1314,"ython":1315,"orted":1316,"Up":1317,"comm":1318,"command":1319,"'):":1320,"Ġ!":1321,"www":1322,"################################":1323,"ĠCopyright":1324,"ĠOR":1325,"patch":1326,"Ġstate":1327,"Ġwork":1328,"play":1329,"ong":1330,"ĠX":1331,"Ġsource":1332,"project":1333,"Ġrequired":1334,"ĠAN":1335,"ion":1336,"Ġcurrent":1337,"ach":1338,"its":1339,"ersion":1340,"output":1341,"iven":1342,"ĠĊ":1343,"fied":1344,"Ġwhen":1345,"Ġhave":1346,"lection":1347,"conn":1348,"Ġimage":1349,"viron":1350,"Ġ|":1351,"Ġany":1352,"ENT":1353,"Ġone":1354,"Ġcal":1355,"sent":1356,"Ġ!=":1357,"lay":1358,"ED":1359,"Ġend":1360,"Ġfiles":1361,"queue":1362,"Ġgener":1363,"indow":1364,"als":1365,"event":1366,"less":1367,"itial":1368,"Exception":1369,"delete":1370,"env":1371,"TP":1372,"ep":1373,"print":1374,"Ġtra":1375,"ĠJ":1376,"uture":1377,"Ġad":1378,"tity":1379,"params":1380,"equal":1381,"uto":1382,"uration":1383,"ML":1384,"assertTrue":1385,"Di":1386,"Ġimp":1387,"SI":1388,"Ġjson":1389,"ak":1390,"Ġreg":1391,"Ġcontent":1392,"fields":1393,"Ġrange":1394,"Ġcommand":1395,"ister":1396,"Ġobj":1397,"cls":1398,"Par":1399,"Form":1400,"plo":1401,"[:":1402,"ched":1403,"trol":1404,"options":1405,"trib":1406,"Ġdatetime":1407,"tail":1408,"label":1409,"ither":1410,"GE":1411,"Ġsettings":1412,"****":1413,"ĠCON":1414,"32":1415,"missions":1416,"Ġmax":1417,"place":1418,"Ġformat":1419,"ĠOF":1420,"Un":1421,"},":1422,"cache":1423,"Vi":1424,"List":1425,"Ġserver":1426,"arning":1427,"length":1428,"tin":1429,"clude":1430,"uct":1431,"ql":1432,"Ġpage":1433,"inter":1434,"ICEN":1435,"Ġquery":1436,"Ġspecific":1437,"page":1438,"filename":1439,"lines":1440,"values":1441,"================":1442,"umpy":1443,"ICENSE":1444,"pass":1445,"ify":1446,"FI":1447,"ameters":1448,"Ġvalid":1449,"Ġnumber":1450,"Ġlimit":1451,"ration":1452,"Ġup":1453,"idget":1454,"loc":1455,"Ġparam":1456,"cri":1457,"ĉĊ":1458,"Ġwri":1459,"sor":1460,"ĠMO":1461,"ocket":1462,"lat":1463,"rc":1464,"Ġpython":1465,"serial":1466,"Ġlanguage":1467,"alueError":1468,"Ġ####":1469,"function":1470,"store":1471,"Ġoptions":1472,"property":1473,"chema":1474,"Ra":1475,"Ġgiven":1476,"Ġtemplate":1477,"Ġeither":1478,"RAN":1479,"mbda":1480,"ICA":1481,"Ġbo":1482,"django":1483,"uid":1484,"emp":1485,"ariable":1486,"Ġnames":1487,"::":1488,"Ġver":1489,"face":1490,"attern":1491,"Ġob":1492,"job":1493,"Ġ--":1494,"python":1495,"lan":1496,"stra":1497,"TTP":1498,"input":1499,"Key":1500,"Ġmatch":1501,"post":1502,"ĠQ":1503,"admin":1504,"ists":1505,"Ġman":1506,"DIF":1507,"adata":1508,"LO":1509,"Ġcod":1510,"task":1511,"try":1512,"Ġutf":1513,"exec":1514,"Ġkwargs":1515,"tocol":1516,"ures":1517,"Ġonly":1518,"Ġcl":1519,"Ġcoding":1520,"lied":1521,"Ġread":1522,"xy":1523,"session":1524,"Not":1525,"En":1526,"shape":1527,"Ġargument":1528,"UL":1529,"ld":1530,"annel":1531,"\".":1532,"ud":1533,"AD":1534,"Ġmake":1535,"ĠYou":1536,"Ġview":1537,"close":1538,"ICATIONS":1539,"range":1540,"Ġcls":1541,"resource":1542,"tag":1543,"root":1544,"unk":1545,"pri":1546,"ustom":1547,"64":1548,"Ġtoken":1549,"ĠMODIF":1550,"Ġ10":1551,"local":1552,"{'":1553,"(*":1554,"ĠMODIFICATIONS":1555,"future":1556,"String":1557,"debug":1558,"util":1559,"feren":1560,"Ġsoftware":1561,"0000":1562,"coding":1563,"keys":1564,"Ġbut":1565,"build":1566,"ature":1567,"Ġtrans":1568,"Ġinput":1569,"Ġ]":1570,"ilter":1571,"Ġback":1572,"Ġmsg":1573,"Ġtw":1574,"ĠCo":1575,"items":1576,"Ġtarget":1577,"river":1578,"ĠANY":1579,"ĠWAR":1580,"View":1581,"idth":1582,"exception":1583,"MA":1584,"conf":1585,"ccess":1586,"ĠPro":1587,"target":1588,"ell":1589,"ĠĠĠĠĊ":1590,"Id":1591,"OT":1592,"sition":1593,"Get":1594,"column":1595,"PE":1596,"Ġdirectory":1597,"lease":1598,"teger":1599,"ats":1600,"IND":1601,"irst":1602,"err":1603,"Ġupdate":1604,"User":1605,"ran":1606,"lation":1607,"df":1608,"yle":1609,"msg":1610,"Ġaction":1611,"copy":1612,"match":1613,"ĠWARRAN":1614,"ING":1615,"Request":1616,"files":1617,"AB":1618,"var":1619,"11":1620,"ateg":1621,"onent":1622,"ns":1623,"gine":1624,"ffer":1625,"201":1626,"ake":1627,"entry":1628,"licenses":1629,"TIES":1630,"Ġprovi":1631,"np":1632,"ĠReturns":1633,"Ġdoes":1634,"ĠVersion":1635,"ain":1636,"orage":1637,"Ġgroup":1638,"dent":1639,"press":1640,"Ġhost":1641,"dition":1642,"Ġusing":1643,"num":1644,"Ġvi":1645,"NA":1646,"Ġpermissions":1647,"raw":1648,"Raises":1649,"change":1650,"fter":1651,"('/":1652,"Ġtable":1653,"cy":1654,"save":1655,"Ġmust":1656,"raph":1657,"Ġ'%":1658,"Ġinter":1659,"pk":1660,"select":1661,"Ar":1662,"Ġexception":1663,"Ġsize":1664,"Ġtask":1665,"cord":1666,"imple":1667,"ĠPython":1668,"pect":1669,"ste":1670,"ates":1671,"tadata":1672,"iter":1673,"ĠĠĠĠĠĠĠĠĠĠĠĠĠĠĠĠĠĠĠĠĠĠĠĠĠ":1674,"ĠApache":1675,"Col":1676,"Ġpack":1677,"Se":1678,"has":1679,"CO":1680,"To":1681,"Ġ'/":1682,"ĠWARRANTIES":1683,"top":1684,"Handler":1685,"find":1686,"izer":1687,"ĠWIT":1688,"CE":1689,"License":1690,"handler":1691,"Ġ200":1692,"RI":1693,"fir":1694,"uri":1695,"ous":1696,"tiv":1697,"level":1698,"Ġrow":1699,"assertRaises":1700,"Ġuti":1701,"Ġproject":1702,")),":1703,"Ġq":1704,"Ġhelp":1705,"tools":1706,"Ġ6":1707,"PO":1708,"Ġmo":1709,"Ġobtain":1710,"here":1711,"HOUT":1712,"inal":1713,"Ġstatus":1714,"Ġnumpy":1715,"verse":1716,"').":1717,"exten":1718,"ized":1719,")))":1720,"ization":1721,"Ġapplic":1722,"=[":1723,"Log":1724,"ker":1725,"Time":1726,"Ġyield":1727,"Ġhere":1728,"Ġinto":1729,"ped":1730,"asses":1731,"Ġwriting":1732,"contrib":1733,"vai":1734,"site":1735,"email":1736,"mber":1737,"fore":1738,"Ġmin":1739,"xml":1740,"current":1741,"manager":1742,"tests":1743,"mation":1744,"usr":1745,"Man":1746,"Ġparams":1747,"nder":1748,"ĠBAS":1749,"DO":1750,"Ġconnection":1751,"apache":1752,"order":1753,"ĠĠĠĠĠĠĠĠĠĠĠĠĠĠĠĠĠĠĠĠĠĠĠĠĠĠĠ":1754,"LICENSE":1755,"sa":1756,"older":1757,"sit":1758,"ĠLicensed":1759,"Ġparser":1760,"ote":1761,"Ġfilename":1762,"Ġgover":1763,"bi":1764,"Ġfirst":1765,"Ġinst":1766,"ĠKIND":1767,"ath":1768,"Return":1769,"~~~~":1770,"Ġimplied":1771,"Ġover":1772,"rap":1773,"body":1774,"mission":1775,"of":1776,"EST":1777,"Ġexp":1778,"quen":1779,"uster":1780,"connection":1781,"ĠWITHOUT":1782,"000":1783,"ick":1784,"Ġsetup":1785,"reed":1786,"Po":1787,"mon":1788,"25":1789,"liance":1790,"lear":1791,"Ġunittest":1792,"headers":1793,"parser":1794,"other":1795,"(_":1796,"ha":1797,"parent":1798,"pub":1799,"US":1800,"author":1801,"Ġport":1802,"old":1803,"child":1804,"\");":1805,"Ġtuple":1806,"cript":1807,"iled":1808,"tributes":1809,"inx":1810,"Ġcompliance":1811,"IO":1812,"cmd":1813,"ogle":1814,"domain":1815,"</":1816,"kip":1817,"Ġapplicable":1818,"Ġdoc":1819,"Ġexpress":1820,"ĠCONDI":1821,"atri":1822,"\"),":1823,"ĠCONDITIONS":1824,"Ġgoverning":1825,"ĠAr":1826,"ĠBASIS":1827,"box":1828,"option":1829,"connect":1830,"TY":1831,"mt":1832,"Ġlib":1833,"rid":1834,"show":1835,"prefix":1836,"Ġresource":1837,"dout":1838,"register":1839,"Ġtrue":1840,"etwork":1841,"olume":1842,"Ġparent":1843,"last":1844,"Ġlaw":1845,"ĠValueError":1846,"ating":1847,"password":1848,"Ġagreed":1849,"ĠUnless":1850,"ast":1851,"fail":1852,"alt":1853,"99":1854,"float":1855,"search":1856,"Ġsome":1857,"ternal":1858,"Ġchange":1859,"rate":1860,"phinx":1861,"Client":1862,"Lo":1863,"plugin":1864,"pos":1865,"Ġprocess":1866,"CON":1867,"spec":1868,"Ġ''":1869,"Ġfields":1870,"Config":1871,"Ġneed":1872,"ush":1873,"ive":1874,"let":1875,"username":1876,"ĠBE":1877,"Ġmore":1878,"Ġlimitations":1879,"gener":1880,"Ġeach":1881,"Ġcolumn":1882,"are":1883,"mented":1884,")]":1885,"vailable":1886,"Value":1887,"block":1888,"frame":1889,"Response":1890,"Ġheaders":1891,"package":1892,"Ġcase":1893,"Ġunicode":1894,"Ġexec":1895,"UN":1896,"ug":1897,").__":1898,"Ġret":1899,"stack":1900,"script":1901,"so":1902,"cted":1903,"UM":1904,"Object":1905,"fla":1906,"sup":1907,"ĠUser":1908,"Ġses":1909,"thing":1910,"04":1911,"pper":1912,"stamp":1913,"atrix":1914,"example":1915,"ĠLO":1916,"next":1917,"Ġlabel":1918,"CT":1919,"Ġload":1920,"make":1921,"Ġ#!":1922,"ference":1923,"Ġdescription":1924,"static":1925,"LI":1926,"ormal":1927,"ATE":1928,"Ġwhile":1929,"Ġelement":1930,"itor":1931,"ĠĠĠĠĠĠĠĠĠĠ":1932,"ants":1933,"ĠAdd":1934,"stream":1935,"olute":1936,"Ġresults":1937,"pop":1938,"Ġservice":1939,"flow":1940,"rt":1941,"ĠImport":1942,"elper":1943,"mark":1944,"ollow":1945,"ĠMe":1946,"send":1947,"abs":1948,"lt":1949,"][":1950,"Ġpri":1951,"number":1952,"vo":1953,"space":1954,"datetime":1955,"Ġcor":1956,"fier":1957,"mary":1958,"down":1959,"Ġ8":1960,"ync":1961,"ameter":1962,"Add":1963,"denti":1964,"IL":1965,"vert":1966,"Command":1967,"fy":1968,"Ġoper":1969,"mode":1970,"mote":1971,"duct":1972,"description":1973,"formation":1974,"les":1975,"environ":1976,"Ġmode":1977,"ĠĠĠĠĠĠĠĠĠĠĠĠĠĠĠĠĠĠĠĠĠ":1978,"Ġsession":1979,"ctionary":1980,"vision":1981,"sum":1982,"Ġbody":1983,"FA":1984,"Ġorder":1985,"fer":1986,"Ġsa":1987,"assertEquals":1988,"Ġ...":1989,"Ġ#!/":1990,"Ġ::":1991,"lect":1992,"Ġlogger":1993,"off":1994,"ĠException":1995,"Node":1996,"Ġfe":1997,"exp":1998,"address":1999,"Ġmain":2000,"Ġ'.":2001,"cket":2002,"now":2003,"Mock":2004,"Auth":2005,"Ġtitle":2006,"Ġimple":2007,"random":2008,"strip":2009,"ĠPar":2010,"remove":2011,"ution":2012,"cer":2013,"Factory":2014,"(__":2015,"lobal":2016,"unittest":2017,"ression":2018,"ice":2019,"ĠIN":2020,"Ġwas":2021,"ASE":2022,"lity":2023,"Ġabs":2024,"ĠSt":2025,"Ġobjects":2026,"Ġgetattr":2027,"sible":2028,"aster":2029,"Ġfloat":2030,"Ġconn":2031,"TML":2032,"Ġlocal":2033,"alid":2034,"go":2035,"ultip":2036,"Ġfound":2037,"Ġbuild":2038,"ie":2039,"Ġsy":2040,"meta":2041,"Ġallow":2042,"ĠTHE":2043,"perties":2044,"Ġpackage":2045,"NAME":2046,"ĠFor":2047,"VER":2048,"Ġsign":2049,"swith":2050,"network":2051,"Ġlink":2052,"case":2053,"Ġtop":2054,"chedule":2055,"20":2056,"Ġthread":2057,"URL":2058,"cho":2059,"contain":2060,"Ġapi":2061,"gen":2062,"Ġval":2063,"No":2064,"Ġthen":2065,"ĠNot":2066,"rary":2067,"licy":2068,"Ġroot":2069,"igh":2070,"INE":2071,"Is":2072,"lish":2073,"Ġsha":2074,"lug":2075,"###":2076,"Ġab":2077,"ators":2078,"CH":2079,"argument":2080,"attribute":2081,"Ġlast":2082,"EX":2083,"At":2084,"can":2085,"nown":2086,"Ġattr":2087,"KE":2088,"ative":2089,"Ġextra":2090,"direct":2091,"Ġexten":2092,"Ġtests":2093,"present":2094,"urls":2095,"Class":2096,"isted":2097,"etch":2098,"ui":2099,"Ġcount":2100,"entic":2101,"Dict":2102,"inst":2103,"Ġsame":2104,"Ġtag":2105,"ixin":2106,"element":2107,"34":2108,"200":2109,"bose":2110,"_(":2111,"Comp":2112,"App":2113,"Ġ(\"":2114,"Ġpart":2115,"tific":2116,"ton":2117,"Create":2118,"Ġsee":2119,"ids":2120,"graph":2121,"asic":2122,"tails":2123,"Ġpos":2124,"ont":2125,"Message":2126,"lso":2127,"ĠsetUp":2128,"reak":2129,"Ġparse":2130,"mod":2131,"Ġresp":2132,"ĠĠĠĠĠĠĠĠĠĠĠĠĠ":2133,"ĠBase":2134,"book":2135,"served":2136,"called":2137,"exists":2138,"Ġdiff":2139,"Ad":2140,"Ġcomm":2141,"ready":2142,".\"":2143,"Ġdefin":2144,"'''":2145,"except":2146,"Ġnum":2147,"16":2148,"Ġafter":2149,"amples":2150,"ĠĠĠĠĠĠĠĠĠĠĠĠĠĠĠĠĠĠĠĠĠĠĠĠĠĠĠĠĠ":2151,"ĠURL":2152,"abled":2153,"hash":2154,"The":2155,"AY":2156,"fg":2157,"ĠNO":2158,"first":2159,"{}":2160,"----------------------------------------":2161,"io":2162,"quire":2163,"Resource":2164,"common":2165,"Ġchild":2166,"lask":2167,"ULT":2168,"Bu":2169,"Text":2170,"dle":2171,"Ġclo":2172,"ĠĠĠĠĠĠĠĠĠĠĠĠĠĠĠĠĠ":2173,"cond":2174,"war":2175,"dic":2176,"color":2177,"Ġfla":2178,"Ġ'__":2179,"derr":2180,"ĠĠĠĠĠĠĠĠĠĠĠĠ":2181,"Ġed":2182,"Ġhandle":2183,"replace":2184,"lated":2185,"Ġhandler":2186,"des":2187,"okup":2188,"TH":2189,"del":2190,"tinue":2191,"stop":2192,"Ġdel":2193,"ĠAPI":2194,"Ġfind":2195,"Ġlambda":2196,"ful":2197,"Ġpassword":2198,"ĠĠĠĠĠĠĠĠĠĠĠĠĠĠĠĠĠĠĠĠ":2199,"OP":2200,"iddle":2201,"width":2202,"Ġinfo":2203,"logger":2204,"Ġcom":2205,"MPL":2206,"---":2207,"fs":2208,"Ġarray":2209,"ategory":2210,"ique":2211,"system":2212,"req":2213,"Ġtemp":2214,"troller":2215,"Ġspecified":2216,"Ġrandom":2217,"errors":2218,"ATION":2219,"ĠWe":2220,"Ġsw":2221,"[-":2222,"lative":2223,"Ġsp":2224,"rule":2225,"Ġcmd":2226,"Ġ[\"":2227,"Ġfunc":2228,"Ġyour":2229,"plot":2230,"Ġcache":2231,"50":2232,"cp":2233,"__)":2234,"ĠĠĠĠĠĠĠĠĠĠĠĠĠĠĠĠĠĠĠĠĠĠĠĠĠĠ":2235,"ĠAll":2236,"ĠString":2237,"fin":2238,"ĠĠĠĠĠĠĠĠĠĠĠĠĠĠĠĠĠĠ":2239,"ish":2240,"Ġ\"%":2241,"ĠĠĠĠĠĠĠĠĠĠĠĠĠĠ":2242,"forms":2243,"mpty":2244,"comple":2245,"Qu":2246,"setup":2247,"ĠĠĠĠĠĠĠĠĠĠĠĠĠĠĠĠĠĠĠĠĠĠĠĠĠĠĠĠ":2248,"Ġ\"\"":2249,"Manager":2250,"engine":2251,"ported":2252,"wh":2253,"Ca":2254,"Char":2255,"'].":2256,"ĠGet":2257,"pc":2258,"header":2259,"encode":2260,"Ġfilter":2261,"av":2262,"Ġconfiguration":2263,"zer":2264,"extra":2265,"Ġbuil":2266,"HTTP":2267,"Path":2268,"({":2269,"Ġarguments":2270,"Ġvariable":2271,"very":2272,"dered":2273,"cale":2274,"cope":2275,"AP":2276,"sten":2277,"compile":2278,"struct":2279,".')":2280,"Ġinitial":2281,"Ġqu":2282,"Ġinformation":2283,"'}":2284,"Ġcreated":2285,"100":2286,"driver":2287,"Ġte":2288,"actor":2289,"QL":2290,"Ġax":2291,"ĠCreate":2292,"pattern":2293,"ob":2294,"Ġfollow":2295,"Ġright":2296,"ummy":2297,"timeout":2298,"cli":2299,"Ġ9":2300,"resh":2301,"rapper":2302,"txt":2303,"Ġrender":2304,"PER":2305,"Imple":2306,"Ġfail":2307,"ings":2308,"termin":2309,"Ġact":2310,"********":2311,"gex":2312,"ord":2313,"ĠAn":2314,"ĠSet":2315,"istr":2316,"handle":2317,"Ġattribute":2318,"expected":2319,"ĠTO":2320,"Ġblock":2321,"ĠFOR":2322,"backend":2323,"Ġ7":2324,"atures":2325,"Server":2326,"Ġpoint":2327,"ould":2328,"Tests":2329,"Ġdatabase":2330,"sets":2331,"ditional":2332,"style":2333,"Ġorig":2334,"dential":2335,"penden":2336,"callback":2337,"application":2338,"classmethod":2339,"Ġchar":2340,"Ġop":2341,"quence":2342,"Run":2343,"OC":2344,"ĠData":2345,"Ġabsolute":2346,"execute":2347,"Ġcollection":2348,"\"))":2349,"Ġits":2350,"']['":2351,"ng":2352,"dump":2353,"tree":2354,"ultiple":2355,"ĠImportError":2356,"ide":2357,"Ġcontinue":2358,"ib":2359,"Item":2360,"Ġnon":2361,"FAULT":2362,".\")":2363,"ĠĠĠĠĠĠĠĠĊ":2364,"dia":2365,"ONE":2366,"Event":2367,"Ġdest":2368,"lower":2369,"Ġnext":2370,"sy":2371,"repo":2372,"ĠSE":2373,"ESS":2374,"Service":2375,"Ġexist":2376,"git":2377,"ular":2378,"GIN":2379,"uuid":2380,"heet":2381,"iddleware":2382,"Ġtimeout":2383,"tera":2384,"Ġiter":2385,"TER":2386,"login":2387,"vider":2388,"Ġdir":2389,"Ġfin":2390,"------------------------------------------------------------------------":2391,"Ġloc":2392,"ĠKey":2393,"Ġexample":2394,"Ġreturns":2395,"metadata":2396,"assi":2397,"igration":2398,"ĠHTML":2399,"latform":2400,"zone":2401,"Ġalso":2402,"sen":2403,"exit":2404,"shared":2405,"sca":2406,"Ġwrite":2407,"ĠEX":2408,"results":2409,"Mixin":2410,"Ġhasattr":2411,"round":2412,"ector":2413,"unicode":2414,"Ġcustom":2415,"SON":2416,"DB":2417,"SS":2418,"Ġheader":2419,"Ġauto":2420,"Ġthere":2421,"Ġavailable":2422,"SION":2423,"Ġauthor":2424,"Ġoff":2425,"Ġcre":2426,"repr":2427,"Ġshow":2428,"sume":2429,"Ġpub":2430,"Ġinclude":2431,"Ġpost":2432,"tw":2433,"act":2434,"Ġhash":2435,"24":2436,"__,":2437,"Ġprefix":2438,"GET":2439,"conds":2440,"over":2441,"fake":2442,"ĠĠĠĠĠĠĠĠĠĠĠĠĠĠĠĠĠĠĠĠĠĠ":2443,"ĠFI":2444,"\\\\":2445,"ves":2446,"schema":2447,"aml":2448,"true":2449,"ink":2450,"cen":2451,"Connection":2452,"side":2453,"ĠType":2454,"web":2455,"ear":2456,"mory":2457,"stdout":2458,"char":2459,"Ġentry":2460,"ĠHTTP":2461,"tmp":2462,"lambda":2463,"dirname":2464,"Ġserial":2465,"argv":2466,"location":2467,"UR":2468,"lot":2469,"Al":2470,"Ġjob":2471,"ship":2472,"ello":2473,"Ġopt":2474,"document":2475,"thread":2476,"Ġsupport":2477,"pping":2478,"Implemented":2479,"Ġstream":2480,"Ġ12":2481,"Ġold":2482,"Ġframe":2483,"Ġencoding":2484,"ingle":2485,"AG":2486,"olver":2487,"channel":2488,"ĠAt":2489,"arnings":2490,"Ġerr":2491,"active":2492,"users":2493,"Parser":2494,"ptions":2495,"Logger":2496,"]))":2497,"Ġcalled":2498,"Ġ{\"":2499,"only":2500,"QU":2501,"Ġsocket":2502,"insert":2503,"Ġdocumentation":2504,"kernel":2505,"imal":2506,"Ġkeys":2507,"Ġparameters":2508,"Ġdictionary":2509,"cret":2510,"Ġlength":2511,"https":2512,"ĠCol":2513,"ĠAUT":2514,"ĠList":2515,"LINE":2516,"rop":2517,"ĠĠĠĠĠĠĠĠĠĠĠĠĠĠĠĠĠĠĠĠĠĠĠĠĠĠĠĠĠĠĠ":2518,"lice":2519,"assed":2520,"gest":2521,"=['":2522,"ĠInc":2523,"LY":2524,"commit":2525,"ba":2526,"factory":2527,"Ġwhere":2528,"ven":2529,"CharField":2530,"TYPE":2531,"Trans":2532,"ik":2533,"ĠGener":2534,"liter":2535,"API":2536,"Ġbefore":2537,"Ġta":2538,".,":2539,"tags":2540,"Group":2541,"ĠĠĠĠĠĠĠĠĠĠĠĠĠĠĠĠĠĠĠĠĠĠĠĠĠĠĠĠĠĠ":2542,"Ġcallback":2543,"startswith":2544,"Ġaddress":2545,"Ġlike":2546,"ceiv":2547,"Ġemail":2548,"ride":2549,")):":2550,"02":2551,"Ġ>=":2552,"coder":2553,"(['":2554,"ploy":2555,"Ġbreak":2556,"={":2557,"Ġrequests":2558,"views":2559,"day":2560,"Ġnetwork":2561,"TE":2562,"Ġitems":2563,"Ġaccess":2564,"Ġpla":2565,"State":2566,"dices":2567,"imp":2568,"=(":2569,"board":2570,"BU":2571,"PAT":2572,"ĠCh":2573,"anel":2574,"ĠTH":2575,"Ac":2576,"]:":2577,"Admin":2578,"`.":2579,"Ġlevel":2580,"MO":2581,"ati":2582,"Ġmethods":2583,"access":2584,"yload":2585,"istry":2586,"tuple":2587,"ook":2588,"Ġsearch":2589,"Ġplugin":2590,"Call":2591,"Ġutils":2592,"Ġthan":2593,"ĠEn":2594,"DIR":2595,"Ġsix":2596,"ĠRes":2597,"src":2598,"ason":2599,"tex":2600,"Ġass":2601,"Ġtwo":2602,"Ġtypes":2603,"Ġcolor":2604,"limit":2605,"clean":2606,"Ġenv":2607,"stract":2608,"Ġscript":2609,"tx":2610,"zy":2611,"exc":2612,"bytes":2613,"Ġpattern":2614,"assertFalse":2615,"sw":2616,"','":2617,"ranch":2618,"aded":2619,"decode":2620,"diff":2621,"ĠSer":2622,"CL":2623,"ĠNo":2624,"emplate":2625,"tach":2626,"exceptions":2627,"raises":2628,"33":2629,"Ġfull":2630,"rs":2631,"rec":2632,"OK":2633,"Ġlines":2634,"KEY":2635,"TR":2636,"ĠDE":2637,"Instance":2638,"ĠIt":2639,"tml":2640,"tot":2641,"=%":2642,"Ġnow":2643,"ORT":2644,"Ġbeen":2645,"Ġerrors":2646,"ND":2647,"\",\"":2648,"pha":2649,"This":2650,"Ġ'--":2651,"Ġqueue":2652,"Ġ'_":2653,"SD":2654,"wd":2655,"gr":2656,"render":2657,"ĠNotImplemented":2658,"lank":2659,"sure":2660,"Ġsend":2661,"ATED":2662,"delta":2663,"Ġlicense":2664,"stats":2665,"Ġ'-":2666,"IP":2667,"ices":2668,"train":2669,"profile":2670,"56":2671,"gram":2672,"/%":2673,"ipe":2674,"xture":2675,"Ġref":2676,"Ġrepresent":2677,"ights":2678,"member":2679,"PRO":2680,"Per":2681,"tep":2682,"Ġsystem":2683,"18":2684,"stru":2685,"ĠIMP":2686,"oly":2687,"...":2688,":%":2689,"used":2690,"quires":2691,"Th":2692,"dev":2693,"Frame":2694,"ffix":2695,"Ġreq":2696,"OG":2697,"Out":2698,"Element":2699,"bind":2700,"Ġcomple":2701,"peri":2702,"ured":2703,"Ġimplement":2704,"Content":2705,"({'":2706,"For":2707,"'^":2708,"UP":2709,"groups":2710,"Ġ&":2711,"tered":2712,"velo":2713,"device":2714,"Ġ$":2715,"Ġtree":2716,"ugh":2717,"ĠApp":2718,"Ġmark":2719,"OF":2720,"Ġdomain":2721,"storage":2722,"nodes":2723,"Ġmap":2724,"Index":2725,"Cache":2726,"(?":2727,"alled":2728,"loads":2729,"unter":2730,"Ġapplication":2731,"Ġweb":2732,"pool":2733,"ling":2734,"30":2735,"Ġwithout":2736,"socket":2737,"oper":2738,"auto":2739,"fn":2740,"Check":2741,"full":2742,"Query":2743,"ret":2744,"TICE":2745,"Ġempty":2746,"ged":2747,"ĠTHIS":2748,"widget":2749,"lue":2750,"From":2751,"ceived":2752,"Date":2753,"(**":2754,"Ġreturned":2755,"window":2756,"leep":2757,"Ġ},":2758,"Ġdetails":2759,"ĠON":2760,"Ġrepo":2761,"Ġrule":2762,"literals":2763,"Ġfoo":2764,"words":2765,"Ġdelete":2766,"ĠArgs":2767,"Result":2768,"Task":2769,"wner":2770,"Ġexc":2771,"Ġspec":2772,"EL":2773,"ĠNOTICE":2774,"ĠPy":2775,"Ġeq":2776,"15":2777,"Ġpassed":2778,"dentials":2779,"assertIs":2780,"volume":2781,"classes":2782,"offset":2783,"iff":2784,"sql":2785,"Ġ--------":2786,"account":2787,"Ġrelative":2788,"With":2789,"Action":2790,"mer":2791,"__':":2792,"ĠSe":2793,"validate":2794,"tom":2795,"vironment":2796,"Ġbin":2797,"ĉĉĉ":2798,"cluster":2799,"ĠTODO":2800,"Reg":2801,"By":2802,"ait":2803,"Ġtwisted":2804,"ible":2805,"ystem":2806,"Pre":2807,"addr":2808,"messages":2809,"istory":2810,"Ġusername":2811,"required":2812,"ries":2813,"wise":2814,"Ġpatch":2815,"Ġalready":2816,"ano":2817,"Ġ100":2818,"rough":2819,"ince":2820,"ithub":2821,"ected":2822,"comment":2823,"non":2824,"Ġreverse":2825,"sage":2826,"series":2827,"Ġ###":2828,"================================":2829,"sm":2830,"Ġ'\\":2831,"like":2832,"Ġsimple":2833,"ulate":2834,"dentity":2835,"oolean":2836,"Ġremove":2837,"shot":2838,"bot":2839,"bility":2840,"Context":2841,"simple":2842,"ĠIF":2843,"uter":2844,"vate":2845,"Ġstyle":2846,"itch":2847,"Ġgraph":2848,"Ġim":2849,"Ġattributes":2850,"sitory":2851,"reen":2852,"layer":2853,"rag":2854,"release":2855,"POST":2856,"Ġsql":2857,"+)":2858,"tim":2859,"Ġprovided":2860,"Ġsingle":2861,"cause":2862,"PATH":2863,"Ġge":2864,"route":2865,"ĠNotImplementedError":2866,"oken":2867,"prec":2868,":]":2869,"buil":2870,"empty":2871,"ĉĉĊ":2872,"55":2873,"Ġjust":2874,"help":2875,"ges":2876,"container":2877,"Ġchannel":2878,"buffer":2879,"14":2880,"idx":2881,"Ġdon":2882,"annot":2883,"ĠCheck":2884,"olve":2885,"encoding":2886,"proxy":2887,"Ġhtml":2888,"sis":2889,"ĠDefault":2890,"okie":2891,"ĠEND":2892,"utton":2893,"Ġsta":2894,"Valid":2895,"latex":2896,"rand":2897,"orig":2898,"mi":2899,"ward":2900,"Ġsel":2901,"ĠFILE":2902,"sue":2903,"Ġ<=":2904,"ĠSo":2905,"dentifier":2906,"Ġdiffe":2907,"Ġstruct":2908,"FOR":2909,"dest":2910,"Gener":2911,"cry":2912,"cent":2913,"\"],":2914,"Ġlay":2915,"sv":2916,"initial":2917,"Ġmetadata":2918,"zip":2919,"left":2920,"Ġmy":2921,"Ġurllib":2922,"children":2923,"sq":2924,"collection":2925,"ENER":2926,"']:":2927,"Or":2928,"orter":2929,"pend":2930,"80":2931,"Ġip":2932,"oreign":2933,"ĠAuth":2934,"={'":2935,"til":2936,"Down":2937,"ET":2938,"tal":2939,"ceback":2940,"Ġgenerated":2941,"Dis":2942,"modules":2943,"oci":2944,"\"):":2945,"cloud":2946,"ession":2947,"He":2948,"Ġsure":2949,"greg":2950,"Ġ})":2951,"UMENT":2952,"\"])":2953,"stderr":2954,"utable":2955,"ail":2956,"Ġmeta":2957,"ali":2958,"Image":2959,"Ġcho":2960,"bit":2961,"Ġverbose":2962,"stead":2963,"tric":2964,"dified":2965,"imum":2966,"directory":2967,"edi":2968,"const":2969,"sole":2970,"any":2971,"Ġbytes":2972,"Table":2973,"opts":2974,"wrap":2975,"Ġmapp":2976,"ctions":2977,"invalid":2978,"Code":2979,"ĠZ":2980,"skip":2981,"getLogger":2982,"ĠPer":2983,"Ġwindow":2984,"Ġfake":2985,"And":2986,"Ġparameter":2987,"riter":2988,"Ġfollowing":2989,"Ġshape":2990,"points":2991,"Sta":2992,"pl":2993,"ĠMock":2994,"aly":2995,"ĠFile":2996,"Ġbet":2997,"chemy":2998,"Ġpaths":2999,"SER":3000,"eff":3001,"Ġdtype":3002,"Sub":3003,"Ġ'',":3004,"rations":3005,"ics":3006,"component":3007,"slug":3008,"Ġali":3009,"Ġglobal":3010,"Ġxml":3011,"19":3012,"dist":3013,"angible":3014,"ERR":3015,"Ġrecord":3016,"Ġdown":3017,"wait":3018,"Ġoptional":3019,"sumer":3020,"Lay":3021,"-------":3022,"sort":3023,"success":3024,"Ġdf":3025,"LEASE":3026,"################################################################":3027,"straint":3028,"some":3029,"part":3030,"Ġraw":3031,"]['":3032,"Ġwidget":3033,"curity":3034,"keep":3035,"Ġinterface":3036,"ux":3037,"Ġfunctions":3038,"sample":3039,"sheet":3040,"ical":3041,")[":3042,"Do":3043,"testing":3044,"div":3045,"ABLE":3046,"axis":3047,"Info":3048,"Ġlong":3049,"Ġproperty":3050,"XX":3051,"]),":3052,"ĠID":3053,"ric":3054,"Ġselect":3055,"total":3056,"ĠIP":3057,"AMPL":3058,"ĠDOC":3059,"Ġcontaining":3060,"most":3061,"An":3062,"position":3063,"ĠBEGIN":3064,"nap":3065,"Invalid":3066,"Ġ%(":3067,"Ġthey":3068,"ĠRun":3069,"Loc":3070,"AMPLES":3071,"Ġsubprocess":3072,"Ġclean":3073,"rf":3074,"Column":3075,"03":3076,"MS":3077,"WAR":3078,"Ġthem":3079,"Integer":3080,"andard":3081,"Filter":3082,"Ġadmin":3083,"vor":3084,"sphinx":3085,"Ġforms":3086,"defin":3087,"Sh":3088,"Ġtri":3089,"Ġsorted":3090,"Le":3091,"ueue":3092,"Ġzip":3093,"attrs":3094,"issing":3095,"resp":3096,"As":3097,"fetch":3098,"ctx":3099,"ROPER":3100,"DEFAULT":3101,"ĠDOCUMENT":3102,"Property":3103,"ĠSEE":3104,"Su":3105,"Bo":3106,"allow":3107,"events":3108,"OL":3109,"Ġbar":3110,"ntax":3111,"ENERATED":3112,"Ġswg":3113,"13":3114,"stf":3115,"ĠDONE":3116,"Ġswgpy":3117,"loop":3118,"ĠMAY":3119,"~~~~~~~~":3120,"Ġcorrect":3121,"Ġdisplay":3122,"Inter":3123,"Format":3124,"ĠEXAMPLES":3125,"Ġsalt":3126,"ĠPLEASE":3127,"ift":3128,"step":3129,"cies":3130,"ĠDOCUMENTATION":3131,"ĠONLINE":3132,"Ġmessages":3133,"Ġgenerate":3134,"OGENERATED":3135,"ĠAUTOGENERATED":3136,"22":3137,"ĠLOST":3138,"ĠIMPROPER":3139,"ctories":3140,"Version":3141,"stfName":3142,"ĠIMPROPERLY":3143,"ĠHttp":3144,"ĠOpen":3145,"ĠComp":3146,"ition":3147,"wn":3148,"irs":3149,"display":3150,"Ġinclu":3151,"Ġbecause":3152,"Ġfil":3153,"Ġmon":3154,"lector":3155,"Ġconst":3156,"Contain":3157,"Ġstop":3158,"Ġthese":3159,"opt":3160,"ween":3161,"Des":3162,"Ġcomponent":3163,"rep":3164,"(-":3165,"Ġwant":3166,"abspath":3167,"once":3168,"Ġstatic":3169,"timestamp":3170,"hook":3171,"ticle":3172,"Ġsave":3173,"Ġnodes":3174,"dumps":3175,"Ġsum":3176,"ACK":3177,"record":3178,"ja":3179,"dtype":3180,"Ġdire":3181,"ĠNote":3182,"Ġtotal":3183,"Ġexists":3184,"vious":3185,"Serial":3186,"ĠName":3187,"Number":3188,"Ġbackend":3189,"protocol":3190,"role":3191,"cheduler":3192,"lush":3193,"OS":3194,"install":3195,"gor":3196,"js":3197,"Ġdist":3198,"secret":3199,"ily":3200,"Ġlook":3201,"Ġvar":3202,"else":3203,"Ġ',":3204,"\">":3205,"win":3206,"Found":3207,"public":3208,"ĠAd":3209,"speci":3210,"known":3211,"unit":3212,"Ġinstead":3213,"'})":3214,"Process":3215,"folder":3216,"Ġ\"/":3217,"cle":3218,"master":3219,"Ġpk":3220,"github":3221,"Function":3222,"pu":3223,"gument":3224,"database":3225,".*":3226,"ntry":3227,"Ġchunk":3228,"Ġbool":3229,"NO":3230,"Ġdebug":3231,"$',":3232,"Ġinteger":3233,"cat":3234,"vm":3235,"language":3236,"cheme":3237,"properties":3238,"logging":3239,"Ġ'<":3240,"serv":3241,"Ġter":3242,"Ġdoesn":3243,"alog":3244,"DS":3245,"Ġinstall":3246,"light":3247,"gger":3248,"ĠGo":3249,"Ġpick":3250,"Attribute":3251,"short":3252,"ĠParameters":3253,"Ġ),":3254,"Str":3255,"helper":3256,"BUG":3257,"rest":3258,"ways":3259,"FF":3260,"ower":3261,"ĠTypeError":3262,"dot":3263,"gorith":3264,"TEST":3265,"ĠAttribute":3266,"compute":3267,"aa":3268,"ValueError":3269,"resses":3270,"Ġph":3271,"policy":3272,"rows":3273,"ĠDjango":3274,"Ġabout":3275,"ĠOr":3276,"ĠAs":3277,"hen":3278,"FILE":3279,"section":3280,"lex":3281,"oto":3282,"filters":3283,"normal":3284,"oreignKey":3285,"All":3286,"ins":3287,"TO":3288,"see":3289,"cc":3290,"]]":3291,"Line":3292,"hether":3293,"USER":3294,"apps":3295,"ĠDocument":3296,"abc":3297,"Ġpages":3298,"tivity":3299,"should":3300,"mbol":3301,"clear":3302,"Ġusers":3303,"gnore":3304,"ZE":3305,"Ġstrings":3306,"NS":3307,"css":3308,"dim":3309,"Ġcontainer":3310,"Ġadded":3311,"leted":3312,"AGE":3313,"created":3314,"ĠMeta":3315,"Ġtags":3316,"ports":3317,"Ġtmp":3318,"Ġtheme":3319,"Ġnormal":3320,"ĠĠĠĠĠĠĠĠĠĠĠĠĠĠĠĠĠĠĠĠĠĠĠĠĠĠĠĠĠĠĠĠĠ":3321,"Ġconf":3322,"idden":3323,"expr":3324,"Ġclasses":3325,"Tra":3326,"Fe":3327,"extend":3328,"multi":3329,"ork":3330,"entication":3331,"xx":3332,"head":3333,"tify":3334,"Ġdevice":3335,"ench":3336,"cla":3337,"Ġwarnings":3338,"provider":3339,"ĠJSON":3340,"uff":3341,"track":3342,"Protocol":3343,"[:,":3344,"Ġdefined":3345,"columns":3346,"tact":3347,"Ġflask":3348,"ĠConfig":3349,"Ġspace":3350,"loader":3351,"FO":3352,"Ġwidth":3353,"'][":3354,"Ġextension":3355,"Ġexpect":3356,"VAL":3357,"ĠĠĠĠĠĠĠĠĠĠĠĠĠĠĠĠĠĠĠĠĠĠĠĠĠĠĠĠĠĠĠĠĠĠĠ":3358,"%(":3359,"mk":3360,"tc":3361,"Fla":3362,"eq":3363,"product":3364,"eval":3365,"Ġoffset":3366,"chunk":3367,"Ġredirect":3368,"ination":3369,"ero":3370,"Ġthrough":3371,"igrations":3372,"Ġunique":3373,"AM":3374,"}.":3375,"Ġsite":3376,"images":3377,"Widget":3378,"Ġsort":3379,"Ġactual":3380,"()[":3381,"Ġprotocol":3382,"ĠLICENSE":3383,"ĠNOT":3384,"resources":3385,"tems":3386,"Ġstore":3387,"Ġbeing":3388,"Ġ\".":3389,"DAT":3390,"flags":3391,"Ġremote":3392,"Method":3393,"labels":3394,".'":3395,"=_":3396,"Ġour":3397,"agent":3398,"napshot":3399,"Input":3400,"spa":3401,"RES":3402,"Ġsrc":3403,"sted":3404,"ado":3405,"cursor":3406,"tification":3407,"\").":3408,"Ġsection":3409,"real":3410,"Ġvalidate":3411,"ERROR":3412,"CRE":3413,"78":3414,"yp":3415,"Ġoriginal":3416,"lem":3417,"assertIn":3418,"entries":3419,"pid":3420,"entity":3421,"Ġutil":3422,"Ġdifferent":3423,"sitive":3424,"Size":3425,"abel":3426,"paths":3427,"Ġxrange":3428,"Ed":3429,"ĠColumn":3430,"ĠTo":3431,"Status":3432,"theme":3433,"Ġcollections":3434,"Plugin":3435,"attributes":3436,"tenant":3437,"ĠStringIO":3438,"Ġlocation":3439,"ASS":3440,"fit":3441,"void":3442,"Ġinit":3443,"sig":3444,"Ġcluster":3445,"cast":3446,"ALL":3447,"ITY":3448,"fd":3449,"way":3450,"safe":3451,"Ġregister":3452,"edit":3453,"Ġ[(":3454,"Ġsuccess":3455,"pendencies":3456,"Ġtimestamp":3457,"packages":3458,"Ġ20":3459,"Ġ----------":3460,"ection":3461,"Ġenume":3462,"Ġplace":3463,"docs":3464,"WOR":3465,"'},":3466,"Ġ):":3467,"mask":3468,"Ġ16":3469,"scope":3470,"END":3471,"Ġ\"\\":3472,"Ġevery":3473,"Ġcontains":3474,"Ġfi":3475,"Ġschema":3476,"reset":3477,"Ġsm":3478,"ross":3479,"lite":3480,"_,":3481,"Callback":3482,"Module":3483,"Ġcolumns":3484,"ĠLOG":3485,"eg":3486,"Ġ'{":3487,"TIC":3488,"Ġcli":3489,"Returns":3490,"sleep":3491,"namespace":3492,"uch":3493,"wards":3494,")])":3495,"ĠĠĠĠĠĠĠĠĠĠĠĠĠĠĠĠĠĠĠĠĠĠĠĠĠĠĠĠĠĠĠĠĠĠ":3496,"ĠRequest":3497,"Ġcursor":3498,"SC":3499,"batch":3500,"oauth":3501,"Ġposition":3502,"rel":3503,"Ver":3504,"med":3505,"variable":3506,"Ġnamed":3507,"ĠValid":3508,"-----":3509,"rer":3510,"Py":3511,"Ġtake":3512,"plugins":3513,"gate":3514,"utron":3515,"linen":3516,"actions":3517,"Ġgen":3518,"Ġbetween":3519,"Ġsecond":3520,"ĠSphinx":3521,"SET":3522,"long":3523,"tool":3524,"Ġpytest":3525,"Ġevents":3526,"ose":3527,"Ġplt":3528,"std":3529,"sity":3530,"height":3531,"GI":3532,"__.":3533,"gh":3534,"returns":3535,"Ġsupported":3536,"cr":3537,"Ġskip":3538,"CP":3539,"Ġti":3540,"Ġ[])":3541,"Ġstdout":3542,"Ġnamespace":3543,"Ġtheano":3544,"Ġvari":3545,"Ġfn":3546,"Ġreplace":3547,"/'":3548,"cfg":3549,"matrix":3550,"PORT":3551,"manage":3552,"null":3553,"Ġstep":3554,"Ġmod":3555,"Ġbased":3556,"Ġcore":3557,"End":3558,"-%":3559,"tod":3560,"decor":3561,"pth":3562,"Ġdecor":3563,"ferred":3564,"ĠBSD":3565,"sl":3566,"orn":3567,"Ġgra":3568,"gress":3569,"Ġrunning":3570,"img":3571,"Ġlibrary":3572,"buf":3573,"ĠRE":3574,"desc":3575,"``.":3576,"dar":3577,"trics":3578,"dap":3579,"Ġsample":3580,"Ġpossible":3581,"Token":3582,"PL":3583,"ĠLo":3584,"On":3585,"}'.":3586,"rtype":3587,"verage":3588,"bucket":3589,"gments":3590,"tk":3591,"('\\":3592,"related":3593,"Ġctx":3594,"jobs":3595,"ient":3596,"titem":3597,"Ġaccount":3598,"Ġhow":3599,"fication":3600,"ĠPo":3601,"Ġ2015":3602,"Ġexceptions":3603,"umb":3604,"wer":3605,"Ġstats":3606,"Ġconvert":3607,"Ġaut":3608,"Back":3609,"Open":3610,"moved":3611,"Ġcomment":3612,"/',":3613,"Ġfalse":3614,"STR":3615,"()))":3616,"bad":3617,"olution":3618,"Ġentity":3619,"ished":3620,"region":3621,"Ġaxis":3622,"mean":3623,"features":3624,"Ġfinally":3625,"Ro":3626,"utor":3627,"pol":3628,"ws":3629,"Ġstack":3630,"42":3631,"Ġparsed":3632,"Ġlinks":3633,"Page":3634,"ĠGroup":3635,")'":3636,"ĠTh":3637,"Ġprob":3638,"Ġ#:":3639,"EXT":3640,"home":3641,"Ġenumerate":3642,"Ġ\"__":3643,"hex":3644,"('%":3645,"TIME":3646,"cords":3647,"remote":3648,"ITE":3649,"ested":3650,"17":3651,"fmt":3652,"Tree":3653,"sgi":3654,"Ġmultiple":3655,"detail":3656,"sive":3657,"ĠMy":3658,"ĠExample":3659,"Ġtesting":3660,"redirect":3661,"alchemy":3662,"ritems":3663,"05":3664,"SH":3665,"score":3666,"Ġ2014":3667,"Window":3668,"rl":3669,"UB":3670,"Ġdefaults":3671,"Ġattrs":3672,"basic":3673,"ĠKeyError":3674,"ationError":3675,"Ġappro":3676,"ferences":3677,"publish":3678,"IG":3679,"ĠImage":3680,"Ġprofile":3681,"Int":3682,"Ġdocuments":3683,">'":3684,"Output":3685,"Ġnova":3686,"fixture":3687,"VERSION":3688,"One":3689,"staticmethod":3690,"Ġnull":3691,"gettext":3692,"ram":3693,"Ġtrain":3694,"generate":3695,"NG":3696,"Ġgoogle":3697,"Address":3698,"Ġkeep":3699,"hello":3700,"Ġmatrix":3701,"force":3702,"agic":3703,"ĠGoogle":3704,"Ġcer":3705,"sec":3706,"SIZE":3707,"listen":3708,"Ġforce":3709,"ĠSoftware":3710,"card":3711,"mar":3712,"raise":3713,"MM":3714,"Ġhttps":3715,"lookup":3716,"Session":3717,"ority":3718,"Ġmember":3719,"controller":3720,"Ġleft":3721,"Ġrights":3722,"Ġfailed":3723,"lime":3724,"ĠCommand":3725,"interface":3726,"Serializer":3727,"custom":3728,"reverse":3729,"proto":3730,"rowser":3731,"Ġmanager":3732,"ĠModel":3733,"tore":3734,"localhost":3735,"Ġcharac":3736,"Ġwx":3737,"ĠTestCase":3738,"ude":3739,"pages":3740,"60":3741,"vs":3742,"Ġgit":3743,"Ġwait":3744,"verify":3745,"scale":3746,"changed":3747,"indices":3748,"`,":3749,"af":3750,"licit":3751,"stat":3752,"patterns":3753,"Ġpool":3754,"Ġcontents":3755,"permission":3756,"Ġhigh":3757,"mac":3758,"IM":3759,"lineno":3760,"Stream":3761,"signal":3762,"ĠAl":3763,"year":3764,"none":3765,"vis":3766,"ynam":3767,"templates":3768,"Ġclose":3769,"Ġagain":3770,"enabled":3771,"Point":3772,"her":3773,"parts":3774,"seq":3775,"arDown":3776,"ually":3777,"duce":3778,"404":3779,"Ġvolume":3780,"Ġsplit":3781,"eve":3782,"Ġdt":3783,"ored":3784,"nected":3785,"Ġjoin":3786,"platform":3787,"parameters":3788,"Ġ->":3789,"gment":3790,"lab":3791,"Ġcfg":3792,"lities":3793,"PC":3794,")\"":3795,"44":3796,"Ġignore":3797,"signed":3798,"Template":3799,"Ġproperties":3800,"WS":3801,"ĠUse":3802,"Ġexecute":3803,"Ġ################################################################":3804,"EC":3805,"ForeignKey":3806,"Ġreal":3807,"Oper":3808,"havi":3809,"dt":3810,"contents":3811,"Ġassoci":3812,"VE":3813,"('.":3814,"Ġencode":3815,"Ġreserved":3816,"gorithm":3817,"()),":3818,"include":3819,"Ġcommon":3820,"'re":3821,"Clo":3822,"Ġdriver":3823,"pipe":3824,"salt":3825,"Ġmodules":3826,"pose":3827,"verbose":3828,"Ġsignal":3829,"undle":3830,"Tag":3831,"Ġinvalid":3832,"Ġmulti":3833,"pendent":3834,"tab":3835,"Ġstri":3836,"Ġmodi":3837,"serve":3838,"Ġpermission":3839,"agicMock":3840,"86":3841,"google":3842,"nored":3843,"ongo":3844,"cing":3845,"1234":3846,"Update":3847,"bool":3848,"Ġimplementation":3849,"ĠAttributeError":3850,"cb":3851,"Ġrelated":3852,"AUT":3853,");":3854,"Ġparts":3855,"Ġretri":3856,"Ġcallable":3857,"structor":3858,"seconds":3859,"Ġvariables":3860,"pendency":3861,"Ġrest":3862,"Migration":3863,"rpc":3864,"Ġcommands":3865,"ordin":3866,"Ġlock":3867,"eds":3868,"Options":3869,"____":3870,"Ġwhether":3871,"ĠTime":3872,"****************":3873,"Ġtheir":3874,"pg":3875,"Ġbatch":3876,"ĠDi":3877,"report":3878,"defaults":3879,"')),":3880,"samples":3881,"suite":3882,"grid":3883,"unch":3884,"Ġreference":3885,"tist":3886,"Ġblank":3887,"(\"%":3888,"anti":3889,"pick":3890,"ĠMake":3891,"Ġsent":3892,"ground":3893,"Ġflags":3894,"Ġ],":3895,"Option":3896,"Ġuuid":3897,"Graph":3898,"numpy":3899,"Ġseconds":3900,"__()":3901,"regex":3902,"ĠĠĠĠĠĠĠĠĠĠĠĠĠĠĠĠĠĠĠĠĠĠĠĠĠĠĠĠĠĠĠĠĠĠĠĠ":3903,"Source":3904,"gf":3905,"faces":3906,"Ġsince":3907,"respon":3908,"ĠSub":3909,"udi":3910,"Ġenvironment":3911,"09":3912,"ouble":3913,"Ġconnect":3914,"NotFound":3915,"Ġthreading":3916,"rot":3917,"ometry":3918,"csv":3919,"cols":3920,"deo":3921,"matic":3922,"Ġwhat":3923,"XML":3924,"oriz":3925,"Ġwrap":3926,"tasks":3927,"Ġproduct":3928,"ĠOn":3929,"Ġ2013":3930,"Ġ##":3931,"Ġ'')":3932,"extensions":3933,"zeros":3934,"Ġsequence":3935,"owner":3936,"ĠSQL":3937,"nu":3938,"category":3939,"Ġshort":3940,"Ġdirect":3941,"ignore":3942,"periment":3943,"Ġanother":3944,"SQL":3945,"OUT":3946,"Ġnet":3947,"Ġlate":3948,"Ġtempfile":3949,"ancel":3950,"ĠOS":3951,"Ġdisable":3952,"ving":3953,"Ġctypes":3954,"Ġfactory":3955,"Ġverify":3956,"Ġchanges":3957,"ixed":3958,"Ġsuch":3959,"23":3960,"PS":3961,"sk":3962,"precated":3963,"ĠQt":3964,"Middleware":3965,"media":3966,"Ġlogin":3967,"Ġoperation":3968,"flush":3969,"Ġwho":3970,"('-":3971,"Ġsetting":3972,"false":3973,"Ġmath":3974,"UE":3975,"enter":3976,"Queue":3977,"bove":3978,"Ġdivision":3979,"ĠOptions":3980,":`.":3981,"ĠRa":3982,"tz":3983,"pare":3984,"tables":3985,"Ġinstances":3986,"Child":3987,"expi":3988,"ĠNode":3989,"mount":3990,"ĠOption":3991,"Pa":3992,"xtures":3993,"Ġsen":3994,"Ġglob":3995,"Map":3996,"ĠBu":3997,"scribe":3998,"255":3999,"tensor":4000,"Ġcommit":4001,"Ġexisting":4002,"dataset":4003,"endpoint":4004,"ROM":4005,"loaded":4006,"Ġdataset":4007,"require":4008,"Ġ#------------------------------------------------------------------------":4009,"Ġunit":4010,"setUp":4011,"Ġsk":4012,"pytest":4013,"pb":4014,"security":4015,"uring":4016,"Ġplot":4017,"ĠST":4018,"Ġpayload":4019,"ied":4020,"cell":4021,"fiers":4022,"Ġmanual":4023,"Ġupdated":4024,"Ġrole":4025,"alias":4026,"medi":4027,"Ġpresent":4028,"88":4029,"ĠQu":4030,"dient":4031,"vars":4032,"ĉĉĉĉ":4033,"utes":4034,"lim":4035,"ases":4036,"WARE":4037,"'\\":4038,"Ġloop":4039,"Count":4040,"payload":4041,"binary":4042,"this":4043,"boot":4044,"vari":4045,"Ġins":4046,"extension":4047,"Ġreason":4048,"commands":4049,"We":4050,",)":4051,"Stack":4052,"Ġmer":4053,"links":4054,"Ġproxy":4055,"AND":4056,"chain":4057,"VI":4058,"Ġreport":4059,"ssl":4060,"Ġdefer":4061,"six":4062,"DEBUG":4063,"System":4064,"bed":4065,"warning":4066,"math":4067,"chine":4068,"Ġpipe":4069,"ories":4070,"mpy":4071,"DF":4072,"LOC":4073,"fname":4074,"Ġendpoint":4075,"Ġuri":4076,"iver":4077,"deploy":4078,"GL":4079,"dat":4080,"Ġsim":4081,"Ġfilters":4082,"reference":4083,"Read":4084,"Exec":4085,"Ġboth":4086,"mpt":4087,"dire":4088,"Failed":4089,"lazy":4090,"ustome":4091,"Ġtuples":4092,"complete":4093,"control":4094,"Ġtemplates":4095,"Http":4096,"Ġshutil":4097,"upload":4098,"ence":4099,"Default":4100,"Ġmapping":4101,"ORS":4102,"lint":4103,"virt":4104,"Ġkw":4105,"ANG":4106,"Ġstderr":4107,"arge":4108,"Ġrv":4109,"Ġidx":4110,"Ġvia":4111,"ynamic":4112,"choices":4113,"Ġway":4114,"registry":4115,"translation":4116,"ĠHttpResponse":4117,"transport":4118,"Ġstorage":4119,"(\"/":4120,"Thread":4121,"Ġio":4122,"Ġcategory":4123,"Ġside":4124,"Layer":4125,"dispatch":4126,"iteritems":4127,"after":4128,"requests":4129,"Ġrows":4130,"blem":4131,"ternet":4132,"history":4133,"middleware":4134,"Ġheight":4135,"global":4136,"TING":4137,"Ġword":4138,"velop":4139,"Ġeval":4140,"ĠĠĠĠĠĠĠĠĠĠĠĠĠĠĠĠĠĠĠĠĠĠĠĠĠĠĠĠĠĠĠĠĠĠĠĠĠĠĠ":4141,"Ġusage":4142,"Ġbuiltin":4143,"Ġprimary":4144,"rr":4145,"}}":4146,"istration":4147,"Fail":4148,"Ġrep":4149,"Ġwould":4150,"ĠSimple":4151,"topic":4152,"tition":4153,"DU":4154,"Ġrequire":4155,"Ġfeature":4156,"rb":4157,"Ġwrapper":4158,"Ġig":4159,"hape":4160,"Ġsuite":4161,"yaml":4162,"hs":4163,"ĠDo":4164,"services":4165,"Ġalpha":4166,"Mo":4167,"cd":4168,"ier":4169,"ga":4170,"Ġbinary":4171,"fact":4172,"uted":4173,"If":4174,"__\":":4175,"istered":4176,"timeError":4177,"FORM":4178,"wik":4179,"Ġexit":4180,"MAX":4181,"Len":4182,"Ġsig":4183,"sock":4184,"inf":4185,"Ġcontrol":4186,"unct":4187,"copyright":4188,"Ġcould":4189,"Ġ[],":4190,"Ġ_('":4191,"Start":4192,"coun":4193,"Storage":4194,"Search":4195,"ural":4196,"Ġbuffer":4197,"ĠBy":4198,"Ġ_(\"":4199,"TypeError":4200,"cel":4201,"learn":4202,"aries":4203,"isten":4204,"Meta":4205,"Ġ%}":4206,">\\":4207,"ĠAND":4208,"CS":4209,"123":4210,"interval":4211,"ctype":4212,"uce":4213,"Ġneeds":4214,"Ġmissing":4215,"ĠĠĠĠĠĠĠĠĠĠĠĠĠĠĠĠĠĠĠĠĠĠĠĠĠĠĠĠĠĠĠĠĠĠĠĠĠĠ":4216,"handlers":4217,"Ġtool":4218,"Ġconver":4219,"ffic":4220,"Ġ((":4221,"Ġ\"<":4222,"tical":4223,"tives":4224,"Ġedit":4225,"Ġuses":4226,"runner":4227,"Ġlabels":4228,"AUTH":4229,"Ġcompile":4230,"Ġopts":4231,"ĠUp":4232,"arted":4233,"weight":4234,"Ġpublic":4235,"Ġpatterns":4236,"ĠĠĠĠĠĠĠĠĠĠĠĠĠĠĠĠĠĠĠĠĠĠĠĠĠĠĠĠĠĠĠĠĠĠĠĠĠ":4237,"cu":4238,"Ġlookup":4239,"suffix":4240,"66":4241,"LOG":4242,"MIN":4243,"esca":4244,"}\".":4245,"Entry":4246,"Ġren":4247,"Ġrepr":4248,"ia":4249,"Ġrelease":4250,"Be":4251,"Ġ--------------------------------":4252,"unds":4253,"Cl":4254,"Ġcompute":4255,"servers":4256,"Ġappend":4257,"ĠClient":4258,"Proxy":4259,"super":4260,"Ġallowed":4261,"ĠEvent":4262,"Ġreactor":4263,"Ġcalls":4264,"Unless":4265,"Ġtrack":4266,"Argument":4267,"Python":4268,"edge":4269,"Ġextensions":4270,"warn":4271,"Ġetc":4272,"branch":4273,"transform":4274,"hostname":4275,"Ġviews":4276,"Ġext":4277,"Ġkeyword":4278,"serialize":4279,"utc":4280,"Ġlisten":4281,"ks":4282,"note":4283,"Ġadditional":4284,"usage":4285,"Ġelements":4286,"gregate":4287,"memory":4288,"ĠSh":4289,"')(":4290,"Ġ])":4291,"basename":4292,"PAR":4293,"Ġplatform":4294,"Ġtraceback":4295,"prot":4296,"Network":4297,"Ġregion":4298,"Ġexpression":4299,"ĠWhen":4300,"support":4301,"ECT":4302,"Ġmat":4303,"Dec":4304,"ditions":4305,"ĠReserved":4306,"available":4307,"ustomer":4308,"roll":4309,"ĠAuthor":4310,"Ġscope":4311,"Ġ{})":4312,"75":4313,"lip":4314,"month":4315,"Ġtr":4316,"ERS":4317,"exclude":4318,"Pack":4319,"cimal":4320,"icro":4321,"eeded":4322,"Ġabove":4323,"Ġindic":4324,"Ġowner":4325,"ROOT":4326,"ools":4327,"rules":4328,"png":4329,"Ġcalc":4330,"Port":4331,"__.__":4332,"LS":4333,"Ġprevious":4334,"()]":4335,"Exten":4336,"Ġwithin":4337,"identity":4338,"ĠIO":4339,"Ġsuffix":4340,"unique":4341,"byte":4342,"lack":4343,"Ġalways":4344,"Application":4345,"ites":4346,"uplic":4347,"Ġotherwise":4348,"eries":4349,"Ġbind":4350,"Change":4351,"------":4352,"dash":4353,"ftime":4354,"yper":4355,"Ġperform":4356,"ĠLa":4357,"Ġbranch":4358,"PRE":4359,"menu":4360,"Of":4361,"missing":4362,"ĠtearDown":4363,"Ġ11":4364,"UD":4365,"na":4366,"Ġkind":4367,"Ġfolder":4368,"Ġprogram":4369,"LECT":4370,"cii":4371,"perly":4372,"done":4373,"Ġensure":4374,"ĠWindow":4375,"today":4376,"Bar":4377,"mapping":4378,"click":4379,"Ġhead":4380,"ĠRights":4381,"anization":4382,"prop":4383,"Link":4384,"FIG":4385,"ĠIndex":4386,"private":4387,"flag":4388,"']),":4389,"edirect":4390,"second":4391,"Loader":4392,"where":4393,"velopment":4394,"mox":4395,"Store":4396,"two":4397,"updated":4398,"meth":4399,"Ġpublish":4400,"Ġshown":4401,"Schema":4402,"36":4403,"metric":4404,"pair":4405,"question":4406,"mbed":4407,"Ġsubject":4408,"Ġqueryset":4409,"Te":4410,"attach":4411,"resolver":4412,"READ":4413,"az":4414,"Ġspecify":4415,"feed":4416,"Ġenti":4417,"ĠPRO":4418,"']))":4419,"Ġflag":4420,"mag":4421,"ACE":4422,"Ġsq":4423,"ones":4424,"upper":4425,"Ġdesc":4426,"PUT":4427,"components":4428,"plan":4429,"Ġpickle":4430,"Account":4431,"STAT":4432,"PY":4433,"stub":4434,"derer":4435,"Exist":4436,"alk":4437,"push":4438,"ĠLog":4439,"Load":4440,"Ġimg":4441,"Ag":4442,"worker":4443,"Ġcop":4444,"Ġ15":4445,"``,":4446,"cover":4447,"poch":4448,"baz":4449,"40":4450,"amily":4451,"Ġsepar":4452,"Ġpoints":4453,"appen":4454,"HER":4455,"elements":4456,"wsgi":4457,"Ġreceived":4458,"cm":4459,"ĠObject":4460,"tten":4461,"Ġdone":4462,"REQU":4463,"Ġcannot":4464,"backends":4465,"INT":4466,"vas":4467,"Ġrequires":4468,"MET":4469,"reshold":4470,"Owner":4471,"Ġitera":4472,"uting":4473,"Ġhelper":4474,"assertNot":4475,"gt":4476,"ons":4477,"ssh":4478,"distribu":4479,"Ġsqlalchemy":4480,"Ġtokens":4481,"dependent":4482,"xtra":4483,"tt":4484,"requires":4485,"rence":4486,"ĠTemplate":4487,"Ġpop":4488,"Ġactive":4489,"Ġshell":4490,"calls":4491,"lash":4492,"Ġissue":4493,"gramm":4494,"before":4495,"Ġclear":4496,"Ġ32":4497,"HOST":4498,"atible":4499,"seed":4500,"Host":4501,"Ren":4502,"leg":4503,"Ġbot":4504,"Array":4505,"omment":4506,"SA":4507,"quested":4508,"Cur":4509,"Color":4510,"ders":4511,"BO":4512,"Ġsympy":4513,"button":4514,"MENT":4515,"ĠTra":4516,"Ġexpi":4517,"Cannot":4518,"quote":4519,"Ġpackages":4520,"ĠDis":4521,"issue":4522,"ĠVer":4523,"ĠText":4524,"Ġraised":4525,"ational":4526,"Ġfp":4527,"roy":4528,")*":4529,"sync":4530,"ĠError":4531,"ĠForm":4532,"LL":4533,"Gui":4534,"Ġexpr":4535,"Ġassociated":4536,"Ġmp":4537,"Ġ\"--":4538,"Ġimages":4539,"Box":4540,"Dir":4541,"activ":4542,"Ġsouth":4543,"Ġfont":4544,"writer":4545,"Ġignored":4546,"77":4547,"Ġwin":4548,"blob":4549,"Flag":4550,"ring":4551,"instances":4552,"Ġaddresses":4553,"free":4554,"spe":4555,"tice":4556,"ĠLoc":4557,"CONF":4558,"############":4559,"crement":4560,":`~":4561,"SSL":4562,"Ġreset":4563,"endswith":4564,"glob":4565,"LED":4566,"ops":4567,"cut":4568,"><":4569,"named":4570,"Ġmatches":4571,"Ġoperator":4572,"ĠGeneral":4573,"Does":4574,"slice":4575,"appengine":4576,"holder":4577,"itter":4578,"hosts":4579,"assword":4580,"GR":4581,"Ġneeded":4582,"Ġoc":4583,"('--":4584,"pted":4585,"shell":4586,"DateTime":4587,"ceive":4588,"convert":4589,"cos":4590,"Ġmean":4591,"cached":4592,"Ġbuilder":4593,"Ġmask":4594,"HT":4595,"fill":4596,"INFO":4597,"Ġcorrespon":4598,"ĠBe":4599,"cesses":4600,"flat":4601,"states":4602,"Ġindent":4603,"Ġstandard":4604,"raft":4605,"kit":4606,"Buffer":4607,"Ġeven":4608,"ĠPO":4609,"exist":4610,"orary":4611,"Ġlet":4612,"Qt":4613,"2015":4614,"ILITY":4615,"ĠDEFAULT":4616,"JSON":4617,"SL":4618,"ĠTrans":4619,"pending":4620,"bstract":4621,"ĠDate":4622,"escape":4623,"THER":4624,".%":4625,"added":4626,"gb":4627,"Ġ'*":4628,"Ġinstalled":4629,"Ġterms":4630,"Ġ1000":4631,"(\\":4632,"ĠInvalid":4633,"_.":4634,"alpha":4635,"21":4636,"Ġmaster":4637,"font":4638,"Ġ\"-":4639,"feature":4640,"effect":4641,"enchmark":4642,"term":4643,")).":4644,"relation":4645,"Ġorm":4646,"/')":4647,"Cre":4648,"mem":4649,"Ġpolicy":4650,"Ġ>>":4651,"ifest":4652,"Ġput":4653,"times":4654,"izers":4655,":\\":4656,"pto":4657,"download":4658,"ornado":4659,"arn":4660,"Ġ30":4661,"layout":4662,"Ġoverride":4663,"supported":4664,"pkg":4665,"(%":4666,"single":4667,"Ġpd":4668,"Ġspa":4669,"mat":4670,"unic":4671,"()):":4672,"bound":4673,"Ġmany":4674,"br":4675,"bl":4676,"using":4677,"lueprint":4678,"Ġcopyright":4679,"andas":4680,"Ġnote":4681,"indent":4682,".',":4683,"ars":4684,"inline":4685,"apply":4686,"moves":4687,"ressed":4688,"days":4689,"ae":4690,"Ġmenu":4691,"ĠTests":4692,"Ġsetattr":4693,"configuration":4694,"voke":4695,"Met":4696,"Ġmigrations":4697,"Ġcredentials":4698,"/{":4699,"ĠFROM":4700,"Ġoperations":4701,"arguments":4702,"rong":4703,"Ġhand":4704,"Ġinterval":4705,"getattr":4706,"New":4707,"override":4708,"Warning":4709,"setdefault":4710,"modified":4711,"Controller":4712,"disk":4713,"Ġupload":4714,"Ġbyte":4715,"Ġtransaction":4716,"Ġchildren":4717,"Simple":4718,"ane":4719,"You":4720,"switch":4721,"counter":4722,"Delete":4723,"dirs":4724,"trace":4725,"CONT":4726,"permissions":4727,"unknown":4728,"....":4729,"panel":4730,"Ref":4731,"Ġcontrib":4732,"Ġurlparse":4733,"Ġ2012":4734,"Ġap":4735,"Ġslug":4736,"drop":4737,"DataCache":4738,",))":4739,"WORD":4740,"rst":4741,"inja":4742,"Args":4743,"Ġcell":4744,"Ġequal":4745,"bal":4746,"subject":4747,"alle":4748,"correct":4749,"Ġcomplete":4750,"ascii":4751,"Ġfetch":4752,"ending":4753,"Ġonce":4754,"cert":4755,"defined":4756,"Ġdirectly":4757,"Ġbad":4758,"Match":4759,"almost":4760,"FIX":4761,"Ġsci":4762,"relative":4763,"dummy":4764,"Ġfinal":4765,"gpu":4766,"scal":4767,"Ġstatement":4768,"Profile":4769,"ĠTw":4770,"CC":4771,"Top":4772,"ĠReg":4773,"sorted":4774,"Ġremoved":4775,"Spec":4776,"rove":4777,"Ġmanage":4778,"Ġlayer":4779,"Ġ------------------------------------------------------------------------":4780,"ĠLanguage":4781,"Ġbuf":4782,"Ġgot":4783,"Ġflow":4784,"Multi":4785,"Ġnose":4786,",'":4787,"Ġpe":4788,"Ġbucket":4789,"Ġaccept":4790,"consumer":4791,"My":4792,"ANT":4793,"Ġdeploy":4794,"Ġ\",":4795,"cessed":4796,".)":4797,"tificate":4798,"Ġmost":4799,"OFT":4800,"cookie":4801,"Ġfeatures":4802,"ness":4803,"zero":4804,"Level":4805,"compat":4806,"Ge":4807,"DATA":4808,"35":4809,"ĠAc":4810,"calc":4811,"06":4812,"Ġpylint":4813,"ulation":4814,"Ġgroups":4815,"failure":4816,"Ġchoices":4817,"Document":4818,"(\"\"\"":4819,"digest":4820,"ĠSta":4821,"Build":4822,"ĠSystem":4823,"Ġchanged":4824,"Ġinternal":4825,"isinstance":4826,"Panel":4827,"sertion":4828,"lap":4829,"Ġ))":4830,"NotExist":4831,"Ġdimen":4832,"Listen":4833,"FL":4834,"Suite":4835,"library":4836,"Runner":4837,"Ġapply":4838,"[:-":4839,"router":4840,"Ġdetermin":4841,"tokens":4842,"StringIO":4843,"Ġworks":4844,"Ġbit":4845,"UID":4846,"Ġbehavi":4847,"Ġexternal":4848,"Ġdependencies":4849,"chron":4850,"reduce":4851,"gl":4852,"MPLATE":4853,"ony":4854,"perm":4855,"bb":4856,"arm":4857,"ĠThey":4858,"rev":4859,"Variable":4860,"Ġbasic":4861,"Ġdecode":4862,"choice":4863,"Ġstat":4864,"Ġprovides":4865,"Ġsetuptools":4866,"Ġ-------":4867,"Ġraises":4868,"defer":4869,"tyle":4870,"Post":4871,"Ġworld":4872,"Ġsubclass":4873,"Ġ\"{":4874,"scheme":4875,"Ġstored":4876,"cf":4877,"Ġfig":4878,"stone":4879,"nn":4880,"reader":4881,"proc":4882,"1000":4883,"PT":4884,"just":4885,"sd":4886,"ĠField":4887,"127":4888,"iod":4889,"Ġfree":4890,"ĠXML":4891,"aris":4892,"kind":4893,"sep":4894,"Ġargparse":4895,"Foo":4896,"Rel":4897,"Ġconsi":4898,"37":4899,"Ġinspect":4900,"gg":4901,"ĠOut":4902,"Pool":4903,"eek":4904,"Ġpkg":4905,"DoesNotExist":4906,"')]":4907,"Pri":4908,"Ġidenti":4909,"revision":4910,"OFTWARE":4911,"abi":4912,"deredDict":4913,"cription":4914,"../":4915,"JECT":4916,"Ġcases":4917,"Ġ{},":4918,"\"}":4919,"contains":4920,"Range":4921,"internet":4922,"methods":4923,"builder":4924,"Boolean":4925,"CONFIG":4926,"Ġuntil":4927,"istri":4928,"Sy":4929,"ario":4930,"ĠResource":4931,"specific":4932,"Block":4933,"Ġinv":4934,"Ġscale":4935,"ĠWindows":4936,"ough":4937,"LEN":4938,"Buil":4939,"Target":4940,"ĠContent":4941,"visit":4942,"rv":4943,"ernel":4944,"Ġown":4945,"Backend":4946,"team":4947,"ublic":4948,"ĠHe":4949,"Ġhook":4950,"Bad":4951,"uses":4952,"Ġchain":4953,"ords":4954,"ĠFound":4955,"ater":4956,"queryset":4957,"Ġtasks":4958,"Ġselected":4959,"unctools":4960,"Redirect":4961,"tio":4962,"ĠProject":4963,"Failure":4964,"retry":4965,"umeric":4966,"ĠResponse":4967,"found":4968,"ixel":4969,"Ġfd":4970,"ĠRuntimeError":4971,"Ġcomb":4972,"priate":4973,"Struct":4974,"Writer":4975,"zz":4976,"when":4977,"iti":4978,"Ġreview":4979,"strap":4980,"Select":4981,"td":4982,"environment":4983,"Ġdecorator":4984,"ĠElement":4985,"ĠBo":4986,"scen":4987,"ĠMessage":4988,"ĠClo":4989,"ĠDB":4990,"inel":4991,"DR":4992,"watch":4993,"Ġugettext":4994,"Ġengine":4995,"Interface":4996,"cwd":4997,"builtin":4998,"Ġstd":4999,"Ġregex":5000,"Ġdirectories":5001,"Ġmemory":5002,"Ġrepository":5003,"Component":5004,"]*":5005,"WN":5006,"ara":5007,"Ġbuilt":5008,"review":5009,"delay":5010,":'":5011,"Ġtab":5012,"Ġincluded":5013,"Ġoauth":5014,"nova":5015,"Ġfeed":5016,"lendar":5017,"teration":5018,"ited":5019,"nan":5020,"256":5021,"TRI":5022,"ABILITY":5023,"plotlib":5024,"comments":5025,"setting":5026,"ĠĠĠĠĠĠĠĠĠĠĠĠĠĠĠĠĠĠĠĠĠĠĠĠĠĠĠĠĠĠĠĠĠĠĠĠĠĠĠĠ":5027,"ĠDec":5028,")/":5029,"Wrapper":5030,"norm":5031,"ĠMigration":5032,"Comm":5033,"Ġseq":5034,"Ġmd":5035,"ards":5036,"Ġ_,":5037,"versions":5038,"ĠThere":5039,"Ġworker":5040,"Ġentries":5041,"'\"":5042,"26":5043,"schedule":5044,"tty":5045,"Ġgl":5046,"Sign":5047,"LETE":5048,"Ġattemp":5049,"MODE":5050,"matically":5051,"]])":5052,"crypt":5053,"USE":5054,"getitem":5055,"29":5056,"Ġshared":5057,"Ġrelation":5058,"acy":5059,"aut":5060,"fp":5061,"ĠInitial":5062,"power":5063,"wrapper":5064,"Mode":5065,"expect":5066,"ĠMo":5067,"running":5068,"ĠInt":5069,"Ġqs":5070,"Hello":5071,"amo":5072,"Length":5073,"Parse":5074,"HTML":5075,"qa":5076,"Ġappropriate":5077,"ORY":5078,"AME":5079,"OM":5080,"Ġ60":5081,"Ġinte":5082,"Ġ(%":5083,"optional":5084,"processor":5085,"Ġdatastore":5086,"Ġtoo":5087,"ula":5088,"Ġprovider":5089,"factor":5090,"authentic":5091,"ocker":5092,"failUnless":5093,"URE":5094,"Ġprovide":5095,"istribu":5096,"Ġdst":5097,"Ġbutton":5098,"console":5099,"Ġ//":5100,"redis":5101,"generator":5102,"integer":5103,"ULL":5104,"Ġwere":5105,"Ġ,":5106,"Ġtables":5107,"ĠUpdate":5108,"cessary":5109,"pher":5110,"ĠServer":5111,"ctive":5112,"ullable":5113,"ĠDummy":5114,"refresh":5115,"details":5116,"BASE":5117,"figs":5118,"ĠĠĠĠĠĠĠĠĠĠĠĠĠĠĠĠĠĠĠĠĠĠĠĠĠĠĠĠĠĠĠĠĠĠĠĠĠĠĠĠĠ":5119,"ysql":5120,"ynchron":5121,"COL":5122,"ĠSOFTWARE":5123,"zen":5124,"metrics":5125,"ope":5126,"Ġflat":5127,"Label":5128,"ĠCustom":5129,"Ġ-=":5130,"Ġts":5131,"Ġtimes":5132,"Ġappen":5133,"NOT":5134,"/$',":5135,"identifier":5136,"Ġ[[":5137,"ird":5138,"stant":5139,"lations":5140,"Ġidentifier":5141,"Ġtimedelta":5142,"cpu":5143,"arr":5144,"Ġenable":5145,"Button":5146,"([\"":5147,"Ġalias":5148,"]).":5149,"pient":5150,"ĠFake":5151,"':'":5152,"ACT":5153,"Ġgenerator":5154,"84":5155,"Many":5156,"Ġfailure":5157,"27":5158,"Collection":5159,"Driver":5160,"management":5161,"gramming":5162,"Ġmail":5163,"divid":5164,"HERE":5165,"Helper":5166,"Ġdownload":5167,"Ġuseful":5168,"validation":5169,"inder":5170,"player":5171,"absolute":5172,"lent":5173,"ĠTe":5174,"editor":5175,"IntegerField":5176,"NING":5177,"Author":5178,"Ġscipy":5179,"Ġvector":5180,"_%":5181,"ĠRed":5182,"ube":5183,"Ġsafe":5184,"Ġrunner":5185,"Header":5186,".\\":5187,"asure":5188,"assertIsInstance":5189,"helpers":5190,"\"'":5191,"internal":5192,"===":5193,"Access":5194,"gres":5195,"',)":5196,"Settings":5197,"Provider":5198,"Ġoccur":5199,"Ġresources":5200,"Ġdat":5201,"ava":5202,"outer":5203,"Ġeditor":5204,"VENT":5205,"Ġbound":5206,"Core":5207,"lots":5208,"expand":5209,"statement":5210,"mitted":5211,"vec":5212,"ĠVi":5213,"_)":5214,"Ġversions":5215,"tangible":5216,"ĠĠĠĠĠĠĠĠĠĠĠĠĠĠĠĠĠĠĠĠĠĠĠĠĠĠĠĠĠĠĠĠĠĠĠĠĠĠĠĠĠĠĠ":5217,"requen":5218,"ĠTangible":5219,"ĠMagicMock":5220,"abstract":5221,"Lib":5222,"Ġvisit":5223,"riend":5224,"warnings":5225,"Param":5226,"Ġitertools":5227,"'%":5228,"utors":5229,"game":5230,"beta":5231,"cision":5232,"Project":5233,"Api":5234,"DATE":5235,"Mapp":5236,"Ġincluding":5237,"ked":5238,"allclose":5239,"cipient":5240,"Ġ50":5241,"cording":5242,"transaction":5243,"STATUS":5244,"wx":5245,"(\"\\":5246,"uest":5247,"Ġok":5248,"creen":5249,"Ġmodify":5250,"ĠBuild":5251,"paper":5252,"openstack":5253,"ev":5254,"orator":5255,"original":5256,"Ġinsert":5257,"Ġyaml":5258,"Ġenviron":5259,"SELECT":5260,"Ġarch":5261,"hn":5262,"INTER":5263,"Ġsc":5264,"Ġneutron":5265,"andid":5266,"manual":5267,"FORMAT":5268,"async":5269,"external":5270,"Ġextract":5271,"39":5272,"ire":5273,"ality":5274,"Ġrepresentation":5275,"dst":5276,"firm":5277,"em":5278,"='',":5279,"Exp":5280,"></":5281,"Ġdistribution":5282,"ffect":5283,"ulk":5284,"ĠThese":5285,"cores":5286,"framework":5287,"Job":5288,"=-":5289,"Ġsources":5290,"Can":5291,"CTION":5292,"ever":5293,")',":5294,"Ġnoqa":5295,"ines":5296,"Ġest":5297,"inc":5298,"subprocess":5299,"Ġspecial":5300,"raps":5301,"mq":5302,"uint":5303,"ĠTable":5304,"configure":5305,"ka":5306,"snapshot":5307,"2014":5308,"documents":5309,"uni":5310,"generic":5311,"Ġwell":5312,"cred":5313,"ĠRo":5314,"come":5315,"Encoder":5316,"ĠWork":5317,"Ġbegin":5318,"Ġrules":5319,"Ġlayout":5320,"Ġmeans":5321,")(":5322,"/\"":5323,"Var":5324,"Ġsecret":5325,"ĠQuery":5326,"Ġoptim":5327,"credentials":5328,"bits":5329,"ĠMIT":5330,"inputs":5331,"Ġloaded":5332,"Ġnumbers":5333,"Ġsock":5334,"Ġboolean":5335,"Record":5336,"08":5337,"ĠTask":5338,"dividual":5339,"workflow":5340,"NUM":5341,"ilar":5342,"fies":5343,"high":5344,"Ġaddr":5345,"dr":5346,"lert":5347,"fficient":5348,"blank":5349,"Auto":5350,"MAP":5351,"Ġfit":5352,"members":5353,"Ġagent":5354,"Ġcy":5355,"draw":5356,"Ġimports":5357,"hq":5358,"sender":5359,"reason":5360,"Ġscen":5361,"('_":5362,"Ġclassi":5363,"Ġtransform":5364,"locale":5365,"sistent":5366,"repository":5367,"ĠLI":5368,"ategy":5369,"Work":5370,">\"":5371,"Ġ42":5372,"deleted":5373,"tifact":5374,"Ġsender":5375,"////":5376,"okies":5377,"Ġknow":5378,"vals":5379,"Ġassign":5380,"plain":5381,"sn":5382,"Ġsets":5383,"hour":5384,"Control":5385,"icon":5386,"asy":5387,"LOW":5388,"constants":5389,"Ġmetric":5390,"summary":5391,"Ġduring":5392,"Ġdump":5393,"Ġvarious":5394,"utation":5395,"]):":5396,"otes":5397,"inger":5398,"ĠNumber":5399,"sim":5400,"sian":5401,"closed":5402,"extract":5403,"sequence":5404,"veloper":5405,"avi":5406,"Ġbox":5407,"center":5408,"period":5409,"28":5410,"Ġconditions":5411,"projects":5412,"lang":5413,"(('":5414,"peat":5415,"Ġstill":5416,"iso":5417,"PR":5418,"Ġtermin":5419,"rup":5420,"Ġur":5421,"Ġ2011":5422,"merge":5423,"Ġchart":5424,"Ġserializer":5425,"TeX":5426,"DES":5427,"dns":5428,"rift":5429,"Ġhttplib":5430,"Ġbelow":5431,"Ġzero":5432,"gmail":5433,"Ġpixel":5434,"scape":5435,"]+)":5436,"Ġcached":5437,"rays":5438,"mbols":5439,"Ġcurrently":5440,"primary":5441,"final":5442,"atibility":5443,"Ġproto":5444,"Sp":5445,"ART":5446,"Ġfuture":5447,"angle":5448,"flavor":5449,"ĠMan":5450,"ipping":5451,"oll":5452,"Ġloader":5453,"Ġiterable":5454,"\\'":5455,"ĠRead":5456,"uman":5457,"boo":5458,"DED":5459,"ĠIOError":5460,"fixtures":5461,"RECT":5462,"Ġthose":5463,"Op":5464,"SM":5465,"Ġslice":5466,"operator":5467,"Formatter":5468,"arison":5469,".\",":5470,"Cho":5471,"Sec":5472,"([[":5473,"]+":5474,"Ġyet":5475,"Ġ).":5476,"Ġauthentication":5477,"Ġcloud":5478,"199":5479,"failed":5480,"Ġdispatch":5481,"Ġmerge":5482,"Ġdisk":5483,"Ġsomething":5484,"layers":5485,"scriptor":5486,"grade":5487,"ategories":5488,"edges":5489,"ĠFlask":5490,"vance":5491,"Ġdeleted":5492,"allback":5493,"ĠPost":5494,"soft":5495,"Sup":5496,"Parameter":5497,"ĠInteger":5498,"ModelAdmin":5499,"Ġinputs":5500,"HEAD":5501,"[:]":5502,"connected":5503,"adding":5504,"Ġalgorithm":5505,"Device":5506,"Initial":5507,"Ġsublime":5508,"qs":5509,"roid":5510,"PIPE":5511,"dapter":5512,"Ġactions":5513,"DER":5514,"rm":5515,"export":5516,"Ġgrid":5517,"Ġast":5518,"ĠPre":5519,"pture":5520,"uation":5521,"Ġdeprecated":5522,"BUT":5523,"machine":5524,"So":5525,"sqrt":5526,"ĠExamples":5527,"IF":5528,"Ġdot":5529,"ĠCO":5530,"COMM":5531,"rp":5532,"__),":5533,"Ġ------------------------------------------------":5534,"ceiver":5535,"such":5536,"ĠWeb":5537,"Ġcharacters":5538,"Ġfname":5539,"00000000":5540,"CRET":5541,"sid":5542,"changes":5543,"ank":5544,"Ġsupp":5545,"AX":5546,"Ġnotice":5547,"Ġmedia":5548,"Ġ[('":5549,"Ġdelta":5550,"Transport":5551,"vector":5552,"siz":5553,"Ġexclude":5554,"processing":5555,"udio":5556,"ĠService":5557,"Doc":5558,"Jo":5559,"getvalue":5560,"fully":5561,"Password":5562,"condition":5563,"ĠLaTeX":5564,"tect":5565,"Ġcorresponding":5566,"multiple":5567,"etc":5568,"spi":5569,"Ġ['_":5570,"Ġvalidation":5571,"Ġperson":5572,"MAIL":5573,"bob":5574,"Ġtopic":5575,"poly":5576,"rappe":5577,"45":5578,"REQUEST":5579,"Ġ13":5580,"Builder":5581,"ified":5582,"Container":5583,"lon":5584,"Ġconstants":5585,"MD":5586,"Ġvm":5587,"span":5588,"ĠOutput":5589,"herit":5590,"mas":5591,">',":5592,"Layout":5593,"PES":5594,"enable":5595,"formed":5596,"OPY":5597,"pet":5598,"Ġorg":5599,"uplicate":5600,"Ġtakes":5601,"Ġpartic":5602,"Ġzone":5603,"Ġoslo":5604,"ĠCOPY":5605,"sparse":5606,"gative":5607,"Ġfix":5608,"Ġautomatically":5609,"ĠOrderedDict":5610,"07":5611,"Ġmaximum":5612,"Ġhashlib":5613,"pn":5614,"ĠOther":5615,"('/')":5616,"Ġagainst":5617,"Ġstructure":5618,"Ġscheduler":5619,"}'":5620,"Ġconstraint":5621,"Deferred":5622,"Ġrepresenting":5623,"Location":5624,"ĠCode":5625,"lists":5626,"leting":5627,"Ġus":5628,"texinfo":5629,"Fake":5630,"ĠConnection":5631,"mediate":5632,"Ġwords":5633,"decorators":5634,"ĠCre":5635,"sired":5636,"Ġfunctools":5637,"selected":5638,"logs":5639,"complex":5640,"amount":5641,"Ġdocs":5642,"Uti":5643,"mu":5644,"DIS":5645,"cv":5646,"colors":5647,"oid":5648,"ĠNe":5649,"Cal":5650,"Exit":5651,"many":5652,"Ġ?":5653,"Received":5654,"alg":5655,"Feed":5656,"road":5657,"Ġscore":5658,"ĠCa":5659,"Ġdefine":5660,"uate":5661,"MIT":5662,"rozen":5663,"Ġ')":5664,"clar":5665,"Ġcounter":5666,"izes":5667,"wiki":5668,"Ġlocale":5669,"Ġenabled":5670,"contact":5671,"Ġdefinition":5672,"recv":5673,"targets":5674,"strings":5675,"arange":5676,"Ġblob":5677,"mapper":5678,"Ġicon":5679,"ICE":5680,"hone":5681,"Ġbehavior":5682,"Ġcv":5683,"Ġmatching":5684,"Ġdistutils":5685,"Ġsecurity":5686,"sym":5687,"timer":5688,"ĠAS":5689,"Ġdestination":5690,"AA":5691,"Ġsym":5692,"gits":5693,"enu":5694,"Ġallows":5695,"__))":5696,"Ġids":5697,"Policy":5698,"inary":5699,"Ġcsv":5700,"Ġnecessary":5701,"Ġrequested":5702,"FIL":5703,"Ġtran":5704,"Ġindependent":5705,"__(*":5706,"Ġpandas":5707,"gration":5708,"roles":5709,"quick":5710,"orizon":5711,"Ġdummy":5712,"ARY":5713,"Ġfill":5714,"atom":5715,"tend":5716,"resolve":5717,"Ġfilenames":5718,"Programming":5719,"Listener":5720,"Ġ14":5721,"ducer":5722,"TEMPLATE":5723,"pipeline":5724,"Ġseries":5725,"depth":5726,"Ġlower":5727,"Ġleast":5728,"59":5729,"utdown":5730,"ĠĠĠĠĠĠĠĠĠĠĠĠĠĠĠĠĠĠĠĠĠĠĠĠĠĠĠĠĠĠĠĠĠĠĠĠĠĠĠĠĠĠ":5731,"Ġ[-":5732,"tries":5733,"ĠWS":5734,"ĠXXX":5735,"chart":5736,"world":5737,"Ġdescri":5738,"cipe":5739,"ips":5740,"Temp":5741,"Reader":5742,"wall":5743,"Ġlater":5744,"ĠDocumentation":5745,":-":5746,"BACK":5747,"Script":5748,"Ġrecur":5749,"wri":5750,"Ġpush":5751,"ĠFa":5752,"ptr":5753,"timezone":5754,"76":5755,"Ġmove":5756,"31":5757,"{{":5758,"irc":5759,"Ġdraw":5760,"Ġmatplotlib":5761,"Extension":5762,"pred":5763,"Ġtoday":5764,")],":5765,"more":5766,"parameter":5767,"mble":5768,"duration":5769,"ota":5770,"astype":5771,"500":5772,"Handle":5773,"analy":5774,"Ġisn":5775,"asset":5776,"Ġpypy":5777,"Ġimplemented":5778,"IME":5779,"ĠLoad":5780,"rive":5781,"mous":5782,"Ġrendered":5783,"ĠView":5784,"Ġscheme":5785,"parsed":5786,"ĠUSE":5787,"person":5788,"Mon":5789,"ĠNetwork":5790,"letter":5791,"Ġedge":5792,"teractive":5793,"jor":5794,"tick":5795,"bosity":5796,"fun":5797,"Ġpid":5798,"Ġindividual":5799,"Style":5800,"allowed":5801,"cancel":5802,"assign":5803,"Ġbits":5804,"Ġlists":5805,"MAIN":5806,"=\"\"":5807,"Ġmaps":5808,"epcopy":5809,"dashboard":5810,"Ġ'#":5811,"Ġprev":5812,"OUR":5813,"Ġprop":5814,"ĠFoundation":5815,"Ġorigin":5816,"subnet":5817,"cost":5818,"rency":5819,"steps":5820,"addCallback":5821,"ragment":5822,"Rule":5823,"lies":5824,"Email":5825,"ĠAUTH":5826,"execution":5827,"Ġrel":5828,"Ġmight":5829,"ically":5830,"cce":5831,"Ġconsole":5832,"counts":5833,"fixed":5834,"vely":5835,"Ġbest":5836,"MES":5837,"ĠModule":5838,"backup":5839,"Ġwrapped":5840,"GB":5841,"Ġimplements":5842,"expression":5843,"Ġpr":5844,"Ġsignature":5845,"Web":5846,"ĠPY":5847,"Ġcontroller":5848,"400":5849,"Flow":5850,"nail":5851,"structure":5852,"Ġavoid":5853,"Ġamount":5854,"sqlite":5855,"Ġexecution":5856,"elem":5857,"codes":5858,"2013":5859,"tended":5860,"Lock":5861,"aste":5862,"Database":5863,"Created":5864,"2016":5865,"scripts":5866,"Ġmem":5867,"Ġassume":5868,"Ġdecimal":5869,"etri":5870,"ĠFunction":5871,"Ġprivate":5872,"Ġrevision":5873,"Ġperiod":5874,"ialog":5875,"Ġpl":5876,"Ġtimezone":5877,"Ġcomponents":5878,"Ġwarning":5879,"Ġlin":5880,"Ġday":5881,"constraint":5882,"Ġregistered":5883,"amera":5884,"APP":5885,"__['":5886,"Ġpi":5887,"Ġyear":5888,"GER":5889,"ĠSy":5890,"Ġnullable":5891,"ĠLine":5892,"pus":5893,"Ġcs":5894,"Ġcalling":5895,"Ġexplicit":5896,"EW":5897,"Import":5898,"ĠAR":5899,"ĠGe":5900,"listener":5901,"live":5902,"accept":5903,"begin":5904,"PASS":5905,"Ġcookie":5906,"Ġmetrics":5907,"dicate":5908,"without":5909,"90":5910,"ĠMulti":5911,"Ġ25":5912,"_):":5913,"radi":5914,"Ġexact":5915,"Ġconnections":5916,"Ġhome":5917,"Ġcoordin":5918,"ĠImp":5919,"tit":5920,"operation":5921,"/(?":5922,"SIG":5923,",),":5924,"screen":5925,"signature":5926,"ĠAdditional":5927,"amma":5928,"records":5929,"Ġev":5930,"Ġactually":5931,"Ġstuff":5932,"Ġbasestring":5933,"ighb":5934,"++":5935,"Ġhostname":5936,":])":5937,"tile":5938,"compatible":5939,"FIEL":5940,"Generate":5941,"SERVER":5942,"Ġplay":5943,"Dictionary":5944,"equals":5945,"Pick":5946,"geo":5947,"Ġtx":5948,"Ġmade":5949,"covery":5950,"poll":5951,"GHT":5952,"5678":5953,"CI":5954,"Ġconsumer":5955,"rees":5956,"Ġplan":5957,"Ġlarge":5958,"alth":5959,"ĠCal":5960,"Ġpair":5961,"hi":5962,"URI":5963,"ĠOTHER":5964,"forum":5965,"prepare":5966,"serializer":5967,"Ġcross":5968,"Ġdid":5969,"Ġmime":5970,"ĠTEST":5971,"reshape":5972,"Ġlow":5973,"ORE":5974,"itions":5975,"reactor":5976,"Ġkernel":5977,"refs":5978,"Ġwriter":5979,"Ġns":5980,"monitor":5981,"Ġentities":5982,"fire":5983,"ele":5984,"Ġ''.":5985,"STRING":5986,"logy":5987,"SECRET":5988,"grad":5989,"requency":5990,"Ġrdf":5991,"Ġitself":5992,"Channel":5993,"Ġclick":5994,"green":5995,"runtime":5996,"Ġidentity":5997,"ouse":5998,"Ġmonth":5999,"px":6000,"authors":6001,"Write":6002,"Ġ2010":6003,"AndReturn":6004,"migrations":6005,"INST":6006,"Ġattach":6007,"Ġmodified":6008,"ĠArgument":6009,"cleaned":6010,"blog":6011,"tected":6012,"chan":6013,"rable":6014,"ĠDAT":6015,"gz":6016,"lopen":6017,"aging":6018,"Sequence":6019,"alloc":6020,"Ġ<<":6021,"break":6022,"{%":6023,"copi":6024,"calar":6025,"/<":6026,"TYPES":6027,"Ġannot":6028,"igrate":6029,"[^":6030,"nect":6031,"Ġindices":6032,"Ġlon":6033,"Url":6034,"ulated":6035,"ĠOne":6036,"Ġtransport":6037,"resolvers":6038,"Ġcat":6039,"vides":6040,"ĠĠĊ":6041,"rea":6042,"UNT":6043,"Ġretry":6044,"PREFIX":6045,"big":6046,"CA":6047,"ĠHow":6048,"omial":6049,"twisted":6050,"latest":6051,"Ġvim":6052,"*.":6053,"hy":6054,"sitions":6055,"Ġpartial":6056,"ĠQueue":6057,"subscription":6058,"Timeout":6059,"Ġhistory":6060,"Ġ\"_":6061,"lyph":6062,"ĠInstance":6063,"Ġworksheet":6064,"ĠPermission":6065,"gation":6066,"bile":6067,"Imp":6068,"ays":6069,"ĠOnly":6070,"Ġtornado":6071,"Configuration":6072,"ĠValidationError":6073,"89":6074,"mysql":6075,"Reference":6076,"mc":6077,"Row":6078,"ĠSome":6079,"OB":6080,"reater":6081,"Engine":6082,"CLASS":6083,"follow":6084,"origin":6085,"Ġnorm":6086,"Local":6087,"city":6088,"dl":6089,"Ġrecords":6090,"distance":6091,"Ġroute":6092,"Ġsupports":6093,"Role":6094,"maining":6095,"Wor":6096,"Ġknown":6097,"ĠFe":6098,"Ġweight":6099,"Tool":6100,"based":6101,"Ġwritten":6102,"tifications":6103,"_:":6104,"Ġurls":6105,"logo":6106,"Generator":6107,"linear":6108,"Ġhandlers":6109,"separ":6110,"Ġaround":6111,"lencode":6112,"sources":6113,"Ġcla":6114,"Package":6115,"Ġwatch":6116,"ACHE":6117,"iling":6118,"inte":6119,"enerated":6120,"Types":6121,"archive":6122,">`":6123,"unpack":6124,"variables":6125,"Ġelem":6126,"ket":6127,"nx":6128,"Ġgood":6129,"tl":6130,"Ġteam":6131,"trigger":6132,"Ġ}}":6133,"gp":6134,"Ġrouter":6135,"bra":6136,"umbnail":6137,"Ġpipeline":6138,"uess":6139,"Ġauthentic":6140,"49":6141,"Ġappe":6142,"hidden":6143,"ĠVER":6144,"ivar":6145,"pdf":6146,"price":6147,"Ġregistry":6148,"Ġsymbol":6149,"ĠNOTE":6150,":',":6151,"1111":6152,"Regex":6153,"same":6154,"dc":6155,"agraph":6156,"arb":6157,"eded":6158,"mime":6159,"Ġoverwrite":6160,"servation":6161,"Ġsleep":6162,"ĠMatrix":6163,"Files":6164,"ENTI":6165,"Ġworking":6166,"ĠIs":6167,"Ġ()":6168,"Ġanaly":6169,"Defin":6170,"functions":6171,"Ġcoun":6172,"Ġcreating":6173,"Ġ19":6174,"Ġabstract":6175,"Socket":6176,"Ġbackwards":6177,"jax":6178,"ĠOSError":6179,"AGS":6180,"Ġcorrectly":6181,"ardown":6182,"Some":6183,"double":6184,"DIA":6185,"fc":6186,"stdin":6187,"lict":6188,"ĠLe":6189,"SV":6190,"Ġpur":6191,"ĠĠĠĠĠĠĠĠĠĠĠĠĠĠĠĠĠĠĠĠĠĠĠĠĠĠĠĠĠĠĠĠĠĠĠĠĠĠĠĠĠĠĠĠ":6192,"isdir":6193,"#------------------------------------------------------------------------":6194,"dependency":6195,"âĶ":6196,"Ġtz":6197,")')":6198,"Ġdrop":6199,"processors":6200,"ensure":6201,"dx":6202,"Unit":6203,"ĠAdding":6204,"freq":6205,"ĠWSGI":6206,"executable":6207,"ĠNew":6208,"Ġaff":6209,"lsx":6210,"reply":6211,"conv":6212,"COMP":6213,"Ġfinished":6214,"isfile":6215,"timedelta":6216,"85":6217,"Unknown":6218,"Ġinitialize":6219,"ĠRaises":6220,"browser":6221,"gu":6222,"DELETE":6223,"lave":6224,"dimen":6225,"ĠSession":6226,"Fi":6227,"Ġderi":6228,"ĠPAR":6229,"Ġcopied":6230,"Over":6231,"scan":6232,"Could":6233,"classi":6234,"ral":6235,"quiva":6236,"Float":6237,"seek":6238,"Ġsamples":6239,"olved":6240,"UI":6241,"')))":6242,"ginator":6243,"Ġservices":6244,"TINGS":6245,"Basic":6246,"inv":6247,"ĠItem":6248,"kes":6249,"Ġupdates":6250,"Ġsaved":6251,"cap":6252,"ĠGraph":6253,"partial":6254,"Ġdistance":6255,"tract":6256,"interfaces":6257,"Ġll":6258,"Ġconstructor":6259,"')[":6260,"Metadata":6261,"atar":6262,"Ġcondition":6263,"Ġencoded":6264,"scalar":6265,"Ġproblem":6266,"Loop":6267,"Ġopenstack":6268,"ets":6269,"Ġcharacter":6270,"CRI":6271,"Dialog":6272,"lick":6273,"ĠURI":6274,"Description":6275,"Position":6276,"Ġlineno":6277,"urity":6278,"responses":6279,"Ġbottom":6280,"limiter":6281,"Ġdev":6282,"ĠProcess":6283,"rac":6284,"Ġsyntax":6285,"ancer":6286,"Ġmapper":6287,"CESS":6288,"ised":6289,"ĠOAuth":6290,"ĠQtGui":6291,"ĠClass":6292,"gy":6293,"ĠPath":6294,"got":6295,"channels":6296,"Last":6297,"Only":6298,"ris":6299,"Ġds":6300,"Min":6301,"aff":6302,"\"\")":6303,"itespace":6304,"Inline":6305,"submit":6306,"dictions":6307,"LOAD":6308,"echo":6309,"ought":6310,"Ġsklearn":6311,"'d":6312,"signals":6313,"pickle":6314,"onymous":6315,"PACE":6316,"Ġsess":6317,"Ġswitch":6318,"============":6319,"ffset":6320,"Ġ1024":6321,"Ġsimp":6322,"Ġstates":6323,"effs":6324,"Ali":6325,"validator":6326,"ĠProtocol":6327,"Agent":6328,"TRIBUT":6329,"inner":6330,"Ġssl":6331,"Ġresolve":6332,"Max":6333,"TEXT":6334,"ĠBad":6335,"clone":6336,"Ġatom":6337,"Ġpairs":6338,"ints":6339,"ĠPublic":6340,"ĠNS":6341,"Ġclosed":6342,"ĠAdmin":6343,"ability":6344,"collector":6345,"Configured":6346,"bum":6347,"Ġrate":6348,"sin":6349,"DULE":6350,"Ġplugins":6351,"Member":6352,"serted":6353,"cus":6354,"ulator":6355,"Ġ\"\"\")":6356,"Inst":6357,"ĠĠĠĠĠĠĠĠĠĠĠĠĠĠĠĠĠĠĠĠĠĠĠĠĠĠĠĠĠĠĠĠĠĠĠĠĠĠĠĠĠĠĠĠĠ":6358,"001":6359,"Permission":6360,"Ġnx":6361,"VALID":6362,"Extra":6363,"âĶĢ":6364,"FT":6365,"Ġinside":6366,"Ġnested":6367,"Ġterm":6368,"precation":6369,"Ġms":6370,"mongo":6371,"128":6372,"keyword":6373,"paces":6374,"tran":6375,"ValidationError":6376,"subscribe":6377,"raries":6378,"rypto":6379,"Order":6380,"ru":6381,"ĠInter":6382,"Ġtrigger":6383,"Editor":6384,"Copyright":6385,"\\.":6386,"Ġstrip":6387,"nb":6388,"Ġones":6389,"ICES":6390,"Ġreferences":6391,"Ġfails":6392,"('<":6393,"Ġactiv":6394,"strict":6395,"symbol":6396,"ĠPOST":6397,"ĠAnd":6398,"Ġtyp":6399,"sessions":6400,"proj":6401,"ipv":6402,"deli":6403,"Ġboto":6404,"RIGHT":6405,"Series":6406,"CODE":6407,"gon":6408,"Choice":6409,"ĠSH":6410,"ONG":6411,"Ġiterator":6412,"ĠFoo":6413,"riteri":6414,"Ġep":6415,"ĠSchema":6416,"specs":6417,"ĠOper":6418,"Ġsn":6419,"urllib":6420,"Clean":6421,"________":6422,"priority":6423,"syntax":6424,"Ġ24":6425,"deg":6426,"bundle":6427,"ln":6428,"(\"-":6429,"Ġworkflow":6430,"assertNotEqual":6431,"}/":6432,"units":6433,"how":6434,"Ġgame":6435,"compress":6436,"Ġcorehq":6437,"Ġcert":6438,"xs":6439,"Ġplayer":6440,"Ġhappen":6441,"hat":6442,"Ġden":6443,"ateway":6444,"Collector":6445,"Ġchecks":6446,"Django":6447,"ned":6448,"Ġnothing":6449,"NAMES":6450,"('.')":6451,"IGN":6452,"Ġfmt":6453,"ĠParse":6454,"klass":6455,"segment":6456,"ĠPage":6457,"existing":6458,"setter":6459,"visor":6460,"quivalent":6461,"modi":6462,"AST":6463,"RPC":6464,"Ġfactor":6465,"LOCK":6466,"ĠCLI":6467,"79":6468,"prev":6469,"Ġunknown":6470,"collect":6471,"Ġcreation":6472,"roadcast":6473,"FC":6474,"Ġapps":6475,"Ġcompare":6476,"ef":6477,"odoc":6478,"progress":6479,"âĶĢâĶĢ":6480,"ĠChange":6481,"nested":6482,"yes":6483,"visible":6484,"prob":6485,"DIRECT":6486,"readline":6487,"Ġordering":6488,"SU":6489,"Site":6490,"Cloud":6491,"lying":6492,"Ġround":6493,"Ġ404":6494,"duction":6495,"weights":6496,"Ġscan":6497,"ĠRemove":6498,"semble":6499,"selection":6500,"recur":6501,"cepted":6502,"optim":6503,"vide":6504,"Comple":6505,"Ġtrait":6506,"Ġweights":6507,"Ġ(-":6508,"jar":6509,"LIST":6510,"VALUE":6511,"Ġredis":6512,"enti":6513,"pay":6514,"ĠCan":6515,"CLUD":6516,"dn":6517,"ĠMGL":6518,"accounts":6519,"Ġlistener":6520,"amble":6521,"which":6522,":\"":6523,"=[\"":6524,"roperly":6525,"adap":6526,"({\"":6527,"Used":6528,"WIT":6529,"filepath":6530,"ĠValue":6531,"Ġproc":6532,"rou":6533,"Ġresponses":6534,")}":6535,"previous":6536,"Ġcause":6537,"tmpdir":6538,"threads":6539,"sentry":6540,"aemon":6541,"(',":6542,"notify":6543,"Sum":6544,"WR":6545,"foobar":6546,"Ġcb":6547,"iler":6548,"Ġdefaultdict":6549,"Ġoutputs":6550,"Root":6551,"Obj":6552,"lier":6553,"pends":6554,"dependencies":6555,"align":6556,"week":6557,"receive":6558,"networks":6559,"ĠGeneric":6560,"Ġspe":6561,"gi":6562,"ros":6563,"vers":6564,"ĠInitialize":6565,">')":6566,"customer":6567,"Ġdelay":6568,"ĠWHERE":6569,"ATIC":6570,"Ġgeneric":6571,"Make":6572,"Ġunits":6573,"Lookup":6574,"definition":6575,")\\":6576,"fast":6577,"Ġargv":6578,"disable":6579,"Hash":6580,"orph":6581,"ĠShould":6582,"matches":6583,"~~~~~~~~~~~~~~~~":6584,"ĠSup":6585,"compare":6586,"###############":6587,"PTION":6588,"Ġstarting":6589,"Ġseed":6590,"addresses":6591,"Fields":6592,"RC":6593,"strftime":6594,"Ġrot":6595,"Ġjobs":6596,"pairs":6597,"=('":6598,"CLI":6599,"ocial":6600,"sertionError":6601,"Ġsegment":6602,"blocks":6603,"quare":6604,"Ġ255":6605,"oked":6606,"CK":6607,"Ġconstruct":6608,"ĠContext":6609,"ĠLocal":6610,"vicon":6611,"000000":6612,"'ll":6613,"Red":6614,"ĠCl":6615,"Ġerrno":6616,"Custom":6617,"ĠAction":6618,"CannotContain":6619,"ĠindependentData":6620,"\"\\":6621,"Ġhref":6622,"Ġxs":6623,"csrf":6624,"actual":6625,"Ġescape":6626,"Tab":6627,"cum":6628,"scheduler":6629,"ĠGET":6630,"listdir":6631,"predict":6632,"floating":6633,"Ġretrieve":6634,"href":6635,"tices":6636,"DateTimeField":6637,"Mark":6638,"Ġvideo":6639,"Ġpriority":6640,"oring":6641,"Feature":6642,"traceback":6643,"ĠStatus":6644,"Ġalong":6645,"Entity":6646,"shift":6647,"Names":6648,"\"/":6649,"globals":6650,"rant":6651,"ĠComment":6652,"Ġcomments":6653,"Ne":6654,"Ġtenant":6655,"Directory":6656,"OKEN":6657,"jam":6658,"Ġ2016":6659,"Ġ[{'":6660,"exe":6661,"room":6662,"wap":6663,"Ġsphinx":6664,"Ġdash":6665,"Ġregular":6666,"assertIsNone":6667,"antity":6668,"Ġparsing":6669,"Ġprogress":6670,"neutron":6671,"hist":6672,"Ġemit":6673,"ably":6674,"MAG":6675,"2012":6676,"TF":6677,"Ġdesired":6678,"Volume":6679,"Ġboot":6680,"aws":6681,"olds":6682,"+'":6683,"cleanup":6684,"activate":6685,"configs":6686,"Stub":6687,"ierarch":6688,"Ġstrftime":6689,"threshold":6690,"mentation":6691,"Ġclone":6692,"Edit":6693,"Ġbrowser":6694,"('',":6695,"ĠAny":6696,"binding":6697,"Ġinner":6698,"aller":6699,"ADDR":6700,"typ":6701,"ĠAlso":6702,"thought":6703,"callable":6704,"Random":6705,"Repo":6706,"demo":6707,"Ġpoly":6708,"Ġ${":6709,"Abstract":6710,"Ġfixed":6711,"phone":6712,"Ġste":6713,"Report":6714,"Ġnotification":6715,"pad":6716,"wt":6717,"ĠOver":6718,"deployment":6719,"APPS":6720,"CLUDING":6721,"Ġ'[":6722,"Iter":6723,"ĠCur":6724,"ĠEd":6725,"ridge":6726,"rd":6727,"dep":6728,"frames":6729,"Ġnd":6730,"Parent":6731,"TOKEN":6732,"Ġparticular":6733,"roperlyConfigured":6734,"family":6735,"Ġschedule":6736,"itle":6737,"}\\":6738,"ĠMark":6739,"king":6740,"ĠUnicode":6741,"DOMAIN":6742,"ĠStart":6743,"TextField":6744,"gle":6745,"video":6746,"connections":6747,"titude":6748,"article":6749,"Ġklass":6750,"\"%":6751,"2000":6752,"Ġ18":6753,"LD":6754,"================================================================":6755,"epoch":6756,"ĠGit":6757,"ĠJo":6758,"Endpoint":6759,"Ġcontributors":6760,"draft":6761,"tence":6762,"IST":6763,"Ġturn":6764,"formatter":6765,"normalize":6766,"forward":6767,"mtree":6768,"java":6769,"hooks":6770,"Ġtm":6771,"ĠStr":6772,"destroy":6773,"Ġduration":6774,"AF":6775,"CACHE":6776,"coming":6777,"dims":6778,"Ġblocks":6779,"VICE":6780,"cid":6781,"ĠToken":6782,"tics":6783,"imate":6784,"CR":6785,"acl":6786,"Ġframework":6787,"ĠVERSION":6788,"ĠĠĠĠĠĠĠĠĠĠĠĠĊ":6789,"')])":6790,"examples":6791,"UST":6792,"mobile":6793,"ĠDatabase":6794,"alf":6795,"aving":6796,"EMAIL":6797,"NU":6798,"onical":6799,"ĠVerify":6800,"ĠPa":6801,"ĠComm":6802,"ĠDEBUG":6803,"partition":6804,"impl":6805,"ĠFloat":6806,"bilities":6807,"Ġbackup":6808,"andidate":6809,"Ġthings":6810,"sentinel":6811,"SETTINGS":6812,"METHO":6813,"rupt":6814,"Ġseen":6815,"Ġtranslation":6816,"diffe":6817,"300":6818,"Domain":6819,"Ġcolors":6820,"Ġautog":6821,"Ġthreads":6822,"ective":6823,"loss":6824,"ANCE":6825,"outputs":6826,"->":6827,"Ġdetermine":6828,"Ġsec":6829,"osite":6830,"Ġmis":6831,"notification":6832,"TIMEOUT":6833,"Ġsync":6834,"Ġstarted":6835,"ĠAD":6836,"Ġlogs":6837,"boolean":6838,"plt":6839,"Ġhosts":6840,"Stats":6841,"ni":6842,"ĠStop":6843,"IZ":6844,"Ġconfigure":6845,"crete":6846,"OCK":6847,"Ġ400":6848,"presen":6849,"NESS":6850,"ERCH":6851,"Ġcompatibility":6852,"65":6853,"have":6854,"{\"":6855,"erge":6856,"Ġmk":6857,"Ġrecent":6858,"jac":6859,"TCP":6860,"aggregate":6861,"ĠDelete":6862,"BooleanField":6863,"PASSWORD":6864,":\",":6865,"datastore":6866,"ALLED":6867,"ERCHANT":6868,"ROUP":6869,"maps":6870,"38":6871,"ĠTag":6872,"ĠApplication":6873,"ium":6874,"Library":6875,"Ġdepth":6876,"rn":6877,"allel":6878,"MagicMock":6879,"wb":6880,"='/":6881,"Ġ2009":6882,"getter":6883,"ĠTry":6884,"oute":6885,"Person":6886,"plus":6887,"Ġ################################":6888,"Ġreader":6889,"tenv":6890,"kt":6891,"Product":6892,"RED":6893,"Ġserialize":6894,"Ġansw":6895,"rides":6896,"ĠEach":6897,"Ġtensor":6898,"setitem":6899,"ĠDataFrame":6900,"ĠSite":6901,"urlresolvers":6902,"Ġradi":6903,"sli":6904,"stmt":6905,"sites":6906,"ĠOptional":6907,"Topic":6908,"chdir":6909,"program":6910,"tainer":6911,"ions":6912,"ingerprint":6913,"Has":6914,"Ġflavor":6915,"Memory":6916,"tar":6917,"Ġcomplex":6918,"OURCE":6919,"dele":6920,"xis":6921,"ascript":6922,"ĠPack":6923,"9999":6924,"Ġtools":6925,"subclass":6926,"Ġfast":6927,"variance":6928,"walk":6929,"Ġruns":6930,"Unable":6931,"finished":6932,"Multiple":6933,"dom":6934,"Ġgets":6935,"Ġlocals":6936,"Ġchoice":6937,"Ġfakes":6938,"Ġpixels":6939,"authorized":6940,"Rep":6941,"Contains":6942,"lev":6943,"ading":6944,"Ġvalidator":6945,"Alchemy":6946,"Ġexamples":6947,"Ġprompt":6948,"ĠExec":6949,"ynchronous":6950,"manifest":6951,"UNK":6952,"star":6953,"roved":6954,"ateri":6955,"ĠSSL":6956,"pin":6957,"Ġvis":6958,"Allow":6959,"MT":6960,"Send":6961,"alect":6962,"lace":6963,"parsers":6964,"Validator":6965,"ntaxError":6966,"adoop":6967,"utcnow":6968,"48":6969,"gui":6970,"Ġregard":6971,"CHE":6972,"Ġservers":6973,"atype":6974,"Registry":6975,"enum":6976,"Ġ500":6977,"Ġtargets":6978,"cases":6979,"Ġkeywords":6980,"translate":6981,"gun":6982,"ĠIndexError":6983,"CONTENT":6984,"Ġmac":6985,"avascript":6986,"ĠPoint":6987,">=":6988,"Ġcm":6989,"Ġdirec":6990,"DATAB":6991,"/{}":6992,"Ġarr":6993,"UND":6994,"WE":6995,"randn":6996,"anging":6997,"ITNESS":6998,"sto":6999,"=\"%":7000,"best":7001,"Coeffs":7002,"completed":7003,"Ġmar":7004,"cogn":7005,"ĠEns":7006,"organization":7007,"rng":7008,"Comment":7009,"Reactor":7010,"=_(\"":7011,"Ġthemes":7012,"********************************":7013,"ared":7014,"verter":7015,"Ġhex":7016,"prog":7017,"\"][\"":7018,"Ġalign":7019,"Ġ'*'":7020,"Ġtb":7021,"ctypes":7022,"Ġquote":7023,"destination":7024,"ian":7025,"cebook":7026,"ĠLib":7027,"capa":7028,"Menu":7029,"FR":7030,"Ġrec":7031,"Ġcover":7032,"ratio":7033,"servable":7034,"leton":7035,"decorator":7036,"Binary":7037,"kee":7038,"MODULE":7039,"orizont":7040,"Ġcompiler":7041,"allation":7042,"ĠinCoeffs":7043,"Execution":7044,"Ġsqlite":7045,"Ġsheet":7046,"Ġscreen":7047,"ĠDA":7048,"Environment":7049,"rdf":7050,"ensor":7051,"Ġnever":7052,"locals":7053,"Dummy":7054,"ragma":7055,"Ġhandling":7056,"Num":7057,"flask":7058,"Expected":7059,"prompt":7060,"Ġanything":7061,"Go":7062,"sublime":7063,"2010":7064,"Ġ\"\",":7065,"randint":7066,"kedirs":7067,"dp":7068,"hot":7069,"Mapping":7070,"Usage":7071,"VAR":7072,"Ġ17":7073,"Popen":7074,"ERCHANTABILITY":7075,"La":7076,"Ġrev":7077,"ussian":7078,"Example":7079,"zeug":7080,"Ġglobals":7081,"Ġrelationship":7082,"ffi":7083,"([(":7084,"windows":7085,"Ġmag":7086,"Ġplaces":7087,"ULAR":7088,"secure":7089,"Tw":7090,"Ġgreen":7091,"mkdir":7092,"Ġdue":7093,"LIED":7094,"Ġsidebar":7095,"TS":7096,"}:":7097,"}{":7098,"Ġbundle":7099,"blue":7100,"kzeug":7101,"urther":7102,"ini":7103,"hood":7104,"ĠNow":7105,"spam":7106,"chars":7107,"Ġnormalize":7108,"_{":7109,"keywords":7110,"ASK":7111,"vid":7112,"ĠĠĠĠĠĠĠĠĠĠĠĠĠĠĠĠĠĠĠĠĠĠĠĠĠĠĠĠĠĠĠĠĠĠĠĠĠĠĠĠĠĠĠĠĠĠ":7113,"CHAR":7114,"tb":7115,"inct":7116,"Ġty":7117,"wrapped":7118,"#'":7119,"black":7120,"Ġ':":7121,"Ġvirt":7122,"compiler":7123,"widgets":7124,"Required":7125,"Bytes":7126,"Ġsupplied":7127,"lio":7128,"']]":7129,"Stop":7130,"emit":7131,"adow":7132,"Functions":7133,"ĠHandle":7134,"Ġfooter":7135,"cuts":7136,".'''":7137,"gid":7138,"under":7139,"Ġimported":7140,")\")":7141,"strument":7142,"ek":7143,"ggest":7144,"ndarray":7145,"criptor":7146,"amp":7147,"gis":7148,"Ġreplacement":7149,"Ġgrr":7150,"Ġsnapshot":7151,"formats":7152,"Ġless":7153,"Ġprocessing":7154,"95":7155,"Ġ{%":7156,"ANY":7157,"Authentication":7158,"MB":7159,"Ġqueries":7160,"Ġ\"(":7161,"postgres":7162,"Arg":7163,"ĠOtherwise":7164,"Remote":7165,"iterable":7166,"fakes":7167,"ĠMERCHANTABILITY":7168,"Ġactor":7169,"Ġconfigured":7170,"slots":7171,"ĠEnsure":7172,"that":7173,"/.":7174,"_'":7175,"ification":7176,"ĠĠĠĠĠĠĠĠĠĠĠĠĠĠĠĠĠĠĠĠĠĠĠĠĠĠĠĠĠĠĠĠĠĠĠĠĠĠĠĠĠĠĠĠĠĠĠ":7177,"Ġsignals":7178,"utions":7179,"Ġthree":7180,"posed":7181,"ĠOK":7182,"Ġmarker":7183,"identi":7184,"Tri":7185,"Ġnone":7186,"Ġui":7187,"oration":7188,"getcwd":7189,"does":7190,"ĠMethod":7191,"Testing":7192,"Ġexpand":7193,"IMIT":7194,"endor":7195,"Results":7196,"foot":7197,"rank":7198,"ĠPerson":7199,"marker":7200,"ressions":7201,"dence":7202,"Ġdimension":7203,"ĠreST":7204,"Ġreduce":7205,"oted":7206,"ĠUsage":7207,"Ġcost":7208,"Ġproduce":7209,"ĠDeleting":7210,"installed":7211,"Transform":7212,"sur":7213,"Ġvery":7214,"ĠTwisted":7215,"Values":7216,"Ġdirname":7217,"ctl":7218,"Ob":7219,"Ġchunks":7220,"Missing":7221,"cmp":7222,"ĠBoolean":7223,"struction":7224,"cnt":7225,"Parameters":7226,"licies":7227,"Close":7228,"67":7229,"ua":7230,"usters":7231,"POSE":7232,"las":7233,"finder":7234,"Com":7235,"Ter":7236,"ĠCor":7237,"ĠWrite":7238,"SY":7239,"uda":7240,"versed":7241,"Track":7242,"erce":7243,"may":7244,"Ġsv":7245,"Constraint":7246,"ives":7247,"Remove":7248,"syn":7249,"Ġproperly":7250,"Ġ'/'":7251,"\"].":7252,"stit":7253,"iterator":7254,"virtual":7255,"ĠFilter":7256,"Ġhighlight":7257,"OwnerId":7258,"Poly":7259,"]}":7260,"tached":7261,"orizontal":7262,"trip":7263,"male":7264,"ĠDes":7265,"Ġ----------------------------------------":7266,"ĠDon":7267,"assertIsNot":7268,"mtime":7269,"eep":7270,"Ġpacket":7271,"velopers":7272,"Ġga":7273,"geom":7274,"Diff":7275,"DataFrame":7276,"good":7277,"Ġselection":7278,"]],":7279,"ĠRel":7280,"Ġmakes":7281,"jamas":7282,"tester":7283,"white":7284,"Ġdirection":7285,"country":7286,"AV":7287,"SUB":7288,"ells":7289,"httplib":7290,"Ġinserted":7291,"lemb":7292,"Ġssh":7293,"Ġtraining":7294,"ĠPlease":7295,"kill":7296,"mes":7297,"PROJECT":7298,"inux":7299,"Attr":7300,"gether":7301,"additional":7302,"ĠAbstract":7303,"Ġautogenerated":7304,"ffff":7305,"ĠDevelopment":7306,"Ġpower":7307,"authenticated":7308,"Ġcred":7309,"Ġconnected":7310,"vaila":7311,"Pickle":7312,"*(":7313,"Ġunpack":7314,"initialize":7315,"87":7316,"experiment":7317,"THON":7318,"ĠSearch":7319,"deepcopy":7320,"Ġsur":7321,"ĠAuto":7322,"jid":7323,"chor":7324,"Ġcontact":7325,"/?":7326,"ĠSign":7327,"Ġupper":7328,"ico":7329,"decla":7330,"isode":7331,"ital":7332,"Ġcapa":7333,"Items":7334,"hara":7335,"tcp":7336,"ĠWor":7337,"ĠSkip":7338,"Ġcodecs":7339,"ĠArray":7340,"Ġmu":7341,"Ġconv":7342,"park":7343,"Ġhour":7344,"Ġready":7345,"Ġcr":7346,"ĠAddress":7347,"CHO":7348,"lected":7349,"eros":7350,"ĠInput":7351,"Ġ{}'.":7352,"Ġbug":7353,"Ġci":7354,"ĠSpeci":7355,">,":7356,"lembic":7357,"Ġcc":7358,"ationTest":7359,"Ġformatted":7360,"OwnerAccount":7361,"`)":7362,"Ġpol":7363,"ĠPUR":7364,"moving":7365,"ARD":7366,"Matrix":7367,"Ġdoctest":7368,"volumes":7369,"pix":7370,"efficient":7371,"Ġ64":7372,"cookies":7373,"ĠPlugin":7374,"bottom":7375,"Success":7376,"Ġinstanti":7377,"bootstrap":7378,"={}":7379,"MAC":7380,"Ġsimilar":7381,"copia":7382,"Ġav":7383,"Ġ\"#":7384,"Ġrpc":7385,"Ġmachine":7386,"IDD":7387,"uffle":7388,"itude":7389,"ident":7390,"updates":7391,"ĠConfiguration":7392,"rator":7393,"Ġfunctionality":7394,"Ġtrace":7395,"flatten":7396,"Ġpanel":7397,"Ġbeta":7398,"ublish":7399,"DEX":7400,"findall":7401,"ĠOUT":7402,"Enum":7403,"FS":7404,"Pipe":7405,"pm":7406,"47":7407,"ĠLIMIT":7408,"preter":7409,"CUR":7410,"must":7411,"Ġtf":7412,"Ġbig":7413,"Ġgeneral":7414,"vailability":7415,"resize":7416,"Ġbackground":7417,"MAGE":7418,"acquire":7419,"Ġinitialized":7420,"IR":7421,"aliases":7422,"10000":7423,"Empty":7424,"rmtree":7425,"Ġquestion":7426,"bus":7427,"Ġexport":7428,"ĠDecimal":7429,"Ġps":7430,"Ġdim":7431,"Upload":7432,"Ġreply":7433,"ĠIPv":7434,"WORK":7435,"sizes":7436,"vl":7437,"otype":7438,"tn":7439,"Ġuid":7440,"istic":7441,"linux":7442,"ĠArticle":7443,"192":7444,"oom":7445,"ables":7446,"Ġable":7447,"setattr":7448,"ĠImproperlyConfigured":7449,"dec":7450,"Ġwrong":7451,"illi":7452,"inity":7453,"clients":7454,"quences":7455,"Operation":7456,"Step":7457,"registration":7458,"band":7459,"Renderer":7460,"BC":7461,"splitlines":7462,"Plan":7463,"until":7464,"ĠTree":7465,"ĠBasic":7466,"ivy":7467,"AIN":7468,"Current":7469,"selector":7470,"ping":7471,"ined":7472,"tour":7473,"Ġserve":7474,"ogram":7475,"Fixture":7476,"ĠPURPOSE":7477,"Iteration":7478,"pdu":7479,"Ġrespon":7480,"Ġperm":7481,"gradient":7482,"Ġsummary":7483,"exact":7484,"Ġlang":7485,"Ġworkbook":7486,"Descriptor":7487,"ĠTeam":7488,"Ġpprint":7489,"makedirs":7490,"urlpatterns":7491,"STATE":7492,"Ġleg":7493,"spawn":7494,",-":7495,"received":7496,"ender":7497,"Ġsyn":7498,"Ġdimensions":7499,"Wait":7500,"vile":7501,"roker":7502,"icrosoft":7503,"OAuth":7504,"()).":7505,"Ġlazy":7506,"egg":7507,"started":7508,"needs":7509,"Ġtemporary":7510,"Ġfreq":7511,"bounds":7512,"Ġexecuted":7513,"!!":7514,"hand":7515,"trl":7516,"TICULAR":7517,"ĠCall":7518,"edia":7519,"NET":7520,"Category":7521,"Ġ40":7522,"ags":7523,"()])":7524,"Ġedges":7525,"ĠThread":7526,"Ġattempt":7527,"dy":7528,"Ġexperiment":7529,"Ġrefresh":7530,"beat":7531,"2011":7532,"}),":7533,"ERY":7534,"ircu":7535,"Ġmembers":7536,"]'":7537,"(\"--":7538,"figure":7539,"69":7540,"roken":7541,"VM":7542,"JANG":7543,"tf":7544,"Ġiprot":7545,"Show":7546,"Ġconstant":7547,"coords":7548,"MEDIA":7549,"izing":7550,"reload":7551,"ĠFITNESS":7552,"ĠState":7553,"BE":7554,"Ġfo":7555,"associ":7556,"Ġadding":7557,"DataCacheDictionary":7558,"ĠPARTICULAR":7559,"}\"":7560,"cha":7561,"See":7562,"[(":7563,"Ġfrappe":7564,"Ġpants":7565,"Ġrc":7566,"validators":7567,"Ġlibs":7568,"dix":7569,"ĠOP":7570,"COUNT":7571,"()'":7572,"nor":7573,"lator":7574,"Ġconven":7575,"contenttypes":7576,"ĠSelect":7577,"Ġpip":7578,"Ġbal":7579,"Ġforwards":7580,"Ġlogged":7581,"andbox":7582,"Replay":7583,"234":7584,"TIVE":7585,"dae":7586,"Tuple":7587,"Ġwarn":7588,"abstractmethod":7589,"etree":7590,"Params":7591,"Main":7592,"Ġdns":7593,"ike":7594,"Ġforward":7595,"Ġord":7596,"combin":7597,"Detail":7598,"finish":7599,"Ġgevent":7600,"ko":7601,"ĠBook":7602,"decimal":7603,"ircle":7604,"chunks":7605,",\"":7606,"Ġfurther":7607,"Ġ'\"":7608,"ĠCloud":7609,"Ġcalculate":7610,"uniform":7611,":')":7612,"bla":7613,"Ġdouble":7614,"ĠExp":7615,"cuda":7616,"ectors":7617,"elif":7618,"ĠDocuments":7619,"relationship":7620,"atter":7621,"Ġdele":7622,"activity":7623,"background":7624,"ĠMAX":7625,"attachment":7626,"Use":7627,"mbedded":7628,"Zero":7629,"rstrip":7630,"ama":7631,"Ġwhose":7632,"METHOD":7633,"errno":7634,"GTH":7635,"LANG":7636,"BL":7637,"cture":7638,"gateway":7639,"Login":7640,"OFF":7641,"Ġinterfaces":7642,"devices":7643,"ĠFind":7644,"ĠUsed":7645,"Sample":7646,"Ġauthors":7647,"Ġcleanup":7648,"blueprint":7649,"MPLE":7650,"clock":7651,"TestSuite":7652,"Properties":7653,"ĠStatic":7654,"JANGO":7655,")\",":7656,"coordin":7657,"ATOR":7658,"patcher":7659,"Ġreading":7660,"Ġminimum":7661,"constant":7662,"Ġarchive":7663,"Ġcwd":7664,"Ġprepare":7665,"Ġdocstring":7666,"Ġgeo":7667,"AIL":7668,"[\\":7669,"ĠCL":7670,"ĠGNU":7671,"Ġcopies":7672,"native":7673,"Ġ~":7674,"Ġlanguages":7675,"README":7676,"eys":7677,"Ġcenter":7678,"odb":7679,"ĠOpenStack":7680,"ĠGrouping":7681,"0001":7682,"###########":7683,"Ġaltern":7684,"Positive":7685,"Ġrepresents":7686,"MAGES":7687,"cas":7688,"indexes":7689,"packet":7690,"ĠKeyword":7691,"edu":7692,"astic":7693,"inclu":7694,"Utils":7695,"Ġthrow":7696,"Ġsto":7697,"Setup":7698,"communic":7699,"Scheduler":7700,"erkzeug":7701,"ITS":7702,"Ġmarkup":7703,"Ġconverted":7704,"scores":7705,"ĠPri":7706,"Ġ\"'":7707,"Ġsubclasses":7708,"bench":7709,"Cell":7710,"izard":7711,"ĠBack":7712,"Ġcreates":7713,"Ġbash":7714,"ulates":7715,"define":7716,"SO":7717,"EV":7718,"zon":7719,"ads":7720,"serializers":7721,"scene":7722,"Ġaccording":7723,"\"]:":7724,"Ġsimplejson":7725,"jpg":7726,"Article":7727,"Json":7728,"Ġrepla":7729,"metaclass":7730,"qt":7731,"ysi":7732,"DEF":7733,"VarInt":7734,"Grid":7735,"Ġdeferred":7736,"blems":7737,"=======":7738,"you":7739,"=_('":7740,"honeNumber":7741,"Ġpragma":7742,"aten":7743,"Ġrand":7744,"catalog":7745,"ĠSource":7746,"car":7747,"hyper":7748,"allen":7749,"('''":7750,"Adapter":7751,"GROUP":7752,"ATCH":7753,"imit":7754,"Ġbook":7755,"Please":7756,"cov":7757,"Ġcols":7758,"launch":7759,"EM":7760,"LIN":7761,"ticket":7762,"Pr":7763,"RequestHandler":7764,"Ġanswer":7765,"!\")":7766,"asarray":7767,"canvas":7768,"Ġoptparse":7769,"Transaction":7770,")**":7771,"props":7772,"Vector":7773,"Ġpartition":7774,"Ġ{}\".":7775,"Ġ2007":7776,"FILES":7777,"share":7778,"rgb":7779,"ely":7780,"ĠExtra":7781,"Nodes":7782,"Ġbetter":7783,")+":7784,"_[":7785,"Ġdeal":7786,"percent":7787,"Ġindexes":7788,"600":7789,"FIELD":7790,"Bind":7791,"Ġct":7792,"Ġroom":7793,"aaaa":7794,"irt":7795,"Ġspecification":7796,"Ġreally":7797,"ABC":7798,"mesh":7799,"Ġunderlying":7800,"stand":7801,"Ġsli":7802,"artist":7803,"ĠEnvironment":7804,"lm":7805,"repeat":7806,"Ġthing":7807,"SCHE":7808,"categories":7809,"ierarchy":7810,"RUN":7811,"ĠSeries":7812,"Ġdeployment":7813,"Fetch":7814,"fh":7815,"Generic":7816,"Ġ#---------------------------------------------------------------------------":7817,"tempdir":7818,"ĠDefaults":7819,"direction":7820,"daemon":7821,"ĠIMPLIED":7822,"LENGTH":7823,"Ġ'+":7824,"Ġcounts":7825,"Ġappendix":7826,">\",":7827,"pie":7828,"ĠCONF":7829,"sensitive":7830,"ReplayAll":7831,"vors":7832,"Verify":7833,"argtypes":7834,")-":7835,"Ġgu":7836,"datasets":7837,"Ġarrays":7838,"Ġrobot":7839,"ĠTE":7840,"Ġeverything":7841,"Ġdisabled":7842,"Ġsmall":7843,"Ġsparse":7844,"sist":7845,"imator":7846,"ĠChar":7847,"pip":7848,"Ġweak":7849,"Ġquotes":7850,"Ġsigma":7851,"Ġborder":7852,"advance":7853,"ĠĠĠĠĠĠĠĠĠĠĠĠĠĠĠĠĠĠĠĠĠĠĠĠĠĠĠĠĠĠĠĠĠĠĠĠĠĠĠĠĠĠĠĠĠĠĠĠ":7854,"ĠCompute":7855,"Ġnamedtuple":7856,"joint":7857,"Ġfigure":7858,"Ġchecking":7859,"axes":7860,"area":7861,"Ġ80":7862,"requirements":7863,"Ġappended":7864,"Ġintera":7865,"tm":7866,"Offset":7867,"`:":7868,"Ġthreshold":7869,"Ġpyjamas":7870,"START":7871,"reet":7872,"aring":7873,"Ġapplied":7874,"Ġactivity":7875,"disconnect":7876,"Ġseparate":7877,"Copy":7878,"Ġsubscription":7879,"extended":7880,"Ġmetavar":7881,"BY":7882,"distribution":7883,"}',":7884,"Ġeffect":7885,"Ġshift":7886,"meter":7887,">.":7888,"bulk":7889,"Ġoprot":7890,"43":7891,"Ġhyper":7892,"ĠExten":7893,"Ġ23":7894,"ndim":7895,"Ġoutfile":7896,"EP":7897,"Ġexclu":7898,"GS":7899,"rack":7900,"loading":7901,"placeholder":7902,"Ġhandles":7903,"Ġlatest":7904,"standard":7905,"Ġscripts":7906,"Router":7907,"sibility":7908,"creator":7909,"restype":7910,"Ġletter":7911,"Ġrather":7912,"ĠUN":7913,"ĠGiven":7914,"crypted":7915,"Ġ'.'":7916,"appendices":7917,"rozenset":7918,"Ġdescribed":7919,"ĠProxy":7920,"special":7921,"gorithms":7922,"kwds":7923,"Ġ\"\")":7924,"Ġrng":7925,"Ġsubnet":7926,"Ġcollect":7927,"locations":7928,"Geometry":7929,"Desc":7930,"Ġmanuals":7931,"Ġpad":7932,"moo":7933,"ĠConvert":7934,"Ġshouldn":7935,"ĠEVENT":7936,"Ġversionadded":7937,"LOB":7938,"Actor":7939,"hexdigest":7940,"XY":7941,"ino":7942,"vtk":7943,"\"})":7944,"Ġetree":7945,"Ġ2008":7946,"Ġlooking":7947,"ttl":7948,"tol":7949,"lihood":7950,"Ġdays":7951,"pended":7952,"Ġentire":7953,"Ġbases":7954,"Print":7955,"Ġtimer":7956,"STATIC":7957,"70":7958,"Body":7959,"Hook":7960,"gri":7961,"Ġdynamic":7962,"ople":7963,"1024":7964,"Ġbi":7965,"PRESS":7966,"LIC":7967,"Ġinline":7968,"Render":7969,"Ġdialect":7970,"Constant":7971,"Processor":7972,"Ġsmart":7973,"Find":7974,"balance":7975,"Ġgran":7976,"currency":7977,"disabled":7978,"ĠAUTHORS":7979,"Func":7980,"teri":7981,"dian":7982,"Definition":7983,"hass":7984,"mul":7985,"Debug":7986,"ai":7987,"nick":7988,"Ġprocesses":7989,"Ġlibcloud":7990,"small":7991,"Ġplease":7992,"Ġserializers":7993,"lb":7994,"Ġaxes":7995,"Ġri":7996,"ridden":7997,"Classi":7998,"increment":7999,"Headers":8000,"Ġmonitor":8001,"__',":8002,"ĠPoly":8003,"cade":8004,"scopes":8005,"Pay":8006,"Ġhelpers":8007,"Ġstdin":8008,"etrieve":8009,"('')":8010,"([],":8011,"ĠRO":8012,"ASH":8013,"Ġpublished":8014,"Ġsteps":8015,"openid":8016,"ĠDict":8017,"diag":8018,"spli":8019,"building":8020,"={\"":8021,"Ġepoch":8022,"ĠAg":8023,"ocus":8024,"PU":8025,"Ġcp":8026,"Ġ\")":8027,"fileno":8028,"ĠBUT":8029,"=',":8030,"apon":8031,"Ġfs":8032,"RF":8033,"Ġpretty":8034,"ĠStorage":8035,"twitter":8036,"Ġdependency":8037,"sisten":8038,"queries":8039,"istribution":8040,"rename":8041,"Ġfun":8042,"Ġreturning":8043,"svn":8044,"dfs":8045,"generated":8046,"setLevel":8047,"lastic":8048,"EVENT":8049,"sudo":8050,"uous":8051,"Ġlogic":8052,"published":8053,"Ġgive":8054,"Ġ22":8055,"Ġassigned":8056,"SITE":8057,"ball":8058,"Ġdetail":8059,"Ġeas":8060,"tid":8061,"Ġincludes":8062,"rigin":8063,"ĠSQLAlchemy":8064,"SERT":8065,"assertIsNotNone":8066,"Ġfab":8067,"sib":8068,"Ġplain":8069,"Ġexplicitly":8070,"udo":8071,"lobs":8072,"onal":8073,"MODEL":8074,"addon":8075,"ENG":8076,"CREATE":8077,"sigma":8078,"Ġfixtures":8079,"CHOICES":8080,"elf":8081,"ĠCho":8082,"Ġutility":8083,"crypto":8084,"Inte":8085,"509":8086,"assemble":8087,"Exists":8088,"Ġexecutable":8089,"Common":8090,"retri":8091,"alice":8092,"cra":8093,"nl":8094,"ĠLink":8095,"Ġformats":8096,"major":8097,"Ġgc":8098,"ĠNULL":8099,"php":8100,"Ġlonger":8101,"ĠLab":8102,"Ġprevent":8103,"Raw":8104,"descriptor":8105,"Ġflush":8106,"Ġfire":8107,"expires":8108,"Ġndarray":8109,"\")),":8110,"Global":8111,"Ġwon":8112,"jection":8113,"mpa":8114,"ĠVector":8115,"keh":8116,"dates":8117,"worksheet":8118,"OPEN":8119,"bp":8120,"Ġagree":8121,"ipedia":8122,"Ġloading":8123,"Ġformatter":8124,"ILD":8125,"54":8126,"Ġiteration":8127,"ĠTex":8128,"ĠFrame":8129,"uncate":8130,"Ġfixture":8131,"TAG":8132,"paren":8133,"Font":8134,"ropy":8135,"rase":8136,"mmutable":8137,"Ġenum":8138,"\"},":8139,"TC":8140,"chemas":8141,"shutdown":8142,"Ġfron":8143,"Region":8144,"ĠCalc":8145,"djang":8146,"CONN":8147,"Cluster":8148,"........":8149,"ĠMax":8150,"adapter":8151,"BER":8152,"Ġhidden":8153,"Flask":8154,"Ġabort":8155,"TRACT":8156,"ordered":8157,"digits":8158,"Ġvisible":8159,"urlopen":8160,"Ġdeclar":8161,"Connect":8162,"=[],":8163,"={},":8164,"ArgumentParser":8165,"Net":8166,"constructor":8167,"nc":8168,"['_":8169,"artbeat":8170,"udit":8171,"SHA":8172,"Ġappear":8173,"auti":8174,"ana":8175,"usted":8176,"notes":8177,"POINT":8178,"encoder":8179,"anded":8180,"Errors":8181,"ĠMon":8182,"quiet":8183,"Ġlinear":8184,"answer":8185,"ĠVariable":8186,"Ġ'{}":8187,"Display":8188,"Ġterminal":8189,"afe":8190,"fron":8191,"DATABASE":8192,"sually":8193,"UTF":8194,"ached":8195,"OLD":8196,"Opt":8197,"ĉĠĠĠ":8198,"saved":8199,"Ġimmediate":8200,"qname":8201,"/(":8202,"VIDED":8203,"Click":8204,"KET":8205,"Ġsuccessfully":8206,"ENGINE":8207,"scr":8208,"(_('":8209,"Ġpull":8210,"logged":8211,"friend":8212,"then":8213,"dialog":8214,"Ġeventlet":8215,"Ġretrie":8216,"ilo":8217,"asis":8218,"tras":8219,"ĠGenerate":8220,"ĠEl":8221,"xyz":8222,"LIMIT":8223,"Ġmuch":8224,"quation":8225,"tistics":8226,"wraps":8227,"gination":8228,"consume":8229,"Ġdefines":8230,"geometry":8231,"ond":8232,"ĠZZ":8233,"Ġaliases":8234,"Ġprobably":8235,"ĠApi":8236,"heel":8237,"Prefix":8238,"shortcuts":8239,"lour":8240,"ĠForeignKey":8241,"ĠMay":8242,"HttpRequest":8243,"pw":8244,"Conf":8245,"cycle":8246,"Ġcharset":8247,"Ġchannels":8248,"bitrary":8249,"Ġcontributor":8250,"\"')":8251,"II":8252,"Ġdescriptor":8253,"ĠSec":8254,"Ġregarding":8255,"Ġsol":8256,"Done":8257,"dynamic":8258,"Ġlex":8259,"Ġequivalent":8260,"verbosity":8261,"Tools":8262,"avigation":8263,"bidden":8264,"ĠHost":8265,"terminal":8266,"cross":8267,"Ġeasy":8268,"Ġstub":8269,"Ġcatch":8270,"IX":8271,"coverage":8272,"Ġ10000":8273,"bold":8274,"Ġ'':":8275,"Ġsymbols":8276,"Ġ1234":8277,"cryption":8278,"!\"":8279,"Sm":8280,"Ġasync":8281,"Ġprocessed":8282,"ĠVM":8283,"corder":8284,"keeper":8285,"Ġls":8286,"tip":8287,"ĠFirst":8288,"Ġdefinitions":8289,"flo":8290,"\"\"\")":8291,"Ġnegative":8292,"ĠCOPYING":8293,"Cleanup":8294,"seudo":8295,"ropo":8296,"Ġpending":8297,"ĠCreates":8298,"ĠResult":8299,"recipient":8300,"(?:":8301,"IE":8302,"ancy":8303,"att":8304,"Ġrecipient":8305,"ĠEngine":8306,"Val":8307,"Ġcaller":8308,"atural":8309,"Ġred":8310,"ĠLIMITED":8311,"Ġcard":8312,"ism":8313,"ĠSu":8314,"Cookie":8315,"retty":8316,"^^":8317,"\":\"":8318,"fsm":8319,"precationWarning":8320,"UES":8321,"alive":8322,"Ġownership":8323,"dao":8324,"ĠJob":8325,"Ġmanagement":8326,"Ġrect":8327,"Ġarea":8328,"mited":8329,"asm":8330,"Ġfilepath":8331,"Named":8332,"Ġports":8333,"Ġvol":8334,"ĠColor":8335,"dm":8336,"seg":8337,"vim":8338,"Ġnodelist":8339,"topo":8340,"plural":8341,"EG":8342,"pret":8343,"migration":8344,"former":8345,"exer":8346,"within":8347,"benchmark":8348,"ssue":8349,"exchange":8350,"aker":8351,"ToMany":8352,"ECTION":8353,"Sheet":8354,"Ġnargs":8355,"Ġwsgi":8356,"ĠAP":8357,"Worker":8358,"Ġuni":8359,"failUnlessEqual":8360,"Non":8361,"TT":8362,"Ġremaining":8363,"ĠautoGenerate":8364,"ĠFIX":8365,"Ġsimply":8366,"Ġconsume":8367,"sqlalchemy":8368,"ĠAssertionError":8369,"assertNotIn":8370,"witch":8371,"Expression":8372,"caten":8373,"Ġnb":8374,"Ġwar":8375,"ĠArguments":8376,"mpaign":8377,"Gra":8378,"thumbnail":8379,"memo":8380,"ĠcStringIO":8381,"Ġpycopia":8382,"FLAGS":8383,"////////":8384,"CF":8385,"Cer":8386,"fr":8387,"Ġrestri":8388,"ĠSalt":8389,"ĠDAMAGES":8390,"Title":8391,"oned":8392,"ĠStream":8393,"WI":8394,"ALI":8395,"Ġvalidators":8396,"Ġminimal":8397,"Ġwindows":8398,"since":8399,"Ġscalar":8400,"bars":8401,"57":8402,"_('":8403,"Ġlicenses":8404,"acter":8405,"ĠIPython":8406,"Callbacks":8407,"dh":8408,"human":8409,"Ġunless":8410,"ĠĠĠĠĠĠĠĠĠĠĠĠĠĠĠĠĠĠĠĠĠĠĠĠĠĠĠĠĠĠĠĠĠĠĠĠĠĠĠĠĠĠĠĠĠĠĠĠĠ":8411,"topics":8412,"(_(\"":8413,"Ġprior":8414,"'m":8415,"MQ":8416,"PH":8417,"lst":8418,"ĠEmpty":8419,"ered":8420,"Ġlight":8421,"KeyError":8422,"Decimal":8423,"YY":8424,"too":8425,"ramid":8426,"sf":8427,"asc":8428,"scriber":8429,"ĠINST":8430,"Ġsuccessful":8431,"Ġdirectives":8432,"Ġcodes":8433,"][\"":8434,"Security":8435,"Ġ'?":8436,"Ġ{{":8437,"negative":8438,"Scale":8439,"gd":8440,"ĠSER":8441,"ĠNotes":8442,"issues":8443,"mr":8444,"Ġruntime":8445,"ĠProduct":8446,"!')":8447,"Ġqual":8448,"verts":8449,"Ġtraits":8450,"completion":8451,"Ġstrict":8452,"56789":8453,"Ġreceive":8454,"\"\",":8455,"Ġfloating":8456,"levant":8457,"Called":8458,"diction":8459,"UTE":8460,"ĠPygments":8461,"cells":8462,"HEADER":8463,"otal":8464,"ĠImple":8465,"Ġmeasure":8466,"ĠUti":8467,"Ġ21":8468,"Convert":8469,"books":8470,"Ġgradient":8471,"Windows":8472,"Git":8473,"Ġchecked":8474,"callbacks":8475,"Any":8476,"au":8477,"opro":8478,"Ġadds":8479,"Width":8480,"Ġ'..":8481,"Ġsever":8482,"serialization":8483,"Ġfinish":8484,"providers":8485,"Ġprefixes":8486,"Ġsorting":8487,"attrib":8488,"unused":8489,"=''):":8490,"Ġcurr":8491,"lify":8492,"ĠAllow":8493,"docker":8494,"ĠPackage":8495,"Ġ^":8496,"ctree":8497,"Ġmiddleware":8498,"Skip":8499,"stan":8500,"grant":8501,"Mis":8502,"Pos":8503,"keystone":8504,"Cmd":8505,"registered":8506,"Ġclients":8507,"strategy":8508,"ĠBlock":8509,"deferred":8510,"footnote":8511,"Ġfh":8512,"tablename":8513,"DataCacheFunctions":8514,"ĠContentType":8515,"Ġ'$":8516,"Ġdialog":8517,"checks":8518,":/":8519,"stage":8520,"Ġpadding":8521,"theta":8522,"Ġmonkey":8523,"fu":8524,"Ġserialized":8525,"rating":8526,"workers":8527,"bian":8528,"WARNING":8529,"Temporary":8530,"UUID":8531,"coord":8532,"ĠLabel":8533,"ĠSchemaMigration":8534,"([^":8535,"ModelForm":8536,"lr":8537,"ster":8538,"Ġserved":8539,"seen":8540,"deri":8541,"SSH":8542,"Ġdeg":8543,"ĠFree":8544,"ACCESS":8545,"ASES":8546,"une":8547,"Ġstarts":8548,"ESSAGE":8549,"assette":8550,"Ġhandled":8551,"products":8552,"Ġstati":8553,"operations":8554,"Ġhist":8555,"ESSION":8556,"ippet":8557,"aggreg":8558,"Ġmocked":8559,"ĠINCLUDING":8560,"SchemaMigration":8561,"Cursor":8562,"Ġclassifiers":8563,"Speci":8564,"Ġlocations":8565,"Statement":8566,"something":8567,"META":8568,"horizon":8569,"domains":8570,"ajax":8571,"Ġnor":8572,"achine":8573,"iteral":8574,"ĠSerial":8575,"BR":8576,"ĠSp":8577,"focus":8578,"ĠRule":8579,"Ġpassing":8580,"zed":8581,"ĠDIS":8582,"ĠHelp":8583,"collections":8584,"Del":8585,"Finder":8586,"First":8587,"iki":8588,"Cor":8589,"Dataset":8590,"Ġfamily":8591,"authorization":8592,"lapsed":8593,"CLIENT":8594,"urnal":8595,"Ġbuff":8596,"Sets":8597,"distributed":8598,"pixel":8599,"mdao":8600,"ĠALL":8601,"logout":8602,"Ġordered":8603,"Ġlst":8604,"MY":8605,"vpn":8606,"receiver":8607,"alter":8608,"ĠAccess":8609,"ĠSend":8610,"limits":8611,"Ġcertificate":8612,"SyntaxError":8613,">]":8614,"ny":8615,"trait":8616,"scenario":8617,"ĠRPC":8618,"ĠQtCore":8619,"directed":8620,"101":8621,"Ġ----------------":8622,"ĠTri":8623,"perms":8624,"Ġjinja":8625,"Arch":8626,"Ġtitles":8627,"Ġvars":8628,"ced":8629,"Ġ\\\\":8630,"creation":8631,"Ġdfp":8632,"ĠfunctionList":8633,"general":8634,"TERN":8635,"tifier":8636,"Ġtar":8637,"ĠRange":8638,"avg":8639,":],":8640,"attemp":8641,"ĠMin":8642,"Ġshare":8643,"Ġaggregate":8644,"Ġprocessor":8645,"speed":8646,"WID":8647,"udience":8648,"ĠPROVIDED":8649,"Authorization":8650,"46":8651,"border":8652,"dtemp":8653,"Ġunused":8654,"([])":8655,"ĠCOPYRIGHT":8656,"Ġenough":8657,"Ġsystems":8658,"DJANGO":8659,"Normal":8660,"Neg":8661,"AWS":8662,"BSD":8663,"trial":8664,"ENCE":8665,"Iterator":8666,"Ġstatist":8667,"xhtml":8668,"Ġplaceholder":8669,"semb":8670,"ene":8671,"ronic":8672,"ĠDeferred":8673,"ĠinDataCacheDictionary":8674,"Begin":8675,"pd":8676,"solver":8677,"xpath":8678,"Ġsudo":8679,"ĠGeo":8680,"alls":8681,"Ġaggreg":8682,"ientation":8683,"ĠDO":8684,"jinja":8685,"Ġpercent":8686,"Unicode":8687,"clip":8688,"ĠInst":8689,"confirm":8690,"ĠEmail":8691,"96":8692,"Ġpositive":8693,"voice":8694,"ii":8695,"Ġrhs":8696,"Ġwraps":8697,"take":8698,"Ġscenario":8699,"-+":8700,"mf":8701,"Ġlaunch":8702,"bg":8703,"Ġ=>":8704,"ĠMySQL":8705,"erature":8706,"ĠStack":8707,"Ġ\"[":8708,"ĠJava":8709,"bindings":8710,"ĠCreature":8711,"jected":8712,"Release":8713,"symbols":8714,"removed":8715,"tection":8716,"Ġrepe":8717,"Ġincorrect":8718,"radius":8719,"Ġinherit":8720,"Ġ\"\"\"\\":8721,"realpath":8722,"Identifier":8723,"Attributes":8724,"bf":8725,"Ġsucce":8726,"Ġprice":8727,"containers":8728,"imen":8729,"!'":8730,"loaders":8731,"Init":8732,"posts":8733,"stubs":8734,"tabs":8735,"calendar":8736,"ĠEnthought":8737,"FUN":8738,"pretty":8739,"annotation":8740,"ĠDOM":8741,"makeOne":8742,"NOWN":8743,"har":8744,"(\".":8745,"ORM":8746,"encoded":8747,"migrate":8748,"Ġfragment":8749,"Ġ*=":8750,"Sha":8751,"ban":8752,"mouse":8753,"Ġclf":8754,"Ġ################################################":8755,"chat":8756,"Ġcompatible":8757,"while":8758,"clause":8759,"thrift":8760,"ĠDATA":8761,"presented":8762,"Book":8763,"ĠCH":8764,"ductor":8765,"ordering":8766,"__:":8767,"ouch":8768,"howto":8769,"cts":8770,"viewer":8771,"ĠSetup":8772,"ĠHttpResponseRedirect":8773,"Ġwidgets":8774,"ĠBytes":8775,"ĠCalled":8776,"perform":8777,"Chart":8778,"999":8779,"Ġ###############################################################################":8780,"superuser":8781,"gamma":8782,"lp":8783,"Ġbenchmark":8784,"Ġwerkzeug":8785,"ĠTexinfo":8786,"MIS":8787,"Ġgs":8788,"ĠWhether":8789,"viding":8790,"/\",":8791,"=\"\"\"":8792,"xies":8793,"Ġcancel":8794,"ĠMain":8795,"mid":8796,"robot":8797,"Ġloss":8798,"ULTI":8799,"Relation":8800,"ircuit":8801,"Ġinf":8802,"morph":8803,"')):":8804,"168":8805,"Ġauthorization":8806,"ighbors":8807,"pow":8808,"declar":8809,"Ġprecision":8810,"('/',":8811,"levels":8812,"Ġgeometry":8813,"USERNAME":8814,"IDDLE":8815,"veri":8816,"Ġscene":8817,"PN":8818,"wrong":8819,"ĠLay":8820,"cele":8821,"Msg":8822,"minute":8823,"OPTIONS":8824,"infra":8825,"Save":8826,"fine":8827,"unlink":8828,"Setting":8829,"authenticate":8830,"entities":8831,"linalg":8832,"Merge":8833,"Ġhard":8834,"lette":8835,"elery":8836,"dimension":8837,"vlan":8838,"('{":8839,"ĠProtocolBuffer":8840,"Folder":8841,"illa":8842,"Ġdigest":8843,"pypi":8844,"Ġtrailing":8845,"Ġxmlns":8846,"Ġcertain":8847,"Split":8848,"hint":8849,"Ġdeli":8850,"ĠSSH":8851,"codec":8852,"ĠDateTime":8853,"Scen":8854,"bc":8855,"gc":8856,"stor":8857,"ĠcPickle":8858,"mpling":8859,"unity":8860,"ĠCache":8861,"large":8862,"Ġcmp":8863,"alph":8864,"FE":8865,"Ġenter":8866,"ĠHas":8867,"Creates":8868,"finite":8869,"ully":8870,"poses":8871,"PROTO":8872,"letterpaper":8873,"ĠMap":8874,"ĠRandom":8875,"Ġaverage":8876,"pider":8877,"kb":8878,"Ġvals":8879,"Ġfailures":8880,"Children":8881,"Ġexactly":8882,"CD":8883,"]',":8884,"yy":8885,"ĠWITH":8886,"Async":8887,"CLASSES":8888,"Ġderived":8889,"Batch":8890,"aniti":8891,"Ġtt":8892,"cay":8893,"presentation":8894,"Flavor":8895,"Ġbra":8896,"Ġgdata":8897,"ĠĠĠĠĠĠĠĠĠĠĠĠĠĠĠĠĠĠĠĠĠĠĠĠĠĠĠĠĠĠĠĠĠĠĠĠĠĠĠĠĠĠĠĠĠĠĠĠĠĠĠ":8898,"PACK":8899,"Stat":8900,"Ġcpu":8901,"Ġsentinel":8902,"yield":8903,"cks":8904,"Accept":8905,"ctivity":8906,"markdown":8907,"allenge":8908,"exclu":8909,"Ġdigits":8910,"potify":8911,"izations":8912,"dicts":8913,"notation":8914,"Running":8915,"Ġwhole":8916,"Ġfew":8917,"ĠTop":8918,"phi":8919,"drivers":8920,"Ġdirector":8921,"ov":8922,"Ġpor":8923,"RESP":8924,"()}":8925,"ĠACTION":8926,"Timer":8927,"Keys":8928,"Ġws":8929,"Ġpygments":8930,"measure":8931,"ĠWARRANTY":8932,"regions":8933,"ĠTABLE":8934,"routes":8935,"Ġagreements":8936,"deps":8937,"urlencode":8938,"copg":8939,"Ġgetting":8940,"OTE":8941,"AttributeError":8942,"LEV":8943,"Enter":8944,"Almost":8945,"ĠLaborator":8946,"']}":8947,"ocs":8948,"Ġwebsite":8949,"WRITE":8950,"ience":8951,"Ġ(.":8952,"Ġguess":8953,"Ġpyg":8954,"checked":8955,"DIRS":8956,"ĠFIXME":8957,"ĠSim":8958,"za":8959,"Ġve":8960,"Ġdelimiter":8961,"'](":8962,"ticles":8963,"Ġshard":8964,"bio":8965,"Operator":8966,"Ġsqrt":8967,",\\":8968,"BB":8969,"Null":8970,"Ġprops":8971,"weet":8972,"Ġtmpdir":8973,"(.":8974,"Ma":8975,"hide":8976,"mgr":8977,"Ġlatex":8978,"Ġslash":8979,"Ġdaemon":8980,"curacy":8981,"numbers":8982,"Ġlayers":8983,"RESULT":8984,"incip":8985,"Ġface":8986,"ighted":8987,"hub":8988,"erry":8989,"Ġblueprint":8990,"ellow":8991,"Ġvirtual":8992,"/*":8993,"([('":8994,"todo":8995,"altern":8996,"Ġintern":8997,"Ġes":8998,"Ġ(('":8999,"Notification":9000,"Ġliter":9001,"Ġdirs":9002,"Ġcallbacks":9003,"hours":9004,"Limit":9005,"Mar":9006,"Ġmagic":9007,"Card":9008,"Ġpt":9009,"ĠTY":9010,"Ġsubmit":9011,"Namespace":9012,"Ġcast":9013,"ĠParameter":9014,"ganization":9015,"quota":9016,"Ġroles":9017,"rollback":9018,"Ġec":9019,"Ġ300":9020,"latforms":9021,"dialect":9022,"ailgun":9023,"ĠAsync":9024,"Edge":9025,"Ġflatten":9026,"zA":9027,"Ġpaper":9028,"Structure":9029,"Space":9030,"Ġam":9031,"union":9032,"rab":9033,"itation":9034,"INDEX":9035,"Ġ###########################################################################":9036,"Ġcoordinates":9037,"irtual":9038,"three":9039,"upy":9040,"parame":9041,"ĠRecord":9042,"Ġclock":9043,"Ġrepresented":9044,"ĠMicrosoft":9045,"Ġfilesystem":9046,"nonce":9047,"imation":9048,"micro":9049,"andra":9050,"Ġlive":9051,"It":9052,"ĠBY":9053,"Chunk":9054,"Ġcustomize":9055,"FromString":9056,"72":9057,"Ġpie":9058,"Ġfiltered":9059,"58":9060,"Ġhorizon":9061,"EY":9062,"ISING":9063,"Ġmanifest":9064,"Ġtail":9065,"AlmostEqual":9066,"deprecated":9067,"Ġflex":9068,"ĠCase":9069,"capt":9070,"LANGU":9071,"Lost":9072,"Ġfore":9073,"vie":9074,"Ġartifact":9075,"Ġrequirements":9076,"ky":9077,"Summary":9078,"pointer":9079,"://%":9080,"magic":9081,"retries":9082,"ĠĠĠĠĠĠĠĠĠĠĠĠĠĠĠĠĠĠĠĠĠĠĠĠĠĠĠĠĠĠĠĠĠĠĠĠĠĠĠĠĠĠĠĠĠĠĠĠĠĠ":9083,"Ġstatements":9084,"ĠLocation":9085,"\\\"":9086,"oproject":9087,"JS":9088,"algorithm":9089,"Ġ[{":9090,"ĠMet":9091,"Linear":9092,"epub":9093,"033":9094,"######":9095,"Ġacross":9096,"certificate":9097,"QuerySet":9098,"separator":9099,"slave":9100,"Ġopenmdao":9101,"Manage":9102,"ĠWith":9103,"Ġproducts":9104,"ĠFormat":9105,"ĠSHALL":9106,"locate":9107,"was":9108,"TestBase":9109,"news":9110,"reports":9111,"assandra":9112,"alert":9113,"Ġ256":9114,"libs":9115,"Ġtaken":9116,"profiler":9117,"Ġauthenticate":9118,"vin":9119,"Ġcuda":9120,"Ġsending":9121,"Ġ-----------------------------------------------------------------------------":9122,"ICT":9123,"CCESS":9124,"ĠCurrent":9125,"tially":9126,"Ġpm":9127,"Regexp":9128,":\")":9129,"SP":9130,"xc":9131,"titions":9132,"')).":9133,"Ġsentry":9134,"ENABLE":9135,"AML":9136,"mpp":9137,"processes":9138,"Ġnotify":9139,"ĠSettings":9140,"mitive":9141,"Ġecho":9142,"Ġprojects":9143,"TLS":9144,"repos":9145,"ches":9146,"doctype":9147,"termine":9148,"Changed":9149,"ĠCategory":9150,"dicates":9151,"Ġselector":9152,"reporter":9153,"ipy":9154,"artifact":9155,"ada":9156,"Ġbounds":9157,"Ġspeed":9158,"Ġflash":9159,"ĠWHE":9160,"Classifier":9161,"Ġ'(":9162,"ĠARISING":9163,"fora":9164,"Rest":9165,"pygments":9166,"ĠProperty":9167,"Ġbuilding":9168,"Ġcoming":9169,"ACTION":9170,"Ġreplacing":9171,"raction":9172,"Ġminutes":9173,"Ġacts":9174,"Credentials":9175,"loy":9176,"confir":9177,"digit":9178,"Help":9179,"obs":9180,"Ġfu":9181,"Ġnative":9182,"pyc":9183,"Decorator":9184,"Area":9185,"Ġresolver":9186,"subset":9187,"Ġexpires":9188,"Dest":9189,"Ġmix":9190,"Ġdoing":9191,"Ġinstallation":9192,"evaluate":9193,"Ġconsidered":9194,"DESCRI":9195,"vol":9196,"ising":9197,"atory":9198,"ĠRFC":9199,"erring":9200,"?)":9201,"sts":9202,"('__":9203,"strs":9204,"LOCAL":9205,"DD":9206,"isco":9207,"Ġhit":9208,"Objects":9209,"uestion":9210,"hasattr":9211,"Ġgeom":9212,"ĠNon":9213,"Ġ([":9214,"Ġparagraph":9215,"Ġrenderer":9216,"ĠLIABLE":9217,"Ġannotation":9218,">/":9219,"Ġdom":9220,"aneous":9221,"Ġurlencode":9222,"OO":9223,"gre":9224,"maker":9225,"HOME":9226,"protocols":9227,"98":9228,"mg":9229,"Ġreload":9230,"unded":9231,"Ġhaving":9232,"Ġlost":9233,"Ġoverridden":9234,"ĠWHETHER":9235,"Identity":9236,"]\\":9237,"Decoder":9238,"weapon":9239,"RGB":9240,"etry":9241,"Ġticket":9242,"ĠExtension":9243,"MAN":9244,"tv":9245,"tested":9246,"Ġradius":9247,"restore":9248,"teardown":9249,"assertDict":9250,"misc":9251,"Shape":9252,"offer":9253,"readlines":9254,"Ġmatched":9255,"))))":9256,"buff":9257,"AGES":9258,"Register":9259,"mixin":9260,"Ġprom":9261,"Ġdp":9262,"unnel":9263,"ĠVAL":9264,"tzinfo":9265,"calculate":9266,"Pattern":9267,"VS":9268,"eriv":9269,"ranges":9270,"ĠShow":9271,"riteria":9272,"Ġcustomer":9273,"ĠStore":9274,"=\"/":9275,"construct":9276,"Ġresulting":9277,"about":9278,"Related":9279,"directories":9280,"silon":9281,"Ġoutside":9282,"ĠProfile":9283,"TABLE":9284,"](":9285,"Ġ31":9286,"ĠGets":9287,"charset":9288,"Ġ123":9289,"Side":9290,"Zip":9291,"),(":9292,"MSG":9293,"Ġaccepts":9294,"SIGN":9295,"Ġ-----":9296,"lain":9297,"quit":9298,"QUE":9299,"1997":9300,"=\"\",":9301,"Repository":9302,"Xml":9303,"ĠGa":9304,"Ġsoft":9305,"Single":9306,"}/{":9307,"izable":9308,"Ġcompiled":9309,"Ġverbosity":9310,"desk":9311,"ij":9312,"Ġ'\\\\":9313,"ĠUI":9314,"BadRequest":9315,"urable":9316,"health":9317,"Ġlearning":9318,"Ġbasename":9319,"Ġintegers":9320,"Lexer":9321,"Ġfrequency":9322,"Ġnn":9323,"Ġbel":9324,"ĠCONTRACT":9325,"splitext":9326,"dictionary":9327,"ĠOb":9328,"sr":9329,"Ġdepends":9330,"illow":9331,"ĠGE":9332,"ĉĉĉĉĉ":9333,"theses":9334,"Ġregistration":9335,"DOWN":9336,"factories":9337,"Ġcap":9338,"Events":9339,"Supported":9340,"multip":9341,"mpath":9342,"ĠUSER":9343,"neg":9344,"dirty":9345,"swap":9346,"Ġissubclass":9347,"ĠStopIteration":9348,"Route":9349,"Ġdep":9350,"Ġdetect":9351,"ĠRedis":9352,"----------------------------------------------------------------":9353,"Ġcipher":9354,"djangoproject":9355,"pur":9356,"Ġdates":9357,"Ġcompleted":9358,"Ġindicates":9359,"craw":9360,"Console":9361,"Ġcompat":9362,"Ġmultiprocessing":9363,"terms":9364,"Ġ(_":9365,"nodelist":9366,"Resolver":9367,"UPPORT":9368,"Ġcycle":9369,"Next":9370,"asource":9371,"Ġear":9372,"pared":9373,"Ġmemo":9374,"ADMIN":9375,"Ġextend":9376,"))]":9377,"ynomial":9378,"Ġgranted":9379,"inted":9380,"logical":9381,"specified":9382,"WIDTH":9383,"LC":9384,"Ġband":9385,"shake":9386,"Mail":9387,"quent":9388,"ĠContainer":9389,"Ġevalu":9390,"Ġdx":9391,"Counter":9392,"Ġjs":9393,"URN":9394,"Ġrecursive":9395,"dating":9396,"()['":9397,"Ġcalendar":9398,"Alias":9399,"Ġcf":9400,"vered":9401,"sic":9402,"Ġ|=":9403,"Blob":9404,"ulse":9405,"Ġproper":9406,"Ġcomparison":9407,"Ġmoduleauthor":9408,"iness":9409,"Ġinvoked":9410,"+\"":9411,"enium":9412,"()``":9413,"aming":9414,"favicon":9415,"swift":9416,"ualen":9417,"PK":9418,"Ġol":9419,"rian":9420,"authorize":9421,"Static":9422,"IDDLEWARE":9423,"outine":9424,"commen":9425,"52":9426,"Ġcid":9427,"visions":9428,"ĠSince":9429,"ĠKEY":9430,"communicate":9431,"Ġnavigation":9432,"peer":9433,"atrices":9434,"schematic":9435,"ĠDomain":9436,"spider":9437,"RST":9438,"vendor":9439,"notifications":9440,"Ġindicating":9441,".'),":9442,"Hub":9443,"Mod":9444,"Ġcar":9445,"ĠWidget":9446,"Ġprepended":9447,"Decode":9448,"ADD":9449,"xlsx":9450,"alone":9451,"Ġfriend":9452,"Ġsin":9453,"Ġperformance":9454,"Util":9455,"Ġgtk":9456,"Ġbecome":9457,"ATTR":9458,"Ġlisted":9459,"ĠCONTRIBUT":9460,"Ġupgrade":9461,"blocking":9462,"votes":9463,"Ġinitialization":9464,"tuples":9465,"Rpc":9466,"TemporaryFile":9467,"MI":9468,"PRI":9469,"tively":9470,"clusters":9471,"rfc":9472,"kg":9473,"Ġ28":9474,"formset":9475,"crease":9476,"ViewSet":9477,"ĠAttributes":9478,"53":9479,"Part":9480,"routing":9481,"(\"<":9482,"pts":9483,"Ġvisual":9484,"512":9485,"History":9486,"Publish":9487,"zure":9488,"into":9489,"ablish":9490,"cally":9491,"queues":9492,"Ġnormalized":9493,"ĠValidationTest":9494,"MULTI":9495,"RA":9496,"embed":9497,"invoke":9498,"ĠConfigParser":9499,"variant":9500,"'ve":9501,"eta":9502,"hits":9503,"land":9504,"Ġissues":9505,"ĠMongo":9506,"objs":9507,"going":9508,"decoder":9509,"sensor":9510,"annotations":9511,"Ġasyn":9512,"pyplot":9513,"threading":9514,"Ġlooks":9515,"anonymous":9516,"Ġrs":9517,"ĠWh":9518,"caps":9519,"ookeeper":9520,"written":9521,"ĠInte":9522,"Ġmimetype":9523,"ĠCONTRIBUTORS":9524,"DNS":9525,"GP":9526,"mx":9527,"Ġrefer":9528,"rit":9529,"smart":9530,"}')":9531,"tis":9532,"tax":9533,"ĠEnum":9534,"intercept":9535,"literal":9536,"Ġtransition":9537,"asket":9538,"illing":9539,"facebook":9540,"Ġreleased":9541,"sembly":9542,"Ip":9543,"album":9544,"minutes":9545,"Height":9546,"Ġstand":9547,"Ġstage":9548,"ĠCONN":9549,"Ġautos":9550,"ching":9551,"staff":9552,"Ġmount":9553,"WSGI":9554,"ircular":9555,"Ġgzip":9556,"97":9557,"]{":9558,"another":9559,"Ġcos":9560,"Ġproblems":9561,"Ġsep":9562,"ĠNAME":9563,"Ġthroughout":9564,"crop":9565,"Ġdistribute":9566,"']):":9567,"Ġobserver":9568,"Ctrl":9569,"ZZ":9570,"Ġage":9571,"Ġrepeat":9572,"Analy":9573,"Ġfallback":9574,"(\"{":9575,"bsocket":9576,"inspect":9577,"rottle":9578,"Spa":9579,"qos":9580,"Ġlu":9581,"atable":9582,"MPTY":9583,"ĠEXPRESS":9584,"Monitor":9585,"Ġpg":9586,"logic":9587,"Queryset":9588,"Note":9589,"Ġpoll":9590,"Ġmesh":9591,"Chain":9592,"serialized":9593,"assignment":9594,"'<":9595,"Public":9596,"audio":9597,"hd":9598,"orical":9599,"Ġincrement":9600,"Ġconversion":9601,"ĠUUID":9602,"Ġscra":9603,"ĠTYPE":9604,"cn":9605,"vided":9606,"Ġarbitrary":9607,"Ġshorter":9608,"Ġdifference":9609,"Ġtxt":9610,"('#":9611,"Ġspaces":9612,"zk":9613,"lets":9614,"Ġadapter":9615,"pike":9616,"TODO":9617,"ĠManager":9618,"Ġhighlighting":9619,"xform":9620,"always":9621,"Ġroutes":9622,"Ġcontextlib":9623,"tracker":9624,"Ġclause":9625,"Ġide":9626,"ĠTCP":9627,"mmar":9628,"fft":9629,"Section":9630,"modindex":9631,"Ġsell":9632,"ĠCommandError":9633,"Ġbinding":9634,"restart":9635,"pyeq":9636,"ĠBaseCommand":9637,"but":9638,"dead":9639,"tivi":9640,"locked":9641,"Checker":9642,"Mapper":9643,"ARCH":9644,"Ġzope":9645,"deserialize":9646,"Ġabc":9647,"Ġdisplayed":9648,"'\")":9649,"Ġsubset":9650,"Ġtranslate":9651,"ĠCollection":9652,"ĠOptionParser":9653,"]\"":9654,"mut":9655,"Ġ\"$":9656,"Ġframes":9657,"IRED":9658,"numeric":9659,"Ġvec":9660,"Ġdemo":9661,"touch":9662,"Ġvtk":9663,"Ġ2006":9664,"Ġhack":9665,"Ġsequences":9666,"ĠProvider":9667,"RuntimeError":9668,"andidates":9669,"hadoop":9670,"Ġfsm":9671,"preamble":9672,"ĠIntangible":9673,"ualenv":9674,"assets":9675,"ĠSave":9676,"trols":9677,"ĠGenerator":9678,"margin":9679,"Axis":9680,"chr":9681,"rences":9682,"Calc":9683,"Ġrestore":9684,"INSERT":9685,"Ġfactories":9686,"behavi":9687,"pan":9688,"Ġcategories":9689,"Enabled":9690,"Ġretval":9691,"ĠHowever":9692,"BAD":9693,"IMAGE":9694,"Ġwebob":9695,"Ġcanvas":9696,"ĠBytesIO":9697,"guid":9698,"Ġmouse":9699,"ĠET":9700,"Ġloads":9701,"ĠURLs":9702,"403":9703,"dry":9704,"}]":9705,"',),":9706,"party":9707,"policies":9708,"capture":9709,"Ġchr":9710,"creds":9711,"ĠPrint":9712,"Ġsigned":9713,"2009":9714,"mkdtemp":9715,"ĠDisplay":9716,"difference":9717,"Fin":9718,"through":9719,"Ġexchange":9720,"REAM":9721,"Ġtoplevel":9722,"realm":9723,"Signal":9724,"\"',":9725,"ocab":9726,"Ġreads":9727,"Initialize":9728,"postgresql":9729,"LEVEL":9730,"stock":9731,"working":9732,"Ġnewline":9733,"Ġexecfile":9734,"QtGui":9735,"ToManyField":9736,"ah":9737,"fb":9738,"Ġopp":9739,"unix":9740,"Ġcookies":9741,"addCleanup":9742,"ĠJson":9743,"posal":9744,"Ġcountry":9745,"NULL":9746,"rome":9747,"();":9748,"elastic":9749,"endpoints":9750,"phase":9751,":,":9752,"Pop":9753,"}):":9754,"tee":9755,"itable":9756,"problem":9757,"REGI":9758,"Validate":9759,"TOP":9760,"each":9761,"jit":9762,"ĠOp":9763,"Left":9764,"guest":9765,"Ġnumeric":9766,"Ġprog":9767,"ĠBar":9768,"ĠREAD":9769,")['":9770,"Pi":9771,"fm":9772,"ĠTheme":9773,"ipant":9774,"Ġapplications":9775,"Ġexpressions":9776,"inlineCallbacks":9777,"tearDown":9778,"Negative":9779,"MAR":9780,"Ġthird":9781,"ami":9782,"XXXX":9783,"ĠWorld":9784,"Ġstmt":9785,"funcs":9786,"Forms":9787,"PAGE":9788,"PUB":9789,"vey":9790,"Ġshall":9791,"centile":9792,"FACT":9793,"bet":9794,"Ġblue":9795,"Ġhuman":9796,"Ġdiction":9797,"Install":9798,"payment":9799,"(.*":9800,"compiled":9801,"Ġteardown":9802,"Ġimmediately":9803,"Lines":9804,"SESSION":9805,"cep":9806,"ĠREST":9807,"INET":9808,"Rect":9809,"Ġ========":9810,"Ġ(?":9811,"Ġmanually":9812,"COOK":9813,"Ġdevices":9814,"51":9815,"aves":9816,"ĠTimeout":9817,"NN":9818,"Ġcut":9819,"Ġinvoke":9820,"webapp":9821,".*')":9822,"chanism":9823,"bing":9824,"ldap":9825,"Ġ\"{}":9826,"Revision":9827,"ĠMac":9828,"...\"":9829,"defs":9830,"Ġmerged":9831,"ĠEOF":9832,"Intended":9833,"Interrupt":9834,"Ġseparator":9835,"vc":9836,"Ġmut":9837,"foreign":9838,"Ġcommented":9839,"Workflow":9840,"dimensions":9841,"mooth":9842,"ILED":9843,"PA":9844,"Ġsizes":9845,"Ġdy":9846,"Ġdecorated":9847,"Ġanalysis":9848,"Ġduplicate":9849,"mapp":9850,"Ġlibraries":9851,"Ġnetworks":9852,"âĶĢâĶĢâĶĢâĶĢ":9853,"rical":9854,"Ġlar":9855,"Ġtraj":9856,"arest":9857,"Disk":9858,"Sig":9859,"Users":9860,"Ġtrip":9861,"Ġcoordinate":9862,"lar":9863,"continue":9864,"gene":9865,"given":9866,"Ġmixin":9867,"ĠAudience":9868,"what":9869,"Ġmigration":9870,"ĠHelper":9871,"ORIZ":9872,"afka":9873,"INSTALLED":9874,"degree":9875,"ysical":9876,"ĠElse":9877,"Ġreversed":9878,"ĠLIABILITY":9879,"NAMESPACE":9880,"Ġdashes":9881,"gyp":9882,"Ġcss":9883,"Ġmultip":9884,"putVarInt":9885,"TRAN":9886,"ency":9887,"Conv":9888,"Ġtrying":9889,"Ġ128":9890,"ĠNameError":9891,"??":9892,"ĠPAT":9893,"...\")":9894,"Ġzeros":9895,"Ġcleaned":9896,"wikipedia":9897,"Err":9898,"Ġser":9899,"Ġite":9900,"Ġinteractive":9901,"Ġtodo":9902,"Ġtouch":9903,"Ġgreater":9904,"imports":9905,"Ġmaking":9906,"Ġassignment":9907,"Eval":9908,"Ġcrypto":9909,"Ġdevelopment":9910,"SED":9911,"Additional":9912,"expanduser":9913,"recursive":9914,"Ġcent":9915,"uby":9916,"photo":9917,"01234":9918,"rouped":9919,"ĠCluster":9920,"StubOut":9921,"atever":9922,"quot":9923,"=='":9924,"REF":9925,"Ġphone":9926,"Ġspecifying":9927,"Ġttl":9928,"sioned":9929,"{}'.":9930,"ĠEntity":9931,"ĠCorp":9932,"SING":9933,"lsxWriter":9934,"Ab":9935,"bam":9936,"Ġsheets":9937,"Sim":9938,"sal":9939,"}))":9940,"Ġalert":9941,"\")]":9942,"company":9943,"Optional":9944,"autodoc":9945,"Ġthough":9946,"Ġtogether":9947,"ĠCom":9948,"ĠFrom":9949,"Ġautodoc":9950,"hoo":9951,"weak":9952,"ĠXlsxWriter":9953,"ICATION":9954,"ĠQQ":9955,"ropout":9956,"Ġpyglet":9957,"sms":9958,"SCRI":9959,"ggle":9960,"Redis":9961,"Ġpb":9962,"ĠFail":9963,"Ġpay":9964,"irth":9965,"locator":9966,"staticfiles":9967,"assertDictEqual":9968,"ĠEntry":9969,"Ġarticle":9970,"scriptors":9971,"ĠParser":9972,"tls":9973,"Ġer":9974,"Ġaccepted":9975,"xxxx":9976,"Ġpositional":9977,"ĠFacebook":9978,"ĠRES":9979,"transfer":9980,"Encoding":9981,"ĠLaboratories":9982,"Word":9983,"Ġ'&":9984,"Ġsing":9985,"Ġsolution":9986,"Ġlevels":9987,"Traits":9988,"highlight":9989,"ĠMust":9990,"Ġpredicate":9991,"Ġtextwrap":9992,"Ġdebugging":9993,"retrieve":9994,"$')":9995,"Ġdatasets":9996,"Ġfeel":9997,"modify":9998,"Ġseveral":9999}