{"<s>":0,"</s>":1,"<file_start>":2,"<file_end>":3,"!":4,"\"":5,"#":6,"$":7,"%":8,"&":9,"'":10,"(":11,")":12,"*":13,"+":14,",":15,"-":16,".":17,"/":18,"0":19,"1":20,"2":21,"3":22,"4":23,"5":24,"6":25,"7":26,"8":27,"9":28,":":29,";":30,"<":31,"=":32,">":33,"?":34,"@":35,"A":36,"B":37,"C":38,"D":39,"E":40,"F":41,"G":42,"H":43,"I":44,"J":45,"K":46,"L":47,"M":48,"N":49,"O":50,"P":51,"Q":52,"R":53,"S":54,"T":55,"U":56,"V":57,"W":58,"X":59,"Y":60,"Z":61,"[":62,"\\":63,"]":64,"^":65,"_":66,"`":67,"a":68,"b":69,"c":70,"d":71,"e":72,"f":73,"g":74,"h":75,"i":76,"j":77,"k":78,"l":79,"m":80,"n":81,"o":82,"p":83,"q":84,"r":85,"s":86,"t":87,"u":88,"v":89,"w":90,"x":91,"y":92,"z":93,"{":94,"|":95,"}":96,"~":97,"¡":98,"¢":99,"£":100,"¤":101,"¥":102,"¦":103,"§":104,"¨":105,"©":106,"ª":107,"«":108,"¬":109,"®":110,"¯":111,"°":112,"±":113,"²":114,"³":115,"´":116,"µ":117,"¶":118,"·":119,"¸":120,"¹":121,"º":122,"»":123,"¼":124,"½":125,"¾":126,"¿":127,"À":128,"Á":129,"Â":130,"Ã":131,"Ä":132,"Å":133,"Æ":134,"Ç":135,"È":136,"É":137,"Ê":138,"Ë":139,"Ì":140,"Í":141,"Î":142,"Ï":143,"Ð":144,"Ñ":145,"Ò":146,"Ó":147,"Ô":148,"Õ":149,"Ö":150,"×":151,"Ø":152,"Ù":153,"Ú":154,"Û":155,"Ü":156,"Ý":157,"Þ":158,"ß":159,"à":160,"á":161,"â":162,"ã":163,"ä":164,"å":165,"æ":166,"ç":167,"è":168,"é":169,"ê":170,"ë":171,"ì":172,"í":173,"î":174,"ï":175,"ð":176,"ñ":177,"ò":178,"ó":179,"ô":180,"õ":181,"ö":182,"÷":183,"ø":184,"ù":185,"ú":186,"û":187,"ü":188,"ý":189,"þ":190,"ÿ":191,"Ā":192,"ā":193,"Ă":194,"ă":195,"Ą":196,"ą":197,"Ć":198,"ć":199,"Ĉ":200,"ĉ":201,"Ċ":202,"ċ":203,"Č":204,"č":205,"Ď":206,"ď":207,"Đ":208,"đ":209,"Ē":210,"ē":211,"Ĕ":212,"ĕ":213,"Ė":214,"ė":215,"Ę":216,"ę":217,"Ě":218,"ě":219,"Ĝ":220,"ĝ":221,"Ğ":222,"ğ":223,"Ġ":224,"ġ":225,"Ģ":226,"ģ":227,"Ĥ":228,"ĥ":229,"Ħ":230,"ħ":231,"Ĩ":232,"ĩ":233,"Ī":234,"ī":235,"Ĭ":236,"ĭ":237,"Į":238,"į":239,"İ":240,"ı":241,"Ĳ":242,"ĳ":243,"Ĵ":244,"ĵ":245,"Ķ":246,"ķ":247,"ĸ":248,"Ĺ":249,"ĺ":250,"Ļ":251,"ļ":252,"Ľ":253,"ľ":254,"Ŀ":255,"ŀ":256,"Ł":257,"ł":258,"Ń":259,"ĠĠ":260,"ĠĠĠĠ":261,"Ġ<":262,"le":263,"ĠĠĠ":264,"fi":265,"se":266,"st":267,"file":268,"en":269,"ĠĠĠĠĠĠĠ":270,"ar":271,"in":272,"on":273,"re":274,"or":275,"at":276,"er":277,"end":278,"Ġt":279,"art":280,"start":281,"Ġ=":282,"Ġ</":283,"ĠĠĠĠĠĠĠĠ":284,"lf":285,"self":286,"de":287,"al":288,"Ġi":289,"an":290,"--":291,"Ġc":292,"he":293,"me":294,"as":295,"ion":296,"ro":297,"Ġself":298,"it":299,"mp":300,"ct":301,"):":302,"\"\"":303,"Ġre":304,"ĠĠĠĠĠĠĠĠĠĠĠ":305,"Ġ'":306,"ur":307,"ge":308,"Ġp":309,"Ġf":310,"ce":311,"Ġde":312,"ut":313,"##":314,"Ġs":315,"ent":316,"ort":317,"ser":318,"ing":319,"ue":320,"Ġthe":321,"Ġn":322,"Ġo":323,"Ġdef":324,"ame":325,"Ġin":326,"Ġa":327,"ex":328,"li":329,"lo":330,"ed":331,"Ġd":332,"----":333,"mport":334,"un":335,"',":336,"()":337,"est":338,"co":339,"ate":340,"Ġ#":341,"Ġb":342,"Ġm":343,"Ġw":344,"__":345,"urn":346,"ĠĠĠĠĠĠĠĠĠĠĠĠĠĠĠĠ":347,"turn":348,"pe":349,"ad":350,"\"\"\"":351,"ot":352,"id":353,"rom":354,"ck":355,"Ġimport":356,"el":357,"is":358,"ul":359,"get":360,"and":361,"ri":362,"('":363,"Ġif":364,"il":365,"Ġreturn":366,"Ġ\"":367,"name":368,"pt":369,"ass":370,"ra":371,"Ġfor":372,"ĠT":373,"Ġto":374,"Ġ\"\"\"":375,"ss":376,"')":377,"####":378,"ch":379,"sert":380,"one":381,"ect":382,"Ġ(":383,"val":384,"ver":385,"assert":386,"Ġis":387,"es":388,"ation":389,"ab":390,"ode":391,"up":392,"qu":393,"age":394,"ic":395,"th":396,"set":397,"um":398,"ap":399,"con":400,"ter":401,"ĠĠĠĠĠĠĠĠĠĠĠĠĠĠĠ":402,"ult":403,"ke":404,"lass":405,"ol":406,"ata":407,"from":408,"od":409,"--------":410,"arg":411,"ype":412,"None":413,"ath":414,"Ġex":415,"et":416,"Ġof":417,"==":418,"))":419,"bj":420,"Ġth":421,"Ġ[":422,"ĠA":423,"':":424,"ĠS":425,"Ġcon":426,"Ġst":427,"ĠC":428,"._":429,"ith":430,"Ġh":431,"ase":432,"all":433,"di":434,"ext":435,"ror":436,"res":437,"ĠI":438,"la":439,"']":440,"Ġu":441,"Ġtest":442,"vi":443,"value":444,"Ġ1":445,"ve":446,"ĠL":447,"Ġnot":448,"ist":449,"Ġe":450,"ime":451,"ption":452,"rue":453,"ma":454,"op":455,"Ġand":456,"te":457,"args":458,"que":459,"ction":460,"Ġg":461,"int":462,"able":463,"orm":464,"bject":465,"),":466,"am":467,"key":468,"Ġfrom":469,"che":470,"path":471,"['":472,"ta":473,"Ġ%":474,"ht":475,"\",":476,"to":477,"sion":478,"ĠF":479,"ment":480,"Ġres":481,"Ġclass":482,"iz":483,"ig":484,"(\"":485,"tr":486,"Ġr":487,"Ġ*":488,"Ġ_":489,"pro":490,"00":491,"par":492,"ĠNone":493,"ense":494,"ew":495,"om":496,"eld":497,"Ġ{":498,"test":499,"type":500,"qual":501,"Re":502,"odel":503,"list":504,"ĠP":505,"Ġ2":506,"quest":507,"der":508,"ack":509,"ub":510,"lin":511,"per":512,"ite":513,"ow":514,"Ġor":515,"Ġ0":516,"log":517,"us":518,"Ġ+":519,"ON":520,"Ġbe":521,"########":522,"ance":523,"rror":524,"Ġ==":525,"Ġ-":526,"Error":527,"ĠM":528,"\")":529,"app":530,"import":531,"Ġ__":532,"Ġ:":533,"ang":534,"Ġfile":535,"Ġwith":536,"ĠD":537,"ĠĠĠĠĠ":538,"Ġname":539,"fa":540,"Ġas":541,"url":542,"fo":543,"alse":544,"out":545,"Equal":546,"Ġun":547,"form":548,"icense":549,"fig":550,"mple":551,"our":552,"data":553,"rib":554,"po":555,"red":556,"Ġpro":557,"Ġme":558,"len":559,"ise":560,"Ġse":561,"='":562,"assertEqual":563,"put":564,"oc":565,"----------------":566,"Ġfi":567,"text":568,"====":569,"Ġma":570,"ock":571,"str":572,"Ġan":573,"time":574,"are":575,"Ġget":576,"ĠO":577,"sh":578,"lic":579,"ĠLicense":580,"Ġset":581,"pon":582,"Ġassert":583,"ry":584,"TI":585,"py":586,"ure":587,"Ġ@":588,"Ġy":589,"ĠB":590,"ers":591,"add":592,"code":593,"Ġco":594,"Ġdi":595,"ule":596,"ho":597,"ource":598,"Ġvalue":599,"stance":600,"ER":601,"com":602,"object":603,"wor":604,"ponse":605,"ĠE":606,"__(":607,"Ġon":608,"ize":609,"ip":610,"ctor":611,"reate":612,"ag":613,"lient":614,"ly":615,"ribut":616,"Ġthis":617,"tp":618,"ff":619,"uth":620,"IN":621,"lu":622,"Ġdata":623,"user":624,"True":625,"im":626,"else":627,"sp":628,"])":629,"ĠN":630,"ys":631,"ĠĠĠĠĠĠĠĠĠĠĠĠĠĠĠĠĠĠĠ":632,"class":633,"sc":634,"pre":635,"Test":636,"pp":637,"cess":638,"Ġpar":639,"ile":640,").":641,"init":642,"date":643,"cept":644,"ĠW":645,"Ġl":646,"Ġelse":647,"Ġx":648,"kw":649,"In":650,"ES":651,"ial":652,"ms":653,"Ġthat":654,"Ġuse":655,"thod":656,"Ġos":657,"rint":658,"ifi":659,"ange":660,"ĠThe":661,"ĠU":662,"ated":663,"raise":664,"jang":665,"atch":666,"line":667,"unt":668,"Ġstr":669,"ssage":670,"..":671,"],":672,"Ġv":673,"ument":674,"jo":675,"ache":676,"jango":677,"dex":678,"EN":679,"load":680,"ings":681,"dd":682,"ity":683,"bo":684,"low":685,"util":686,"ĠTrue":687,"Ġat":688,"read":689,"col":690,"ml":691,"Ġby":692,"version":693,"error":694,"bu":695,"mpl":696,"ĠĠĠĠĠĠĠĠĠĠĠĠĠĠĠĠĠĠĠĠĠĠĠĠ":697,"():":698,"mo":699,"kwargs":700,"``":701,"Ġhe":702,"ive":703,"ator":704,"ok":705,"pec":706,"Ġwh":707,"port":708,"ĠG":709,"ĠR":710,"Ġlog":711,"min":712,"Con":713,"if":714,"ies":715,"nd":716,"//":717,"ception":718,"Ġraise":719,"ler":720,"nect":721,"Ġresult":722,"odule":723,"Ġit":724,"ild":725,"os":726,"dir":727,"ask":728,"iv":729,"ou":730,"loc":731,"ty":732,"Ġkey":733,"**":734,"param":735,"vent":736,"roup":737,"lib":738,">>":739,"mplate":740,"Ġlist":741,"ield":742,"valid":743,"vice":744,"ore":745,"01":746,"ary":747,"result":748,"mand":749,"AS":750,"ĠFalse":751,"thon":752,"ĠV":753,"model":754,"tain":755,"Ġch":756,"ener":757,"\":":758,"Ġexcept":759,"stat":760,"################":761,"unction":762,"request":763,"mit":764,"ign":765,"tent":766,"Ġrequest":767,"ĠRe":768,"son":769,"''":770,"Ġ**":771,"Ġ)":772,"ph":773,"ger":774,"Ġuser":775,"ans":776,"view":777,"Ġapp":778,"ĠH":779,"Ġout":780,"OR":781,"Ġ3":782,"ery":783,"ght":784,"Ġpy":785,"Ġtry":786,"Ġprint":787,"ill":788,"gin":789,".__":790,"=\"":791,"AT":792,"Ġtime":793,"://":794,"ust":795,"opy":796,"ls":797,"instance":798,"db":799,"TION":800,"ds":801,"ant":802,"ĠĠĠĠĠĠĠĠĠĠĠĠĠĠĠĠĠĠĠĠĠĠĠĠĠĠĠĠĠĠĠĠ":803,"Ġal":804,"ay":805,"config":806,"qui":807,"og":808,"mb":809,"Ġmodel":810,"Ġen":811,"ec":812,"ST":813,"back":814,"ssion":815,"ample":816,"fault":817,"Ġare":818,"Ġpass":819,"append":820,"Ex":821,"pect":822,"tribut":823,"IC":824,"Ġobject":825,"Ġunder":826,"json":827,"ition":828,"ave":829,"LE":830,"False":831,"Ġlen":832,"AR":833,"ind":834,"lay":835,"ject":836,"Ġwe":837,"Ġdjango":838,"und":839,"def":840,"ctory":841,"DI":842,"ptions":843,"Ġso":844,"format":845,"server":846,"ute":847,"uld":848,"client":849,"ations":850,"join":851,"field":852,"main":853,"Ġro":854,"ft":855,"count":856,"own":857,"ĉĉ":858,"========":859,"utils":860,"umb":861,"ken":862,"ces":863,"ault":864,"tings":865,"his":866,"auth":867,"())":868,"ll":869,"right":870,"UT":871,"ttp":872,"Ġ('":873,"create":874,"dict":875,"info":876,"Ġpath":877,"Ġdefault":878,"SE":879,"Ġurl":880,"ww":881,"rite":882,"Ġcomp":883,"ĠIn":884,"query":885,"attr":886,"work":887,"Ġsh":888,"'),":889,"Ġcom":890,"urr":891,"Ġ}":892,"pi":893,"IT":894,"comp":895,"ĠĠĠĠĠĠ":896,"Ġsup":897,"lter":898,"Pro":899,"([":900,"sed":901,"ste":902,"Ġtype":903,"Ġdo":904,"Ġsys":905,"fix":906,"ost":907,"Ġ[]":908,"Ġcol":909,"Ġwill":910,"scri":911,"cor":912,"ns":913,"AN":914,"update":915,"with":916,"lock":917,"Field":918,"andler":919,"ĠIf":920,"Ġresponse":921,"ard":922,"ded":923,"ray":924,"default":925,"Ġadd":926,"return":927,"ree":928,"RE":929,"Ġdist":930,"tra":931,"Ġpre":932,"mis":933,"ir":934,"ocument":935,"Ġspec":936,"ix":937,"iter":938,"not":939,"Ġnp":940,"ific":941,"Ġhas":942,"Ġconfig":943,"Ġcan":944,"ac":945,"index":946,"ron":947,"nection":948,"Ġnew":949,"Ġall":950,"St":951,"Ġla":952,"heck":953,"word":954,".\"\"\"":955,"ee":956,"nt":957,"--------------------------------":958,"Ġ['":959,"urrent":960,"base":961,"ail":962,"lat":963,"Ġform":964,"http":965,"ĠThis":966,"size":967,"Ġmay":968,"ib":969,"abel":970,"led":971,"(),":972,"Ġ{}":973,"unc":974,"Ġk":975,"arget":976,"Ġfield":977,"Ġper":978,"du":979,"for":980,"pen":981,"gs":982,"html":983,"fin":984,"reg":985,"Ġ4":986,"Case":987,"node":988,"ĠTest":989,"Ġmethod":990,"Ġte":991,"Ġ.":992,"method":993,"sub":994,"Ġ{'":995,"umber":996,"clu":997,"api":998,"ning":999,"Ġhttp":1000,"response":1001,"ress":1002,"ace":1003,"Ġsub":1004,"string":1005,"ther":1006,"run":1007,"arch":1008,"ory":1009,"sing":1010,"template":1011,"da":1012,"Ġno":1013,"array":1014,"ware":1015,"by":1016,"ĠK":1017,"mission":1018,"'],":1019,"Ġbu":1020,"pected":1021,"TIONS":1022,"lement":1023,"ME":1024,"rect":1025,"no":1026,"ence":1027,"status":1028,"service":1029,"alue":1030,"group":1031,"*-":1032,"ging":1033,"ape":1034,"message":1035,"ses":1036,"mon":1037,"mail":1038,"Type":1039,"Ġdistribut":1040,"AL":1041,"call":1042,"Res":1043,"ari":1044,"Ġli":1045,"lete":1046,"man":1047,"Ġyou":1048,"Ġ`":1049,"Ġ-*-":1050,"hould":1051,"mage":1052,"act":1053,"ull":1054,"write":1055,"do":1056,"Ġfunction":1057,"Ġ``":1058,"Ġ'''":1059,"Ġnode":1060,"itle":1061,"org":1062,"tern":1063,"ep":1064,"ameter":1065,"Ġarg":1066,"Name":1067,"perty":1068,"ader":1069,"models":1070,"tribute":1071,"obj":1072,"lect":1073,"lit":1074,"Ġrun":1075,"DE":1076,"Ġcall":1077,"quired":1078,"Ġwor":1079,"gth":1080,"host":1081,"~~":1082,"RO":1083,"foo":1084,"ĠĠĠĠĠĠĠĠĠĠĠĠĠĠĠĠĠĠĠĠĠĠĠ":1085,"ĠEx":1086,"Ġdate":1087,"fer":1088,"state":1089,"IS":1090,"Ġid":1091,"yn":1092,"Ġargs":1093,"md":1094,"Ġmodule":1095,"10":1096,"Ġshould":1097,"link":1098,"the":1099,"ify":1100,"TestCase":1101,"umn":1102,"().":1103,"parse":1104,"Ġversion":1105,"context":1106,"objects":1107,"bin":1108,"nel":1109,"su":1110,"Ġstring":1111,"Ġmessage":1112,"'])":1113,"ager":1114,"rame":1115,"Ġinstance":1116,"Ġ..":1117,"lif":1118,"ight":1119,"Ġdistributed":1120,"ID":1121,"so":1122,"map":1123,"Ġstat":1124,"rst":1125,"max":1126,"aders":1127,"Ġoutput":1128,"clo":1129,"Ġerror":1130,"ey":1131,"ich":1132,">>>":1133,"tem":1134,"Ġcreate":1135,"Ġline":1136,"local":1137,"Ġbase":1138,"].":1139,"Ġ\\":1140,"utf":1141,"loat":1142,"Ġle":1143,"vel":1144,"filter":1145,"Ġ>":1146,"core":1147,"angu":1148,"anguage":1149,"pos":1150,"Ġ+=":1151,"ool":1152,"ally":1153,"lob":1154,"MP":1155,"Ġmock":1156,"'s":1157,"Ġcopy":1158,"lugin":1159,"ody":1160,"ster":1161,"ound":1162,"'))":1163,"Ġint":1164,"license":1165,"ackage":1166,"Ġstart":1167,"ream":1168,"ca":1169,"[\"":1170,"use":1171,"we":1172,"Ġisinstance":1173,"Ġused":1174,"scription":1175,"cre":1176,"tring":1177,"'t":1178,"module":1179,"table":1180,"12":1181,"ĠCon":1182,"Ġsuper":1183,"net":1184,"ding":1185,"check":1186,"eed":1187,"'.":1188,"dis":1189,"tri":1190,"Ġ5":1191,"ak":1192,"bs":1193,"action":1194,"ten":1195,"pr":1196,"lace":1197,"raph":1198,"my":1199,"Ser":1200,"rans":1201,"row":1202,"Ġz":1203,"Ġmodels":1204,"Ġcode":1205,"ote":1206,"Model":1207,"alled":1208,"content":1209,"ash":1210,"rap":1211,"token":1212,"ittest":1213,"ump":1214,"Ġelif":1215,"process":1216,"bug":1217,"Ġsu":1218,"av":1219,"Ġgo":1220,"item":1221,"ner":1222,"Ġac":1223,"})":1224,"Co":1225,"image":1226,"Ġdb":1227,"rectory":1228,"Ġag":1229,"try":1230,"Ġcheck":1231,"ĠY":1232,"lection":1233,"Ġclient":1234,"\"]":1235,"her":1236,"Ġwhich":1237,"HO":1238,"Data":1239,"andom":1240,"rit":1241,"cont":1242,"Ġ>>>":1243,"Ġindex":1244,"Ġother":1245,"De":1246,"ffer":1247,"icode":1248,"lean":1249,"sg":1250,"ual":1251,"new":1252,"ark":1253,"Ġ/":1254,"mplement":1255,"let":1256,"yste":1257,"Ġdis":1258,"point":1259,"split":1260,"Ġj":1261,"Ch":1262,"move":1263,"File":1264,"uple":1265,"opyright":1266,"bar":1267,"Ġcontext":1268,"ors":1269,"lp":1270,"AC":1271,"Ġdict":1272,"Base":1273,"Ġcontain":1274,"oo":1275,"Ġtext":1276,"source":1277,"ql":1278,"Ġlogging":1279,"ref":1280,"ĠSee":1281,"Ġauth":1282,"ĠUn":1283,"PI":1284,"cache":1285,"Ġopen":1286,"cs":1287,"cur":1288,"doc":1289,"ĠIS":1290,"Ġdocument":1291,"ializ":1292,":`":1293,"Ġevent":1294,"Ġup":1295,"Ġ201":1296,"func":1297,"lication":1298,"ĠĠĠĠĠĠĠĠĠ":1299,"RL":1300,"space":1301,"HE":1302,"List":1303,"types":1304,"mock":1305,"ftware":1306,"ersion":1307,"Ġexpected":1308,"Set":1309,"env":1310,"project":1311,"settings":1312,"si":1313,"((":1314,"Ġvalues":1315,"Up":1316,"vis":1317,"command":1318,"ĠReturn":1319,"ython":1320,"'):":1321,"Ġ!":1322,"open":1323,"www":1324,"Ġfiles":1325,"################################":1326,"sent":1327,"ne":1328,"ĠCopyright":1329,"ĠOR":1330,"Ġwork":1331,"Ġstate":1332,"ĠX":1333,"lot":1334,"ible":1335,"Ġsource":1336,"inter":1337,"play":1338,"items":1339,"ystem":1340,"Ġrequired":1341,"ĠAN":1342,"eat":1343,"Ġend":1344,"raw":1345,"iven":1346,"Me":1347,"Ġcurrent":1348,"output":1349,"ĠĊ":1350,"Ġhave":1351,"andle":1352,"Ġimage":1353,"less":1354,"viron":1355,"Ġ|":1356,"ved":1357,"Ġent":1358,"Ġany":1359,"Ġwhen":1360,"ENT":1361,"Ġone":1362,"Ġ!=":1363,"ED":1364,"event":1365,"print":1366,"Form":1367,"queue":1368,"Ġgener":1369,"trans":1370,"indow":1371,"ustom":1372,"ments":1373,"ach":1374,"Exception":1375,"ĠDe":1376,"rol":1377,"delete":1378,"ified":1379,"patch":1380,"equal":1381,"TP":1382,"ĠJ":1383,"uture":1384,"ender":1385,"Par":1386,"params":1387,"uration":1388,"ML":1389,"uct":1390,"ake":1391,"assertTrue":1392,"Ġtra":1393,"Ġcontent":1394,"SI":1395,"Ġjson":1396,"ister":1397,"Ġreg":1398,"Ġsc":1399,"Ġpo":1400,"fields":1401,"Ġcommand":1402,"Ġrange":1403,"vert":1404,"cls":1405,"[:":1406,"filename":1407,"Ġdatetime":1408,"ither":1409,"Not":1410,"options":1411,"Ġsettings":1412,"GE":1413,"****":1414,"label":1415,"ĠCON":1416,"32":1417,"Ġmax":1418,"missions":1419,"gr":1420,"its":1421,"Ġobj":1422,"Ġformat":1423,"ĠOF":1424,"aise":1425,"},":1426,"Ġlimit":1427,"place":1428,"Ġserver":1429,"length":1430,"clude":1431,"Ġpage":1432,"Ġsp":1433,"ICEN":1434,"Ġquery":1435,"pass":1436,"session":1437,"Ġspecific":1438,"Id":1439,"ast":1440,"tocol":1441,"ick":1442,"values":1443,"================":1444,"umpy":1445,"ICENSE":1446,"FI":1447,"ameters":1448,"Ġvalid":1449,"enc":1450,"als":1451,"ine":1452,"page":1453,"ld":1454,"ists":1455,"Ġlo":1456,"idget":1457,"pend":1458,"lines":1459,"ong":1460,"Di":1461,"ocket":1462,"iew":1463,"Ġparam":1464,"names":1465,"ĉĊ":1466,"Se":1467,"Ġitem":1468,"cl":1469,"ĠMO":1470,"arn":1471,"Ġpython":1472,"Ġlanguage":1473,"alueError":1474,"af":1475,"Ġ####":1476,"num":1477,"atab":1478,"function":1479,"Ġoptions":1480,"rc":1481,"Ġgiven":1482,"property":1483,"job":1484,"Ġeither":1485,"RAN":1486,"Ġtemplate":1487,"sum":1488,"atabase":1489,"mbda":1490,"ICA":1491,"uid":1492,"ariable":1493,"django":1494,"Ġob":1495,"::":1496,"face":1497,"Un":1498,"Ġcod":1499,"ched":1500,"Ġ--":1501,"title":1502,"store":1503,"python":1504,"input":1505,"post":1506,"admin":1507,"Key":1508,"TTP":1509,"ures":1510,"spec":1511,"Ġexpre":1512,"lan":1513,"ud":1514,"ĠQ":1515,"tin":1516,"xy":1517,"adata":1518,"Ġinter":1519,"DIF":1520,"LO":1521,"task":1522,"Ġutf":1523,"Ġimp":1524,"exec":1525,"Ġman":1526,"Ġkwargs":1527,"Ġonly":1528,"Ġcoding":1529,"lied":1530,"Ġread":1531,"Com":1532,"chema":1533,"Ġargument":1534,"UL":1535,"tail":1536,"Ġwrit":1537,"annel":1538,"\".":1539,"AD":1540,"shape":1541,"ĠYou":1542,"ume":1543,"Ġview":1544,"close":1545,"ICATIONS":1546,"aises":1547,"Ġcls":1548,"root":1549,"resource":1550,"Ġpart":1551,"unk":1552,"64":1553,"ĠMODIF":1554,"Ġ10":1555,"Ġtoken":1556,"{'":1557,"(*":1558,"ĠMODIFICATIONS":1559,"future":1560,"debug":1561,"ain":1562,"range":1563,"Ġsoftware":1564,"ax":1565,"ran":1566,"0000":1567,"pri":1568,"Ġbut":1569,"build":1570,"Ġinput":1571,"tes":1572,"sor":1573,"Ġ]":1574,"String":1575,"Ġback":1576,"Ġmsg":1577,"tx":1578,"Ġtarget":1579,"Ġtw":1580,"exception":1581,"river":1582,"ĠANY":1583,"ĠWAR":1584,"files":1585,"View":1586,"idth":1587,"ccess":1588,"Ġnumber":1589,"MA":1590,"uto":1591,"igr":1592,"ram":1593,"keys":1594,"En":1595,"coding":1596,"conf":1597,"ĠPro":1598,"target":1599,"Ġtrans":1600,"idd":1601,"ĠĠĠĠĊ":1602,"ps":1603,"OT":1604,"vid":1605,"Get":1606,"lease":1607,"Ġdirectory":1608,"io":1609,"rt":1610,"PE":1611,"IND":1612,"ĠAp":1613,"mpty":1614,"Request":1615,"User":1616,"kip":1617,"connect":1618,"Fa":1619,"yle":1620,"Ġaction":1621,"msg":1622,"copy":1623,"tag":1624,"Ġad":1625,"mod":1626,"ols":1627,"ĠWARRAN":1628,"df":1629,"ING":1630,"Ġgroup":1631,"Ġmake":1632,"Ġtag":1633,"AB":1634,"Ġact":1635,"11":1636,"ateg":1637,"ĠVersion":1638,"201":1639,"gine":1640,"Ġver":1641,"np":1642,"has":1643,"licenses":1644,"TIES":1645,"Ġhost":1646,"ĠReturns":1647,"Ġdoes":1648,"orage":1649,"cord":1650,"err":1651,"ates":1652,"assertR":1653,"Ġusing":1654,"amp":1655,"NA":1656,"Ġpermissions":1657,"var":1658,"change":1659,"stra":1660,"onent":1661,"Ġproject":1662,"('/":1663,"save":1664,"Ġtable":1665,"sign":1666,"Ġmust":1667,"Ġ'%":1668,"Ġexception":1669,"pk":1670,"Ġsize":1671,"sys":1672,"Ġtask":1673,"ĠPython":1674,"find":1675,"ared":1676,"be":1677,"ice":1678,"Col":1679,"ĠĠĠĠĠĠĠĠĠĠĠĠĠĠĠĠĠĠĠĠĠĠĠĠĠ":1680,"tadata":1681,"ĠApache":1682,"CO":1683,"Ġload":1684,"teger":1685,"Ġinit":1686,"top":1687,"Ġ'/":1688,"ĠWARRANTIES":1689,"handler":1690,"Handler":1691,"CE":1692,"stri":1693,"ĠWIT":1694,"License":1695,"Ġoption":1696,"Ġhelp":1697,"Ġ200":1698,"RI":1699,"eta":1700,"level":1701,"Log":1702,"Ġrow":1703,"assertRaises":1704,")),":1705,"Ġport":1706,"ting":1707,"Ġq":1708,"Ġ6":1709,"here":1710,"PO":1711,"parent":1712,"Ġobtain":1713,"ĠAdd":1714,"HOUT":1715,"Ġnumpy":1716,"verse":1717,"Ġstatus":1718,"').":1719,"itor":1720,"stall":1721,"uri":1722,")))":1723,"Ġapplic":1724,"pts":1725,"=[":1726,"Ġyield":1727,"Ġhere":1728,"Ġinto":1729,"email":1730,"xml":1731,"asses":1732,"Ġwriting":1733,"Ġser":1734,"order":1735,"current":1736,"fore":1737,"part":1738,"Ġcre":1739,"usr":1740,"Ġmin":1741,"Man":1742,"Ġparams":1743,"ĠBAS":1744,"DO":1745,"Ġconnection":1746,"apache":1747,"Ġiter":1748,"ĠĠĠĠĠĠĠĠĠĠĠĠĠĠĠĠĠĠĠĠĠĠĠĠĠĠĠ":1749,"older":1750,"ts":1751,"LICENSE":1752,"ĠLicensed":1753,"Ġparser":1754,"Ġfilename":1755,"Ġgover":1756,"ker":1757,"Ġfirst":1758,"ĠKIND":1759,"Return":1760,"~~~~":1761,"Ġimplied":1762,"Ġover":1763,"temp":1764,"ous":1765,"body":1766,"EST":1767,"ĠWITHOUT":1768,"other":1769,"000":1770,"connection":1771,"headers":1772,"old":1773,"reed":1774,"of":1775,"25":1776,"liance":1777,"Ġmatch":1778,"Ġunittest":1779,"tests":1780,"(_":1781,"alt":1782,"author":1783,"US":1784,"pub":1785,"child":1786,"parser":1787,"\");":1788,"iled":1789,"match":1790,"Ġtuple":1791,"Ġparent":1792,"tributes":1793,"inx":1794,"Ġcompliance":1795,"IO":1796,"ogle":1797,"domain":1798,"</":1799,"Ġapplicable":1800,"Ġexpress":1801,"ension":1802,"ĠNot":1803,"contrib":1804,"ĠCONDI":1805,"manager":1806,"atri":1807,"abs":1808,"cmd":1809,"\"),":1810,"ĠCONDITIONS":1811,"Ġgoverning":1812,"Ġsi":1813,"ĠBASIS":1814,"cond":1815,"Ġlib":1816,"ome":1817,"TY":1818,"option":1819,"show":1820,"Ġresource":1821,"register":1822,"box":1823,"dout":1824,"etwork":1825,"Time":1826,"Ġtrue":1827,"olume":1828,"Ġlaw":1829,"prefix":1830,"ĠValueError":1831,"ci":1832,"Ġagreed":1833,"esc":1834,"ĠUnless":1835,"password":1836,"Ġfilter":1837,"float":1838,"99":1839,"she":1840,"Ar":1841,"ĠSt":1842,"location":1843,"Ġsome":1844,"rel":1845,"Ġchange":1846,"ternal":1847,"ait":1848,"fail":1849,"Client":1850,"mt":1851,"Config":1852,"Ġprocess":1853,"CON":1854,"search":1855,"Ġ''":1856,"ating":1857,"Ġfields":1858,"ution":1859,"Ġneed":1860,"username":1861,"last":1862,"Ġsupport":1863,"ĠBE":1864,"Ġmore":1865,"Ġlimitations":1866,"gener":1867,"ug":1868,"Ġav":1869,"Ġeach":1870,"plugin":1871,"Add":1872,"ren":1873,")]":1874,"ailable":1875,"Value":1876,"Ġcase":1877,"Ġnames":1878,"atter":1879,"Ġab":1880,"Ġheaders":1881,"Response":1882,"ical":1883,"Ġret":1884,"Ġunicode":1885,"Ġexec":1886,"Lo":1887,"Object":1888,"block":1889,"UN":1890,").__":1891,"ultip":1892,"stant":1893,"otal":1894,"direct":1895,"stack":1896,"package":1897,"frame":1898,"vision":1899,"lt":1900,"ĠUser":1901,"vide":1902,"UM":1903,"Ġdefin":1904,"ale":1905,"next":1906,"example":1907,"04":1908,"ync":1909,"Ġfin":1910,"atrix":1911,"ĠLO":1912,"CT":1913,"stream":1914,"Ġlabel":1915,"Ġcache":1916,"go":1917,"Ġfa":1918,"Ġsession":1919,"Ġ#!":1920,"stamp":1921,"ference":1922,"static":1923,"Ġupdate":1924,"ormal":1925,"ATE":1926,"Ġwhile":1927,"ert":1928,"Ġelement":1929,"LI":1930,"ript":1931,"ĠImport":1932,"ĠĠĠĠĠĠĠĠĠĠ":1933,"make":1934,"pop":1935,"send":1936,"Ġresults":1937,"fla":1938,"Ġservice":1939,"olute":1940,"flow":1941,"ollow":1942,"mark":1943,"Ġne":1944,"ush":1945,"tension":1946,"Ġdescription":1947,"][":1948,"Class":1949,"ie":1950,"Ġpri":1951,"trol":1952,"down":1953,"datetime":1954,"mary":1955,"duct":1956,"Ġ8":1957,"ative":1958,"ifier":1959,"To":1960,"Command":1961,"Ġcor":1962,"Ġoper":1963,"IL":1964,"present":1965,"Ġpos":1966,"formation":1967,"environ":1968,"ĠĠĠĠĠĠĠĠĠĠĠĠĠĠĠĠĠĠĠĠĠ":1969,"igin":1970,"fter":1971,"ctionary":1972,"Ġorder":1973,"Ġdoc":1974,"Ġbody":1975,"ĠAr":1976,"FA":1977,"assertEquals":1978,"ialize":1979,"off":1980,"Ġ...":1981,"Ġ#!/":1982,"Ġ::":1983,"ĠException":1984,"Node":1985,"address":1986,"ted":1987,"Ġ'.":1988,"entity":1989,"Mock":1990,"Ġsign":1991,"Ġtitle":1992,"now":1993,"Auth":1994,"mote":1995,"random":1996,"Ġimplement":1997,"remove":1998,"Factory":1999,"(__":2000,"Ġass":2001,"sup":2002,"lobal":2003,"pert":2004,"Ġlogger":2005,"unittest":2006,"ization":2007,"description":2008,"Ġcount":2009,"Ġmod":2010,"ASE":2011,"ĠIN":2012,"Ġabs":2013,"Ġnum":2014,"Ġobjects":2015,"Ġwas":2016,"Ġgetattr":2017,"Ġfloat":2018,"TML":2019,"ĠPar":2020,"Ġmode":2021,"Ġfound":2022,"Ġbuild":2023,"alid":2024,"ential":2025,"Ġlocal":2026,"arning":2027,"Ġallow":2028,"ids":2029,"Ġtop":2030,"cle":2031,"ĠTHE":2032,"perties":2033,"Ġpackage":2034,"case":2035,"NAME":2036,"column":2037,"VER":2038,"swith":2039,"Ġlink":2040,"network":2041,"chedule":2042,"20":2043,"Ġthread":2044,"URL":2045,"isted":2046,"ĠFor":2047,"resh":2048,"mode":2049,"Ġsetup":2050,"meta":2051,"lower":2052,"Ġroot":2053,"Ġapi":2054,"Is":2055,"Ġval":2056,"Ġthen":2057,"number":2058,"rary":2059,"licy":2060,"INE":2061,"Ġsort":2062,"lug":2063,"ches":2064,"tools":2065,"###":2066,"Ġlast":2067,"argument":2068,"ators":2069,"CH":2070,"air":2071,"At":2072,"nown":2073,"EX":2074,"attribute":2075,"entic":2076,"Ġattr":2077,"ized":2078,"KE":2079,"Ġtests":2080,"Ġextra":2081,"ob":2082,"itional":2083,"Ġar":2084,"ĠCo":2085,"cent":2086,"contain":2087,"ency":2088,"Dict":2089,"Ġsame":2090,"element":2091,"ixin":2092,"del":2093,"script":2094,"34":2095,"bose":2096,"200":2097,"_(":2098,"Comp":2099,"Ġ(\"":2100,"ont":2101,"Ġed":2102,"Ġmain":2103,"pack":2104,"Ġparse":2105,"Ġsee":2106,"ton":2107,"fg":2108,"cho":2109,"asic":2110,"Message":2111,"ĠsetUp":2112,"hel":2113,"gram":2114,"reak":2115,"Ġresp":2116,"etch":2117,"ities":2118,"except":2119,"ĠBase":2120,"Ġsw":2121,"ui":2122,"ĠĠĠĠĠĠĠĠĠĠĠĠĠ":2123,"exists":2124,"called":2125,"umns":2126,"pc":2127,"Ġmap":2128,"book":2129,"ready":2130,".\"":2131,"Text":2132,"'''":2133,"struct":2134,"riter":2135,"16":2136,"Ġafter":2137,"ell":2138,"ĠURL":2139,"ĠĠĠĠĠĠĠĠĠĠĠĠĠĠĠĠĠĠĠĠĠĠĠĠĠĠĠĠĠ":2140,"plot":2141,"lask":2142,"amples":2143,"abled":2144,"The":2145,"limit":2146,"first":2147,"AY":2148,"ĠNO":2149,"{}":2150,"----------------------------------------":2151,"quire":2152,"Resource":2153,"common":2154,"Ġexp":2155,"ices":2156,"Ġchild":2157,"site":2158,"stop":2159,"ULT":2160,"Bu":2161,"attern":2162,"vider":2163,"active":2164,"Ġclo":2165,"ĠĠĠĠĠĠĠĠĠĠĠĠĠĠĠĠĠ":2166,"replace":2167,"Ġ'__":2168,"ĠĠĠĠĠĠĠĠĠĠĠĠ":2169,"derr":2170,"App":2171,"Ġfla":2172,"ions":2173,"Ġhandler":2174,"okup":2175,"strip":2176,"mber":2177,"TH":2178,"ulti":2179,"select":2180,"Ġdel":2181,"ĠAPI":2182,"Ġfind":2183,"Ġlambda":2184,"ializer":2185,"color":2186,"OP":2187,"Ġpassword":2188,"ĠĠĠĠĠĠĠĠĠĠĠĠĠĠĠĠĠĠĠĠ":2189,"iddle":2190,"rapper":2191,"width":2192,"MPL":2193,"---":2194,"ategory":2195,"ique":2196,"Ġarray":2197,"req":2198,"Ġinfo":2199,"header":2200,"errors":2201,"Ġrandom":2202,"Ġspecified":2203,"ATION":2204,"ĠWe":2205,"[-":2206,"lative":2207,"encode":2208,"Ġfunc":2209,"ride":2210,"Ġ[\"":2211,"ility":2212,"latform":2213,"Ġyour":2214,"rule":2215,"50":2216,"__)":2217,"ĠĠĠĠĠĠĠĠĠĠĠĠĠĠĠĠĠĠĠĠĠĠĠĠĠĠ":2218,"engine":2219,"ĠAll":2220,"Ġcmd":2221,"exp":2222,"Te":2223,"ĠĠĠĠĠĠĠĠĠĠĠĠĠĠĠĠĠĠ":2224,"Ġqu":2225,"Ġ\"%":2226,"ĠĠĠĠĠĠĠĠĠĠĠĠĠĠ":2227,"Ġtemp":2228,"wh":2229,"Qu":2230,"ĠĠĠĠĠĠĠĠĠĠĠĠĠĠĠĠĠĠĠĠĠĠĠĠĠĠĠĠ":2231,"Ġ\"\"":2232,"ĠString":2233,"Ġsy":2234,"Ġcontin":2235,"tails":2236,"Ġcustom":2237,"Manager":2238,"Char":2239,"'].":2240,"ĠGet":2241,"hash":2242,"comple":2243,"AP":2244,"layer":2245,"Ġconfiguration":2246,"dmin":2247,"HTTP":2248,"extra":2249,"Ġbuil":2250,"Path":2251,"actor":2252,"cp":2253,"logger":2254,"ord":2255,"({":2256,"Ġarguments":2257,"Ġvariable":2258,"very":2259,"tems":2260,"cope":2261,"ification":2262,"compile":2263,"Ġcur":2264,"apping":2265,".')":2266,"cket":2267,"QL":2268,"Ġinformation":2269,"dist":2270,"Ġcreated":2271,"'}":2272,"driver":2273,"100":2274,"Ġax":2275,"va":2276,"served":2277,"ful":2278,"Ġright":2279,"Ġrel":2280,"Ġfollow":2281,"les":2282,"ummy":2283,"timeout":2284,"Ġ9":2285,"txt":2286,"PER":2287,"ng":2288,"Implement":2289,"gex":2290,"graph":2291,"fs":2292,"ient":2293,"********":2294,"gn":2295,"Ġpost":2296,"cli":2297,"exit":2298,"igh":2299,"ĠSet":2300,"thing":2301,"Ġpoint":2302,"Ġexist":2303,"sets":2304,"ived":2305,"sort":2306,"Ġfail":2307,"expected":2308,"ĠTO":2309,"Ġblock":2310,"ools":2311,"gen":2312,"ĠFOR":2313,"Ġattribute":2314,"Ġrender":2315,"backend":2316,"Ġgr":2317,"Ġ7":2318,"ould":2319,"Server":2320,"eature":2321,"Tests":2322,"Ġdatabase":2323,"execute":2324,"Ġnon":2325,"application":2326,"style":2327,"callback":2328,"classmethod":2329,"side":2330,"quence":2331,"Ġchar":2332,"Run":2333,"Ġhandle":2334,"OC":2335,"aw":2336,"can":2337,"sw":2338,"ater":2339,"Ġcollection":2340,"\"))":2341,"redential":2342,"Ġits":2343,"ics":2344,"']['":2345,"sql":2346,"Stat":2347,"dump":2348,"ultiple":2349,"ĠImportError":2350,"Ġcontinue":2351,"setup":2352,"ship":2353,"Ġvi":2354,"Ġabsolute":2355,"FAULT":2356,"Ġnext":2357,".\")":2358,"Event":2359,"ĠĠĠĠĠĠĠĠĊ":2360,"zer":2361,"Ġdest":2362,"ONE":2363,"lem":2364,"ular":2365,"ĠSE":2366,"ESS":2367,"ĠAn":2368,"Service":2369,"GIN":2370,"Ġtimeout":2371,"uuid":2372,"Ġdir":2373,"loy":2374,"TER":2375,"iddleware":2376,"sport":2377,"urls":2378,"login":2379,"------------------------------------------------------------------------":2380,"ĠKey":2381,"Ġbot":2382,"Ġexample":2383,"Ġreturns":2384,"metadata":2385,"forms":2386,"igration":2387,"ered":2388,"ĠHTML":2389,"commit":2390,"shared":2391,"No":2392,"Ġalso":2393,"zone":2394,"ook":2395,"ĠEX":2396,"results":2397,"Ġoff":2398,"Mixin":2399,"Ġhasattr":2400,"Ġextension":2401,"ĠCreate":2402,"SON":2403,"unicode":2404,"handle":2405,"DB":2406,"SS":2407,"Ġheader":2408,"Ġthere":2409,"afe":2410,"Ġavailable":2411,"SION":2412,"Ġauthor":2413,"enu":2414,"repr":2415,"Call":2416,"az":2417,"Ġshow":2418,"Ġcl":2419,"Ġpub":2420,"Ġinclude":2421,"Create":2422,"ink":2423,"24":2424,"__,":2425,"Ġprefix":2426,"GET":2427,"over":2428,"conds":2429,"ĠĠĠĠĠĠĠĠĠĠĠĠĠĠĠĠĠĠĠĠĠĠ":2430,"ĠFI":2431,"insert":2432,"gest":2433,"\\\\":2434,"tw":2435,"ĠCom":2436,"imal":2437,"true":2438,"Ġjob":2439,"aml":2440,"alc":2441,"Connection":2442,"itions":2443,"git":2444,"document":2445,"lector":2446,"eatures":2447,"ayload":2448,"mory":2449,"Ġentry":2450,"stdout":2451,"ĠHTTP":2452,"ĠSe":2453,"lambda":2454,"char":2455,"dirname":2456,"argv":2457,"cret":2458,"ĠList":2459,"UR":2460,"unter":2461,"Ġstream":2462,"ear":2463,"Implemented":2464,"Ġold":2465,"ingle":2466,"Ġ12":2467,"Ġrepresent":2468,"AG":2469,"olver":2470,"Ġaccess":2471,"ĠAt":2472,"arnings":2473,"rop":2474,"Ġerr":2475,"Parser":2476,"users":2477,"Ġsocket":2478,"]))":2479,"Logger":2480,"Ġcalled":2481,"Ġ{\"":2482,"channel":2483,"QU":2484,"Ġsql":2485,"ector":2486,"Ġdocumentation":2487,"Ġkeys":2488,"Ġparameters":2489,"ĠInc":2490,"kernel":2491,"Ġdictionary":2492,"Ġcolumn":2493,"Ġframe":2494,"Ġlength":2495,"ĠCol":2496,"https":2497,"erge":2498,"ĠAUT":2499,"ias":2500,"LINE":2501,"ĠĠĠĠĠĠĠĠĠĠĠĠĠĠĠĠĠĠĠĠĠĠĠĠĠĠĠĠĠĠĠ":2502,"access":2503,"assed":2504,"control":2505,"au":2506,"=['":2507,"Group":2508,"LY":2509,"startswith":2510,"Ġwhere":2511,"atterns":2512,"factory":2513,"Ġwrite":2514,"Ġencoding":2515,"only":2516,"ilter":2517,"atches":2518,"CharField":2519,"vo":2520,"TYPE":2521,"ĠGener":2522,"dated":2523,"liter":2524,"Ġbefore":2525,".,":2526,"ature":2527,"ĠĠĠĠĠĠĠĠĠĠĠĠĠĠĠĠĠĠĠĠĠĠĠĠĠĠĠĠĠĠ":2528,"API":2529,"Ġcallback":2530,"ia":2531,"Ġemail":2532,"thread":2533,"Ġaddress":2534,"Ġap":2535,"Ġter":2536,"Ġsend":2537,")):":2538,"02":2539,"Ġitems":2540,"Ġ>=":2541,"ĠType":2542,"coder":2543,"tmp":2544,"web":2545,"(['":2546,"lish":2547,"Ġbreak":2548,"={":2549,"ays":2550,"scrib":2551,"Ġrequests":2552,"Ġlike":2553,"views":2554,"Ġnetwork":2555,"State":2556,"depend":2557,"TE":2558,"pers":2559,"extension":2560,"ĠRes":2561,"bot":2562,"rypt":2563,"=(":2564,"board":2565,"Po":2566,"sen":2567,"BU":2568,"PAT":2569,"tags":2570,"ĠCh":2571,"ences":2572,"opt":2573,"anel":2574,"medi":2575,"ĠTH":2576,"]:":2577,"Ġind":2578,"tree":2579,"exc":2580,"Admin":2581,"`.":2582,"MO":2583,"Ġlevel":2584,"lice":2585,"Ġmethods":2586,"istry":2587,"tuple":2588,"decode":2589,"pol":2590,"Ġplugin":2591,"Ġutils":2592,"Ġthan":2593,"schema":2594,"exceptions":2595,"src":2596,"posit":2597,"stract":2598,"ason":2599,"DIR":2600,"Ġsix":2601,"Ġselect":2602,"Ġaut":2603,"Ġtwo":2604,"Ġtypes":2605,"aded":2606,"entry":2607,"Ġfull":2608,"clean":2609,"bytes":2610,"Ġmo":2611,"system":2612,"assertFalse":2613,"peri":2614,"Item":2615,"','":2616,"ards":2617,"day":2618,"conn":2619,"Ġop":2620,"CL":2621,"vided":2622,"tml":2623,"ĠSer":2624,"raises":2625,"Ġhash":2626,"33":2627,"ik":2628,"iginal":2629,"Al":2630,"OK":2631,"Ġlines":2632,"Ġprob":2633,"TR":2634,"KEY":2635,"ĠIt":2636,"ĠDE":2637,"Ġenv":2638,"Cache":2639,"Instance":2640,"=%":2641,"Ġnow":2642,"ORT":2643,"ights":2644,"Ġbeen":2645,"Ġerrors":2646,"oot":2647,"SD":2648,"yp":2649,"ND":2650,"\",\"":2651,"ves":2652,"This":2653,"Ġ'--":2654,"Ġqueue":2655,"Ġ'_":2656,"prec":2657,"ĠData":2658,"ĠNotImplemented":2659,"wd":2660,"render":2661,"pha":2662,"ries":2663,"lank":2664,"stats":2665,"train":2666,"IP":2667,"ATED":2668,"Out":2669,"Ġlicense":2670,"Ġopt":2671,"Ġ'-":2672,"delta":2673,"Ġcolor":2674,"non":2675,"profile":2676,"56":2677,"/%":2678,"ants":2679,"ĠEn":2680,"PRO":2681,"18":2682,"ture":2683,"dev":2684,"ĠIMP":2685,"...":2686,"ens":2687,":%":2688,"quires":2689,"Ġreq":2690,"OG":2691,"Element":2692,"ured":2693,"transl":2694,"tach":2695,"Content":2696,"hed":2697,"({'":2698,"ffix":2699,"Th":2700,"UP":2701,"'^":2702,"defin":2703,"sy":2704,"groups":2705,"Ġ&":2706,"Frame":2707,"Ġ$":2708,"Ġtree":2709,"device":2710,"socket":2711,"Ġmark":2712,"nodes":2713,"OF":2714,"Ġdomain":2715,"full":2716,"storage":2717,"addr":2718,"Index":2719,"tend":2720,"Ġim":2721,"(?":2722,"luster":2723,"ugh":2724,"Ġapplication":2725,"pool":2726,"Ġcomple":2727,"oper":2728,"Ġsearch":2729,"30":2730,"velo":2731,"dim":2732,"loads":2733,"Ġwithout":2734,"account":2735,"fn":2736,"Check":2737,"Query":2738,"TICE":2739,"Ġempty":2740,"ĠTHIS":2741,"lue":2742,"widget":2743,"ox":2744,"From":2745,"Ġexc":2746,"ceived":2747,"avi":2748,"fake":2749,"(**":2750,"window":2751,"Ġreturned":2752,"Date":2753,"words":2754,"Ġ},":2755,"Ġdetails":2756,"ĠON":2757,"Ġrule":2758,"literals":2759,"bind":2760,"ret":2761,"Sh":2762,"ĠArgs":2763,"Ġloc":2764,"ven":2765,"leep":2766,"Ġdelete":2767,"Ġbin":2768,"Result":2769,"Task":2770,"iff":2771,"shot":2772,"EL":2773,"ĠNOTICE":2774,"ĠPy":2775,"classes":2776,"Ġeq":2777,"15":2778,"Ġpassed":2779,"termin":2780,"assertIs":2781,"redentials":2782,"volume":2783,"cer":2784,"ĠMe":2785,"offset":2786,"Ġ--------":2787,"Ġutil":2788,"Ġrelative":2789,"With":2790,"Action":2791,"ffect":2792,"Ġdiffer":2793,"messages":2794,"__':":2795,"cluster":2796,"Ġconn":2797,"wner":2798,"vironment":2799,"ĉĉĉ":2800,"ĠTODO":2801,"validate":2802,"comment":2803,"rough":2804,"Reg":2805,"By":2806,"ide":2807,"imple":2808,"skip":2809,"Ġtwisted":2810,"ithub":2811,"istory":2812,"wise":2813,"Ġdepend":2814,"extend":2815,"Ġusername":2816,"required":2817,"tax":2818,"rag":2819,"idx":2820,"Ġalready":2821,"Ġ100":2822,"ince":2823,"Ġreverse":2824,"sage":2825,"round":2826,"Ġ###":2827,"================================":2828,"til":2829,"Pre":2830,"Ġ'\\":2831,"Ġsimple":2832,"sv":2833,"Ġconvert":2834,"oolean":2835,"ulate":2836,"ano":2837,"ploy":2838,"sm":2839,"encoding":2840,"help":2841,"Ġremove":2842,"phinx":2843,"release":2844,"Context":2845,"ĠIF":2846,"Ġstyle":2847,"sph":2848,"Ġgraph":2849,"Ġattributes":2850,"vate":2851,"pository":2852,"Ġinstall":2853,"POST":2854,"+)":2855,"Ġprovided":2856,"simple":2857,"Ġsingle":2858,"Version":2859,"PATH":2860,"ĠNotImplementedError":2861,"empty":2862,"Ġet":2863,"Ġhtml":2864,":]":2865,"Ġjust":2866,"ĉĉĊ":2867,"buil":2868,"55":2869,"container":2870,"Ġchannel":2871,"14":2872,"Inter":2873,"sphinx":2874,"protocol":2875,"atic":2876,"annot":2877,"Ġdon":2878,"ĠCheck":2879,"olve":2880,"pl":2881,"auto":2882,"ĠDefault":2883,"dices":2884,"ĠEND":2885,"utton":2886,"Ġip":2887,"buffer":2888,"Valid":2889,"ĠTe":2890,"zip":2891,"okie":2892,"reen":2893,"like":2894,"Ġnull":2895,"ĠFILE":2896,"Ġ<=":2897,"entifier":2898,"Do":2899,"icle":2900,"Ġstruct":2901,"tric":2902,"left":2903,"umer":2904,"dest":2905,"FOR":2906,"Ġref":2907,"Gener":2908,"\"],":2909,"Ġconnect":2910,"gg":2911,"Ġmetadata":2912,"proxy":2913,"Ġurllib":2914,"children":2915,"collection":2916,"ENER":2917,"ranch":2918,"Or":2919,"idden":2920,"zy":2921,"']:":2922,"rand":2923,"used":2924,"keep":2925,"80":2926,"ctx":2927,"oreign":2928,"Ġmy":2929,"={'":2930,"imum":2931,"Down":2932,"oken":2933,"ET":2934,"ĠAuth":2935,"ceback":2936,"Ġgenerated":2937,"oci":2938,"modules":2939,"Ġparameter":2940,"Dis":2941,"\"):":2942,"Ġscript":2943,"Ġsure":2944,"rm":2945,"ling":2946,"Ġ})":2947,"UMENT":2948,"\"])":2949,"stderr":2950,"upt":2951,"utable":2952,"Ġfix":2953,"stru":2954,"bit":2955,"Filter":2956,"Ġvis":2957,"Ġverbose":2958,"Image":2959,"Hel":2960,"Ġcho":2961,"He":2962,"stead":2963,"rid":2964,"cat":2965,"Ġbytes":2966,"For":2967,"ĠSo":2968,"cloud":2969,"sole":2970,"directory":2971,"Table":2972,"report":2973,"custom":2974,"invalid":2975,"step":2976,"ian":2977,"ĠZ":2978,"getLogger":2979,"Ġwindow":2980,"And":2981,"Ġfollowing":2982,"nap":2983,"Ġbet":2984,"Ġshape":2985,"section":2986,"ĠMock":2987,"ĠFile":2988,"Ġrecord":2989,"Ġxml":2990,"wait":2991,"chemy":2992,"rs":2993,"Ġpaths":2994,"SER":2995,"Ġdtype":2996,"Ġsystem":2997,"Sub":2998,"ward":2999,"Ġ'',":3000,"Ġpatch":3001,"component":3002,"Ġge":3003,"slug":3004,"Code":3005,"opts":3006,"support":3007,"Ġweb":3008,"Ġglobal":3009,"19":3010,"install":3011,"angible":3012,"ERR":3013,"Ġdown":3014,"Ġwant":3015,"Ġoptional":3016,"sumer":3017,"Lay":3018,"-------":3019,"sample":3020,"ipe":3021,"ĠApp":3022,"itch":3023,"Ġappend":3024,"LEASE":3025,"straint":3026,"Ġdf":3027,"Ġmeta":3028,"################################################################":3029,"success":3030,"Ġraw":3031,"]['":3032,"apt":3033,"Ġwidget":3034,"curity":3035,"sheet":3036,"cc":3037,"Ġinterface":3038,"Ġfunctions":3039,"Le":3040,"any":3041,"ĠIP":3042,")[":3043,"ift":3044,"axis":3045,"short":3046,"some":3047,"ABLE":3048,"ĠID":3049,"Ġlong":3050,"testing":3051,"Info":3052,"XX":3053,"]),":3054,"total":3055,"Ġinst":3056,"Ġproperty":3057,"Trans":3058,"Ġstep":3059,"AMPL":3060,"ĠDOC":3061,"Ġcontaining":3062,"repo":3063,"Su":3064,"ĠBEGIN":3065,"Invalid":3066,"Ġ%(":3067,"ze":3068,"Ġthey":3069,"points":3070,"ĠRun":3071,"hook":3072,"Loc":3073,"alog":3074,"Ġstop":3075,"AMPLES":3076,"Ġcorrect":3077,"Ġsubprocess":3078,"Ġthem":3079,"03":3080,"WAR":3081,"cause":3082,"rf":3083,"Ġadmin":3084,"andard":3085,"MS":3086,"Ġzip":3087,"edge":3088,"Ġforms":3089,"diff":3090,"resp":3091,"Ġsalt":3092,"pped":3093,"Ġsorted":3094,"events":3095,"Ġclean":3096,"ueue":3097,"attrs":3098,"Integer":3099,"ROPER":3100,"issing":3101,"DEFAULT":3102,"An":3103,"ĠDOCUMENT":3104,"Property":3105,"ĠSEE":3106,"Ġtri":3107,"allow":3108,"OL":3109,"yntax":3110,"ENERATED":3111,"Ġswg":3112,"13":3113,"Ġdirect":3114,"ssible":3115,"ĠDONE":3116,"Ġswgpy":3117,"ĠMAY":3118,"loop":3119,"~~~~~~~~":3120,"stf":3121,"istr":3122,"most":3123,"Ġdisplay":3124,"ĠEXAMPLES":3125,"ĠPLEASE":3126,"wrap":3127,"imer":3128,"ĠDOCUMENTATION":3129,"ĠONLINE":3130,"Ġmessages":3131,"Ġgenerate":3132,"OGENERATED":3133,"ĠAUTOGENERATED":3134,"22":3135,"Str":3136,"Ġbar":3137,"record":3138,"ĠLOST":3139,"ĠIMPROPER":3140,"stfName":3141,"ĠIMPROPERLY":3142,"ĠHttp":3143,"ĠOpen":3144,"ĠComp":3145,"display":3146,"ination":3147,"Ġauto":3148,"ctories":3149,"Ġbecause":3150,"uter":3151,"fl":3152,"rest":3153,"Contain":3154,"ins":3155,"Ġthese":3156,"Ġcomponent":3157,"Ġcontrol":3158,"Ġmon":3159,"encies":3160,"(-":3161,"med":3162,"abspath":3163,"once":3164,"light":3165,"izer":3166,"ween":3167,"Ġsum":3168,"Ġnodes":3169,"Ġsave":3170,"dumps":3171,"ACK":3172,"Ġstatic":3173,"js":3174,"dered":3175,"Ġcond":3176,"dtype":3177,"Ġprotocol":3178,"Ġtotal":3179,"ĠNote":3180,"Ġexists":3181,"vious":3182,"timestamp":3183,"rec":3184,"Ġbackend":3185,"OS":3186,"ĠName":3187,"cheduler":3188,"Ġsection":3189,"route":3190,"gor":3191,"role":3192,"Ġlook":3193,"github":3194,"secret":3195,"known":3196,"erson":3197,"Ġ',":3198,"unit":3199,"tack":3200,"\">":3201,"compat":3202,"Found":3203,"public":3204,"Ġvar":3205,"Ġinstead":3206,"'})":3207,"Process":3208,"Ġreport":3209,"folder":3210,"Column":3211,"Ġ\"/":3212,"master":3213,"ffi":3214,"Ġpk":3215,"ero":3216,"Function":3217,"vor":3218,"latex":3219,"gument":3220,".*":3221,"ged":3222,"dot":3223,"Ġchunk":3224,"Ġbool":3225,"NO":3226,"Ġdebug":3227,"$',":3228,"database":3229,"layout":3230,"language":3231,"cheme":3232,"logging":3233,"properties":3234,"ives":3235,"Ġinclu":3236,"ĠTh":3237,"Ġ'<":3238,"pu":3239,"Ġprovide":3240,"Ġcomment":3241,"Ġfoo":3242,"Ġdoesn":3243,"DS":3244,"ere":3245,"docs":3246,"ites":3247,"stants":3248,"Desc":3249,"Ġpick":3250,"Attribute":3251,"ux":3252,"ĠParameters":3253,"vm":3254,"Ġ),":3255,"Ac":3256,"BUG":3257,"ways":3258,"FF":3259,"Ġredirect":3260,"Control":3261,"ĠTypeError":3262,"fetch":3263,"Ġph":3264,"gorith":3265,"TEST":3266,"ĠGo":3267,"ĠAttribute":3268,"ValueError":3269,"policy":3270,"resses":3271,"ĠDjango":3272,"Ġabout":3273,"position":3274,"abc":3275,"FILE":3276,"compute":3277,"rate":3278,"aa":3279,"oreignKey":3280,"Number":3281,"All":3282,"TO":3283,"css":3284,"rows":3285,"apps":3286,"]]":3287,"tact":3288,"ĠDocument":3289,"ĠOr":3290,"Ġshort":3291,"Line":3292,"Ġdire":3293,"hether":3294,"USER":3295,"ivity":3296,"created":3297,"Ġpages":3298,"should":3299,"Per":3300,"Ġusers":3301,"mbol":3302,"ZE":3303,"Ġstrings":3304,"xx":3305,"filters":3306,"NS":3307,"clear":3308,"Ġcontainer":3309,"Sc":3310,"see":3311,"olution":3312,"ower":3313,"normal":3314,"Ġflask":3315,"leted":3316,"Ġadded":3317,"Protocol":3318,"AGE":3319,"track":3320,"expr":3321,"ene":3322,"pid":3323,"Ġsent":3324,"Ġnormal":3325,"ĠĠĠĠĠĠĠĠĠĠĠĠĠĠĠĠĠĠĠĠĠĠĠĠĠĠĠĠĠĠĠĠĠ":3326,"ĠMeta":3327,"Ġtags":3328,"Ġshe":3329,"Ġclasses":3330,"Ġconf":3331,"ork":3332,"Ġtheme":3333,"ily":3334,"entication":3335,"Ġdevice":3336,"Ġwarnings":3337,"loader":3338,"columns":3339,"ĠJSON":3340,"win":3341,"ĠConfig":3342,"[:,":3343,"eq":3344,"Ġdefined":3345,"head":3346,"Ġexpect":3347,"Ġspace":3348,"FO":3349,"null":3350,"sync":3351,"Ġwidth":3352,"'][":3353,"VAL":3354,"Tra":3355,"mk":3356,"ĠĠĠĠĠĠĠĠĠĠĠĠĠĠĠĠĠĠĠĠĠĠĠĠĠĠĠĠĠĠĠĠĠĠĠ":3357,"%(":3358,"product":3359,"pattern":3360,"Ġoffset":3361,"Ġskip":3362,"Ġdifferent":3363,"chunk":3364,"Ġthrough":3365,"Ġunique":3366,"igrations":3367,"edit":3368,"images":3369,"AM":3370,"Fla":3371,"uff":3372,"}.":3373,"gnore":3374,"Widget":3375,"ench":3376,"rep":3377,"Ġactual":3378,"()[":3379,"ĠLICENSE":3380,"eval":3381,"ĠNOT":3382,"resources":3383,"actions":3384,"serv":3385,"Ed":3386,"Ġstore":3387,"Ġbeing":3388,"Ġ\".":3389,"DAT":3390,"greg":3391,"utes":3392,"Method":3393,"agent":3394,"flags":3395,".'":3396,"=_":3397,"Ġsuccess":3398,"napshot":3399,"labels":3400,"Ġour":3401,"ado":3402,"Ġsrc":3403,"Input":3404,"Tag":3405,"gra":3406,"cursor":3407,"alar":3408,"RES":3409,"akes":3410,"tom":3411,"\").":3412,"ERROR":3413,"CRE":3414,"Ġvalidate":3415,"78":3416,"Ġnova":3417,"Ġsite":3418,"assertIn":3419,"Ġoriginal":3420,"ĠNo":3421,"real":3422,"Size":3423,"lear":3424,"oly":3425,"ored":3426,"Ġxrange":3427,"Status":3428,"Ġsa":3429,"ĠWh":3430,"attributes":3431,"Ġcollections":3432,"Plugin":3433,"Ġcluster":3434,"ĠStringIO":3435,"Ġlocation":3436,"ASS":3437,"gress":3438,"ALL":3439,"theme":3440,"Ġregister":3441,"ITY":3442,"paths":3443,"ferred":3444,"Ġ[(":3445,"tect":3446,"kes":3447,"Ġtimestamp":3448,"pla":3449,"Ġremote":3450,"Ġ20":3451,"Ġ----------":3452,"ĠRequest":3453,"tt":3454,"Ġenumer":3455,"tod":3456,"packages":3457,"Ġplace":3458,"ĠColumn":3459,"WOR":3460,"'},":3461,"Ġ):":3462,"scope":3463,"Ġ16":3464,"lex":3465,"END":3466,"Ġ\"\\":3467,"Ġevery":3468,"safe":3469,"Ġcontains":3470,"cale":3471,"reset":3472,"ross":3473,"sa":3474,"orn":3475,"_,":3476,"Ġcolumns":3477,"Callback":3478,"Module":3479,"ĠLOG":3480,"ransport":3481,"pair":3482,"Ġ'{":3483,"TIC":3484,"Returns":3485,"fit":3486,"SC":3487,"namespace":3488,")])":3489,"ĠĠĠĠĠĠĠĠĠĠĠĠĠĠĠĠĠĠĠĠĠĠĠĠĠĠĠĠĠĠĠĠĠĠ":3490,"sleep":3491,"Ġsm":3492,"Ġcursor":3493,"member":3494,"eno":3495,"Ġcli":3496,"fd":3497,"variable":3498,"ĠValid":3499,"ationError":3500,"cast":3501,"oauth":3502,"-----":3503,"Ġnamed":3504,"escape":3505,"ier":3506,"Py":3507,"utron":3508,"ish":3509,"mask":3510,"Ġbetween":3511,"ĠSphinx":3512,"SET":3513,"Ġsecond":3514,"End":3515,"plugins":3516,"long":3517,"Ġschema":3518,"Ġpytest":3519,"Ġfn":3520,"tegr":3521,"Ġevents":3522,"height":3523,"Ġplt":3524,"Map":3525,"ped":3526,"ping":3527,"__.":3528,"exist":3529,"returns":3530,"GI":3531,"CP":3532,"Ġsupported":3533,"Ġ[])":3534,"Ġstdout":3535,"ialized":3536,"Ġnamespace":3537,"Ġtheano":3538,"ose":3539,"Ġreplace":3540,"/'":3541,"img":3542,"cfg":3543,"matrix":3544,"sure":3545,"PORT":3546,"Ġvari":3547,"way":3548,"manage":3549,"Ġbased":3550,"std":3551,"Ġcore":3552,"aut":3553,"-%":3554,"Ġkeep":3555,"decor":3556,"Ġdecor":3557,"Ġaccount":3558,"ĠBSD":3559,"Ġrunning":3560,"Ġlibrary":3561,"On":3562,"ĠRE":3563,"desc":3564,"pth":3565,"sl":3566,"``.":3567,"itive":3568,"Ġsample":3569,"Ġpossible":3570,"Ġsplit":3571,"trics":3572,"rtype":3573,"PL":3574,"}'.":3575,"Ġiss":3576,"icon":3577,"verage":3578,"buf":3579,"bucket":3580,"related":3581,"('\\":3582,"gments":3583,"Ġctx":3584,"mpt":3585,"uch":3586,"pression":3587,"Ġhow":3588,"Ġ2015":3589,"Ġexceptions":3590,"Ġfake":3591,"Ġstats":3592,"Back":3593,"Open":3594,"moved":3595,"hex":3596,"Ġfalse":3597,"/',":3598,"STR":3599,"()))":3600,"tk":3601,"tool":3602,"alen":3603,"redirect":3604,"dat":3605,"bad":3606,"ĠGroup":3607,"Ġentity":3608,"Ġinteger":3609,"ished":3610,"pa":3611,"Ġcommit":3612,"Ġaxis":3613,"Ġfinally":3614,"features":3615,"ĠModel":3616,"mean":3617,"Ġstack":3618,"42":3619,"series":3620,"Ġparsed":3621,"Ġlinks":3622,"Page":3623,")'":3624,"Ġ#:":3625,"EXT":3626,"Ġenumerate":3627,"Ġ\"__":3628,"home":3629,"('%":3630,"TIME":3631,"cords":3632,"ITE":3633,"17":3634,"fmt":3635,"Tree":3636,"Ġinitial":3637,"sgi":3638,"Ġmultiple":3639,"wards":3640,"ĠMy":3641,"ĠPer":3642,"gment":3643,"detail":3644,"scale":3645,"ĠLo":3646,"platform":3647,"ĠExample":3648,"Ġtesting":3649,"alchemy":3650,"oid":3651,"05":3652,"score":3653,"Ġ2014":3654,"Window":3655,"UB":3656,"Ġdefaults":3657,"Ġtmp":3658,"ely":3659,"rl":3660,"Ġattrs":3661,"Ġappro":3662,"ĠKeyError":3663,"basic":3664,"Session":3665,"ferences":3666,"IG":3667,"ĠImage":3668,"Ġprofile":3669,"ested":3670,"SH":3671,"Ġdocuments":3672,"hello":3673,">'":3674,"Output":3675,"VERSION":3676,"staticmethod":3677,"gettext":3678,"Ġtrain":3679,"rad":3680,"NG":3681,"sq":3682,"generate":3683,"Address":3684,"Ġgoogle":3685,"Ġleft":3686,"remote":3687,"fixture":3688,"Token":3689,"Ġwait":3690,"One":3691,"gh":3692,"Ġmatrix":3693,"force":3694,"agic":3695,"ĠGoogle":3696,"tran":3697,"SIZE":3698,"Ġforce":3699,"ĠSoftware":3700,"edi":3701,"MM":3702,"Ġhttps":3703,"card":3704,"controller":3705,"aly":3706,"lookup":3707,"ĠCommand":3708,"ority":3709,"Ġrights":3710,"Ġfailed":3711,"lime":3712,"Stream":3713,"interface":3714,"cy":3715,"Serializer":3716,"rpc":3717,"reverse":3718,"hes":3719,"rowser":3720,"inst":3721,"Ġexpression":3722,"leg":3723,"Ġgit":3724,"sig":3725,"tore":3726,"licit":3727,"Ġcommon":3728,"localhost":3729,"arDown":3730,"Ġwx":3731,"ĠTestCase":3732,"Ġcharact":3733,"Ġclose":3734,"60":3735,"Sp":3736,"eve":3737,"changed":3738,"verify":3739,"lineno":3740,"indices":3741,"IM":3742,"permission":3743,"`,":3744,"pages":3745,"Ġdim":3746,"mac":3747,"Pos":3748,"patterns":3749,"Ġpool":3750,"Ġcontents":3751,"ordin":3752,"batch":3753,"Int":3754,"ynam":3755,"dt":3756,"enabled":3757,"Ġagain":3758,"Point":3759,"Ġdt":3760,"templates":3761,"vs":3762,"ually":3763,"cb":3764,"404":3765,"Ġvolume":3766,"sec":3767,"comm":3768,"duce":3769,"WS":3770,"mar":3771,"Ġel":3772,"Ġjoin":3773,"year":3774,"parameters":3775,"Ġ->":3776,"Ġcfg":3777,"jobs":3778,"Ġinsert":3779,")\"":3780,"44":3781,"Ġplatform":3782,"Ġignore":3783,"Ġproperties":3784,"Template":3785,"mbers":3786,"Ġ################################################################":3787,"dec":3788,"ire":3789,"EC":3790,"ForeignKey":3791,"salt":3792,"Oper":3793,"seq":3794,"PC":3795,"havi":3796,"Ġreal":3797,"Ġassoci":3798,"pose":3799,"VE":3800,"contents":3801,"ability":3802,"signal":3803,"Ġplot":3804,"('.":3805,"Ġencode":3806,"itu":3807,"Ġreserved":3808,"ĠUse":3809,"gorithm":3810,"()),":3811,"include":3812,"'re":3813,"Clo":3814,"Ġsen":3815,"Ġdec":3816,"Ġdriver":3817,"verbose":3818,"ignore":3819,"Ġmodules":3820,"Ġsignal":3821,"parts":3822,"undle":3823,"Ġinvalid":3824,"Ġpermission":3825,"Ġaccept":3826,"agicMock":3827,"86":3828,"google":3829,"Ġhand":3830,"1234":3831,"Ġimplementation":3832,"Ġnet":3833,"Ġmat":3834,"ĠAttributeError":3835,"bool":3836,"eeded":3837,"Ġrelated":3838,"pb":3839,"Ġhel":3840,"AUT":3841,");":3842,"Ġparts":3843,"Ġretri":3844,"structor":3845,"pipe":3846,"Ġcallable":3847,"provider":3848,"seconds":3849,"Ġtheir":3850,"Ġvariables":3851,"Migration":3852,"tab":3853,"Ġcommands":3854,"mat":3855,"Ġlock":3856,"grid":3857,"ied":3858,"Options":3859,"gf":3860,"ression":3861,"____":3862,"samples":3863,"Ġwhether":3864,"****************":3865,"Spec":3866,"sk":3867,"Ġglob":3868,"defaults":3869,"')),":3870,"suite":3871,"Ġreference":3872,"gger":3873,"Ġrest":3874,"Ġblank":3875,"(\"%":3876,"ground":3877,"pick":3878,"Ġflags":3879,"Ġ],":3880,"Ġwhat":3881,"Option":3882,"Ġuuid":3883,"weight":3884,"Ġpattern":3885,"numpy":3886,"Ġexecute":3887,"Graph":3888,"Ġseconds":3889,"__()":3890,"rapped":3891,"spect":3892,"ĠĠĠĠĠĠĠĠĠĠĠĠĠĠĠĠĠĠĠĠĠĠĠĠĠĠĠĠĠĠĠĠĠĠĠĠ":3893,"Ġmanager":3894,"Source":3895,"faces":3896,"Ġsince":3897,"ĠSh":3898,"respon":3899,"periment":3900,"ĠSub":3901,"Ġenvironment":3902,"09":3903,"mount":3904,"NotFound":3905,"uble":3906,"Ġthreading":3907,"SQL":3908,"icate":3909,"csv":3910,"ometry":3911,"enter":3912,"Ġposition":3913,"Ġpresent":3914,"XML":3915,"ĠOn":3916,"outh":3917,"Ġproduct":3918,"Start":3919,"tasks":3920,"oriz":3921,"grad":3922,"Ġdiff":3923,"pg":3924,"Ġ2013":3925,"zeros":3926,"Ġ##":3927,"Ġ'')":3928,"extensions":3929,"Ġsequence":3930,"owner":3931,"cert":3932,"ĠSQL":3933,"Ġdivision":3934,"category":3935,"Count":3936,"lab":3937,"Ġanother":3938,"OUT":3939,"feed":3940,"umbers":3941,"ring":3942,"Ġtempfile":3943,"ĠOS":3944,"Ġlat":3945,"transform":3946,"Ġdisable":3947,"regex":3948,"Ġctypes":3949,"Ġfactory":3950,"Ġverify":3951,"Ġchanges":3952,"Ġsuch":3953,"cap":3954,"23":3955,"iss":3956,"endere":3957,"unch":3958,"precated":3959,"ĠQt":3960,"Middleware":3961,"Ġwrapper":3962,"PS":3963,"loaded":3964,"Ġmath":3965,"Ġoperation":3966,"('-":3967,"Ġrepo":3968,"Ġsetting":3969,"false":3970,"ĠDo":3971,"Ġtransl":3972,"UE":3973,"Queue":3974,"Ġpack":3975,"ĠOptions":3976,"initial":3977,"expi":3978,":`.":3979,"ĠTo":3980,"Ġinstances":3981,"ĠMake":3982,"Child":3983,"ĠNode":3984,"transport":3985,"ops":3986,"ĠOption":3987,"Ġpair":3988,"cd":3989,"Ġlogin":3990,"Ġunit":3991,"tures":3992,"endpoint":3993,"Dec":3994,"ĠBu":3995,"setUp":3996,"boot":3997,"scribe":3998,"dataset":3999,"ited":4000,"255":4001,"Ġexisting":4002,"pytest":4003,"media":4004,"ROM":4005,"cr":4006,"Ġdataset":4007,"require":4008,"Ġ#------------------------------------------------------------------------":4009,"prot":4010,"vers":4011,"Ġside":4012,"security":4013,"uring":4014,"ĠST":4015,"pare":4016,"cell":4017,"this":4018,"ja":4019,"Ġpayload":4020,"tz":4021,"Ġupdated":4022,"dapt":4023,"Ġassign":4024,"ifiers":4025,"cu":4026,"alias":4027,"Ġrole":4028,"Ġmanual":4029,"otes":4030,"ases":4031,"88":4032,"ĠQu":4033,"ibility":4034,"vars":4035,"ĉĉĉĉ":4036,"ava":4037,"WARE":4038,"'\\":4039,"binary":4040,"payload":4041,"flush":4042,"DF":4043,"Ġreason":4044,"commands":4045,"Ġsim":4046,"ctions":4047,"Cre":4048,"eb":4049,",)":4050,"roll":4051,"ĠAl":4052,"sha":4053,"Ġstri":4054,"Ġoverride":4055,"Ġproxy":4056,"AND":4057,"VI":4058,"mpy":4059,"Stack":4060,"Ġdefer":4061,"DEBUG":4062,"Exec":4063,"ĠDi":4064,"hostname":4065,"ssl":4066,"ters":4067,"warning":4068,"prop":4069,"chain":4070,"unct":4071,"LOC":4072,"chine":4073,"Ġendpoint":4074,"activ":4075,"fname":4076,"raft":4077,"deploy":4078,"links":4079,"virt":4080,"GL":4081,"Ġpipe":4082,"Ġboth":4083,"Read":4084,"reference":4085,"Ġgen":4086,"Failed":4087,"upload":4088,"Ġtuples":4089,"Ġtemplates":4090,"lazy":4091,"Http":4092,"Ġuri":4093,"Ġshutil":4094,"ident":4095,"aller":4096,"lint":4097,"Default":4098,"System":4099,"gno":4100,"Ġmapping":4101,"ORS":4102,"Ġfilters":4103,"Ġkw":4104,"Ġbatch":4105,"ANG":4106,"Ġstderr":4107,"Ġrv":4108,"Ġidx":4109,"Ġvia":4110,"ĠUp":4111,"choices":4112,"after":4113,"Ġway":4114,"complete":4115,"ĠHttpResponse":4116,"registry":4117,"none":4118,"counter":4119,"translation":4120,"Ġstorage":4121,"(\"/":4122,"Ġrec":4123,"Thread":4124,"Ġcategory":4125,"dia":4126,"As":4127,"Layer":4128,"requests":4129,"iteritems":4130,"Ġrows":4131,"ternet":4132,"history":4133,"Ġio":4134,"Ġheight":4135,"global":4136,"TING":4137,"ationship":4138,"tex":4139,"Ġcontribut":4140,"ĠĠĠĠĠĠĠĠĠĠĠĠĠĠĠĠĠĠĠĠĠĠĠĠĠĠĠĠĠĠĠĠĠĠĠĠĠĠĠ":4141,"Ġusage":4142,"Ġbuiltin":4143,"ancel":4144,"Ġprimary":4145,"}}":4146,"curs":4147,"Ġwould":4148,"ĠSimple":4149,"DU":4150,"Fail":4151,"Ġrequire":4152,"Ġfeature":4153,"ypes":4154,"fact":4155,"topic":4156,"uptools":4157,"yaml":4158,"Ġeval":4159,"Ġsuite":4160,"middleware":4161,"services":4162,"Ġalpha":4163,"Ġhigh":4164,"math":4165,"Ġbinary":4166,"If":4167,"istered":4168,"__\":":4169,"Ġexit":4170,"Entry":4171,"FORM":4172,"Ġra":4173,"timeError":4174,"uted":4175,"MAX":4176,"istration":4177,"amb":4178,"upport":4179,"Ġcompat":4180,"firm":4181,"copyright":4182,"Ġcould":4183,"velop":4184,"blob":4185,"Ġ[],":4186,"Ġ_('":4187,"dispatch":4188,"etri":4189,"override":4190,"Storage":4191,"Ġword":4192,"Len":4193,"Update":4194,"ural":4195,"ĠBy":4196,"Ġ_(\"":4197,"TypeError":4198,"ipy":4199,"ational":4200,"interval":4201,"aries":4202,"Ġ%}":4203,">\\":4204,"ĠAND":4205,"learn":4206,"bove":4207,"123":4208,"eg":4209,"writer":4210,"handlers":4211,"Ġneeds":4212,"Ġten":4213,"ĠĠĠĠĠĠĠĠĠĠĠĠĠĠĠĠĠĠĠĠĠĠĠĠĠĠĠĠĠĠĠĠĠĠĠĠĠĠ":4214,"Ġtool":4215,"region":4216,"Ġ((":4217,"sock":4218,"Ġ\"<":4219,"Ġprogram":4220,"Ġtr":4221,"itude":4222,"Search":4223,"Ġbuffer":4224,"Ġedit":4225,"Ġmissing":4226,"Ġuses":4227,"Ġlabels":4228,"runner":4229,"suffix":4230,"AUTH":4231,"alk":4232,"Ġrepr":4233,"Ġopts":4234,"Ġcompile":4235,"hs":4236,"Format":4237,"Ġpublic":4238,"cel":4239,"Ġpatterns":4240,"ĠĠĠĠĠĠĠĠĠĠĠĠĠĠĠĠĠĠĠĠĠĠĠĠĠĠĠĠĠĠĠĠĠĠĠĠĠ":4241,"Ġlookup":4242,"66":4243,"LOG":4244,"MIN":4245,"Ġrelease":4246,"CS":4247,"}\".":4248,"rb":4249,"unds":4250,"ynamic":4251,"iod":4252,"Ġ--------------------------------":4253,"arge":4254,"metric":4255,"ĠClient":4256,"servers":4257,"Ġcompute":4258,"Ġext":4259,"ĠEvent":4260,"Proxy":4261,"seed":4262,"Meta":4263,"Ġallowed":4264,"Unless":4265,"Ġreactor":4266,"wn":4267,"Ġtrack":4268,"Argument":4269,"Ġedge":4270,"Python":4271,"Ġextensions":4272,"ĠAs":4273,"vari":4274,"Init":4275,"Ġviews":4276,"warn":4277,"Ġkeyword":4278,"Ġcalls":4279,"ĠTime":4280,"serialize":4281,"Ġadditional":4282,"usage":4283,"Ġelements":4284,"')(":4285,"memory":4286,"Ġ])":4287,"basename":4288,"PAR":4289,"Ġtraceback":4290,"Network":4291,"dar":4292,"ECT":4293,"Ġloop":4294,"oto":4295,"Ġca":4296,"available":4297,"ĠReserved":4298,"Iter":4299,"convert":4300,"ĠAuthor":4301,"Ġscope":4302,"Port":4303,"Ġ{})":4304,"75":4305,"uce":4306,"omatic":4307,"Ġsk":4308,"month":4309,"exclude":4310,"ERS":4311,"bb":4312,"ĠLog":4313,"Ġcalc":4314,"Ġabove":4315,"Ġowner":4316,"ROOT":4317,"Ġigno":4318,"mag":4319,"note":4320,"aved":4321,"__.__":4322,"super":4323,"Ġprevious":4324,"()]":4325,"icro":4326,"gb":4327,"Ġwithin":4328,"ĠIO":4329,"Ġsuffix":4330,"Ġperform":4331,"unique":4332,"identity":4333,"lack":4334,"rules":4335,"eries":4336,"Ġalways":4337,"png":4338,"Application":4339,"uplic":4340,"Ġotherwise":4341,"LS":4342,"ĠWhen":4343,"tangible":4344,"Change":4345,"------":4346,"cm":4347,"just":4348,"tables":4349,"Dir":4350,"mbed":4351,"ftime":4352,"PRE":4353,"glob":4354,"ision":4355,"inf":4356,"ĠtearDown":4357,"Ġfolder":4358,"Ġ11":4359,"UD":4360,"missing":4361,"disk":4362,"utc":4363,"LECT":4364,"perly":4365,"done":4366,"effect":4367,"ĠWindow":4368,"Ġensure":4369,"Ġhead":4370,"edirect":4371,"Ġwho":4372,"today":4373,"Exist":4374,"menu":4375,"click":4376,"mapping":4377,"ĠRights":4378,"Link":4379,"FIG":4380,"ĠIndex":4381,"ĠObject":4382,"']),":4383,"Loader":4384,"Ġident":4385,"second":4386,"anization":4387,"where":4388,"updated":4389,"Store":4390,"velopment":4391,"mox":4392,"Ġetc":4393,"Account":4394,"layers":4395,"Ġsubject":4396,"meth":4397,"Ġshown":4398,"36":4399,"private":4400,"crement":4401,"Ġcop":4402,"Ġindent":4403,"Ġqueryset":4404,"gt":4405,"Bar":4406,"resolver":4407,"READ":4408,"ones":4409,"Ġspecify":4410,"prob":4411,"ĠPRO":4412,"flag":4413,"div":4414,"']))":4415,"ĠForm":4416,"cii":4417,"Host":4418,"video":4419,"attach":4420,"ACE":4421,"Ġflag":4422,"proto":4423,"Ġdesc":4424,"Ġimg":4425,"PUT":4426,"components":4427,"distribut":4428,"tick":4429,"Ġpickle":4430,"upper":4431,"STAT":4432,"PY":4433,"stub":4434,"ĠText":4435,"baz":4436,"Load":4437,"Ġmerge":4438,"Ġ15":4439,"aces":4440,"``,":4441,"worker":4442,"poch":4443,"elements":4444,"Ġinv":4445,"40":4446,"Ġsepar":4447,"Ġsig":4448,"amily":4449,"Ġpoints":4450,"enderer":4451,"HER":4452,"wsgi":4453,"Ġreceived":4454,"two":4455,"Ġbind":4456,"Ġdone":4457,"ets":4458,"ae":4459,"REQU":4460,"assertNot":4461,"sd":4462,"Ġcannot":4463,"backends":4464,"INT":4465,"Ġrequires":4466,"byte":4467,"reshold":4468,"Schema":4469,"tract":4470,"MET":4471,"Owner":4472,"tenant":4473,"SA":4474,"archive":4475,"Ġsqlalchemy":4476,"Of":4477,"Ġtokens":4478,"Ġpop":4479,"dependent":4480,"spe":4481,"Ġshell":4482,"vas":4483,"requires":4484,"Ġactive":4485,"roy":4486,"ĠTemplate":4487,"Ġissue":4488,"Ġclear":4489,"aper":4490,"Ġ32":4491,"HOST":4492,"em":4493,"before":4494,"dash":4495,"Select":4496,"Array":4497,"writ":4498,"yper":4499,"lishe":4500,"button":4501,"iki":4502,"issue":4503,"ving":4504,"calls":4505,"BO":4506,"Ġsympy":4507,"ssh":4508,"drop":4509,"MENT":4510,"Ġexpi":4511,"Cannot":4512,"Ġpackages":4513,"Ġdat":4514,"Ġbuilder":4515,"quote":4516,"publish":4517,"ĠDis":4518,"Ġfont":4519,"Ġraised":4520,"ole":4521,"cover":4522,")*":4523,"LL":4524,"ĠError":4525,"angle":4526,"Gui":4527,"Ġexpr":4528,"Ġassociated":4529,"multi":4530,"Ġ\"--":4531,"Box":4532,"enari":4533,"Ġimages":4534,"crypt":4535,"Ġignored":4536,"plan":4537,"77":4538,"indent":4539,"Ġsouth":4540,"pred":4541,"Flag":4542,"cut":4543,"Ġcert":4544,"Ġfp":4545,"Ġaddresses":4546,"ĠLoc":4547,"Ġreset":4548,"slice":4549,"SSL":4550,"rece":4551,"mi":4552,"instances":4553,"CONF":4554,"############":4555,":`~":4556,"ategor":4557,"Color":4558,"endswith":4559,"assword":4560,"uting":4561,"holder":4562,"LED":4563,"ĠTra":4564,"><":4565,"Ġmatches":4566,"appengine":4567,"Ġoperator":4568,"ĠGeneral":4569,"Does":4570,"GR":4571,"ialization":4572,"ending":4573,"Ġneeded":4574,"('--":4575,"hosts":4576,"DateTime":4577,"ename":4578,"free":4579,"rove":4580,"flat":4581,"lished":4582,"Ġmask":4583,"INFO":4584,"Ġcorrespon":4585,"revision":4586,"cesses":4587,"HT":4588,"cos":4589,"Ġstandard":4590,"Ġmean":4591,"states":4592,"Ġbo":4593,"Ġwin":4594,"Ġextract":4595,"JSON":4596,"br":4597,"ĠPo":4598,"Buffer":4599,"ĠPO":4600,"itter":4601,"orary":4602,"Qt":4603,"ons":4604,"Ġlet":4605,"2015":4606,"ILITY":4607,"ĠDEFAULT":4608,"ateway":4609,"SL":4610,"bstract":4611,"correct":4612,"download":4613,"andas":4614,"THER":4615,"ming":4616,".%":4617,"Ġterms":4618,"Ġ'*":4619,"agin":4620,"ply":4621,"ĠDate":4622,"Ġinstalled":4623,"Ġ1000":4624,"(\\":4625,"font":4626,"Ġput":4627,"ĠInvalid":4628,"_.":4629,"added":4630,"hing":4631,"alpha":4632,"ank":4633,"ĠInit":4634,"imp":4635,"estim":4636,"21":4637,"alle":4638,"Ġpd":4639,"Ġ\"-":4640,"Ġfeed":4641,"Ġmaster":4642,"enchmark":4643,"feature":4644,"Ġorm":4645,"mem":4646,"Ġeven":4647,")).":4648,"/')":4649,"push":4650,"ifest":4651,"Ġpolicy":4652,"pkg":4653,"Ġ>>":4654,"builder":4655,":\\":4656,"Ref":4657,"ornado":4658,"Ġ30":4659,"fill":4660,"setdefault":4661,"proc":4662,"(%":4663,"lueprint":4664,"using":4665,"()):":4666,"Ġmany":4667,"apply":4668,"bound":4669,"Ġcopyright":4670,"ber":4671,".',":4672,"moves":4673,"single":4674,"inline":4675,"Ġnote":4676,"Ġmenu":4677,"ider":4678,"ality":4679,"ĠTests":4680,"Ġsetattr":4681,"days":4682,"configuration":4683,"ressed":4684,"requ":4685,"Ġcredentials":4686,"Ġmigrations":4687,"/{":4688,"Ġkind":4689,"ĠFROM":4690,"rong":4691,"Ġoperations":4692,"arguments":4693,"Ġinterval":4694,"getattr":4695,"Ġupload":4696,"New":4697,"Warning":4698,"modified":4699,"Controller":4700,"ĠTrans":4701,"Be":4702,"Ġtransaction":4703,"Ġchildren":4704,"Simple":4705,"You":4706,"ĠCustom":4707,"trace":4708,"CONT":4709,"Delete":4710,"permissions":4711,"eek":4712,"Ġmember":4713,"....":4714,"Document":4715,"unknown":4716,"Ġurlparse":4717,"Ġ2012":4718,"Ġslug":4719,"DataCache":4720,"subject":4721,",))":4722,"WORD":4723,"inja":4724,"Args":4725,"Ġbyte":4726,"Ġcons":4727,"Ġequal":4728,"Top":4729,"CC":4730,"dirs":4731,"Ġcell":4732,"Ġonce":4733,"sorted":4734,"defined":4735,"Ġdirectly":4736,"ascii":4737,"Ġbad":4738,"lip":4739,"almost":4740,"FIX":4741,"shell":4742,"relative":4743,"ĠTw":4744,"dummy":4745,"Ġstatement":4746,"ather":4747,"Ġfinal":4748,"gpu":4749,"Ġgot":4750,"Profile":4751,"times":4752,"Ġremoved":4753,"merge":4754,"ĠReg":4755,"term":4756,"Ġmanage":4757,"cing":4758,"Ġ------------------------------------------------------------------------":4759,"Ġlayer":4760,"ĠLanguage":4761,"Ġbuf":4762,"Ġflow":4763,"Ġbucket":4764,"cla":4765,",'":4766,"mer":4767,"wrapper":4768,"digest":4769,"panel":4770,"sens":4771,"My":4772,"consumer":4773,"fe":4774,"Ġdeploy":4775,"Ġ\",":4776,"cessed":4777,"ificate":4778,"Ġtransform":4779,".)":4780,"ANT":4781,"Ġart":4782,"Ġmost":4783,"OFT":4784,"Post":4785,"Program":4786,"Ġtx":4787,"Ġfeatures":4788,"Level":4789,"branch":4790,"DATA":4791,"Ġgroups":4792,"35":4793,"Ġbranch":4794,"06":4795,"Ġpylint":4796,"ulation":4797,"erify":4798,"failure":4799,"iases":4800,"isinstance":4801,"Ġchoices":4802,"Ġwrap":4803,"endered":4804,"cookie":4805,"(\"\"\"":4806,"cached":4807,"Ġmp":4808,"helper":4809,"accept":4810,"ables":4811,"Build":4812,"zero":4813,"Ġchanged":4814,"kit":4815,"Panel":4816,"NotExist":4817,"Ġ))":4818,"ane":4819,"Ġfig":4820,"Ġpla":4821,"izes":4822,"Ġinternal":4823,"tyle":4824,"Suite":4825,"ony":4826,"library":4827,"Ġapply":4828,"Runner":4829,"[:-":4830,"UID":4831,"Ġdetermin":4832,"StringIO":4833,"gl":4834,"Ġbit":4835,"Ġworks":4836,"Ġbehavi":4837,"rev":4838,"Ġexternal":4839,"tokens":4840,"Ġdependencies":4841,"chron":4842,"perm":4843,"FL":4844,"MPLATE":4845,"reduce":4846,"Ġfetch":4847,"Ġdimension":4848,"Ġworld":4849,"ĠThey":4850,"router":4851,"untry":4852,"PT":4853,"Variable":4854,"Ġdecode":4855,"choice":4856,"udi":4857,"Ġbasic":4858,"Ġsetuptools":4859,"Ġprovides":4860,"Ġ-------":4861,"Ġraises":4862,"ness":4863,"scheme":4864,"rot":4865,"defer":4866,"Ġsubclass":4867,"Ġ\"{":4868,"norm":4869,"Ġstored":4870,"Fix":4871,"1000":4872,"nn":4873,"Pri":4874,"ĠField":4875,"127":4876,"eff":4877,"aris":4878,"ĠXML":4879,"ĠProject":4880,"reader":4881,"gent":4882,"Ġargparse":4883,"Ġpkg":4884,"Ġnose":4885,"37":4886,"Rel":4887,"sep":4888,"att":4889,"Ġinspect":4890,"ĠOut":4891,"decl":4892,"semb":4893,"Pool":4894,"DoesNotExist":4895,"')]":4896,"Ġfree":4897,"ription":4898,"OFTWARE":4899,"deredDict":4900,"../":4901,"stone":4902,"JECT":4903,"Ġcases":4904,"Ġ{},":4905,"ĠContent":4906,"\"}":4907,"internet":4908,"Ġcap":4909,"methods":4910,"Boolean":4911,"CONFIG":4912,"Ge":4913,"Ġuntil":4914,"nova":4915,"Project":4916,"Target":4917,"sel":4918,"ĠResource":4919,"Block":4920,"ernel":4921,"specific":4922,"gregate":4923,"Sign":4924,"ĠWindows":4925,"Range":4926,"Var":4927,"assign":4928,"LEN":4929,"Ġscale":4930,"Buil":4931,"td":4932,"Ġregion":4933,"Ġown":4934,"ough":4935,"Backend":4936,"Det":4937,"ublic":4938,"Bad":4939,"tered":4940,"ords":4941,"Ġhook":4942,"Struct":4943,"peat":4944,"acy":4945,"Foo":4946,"rv":4947,"ĠFound":4948,"tended":4949,"Ġchain":4950,"queryset":4951,"Ġtasks":4952,"Ġselected":4953,"unctools":4954,"arr":4955,"retry":4956,"ĠResponse":4957,"Failure":4958,"ams":4959,"ixel":4960,"Ġfd":4961,"found":4962,"ĠRuntimeError":4963,"ĠDec":4964,"priate":4965,"Component":4966,"Writer":4967,"Ġreview":4968,"environment":4969,"Ġdecorator":4970,"ĠElement":4971,"DR":4972,"serve":4973,"ĠDB":4974,"ĠMessage":4975,"ĠClo":4976,"Ġugettext":4977,"Ġengine":4978,"export":4979,"cwd":4980,"Ġregex":4981,"Interface":4982,"inel":4983,"ines":4984,"period":4985,"Ġdirectories":4986,"Wrapper":4987,"Ġrepository":4988,"Ġmemory":4989,"builtin":4990,"Ġur":4991,"Ġtab":4992,"when":4993,"Util":4994,"]*":4995,"WN":4996,"Ġbuilt":4997,"review":4998,"delay":4999,":'":5000,"Ġstd":5001,"Ġincluded":5002,"Import":5003,"256":5004,"nan":5005,"expect":5006,"ABILITY":5007,"plotlib":5008,"voke":5009,"TRI":5010,"Ġmulti":5011,"comments":5012,"Ġoauth":5013,"async":5014,"setting":5015,"void":5016,"zz":5017,"ĠĠĠĠĠĠĠĠĠĠĠĠĠĠĠĠĠĠĠĠĠĠĠĠĠĠĠĠĠĠĠĠĠĠĠĠĠĠĠĠ":5018,")/":5019,"rticle":5020,"calc":5021,"locale":5022,"switch":5023,"ĠMigration":5024,"Ġmd":5025,"Ġseq":5026,"Ġ_,":5027,"versions":5028,"ĠThere":5029,"Ġworker":5030,"Ġentries":5031,"'\"":5032,"26":5033,"ount":5034,"ializers":5035,"Ġrece":5036,"schedule":5037,"Ġindic":5038,"LETE":5039,"Ġpe":5040,"Ġattemp":5041,"MODE":5042,"]])":5043,"strap":5044,"USE":5045,"bl":5046,"Ġshared":5047,"29":5048,"getitem":5049,"ysql":5050,"ffici":5051,"HTML":5052,"Ġqs":5053,"Ġautomatic":5054,"ically":5055,"Parse":5056,"dire":5057,"running":5058,"Hello":5059,"Length":5060,"inc":5061,"ĠLa":5062,"qa":5063,"utor":5064,"ORY":5065,"Ġappropriate":5066,"named":5067,"expand":5068,"AME":5069,"OM":5070,"Ġ60":5071,"kind":5072,"Ġ(%":5073,"enario":5074,"tty":5075,"Ġdatastore":5076,"processor":5077,"optional":5078,"istribut":5079,"Ġprovider":5080,"Ġtoo":5081,"authentic":5082,"identifier":5083,"ocker":5084,"Ġdst":5085,"failUnless":5086,"URE":5087,"fp":5088,"ctest":5089,"factor":5090,"Ġbutton":5091,"Ġ//":5092,"generator":5093,"console":5094,"ULL":5095,"redis":5096,"Ġwere":5097,"Ġ,":5098,"Ġtables":5099,"cessary":5100,"Ġgl":5101,"ĠDummy":5102,"details":5103,"BASE":5104,"ĠĠĠĠĠĠĠĠĠĠĠĠĠĠĠĠĠĠĠĠĠĠĠĠĠĠĠĠĠĠĠĠĠĠĠĠĠĠĠĠĠ":5105,"ynchron":5106,"COL":5107,"metrics":5108,"ĠSOFTWARE":5109,"Ġflat":5110,"Label":5111,"ula":5112,"Ġ-=":5113,"Ġts":5114,"got":5115,"NOT":5116,"/$',":5117,"Ġcounter":5118,"Ġ[[":5119,"divid":5120,"ha":5121,"Ġtimes":5122,"Ġfl":5123,"Ġtimedelta":5124,"Ġidentifier":5125,"Ġdownload":5126,"Button":5127,"([\"":5128,"Access":5129,"Ġalias":5130,"]).":5131,"Report":5132,"':'":5133,"ACT":5134,"Ġgenerator":5135,"84":5136,"Many":5137,"Ġfailure":5138,"27":5139,"gre":5140,"pace":5141,"Collection":5142,"ĠFake":5143,"Ġdisk":5144,"Driver":5145,"management":5146,"helpers":5147,"Ġperiod":5148,"ĠStat":5149,"Ġprop":5150,"inder":5151,"mitted":5152,"Lib":5153,"power":5154,"editor":5155,"HERE":5156,"ird":5157,"lap":5158,"Ġuseful":5159,"ev":5160,"edia":5161,"validation":5162,"ntity":5163,"chem":5164,"ĠRed":5165,"extract":5166,"qs":5167,"IntegerField":5168,"NING":5169,"Author":5170,"Ġscipy":5171,"Ġcomplete":5172,"_%":5173,"Ġvector":5174,"Ġmail":5175,"Ġrunner":5176,"cf":5177,"Header":5178,".\\":5179,"assertIsInstance":5180,"\"'":5181,"asure":5182,"===":5183,"ilar":5184,"internal":5185,"',)":5186,"Settings":5187,"absolute":5188,"Ġtake":5189,"cpu":5190,"Ġresources":5191,"Ġeditor":5192,"VENT":5193,"Ġbound":5194,"Core":5195,"statement":5196,"vec":5197,"arm":5198,"_)":5199,"abstract":5200,"Ġversions":5201,"riend":5202,"ube":5203,"ĠĠĠĠĠĠĠĠĠĠĠĠĠĠĠĠĠĠĠĠĠĠĠĠĠĠĠĠĠĠĠĠĠĠĠĠĠĠĠĠĠĠĠ":5204,"ĠTangible":5205,"ĠMagicMock":5206,"ipient":5207,"Rout":5208,"warnings":5209,"Ġitertools":5210,"'%":5211,"ws":5212,"Ġoc":5213,"ĠServer":5214,"Api":5215,"Ġyaml":5216,"DATE":5217,"Ġincluding":5218,"allclose":5219,"atio":5220,"game":5221,"refresh":5222,"rays":5223,"Provider":5224,"Ġ50":5225,"grade":5226,"transaction":5227,"STATUS":5228,"lang":5229,"(\"\\":5230,"wx":5231,"Ġok":5232,"uest":5233,"Ġblob":5234,"Ġmodify":5235,"Ġpa":5236,"const":5237,"ĠBuild":5238,"hn":5239,"openstack":5240,"orator":5241,"player":5242,"original":5243,"expression":5244,"Ġenviron":5245,"SELECT":5246,"INTER":5247,"aff":5248,"Ġneutron":5249,"inv":5250,"andid":5251,"manual":5252,"FORMAT":5253,"ulk":5254,"Dep":5255,"external":5256,"39":5257,"dst":5258,"Ġrepresentation":5259,"Ġcombin":5260,"aving":5261,"inputs":5262,"='',":5263,"ĠUpdate":5264,"></":5265,"Ġdistribution":5266,"ius":5267,"ĠThese":5268,"bal":5269,"cores":5270,"Job":5271,"=-":5272,"cred":5273,"Ġsources":5274,"CTION":5275,"tion":5276,")',":5277,"watch":5278,"Can":5279,"subprocess":5280,"Ġnoqa":5281,"framework":5282,"snapshot":5283,"oll":5284,"Ġmeans":5285,"uint":5286,"configure":5287,"2014":5288,"documents":5289,"beta":5290,"Ġwell":5291,"generic":5292,"Record":5293,"come":5294,"Encoder":5295,"Ġlayout":5296,"ĠWork":5297,"contains":5298,"Ġrules":5299,"Ġsecret":5300,"execution":5301,")(":5302,"/\"":5303,"Ġsets":5304,"Parameter":5305,"ĠQuery":5306,"curr":5307,"Ġsafe":5308,"credentials":5309,"lert":5310,"Ġbegin":5311,"Ġnumbers":5312,"ĠMIT":5313,"Ġloaded":5314,"Ġboolean":5315,"08":5316,"mq":5317,"ĠTask":5318,"Ġaddr":5319,"dividual":5320,"workflow":5321,"NUM":5322,"amer":5323,"Ġlocale":5324,"fficient":5325,"ili":5326,"ara":5327,"ifact":5328,"reason":5329,"MAP":5330,"draw":5331,"members":5332,"Ġagent":5333,"istent":5334,"blank":5335,"Ġcy":5336,"Ġsender":5337,"Ġimports":5338,"sender":5339,"hq":5340,"('_":5341,"ifications":5342,"ĠHel":5343,"visit":5344,"repository":5345,"zen":5346,"ĠLI":5347,"ategy":5348,"Work":5349,">\"":5350,"Ġ42":5351,"deleted":5352,"////":5353,"okies":5354,"many":5355,"ips":5356,"Ġmetric":5357,"asy":5358,"Ġknow":5359,"constants":5360,"LOW":5361,"vals":5362,"summary":5363,"Ġduring":5364,"PR":5365,"Ġchart":5366,"wer":5367,"Ġvarious":5368,"utation":5369,"Ġdump":5370,"]):":5371,"bits":5372,"Ġrad":5373,"closed":5374,"Formatter":5375,"sequence":5376,"Ġbox":5377,"sity":5378,"28":5379,"Ġconditions":5380,"projects":5381,"(('":5382,"Ġrevision":5383,"Ġstill":5384,"span":5385,"center":5386,"dns":5387,"rift":5388,"Ġsock":5389,"Ġ2011":5390,"Ġtermin":5391,"Mod":5392,"uni":5393,"ĠCall":5394,"ĠPost":5395,"Ġserializer":5396,"TeX":5397,"DES":5398,"Ġhttplib":5399,"Ġbelow":5400,"gmail":5401,"]+)":5402,"Ġpixel":5403,"asc":5404,"Ġenable":5405,"mbols":5406,"Ġcurrently":5407,"ever":5408,"primary":5409,"Act":5410,"ART":5411,"Ġfuture":5412,"ĠTable":5413,"Ġgrid":5414,"Ġloader":5415,"\\'":5416,"ĠRead":5417,"Multi":5418,"uman":5419,"DED":5420,"ĠIOError":5421,"Mode":5422,"sn":5423,"Ġdot":5424,"ĠMan":5425,"final":5426,"SM":5427,"soft":5428,"fixtures":5429,"RECT":5430,"Ġthose":5431,"Ġfit":5432,"parameter":5433,"edges":5434,"gres":5435,"Ġslice":5436,"arison":5437,"Sec":5438,".\",":5439,"operator":5440,"Cho":5441,"([[":5442,"]+":5443,"ĠSystem":5444,"Ġyet":5445,"Ġzero":5446,"Ġ).":5447,"Ġauthentication":5448,"199":5449,"high":5450,"failed":5451,"hone":5452,"integer":5453,"quot":5454,"ĠNumber":5455,"Ġsomething":5456,"ategories":5457,"scriptor":5458,"entries":5459,"Ġder":5460,"ĠFlask":5461,"vance":5462,"Ġdeleted":5463,"ModelAdmin":5464,"Ġinputs":5465,"wall":5466,"aging":5467,"Extension":5468,"HEAD":5469,"[:]":5470,"Ġalgorithm":5471,"Ġsublime":5472,"fully":5473,"PIPE":5474,"Helper":5475,"adding":5476,"Ġast":5477,"Ġactions":5478,"dapter":5479,"DER":5480,"lots":5481,"Ġdeprecated":5482,"spaces":5483,"BUT":5484,"etadata":5485,"sqrt":5486,"IF":5487,"pet":5488,"ĠCO":5489,"machine":5490,"ĠExamples":5491,"Device":5492,"COMM":5493,"Ġcached":5494,"__),":5495,"Ġ------------------------------------------------":5496,"such":5497,"Ġcharacters":5498,"Ġfname":5499,"00000000":5500,"CRET":5501,"ĠInteger":5502,"rappe":5503,"changes":5504,"AX":5505,"Ġnotice":5506,"Ġwords":5507,"Ġpl":5508,"ked":5509,"vector":5510,"ĠCre":5511,"cording":5512,"dr":5513,"Ġ[('":5514,"Part":5515,"hour":5516,"Ġexclude":5517,"processing":5518,"na":5519,"Ġweight":5520,"iver":5521,"ĠService":5522,"getvalue":5523,"Jo":5524,"Password":5525,"sim":5526,"condition":5527,"ĠLaTeX":5528,"Ġcorresponding":5529,"multiple":5530,"pear":5531,"Ġdelta":5532,"roid":5533,"etc":5534,"Ġ['_":5535,"bob":5536,"Ġvalidation":5537,"Builder":5538,"Ġperson":5539,"MAIL":5540,"ports":5541,"45":5542,"connected":5543,"poly":5544,"Ġtopic":5545,"REQUEST":5546,"Ġ13":5547,"Ġmedia":5548,"question":5549,"enable":5550,"Ġvm":5551,"Transport":5552,"Container":5553,"Vis":5554,"Ġorg":5555,"herit":5556,"MD":5557,"Ġconstants":5558,"ongo":5559,"Ġlin":5560,"ĠOutput":5561,"Ġcloud":5562,"ĠWeb":5563,">',":5564,"Layout":5565,"PES":5566,"Auto":5567,"OPY":5568,"uplicate":5569,"Ġtakes":5570,"Ġpartic":5571,"ike":5572,"rip":5573,"Ġoslo":5574,"ĠCOPY":5575,"strict":5576,"pus":5577,"gative":5578,"creen":5579,"Ġexecution":5580,"ĠOrderedDict":5581,"Ġautomatically":5582,"Ġzone":5583,"07":5584,"Ġiterable":5585,"Feed":5586,"Ġmaximum":5587,"Ġhashlib":5588,"steps":5589,"('/')":5590,"Ġagainst":5591,"pn":5592,"cols":5593,"irst":5594,"awn":5595,"Ġstructure":5596,"ifies":5597,"flavor":5598,"Ġscheduler":5599,"}'":5600,"Ġconstraint":5601,"Deferred":5602,"Ġrepresenting":5603,"Location":5604,"Ġus":5605,"lists":5606,"leting":5607,"texinfo":5608,"ĠConnection":5609,"decorators":5610,"mediate":5611,"road":5612,"Fake":5613,"uate":5614,"complex":5615,"Ġfunctools":5616,"amount":5617,"selected":5618,"Ġdocs":5619,"DIS":5620,"team":5621,"Exit":5622,"Ġ?":5623,"ceed":5624,"Received":5625,"ĠOther":5626,"contact":5627,"verter":5628,"Ġscore":5629,"listen":5630,"Ġdefine":5631,"ĠCode":5632,"MIT":5633,"Ġ')":5634,"strings":5635,"Ġenabled":5636,"Listener":5637,"Ġpandas":5638,"arange":5639,"targets":5640,"Ġdefinition":5641,"Ġicon":5642,"ICE":5643,"Ġcv":5644,"Ġbehavior":5645,"Ġorigin":5646,"Ġdistutils":5647,"Ġmatching":5648,"Ġsecurity":5649,"Ġspecial":5650,"ilities":5651,"ĠPre":5652,"Ġoptim":5653,"AA":5654,"chart":5655,"ĠAS":5656,"tensor":5657,"Ġdestination":5658,"recv":5659,"Ġcsv":5660,"Ġallows":5661,"__))":5662,"Ġconstruct":5663,"istic":5664,"Ġids":5665,"Policy":5666,"inary":5667,"screen":5668,"nsure":5669,"Ġnecessary":5670,"Ġrequested":5671,"FIL":5672,"Ġindependent":5673,"__(*":5674,"quick":5675,"orizon":5676,"ball":5677,"ru":5678,"sym":5679,"roles":5680,"ARY":5681,"tegration":5682,"atom":5683,"Match":5684,"Ġdummy":5685,"Ġfill":5686,"sparse":5687,"resolve":5688,"timer":5689,"world":5690,"Ġfilenames":5691,"Ġsym":5692,"Programming":5693,"Ġ14":5694,"ducer":5695,"TEMPLATE":5696,"Ġseries":5697,"depth":5698,"Ġlower":5699,"Ġleast":5700,"59":5701,"utdown":5702,"ĠĠĠĠĠĠĠĠĠĠĠĠĠĠĠĠĠĠĠĠĠĠĠĠĠĠĠĠĠĠĠĠĠĠĠĠĠĠĠĠĠĠ":5703,"Ġ[-":5704,"ĠXXX":5705,"ĠClass":5706,"blog":5707,"Ġgrad":5708,"retri":5709,"Reader":5710,"Ġlater":5711,"ĠDocumentation":5712,":-":5713,"BACK":5714,"rozen":5715,"colors":5716,"ka":5717,"Ġvert":5718,"ipher":5719,"rr":5720,"timezone":5721,"76":5722,"31":5723,"{{":5724,"Ġmove":5725,"ĠWS":5726,"Style":5727,"Ġdraw":5728,"Ġmatplotlib":5729,"Ġtoday":5730,")],":5731,"Ġdispatch":5732,"duration":5733,"astype":5734,"500":5735,"asset":5736,"hand":5737,"Ġpypy":5738,"Ġimplemented":5739,"Mon":5740,"IME":5741,"ĠLoad":5742,"pending":5743,"ragment":5744,"Ġrendered":5745,"Temp":5746,"ĠView":5747,"So":5748,"parsed":5749,"ĠUSE":5750,"letter":5751,"fun":5752,"Ġscheme":5753,"person":5754,"ĠNetwork":5755,"sqlite":5756,"Doc":5757,"signed":5758,"allowed":5759,"uation":5760,"scalar":5761,"jor":5762,"Ġpid":5763,"bosity":5764,"pipeline":5765,"Ġisn":5766,"wiki":5767,"Ġindividual":5768,"Defin":5769,"ĠSc":5770,"Ġbits":5771,"Ġactiv":5772,"Ġlists":5773,"Ġtransport":5774,"MAIN":5775,"six":5776,"ialog":5777,"=\"\"":5778,"Ġprev":5779,"upported":5780,"subnet":5781,"ric":5782,"epcopy":5783,"Ġmaps":5784,"dashboard":5785,"mapper":5786,"origin":5787,"Ġ'#":5788,"Ġvisit":5789,"cost":5790,"Custom":5791,"OUR":5792,"ĠFoundation":5793,"backup":5794,"rupt":5795,"addCallback":5796,"more":5797,"Rule":5798,"Ġmight":5799,"Email":5800,"ĠAUTH":5801,"Ġbest":5802,"ystems":5803,"istics":5804,"Detail":5805,"gers":5806,"Ġcat":5807,"Ġwrapped":5808,"Ġequ":5809,"GB":5810,"Ġconsole":5811,"Handle":5812,"counts":5813,"fixed":5814,"MES":5815,"elem":5816,"ĠModule":5817,"Ġdecl":5818,"cipe":5819,"Ġimplements":5820,"Redirect":5821,"Ġpublish":5822,"Ġcontroller":5823,"Ġsignature":5824,"ĠPY":5825,"400":5826,"Flow":5827,"pm":5828,"Ġamount":5829,"nail":5830,"scripts":5831,"Ġavoid":5832,"structure":5833,"Ġexplicit":5834,"codes":5835,"2013":5836,"sired":5837,"Lock":5838,"Created":5839,"2016":5840,"Ġassume":5841,"Ġmem":5842,"Ġdecimal":5843,"Ġev":5844,"ĠFunction":5845,"Ġprivate":5846,"constraint":5847,"stanti":5848,"Ġconst":5849,"Ġcomponents":5850,"Ġtimezone":5851,"alys":5852,"Ġwarning":5853,"Ġday":5854,"ĠBe":5855,"ĠInter":5856,"Ġregistered":5857,"Ġtyp":5858,"APP":5859,"__['":5860,"Database":5861,"GER":5862,"Ġlow":5863,"ptr":5864,"exe":5865,"ĠLine":5866,"Ġnullable":5867,"Ġcalling":5868,"EW":5869,"ĠAR":5870,"amera":5871,"alysis":5872,"ints":5873,"listener":5874,"Ġyear":5875,"without":5876,"ele":5877,"mm":5878,"PASS":5879,"mult":5880,"90":5881,"poll":5882,"Ġmetrics":5883,"ĠSpec":5884,"Ġ25":5885,"She":5886,"_):":5887,"Ġexact":5888,"Ġcookie":5889,"Ġconnections":5890,"supported":5891,"uses":5892,"Ġcoordin":5893,"iling":5894,"boo":5895,"mous":5896,"operation":5897,"/(?":5898,"SIG":5899,",),":5900,"ĠAdditional":5901,"Ġdescrib":5902,"records":5903,"Ġactually":5904,"Ġatom":5905,"Ġbasestring":5906,"Ġstuff":5907,"ighb":5908,"iso":5909,"signature":5910,"++":5911,"Ġwriter":5912,"Ġhostname":5913,"Ġcs":5914,":])":5915,"adapt":5916,"FIEL":5917,"SERVER":5918,"compatible":5919,"Script":5920,"Ġplay":5921,"Ġhelper":5922,"amma":5923,"ĠGe":5924,"equals":5925,"Dictionary":5926,"ĠHe":5927,"Pick":5928,"alloc":5929,"Ali":5930,"Ġmade":5931,"ope":5932,"tep":5933,"begin":5934,"covery":5935,"irc":5936,"need":5937,"ctype":5938,"GHT":5939,"Ġconsumer":5940,"5678":5941,"Ġhome":5942,"Ġlarge":5943,"CI":5944,"press":5945,"ively":5946,"Generate":5947,"Ġnorm":5948,"URI":5949,"alth":5950,"ĠOTHER":5951,"Ġplan":5952,"forum":5953,"serializer":5954,"monitor":5955,"Ġcross":5956,"Ġdid":5957,"Ġmime":5958,"ĠTEST":5959,"ORE":5960,"reshape":5961,"prepare":5962,"Ġkernel":5963,"ashes":5964,"fire":5965,"Ġentities":5966,"Ġ''.":5967,"STRING":5968,"Ġns":5969,"logy":5970,"SECRET":5971,"cursive":5972,"px":5973,"requency":5974,"Ġrdf":5975,"Ġitself":5976,"ouse":5977,"Channel":5978,"Ġclick":5979,"Ġidentity":5980,"Ġmonth":5981,"authors":5982,"runtime":5983,"Ġ2010":5984,"AndReturn":5985,"refs":5986,"migrations":5987,"reactor":5988,"oth":5989,"Web":5990,"ĠArgument":5991,"INST":5992,"collect":5993,"Ġmodified":5994,"cleaned":5995,"alg":5996,"ĠDAT":5997,"geo":5998,"lopen":5999,"break":6000,"chan":6001,"Sequence":6002,"Ġ<<":6003,"Ġcharacter":6004,"gz":6005,"{%":6006,"/<":6007,"Ġannot":6008,"TYPES":6009,"twisted":6010,"igrate":6011,"[^":6012,"ulated":6013,"Ġindices":6014,"predict":6015,"resolvers":6016,"Ġlon":6017,"Url":6018,"vides":6019,"ĠĠĊ":6020,"fast":6021,"Ġdig":6022,"ĠOne":6023,"UNT":6024,"Ġretry":6025,"PREFIX":6026,"uess":6027,"omial":6028,"ĠHow":6029,"CA":6030,"ĠPermission":6031,"Ġvim":6032,"*.":6033,"ĠIs":6034,"latest":6035,"ĠQueue":6036,"Ġpartial":6037,"nx":6038,"linear":6039,"Timeout":6040,"bra":6041,"Ġhistory":6042,"Ġ\"_":6043,"lyph":6044,"ĠInstance":6045,"Ġworksheet":6046,"ĠOnly":6047,"Ġtornado":6048,"Configuration":6049,"ĠValidationError":6050,"sources":6051,"89":6052,"Reference":6053,"mysql":6054,"Ġattach":6055,"OB":6056,"ĠSome":6057,"Engine":6058,"CLASS":6059,"follow":6060,"mc":6061,"Local":6062,"Ġknown":6063,"Ġrecords":6064,"Ġsupports":6065,"maining":6066,"Role":6067,"ĠLe":6068,"Connect":6069,"based":6070,"Ġwritten":6071,"_:":6072,"Ġgood":6073,"Generator":6074,"lim":6075,"distance":6076,"Ġhandlers":6077,"logo":6078,"lencode":6079,"Ġaround":6080,"Package":6081,"Ġorig":6082,"auss":6083,"ĠSp":6084,"separ":6085,"Ġhapp":6086,"ĠInt":6087,"ACHE":6088,"Wor":6089,"ivar":6090,"Ġroute":6091,"enerated":6092,"ket":6093,"Types":6094,"Ġabstract":6095,">`":6096,"unpack":6097,"variables":6098,"atar":6099,"Ġcla":6100,"Ġelem":6101,"gon":6102,"ĠLib":6103,"Ġ}}":6104,"eric":6105,"Ġrouter":6106,"gp":6107,"umbnail":6108,"Ġauthentic":6109,"Ġpipeline":6110,"Row":6111,"49":6112,"Ġproblem":6113,"ĠVER":6114,"Ġrefer":6115,"price":6116,"tle":6117,"Ġregistry":6118,"Ġsymbol":6119,"ĠNOTE":6120,":',":6121,"sertion":6122,"1111":6123,"Tool":6124,"Regex":6125,"ĠSession":6126,"Files":6127,"agraph":6128,"green":6129,"same":6130,"lict":6131,"servation":6132,"mime":6133,"ĠMatrix":6134,"ENTI":6135,"Ġworking":6136,"Order":6137,"Ġ()":6138,"ges":6139,"implement":6140,"cancel":6141,"segment":6142,"Ġcreating":6143,"Socket":6144,"Ġ19":6145,"SV":6146,"Ġbackwards":6147,"jax":6148,"logs":6149,"Ġcorrectly":6150,"ĠOSError":6151,"AGS":6152,"paper":6153,"scriptions":6154,"ral":6155,"Ġtt":6156,"ardown":6157,"functions":6158,"DIA":6159,"finder":6160,"unic":6161,"dc":6162,"ayment":6163,"tected":6164,"hidden":6165,"ĠĠĠĠĠĠĠĠĠĠĠĠĠĠĠĠĠĠĠĠĠĠĠĠĠĠĠĠĠĠĠĠĠĠĠĠĠĠĠĠĠĠĠĠ":6166,"isdir":6167,"Ġnx":6168,"stdin":6169,"jar":6170,"Ġpur":6171,"avig":6172,"#------------------------------------------------------------------------":6173,"Some":6174,"dependency":6175,"âĶ":6176,"orig":6177,"Ġtz":6178,"Ġsha":6179,"double":6180,"ensure":6181,")')":6182,"processors":6183,"Ġsleep":6184,"Unit":6185,"Ġfast":6186,"executable":6187,"ĠAdding":6188,"ĠImp":6189,"ĠTag":6190,"scan":6191,"ĠNew":6192,"ĠWSGI":6193,"lave":6194,"lsx":6195,"freq":6196,"Ġtick":6197,"isfile":6198,"conv":6199,"reply":6200,"COMP":6201,"Ġfinished":6202,"85":6203,"Dialog":6204,"Ġpred":6205,"ĠRaises":6206,"Unknown":6207,"Ġinitialize":6208,"Float":6209,"DELETE":6210,"ĠPAR":6211,"timedelta":6212,"ivalen":6213,"seek":6214,"Ġcopied":6215,"Could":6216,"Over":6217,"browser":6218,"pdf":6219,"capt":6220,"interfaces":6221,"existing":6222,"selection":6223,"Ġsamples":6224,"olved":6225,"')))":6226,"shift":6227,"Ġservices":6228,"TINGS":6229,"UI":6230,"aginator":6231,"Basic":6232,"ĠItem":6233,"Ġsaved":6234,"Ġupdates":6235,"Ġdev":6236,"ĠGraph":6237,"Ġdistance":6238,"ĠProtocol":6239,"partial":6240,"Ġconstructor":6241,"')[":6242,"Metadata":6243,"Ġpi":6244,"iler":6245,"Ġcondition":6246,"Ġencoded":6247,"Ġoverwrite":6248,"Loop":6249,"Ġopenstack":6250,"lick":6251,"CRI":6252,"ĠURI":6253,"Description":6254,"fc":6255,"Ġpush":6256,"Ġsess":6257,"Ġlineno":6258,"urity":6259,"responses":6260,"Ġbottom":6261,"limiter":6262,"gy":6263,"Ġquot":6264,"Ġsyntax":6265,"week":6266,"abilities":6267,"ĠProcess":6268,"ancer":6269,"Ġmapper":6270,"CESS":6271,"Ġseed":6272,"ĠQtGui":6273,"ĠPath":6274,"Op":6275,"tar":6276,"Ġds":6277,"iteral":6278,"channels":6279,"ĠOAuth":6280,"Last":6281,"ks":6282,"Only":6283,"allback":6284,"Mo":6285,"ĠStr":6286,"Min":6287,"\"\")":6288,"itespace":6289,"Write":6290,"Inline":6291,"echo":6292,"dictions":6293,"LOAD":6294,"ffset":6295,"pickle":6296,"Ġsklearn":6297,"'d":6298,"onymous":6299,"PACE":6300,"submit":6301,"============":6302,"ced":6303,"Ġ1024":6304,"percent":6305,"Ġstates":6306,"effs":6307,"Ġappear":6308,"nb":6309,"Ġssl":6310,"validator":6311,"TRIBUT":6312,"Max":6313,"inner":6314,"Ġresolve":6315,"TEXT":6316,"live":6317,"ĠBad":6318,"Ġsimp":6319,"ĠAdmin":6320,"ĠPublic":6321,"Ġclosed":6322,"ggest":6323,"collector":6324,"Configured":6325,"Ġpairs":6326,"apped":6327,"bum":6328,"DULE":6329,"dimension":6330,"Ġrate":6331,"Ġplugins":6332,"ĠAc":6333,"ĠNS":6334,"ium":6335,"ulator":6336,"Ġ\"\"\")":6337,"ĠĠĠĠĠĠĠĠĠĠĠĠĠĠĠĠĠĠĠĠĠĠĠĠĠĠĠĠĠĠĠĠĠĠĠĠĠĠĠĠĠĠĠĠĠ":6338,"001":6339,"foot":6340,"Copyright":6341,"Ġinside":6342,"Ġterm":6343,"VALID":6344,"âĶĢ":6345,"sin":6346,"Ġnested":6347,"area":6348,"compress":6349,"precation":6350,"FT":6351,"Agent":6352,"128":6353,"oom":6354,"keyword":6355,"specs":6356,"Permission":6357,"ValidationError":6358,"enum":6359,"syntax":6360,"war":6361,"raries":6362,"ba":6363,"visor":6364,"Editor":6365,"\\.":6366,"Ġsn":6367,"Ġfil":6368,"Ġones":6369,"Position":6370,"roadcast":6371,"ICES":6372,"Ġreferences":6373,"Ġms":6374,"Ġproto":6375,"Ġfails":6376,"Ass":6377,"('<":6378,"units":6379,"sters":6380,"ĠAnd":6381,"ĠPOST":6382,"ipv":6383,"sessions":6384,"signals":6385,"symbol":6386,"RIGHT":6387,"Series":6388,"CODE":6389,"Choice":6390,"ĠSH":6391,"ONG":6392,"Ġiterator":6393,"Ġsegment":6394,"Ġboto":6395,"Ġdrop":6396,"ĠOper":6397,"progress":6398,"oked":6399,"urllib":6400,"Clean":6401,"ĠSchema":6402,"ĠMulti":6403,"________":6404,"priority":6405,"Ad":6406,"mongo":6407,"Ġ24":6408,"bundle":6409,"(\"-":6410,"Ġworkflow":6411,"assertNotEqual":6412,"}/":6413,"how":6414,"Ġcorehq":6415,"Ġfmt":6416,"Ġplayer":6417,"bsite":6418,"Ġgame":6419,"Ġfoot":6420,"Ġgre":6421,"Ġchecks":6422,"Collector":6423,"ĠParse":6424,"Ġnothing":6425,"NAMES":6426,"Django":6427,"('.')":6428,"IGN":6429,"klass":6430,"ĠPage":6431,"setter":6432,"AST":6433,"RPC":6434,"bed":6435,"Ġfactor":6436,"LOCK":6437,"schem":6438,"ĠCLI":6439,"79":6440,"ned":6441,"FC":6442,"atial":6443,"Ġcreation":6444,"Ġapps":6445,"xs":6446,"Ġunknown":6447,"ably":6448,"ef":6449,"âĶĢâĶĢ":6450,"ĠChange":6451,"nested":6452,"Ġcollect":6453,"DIRECT":6454,"rive":6455,"ĠFoo":6456,"readline":6457,"Ġordering":6458,"prev":6459,"lso":6460,"ĠEd":6461,"odoc":6462,"Ġexport":6463,"Ġ404":6464,"visible":6465,"article":6466,"weights":6467,"lies":6468,"ĠRemove":6469,"duction":6470,"Ġround":6471,"Ġgrant":6472,"We":6473,"Ġweights":6474,"Ġ(-":6475,"LIST":6476,"VALUE":6477,"Ġredis":6478,"Ġscan":6479,"Ġll":6480,"Site":6481,"ĠCan":6482,"CLUD":6483,"align":6484,"ĠMGL":6485,"Ġlistener":6486,"accounts":6487,"dn":6488,"which":6489,":\"":6490,"=[\"":6491,"roperly":6492,"Ġproc":6493,"Comple":6494,"({\"":6495,"Used":6496,"WIT":6497,"filepath":6498,"ĠValue":6499,"Ġcb":6500,"Ġsupp":6501,"aemon":6502,"differ":6503,"previous":6504,"Ġresponses":6505,")}":6506,"WR":6507,"tmpdir":6508,"Ġcause":6509,"SU":6510,"Ġmk":6511,"Ġrot":6512,"sentry":6513,"(',":6514,"Sum":6515,"Root":6516,"Ġestim":6517,"scheduler":6518,"Ġdefaultdict":6519,"Ġoutputs":6520,"customer":6521,"foobar":6522,"dependencies":6523,"Cloud":6524,"ĠGeneric":6525,"receive":6526,"networks":6527,"hi":6528,"lier":6529,"ĠInitialize":6530,">')":6531,"Ġdelay":6532,"ĠWHERE":6533,"ading":6534,"ATIC":6535,"Lookup":6536,"Wh":6537,"Ġunits":6538,"fine":6539,"Ġgeneric":6540,"addresses":6541,"definition":6542,"smart":6543,"ĠStart":6544,"amble":6545,")\\":6546,"Ġargv":6547,"ĠShould":6548,"~~~~~~~~~~~~~~~~":6549,"Red":6550,"aws":6551,"###############":6552,"PTION":6553,"Ġstarting":6554,"blocks":6555,"aster":6556,"Ġpers":6557,"Ġboot":6558,"beat":6559,"mob":6560,"Fields":6561,"plain":6562,"gree":6563,"ii":6564,"strftime":6565,"matches":6566,"Ġprogress":6567,"=('":6568,"Ġspe":6569,"CK":6570,"Ġtrait":6571,"cons":6572,"sertionError":6573,"room":6574,"ocial":6575,"subscribe":6576,"Ġ255":6577,"CLI":6578,"ĠContext":6579,"ĠComment":6580,"ĠLocal":6581,"RC":6582,"orph":6583,"000000":6584,"'ll":6585,"Ġerrno":6586,"Transform":6587,"ĠAction":6588,"Ġcont":6589,"CannotContain":6590,"ĠindependentData":6591,"quare":6592,"notify":6593,"\"\\":6594,"ration":6595,"Ġhref":6596,"actual":6597,"csrf":6598,"uous":6599,"Ġcm":6600,"irs":6601,"Has":6602,"ially":6603,"Ġescape":6604,"Parent":6605,"Tab":6606,"impl":6607,"Ġvideo":6608,"ĠGET":6609,"disable":6610,"clone":6611,"dx":6612,"oring":6613,"Ġgra":6614,"viders":6615,"listdir":6616,"Ġxs":6617,"floating":6618,"Ġretrieve":6619,"href":6620,"DateTimeField":6621,"Mark":6622,"ended":6623,"traceback":6624,"Ġpriority":6625,"astic":6626,"ĠStatus":6627,"ivalent":6628,"Ġtenant":6629,"Names":6630,"\"/":6631,"Ġwatch":6632,"globals":6633,"Ġcomments":6634,"Feature":6635,"Entity":6636,"Directory":6637,"OKEN":6638,"Ġ2016":6639,"pairs":6640,"Ġ[{'":6641,"Ġcompare":6642,"Ġsphinx":6643,"Ġregular":6644,"assertIsNone":6645,"dep":6646,"antity":6647,"Ġemit":6648,"Ġteam":6649,"sume":6650,"neutron":6651,"ga":6652,"TF":6653,"Ġparsing":6654,"MAG":6655,"jam":6656,"2012":6657,"rd":6658,"Ġdesired":6659,"Volume":6660,"+'":6661,"cleanup":6662,"activate":6663,"Stub":6664,"big":6665,"strument":6666,"ĠConvert":6667,"ierarch":6668,"Ġstrftime":6669,"Enum":6670,"Ġbrowser":6671,"threshold":6672,"Edit":6673,"('',":6674,"ĠAny":6675,"ĠFilter":6676,"Stop":6677,"binding":6678,"Ġinner":6679,"ADDR":6680,"ĠAlso":6681,"Ġlisten":6682,"alendar":6683,"configs":6684,"Abstract":6685,"Random":6686,"Ġpoly":6687,"Ġ${":6688,"olds":6689,"Ġfixed":6690,"Ġnotification":6691,"ĠOver":6692,"dl":6693,"copi":6694,"trigger":6695,"deployment":6696,"APPS":6697,"threads":6698,"CLUDING":6699,"Ġ'[":6700,"relation":6701,"frames":6702,"Ġparticular":6703,"TOKEN":6704,"roperlyConfigured":6705,"Ġtm":6706,"Ġschedule":6707,"LD":6708,"ĠMark":6709,"}\\":6710,"ĠStop":6711,"ĠUnicode":6712,"DOMAIN":6713,"Ġnd":6714,"TextField":6715,"alf":6716,"demo":6717,"lying":6718,"hist":6719,"connections":6720,"epoch":6721,"family":6722,"yes":6723,"Ġklass":6724,"\"%":6725,"2000":6726,"draft":6727,"Ġ18":6728,"Ġurls":6729,"compare":6730,"================================================================":6731,"ĠGit":6732,"hooks":6733,"Endpoint":6734,"Ġcontributors":6735,"Cur":6736,"ixed":6737,"IST":6738,"Ġturn":6739,"examples":6740,"Ġinte":6741,"mtree":6742,"AF":6743,"program":6744,"Ġeffect":6745,"Ġblocks":6746,"destroy":6747,"CR":6748,"Ġduration":6749,"formatter":6750,"CACHE":6751,"coming":6752,"dims":6753,"VICE":6754,"forward":6755,"Ġbackup":6756,"Ġframework":6757,"Ġalong":6758,"ĠVERSION":6759,"ĠĠĠĠĠĠĠĠĠĠĠĠĊ":6760,"')])":6761,"Opt":6762,"UST":6763,"ĠDatabase":6764,"onical":6765,"EMAIL":6766,"NU":6767,"ĠJo":6768,"fra":6769,"Ġcurr":6770,"ĠVerify":6771,"mu":6772,"ĠDEBUG":6773,"wt":6774,"Ġthreads":6775,"cid":6776,"ĠFloat":6777,"mobile":6778,"Ġthings":6779,"sentinel":6780,"SETTINGS":6781,"METHO":6782,"andidate":6783,"300":6784,"Ġseen":6785,"outputs":6786,"Domain":6787,"partition":6788,"Ġautog":6789,"Ġtranslation":6790,"loss":6791,"ANCE":6792,"->":6793,"posed":6794,"Ġsec":6795,"TIMEOUT":6796,"ĠAD":6797,"Ġstarted":6798,"boolean":6799,"Ġselection":6800,"Ġhosts":6801,"Ġswitch":6802,"Ġdetermine":6803,"notification":6804,"plt":6805,"Ġsens":6806,"IZ":6807,"ensor":6808,"Ġconfigure":6809,"OCK":6810,"Ġ400":6811,"ridge":6812,"Ġrecent":6813,"acl":6814,"normalize":6815,"NESS":6816,"java":6817,"ERCH":6818,"Ġcompatibility":6819,"65":6820,"cum":6821,"have":6822,"{\"":6823,"sli":6824,"lent":6825,"Obj":6826,"under":6827,"TCP":6828,"jac":6829,"ĠDelete":6830,"BooleanField":6831,"PASSWORD":6832,":\",":6833,"datastore":6834,"aggregate":6835,"ALLED":6836,"ERCHANT":6837,"ROUP":6838,"38":6839,"multip":6840,"Ġsync":6841,"ĠApplication":6842,"Library":6843,"Ġdepth":6844,"otype":6845,"Product":6846,"allel":6847,"MagicMock":6848,"walk":6849,"ĠTry":6850,"='/":6851,"Ġ2009":6852,"getter":6853,"Ġreader":6854,"Ġprec":6855,"plus":6856,"bt":6857,"Ġfur":6858,"Ġ################################":6859,"RED":6860,"Ġserialize":6861,"wb":6862,"Ġansw":6863,"MT":6864,"ĠEach":6865,"ital":6866,"Ġtensor":6867,"setitem":6868,"Convert":6869,"ĠDataFrame":6870,"pad":6871,"Ġdoctest":6872,"urlresolvers":6873,"Ġfakes":6874,"Ġrep":6875,"ĠOptional":6876,"Topic":6877,"flask":6878,"Ġsl":6879,"chdir":6880,"ymbol":6881,"Ġflavor":6882,"kt":6883,"Memory":6884,"rank":6885,"Ġtools":6886,"Ġcomplex":6887,"OURCE":6888,"stmt":6889,"ĠSite":6890,"Ġcolors":6891,"9999":6892,"ascript":6893,"Execution":6894,"variance":6895,"Unable":6896,"finished":6897,"Multiple":6898,"Ġcr":6899,"Ġgets":6900,"Ġlocals":6901,"Ġchoice":6902,"Ġpixels":6903,"Send":6904,"authorized":6905,"rng":6906,"dom":6907,"Contains":6908,"Ġmac":6909,"Ġvalidator":6910,"Alchemy":6911,"Person":6912,"wrapped":6913,"Ġexamples":6914,"Ġprompt":6915,"Ġruns":6916,"ĠExec":6917,"ĠSSL":6918,"Ġasync":6919,"manifest":6920,"UNK":6921,"ynchronous":6922,"lev":6923,"Stats":6924,"Ġsq":6925,"callable":6926,"Allow":6927,"Make":6928,"spam":6929,"parsers":6930,"Validator":6931,"yntaxError":6932,"adoop":6933,"aling":6934,"optim":6935,"utcnow":6936,"48":6937,"Ġregard":6938,"CHE":6939,"star":6940,"Ġservers":6941,"Registry":6942,"translate":6943,"Ġ500":6944,"Ġtargets":6945,"cases":6946,"Ġkeywords":6947,"gun":6948,"ĠIndexError":6949,"CONTENT":6950,"crete":6951,"gui":6952,"ĠPoint":6953,"Ġjobs":6954,">=":6955,"best":6956,"avascript":6957,"DATAB":6958,"/{}":6959,"assemb":6960,"Ġhex":6961,"UND":6962,"Ġarr":6963,"WE":6964,"randn":6965,"Ġalign":6966,"anging":6967,"otify":6968,"ITNESS":6969,"=\"%":6970,"Comment":6971,"Ġmag":6972,"Coeffs":6973,"completed":6974,"cogn":6975,"prog":6976,"Ġrobot":6977,"Ġhighlight":6978,"organization":6979,"Ġcapt":6980,"Reactor":6981,"=_(\"":6982,"Ġthemes":6983,"********************************":6984,"Ġtb":6985,"ĠSkip":6986,"\"][\"":6987,"Ġ'*'":6988,"des":6989,"destination":6990,"cv":6991,"ctypes":6992,"acebook":6993,"pin":6994,"FR":6995,"Ġpip":6996,"Menu":6997,"leton":6998,"Ġnever":6999,"decorator":7000,"Binary":7001,"Ġcover":7002,"MODULE":7003,"orizont":7004,"Ġcompiler":7005,"atched":7006,"ĠinCoeffs":7007,"ĠToken":7008,"locals":7009,"ĠDA":7010,"Environment":7011,"rdf":7012,"Expected":7013,"Ġquote":7014,"Dummy":7015,"ragma":7016,"Ġhandling":7017,"prompt":7018,"Ġsqlite":7019,"Ġtrigger":7020,"sublime":7021,"Ġanything":7022,"2010":7023,"Ġ\"\",":7024,"randint":7025,"appro":7026,"kedirs":7027,"Mapping":7028,"ratio":7029,"Ġrev":7030,"Ġvirt":7031,"Usage":7032,"VAR":7033,"Ġ17":7034,"Popen":7035,"Example":7036,"ERCHANTABILITY":7037,"Tw":7038,"ensity":7039,"alect":7040,"car":7041,"Member":7042,"Ġrelationship":7043,"zeug":7044,"Ġglobals":7045,"Ġexpand":7046,"([(":7047,"iterator":7048,"Ġplaces":7049,"ULAR":7050,"windows":7051,"secure":7052,"Hash":7053,"mkdir":7054,"Ġdue":7055,"formed":7056,"LIED":7057,"Ġsidebar":7058,"}:":7059,"}{":7060,"Ġbundle":7061,"maps":7062,"inct":7063,"started":7064,"kzeug":7065,"ek":7066,"selector":7067,"hood":7068,"ĠMap":7069,"ĠNow":7070,"blue":7071,"chars":7072,"Ġnormalize":7073,"_{":7074,"keywords":7075,"ASK":7076,"ĠĠĠĠĠĠĠĠĠĠĠĠĠĠĠĠĠĠĠĠĠĠĠĠĠĠĠĠĠĠĠĠĠĠĠĠĠĠĠĠĠĠĠĠĠĠ":7077,"CHAR":7078,"phone":7079,"TS":7080,"Vert":7081,"fil":7082,"#'":7083,"Ġ':":7084,"compiler":7085,"Required":7086,"black":7087,"cus":7088,"confirm":7089,"Bytes":7090,"Ġsupplied":7091,"ico":7092,"rgb":7093,"widgets":7094,"Num":7095,"emit":7096,"kill":7097,"']]":7098,"Go":7099,"gi":7100,"adow":7101,"ection":7102,"Functions":7103,"cuts":7104,"Ġfooter":7105,".'''":7106,"Ġimported":7107,")\")":7108,"Ġsnapshot":7109,"gis":7110,"ndarray":7111,"riptor":7112,"fakes":7113,"Ġreplacement":7114,"Ġlang":7115,"ini":7116,"Ġless":7117,"Ġgrr":7118,"Ġprocessing":7119,"95":7120,"Pack":7121,"Ġ{%":7122,"tb":7123,"Ġscreen":7124,"ANY":7125,"Authentication":7126,"MB":7127,"Ġqueries":7128,"that":7129,"postgres":7130,"Ġ\"(":7131,"ĠOtherwise":7132,"hara":7133,"stit":7134,"ĠMERCHANTABILITY":7135,"Ob":7136,"Ġconfigured":7137,"dent":7138,"slots":7139,"Ġactor":7140,"ĠEnsure":7141,"ĠHandle":7142,"Ġpercent":7143,"ĠAct":7144,"Rest":7145,"Ġps":7146,"/.":7147,"_'":7148,"ctl":7149,"ĠĠĠĠĠĠĠĠĠĠĠĠĠĠĠĠĠĠĠĠĠĠĠĠĠĠĠĠĠĠĠĠĠĠĠĠĠĠĠĠĠĠĠĠĠĠĠ":7150,"Arg":7151,"Ġsignals":7152,"Ġmult":7153,"Ġthree":7154,"ĠOK":7155,"Ġrpc":7156,"native":7157,"oration":7158,"getcwd":7159,"Remote":7160,"ĠMethod":7161,"Ġoccur":7162,"does":7163,"Testing":7164,"endor":7165,"Ġui":7166,"IMIT":7167,"aves":7168,"Results":7169,"ĠPerson":7170,"clus":7171,"avigation":7172,"fr":7173,"ĠreST":7174,"Ġreduce":7175,"Ġct":7176,"ĠUsage":7177,"Ġcost":7178,"Ġproduce":7179,"ĠDeleting":7180,"installed":7181,"ĠSign":7182,"Ġvery":7183,"Values":7184,"commun":7185,"ĠTwisted":7186,"Ġdirname":7187,"Ġchunks":7188,"analy":7189,"ĠBoolean":7190,"struction":7191,"Missing":7192,"ircle":7193,"Close":7194,"Ġsimilar":7195,"bla":7196,"aker":7197,"licies":7198,"Parameters":7199,"king":7200,"67":7201,"intain":7202,"POSE":7203,"lems":7204,"versed":7205,"SY":7206,"Track":7207,"aussian":7208,"argin":7209,"Ġsv":7210,"may":7211,"servable":7212,"Constraint":7213,"Ġsuc":7214,"Ter":7215,"ĠSm":7216,"Remove":7217,"Ġlogs":7218,"Ġproperly":7219,"Ġ'/'":7220,"\"].":7221,"dig":7222,"Ġcontact":7223,"eep":7224,"OwnerId":7225,"Poly":7226,"]}":7227,"Ġcu":7228,"ripts":7229,"orizontal":7230,"Ġpr":7231,"sur":7232,"Ġpacket":7233,"linux":7234,"mut":7235,"Ġ----------------------------------------":7236,"geom":7237,"male":7238,"good":7239,"ĠDon":7240,"Ġuni":7241,"assertIsNot":7242,"mtime":7243,"tions":7244,"velopers":7245,"experiment":7246,"Ġmakes":7247,"cmp":7248,"DataFrame":7249,"virtual":7250,"AV":7251,"IR":7252,"]],":7253,"jamas":7254,"country":7255,"Ġdirection":7256,"SUB":7257,"ograph":7258,"httplib":7259,"marker":7260,"Ġinserted":7261,"Ġssh":7262,"Ġtraining":7263,"ĠMod":7264,"etree":7265,"ĠPlease":7266,"white":7267,"PROJECT":7268,"tcp":7269,"Ġcred":7270,"ĠAbstract":7271,"Attr":7272,"additional":7273,"Ġautogenerated":7274,"mes":7275,"gether":7276,"ffff":7277,"ĠDevelopment":7278,"ĠCor":7279,"clusive":7280,"gid":7281,"authenticated":7282,"ĠMo":7283,"Ġconnected":7284,"Pickle":7285,"*(":7286,"Ġunpack":7287,"initialize":7288,"ĠRel":7289,"osite":7290,"87":7291,"ells":7292,"formats":7293,"THON":7294,"ama":7295,"jid":7296,"deepcopy":7297,"pix":7298,"chor":7299,"tached":7300,"/?":7301,"Ġmarker":7302,"cnt":7303,"Ġbug":7304,"ĠContain":7305,"Ġpower":7306,"ationTest":7307,"Items":7308,"Ġupper":7309,"Av":7310,"Ġconv":7311,"dio":7312,"Ġsur":7313,"Ġcodecs":7314,"ĠArray":7315,"park":7316,"Ġstrip":7317,"dp":7318,"mot":7319,"repeat":7320,"Ġready":7321,"ĠInput":7322,"ĠAddress":7323,"CHO":7324,"Ġreply":7325,"Ġ{}'.":7326,"isode":7327,">,":7328,"share":7329,"mbic":7330,"Ġformatted":7331,"Ġclone":7332,"OwnerAccount":7333,"`)":7334,"ĠPUR":7335,"ARD":7336,"Ġcc":7337,"Ġmis":7338,"ĠWor":7339,"Matrix":7340,"efficient":7341,"moving":7342,"Ġ64":7343,"cookies":7344,"ĠPlugin":7345,"Success":7346,"={}":7347,"MAC":7348,"volumes":7349,"copia":7350,"Ġ\"#":7351,"IDD":7352,"uffle":7353,"resize":7354,"updates":7355,"ĠConfiguration":7356,"Ġbig":7357,"Ġfunctionality":7358,"findall":7359,"must":7360,"ros":7361,"Ġpanel":7362,"Ġinstanti":7363,"Ġmachine":7364,"DEX":7365,"rename":7366,"ĠSelect":7367,"ĠOUT":7368,"pping":7369,"bottom":7370,"47":7371,"Pipe":7372,"Ġes":7373,"ĠLIMIT":7374,"preter":7375,"CUR":7376,"Ġgeneral":7377,"FS":7378,"apsed":7379,"Ġbackground":7380,"MAGE":7381,"flatten":7382,"aliases":7383,"acquire":7384,"ailability":7385,"Ġinitialized":7386,"10000":7387,"Wait":7388,"rmtree":7389,"ĠDecimal":7390,"Empty":7391,"ĠAd":7392,"Upload":7393,"Ġtf":7394,"ĠIPv":7395,"WORK":7396,"spawn":7397,"Ġbeta":7398,"Ġuid":7399,"Step":7400,"band":7401,"dic":7402,"ĠArticle":7403,"192":7404,"ogram":7405,"egg":7406,"lon":7407,"scores":7408,"setattr":7409,"Ġable":7410,"ĠImproperlyConfigured":7411,"gate":7412,"contin":7413,"ala":7414,"Ġwrong":7415,"quences":7416,"clients":7417,"Operation":7418,"ivy":7419,"registration":7420,"pip":7421,"BC":7422,"sid":7423,"splitlines":7424,"Plan":7425,"ĠTree":7426,"ĠBasic":7427,"until":7428,"AIN":7429,"Current":7430,"Ġpol":7431,"tour":7432,"Ġrespon":7433,"Ġserve":7434,"Fixture":7435,"ĠPURPOSE":7436,"udio":7437,"Ġexperiment":7438,"Ġrt":7439,"iterable":7440,"gradient":7441,"serial":7442,"Ġsummary":7443,"exact":7444,"Ġworkbook":7445,"Descriptor":7446,"Iteration":7447,"Ġpprint":7448,"makedirs":7449,"urlpatterns":7450,"STATE":7451,"inux":7452,"Ġleg":7453,"Ġfe":7454,",-":7455,"Ġdimensions":7456,"roker":7457,"Ġextend":7458,"vile":7459,"trl":7460,"received":7461,"icrosoft":7462,"Ġlazy":7463,"()).":7464,"Exp":7465,"OAuth":7466,"sites":7467,"Ġtemporary":7468,"Ġattempt":7469,"needs":7470,"Ġfreq":7471,"bounds":7472,"Ġexecuted":7473,"bootstrap":7474,"!!":7475,"gerprint":7476,"Ġscalar":7477,"TICULAR":7478,"ircu":7479,"NET":7480,"Ġep":7481,"ĠSearch":7482,"Category":7483,"Ġ40":7484,"()])":7485,"ĠThread":7486,"Ġedges":7487,"ĠTeam":7488,"2011":7489,"Renderer":7490,"}),":7491,"Ġmembers":7492,"ERY":7493,"VM":7494,"]'":7495,"(\"--":7496,"figure":7497,"69":7498,"finity":7499,"Ġty":7500,"roken":7501,"JANG":7502,"Ġiprot":7503,"coords":7504,"Ġconstant":7505,"Show":7506,"Ġhour":7507,"MEDIA":7508,"Ġtrace":7509,"ĠAss":7510,"ĠState":7511,"aterial":7512,"reload":7513,"ĠFITNESS":7514,"BE":7515,"associ":7516,"Ġadding":7517,"DataCacheDictionary":7518,"Ġrc":7519,"ĠPARTICULAR":7520,"}\"":7521,"[(":7522,"Ġpants":7523,"Ġfrappe":7524,"validators":7525,"catalog":7526,"ores":7527,"ents":7528,"ĠOP":7529,"COUNT":7530,"ai":7531,"()'":7532,"Ġcomm":7533,"Ġtre":7534,"contenttypes":7535,"met":7536,"Ġforwards":7537,"Ġtar":7538,"Ġdns":7539,"Fin":7540,"Ġlogged":7541,"lm":7542,"andbox":7543,"Replay":7544,"Ġgevent":7545,"234":7546,"TIVE":7547,"Tuple":7548,"activity":7549,"abstractmethod":7550,"Params":7551,"erce":7552,"chunks":7553,"See":7554,"Ġforward":7555,"Ġwarn":7556,"Ġord":7557,"combin":7558,"dae":7559,"elif":7560,",\"":7561,"ln":7562,"Ġ'\"":7563,"ĠBook":7564,"Ġlibs":7565,"cuda":7566,"Ġfurther":7567,"decimal":7568,"Ġcalculate":7569,"uniform":7570,":')":7571,"Depend":7572,"ĠDocuments":7573,"ectors":7574,"Raise":7575,"background":7576,"relationship":7577,"ĠMAX":7578,"attachment":7579,"appings":7580,"ought":7581,"axes":7582,"mbedded":7583,"finish":7584,"rstrip":7585,"errno":7586,"Ġwhose":7587,"METHOD":7588,"Zero":7589,"GTH":7590,"LANG":7591,"gateway":7592,"Skip":7593,"Login":7594,"OFF":7595,"Ġinterfaces":7596,"devices":7597,"ĠNe":7598,"BL":7599,"cod":7600,"ĠWrite":7601,"ĠUsed":7602,"Sample":7603,"Ġgreen":7604,"Ġauthors":7605,"Ġcleanup":7606,"orted":7607,"clock":7608,"hy":7609,"MPLE":7610,"gu":7611,"cee":7612,"TestSuite":7613,"Properties":7614,"blueprint":7615,"patcher":7616,"ĠStatic":7617,"JANGO":7618,")\",":7619,"Use":7620,"coordin":7621,"ATOR":7622,"Ġreading":7623,"Ġarchive":7624,"Ġnone":7625,"constant":7626,"ĠDep":7627,"Ġminimum":7628,"Ġprepare":7629,"Ġcwd":7630,"Ġdocstring":7631,"AIL":7632,"[\\":7633,"ĠCL":7634,"ĠGNU":7635,"Ġcopies":7636,"Ġ~":7637,"Ġlanguages":7638,"README":7639,"eper":7640,"tf":7641,"ĠOpenStack":7642,"ĠGrouping":7643,"stor":7644,"Ġthrow":7645,"Ġcenter":7646,"0001":7647,"###########":7648,"Ġaltern":7649,"Ġrepresents":7650,"ĠChar":7651,"Positive":7652,"MAGES":7653,"ĠPri":7654,"indexes":7655,"packet":7656,"ĠKeyword":7657,"ict":7658,"Ġsmart":7659,"Utils":7660,"odb":7661,"Scheduler":7662,"erkzeug":7663,"ITS":7664,"Ġconverted":7665,"Ġdetect":7666,"edu":7667,"Ġ\"'":7668,"Ġsubclasses":7669,"Ġmarkup":7670,"zon":7671,"Cell":7672,"izard":7673,"ĠBack":7674,"imit":7675,"Ġcreates":7676,"ulates":7677,"EV":7678,"Grid":7679,"cycle":7680,"Ġbash":7681,"define":7682,"serializers":7683,"ads":7684,"scene":7685,"irt":7686,"Ġgeo":7687,"Ġaccording":7688,"\"]:":7689,"metaclass":7690,"Ġsimplejson":7691,"Article":7692,"jpg":7693,"qt":7694,"Extra":7695,"ront":7696,"Json":7697,"hot":7698,"Ġrepla":7699,"ĠDesc":7700,"DEF":7701,"VarInt":7702,"cluded":7703,"Ġdeferred":7704,"ko":7705,"=======":7706,"aaaa":7707,"=_('":7708,"SO":7709,"you":7710,"Ġpragma":7711,"allen":7712,"ĠSource":7713,"las":7714,"('''":7715,"Ġrand":7716,"Adapter":7717,"GROUP":7718,"rea":7719,"ATCH":7720,"Ġcols":7721,"Please":7722,"Ġsli":7723,"cov":7724,"EM":7725,"LIN":7726,"RequestHandler":7727,"Ġanswer":7728,"!\")":7729,"asarray":7730,"canvas":7731,"props":7732,"Ġoptparse":7733,"Transaction":7734,")**":7735,"ris":7736,"Vector":7737,"Ġ{}\".":7738,"Ġpartition":7739,"Ġ2007":7740,"ggreg":7741,"FILES":7742,"Pub":7743,"Ġbook":7744,"Nodes":7745,"Ġbetter":7746,")+":7747,"_[":7748,"artbeat":7749,"Ġindexes":7750,"600":7751,"FIELD":7752,"Ġroom":7753,"Ġspecification":7754,"ares":7755,"Ġreally":7756,"fh":7757,"Ġunderlying":7758,"ABC":7759,"stand":7760,"Print":7761,"ĠEnvironment":7762,"ym":7763,"Ġthing":7764,"Ġarrays":7765,"SCHE":7766,"categories":7767,"ierarchy":7768,"RUN":7769,"ĠSeries":7770,"Ġdeployment":7771,"Generic":7772,"Ġ#---------------------------------------------------------------------------":7773,"Pr":7774,"Ġsparse":7775,"iles":7776,"Setup":7777,"ĠDefaults":7778,"direction":7779,"Ġcau":7780,"ĠCache":7781,"mpling":7782,"ĠIMPLIED":7783,"LENGTH":7784,"Ġ'+":7785,"Ġcounts":7786,"Ġappendix":7787,">\",":7788,"illi":7789,"ĠCONF":7790,"tempdir":7791,"yped":7792,"sensitive":7793,"ReplayAll":7794,"daemon":7795,"Verify":7796,"bench":7797,"argtypes":7798,")-":7799,"meter":7800,"Ġborder":7801,"datasets":7802,"lain":7803,"aring":7804,"ĠTE":7805,"Ġeverything":7806,"atives":7807,"joint":7808,"Ġdisabled":7809,"vors":7810,"Ġquotes":7811,"advance":7812,"ĠĠĠĠĠĠĠĠĠĠĠĠĠĠĠĠĠĠĠĠĠĠĠĠĠĠĠĠĠĠĠĠĠĠĠĠĠĠĠĠĠĠĠĠĠĠĠĠ":7813,"Ġnamedtuple":7814,"bulk":7815,"lr":7816,"arb":7817,"Ġsmall":7818,"Ġfigure":7819,"Bind":7820,"Ġchecking":7821,"Ġ80":7822,"Ġappended":7823,"requirements":7824,"grant":7825,"extended":7826,"Ġsigma":7827,"ĠCompute":7828,"`:":7829,"Ġthreshold":7830,"Ġpyjamas":7831,"START":7832,"placeholder":7833,"ĠCloud":7834,"Ġapplied":7835,"subscription":7836,"disconnect":7837,"ĠPos":7838,"Ġmetavar":7839,"Ġseparate":7840,"BY":7841,"Offset":7842,"Ġdouble":7843,"distribution":7844,"dialog":7845,"Ġweak":7846,"}',":7847,"GS":7848,">.":7849,"bus":7850,"EP":7851,"Ġoprot":7852,"43":7853,"Ġden":7854,"lenium":7855,"Ġrefresh":7856,"ndim":7857,"Ġtimer":7858,"Ġ23":7859,"loading":7860,"Ġoutfile":7861,"Ġhandles":7862,"Ġlatest":7863,"Ġletter":7864,"Router":7865,"standard":7866,"Ġgu":7867,"Ġscripts":7868,"Copy":7869,"ĠUN":7870,"creator":7871,"aration":7872,"Ġconfirm":7873,"Ġrather":7874,"ĠGiven":7875,"acter":7876,"restype":7877,"rab":7878,"appendices":7879,"Ġactivity":7880,"Ġ'.'":7881,"rozenset":7882,"Ġdescribed":7883,"ĠProxy":7884,"gorithms":7885,"launch":7886,"kwds":7887,"corder":7888,"Ġsubnet":7889,"Ġ\"\")":7890,"Ġrng":7891,"locations":7892,"Geometry":7893,"nc":7894,"Ġcrypt":7895,"Ġmanuals":7896,"Ġpad":7897,"Ġshouldn":7898,"Render":7899,"ĠEVENT":7900,"Ġversionadded":7901,"LOB":7902,"Actor":7903,"Ġvol":7904,"hexdigest":7905,"XY":7906,"ttl":7907,"vtk":7908,"\"})":7909,"Sw":7910,"Ġ2008":7911,"Ġetree":7912,"Ġlooking":7913,"Accept":7914,"lembic":7915,"lihood":7916,"Ġdays":7917,"diag":7918,"Ġentire":7919,"increment":7920,"ism":7921,"Ġbases":7922,"STATIC":7923,"honeNumber":7924,"70":7925,"Body":7926,"Hook":7927,"lb":7928,"ople":7929,"1024":7930,"Ġaff":7931,"PRESS":7932,"LIC":7933,"Ġdialect":7934,"Constant":7935,"Processor":7936,"repos":7937,"balance":7938,"Ġprevent":7939,"ceeded":7940,"disabled":7941,"ĠAUTHORS":7942,"Func":7943,"hass":7944,"Ġhyper":7945,"currency":7946,"Ġcp":7947,"Definition":7948,"eys":7949,"Ġlibcloud":7950,"small":7951,"ade":7952,"nick":7953,"Ġplease":7954,"Ġprocesses":7955,"openid":7956,"Ġserializers":7957,"vl":7958,"Ġinline":7959,"Ġaxes":7960,"Ax":7961,"encoder":7962,"mesh":7963,"Headers":7964,"Ġmonitor":7965,"__',":7966,"ĠPoly":7967,"twitter":7968,"scopes":7969,"ridden":7970,"Ġsteps":7971,"Ġhelpers":7972,"etrieve":7973,"Ġstdin":7974,"('')":7975,"([],":7976,"ĠRO":7977,"ASH":7978,"Ġpublished":7979,"ĠDict":7980,"djang":7981,"eved":7982,"building":7983,"alculate":7984,"={\"":7985,"Bo":7986,"Main":7987,"Ġepoch":7988,"ĠFind":7989,"ocus":7990,"attrib":7991,"PU":7992,"fileno":7993,"Ġ\")":7994,"ĠBUT":7995,"Debug":7996,"=',":7997,"generated":7998,"Ġta":7999,"Ġprepend":8000,"Ġpretty":8001,"ĠStorage":8002,"svn":8003,"RF":8004,"Ġfab":8005,"queries":8006,"Common":8007,"Ġdependency":8008,"Ġcer":8009,"istribution":8010,"Ġreturning":8011,"ikip":8012,"fid":8013,"Transl":8014,"den":8015,"setLevel":8016,"sudo":8017,"EVENT":8018,"ti":8019,"Ġfs":8020,"Ġlogic":8021,"Ġshift":8022,"published":8023,"Ġgive":8024,"Ġ22":8025,"Ġassigned":8026,"SITE":8027,"Ġdetail":8028,"rontend":8029,"rigin":8030,"Ġincludes":8031,"iving":8032,"php":8033,"ĠSQLAlchemy":8034,"SERT":8035,"assertIsNotNone":8036,"Ġexplicitly":8037,"pie":8038,"addon":8039,"MODEL":8040,"sizes":8041,"ENG":8042,"Ġfixtures":8043,"CREATE":8044,"CHOICES":8045,"Ġmultip":8046,"ĠMon":8047,"trip":8048,"Ġutility":8049,"Ġperm":8050,"Ġbal":8051,"509":8052,"expires":8053,"udo":8054,"Exists":8055,"Ġexecutable":8056,"Net":8057,"alice":8058,"exinfo":8059,"Fetch":8060,"ĠLink":8061,"Ġformats":8062,"Ġfun":8063,"dates":8064,"ĠNULL":8065,"major":8066,"Ġlonger":8067,"descriptor":8068,"ĠLab":8069,"Ġfire":8070,"ĠHost":8071,"TC":8072,"Ġgc":8073,"Ġndarray":8074,"\")),":8075,"Global":8076,"Ġwon":8077,"apon":8078,"outer":8079,"ĠCho":8080,"ĠVector":8081,"worksheet":8082,"OPEN":8083,"keh":8084,"Ġagree":8085,"letion":8086,"ikipedia":8087,"Ġrect":8088,"Ġsyn":8089,"ĠAuto":8090,"Ġloading":8091,"Ġserial":8092,"Ġformatter":8093,"ILD":8094,"54":8095,"Ġut":8096,"Ġselector":8097,"ysical":8098,"uncate":8099,"Ġiteration":8100,"Ġfixture":8101,"TAG":8102,"Ġenum":8103,"Font":8104,"ropy":8105,"Region":8106,"\"},":8107,"rase":8108,"shutdown":8109,"Raw":8110,"Cluster":8111,"CONN":8112,"........":8113,"ĠMax":8114,"adapter":8115,"BER":8116,"Expression":8117,"Ġabort":8118,"Flask":8119,"TRACT":8120,"ordered":8121,"cha":8122,"Ġvisible":8123,"urlopen":8124,"=[],":8125,"={},":8126,"Ġlinear":8127,"Param":8128,"ArgumentParser":8129,"constructor":8130,"Ġeas":8131,"quiet":8132,"SHA":8133,"['_":8134,"udit":8135,"POINT":8136,"cas":8137,"answer":8138,"mutable":8139,"Errors":8140,"ĠVariable":8141,"Ver":8142,"Ġ'{}":8143,"livery":8144,"Display":8145,"existent":8146,"ticket":8147,"Ġterminal":8148,"DATABASE":8149,"Ġarch":8150,"anded":8151,"agination":8152,"sually":8153,"digits":8154,"friend":8155,"tm":8156,"ryption":8157,"UTF":8158,"OLD":8159,"hyper":8160,"ĉĠĠĠ":8161,"Ġimmediate":8162,"qname":8163,"/(":8164,"scr":8165,"VIDED":8166,"Click":8167,"Ġdialog":8168,"KET":8169,"Ġsuccessfully":8170,"ENGINE":8171,"Ġhidden":8172,"xyz":8173,"(_('":8174,"Neg":8175,"Ġpull":8176,"thought":8177,"logged":8178,"Ġeventlet":8179,"azy":8180,"Ġcycle":8181,"rack":8182,"Tri":8183,"pow":8184,"syn":8185,"ond":8186,"ĠGenerate":8187,"cal":8188,"dh":8189,"LIMIT":8190,"pw":8191,"asis":8192,"Ġmuch":8193,"wraps":8194,"Ġdefines":8195,"geometry":8196,"Ġaliases":8197,"Ġprobably":8198,"ĠZZ":8199,"ĠApi":8200,"Prefix":8201,"shortcuts":8202,"lour":8203,"ĠForeignKey":8204,"ĠMay":8205,"HttpRequest":8206,"trib":8207,"Conf":8208,"Ġcharset":8209,"Ġchannels":8210,"bitrary":8211,"Ġcontributor":8212,"\"')":8213,"tip":8214,"Ġdescriptor":8215,"ĠSec":8216,"etric":8217,"Ġregarding":8218,"II":8219,"Ġcent":8220,"Done":8221,"craft":8222,"Ġmu":8223,"Non":8224,"Sm":8225,"Ġlex":8226,"verbosity":8227,"Diff":8228,"bidden":8229,"nl":8230,"heel":8231,"Ġfav":8232,"ĠSu":8233,"cross":8234,"Ġstub":8235,"ĠStream":8236,"ilo":8237,"IX":8238,"coverage":8239,"Ġ10000":8240,"Ġeasy":8241,"bold":8242,"Ġ'':":8243,"Ġsymbols":8244,"Ġ1234":8245,"!\"":8246,"saved":8247,"aped":8248,"Ġprocessed":8249,"ĠVM":8250,"Div":8251,"Merge":8252,"special":8253,"ĠFrame":8254,"ĠFirst":8255,"Ġdefinitions":8256,"ĠResult":8257,"\"\"\")":8258,"Ġnegative":8259,"ĠCOPYING":8260,"Cleanup":8261,"bi":8262,"tc":8263,"Ġpending":8264,"ĠCreates":8265,"(?:":8266,"recipient":8267,"hdf":8268,"ancy":8269,"ĠEngine":8270,"Ġrecipient":8271,"IE":8272,"Title":8273,"Ġcaller":8274,"asm":8275,"Val":8276,"ov":8277,"inds":8278,"atural":8279,"ĠLIMITED":8280,"Ġcard":8281,"ĠAP":8282,"Ġrename":8283,"Cookie":8284,"fsm":8285,"retty":8286,"^^":8287,"\":\"":8288,"precationWarning":8289,"UES":8290,"alive":8291,"Ġownership":8292,"dao":8293,"Ġlight":8294,"ĠJob":8295,"Ġmanagement":8296,"ĠSalt":8297,"Ġarea":8298,"seudo":8299,"rott":8300,"Ġfilepath":8301,"Named":8302,"Ġports":8303,"ranches":8304,"dm":8305,"Ġnodelist":8306,"plural":8307,"bp":8308,"vim":8309,"EG":8310,"terminal":8311,"migration":8312,"keeper":8313,"exer":8314,"within":8315,"benchmark":8316,"exchange":8317,"acity":8318,"ToMany":8319,"ECTION":8320,"Ġnargs":8321,"Worker":8322,"Ġstrict":8323,"failUnlessEqual":8324,"since":8325,"Ġwsgi":8326,"Ġremaining":8327,"ĠFIX":8328,"ĠautoGenerate":8329,"Ġsimply":8330,"ising":8331,"sqlalchemy":8332,"ĠAssertionError":8333,"assertNotIn":8334,"TT":8335,"aign":8336,"loor":8337,"ĠColor":8338,"ĠArguments":8339,"ĠcStringIO":8340,"Ġpycopia":8341,"Ġzer":8342,"FLAGS":8343,"////////":8344,"Ġdynamic":8345,"topics":8346,"thumbnail":8347,"ĠDAMAGES":8348,"Ġadds":8349,"ALI":8350,"Ġvalidators":8351,"Ġminimal":8352,"Ġhappen":8353,"57":8354,"WI":8355,"_('":8356,"Ġlicenses":8357,"aching":8358,"ĠIPython":8359,"human":8360,"ana":8361,"bars":8362,"Callbacks":8363,"speed":8364,"ssue":8365,"Ġunless":8366,"ĠĠĠĠĠĠĠĠĠĠĠĠĠĠĠĠĠĠĠĠĠĠĠĠĠĠĠĠĠĠĠĠĠĠĠĠĠĠĠĠĠĠĠĠĠĠĠĠĠ":8367,"(_(\"":8368,"Ġprior":8369,"Ġwindows":8370,"'m":8371,"It":8372,"MQ":8373,"ramid":8374,"PH":8375,"memo":8376,"ĠEmpty":8377,"lst":8378,"KeyError":8379,"Decimal":8380,"YY":8381,"sf":8382,"Ġwar":8383,"ĠINST":8384,"issues":8385,"CF":8386,"Ġdirectives":8387,"Ġsuccessful":8388,"lore":8389,"caten":8390,"][\"":8391,"Security":8392,"gd":8393,"Ġ'?":8394,"Ġ{{":8395,"negative":8396,"ĠProduct":8397,"Scale":8398,"ĠSER":8399,"ĠNotes":8400,"Ġbuff":8401,"Ġruntime":8402,"Ġcodes":8403,"!')":8404,"Ġqual":8405,"Ġtraits":8406,"completion":8407,"legate":8408,"56789":8409,"mr":8410,"\"\",":8411,"Ġfloating":8412,"Ġreceive":8413,"Called":8414,"UTE":8415,"notes":8416,"avg":8417,"ĠPygments":8418,"HEADER":8419,"Ġgradient":8420,"levant":8421,"dynamic":8422,"Ġmeasure":8423,"Windows":8424,"Ġ21":8425,"books":8426,"Git":8427,"Ġchecked":8428,"ritical":8429,"Ġrelation":8430,"callbacks":8431,"Any":8432,"diction":8433,"opro":8434,"providers":8435,"cells":8436,"perform":8437,"ponent":8438,"Width":8439,"Ġ'..":8440,"Ġsever":8441,"mul":8442,"then":8443,"aps":8444,"Ġsorting":8445,"Ġprefixes":8446,"unused":8447,"=''):":8448,"lify":8449,"atype":8450,"ĠAllow":8451,"docker":8452,"ĠImplement":8453,"ĠPackage":8454,"Ġ^":8455,"Ġmiddleware":8456,"Cmd":8457,"Ġquestion":8458,"entities":8459,"alter":8460,"ctree":8461,"Ġfh":8462,"keystone":8463,"Ġclients":8464,"registered":8465,"checks":8466,"Sheet":8467,"Find":8468,"sigma":8469,"strategy":8470,"ĠBlock":8471,"deferred":8472,"footnote":8473,"hint":8474,"pd":8475,"agers":8476,"tablename":8477,"topo":8478,"DataCacheFunctions":8479,"ĠContentType":8480,"Ġ'$":8481,":/":8482,"ience":8483,"Ġpadding":8484,"Ġmonkey":8485,"coord":8486,"Ġserialized":8487,"AWS":8488,"ĠLabel":8489,"WARNING":8490,"Temporary":8491,"UUID":8492,"ĠSchemaMigration":8493,"([^":8494,"ModelForm":8495,"Tools":8496,"inject":8497,"workers":8498,"seen":8499,"stage":8500,"ĠAccess":8501,"Ġserved":8502,"construct":8503,"ACCESS":8504,"horizon":8505,"ASES":8506,"Finder":8507,"Ġstarts":8508,"ESSAGE":8509,"assette":8510,"ippet":8511,"Ġpredict":8512,"products":8513,"Ġhandled":8514,"aggreg":8515,"operations":8516,"une":8517,"Ġhist":8518,"ĠFree":8519,"Ġclassifiers":8520,"ESSION":8521,"Ġmocked":8522,"ĠINCLUDING":8523,"Split":8524,"SchemaMigration":8525,"Cursor":8526,"lse":8527,"Statement":8528,"Ġmount":8529,"Ġlocations":8530,"META":8531,"Ġrout":8532,"domains":8533,"something":8534,"Ne":8535,"ajax":8536,"achine":8537,"bian":8538,"focus":8539,"ĠRule":8540,"Ġpassing":8541,"letes":8542,"Del":8543,"ĠDIS":8544,"pret":8545,"collections":8546,"SSH":8547,"ĠMySQL":8548,"ĠHelp":8549,"BR":8550,"First":8551,"ĠExtension":8552,"Ġequivalent":8553,"ĠSend":8554,"Dataset":8555,"pixel":8556,"trait":8557,"authorization":8558,"CLIENT":8559,"Ġfamily":8560,"calen":8561,"distributed":8562,"mdao":8563,"ĠALL":8564,"logout":8565,"theta":8566,"Sets":8567,"Ġadjust":8568,"Ġordered":8569,"Ġlst":8570,"MY":8571,"SyntaxError":8572,"limits":8573,"Ġcertificate":8574,">]":8575,"fu":8576,"vol":8577,"ĠMin":8578,"scenario":8579,"solver":8580,"Ġsol":8581,"ĠRPC":8582,"ĠQtCore":8583,"101":8584,"pdu":8585,"Ġ----------------":8586,"perms":8587,"lets":8588,"Ġjinja":8589,"ĠAppro":8590,"Arch":8591,"Ġtitles":8592,"Ġvars":8593,"dy":8594,"Ġ\\\\":8595,"creation":8596,"Ġdfp":8597,"WID":8598,"ĠPart":8599,"ĠfunctionList":8600,"general":8601,"TERN":8602,"ĠRange":8603,":],":8604,"attemp":8605,"erry":8606,"Ġanaly":8607,"Ġaggregate":8608,"Ġprocessor":8609,"Ġspeed":8610,"border":8611,"Ġrepeat":8612,"ĠPROVIDED":8613,"Authorization":8614,"46":8615,"dtemp":8616,"orient":8617,"Ġunused":8618,"([])":8619,"ĠCOPYRIGHT":8620,"Cert":8621,"Ġsystems":8622,"Ġenough":8623,"Dist":8624,"DJANGO":8625,"Normal":8626,"ayes":8627,"Identifier":8628,"BSD":8629,"ENCE":8630,"Iterator":8631,"xhtml":8632,"Ġplaceholder":8633,"ĠDeferred":8634,"ĠinDataCacheDictionary":8635,"Begin":8636,"questions":8637,"ronic":8638,"Ġsudo":8639,"xpath":8640,"Ġclf":8641,"Ġaggreg":8642,"ĠDO":8643,"urnal":8644,"jinja":8645,"ĠReport":8646,"Unicode":8647,"sence":8648,"Cor":8649,"ĠEmail":8650,"96":8651,"fy":8652,"Ġpositive":8653,"Ġrhs":8654,"nor":8655,"Ġcatch":8656,"Ġinherit":8657,"ĠIter":8658,"ĠHas":8659,"Ġscenario":8660,"Ġwraps":8661,"-+":8662,"Ġ=>":8663,"erature":8664,"robot":8665,"ĠStack":8666,"Chart":8667,"Ġ\"[":8668,"bindings":8669,"ĠCreature":8670,"Ġfragment":8671,"Release":8672,"ĠJava":8673,"voice":8674,"removed":8675,"Ġincorrect":8676,"proj":8677,"Ġ\"\"\"\\":8678,"pointer":8679,"realpath":8680,"mpp":8681,"take":8682,"Attributes":8683,"Ġprice":8684,"containers":8685,"Mis":8686,"mouse":8687,"crypto":8688,"!'":8689,"encoded":8690,"bf":8691,"mf":8692,"posts":8693,"bg":8694,"hat":8695,"trial":8696,"ĠEnthought":8697,"stubs":8698,"FUN":8699,"Ġdigest":8700,"pretty":8701,"clip":8702,"annotation":8703,"radius":8704,"clause":8705,"ĠGeo":8706,"calendar":8707,"ĠDOM":8708,"makeOne":8709,"NOWN":8710,"Ġmut":8711,"(\".":8712,"ORM":8713,"migrate":8714,"Counter":8715,"Ġ*=":8716,"ĠFormat":8717,"ky":8718,"ras":8719,"ĠPh":8720,"Ġ################################################":8721,"Ġcompatible":8722,"Ġsuggest":8723,"ĠDATA":8724,"ĠCH":8725,"weet":8726,"ordering":8727,"__:":8728,"howto":8729,"Book":8730,"onal":8731,"viewer":8732,"ĠConnect":8733,"ĠHttpResponseRedirect":8734,"ĠBytes":8735,"thrift":8736,"Install":8737,"Ġwidgets":8738,"Ġmar":8739,"ĠCalled":8740,"ductor":8741,"999":8742,"Ġ###############################################################################":8743,"superuser":8744,"ivers":8745,"Ġbenchmark":8746,"Ġwerkzeug":8747,"ĠTexinfo":8748,"chat":8749,"MIS":8750,"ĠWhether":8751,"viding":8752,"/\",":8753,"=\"\"\"":8754,"xies":8755,"icles":8756,"Ġloss":8757,"while":8758,"ircuit":8759,"mid":8760,"ouch":8761,"ULTI":8762,"levels":8763,"serialization":8764,"')):":8765,"contribut":8766,"168":8767,"Ġauthorization":8768,"ighbors":8769,"Ġhard":8770,"Null":8771,"wrong":8772,"neg":8773,"('/',":8774,"Ġgeometry":8775,"USERNAME":8776,"Ġprecision":8777,"IDDLE":8778,"Ġscene":8779,"ĠLay":8780,"PN":8781,"Ġdeal":8782,"Msg":8783,"OPTIONS":8784,"Save":8785,"kb":8786,"unlink":8787,"Setting":8788,"authenticate":8789,"Ġrank":8790,"linalg":8791,"infra":8792,"lette":8793,"elery":8794,"vlan":8795,"alert":8796,"('{":8797,"ĠProtocolBuffer":8798,"Folder":8799,"large":8800,"Ġcast":8801,"Ġmix":8802,"ĠId":8803,"codec":8804,"Ġtrailing":8805,"Ġxmlns":8806,"ĠDateTime":8807,"ĠcPickle":8808,"ĠSSH":8809,"alph":8810,"Ġbra":8811,"Ġenter":8812,"ĠParameter":8813,"Async":8814,"ĠFa":8815,"subplot":8816,"Ġflush":8817,"Dim":8818,"anit":8819,"Creates":8820,"FE":8821,"ny":8822,"poses":8823,"spider":8824,"PROTO":8825,"letterpaper":8826,"ĠRandom":8827,"Ġred":8828,"Ġaverage":8829,"pypi":8830,"Ġvals":8831,"Ġfailures":8832,"Children":8833,"Ġexactly":8834,"hide":8835,"CD":8836,"]',":8837,"ĠWITH":8838,"Ġderived":8839,"CLASSES":8840,"ailgun":8841,"presentation":8842,"Flavor":8843,"yy":8844,"yield":8845,"ĠTop":8846,"Ġgdata":8847,"ĠĠĠĠĠĠĠĠĠĠĠĠĠĠĠĠĠĠĠĠĠĠĠĠĠĠĠĠĠĠĠĠĠĠĠĠĠĠĠĠĠĠĠĠĠĠĠĠĠĠĠ":8848,"PACK":8849,"ptime":8850,"fav":8851,"Ġhig":8852,"Ġcertain":8853,"Ġsentinel":8854,"Ġcmp":8855,"Ġintern":8856,"Ġlaunch":8857,"allenge":8858,"gc":8859,"ĠSim":8860,"ashboard":8861,"Running":8862,"Ġdigits":8863,"Ġfew":8864,"ĠRecord":8865,"markdown":8866,"drivers":8867,"Ġdirector":8868,"Ġpt":8869,"RESP":8870,"tabs":8871,"()}":8872,"ĠACTION":8873,"ĠCase":8874,"Timer":8875,"Ġws":8876,"Ġpygments":8877,"regions":8878,"umeric":8879,"minute":8880,"ĠWARRANTY":8881,"ĠTABLE":8882,"Ġguess":8883,"nsupported":8884,"Ġagreements":8885,"deps":8886,"measure":8887,"urlencode":8888,"Ġface":8889,"copg":8890,"Ġgetting":8891,"OTE":8892,"AttributeError":8893,"LEV":8894,"Ġwebsite":8895,"Enter":8896,"Almost":8897,"ĠLaborator":8898,"morph":8899,"erator":8900,"routes":8901,"']}":8902,"notation":8903,"WRITE":8904,"Ġblueprint":8905,"Ġ(.":8906,"checked":8907,"DIRS":8908,"ĠFIXME":8909,"hub":8910,"Ġlayers":8911,"Ġcpu":8912,"Ġdelimiter":8913,"'](":8914,"Ġsubscription":8915,"Operator":8916,",\\":8917,"BB":8918,"Ġtmpdir":8919,"Ġwhole":8920,"Ġsqrt":8921,"Ġcare":8922,"ĠUtil":8923,"Ġshard":8924,"Space":8925,"(.":8926,"numbers":8927,"Ġlatex":8928,"incip":8929,"Ġdaemon":8930,"ĠAsync":8931,"curacy":8932,"RESULT":8933,"Ġprops":8934,"Ġshare":8935,"Notification":8936,"udience":8937,"Ġinject":8938,"Cond":8939,"hours":8940,"Ġvirtual":8941,"/*":8942,"altern":8943,"uper":8944,"ĠEnum":8945,"([('":8946,"todo":8947,"Ġ(('":8948,"Ġpyg":8949,"Ġsubmit":8950,"sidered":8951,"ij":8952,"Ġdirs":8953,"Ġcallbacks":8954,"vpn":8955,"fir":8956,"tester":8957,"agtail":8958,"Card":8959,"zA":8960,"seg":8961,"ĠTY":8962,"upy":8963,"Ġec":8964,"Namespace":8965,"Limit":8966,"ganization":8967,"orth":8968,"Ġroles":8969,"rollback":8970,"quota":8971,"Ġve":8972,"Ġtail":8973,"Ġincrement":8974,"Ġ300":8975,"dialect":8976,"ban":8977,"union":8978,"ellow":8979,"Edge":8980,"Structure":8981,"INDEX":8982,"Ġ###########################################################################":8983,"Ġcoordinates":8984,"irtual":8985,"but":8986,"equ":8987,"itation":8988,"omin":8989,"feat":8990,"za":8991,"Ġclock":8992,"ĠMicrosoft":8993,"Ġrepresented":8994,"nonce":8995,"ĠSmart":8996,"Ġartifact":8997,"ĠBY":8998,"Chunk":8999,"Ġcustomize":9000,"FromString":9001,"72":9002,"Ġpie":9003,"andra":9004,"Ġfiltered":9005,"58":9006,"Ġhorizon":9007,"EY":9008,"Ġcancel":9009,"ISING":9010,"Ġmanifest":9011,"Ġmagic":9012,"AlmostEqual":9013,"Ph":9014,"arative":9015,"deprecated":9016,"agger":9017,"iming":9018,"dicts":9019,"LANGU":9020,"Lost":9021,"Ġpm":9022,"mong":9023,"sktop":9024,"Ġrequirements":9025,"tics":9026,"ideo":9027,"Summary":9028,"buff":9029,"phi":9030,"://%":9031,"oproject":9032,"digit":9033,"ĠĠĠĠĠĠĠĠĠĠĠĠĠĠĠĠĠĠĠĠĠĠĠĠĠĠĠĠĠĠĠĠĠĠĠĠĠĠĠĠĠĠĠĠĠĠĠĠĠĠ":9034,"Ġstatements":9035,"ĠLocation":9036,"retries":9037,"\\\"":9038,"algorithm":9039,"ully":9040,"Ġ[{":9041,"cade":9042,"Linear":9043,"Ġflatten":9044,"SP":9045,"micro":9046,"epub":9047,"magic":9048,"033":9049,"Ret":9050,"######":9051,"three":9052,"Ġacross":9053,"Ġfinish":9054,"QuerySet":9055,"certificate":9056,"separator":9057,"Ġopenmdao":9058,"Manage":9059,"mgr":9060,"oct":9061,"ĠWith":9062,"libs":9063,"Ġproducts":9064,"ĠSHALL":9065,"slave":9066,"news":9067,"artifact":9068,"TestBase":9069,"Classifier":9070,"Shape":9071,"was":9072,"ctime":9073,"assandra":9074,"ĠSetup":9075,"reports":9076,"Ġ256":9077,"Ġauthenticate":9078,"Ġtaken":9079,"sr":9080,"Ġsolution":9081,"ĠNon":9082,"Ġsending":9083,"profiler":9084,"Ġissub":9085,"Ġ-----------------------------------------------------------------------------":9086,"Ġcuda":9087,"xc":9088,"ĠCurrent":9089,"ICT":9090,"Ġupgrade":9091,"ugment":9092,"CCESS":9093,"peated":9094,"Regexp":9095,":\")":9096,"rant":9097,"')).":9098,"ENABLE":9099,"Ġsentry":9100,"AML":9101,"Ġdep":9102,"Ġnotify":9103,"processes":9104,"TLS":9105,"Ġnn":9106,"mitive":9107,"ĠSettings":9108,"Ġprojects":9109,"Ġfore":9110,"Ġecho":9111,"doctype":9112,"Ġgeom":9113,"Changed":9114,"ĠCategory":9115,"vie":9116,"reporter":9117,"termine":9118,"Ġbounds":9119,"ĠWHE":9120,"acing":9121,"veloper":9122,"ause":9123,"Ġ'(":9124,"ĠOb":9125,"ĠARISING":9126,"Ġeps":9127,"pygments":9128,"Ġcoming":9129,"fora":9130,"ĠProperty":9131,"Ġbuilding":9132,"ACTION":9133,"Ġreplacing":9134,"Ġpaper":9135,"Ġintegr":9136,"Ġacts":9137,"Ġminutes":9138,"loaders":9139,"Ġfu":9140,"Decorator":9141,"Area":9142,"Ġresolver":9143,"atory":9144,"Ġexpires":9145,"Blob":9146,"Dest":9147,"JS":9148,"Ġnb":9149,"Ġconsidered":9150,"Ġdoing":9151,"Ġinstallation":9152,"evaluate":9153,"DESCRI":9154,"DD":9155,"ĠRFC":9156,"?)":9157,"vest":9158,"isco":9159,"('__":9160,"Ġhit":9161,"LOCAL":9162,"Side":9163,"ĠSw":9164,"Objects":9165,"uestion":9166,"Ġpoll":9167,"Ġrespect":9168,"finite":9169,"hasattr":9170,"Help":9171,"Ġband":9172,"coll":9173,"Ġ([":9174,"Ġparagraph":9175,"ĠLIABLE":9176,"Ġannotation":9177,">/":9178,"ars":9179,"Ġrenderer":9180,"Ġurlencode":9181,"OO":9182,"blem":9183,"illa":9184,"maker":9185,"HOME":9186,"98":9187,"Ap":9188,"Ġreload":9189,"unded":9190,"Ġhaving":9191,"strs":9192,"pyc":9193,"Identity":9194,"Ġlost":9195,"Ġoverridden":9196,"ĠWHETHER":9197,"Credentials":9198,"]\\":9199,"protocols":9200,"RGB":9201,"kg":9202,"MAN":9203,"Ġradius":9204,"offer":9205,"assertDict":9206,"misc":9207,"Zip":9208,"Ġnative":9209,"teardown":9210,"readlines":9211,"Ġmatched":9212,"))))":9213,"Ġsoft":9214,"AGES":9215,"Ġprom":9216,"Ġfo":9217,"unnel":9218,"ĠVAL":9219,"Decoder":9220,"Ġcustomer":9221,"tzinfo":9222,"vin":9223,"subset":9224,"restore":9225,"ĠStore":9226,"riteria":9227,"Register":9228,"ĠShow":9229,"ilon":9230,"about":9231,"=\"/":9232,"Ġresulting":9233,"obot":9234,"Related":9235,"directories":9236,"Ġoutside":9237,"ĠProfile":9238,"Interrupt":9239,"TABLE":9240,"](":9241,"bc":9242,"Ġ31":9243,"ĠGets":9244,"charset":9245,"Ġ123":9246,"mpath":9247,"quit":9248,"ilog":9249,"),(":9250,"MSG":9251,"Ġaccepts":9252,"SIGN":9253,"Batch":9254,"Ġ-----":9255,"Repository":9256,"QUE":9257,"1997":9258,"=\"\",":9259,"Single":9260,"Xml":9261,"ĠUI":9262,"}/{":9263,"health":9264,"urable":9265,"Ġenc":9266,"Ġcompiled":9267,"Ġfilesystem":9268,"Ġverbosity":9269,"Ġ'\\\\":9270,"BadRequest":9271,"cn":9272,"ranges":9273,"imate":9274,"Ġbasename":9275,"Ġlearning":9276,"Ġintegers":9277,"Ip":9278,"Lexer":9279,"mixin":9280,"Ġfrequency":9281,"Ġbel":9282,"splitext":9283,"ĠCONTRACT":9284,"Ġdp":9285,"weapon":9286,"bio":9287,"illow":9288,"ĠGE":9289,"ĉĉĉĉĉ":9290,"Ġregistration":9291,"ious":9292,"DOWN":9293,"Ġdepends":9294,"Supported":9295,"heses":9296,"Events":9297,"ftp":9298,"ĠUSER":9299,"dirty":9300,"LC":9301,"dictionary":9302,"Route":9303,"Ġalt":9304,"ĠStopIteration":9305,"Ġissubclass":9306,"sequ":9307,"usic":9308,"ĠRedis":9309,"Ġcipher":9310,"Ġrepos":9311,"ĠSolution":9312,"pared":9313,"----------------------------------------------------------------":9314,"ĠControl":9315,"djangoproject":9316,"Next":9317,"embed":9318,"mg":9319,"Ġdates":9320,"Ġcompleted":9321,"Ġindicates":9322,"Console":9323,"Ġmultiprocessing":9324,"artist":9325,"Ġflex":9326,"Ġ(_":9327,"nodelist":9328,"Resolver":9329,"UPPORT":9330,"asource":9331,"ulse":9332,"iguous":9333,"ADMIN":9334,"otion":9335,"))]":9336,"ynomial":9337,"Ġgranted":9338,"craw":9339,"gamma":9340,"logical":9341,"WIDTH":9342,"tv":9343,"Ġesc":9344,"Ġdx":9345,"Mail":9346,"intercept":9347,"Ġevalu":9348,"ĠContainer":9349,"Ġrecursive":9350,"Ġconven":9351,"ĠFin":9352,"URN":9353,"dating":9354,"pur":9355,"Ġcalendar":9356,"()['":9357,"Alias":9358,"mant":9359,"ualen":9360,"encrypt":9361,"Ġlf":9362,"Ġ|=":9363,"iness":9364,"aming":9365,"Ġcomparison":9366,"Ġmoduleauthor":9367,"swift":9368,"Static":9369,"Ġinvoked":9370,"+\"":9371,"PK":9372,"()``":9373,"Ġgs":9374,"favicon":9375,"Ġrs":9376,"authorize":9377,"IDDLEWARE":9378,"Ġkill":9379,"Ġjs":9380,"52":9381,"Ġcid":9382,"Ġnor":9383,"rapy":9384,"ĠSince":9385,"Ġgzip":9386,"clusters":9387,"ĠKEY":9388,"communicate":9389,"Ġnavigation":9390,"peer":9391,"notifications":9392,"Ġpointer":9393,"atrices":9394,"ĠDomain":9395,"schematic":9396,"Keys":9397,"RST":9398,"vendor":9399,"izations":9400,"Ġmet":9401,"suc":9402,"Ġindicating":9403,".'),":9404,"Hub":9405,"Ġproper":9406,"ĠWidget":9407,"Decode":9408,"ADD":9409,"Ġprepended":9410,"xlsx":9411,"alone":9412,"Ġfriend":9413,"Ġperformance":9414,"votes":9415,"decoder":9416,"Ġgtk":9417,"Ġbecome":9418,"Ġlisted":9419,"ATTR":9420,"ĠCONTRIBUT":9421,"Ġinitialization":9422,"blocking":9423,"tuples":9424,"Rpc":9425,"rian":9426,"TemporaryFile":9427,"MI":9428,"PRI":9429,"ĠOverride":9430,"Ġsin":9431,"Ġ28":9432,"Ġmemo":9433,"crease":9434,"ViewSet":9435,"ĠAttributes":9436,"rfc":9437,"variant":9438,"53":9439,"RA":9440,"routing":9441,"Ġol":9442,"(\"<":9443,"Ġvisual":9444,"512":9445,"History":9446,"itable":9447,"queues":9448,"Ġnormalized":9449,"ĠValidationTest":9450,"MULTI":9451,"factories":9452,"ĠExp":9453,"ĠConfigParser":9454,"'ve":9455,"dog":9456,"rammar":9457,"hits":9458,"Ġri":9459,"Ġissues":9460,"dead":9461,"ĠMongo":9462,"objs":9463,"going":9464,"receiver":9465,"GP":9466,"annotations":9467,"ircular":9468,"Revision":9469,"pyplot":9470,"literal":9471,"Ġlooks":9472,"problem":9473,"Ġflash":9474,"har":9475,"restart":9476,"anonymous":9477,"written":9478,"mx":9479,"ĠMain":9480,"minutes":9481,"Ġmimetype":9482,"ĠCONTRIBUTORS":9483,"DNS":9484,"numeric":9485,"sensor":9486,"Rect":9487,"}')":9488,"facebook":9489,"aneous":9490,"asket":9491,"ĠPrint":9492,"ffic":9493,"Ġreleased":9494,"sto":9495,"album":9496,"locate":9497,"bsocket":9498,"Height":9499,"Ġaffect":9500,"Ġstand":9501,"Ġstage":9502,"ookeeper":9503,"ĠCONN":9504,"Ġtransition":9505,"symbols":9506,"ĠDoc":9507,"outine":9508,"ldap":9509,"97":9510,"]{":9511,"fm":9512,"inet":9513,"ĠNAME":9514,"Ġproblems":9515,"Ġthroughout":9516,"WSGI":9517,"bet":9518,"land":9519,"Ġdistribute":9520,"ĠTri":9521,"']):":9522,"shake":9523,"Ġcos":9524,"Ġobserver":9525,"Ġautos":9526,"Ctrl":9527,"ZZ":9528,"another":9529,"Ġage":9530,"ivative":9531,"Ġfallback":9532,"(\"{":9533,"Ġsell":9534,"highlight":9535,"CV":9536,"qos":9537,"vered":9538,"MPTY":9539,"ĠEXPRESS":9540,"inspect":9541,"Monitor":9542,"logic":9543,"Queryset":9544,"assignment":9545,"serialized":9546,"Chain":9547,"'<":9548,"Public":9549,"chr":9550,"Ġconversion":9551,"ĠUUID":9552,"ĠTYPE":9553,"Ġarbitrary":9554,"Ġdifference":9555,"Ġshorter":9556,"hd":9557,"zk":9558,"('#":9559,"Export":9560,"eps":9561,"Ġspaces":9562,"reet":9563,"Ġpg":9564,"Ġadapter":9565,"Ġsep":9566,"TODO":9567,"Ġhighlighting":9568,"xform":9569,"always":9570,"Ġroutes":9571,"Ġcontextlib":9572,"Ġclause":9573,"firmed":9574,"terms":9575,"fft":9576,"ĠTCP":9577,"modindex":9578,"ĠCommandError":9579,"Ġbinding":9580,"invoke":9581,"Ġide":9582,"pyeq":9583,"ĠBaseCommand":9584,"threading":9585,"locked":9586,"what":9587,"audio":9588,"Checker":9589,"Mapper":9590,"ARCH":9591,"Ġzope":9592,"Ġabc":9593,"Ġframes":9594,"lasses":9595,"deserialize":9596,"Ġsubset":9597,"Ġdisplayed":9598,"'\")":9599,"ĠCollection":9600,"tracker":9601,"ĠOptionParser":9602,"Assign":9603,"]\"":9604,"Ġlu":9605,"Ġvec":9606,"Ġdemo":9607,"Ġ\"$":9608,"Tags":9609,"IRED":9610,"ught":9611,"Ġvtk":9612,"Ġ2006":9613,"Ġtxt":9614,"liver":9615,"Ġhack":9616,"Ġsequences":9617,"RuntimeError":9618,"andidates":9619,"hadoop":9620,"rols":9621,"Ġfsm":9622,"preamble":9623,"ĠIntangible":9624,"ĠOrder":9625,"ĠTransl":9626,"Axis":9627,"assets":9628,"ĠSave":9629,"ĠGenerator":9630,"ualenv":9631,"staff":9632,"Ġrestore":9633,"INSERT":9634,"avatar":9635,"behavi":9636,"Ġfactories":9637,"Note":9638,"vt":9639,"yP":9640,"Ġcategories":9641,"cele":9642,"Ġear":9643,"Enabled":9644,"Ġretval":9645,"ĠHowever":9646,"BAD":9647,"IMAGE":9648,"ah":9649,"Ġwebob":9650,"Ġcanvas":9651,"ĠBytesIO":9652,"Pop":9653,"dry":9654,"Ġmouse":9655,"Ġloads":9656,"ĠURLs":9657,"403":9658,"fb":9659,"phase":9660,"creds":9661,"}]":9662,"',),":9663,"ĠDist":9664,"policies":9665,"Ġchr":9666,"capture":9667,"ocab":9668,"Ġsigned":9669,"2009":9670,"mkdtemp":9671,"ĠDisplay":9672,"guid":9673,"Ġexchange":9674,"ĠRaise":9675,"REAM":9676,"party":9677,"Ġtoplevel":9678,"realm":9679,"difference":9680,"\"',":9681,"icip":9682,"through":9683,"Ġreads":9684,"Initialize":9685,"postgresql":9686,"LEVEL":9687,"each":9688,"ycle":9689,"working":9690,"Ġnewline":9691,"Ġexecfile":9692,"QtGui":9693,"Signal":9694,"ToManyField":9695,"jit":9696,"stock":9697,"endpoints":9698,"unix":9699,"addCleanup":9700,"Ġcountry":9701,"Ġcookies":9702,"posal":9703,"ĠJson":9704,"NULL":9705,"();":9706,"elastic":9707,"Ġsahara":9708,":,":9709,"}):":9710,"REGI":9711,"Ġnumeric":9712,"Validate":9713,"Left":9714,"Ent":9715,"TOP":9716,"ired":9717,"guest":9718,"Ġprog":9719,"ĠREAD":9720,")['":9721,"resolution":9722,"Section":9723,"intext":9724,"Ġlxml":9725,"ĠTheme":9726,"Ġapplications":9727,"Ġexpressions":9728,"inlineCallbacks":9729,"tearDown":9730,"MAR":9731,"Ġthird":9732,"ĠREST":9733,"XXXX":9734,"Negative":9735,"Ġstmt":9736,"clusion":9737,"Forms":9738,"Ab":9739,"PAGE":9740,"PUB":9741,"rees":9742,"Ġshall":9743,"Ġlive":9744,"scriber":9745,"FACT":9746,"payment":9747,"Ġhuman":9748,"Ġdiction":9749,"(.*":9750,"Ġocc":9751,"Ġimmediately":9752,"Art":9753,"Lines":9754,"SESSION":9755,"average":9756,"ends":9757,"compiled":9758,"Ġteardown":9759,"doctest":9760,"INET":9761,"Ġ========":9762,"Ġcut":9763,"Ġadapt":9764,"Ġ(?":9765,"Ġattrib":9766,"Ġmanually":9767,"COOK":9768,"foreign":9769,"Ġdevices":9770,"ĠTimeout":9771,"51":9772,"chanism":9773,"NN":9774,"rn":9775,"sms":9776,"ĠMac":9777,"Ġanalysis":9778,"webapp":9779,".*')":9780,"ĠWorld":9781,"Ġ\"{}":9782,"izing":9783,"...\"":9784,"defs":9785,"Ġmerged":9786,"ĠEOF":9787,"Intended":9788,"Ġseparator":9789,"Ġblue":9790,"vey":9791,"Ġmaintain":9792,"Ġcommented":9793,"Workflow":9794,"ILED":9795,"rome":9796,"Ġsizes":9797,"transfer":9798,"Ġdecorated":9799,"dimensions":9800,"PA":9801,"Ġduplicate":9802,"Ġlibraries":9803,"Ġnetworks":9804,"âĶĢâĶĢâĶĢâĶĢ":9805,"Disk":9806,"Aggreg":9807,"Sim":9808,"crop":9809,"ĠCluster":9810,"ĠBar":9811,"illar":9812,"Users":9813,"ĠManager":9814,"Ġcoordinate":9815,"Ġalert":9816,"funcs":9817,"afka":9818,"continue":9819,"given":9820,"pay":9821,"Ġdy":9822,"Ġmixin":9823,"ĠAudience":9824,"vc":9825,"degree":9826,"Ġcal":9827,"Ġmigration":9828,"ĠElse":9829,"ORIZ":9830,"Ġtransfer":9831,"INSTALLED":9832,"Ġreversed":9833,"Ġdashes":9834,"too":9835,"ised":9836,"Conv":9837,"ĠLIABILITY":9838,"NAMESPACE":9839,"Ġest":9840,"putVarInt":9841,"Ġls":9842,"Ġtrip":9843,"TRAN":9844,"Ġcss":9845,"ĠET":9846,"Ġtrying":9847,"Ġtraj":9848,"Ġ128":9849,"ĠNameError":9850,"??":9851,"wikipedia":9852,"igma":9853,"ĠPAT":9854,"...\")":9855,"Ġcleaned":9856,"Ġassignment":9857,"Ġzeros":9858,"Err":9859,"recursive":9860,"lio":9861,"imports":9862,"Ġmaking":9863,"Ġinteractive":9864,"Ġgreater":9865,"Eval":9866,"obs":9867,"Ġdevelopment":9868,"Ġtodo":9869,"SED":9870,"Additional":9871,"expanduser":9872,"zure":9873,"Ġcf":9874,"mploy":9875,"uby":9876,"01234":9877,"StubOut":9878,"atever":9879,"=='":9880,"REF":9881,"Ġphone":9882,"Ġspecifying":9883,"Ġpb":9884,"ĠEntity":9885,"{}'.":9886,"Ġttl":9887,"SING":9888,"etag":9889,"istant":9890,"Commit":9891,"lsxWriter":9892,"gyp":9893,"illing":9894,"Ġsheets":9895,"}))":9896,"Ġwalk":9897,"\")]":9898,"company":9899,"Optional":9900,"Ġthough":9901,"ĠFrom":9902,"lastic":9903,"ĠCorp":9904,"Ġtogether":9905,"into":9906,"weak":9907,"ĠXlsxWriter":9908,"ICATION":9909,"ĠQQ":9910,"Ġautodoc":9911,"Ġpyglet":9912,"adjust":9913,"quant":9914,"ĠProvider":9915,"ĠComponent":9916,"SCRI":9917,"Redis":9918,"Ġer":9919,"Ġsing":9920,"Ġbs":9921,"ĠFail":9922,"locator":9923,"staticfiles":9924,"assertDictEqual":9925,"ĠPub":9926,"ĠMust":9927,"irth":9928,"ĠParser":9929,"scriptors":9930,"ĠEntry":9931,"ggle":9932,"Ġarticle":9933,"ĠFacebook":9934,"Ġpositional":9935,"Ġaccepted":9936,"Ġencrypt":9937,"xxxx":9938,"ĠLaboratories":9939,"Word":9940,"city":9941,"Ġ'&":9942,"icates":9943,"Ġlevels":9944,"Traits":9945,"spection":9946,"Gen":9947,"ni":9948,"photo":9949,"Ġtextwrap":9950,"filenames":9951,"Ġdebugging":9952,"retrieve":9953,"Ġpredicate":9954,"$')":9955,"Ġdatasets":9956,"readonly":9957,"Ġfeel":9958,"Ġseveral":9959,"autodoc":9960,"Ġcoverage":9961,"untjac":9962,"ĠRES":9963,"Ġgoing":9964,"modify":9965,"Ġqis":9966,"SERVICE":9967,"68":9968,"styles":9969,"RESPON":9970,"+=":9971,"readed":9972,"formset":9973,"minal":9974,"calculate":9975,"Ġcapture":9976,"Pipeline":9977,"unce":9978,"()`":9979,"dian":9980,"ĠEnd":9981,"INPUT":9982,"BaseTestCase":9983,"VS":9984,"\",\"\")":9985,"skipIf":9986,"Ġorganization":9987,"WISE":9988,"Des":9989,"bias":9990,"Ġgf":9991,"Active":9992,";;":9993,"ĠBo":9994,"specified":9995,"riterion":9996,"WithMock":9997,"Ġhooks":9998,"ssib":9999}