#version: 0.2
Ġ Ġ
ĠĠ ĠĠ
Ġ <
l e
ĠĠ Ġ
f i
s e
s t
fi le
e n
ĠĠĠĠ ĠĠĠ
a r
i n
o n
r e
o r
a t
e r
en d
Ġ t
ar t
st art
Ġ =
Ġ< /
ĠĠĠĠ ĠĠĠĠ
l f
se lf
d e
a l
Ġ i
a n
- -
Ġ c
h e
m e
a s
i on
r o
Ġ self
i t
m p
c t
) :
" "
Ġ re
ĠĠĠĠ ĠĠĠĠĠĠĠ
Ġ '
u r
g e
Ġ p
Ġ f
c e
Ġ de
u t
# #
Ġ s
en t
or t
se r
in g
u e
Ġt he
Ġ n
Ġ o
Ġde f
a me
Ġ in
Ġ a
e x
l i
l o
e d
Ġ d
-- --
mp ort
u n
' ,
( )
e st
c o
at e
Ġ #
Ġ b
Ġ m
Ġ w
_ _
ur n
ĠĠĠĠĠĠĠĠ ĠĠĠĠĠĠĠĠ
t urn
p e
a d
"" "
o t
i d
ro m
c k
Ġi mport
e l
i s
u l
ge t
an d
r i
( '
Ġi f
i l
Ġre turn
Ġ "
n ame
p t
as s
r a
Ġf or
Ġ T
Ġt o
Ġ """
s s
' )
## ##
c h
ser t
on e
e ct
Ġ (
v al
v er
as sert
Ġi s
e s
at ion
a b
o de
u p
q u
a ge
i c
t h
se t
u m
a p
c on
t er
ĠĠĠĠĠĠĠĠ ĠĠĠĠĠĠĠ
ul t
k e
l ass
o l
at a
f rom
o d
---- ----
ar g
y pe
N one
at h
Ġ ex
e t
Ġo f
= =
) )
b j
Ġt h
Ġ [
Ġ A
' :
Ġ S
Ġc on
Ġ st
Ġ C
. _
it h
Ġ h
a se
al l
d i
ex t
r or
re s
Ġ I
l a
' ]
Ġ u
Ġt est
v i
val ue
Ġ 1
v e
Ġ L
Ġn ot
i st
Ġ e
i me
pt ion
r ue
m a
o p
Ġ and
t e
arg s
q ue
ct ion
Ġ g
in t
ab le
or m
bj ect
) ,
a m
ke y
Ġf rom
c he
p ath
[ '
t a
Ġ %
h t
" ,
t o
s ion
Ġ F
m ent
Ġre s
Ġc lass
i z
i g
( "
t r
Ġ r
Ġ *
Ġ _
p ro
0 0
p ar
Ġ None
en se
e w
o m
el d
Ġ {
t est
t ype
qu al
R e
ode l
li st
Ġ P
Ġ 2
que st
d er
a ck
u b
l in
p er
it e
o w
Ġ or
Ġ 0
lo g
u s
Ġ +
O N
Ġb e
#### ####
an ce
r ror
Ġ= =
Ġ -
E rror
Ġ M
" )
ap p
i mport
Ġ __
Ġ :
an g
Ġ file
Ġw ith
Ġ D
ĠĠĠĠ Ġ
Ġn ame
f a
Ġ as
ur l
f o
al se
o ut
E qual
Ġ un
f orm
ic ense
fi g
mp le
o ur
d ata
ri b
p o
re d
Ġp ro
Ġ me
le n
i se
Ġ se
= '
assert Equal
p ut
o c
-------- --------
Ġ fi
t ext
== ==
Ġm a
o ck
st r
Ġ an
t ime
ar e
Ġ get
Ġ O
s h
li c
ĠL icense
Ġ set
p on
Ġ assert
r y
T I
p y
u re
Ġ @
Ġ y
Ġ B
er s
ad d
co de
Ġc o
Ġd i
u le
h o
our ce
Ġ value
st ance
E R
co m
o bject
w or
pon se
Ġ E
__ (
Ġ on
iz e
i p
ct or
re ate
a g
li ent
l y
rib ut
Ġth is
t p
f f
ut h
I N
l u
Ġd ata
u ser
T rue
i m
el se
s p
] )
Ġ N
y s
ĠĠĠĠĠĠĠĠ ĠĠĠĠĠĠĠĠĠĠĠ
c lass
s c
p re
T est
p p
ce ss
Ġp ar
i le
) .
in it
d ate
ce pt
Ġ W
Ġ l
Ġ else
Ġ x
k w
I n
E S
i al
m s
Ġth at
Ġu se
th od
Ġo s
r int
i fi
an ge
ĠT he
Ġ U
at ed
ra ise
j ang
at ch
lin e
un t
Ġst r
ss age
. .
] ,
Ġ v
um ent
j o
a che
jang o
de x
E N
lo ad
ing s
d d
it y
b o
lo w
ut il
ĠT rue
Ġ at
re ad
co l
m l
Ġb y
ver sion
er ror
b u
mp l
ĠĠĠĠĠĠĠĠĠĠĠĠĠĠĠĠ ĠĠĠĠĠĠĠĠ
( ):
m o
kw args
` `
Ġ he
i ve
at or
o k
pe c
Ġw h
p ort
Ġ G
Ġ R
Ġ log
m in
C on
i f
i es
n d
/ /
ce ption
Ġ raise
le r
n ect
Ġres ult
od ule
Ġi t
il d
o s
di r
as k
i v
o u
lo c
t y
Ġ key
* *
par am
v ent
ro up
li b
> >
mpl ate
Ġ list
i eld
val id
vi ce
o re
0 1
ar y
res ult
m and
A S
ĠF alse
th on
Ġ V
m odel
ta in
Ġc h
en er
" :
Ġex cept
st at
######## ########
un ction
re quest
m it
ig n
t ent
Ġre quest
Ġ Re
s on
' '
Ġ* *
Ġ )
p h
g er
Ġu ser
an s
vi ew
Ġa pp
Ġ H
Ġo ut
O R
Ġ 3
er y
g ht
Ġp y
Ġt ry
Ġp rint
il l
g in
. __
= "
A T
Ġt ime
: //
u st
op y
l s
in stance
d b
TI ON
d s
an t
ĠĠĠĠĠĠĠĠĠĠĠĠĠĠĠĠ ĠĠĠĠĠĠĠĠĠĠĠĠĠĠĠĠ
Ġ al
a y
con fig
qu i
o g
m b
Ġm odel
Ġ en
e c
S T
b ack
ss ion
a mple
fa ult
Ġ are
Ġp ass
app end
E x
pe ct
t ribut
I C
Ġo bject
Ġun der
j son
it ion
a ve
L E
F alse
Ġ len
A R
in d
la y
j ect
Ġw e
Ġd jango
un d
de f
ctor y
D I
ption s
Ġs o
form at
ser ver
ut e
ul d
c lient
ation s
jo in
fi eld
ma in
Ġ ro
f t
co unt
ow n
ĉ ĉ
==== ====
util s
um b
k en
ce s
a ult
t ings
h is
a uth
() )
l l
ri ght
U T
t tp
Ġ ('
c reate
di ct
in fo
Ġp ath
Ġdef ault
S E
Ġ url
w w
r ite
Ġco mp
ĠI n
qu ery
at tr
wor k
Ġs h
') ,
Ġc om
ur r
Ġ }
p i
I T
co mp
ĠĠĠĠ ĠĠ
Ġs up
l ter
P ro
( [
se d
st e
Ġt ype
Ġd o
Ġs ys
fi x
o st
Ġ[ ]
Ġc ol
Ġw ill
sc ri
c or
n s
A N
up date
w ith
lo ck
F ield
and ler
ĠI f
Ġres ponse
ar d
de d
ra y
de fault
Ġa dd
re turn
re e
R E
Ġd ist
t ra
Ġp re
m is
i r
oc ument
Ġs pec
i x
it er
n ot
Ġn p
ifi c
Ġh as
Ġcon fig
Ġc an
a c
in dex
r on
nect ion
Ġn ew
Ġ all
S t
Ġ la
he ck
wor d
. """
e e
n t
---------------- ----------------
Ġ[ '
urr ent
b ase
a il
l at
Ġfor m
ht tp
ĠT his
s ize
Ġma y
i b
ab el
le d
() ,
Ġ{ }
un c
Ġ k
ar get
Ġfi eld
Ġp er
d u
f or
p en
g s
ht ml
fi n
re g
Ġ 4
C ase
n ode
ĠT est
Ġme thod
Ġt e
Ġ .
me thod
s ub
Ġ{ '
umb er
c lu
ap i
n ing
Ġh ttp
res ponse
re ss
a ce
Ġs ub
str ing
th er
r un
ar ch
or y
s ing
te mplate
d a
Ġn o
ar ray
w are
b y
Ġ K
mis sion
'] ,
Ġb u
pect ed
TION S
le ment
M E
re ct
n o
en ce
stat us
ser vice
al ue
g roup
* -
g ing
a pe
me ssage
se s
m on
ma il
T ype
Ġdist ribut
A L
c all
R es
ar i
Ġ li
le te
m an
Ġy ou
Ġ `
Ġ- *-
ho uld
m age
a ct
ul l
w rite
d o
Ġf unction
Ġ ``
Ġ' ''
Ġn ode
it le
or g
ter n
e p
ame ter
Ġ arg
N ame
per ty
ad er
model s
tribut e
o bj
le ct
l it
Ġr un
D E
Ġc all
qui red
Ġw or
g th
ho st
~ ~
R O
fo o
ĠĠĠĠĠĠĠĠĠĠĠĠĠĠĠĠ ĠĠĠĠĠĠĠ
ĠE x
Ġd ate
f er
st ate
I S
Ġi d
y n
Ġ args
m d
Ġm odule
1 0
Ġs hould
lin k
t he
if y
Test Case
um n
() .
par se
Ġ version
con text
object s
b in
n el
s u
Ġstr ing
Ġme ssage
'] )
ag er
r ame
Ġin stance
Ġ ..
li f
ig ht
Ġdistribut ed
I D
s o
m ap
Ġst at
r st
ma x
ad ers
Ġout put
c lo
Ġ error
e y
i ch
>> >
te m
Ġc reate
Ġ line
loc al
Ġb ase
] .
Ġ \
ut f
lo at
Ġ le
v el
fi lter
Ġ >
co re
ang u
angu age
po s
Ġ+ =
o ol
all y
lo b
M P
Ġm ock
' s
Ġc opy
lu gin
od y
st er
o und
') )
Ġin t
lic ense
ack age
Ġ start
re am
c a
[ "
u se
w e
Ġis instance
Ġuse d
scri ption
c re
tr ing
' t
m odule
t able
1 2
ĠC on
Ġsup er
n et
d ing
che ck
e ed
' .
d is
t ri
Ġ 5
a k
b s
a ction
t en
p r
la ce
ra ph
m y
S er
r ans
ro w
Ġ z
Ġmodel s
Ġc ode
ot e
M odel
al led
con tent
as h
ra p
to ken
it test
u mp
Ġe lif
pro cess
bu g
Ġs u
a v
Ġg o
ite m
n er
Ġa c
} )
C o
im age
Ġd b
re ctory
Ġa g
tr y
Ġc heck
Ġ Y
le ction
Ġc lient
" ]
h er
Ġwh ich
H O
D ata
and om
r it
con t
Ġ >>>
Ġin dex
Ġo ther
D e
ff er
i code
le an
s g
u al
n ew
ar k
Ġ /
mple ment
le t
y ste
Ġd is
po int
sp lit
Ġ j
C h
mo ve
F ile
up le
opy right
b ar
Ġcon text
or s
l p
A C
Ġdi ct
B ase
Ġcon tain
o o
Ġt ext
s ource
q l
Ġlog ging
re f
ĠS ee
Ġa uth
ĠU n
P I
c ache
Ġo pen
c s
c ur
d oc
ĠI S
Ġd ocument
ial iz
: `
Ġe vent
Ġ up
Ġ2 01
f unc
lic ation
ĠĠĠĠĠĠĠĠ Ġ
R L
sp ace
H E
L ist
type s
m ock
ft ware
er sion
Ġex pected
S et
en v
pro ject
set tings
s i
( (
Ġvalue s
U p
v is
com mand
ĠRe turn
y thon
' ):
Ġ !
op en
ww w
Ġfile s
################ ################
se nt
n e
ĠC opyright
ĠO R
Ġwor k
Ġst ate
Ġ X
lo t
ib le
Ġs ource
in ter
p lay
ite ms
yste m
Ġre quired
ĠA N
e at
Ġ end
ra w
iv en
M e
Ġc urrent
out put
Ġ Ċ
Ġh ave
and le
Ġi mage
le ss
vi ron
Ġ |
v ed
Ġ ent
Ġan y
Ġwh en
EN T
Ġ one
Ġ! =
E D
e vent
p rint
F orm
que ue
Ġg ener
tr ans
ind ow
ust om
ment s
a ch
Ex ception
ĠD e
ro l
de lete
ifi ed
p atch
e qual
T P
Ġ J
ut ure
end er
P ar
param s
ur ation
M L
u ct
a ke
assert True
Ġt ra
Ġcon tent
S I
Ġ json
ist er
Ġre g
Ġs c
Ġp o
field s
Ġcom mand
Ġr ange
ver t
c ls
[ :
file name
Ġdate time
ith er
N ot
o ptions
Ġset tings
G E
** **
l abel
ĠC ON
3 2
Ġma x
mission s
g r
it s
Ġo bj
Ġform at
ĠO F
a ise
} ,
Ġli mit
p lace
Ġ server
len gth
clu de
Ġp age
Ġs p
IC EN
Ġ query
p ass
se ssion
Ġspec ific
I d
a st
to col
i ck
value s
======== ========
ump y
ICEN SE
F I
ameter s
Ġ valid
en c
al s
in e
p age
l d
ist s
Ġ lo
id get
p end
lin es
on g
D i
ock et
i ew
Ġpar am
name s
ĉ Ċ
S e
Ġi tem
c l
ĠM O
ar n
Ġpy thon
Ġl anguage
alue Error
a f
Ġ ####
n um
at ab
f unction
Ġo ptions
r c
Ġg iven
pro perty
jo b
Ġe ither
R AN
Ġte mplate
s um
atab ase
mb da
IC A
u id
ari able
d jango
Ġo b
: :
fa ce
U n
Ġc od
che d
Ġ --
t itle
st ore
py thon
in put
po st
ad min
K ey
T TP
u res
s pec
Ġex pre
l an
u d
Ġ Q
t in
x y
ad ata
Ġin ter
DI F
L O
t ask
Ġ utf
Ġi mp
ex ec
Ġm an
Ġ kwargs
Ġon ly
Ġcod ing
li ed
Ġre ad
C om
che ma
Ġarg ument
U L
ta il
Ġw rit
an nel
" .
A D
sh ape
ĠY ou
u me
Ġ view
clo se
ICA TIONS
aise s
Ġc ls
ro ot
res ource
Ġp art
un k
6 4
ĠMO DIF
Ġ1 0
Ġto ken
{ '
( *
ĠMODIF ICATIONS
f uture
de bug
a in
r ange
Ġso ftware
a x
r an
00 00
p ri
Ġb ut
bu ild
Ġin put
t es
s or
Ġ ]
S tring
Ġb ack
Ġm sg
t x
Ġt arget
Ġt w
ex ception
ri ver
ĠAN Y
ĠW AR
file s
V iew
id th
c cess
Ġn umber
M A
ut o
ig r
ra m
key s
E n
co ding
con f
ĠP ro
t arget
Ġt rans
id d
ĠĠĠĠ Ċ
p s
O T
v id
G et
le ase
Ġdi rectory
i o
r t
P E
IN D
ĠA p
mp ty
Re quest
U ser
k ip
con nect
F a
y le
Ġa ction
ms g
co py
ta g
Ġa d
m od
ol s
ĠWAR RAN
d f
IN G
Ġg roup
Ġma ke
Ġt ag
A B
Ġa ct
1 1
ate g
ĠV ersion
2 01
gin e
Ġ ver
n p
h as
license s
TI ES
Ġh ost
ĠReturn s
Ġdo es
or age
cor d
er r
ate s
assert R
Ġu sing
a mp
N A
Ġper missions
v ar
ch ange
st ra
on ent
Ġpro ject
(' /
s ave
Ġt able
s ign
Ġm ust
Ġ' %
Ġex ception
p k
Ġs ize
s ys
Ġt ask
ĠP ython
fi nd
ar ed
b e
i ce
C ol
ĠĠĠĠĠĠĠĠĠĠĠĠĠĠĠĠĠĠĠĠĠĠĠĠ Ġ
t adata
ĠAp ache
C O
Ġ load
te ger
Ġin it
t op
Ġ' /
ĠWARRAN TIES
h andler
H andler
C E
st ri
ĠW IT
L icense
Ġo ption
Ġhe lp
Ġ2 00
R I
et a
le vel
L og
Ġro w
assertR aises
)) ,
Ġp ort
t ing
Ġ q
Ġ 6
he re
P O
par ent
Ġob tain
ĠA dd
HO UT
Ġn umpy
ver se
Ġstat us
') .
it or
st all
ur i
)) )
Ġapp lic
pt s
= [
Ġy ield
Ġhe re
Ġin to
e mail
x ml
as ses
Ġwrit ing
Ġ ser
or der
c urrent
fo re
p art
Ġc re
us r
Ġm in
M an
Ġparam s
ĠB AS
D O
Ġcon nection
ap ache
Ġi ter
ĠĠĠĠĠĠĠĠĠĠĠĠĠĠĠĠ ĠĠĠĠĠĠĠĠĠĠĠ
ol der
t s
L ICENSE
ĠLicense d
Ġpar ser
Ġfile name
Ġgo ver
k er
Ġfi rst
ĠK IND
Re turn
~~ ~~
Ġimp lied
Ġo ver
te mp
o us
b ody
ES T
ĠWIT HOUT
ot her
00 0
con nection
he aders
ol d
re ed
o f
2 5
li ance
Ġm atch
Ġun ittest
test s
( _
al t
auth or
U S
p ub
ch ild
par ser
") ;
ile d
m atch
Ġt uple
Ġpar ent
tribut es
in x
Ġcomp liance
I O
og le
do main
< /
Ġapplic able
Ġexpre ss
en sion
ĠN ot
cont rib
ĠCON DI
man ager
at ri
ab s
c md
" ),
ĠCONDI TIONS
Ġgover ning
Ġs i
ĠBAS IS
con d
Ġ lib
o me
T Y
o ption
sh ow
Ġres ource
reg ister
bo x
d out
et work
T ime
Ġt rue
ol ume
Ġla w
pre fix
ĠV alueError
c i
Ġag reed
es c
ĠUn less
pass word
Ġfi lter
f loat
9 9
s he
A r
ĠS t
loc ation
Ġso me
re l
Ġch ange
tern al
a it
fa il
C lient
m t
Con fig
Ġpro cess
C ON
se arch
Ġ' '
at ing
Ġfield s
ut ion
Ġn eed
user name
la st
Ġsup port
ĠB E
Ġm ore
Ġlimit ations
g ener
u g
Ġa v
Ġe ach
p lugin
A dd
r en
) ]
ail able
V alue
Ġc ase
Ġname s
at ter
Ġa b
Ġhe aders
Res ponse
ic al
Ġre t
Ġun icode
Ġex ec
L o
O bject
b lock
U N
). __
ult ip
st ant
ot al
di rect
st ack
p ackage
f rame
vis ion
l t
ĠU ser
vi de
U M
Ġde fin
a le
n ext
ex ample
0 4
yn c
Ġfi n
atri x
ĠL O
C T
st ream
Ġl abel
Ġc ache
g o
Ġf a
Ġse ssion
Ġ# !
st amp
fer ence
stat ic
Ġ update
orm al
AT E
Ġwh ile
er t
Ġe lement
L I
ri pt
ĠI mport
ĠĠĠĠĠĠĠĠ ĠĠ
ma ke
p op
se nd
Ġresult s
f la
Ġ service
ol ute
f low
ol low
m ark
Ġn e
us h
ten sion
Ġde scription
] [
C lass
i e
Ġp ri
t rol
d own
date time
m ary
du ct
Ġ 8
at ive
ifi er
T o
Com mand
Ġc or
Ġo per
I L
pre sent
Ġp os
form ation
en viron
ĠĠĠĠĠĠĠĠĠĠĠĠĠĠĠĠ ĠĠĠĠĠ
ig in
f ter
ction ary
Ġor der
Ġd oc
Ġb ody
ĠA r
F A
assertEqual s
ial ize
o ff
Ġ.. .
Ġ#! /
Ġ: :
ĠEx ception
N ode
add ress
t ed
Ġ' .
ent ity
M ock
Ġs ign
Ġt itle
n ow
A uth
m ote
r andom
Ġi mplement
re move
Fa ctory
( __
Ġ ass
s up
lob al
per t
Ġlog ger
un ittest
iz ation
de scription
Ġco unt
Ġm od
AS E
ĠI N
Ġa bs
Ġn um
Ġobject s
Ġw as
Ġget attr
Ġf loat
T ML
ĠP ar
Ġm ode
Ġf ound
Ġbu ild
al id
ent ial
Ġ local
ar ning
Ġal low
id s
Ġto p
c le
ĠT HE
pert ies
Ġp ackage
c ase
NA ME
col umn
V ER
s with
Ġ link
net work
ched ule
2 0
Ġth read
U RL
ist ed
ĠF or
res h
m ode
Ġset up
me ta
low er
Ġro ot
Ġa pi
I s
Ġ val
Ġth en
n umber
r ary
lic y
IN E
Ġs ort
lu g
che s
to ols
## #
Ġla st
arg ument
ator s
C H
a ir
A t
n own
E X
at tribute
ent ic
Ġat tr
iz ed
K E
Ġtest s
Ġex tra
o b
ition al
Ġ ar
ĠC o
c ent
con tain
enc y
Di ct
Ġs ame
e lement
ix in
de l
scri pt
3 4
bo se
2 00
_ (
Co mp
Ġ( "
on t
Ġ ed
Ġma in
p ack
Ġpar se
Ġse e
t on
f g
ch o
as ic
Me ssage
Ġset Up
he l
g ram
re ak
Ġres p
et ch
it ies
ex cept
ĠB ase
Ġs w
u i
ĠĠĠĠĠĠĠĠ ĠĠĠĠĠ
ex ists
c alled
um ns
p c
Ġm ap
bo ok
read y
. "
T ext
'' '
str uct
r iter
1 6
Ġa fter
el l
ĠU RL
ĠĠĠĠĠĠĠĠĠĠĠĠĠĠĠĠĠĠĠĠĠĠĠĠ ĠĠĠĠĠ
p lot
l ask
ample s
able d
T he
li mit
fi rst
A Y
ĠN O
{ }
-------------------------------- --------
qui re
Res ource
com mon
Ġex p
i ces
Ġch ild
s ite
st op
UL T
B u
at tern
vid er
act ive
Ġc lo
ĠĠĠĠĠĠĠĠĠĠĠĠĠĠĠĠ Ġ
re place
Ġ' __
ĠĠĠĠĠĠĠĠ ĠĠĠĠ
der r
A pp
Ġf la
ion s
Ġh andler
ok up
stri p
mb er
T H
ult i
se lect
Ġde l
ĠA PI
Ġfi nd
Ġla mbda
ializ er
col or
O P
Ġpass word
ĠĠĠĠĠĠĠĠĠĠĠĠĠĠĠĠ ĠĠĠĠ
idd le
rap per
w idth
MP L
-- -
ateg ory
i que
Ġ array
re q
Ġin fo
he ader
error s
Ġr andom
Ġspec ified
A TION
ĠW e
[ -
lat ive
en code
Ġf unc
ri de
Ġ[ "
il ity
lat form
Ġy our
r ule
5 0
__ )
ĠĠĠĠĠĠĠĠĠĠĠĠĠĠĠĠĠĠĠĠĠĠĠĠ ĠĠ
en gine
ĠA ll
Ġc md
ex p
T e
ĠĠĠĠĠĠĠĠĠĠĠĠĠĠĠĠ ĠĠ
Ġ qu
Ġ" %
ĠĠĠĠĠĠĠĠ ĠĠĠĠĠĠ
Ġte mp
w h
Q u
ĠĠĠĠĠĠĠĠĠĠĠĠĠĠĠĠĠĠĠĠĠĠĠĠ ĠĠĠĠ
Ġ ""
ĠS tring
Ġs y
Ġcon tin
tail s
Ġc ustom
Man ager
Ch ar
'] .
ĠG et
h ash
co mple
A P
lay er
Ġconfig uration
d min
H TTP
ext ra
Ġbu il
P ath
a ctor
c p
log ger
or d
( {
Ġargument s
Ġv ariable
ver y
te ms
co pe
ific ation
comp ile
Ġc ur
app ing
. ')
ck et
Q L
Ġin formation
di st
Ġcre ated
' }
d river
1 00
Ġa x
v a
ser ved
f ul
Ġ right
Ġre l
Ġf ollow
le s
um my
time out
Ġ 9
tx t
P ER
n g
I mplement
ge x
g raph
f s
i ent
**** ****
g n
Ġp ost
c li
ex it
ig h
ĠS et
th ing
Ġpo int
Ġex ist
set s
iv ed
s ort
Ġf ail
ex pected
ĠT O
Ġb lock
ool s
g en
ĠF OR
Ġat tribute
Ġr ender
back end
Ġg r
Ġ 7
o uld
Ser ver
eat ure
Test s
Ġd atabase
exec ute
Ġn on
app lication
st yle
call back
class method
si de
qu ence
Ġch ar
R un
Ġh andle
O C
a w
c an
s w
at er
Ġcol lection
" ))
red ential
Ġit s
ic s
'] ['
s ql
St at
du mp
ultip le
ĠImport Error
Ġcontin ue
set up
sh ip
Ġ vi
Ġabs olute
FA ULT
Ġn ext
. ")
E vent
ĠĠĠĠĠĠĠĠ Ċ
z er
Ġde st
ON E
le m
ul ar
ĠS E
ES S
ĠA n
Ser vice
G IN
Ġtime out
u uid
Ġdi r
lo y
T ER
iddle ware
sp ort
url s
log in
-------------------------------- ----------------------------------------
ĠK ey
Ġb ot
Ġex ample
Ġreturn s
me tadata
form s
igr ation
e red
ĠH TML
com mit
sh ared
N o
Ġal so
z one
o ok
ĠE X
result s
Ġof f
M ixin
Ġhas attr
Ġex tension
ĠC reate
S ON
un icode
h andle
D B
S S
Ġhe ader
Ġthe re
af e
Ġav ailable
SI ON
Ġauth or
en u
re pr
C all
a z
Ġsh ow
Ġc l
Ġp ub
Ġin clude
C reate
in k
2 4
__ ,
Ġpre fix
GE T
o ver
con ds
ĠĠĠĠĠĠĠĠĠĠĠĠĠĠĠĠ ĠĠĠĠĠĠ
ĠF I
in sert
ge st
\ \
t w
ĠC om
im al
t rue
Ġ job
am l
al c
Con nection
ition s
g it
d ocument
le ctor
eat ures
ay load
m ory
Ġent ry
st dout
ĠH TTP
ĠS e
la mbda
ch ar
dir name
arg v
cre t
ĠL ist
U R
un ter
Ġst ream
e ar
Implement ed
Ġo ld
ing le
Ġ1 2
Ġre present
A G
ol ver
Ġac cess
ĠA t
arn ings
ro p
Ġ err
Par ser
user s
Ġs ocket
] ))
Log ger
Ġc alled
Ġ{ "
ch annel
Q U
Ġs ql
ect or
Ġdocument ation
Ġkey s
Ġpar ameters
ĠIn c
ker nel
Ġdi ctionary
Ġcol umn
Ġf rame
Ġlen gth
ĠC ol
http s
er ge
ĠA UT
i as
L INE
ĠĠĠĠĠĠĠĠĠĠĠĠĠĠĠĠ ĠĠĠĠĠĠĠĠĠĠĠĠĠĠĠ
ac cess
as sed
cont rol
a u
= ['
G roup
L Y
start swith
Ġw here
atter ns
fa ctory
Ġw rite
Ġen coding
on ly
il ter
at ches
Char Field
v o
TY PE
ĠG ener
d ated
l iter
Ġbe fore
. ,
at ure
ĠĠĠĠĠĠĠĠĠĠĠĠĠĠĠĠĠĠĠĠĠĠĠĠ ĠĠĠĠĠĠ
A PI
Ġcall back
i a
Ġe mail
th read
Ġadd ress
Ġa p
Ġt er
Ġse nd
) ):
0 2
Ġi tems
Ġ> =
ĠT ype
co der
t mp
we b
( ['
li sh
Ġb reak
= {
a ys
sc rib
Ġrequest s
Ġli ke
view s
Ġn etwork
St ate
de pend
T E
per s
ext ension
ĠR es
b ot
ry pt
= (
bo ard
P o
se n
B U
P AT
ta gs
ĠC h
en ces
o pt
an el
me di
ĠT H
] :
Ġin d
t ree
ex c
A dmin
` .
M O
Ġle vel
li ce
Ġmethod s
ist ry
t uple
de code
p ol
Ġp lugin
Ġ utils
Ġth an
s chema
exception s
s rc
pos it
stra ct
as on
DI R
Ġs ix
Ġse lect
Ġa ut
Ġtw o
Ġtype s
a ded
ent ry
Ġf ull
c lean
by tes
Ġm o
s ystem
assert False
per i
I tem
', '
ar ds
d ay
con n
Ġo p
C L
vi ded
t ml
ĠS er
raise s
Ġhas h
3 3
i k
igin al
A l
O K
Ġ lines
Ġpro b
T R
KE Y
ĠI t
ĠD E
Ġen v
C ache
In stance
= %
Ġn ow
OR T
ight s
Ġbe en
Ġerror s
o ot
S D
y p
N D
", "
v es
T his
Ġ' --
Ġ queue
Ġ' _
pre c
ĠD ata
ĠNot Implemented
w d
r ender
ph a
ri es
lan k
stat s
tra in
I P
AT ED
O ut
Ġ license
Ġo pt
Ġ' -
del ta
Ġcol or
n on
pro file
5 6
/ %
ant s
ĠE n
P RO
1 8
t ure
de v
ĠI MP
.. .
en s
: %
qui res
Ġre q
O G
E lement
u red
trans l
ta ch
Con tent
he d
( {'
f fix
T h
U P
' ^
de fin
s y
group s
Ġ &
F rame
Ġ $
Ġt ree
de vice
s ocket
Ġm ark
node s
O F
Ġdo main
f ull
st orage
add r
In dex
t end
Ġi m
( ?
lu ster
ug h
Ġapp lication
po ol
Ġco mple
op er
Ġse arch
3 0
ve lo
di m
load s
Ġwith out
ac count
f n
C heck
Qu ery
TI CE
Ġe mpty
ĠTH IS
l ue
w idget
o x
F rom
Ġex c
ce ived
a vi
fa ke
( **
w indow
Ġreturn ed
D ate
wor ds
Ġ} ,
Ġde tails
Ġ ON
Ġr ule
liter als
b ind
re t
S h
ĠAr gs
Ġ loc
v en
le ep
Ġde lete
Ġb in
Res ult
T ask
i ff
sh ot
E L
ĠNO TICE
ĠP y
cl asses
Ġe q
1 5
Ġp assed
ter min
assert Is
redential s
v olume
c er
ĠM e
off set
Ġ --------
Ġ util
Ġre lative
W ith
A ction
ff ect
Ġdi ffer
message s
__ ':
clu ster
Ġcon n
w ner
viron ment
ĉĉ ĉ
ĠTO DO
valid ate
com ment
ro ugh
Re g
B y
i de
i mple
s kip
Ġtw isted
ith ub
ist ory
w ise
Ġde pend
ext end
Ġuser name
re quired
ta x
ra g
id x
Ġal ready
Ġ1 00
in ce
Ġre verse
s age
ro und
Ġ ###
================ ================
t il
P re
Ġ' \
Ġsi mple
s v
Ġcon vert
oo lean
ul ate
an o
p loy
s m
en coding
he lp
Ġre move
ph inx
re lease
Con text
ĠI F
Ġst yle
sp h
Ġg raph
Ġat tributes
v ate
posit ory
Ġin stall
PO ST
+ )
Ġpro vided
si mple
Ġs ingle
V ersion
PAT H
ĠNotImplemented Error
e mpty
Ġ et
Ġh tml
: ]
Ġj ust
ĉĉ Ċ
bu il
5 5
contain er
Ġch annel
1 4
In ter
sph inx
pro tocol
at ic
an not
Ġd on
ĠC heck
ol ve
p l
a uto
ĠDe fault
di ces
ĠE ND
ut ton
Ġi p
bu ffer
V alid
ĠT e
z ip
ok ie
re en
li ke
Ġn ull
ĠFI LE
Ġ< =
ent ifier
D o
ic le
Ġstr uct
tri c
le ft
um er
de st
F OR
Ġre f
G ener
" ],
Ġcon nect
g g
Ġme tadata
pro xy
Ġurl lib
child ren
col lection
EN ER
ran ch
O r
idd en
z y
'] :
r and
u sed
ke ep
8 0
ct x
ore ign
Ġm y
= {'
im um
D own
ok en
E T
ĠA uth
ce back
Ġgener ated
oc i
module s
Ġpar ameter
D is
" ):
Ġsc ript
Ġs ure
r m
l ing
Ġ} )
UM ENT
" ])
st derr
u pt
ut able
Ġfi x
str u
b it
F ilter
Ġv is
Ġver bose
I mage
H el
Ġc ho
H e
ste ad
r id
c at
Ġby tes
F or
ĠS o
clo ud
so le
di rectory
T able
re port
c ustom
in valid
ste p
i an
Ġ Z
get Logger
Ġw indow
A nd
Ġfollow ing
n ap
Ġb et
Ġsh ape
se ction
ĠM ock
ĠF ile
Ġre cord
Ġx ml
w ait
che my
r s
Ġpath s
S ER
Ġd type
Ġs ystem
S ub
w ard
Ġ' ',
Ġp atch
comp onent
Ġ ge
s lug
C ode
o pts
sup port
Ġwe b
Ġg lobal
1 9
in stall
ang ible
ER R
Ġd own
Ġw ant
Ġoption al
sum er
L ay
---- ---
s ample
i pe
ĠA pp
it ch
Ġapp end
LE ASE
stra int
Ġd f
Ġme ta
################################ ################################
su ccess
Ġ raw
] ['
a pt
Ġw idget
cur ity
she et
c c
Ġinter face
Ġfunction s
L e
an y
ĠI P
) [
if t
ax is
sh ort
so me
AB LE
ĠI D
Ġl ong
test ing
In fo
X X
] ),
t otal
Ġin st
Ġpro perty
T rans
Ġst ep
A MPL
ĠD OC
Ġcontain ing
re po
S u
ĠBE GIN
In valid
Ġ% (
z e
Ġthe y
point s
ĠR un
ho ok
L oc
al og
Ġst op
AMPL ES
Ġcor rect
Ġsub process
Ġthe m
0 3
W AR
ca use
r f
Ġad min
and ard
M S
Ġz ip
ed ge
Ġfor ms
di ff
res p
Ġs alt
pp ed
Ġsort ed
event s
Ġc lean
ue ue
attr s
In teger
RO PER
is sing
DE FAULT
A n
ĠDOC UMENT
Pro perty
ĠSE E
Ġt ri
al low
O L
yn tax
ENER ATED
Ġsw g
1 3
Ġdi rect
ss ible
ĠD ONE
Ġswg py
ĠM AY
lo op
~~~~ ~~~~
st f
ist r
mo st
Ġdis play
ĠEX AMPLES
ĠP LEASE
w rap
im er
ĠDOCUMENT ATION
ĠON LINE
Ġmessage s
Ġgener ate
OG ENERATED
ĠAUT OGENERATED
2 2
S tr
Ġb ar
re cord
ĠLO ST
ĠIMP ROPER
stf Name
ĠIMPROPER LY
ĠH ttp
ĠO pen
ĠCo mp
dis play
in ation
Ġa uto
ctor ies
Ġbe cause
ut er
f l
re st
Con tain
in s
Ġthe se
Ġcomp onent
Ġcon trol
Ġm on
enc ies
( -
me d
abs path
on ce
li ght
iz er
we en
Ġs um
Ġnode s
Ġs ave
dump s
AC K
Ġstat ic
j s
de red
Ġcon d
d type
Ġpro tocol
Ġt otal
ĠN ote
Ġex ists
vi ous
time stamp
re c
Ġback end
O S
ĠN ame
chedule r
Ġse ction
ro ute
g or
ro le
Ġlo ok
g ithub
se cret
k nown
ers on
Ġ' ,
un it
ta ck
" >
comp at
F ound
pub lic
Ġv ar
Ġin stead
' })
Pro cess
Ġre port
f older
Col umn
Ġ" /
ma ster
f fi
Ġp k
er o
F unction
v or
lat ex
g ument
. *
ge d
d ot
Ġch unk
Ġb ool
N O
Ġde bug
$ ',
d atabase
lay out
l anguage
che me
log ging
pro perties
iv es
Ġin clu
ĠT h
Ġ' <
p u
Ġpro vide
Ġcom ment
Ġf oo
Ġdoes n
D S
e re
doc s
it es
stant s
D esc
Ġp ick
At tribute
u x
ĠPar ameters
v m
Ġ ),
A c
BU G
w ays
F F
Ġre direct
Con trol
ĠType Error
f etch
Ġp h
gor ith
T EST
ĠG o
ĠAt tribute
V alueError
po licy
res ses
ĠD jango
Ġab out
pos ition
ab c
FI LE
comp ute
r ate
a a
oreign Key
N umber
A ll
T O
c ss
row s
app s
] ]
ta ct
ĠD ocument
ĠO r
Ġsh ort
L ine
Ġdi re
he ther
US ER
iv ity
cre ated
Ġpage s
sh ould
P er
Ġuser s
mb ol
Z E
Ġstr ings
x x
filter s
N S
cle ar
Ġcontain er
S c
se e
ol ution
ow er
n ormal
Ġf lask
let ed
Ġad ded
Pro tocol
A GE
tra ck
ex pr
en e
p id
Ġse nt
Ġn ormal
ĠĠĠĠĠĠĠĠĠĠĠĠĠĠĠĠĠĠĠĠĠĠĠĠĠĠĠĠĠĠĠĠ Ġ
ĠM eta
Ġtag s
Ġs he
Ġcl asses
Ġcon f
or k
Ġthe me
il y
entic ation
Ġde vice
Ġw arnings
load er
col umns
ĠJ SON
w in
ĠCon fig
[: ,
e q
Ġdefin ed
he ad
Ġex pect
Ġsp ace
F O
n ull
s ync
Ġw idth
'] [
V AL
T ra
m k
ĠĠĠĠĠĠĠĠĠĠĠĠĠĠĠĠ ĠĠĠĠĠĠĠĠĠĠĠĠĠĠĠĠĠĠĠ
% (
pro duct
p attern
Ġoff set
Ġs kip
Ġdiffer ent
ch unk
Ġth rough
Ġun ique
igr ations
ed it
image s
A M
F la
u ff
} .
gn ore
W idget
en ch
re p
Ġact ual
() [
ĠL ICENSE
e val
ĠN OT
resource s
action s
ser v
E d
Ġst ore
Ġbe ing
Ġ" .
D AT
g reg
ut es
Me thod
ag ent
fla gs
. '
= _
Ġsu ccess
nap shot
label s
Ġo ur
ad o
Ġs rc
In put
T ag
g ra
cur sor
al ar
R ES
ak es
to m
") .
ERR OR
C RE
Ġvalid ate
7 8
Ġno va
Ġs ite
assert In
Ġor iginal
ĠN o
re al
S ize
le ar
ol y
o red
Ġx range
Stat us
Ġs a
ĠW h
at tributes
Ġcollection s
P lugin
Ġc luster
ĠString IO
Ġ location
AS S
g ress
AL L
the me
Ġreg ister
IT Y
path s
fer red
Ġ[ (
t ect
k es
Ġtime stamp
p la
Ġre mote
Ġ2 0
Ġ-------- --
ĠRe quest
t t
Ġen umer
t od
package s
Ġp lace
ĠCol umn
W OR
' },
Ġ ):
s cope
Ġ1 6
le x
EN D
Ġ" \
Ġe very
s afe
Ġcontain s
ca le
re set
ro ss
s a
or n
_ ,
Ġcol umns
Call back
M odule
ĠLO G
ran sport
p air
Ġ' {
TI C
Return s
fi t
S C
name space
) ])
ĠĠĠĠĠĠĠĠĠĠĠĠĠĠĠĠĠĠĠĠĠĠĠĠĠĠĠĠĠĠĠĠ ĠĠ
s leep
Ġs m
Ġcur sor
me mber
en o
Ġc li
f d
v ariable
ĠV alid
ation Error
ca st
o auth
---- -
Ġname d
esc ape
i er
P y
ut ron
is h
m ask
Ġbet ween
ĠS phinx
SE T
Ġse cond
E nd
plugin s
l ong
Ġs chema
Ġpy test
Ġf n
te gr
Ġevent s
he ight
Ġp lt
M ap
p ed
p ing
__ .
ex ist
return s
G I
C P
Ġsupport ed
Ġ[ ])
Ġst dout
ializ ed
Ġname space
Ġthe ano
o se
Ġre place
/ '
im g
c fg
m atrix
s ure
P ORT
Ġv ari
w ay
man age
Ġbase d
st d
Ġco re
a ut
- %
Ġ keep
de cor
Ġde cor
Ġac count
ĠB SD
Ġrun ning
Ġlib rary
O n
ĠR E
de sc
pt h
s l
`` .
it ive
Ġs ample
Ġpo ssible
Ġsp lit
tri cs
r type
P L
} '.
Ġi ss
ic on
ver age
bu f
bu cket
rel ated
(' \
g ments
Ġc tx
mp t
u ch
pre ssion
Ġh ow
Ġ201 5
Ġexception s
Ġf ake
Ġstat s
B ack
O pen
mo ved
he x
Ġf alse
/ ',
ST R
() ))
t k
to ol
a len
re direct
d at
b ad
ĠG roup
Ġent ity
Ġin teger
is hed
p a
Ġcom mit
Ġax is
Ġfin ally
f eatures
ĠM odel
me an
Ġst ack
4 2
ser ies
Ġpar sed
Ġlink s
P age
) '
Ġ# :
EX T
Ġenumer ate
Ġ" __
ho me
(' %
TI ME
cor ds
IT E
1 7
f mt
T ree
Ġinit ial
sg i
Ġm ultiple
w ards
ĠM y
ĠP er
g ment
de tail
sc ale
ĠL o
p latform
ĠEx ample
Ġtest ing
al chemy
o id
0 5
s core
Ġ201 4
W indow
U B
Ġdefault s
Ġt mp
el y
r l
Ġattr s
Ġap pro
ĠKey Error
b asic
Se ssion
fer ences
I G
ĠI mage
Ġpro file
est ed
S H
Ġdocument s
hel lo
> '
Out put
VER SION
static method
get text
Ġtra in
r ad
N G
s q
gener ate
Add ress
Ġgo ogle
Ġle ft
re mote
fix ture
T oken
Ġw ait
O ne
g h
Ġm atrix
for ce
ag ic
ĠGo ogle
tr an
SI ZE
Ġfor ce
ĠSo ftware
ed i
M M
Ġhttp s
c ard
control ler
al y
lo okup
ĠCom mand
or ity
Ġright s
Ġfa iled
li me
St ream
inter face
c y
Ser ializer
r pc
re verse
he s
row ser
in st
Ġexpre ssion
le g
Ġg it
s ig
to re
lic it
Ġcom mon
local host
ar Down
Ġw x
ĠTest Case
Ġchar act
Ġclo se
6 0
S p
e ve
change d
ver ify
lin eno
in dices
I M
per mission
` ,
page s
Ġdi m
ma c
P os
p atterns
Ġp ool
Ġcontent s
ord in
b atch
In t
yn am
d t
en abled
Ġag ain
Po int
Ġd t
template s
v s
u ally
c b
4 04
Ġv olume
se c
com m
du ce
W S
m ar
Ġ el
Ġ join
y ear
par ameters
Ġ- >
Ġc fg
jo bs
Ġin sert
) "
4 4
Ġp latform
Ġi gnore
Ġpro perties
Te mplate
mb ers
Ġ ################################################################
de c
i re
E C
F oreignKey
s alt
O per
se q
P C
h avi
Ġre al
Ġass oci
po se
V E
content s
ab ility
sign al
Ġp lot
(' .
Ġen code
it u
Ġre served
ĠU se
gorith m
() ),
in clude
' re
C lo
Ġse n
Ġde c
Ġd river
ver bose
ign ore
Ġmodule s
Ġsign al
part s
und le
Ġin valid
Ġper mission
Ġac cept
agic Mock
8 6
go ogle
Ġh and
12 34
Ġimplement ation
Ġn et
Ġm at
ĠAttribute Error
bo ol
ee ded
Ġrel ated
p b
Ġhe l
A UT
) ;
Ġpart s
Ġre tri
stru ctor
pi pe
Ġcall able
pro vider
se conds
Ġthe ir
Ġvariable s
M igration
t ab
Ġcommand s
m at
Ġ lock
gr id
i ed
O ptions
g f
re ssion
__ __
s amples
Ġw hether
******** ********
S pec
s k
Ġg lob
default s
') ),
su ite
Ġre ference
g ger
Ġre st
Ġb lank
(" %
g round
pi ck
Ġfla gs
Ġ ],
Ġwh at
O ption
Ġu uid
we ight
Ġp attern
n umpy
Ġexec ute
G raph
Ġse conds
__ ()
ra pped
s pect
ĠĠĠĠĠĠĠĠĠĠĠĠĠĠĠĠĠĠĠĠĠĠĠĠĠĠĠĠĠĠĠĠ ĠĠĠĠ
Ġman ager
S ource
fa ces
Ġs ince
ĠS h
res pon
peri ment
ĠS ub
Ġen vironment
0 9
mo unt
Not Found
ub le
Ġthread ing
S QL
ic ate
cs v
ome try
ent er
Ġpos ition
Ġpre sent
X ML
ĠO n
out h
Ġpro duct
St art
task s
or iz
gr ad
Ġdi ff
p g
Ġ201 3
zer os
Ġ ##
Ġ' ')
extension s
Ġse quence
own er
c ert
ĠS QL
Ġdi vision
c ategory
Co unt
l ab
Ġan other
O UT
f eed
umb ers
r ing
Ġtemp file
ĠO S
Ġl at
trans form
Ġdis able
re gex
Ġc types
Ġfa ctory
Ġver ify
Ġchange s
Ġsu ch
c ap
2 3
is s
end ere
un ch
prec ated
ĠQ t
M iddleware
Ġw rapper
P S
lo aded
Ġm ath
Ġoper ation
(' -
Ġre po
Ġset ting
f alse
ĠD o
Ġtrans l
U E
Q ueue
Ġp ack
ĠO ptions
init ial
ex pi
:` .
ĠT o
Ġinstance s
ĠM ake
Ch ild
ĠN ode
tran sport
op s
ĠO ption
Ġp air
c d
Ġlog in
Ġun it
t ures
end point
D ec
ĠB u
set Up
bo ot
scrib e
data set
it ed
25 5
Ġexist ing
py test
medi a
RO M
c r
Ġdata set
re quire
Ġ# ------------------------------------------------------------------------
pro t
ver s
Ġsi de
se curity
ur ing
ĠS T
par e
ce ll
th is
j a
Ġp ayload
t z
Ġup dated
da pt
Ġass ign
ifi ers
c u
al ias
Ġro le
Ġman ual
ot es
ase s
8 8
ĠQ u
ib ility
var s
ĉĉ ĉĉ
av a
WAR E
' \
bin ary
p ayload
fl ush
D F
Ġre ason
command s
Ġs im
ction s
C re
e b
, )
ro ll
ĠA l
sh a
Ġst ri
Ġover ride
Ġpro xy
AN D
V I
mp y
S tack
Ġdef er
DE BUG
Ex ec
ĠD i
host name
ss l
ter s
w arning
pro p
ch ain
un ct
LO C
ch ine
Ġend point
act iv
f name
ra ft
de ploy
link s
vi rt
G L
Ġp ipe
Ġbot h
Re ad
re ference
Ġg en
Fa iled
up load
Ġtuple s
Ġtemplate s
la zy
H ttp
Ġ uri
Ġsh util
id ent
al ler
l int
De fault
S ystem
g no
Ġm apping
OR S
Ġfilter s
Ġ kw
Ġb atch
AN G
Ġst derr
Ġr v
Ġid x
Ġvi a
ĠU p
cho ices
af ter
Ġw ay
comple te
ĠHttp Response
reg istry
n one
co unter
transl ation
Ġst orage
(" /
Ġre c
Th read
Ġc ategory
di a
A s
Lay er
request s
iter items
Ġrow s
tern et
h istory
Ġi o
Ġhe ight
g lobal
TI NG
ation ship
t ex
Ġcon tribut
ĠĠĠĠĠĠĠĠĠĠĠĠĠĠĠĠĠĠĠĠĠĠĠĠĠĠĠĠĠĠĠĠ ĠĠĠĠĠĠĠ
Ġu sage
Ġbuil tin
ance l
Ġpri mary
} }
cur s
Ġw ould
ĠS imple
D U
F ail
Ġre quire
Ġf eature
ype s
fa ct
top ic
upt ools
y aml
Ġe val
Ġsu ite
m iddleware
service s
Ġal pha
Ġh igh
m ath
Ġbin ary
I f
ist ered
__ ":
Ġex it
En try
FOR M
Ġ ra
time Error
ut ed
MA X
istr ation
am b
up port
Ġcomp at
fi rm
copy right
Ġco uld
velo p
b lob
Ġ[ ],
Ġ_ ('
dis patch
et ri
over ride
St orage
Ġwor d
L en
Up date
ur al
ĠB y
Ġ_ ("
Type Error
i py
ation al
inter val
ar ies
Ġ% }
> \
ĠAN D
le arn
bo ve
12 3
e g
w riter
handler s
Ġneed s
Ġt en
ĠĠĠĠĠĠĠĠĠĠĠĠĠĠĠĠĠĠĠĠĠĠĠĠĠĠĠĠĠĠĠĠ ĠĠĠĠĠĠ
Ġto ol
reg ion
Ġ( (
s ock
Ġ" <
Ġpro gram
Ġt r
itu de
Se arch
Ġbu ffer
Ġed it
Ġm issing
Ġuse s
Ġlabel s
run ner
su ffix
AUT H
al k
Ġre pr
Ġo pts
Ġcomp ile
h s
Form at
Ġpub lic
ce l
Ġp atterns
ĠĠĠĠĠĠĠĠĠĠĠĠĠĠĠĠĠĠĠĠĠĠĠĠĠĠĠĠĠĠĠĠ ĠĠĠĠĠ
Ġlo okup
6 6
LO G
M IN
Ġre lease
C S
} ".
r b
un ds
ynam ic
i od
Ġ --------------------------------
ar ge
me tric
ĠC lient
server s
Ġcomp ute
Ġex t
ĠE vent
Pro xy
se ed
M eta
Ġallow ed
Un less
Ġre actor
w n
Ġtra ck
Ar gument
Ġed ge
P ython
Ġextension s
ĠA s
v ari
In it
Ġview s
w arn
Ġkey word
Ġcall s
ĠT ime
ser ialize
Ġadd itional
us age
Ġelement s
') (
me mory
Ġ ])
base name
P AR
Ġtra ceback
N etwork
d ar
E CT
Ġlo op
ot o
Ġc a
av ailable
ĠRe served
I ter
con vert
ĠAuth or
Ġs cope
P ort
Ġ{} )
7 5
u ce
om atic
Ġs k
mon th
ex clude
ER S
b b
ĠL og
Ġc alc
Ġa bove
Ġo wner
RO OT
Ġi gno
ma g
not e
av ed
__ .__
sup er
Ġpre vious
() ]
ic ro
g b
Ġwith in
ĠI O
Ġsu ffix
Ġper form
un ique
id entity
la ck
rule s
er ies
Ġal ways
p ng
App lication
up lic
Ġother wise
L S
ĠWh en
t angible
Ch ange
---- --
c m
j ust
table s
D ir
mb ed
f time
P RE
g lob
is ion
in f
Ġte arDown
Ġf older
Ġ1 1
U D
mis sing
dis k
ut c
LE CT
per ly
d one
e ffect
ĠW indow
Ġen sure
Ġhe ad
edi rect
Ġw ho
tod ay
Ex ist
m enu
cli ck
m apping
ĠR ights
L ink
FI G
ĠIn dex
ĠO bject
'] ),
Lo ader
Ġid ent
se cond
an ization
w here
up dated
S tore
velop ment
mo x
Ġet c
Ac count
lay ers
Ġsu bject
me th
Ġsh own
3 6
pri vate
cre ment
Ġc op
Ġind ent
Ġquery set
g t
B ar
res olver
RE AD
one s
Ġspec ify
pro b
ĠP RO
fla g
di v
'] ))
ĠF orm
ci i
H ost
vide o
at tach
AC E
Ġfla g
pro to
Ġde sc
Ġim g
P UT
component s
dist ribut
t ick
Ġpick le
up per
ST AT
P Y
st ub
ĠT ext
b az
Lo ad
Ġm erge
Ġ1 5
a ces
`` ,
work er
po ch
element s
Ġin v
4 0
Ġse par
Ġs ig
am ily
Ġpoint s
endere r
H ER
w sgi
Ġre ceived
tw o
Ġb ind
Ġd one
et s
a e
RE QU
assert Not
s d
Ġcan not
backend s
IN T
Ġre quires
by te
resh old
S chema
tra ct
ME T
O wner
ten ant
S A
arch ive
Ġsql alchemy
O f
Ġtoken s
Ġp op
depend ent
s pe
Ġshe ll
v as
re quires
Ġact ive
ro y
ĠTe mplate
Ġiss ue
Ġc lear
ap er
Ġ3 2
HO ST
e m
be fore
d ash
Se lect
Ar ray
w rit
y per
li she
b utton
ik i
iss ue
v ing
call s
B O
Ġsy mpy
ss h
d rop
M ENT
Ġex pi
C annot
Ġpackage s
Ġd at
Ġbuil der
qu ote
pub lish
ĠD is
Ġf ont
Ġraise d
o le
co ver
) *
L L
Ġ Error
ang le
G ui
Ġex pr
Ġassoci ated
m ulti
Ġ" --
B ox
en ari
Ġimage s
c rypt
Ġigno red
p lan
7 7
ind ent
Ġs outh
p red
Fla g
c ut
Ġc ert
Ġf p
Ġadd resses
ĠL oc
Ġre set
s lice
SS L
re ce
m i
instance s
CON F
######## ####
:` ~
ateg or
Col or
end swith
ass word
ut ing
h older
LE D
ĠT ra
> <
Ġm atches
app engine
Ġoper ator
ĠGener al
Do es
G R
ializ ation
end ing
Ġn eeded
(' --
host s
Date Time
en ame
f ree
ro ve
f lat
lishe d
Ġm ask
IN FO
Ġcor respon
re vision
ces ses
H T
co s
Ġst andard
Ġme an
state s
Ġb o
Ġw in
Ġextra ct
J SON
b r
ĠP o
Bu ffer
ĠP O
it ter
or ary
Q t
on s
Ġle t
201 5
IL ITY
ĠDE FAULT
ate way
S L
b stract
cor rect
down load
and as
TH ER
m ing
. %
Ġter ms
Ġ' *
ag in
p ly
ĠD ate
Ġinst alled
Ġ1 000
( \
f ont
Ġp ut
ĠIn valid
_ .
ad ded
h ing
al pha
an k
ĠIn it
i mp
est im
2 1
al le
Ġp d
Ġ" -
Ġf eed
Ġma ster
ench mark
f eature
Ġ orm
me m
Ġe ven
)) .
/ ')
p ush
if est
Ġpo licy
pk g
Ġ >>
buil der
: \
Re f
orn ado
Ġ3 0
fi ll
set default
pro c
( %
lue print
us ing
() ):
Ġman y
app ly
bo und
Ġcopy right
b er
. ',
mo ves
sing le
in line
Ġnot e
Ġm enu
id er
al ity
ĠTest s
Ġset attr
da ys
config uration
res sed
re qu
Ġc redentials
Ġm igrations
/ {
Ġk ind
ĠF ROM
ron g
Ġoper ations
argument s
Ġinter val
get attr
Ġup load
N ew
W arning
mod ified
Control ler
ĠT rans
B e
Ġtrans action
Ġchild ren
S imple
Y ou
ĠC ustom
tra ce
CON T
De lete
per missions
ee k
Ġme mber
.. ..
D ocument
unk nown
Ġurl parse
Ġ201 2
Ġs lug
Data Cache
su bject
, ))
WOR D
in ja
Ar gs
Ġby te
Ġcon s
Ġe qual
T op
C C
dir s
Ġc ell
Ġon ce
sort ed
defin ed
Ġdirect ly
as cii
Ġb ad
li p
al most
FI X
she ll
re lative
ĠT w
d ummy
Ġstate ment
ath er
Ġfin al
g pu
Ġg ot
Pro file
time s
Ġre moved
m erge
ĠRe g
ter m
Ġman age
c ing
Ġ ------------------------------------------------------------------------
Ġ layer
ĠL anguage
Ġbu f
Ġf low
Ġbu cket
c la
, '
m er
w rapper
di gest
p anel
se ns
M y
con sumer
f e
Ġde ploy
Ġ" ,
ces sed
ific ate
Ġtrans form
. )
AN T
Ġ art
Ġm ost
OF T
P ost
Pro gram
Ġt x
Ġf eatures
Le vel
b ranch
DAT A
Ġgroup s
3 5
Ġb ranch
0 6
Ġpy lint
ul ation
er ify
fail ure
i ases
is instance
Ġcho ices
Ġw rap
end ered
co okie
( """
cache d
Ġ mp
hel per
ac cept
able s
Bu ild
zer o
Ġchange d
k it
P anel
Not Exist
Ġ ))
an e
Ġ fig
Ġp la
iz es
Ġin ternal
ty le
Su ite
on y
lib rary
Ġapp ly
Run ner
[: -
U ID
Ġde termin
String IO
g l
Ġb it
Ġwork s
Ġbe havi
re v
Ġex ternal
token s
Ġdepend encies
ch ron
per m
F L
MPL ATE
red uce
Ġf etch
Ġdim ension
Ġwor ld
ĠThe y
ro uter
un try
P T
V ariable
Ġde code
cho ice
u di
Ġb asic
Ġset uptools
Ġprovide s
Ġ -------
Ġraise s
ne ss
s cheme
ro t
def er
Ġsub class
Ġ" {
n orm
Ġst ored
F ix
1 000
n n
P ri
ĠF ield
12 7
e ff
ar is
ĠX ML
ĠPro ject
read er
g ent
Ġarg parse
Ġpk g
Ġno se
3 7
R el
se p
at t
Ġin spect
ĠO ut
de cl
se mb
P ool
Does NotExist
') ]
Ġf ree
ri ption
OFT WARE
dered Dict
.. /
st one
J ECT
Ġcase s
Ġ{} ,
ĠCon tent
" }
in ternet
Ġc ap
method s
B oolean
CON FIG
G e
Ġun til
no va
Pro ject
T arget
se l
ĠRes ource
B lock
er nel
spec ific
greg ate
S ign
ĠWindow s
R ange
V ar
ass ign
L EN
Ġs cale
Bu il
t d
Ġreg ion
Ġo wn
ou gh
Back end
D et
ub lic
B ad
te red
or ds
Ġh ook
Str uct
pe at
ac y
F oo
r v
ĠF ound
tend ed
Ġch ain
query set
Ġtask s
Ġselect ed
unct ools
ar r
re try
ĠRes ponse
Fail ure
am s
ix el
Ġf d
fo und
ĠRun timeError
ĠD ec
pri ate
Comp onent
W riter
Ġre view
environ ment
Ġdecor ator
ĠE lement
D R
ser ve
ĠD B
ĠMe ssage
ĠC lo
Ġu gettext
Ġen gine
ex port
c wd
Ġre gex
Inter face
in el
in es
peri od
Ġdire ctories
W rapper
Ġre pository
Ġme mory
buil tin
Ġ ur
Ġt ab
wh en
U til
] *
W N
Ġbuil t
re view
de lay
: '
Ġst d
Ġinclu ded
I mport
25 6
n an
ex pect
AB ILITY
plot lib
vo ke
T RI
Ġm ulti
com ments
Ġo auth
as ync
set ting
vo id
z z
ĠĠĠĠĠĠĠĠĠĠĠĠĠĠĠĠ ĠĠĠĠĠĠĠĠĠĠĠĠĠĠĠĠĠĠĠĠĠĠĠĠ
) /
rt icle
c alc
loc ale
sw itch
ĠM igration
Ġm d
Ġse q
Ġ_ ,
version s
ĠThe re
Ġwork er
Ġent ries
' "
2 6
o unt
ializ ers
Ġre ce
s chedule
Ġind ic
LE TE
Ġp e
Ġat temp
MO DE
] ])
st rap
U SE
b l
Ġsh ared
2 9
get item
ys ql
ffi ci
H TML
Ġq s
Ġaut omatic
ic ally
Par se
di re
run ning
Hel lo
Len gth
in c
ĠL a
q a
ut or
OR Y
Ġappro priate
name d
exp and
A ME
O M
Ġ6 0
k ind
Ġ( %
enari o
t ty
Ġdata store
process or
option al
ist ribut
Ġpro vider
Ġto o
auth entic
id entifier
ock er
Ġd st
fail Unless
U RE
f p
ct est
fa ctor
Ġbut ton
Ġ //
gener ator
con sole
UL L
red is
Ġwe re
Ġ ,
Ġtable s
cess ary
Ġg l
ĠD ummy
de tails
B ASE
ĠĠĠĠĠĠĠĠĠĠĠĠĠĠĠĠ ĠĠĠĠĠĠĠĠĠĠĠĠĠĠĠĠĠĠĠĠĠĠĠĠĠ
yn chron
CO L
me trics
ĠS OFTWARE
Ġf lat
L abel
ul a
Ġ- =
Ġt s
g ot
N OT
/ $',
Ġco unter
Ġ[ [
di vid
h a
Ġtime s
Ġf l
Ġtime delta
Ġid entifier
Ġdown load
B utton
([ "
A ccess
Ġal ias
]) .
Re port
': '
AC T
Ġgener ator
8 4
Man y
Ġfail ure
2 7
g re
p ace
Col lection
ĠF ake
Ġdis k
D river
manage ment
hel pers
Ġper iod
ĠSt at
Ġpro p
in der
mit ted
L ib
p ower
ed itor
HER E
ir d
l ap
Ġuse ful
e v
ed ia
valid ation
nt ity
che m
ĠR ed
extra ct
q s
Integer Field
N ING
Auth or
Ġsc ipy
Ġcomple te
_ %
Ġv ector
Ġma il
Ġrun ner
c f
He ader
. \
assertIs Instance
" '
as ure
== =
il ar
in ternal
', )
Set tings
abs olute
Ġt ake
cp u
Ġresource s
Ġed itor
V ENT
Ġb ound
C ore
state ment
ve c
ar m
_ )
ab stract
Ġversion s
ri end
ub e
ĠĠĠĠĠĠĠĠĠĠĠĠĠĠĠĠĠĠĠĠĠĠĠĠĠĠĠĠĠĠĠĠ ĠĠĠĠĠĠĠĠĠĠĠ
ĠT angible
ĠM agicMock
ip ient
R out
w arnings
Ġiter tools
' %
w s
Ġo c
ĠSer ver
A pi
Ġy aml
D ATE
Ġinclu ding
all close
at io
g ame
ref resh
ra ys
Pro vider
Ġ5 0
gra de
trans action
STAT US
l ang
(" \
w x
Ġo k
ue st
Ġb lob
Ġmod ify
Ġp a
con st
ĠBu ild
h n
open stack
or ator
play er
or iginal
ex pression
Ġen viron
SE LECT
IN TER
a ff
Ġne utron
in v
and id
man ual
FORM AT
ul k
D ep
ex ternal
3 9
d st
Ġrepresent ation
Ġcom bin
av ing
input s
=' ',
ĠUp date
> </
Ġdistribut ion
i us
ĠThe se
b al
co res
J ob
= -
c red
Ġsource s
C TION
t ion
) ',
w atch
C an
sub process
Ġno qa
frame work
s napshot
ol l
Ġme ans
u int
config ure
201 4
document s
b eta
Ġw ell
gener ic
Re cord
co me
En coder
Ġ layout
ĠW ork
contain s
Ġrule s
Ġse cret
exec ution
) (
/ "
Ġset s
Par ameter
ĠQu ery
c urr
Ġs afe
c redentials
ler t
Ġbe gin
Ġn umbers
ĠM IT
Ġlo aded
Ġb oolean
0 8
m q
ĠT ask
Ġadd r
divid ual
work flow
N UM
am er
Ġloc ale
ffici ent
i li
ar a
i fact
re ason
MA P
d raw
me mbers
Ġag ent
ist ent
b lank
Ġc y
Ġsen der
Ġimport s
sen der
h q
(' _
ific ations
ĠH el
vis it
re pository
z en
ĠL I
ateg y
W ork
> "
Ġ4 2
de leted
// //
ok ies
man y
ip s
Ġme tric
as y
Ġk now
con stants
LO W
val s
sum mary
Ġd uring
P R
Ġch art
w er
Ġvari ous
ut ation
Ġd ump
] ):
b its
Ġr ad
clo sed
Form atter
se quence
Ġb ox
s ity
2 8
Ġcond itions
project s
( ('
Ġre vision
Ġst ill
sp an
cent er
d ns
ri ft
Ġs ock
Ġ201 1
Ġter min
M od
un i
ĠC all
ĠP ost
Ġser ializer
Te X
D ES
Ġhttp lib
Ġbe low
g mail
] +)
Ġp ixel
as c
Ġen able
mb ols
Ġcurrent ly
e ver
pri mary
A ct
AR T
Ġf uture
ĠT able
Ġgr id
Ġload er
\ '
ĠRe ad
M ulti
um an
DE D
ĠIO Error
M ode
s n
Ġd ot
ĠM an
fin al
S M
so ft
fix tures
RE CT
Ġth ose
Ġfi t
par ameter
edge s
g res
Ġs lice
aris on
S ec
. ",
oper ator
C ho
([ [
] +
ĠS ystem
Ġy et
Ġz ero
Ġ ).
Ġauth entication
1 99
h igh
fa iled
h one
in teger
qu ot
ĠN umber
Ġsome thing
ategor ies
script or
ent ries
Ġd er
ĠF lask
v ance
Ġde leted
Model Admin
Ġinput s
w all
ag ing
Ex tension
HE AD
[: ]
Ġal gorithm
Ġsub lime
ful ly
PI PE
Hel per
add ing
Ġa st
Ġaction s
dapt er
D ER
lot s
Ġde precated
sp aces
B UT
et adata
sq rt
I F
pe t
ĠC O
ma chine
ĠEx amples
De vice
CO MM
Ġcache d
__ ),
Ġ-------------------------------- ----------------
su ch
Ġcharact ers
Ġf name
0000 0000
CRE T
ĠIn teger
rap pe
change s
A X
Ġnot ice
Ġwor ds
Ġp l
k ed
v ector
ĠC re
cor ding
d r
Ġ[ ('
P art
h our
Ġex clude
process ing
n a
Ġwe ight
i ver
ĠSer vice
get value
J o
P assword
s im
cond ition
ĠLa TeX
Ġcorrespon ding
m ultiple
pe ar
Ġdel ta
ro id
et c
Ġ[' _
bo b
Ġvalid ation
Buil der
Ġp erson
MA IL
port s
4 5
connect ed
pol y
Ġtop ic
REQU EST
Ġ1 3
Ġme dia
quest ion
en able
Ġv m
T ransport
Contain er
V is
Ġor g
her it
M D
Ġcon stants
ong o
Ġ lin
ĠOut put
Ġclo ud
ĠWe b
> ',
Lay out
P ES
A uto
OP Y
uplic ate
Ġt akes
Ġpart ic
i ke
ri p
Ġos lo
ĠC OPY
stri ct
p us
g ative
cre en
Ġexec ution
ĠOr deredDict
Ġautomatic ally
Ġz one
0 7
Ġiter able
F eed
Ġmax imum
Ġhash lib
ste ps
('/ ')
Ġagain st
p n
col s
ir st
aw n
Ġstruct ure
ifi es
fla vor
Ġs cheduler
} '
Ġcon straint
De ferred
Ġrepresent ing
Loc ation
Ġu s
list s
let ing
tex info
ĠCon nection
decor ators
medi ate
ro ad
F ake
u ate
comple x
Ġf unctools
am ount
select ed
Ġdoc s
DI S
te am
Ex it
Ġ ?
ce ed
Re ceived
ĠO ther
con tact
ver ter
Ġs core
list en
Ġdefin e
ĠC ode
M IT
Ġ' )
str ings
Ġen abled
List ener
Ġp andas
ar ange
target s
Ġdefin ition
Ġi con
IC E
Ġc v
Ġbehavi or
Ġor igin
Ġdist utils
Ġmatch ing
Ġse curity
Ġspec ial
il ities
ĠP re
Ġopt im
A A
ch art
ĠA S
ten sor
Ġdest ination
rec v
Ġc sv
Ġallow s
__ ))
Ġcon struct
ist ic
Ġi ds
Po licy
in ary
sc reen
ns ure
Ġne cessary
Ġrequest ed
FI L
Ġin dependent
__( *
qui ck
oriz on
b all
r u
sy m
ro les
AR Y
tegr ation
at om
M atch
Ġd ummy
Ġfi ll
s parse
res olve
t imer
wor ld
Ġfile names
Ġsy m
Program ming
Ġ1 4
du cer
TE MPLATE
Ġser ies
de pth
Ġ lower
Ġle ast
5 9
ut down
ĠĠĠĠĠĠĠĠĠĠĠĠĠĠĠĠ ĠĠĠĠĠĠĠĠĠĠĠĠĠĠĠĠĠĠĠĠĠĠĠĠĠĠ
Ġ[ -
ĠX XX
ĠC lass
b log
Ġgr ad
re tri
Re ader
Ġl ater
ĠDocument ation
: -
B ACK
ro zen
col ors
k a
Ġ vert
ip her
r r
time zone
7 6
3 1
{ {
Ġmo ve
ĠW S
S tyle
Ġd raw
Ġmat plotlib
Ġto day
) ],
Ġdis patch
d uration
ast ype
5 00
as set
h and
Ġpy py
Ġimplement ed
M on
I ME
ĠLo ad
pend ing
rag ment
Ġr endered
Te mp
ĠV iew
S o
par sed
ĠU SE
let ter
f un
Ġs cheme
per son
ĠN etwork
sql ite
D oc
sign ed
allow ed
u ation
sc alar
j or
Ġp id
bo sity
pipe line
Ġis n
w iki
Ġin dividual
De fin
ĠS c
Ġb its
Ġact iv
Ġlist s
Ġt ransport
MA IN
s ix
ial og
= ""
Ġpre v
upport ed
sub net
ri c
ep copy
Ġmap s
dash board
map per
or igin
Ġ' #
Ġvis it
co st
C ustom
O UR
ĠFound ation
back up
r upt
add Callback
mo re
R ule
Ġm ight
E mail
ĠAUT H
Ġb est
yste ms
ist ics
Det ail
g ers
Ġc at
Ġw rapped
Ġe qu
G B
Ġcon sole
H andle
count s
fix ed
M ES
e lem
ĠM odule
Ġde cl
ci pe
Ġimplement s
R edirect
Ġpub lish
Ġcontrol ler
Ġsign ature
ĠP Y
4 00
F low
p m
Ġa mount
n ail
scri pts
Ġav oid
struct ure
Ġexp licit
code s
201 3
si red
L ock
Cre ated
201 6
Ġass ume
Ġme m
Ġdec imal
Ġe v
ĠF unction
Ġpri vate
con straint
stant i
Ġcon st
Ġcomponent s
Ġtime zone
al ys
Ġw arning
Ġd ay
ĠB e
ĠIn ter
Ġreg istered
Ġt yp
AP P
__ ['
D atabase
G ER
Ġ low
pt r
ex e
ĠL ine
Ġnull able
Ġcall ing
E W
ĠA R
amer a
alys is
int s
list ener
Ġy ear
with out
e le
m m
P ASS
m ult
9 0
pol l
Ġme trics
ĠS pec
Ġ2 5
S he
_ ):
Ġex act
Ġco okie
Ġconnection s
support ed
u ses
Ġco ordin
il ing
bo o
mo us
oper ation
/ (?
SI G
, ),
ĠAdd itional
Ġde scrib
re cords
Ġact ually
Ġat om
Ġbase string
Ġst uff
igh b
is o
sign ature
+ +
Ġw riter
Ġhost name
Ġc s
: ])
ad apt
FI EL
SER VER
compat ible
Sc ript
Ġp lay
Ġhel per
am ma
ĠG e
equal s
Di ctionary
ĠH e
P ick
al loc
A li
Ġma de
o pe
te p
be gin
co very
ir c
n eed
ct ype
G HT
Ġcon sumer
56 78
Ġh ome
Ġl arge
C I
pre ss
iv ely
Gener ate
Ġn orm
U RI
al th
ĠO THER
Ġp lan
for um
ser ializer
mon itor
Ġc ross
Ġd id
Ġm ime
ĠT EST
OR E
resh ape
pre pare
Ġk ernel
as hes
fi re
Ġent ities
Ġ' '.
STR ING
Ġn s
log y
SE CRET
curs ive
p x
requ ency
Ġr df
Ġit self
ou se
Ch annel
Ġcli ck
Ġid entity
Ġmon th
auth ors
run time
Ġ201 0
And Return
ref s
m igrations
re actor
ot h
W eb
ĠAr gument
IN ST
col lect
Ġmod ified
clean ed
al g
ĠD AT
ge o
lo pen
b reak
ch an
Se quence
Ġ< <
Ġcharact er
g z
{ %
/ <
Ġan not
TY PES
tw isted
igr ate
[ ^
ul ated
Ġin dices
pre dict
resolver s
Ġl on
U rl
vide s
ĠĠ Ċ
fa st
Ġd ig
ĠO ne
UN T
Ġre try
PRE FIX
ue ss
om ial
ĠH ow
C A
ĠPer mission
Ġvi m
* .
ĠI s
lat est
ĠQ ueue
Ġpart ial
n x
line ar
Time out
b ra
Ġh istory
Ġ" _
ly ph
ĠIn stance
Ġwork sheet
ĠOn ly
Ġt ornado
Config uration
ĠValid ationError
source s
8 9
Re ference
m ysql
Ġat tach
O B
ĠS ome
En gine
CL ASS
f ollow
m c
Loc al
Ġk nown
Ġre cords
Ġsupport s
main ing
R ole
ĠL e
Con nect
base d
Ġwrit ten
_ :
Ġgo od
Gener ator
li m
di stance
Ġhandler s
log o
len code
Ġar ound
P ackage
Ġor ig
au ss
ĠS p
se par
Ġh app
ĠIn t
AC HE
W or
iv ar
Ġro ute
ener ated
ke t
Type s
Ġab stract
> `
un pack
variable s
at ar
Ġc la
Ġe lem
g on
ĠL ib
Ġ} }
er ic
Ġro uter
g p
umb nail
Ġauth entic
Ġpipe line
R ow
4 9
Ġprob lem
ĠV ER
Ġre fer
pri ce
t le
Ġreg istry
Ġsy mbol
ĠNOT E
: ',
sert ion
11 11
T ool
Re gex
ĠSe ssion
File s
ag raph
g reen
s ame
li ct
serv ation
m ime
ĠM atrix
EN TI
Ġwork ing
Or der
Ġ ()
ge s
i mplement
c ancel
se gment
Ġcre ating
S ocket
Ġ1 9
S V
Ġback wards
j ax
log s
Ġcorrect ly
ĠOS Error
AG S
p aper
scri ptions
r al
Ġt t
ard own
function s
DI A
fin der
un ic
d c
ay ment
tect ed
h idden
ĠĠĠĠĠĠĠĠĠĠĠĠĠĠĠĠ ĠĠĠĠĠĠĠĠĠĠĠĠĠĠĠĠĠĠĠĠĠĠĠĠĠĠĠĠ
is dir
Ġn x
std in
j ar
Ġp ur
avi g
# ------------------------------------------------------------------------
S ome
depend ency
â Ķ
or ig
Ġt z
Ġsh a
do uble
ens ure
) ')
process ors
Ġs leep
Un it
Ġf ast
exec utable
ĠAdd ing
ĠI mp
ĠT ag
sc an
ĠN ew
ĠWS GI
la ve
ls x
f req
Ġt ick
is file
con v
rep ly
CO MP
Ġfin ished
8 5
D ialog
Ġp red
ĠR aises
Un known
Ġinit ialize
F loat
DE LETE
ĠP AR
time delta
iv alen
see k
Ġcop ied
Co uld
O ver
b rowser
p df
ca pt
inter faces
exist ing
se lection
Ġs amples
ol ved
') ))
sh ift
Ġservice s
TING S
U I
agin ator
B asic
ĠI tem
Ġs aved
Ġupdate s
Ġde v
ĠG raph
Ġdist ance
ĠPro tocol
part ial
Ġcon structor
') [
M etadata
Ġp i
ile r
Ġcond ition
Ġencode d
Ġover write
Lo op
Ġopen stack
li ck
C RI
ĠU RI
Desc ription
f c
Ġp ush
Ġse ss
Ġ lineno
ur ity
response s
Ġbot tom
limit er
g y
Ġqu ot
Ġs yntax
w eek
ab ilities
ĠPro cess
an cer
Ġmap per
C ESS
Ġse ed
ĠQt Gui
ĠP ath
O p
t ar
Ġd s
iter al
channel s
ĠO Auth
L ast
k s
On ly
all back
M o
ĠS tr
M in
"" )
ites pace
W rite
In line
e cho
di ctions
LO AD
ff set
pick le
Ġsk learn
' d
ony mous
P ACE
sub mit
======== ====
ce d
Ġ10 24
per cent
Ġstate s
eff s
Ġap pear
n b
Ġs sl
valid ator
TRI BUT
M ax
in ner
Ġres olve
T EXT
li ve
ĠB ad
Ġsi mp
ĠA dmin
ĠP ublic
Ġclo sed
g gest
col lector
Config ured
Ġpair s
app ed
b um
DU LE
dim ension
Ġr ate
Ġplugin s
ĠA c
ĠN S
i um
ul ator
Ġ""" )
ĠĠĠĠĠĠĠĠĠĠĠĠĠĠĠĠ ĠĠĠĠĠĠĠĠĠĠĠĠĠĠĠĠĠĠĠĠĠĠĠĠĠĠĠĠĠ
00 1
fo ot
C opyright
Ġin side
Ġter m
VAL ID
âĶ Ģ
s in
Ġn ested
are a
comp ress
prec ation
F T
A gent
12 8
o om
key word
spec s
Per mission
Valid ationError
en um
s yntax
w ar
r aries
b a
vis or
Ed itor
\ .
Ġs n
Ġfi l
Ġone s
Pos ition
road cast
IC ES
Ġre ferences
Ġm s
Ġpro to
Ġfail s
A ss
(' <
un its
st ers
ĠA nd
ĠPO ST
ip v
session s
sign als
sy mbol
RI GHT
Ser ies
CO DE
Cho ice
ĠS H
ON G
Ġiter ator
Ġse gment
Ġbot o
Ġd rop
ĠO per
pro gress
ok ed
url lib
C lean
ĠS chema
ĠM ulti
____ ____
pri ority
A d
mon go
Ġ2 4
b undle
(" -
Ġwork flow
assertNot Equal
} /
h ow
Ġcore hq
Ġf mt
Ġp layer
bs ite
Ġg ame
Ġf oot
Ġg re
Ġcheck s
Col lector
ĠPar se
Ġnot hing
NA MES
D jango
(' .')
IG N
k lass
ĠP age
set ter
AS T
R PC
b ed
Ġfa ctor
LOC K
s chem
ĠC LI
7 9
n ed
F C
at ial
Ġcre ation
Ġapp s
x s
Ġun known
ab ly
e f
âĶĢ âĶĢ
ĠCh ange
n ested
Ġcol lect
DI RECT
ri ve
ĠF oo
read line
Ġorder ing
pre v
ls o
ĠE d
od oc
Ġex port
Ġ4 04
vis ible
art icle
we ights
li es
ĠRe move
du ction
Ġro und
Ġgr ant
W e
Ġwe ights
Ġ( -
LI ST
VAL UE
Ġre dis
Ġsc an
Ġl l
S ite
ĠC an
CL UD
al ign
ĠM GL
Ġlist ener
account s
d n
wh ich
: "
= ["
ro perly
Ġpro c
Co mple
({ "
U sed
W IT
file path
ĠV alue
Ġc b
Ġsup p
ae mon
di ffer
pre vious
Ġresponse s
) }
W R
tmp dir
Ġca use
S U
Ġm k
Ġro t
sen try
( ',
S um
R oot
Ġ estim
s cheduler
Ġdefault dict
Ġoutput s
custom er
foo bar
depend encies
Clo ud
ĠGener ic
rece ive
network s
h i
li er
ĠInit ialize
> ')
Ġde lay
ĠW HERE
ad ing
A TIC
Lo okup
W h
Ġun its
fin e
Ġgener ic
add resses
defin ition
sm art
ĠSt art
amb le
) \
Ġarg v
ĠS hould
~~~~~~~~ ~~~~~~~~
R ed
aw s
############ ###
P TION
Ġstart ing
block s
a ster
Ġp ers
Ġb oot
b eat
mo b
Field s
pla in
g ree
i i
str ftime
m atches
Ġpro gress
= ('
Ġs pe
C K
Ġtra it
con s
sertion Error
ro om
oc ial
sub scribe
Ġ2 55
C LI
ĠCon text
ĠCom ment
ĠLoc al
R C
or ph
0000 00
' ll
Ġerr no
Trans form
ĠA ction
Ġcon t
Cannot Contain
Ġindependent Data
qu are
not ify
" \
r ation
Ġh ref
act ual
cs rf
u ous
Ġc m
ir s
H as
i ally
Ġ escape
Par ent
T ab
i mpl
Ġ video
ĠG ET
dis able
cl one
d x
or ing
Ġg ra
vid ers
list dir
Ġx s
float ing
Ġretri eve
h ref
DateTime Field
M ark
end ed
tra ceback
Ġpri ority
ast ic
ĠStat us
ivalen t
Ġten ant
Name s
" /
Ġw atch
glob als
Ġcom ments
F eature
E ntity
Di rectory
OK EN
Ġ201 6
pair s
Ġ[ {'
Ġcomp are
Ġs phinx
Ġreg ular
assertIs None
de p
ant ity
Ġe mit
Ġte am
su me
ne utron
g a
T F
Ġpar sing
MA G
j am
201 2
r d
Ġde sired
V olume
+ '
clean up
activ ate
St ub
b ig
str ument
ĠCon vert
ier arch
Ġstr ftime
E num
Ġb rowser
th reshold
Ed it
(' ',
ĠAn y
ĠF ilter
St op
bind ing
Ġin ner
AD DR
ĠA lso
Ġlist en
alen dar
config s
A bstract
R andom
Ġp oly
Ġ$ {
ol ds
Ġfix ed
Ġnot ification
ĠO ver
d l
co pi
tri gger
deploy ment
AP PS
thread s
CLUD ING
Ġ' [
rel ation
frame s
Ġpartic ular
T OKEN
roperly Configured
Ġt m
Ġs chedule
L D
ĠM ark
} \
ĠS top
ĠUn icode
DO MAIN
Ġn d
Text Field
a lf
de mo
ly ing
h ist
connection s
e poch
f amily
y es
Ġk lass
" %
2 000
d raft
Ġ1 8
Ġurl s
comp are
================================ ================================
ĠG it
hook s
End point
Ġcontribut ors
C ur
ix ed
I ST
Ġt urn
example s
Ġin te
mt ree
A F
pro gram
Ġe ffect
Ġblock s
dest roy
C R
Ġd uration
format ter
C ACHE
com ing
di ms
V ICE
for ward
Ġback up
Ġframe work
Ġal ong
ĠVER SION
ĠĠĠĠĠĠĠĠ ĠĠĠĠĊ
') ])
O pt
U ST
ĠD atabase
on ical
E MAIL
N U
ĠJ o
f ra
Ġc urr
ĠV erify
m u
ĠDE BUG
w t
Ġthread s
c id
ĠF loat
mob ile
Ġth ings
sent inel
SET TINGS
MET HO
andid ate
3 00
Ġse en
output s
Do main
part ition
Ġaut og
Ġtransl ation
lo ss
AN CE
- >
po sed
Ġse c
TIME OUT
ĠA D
Ġstart ed
boo lean
Ġse lection
Ġhost s
Ġsw itch
Ġdetermin e
not ification
p lt
Ġse ns
I Z
en sor
Ġconfig ure
OC K
Ġ4 00
rid ge
Ġre cent
ac l
normal ize
N ESS
j ava
ER CH
Ġcompat ibility
6 5
c um
h ave
{ "
s li
len t
O bj
un der
T CP
j ac
ĠDe lete
Boolean Field
PASS WORD
: ",
data store
ag gregate
AL LED
ERCH ANT
RO UP
3 8
m ultip
Ġs ync
ĠApp lication
Lib rary
Ġde pth
ot ype
Pro duct
alle l
M agicMock
w alk
ĠT ry
=' /
Ġ200 9
get ter
Ġre ader
Ġpre c
pl us
b t
Ġf ur
Ġ ################################
RE D
Ġser ialize
w b
Ġan sw
M T
ĠE ach
it al
Ġten sor
set item
Con vert
ĠData Frame
p ad
Ġdo ctest
url resolvers
Ġf akes
Ġre p
ĠOption al
Top ic
f lask
Ġs l
ch dir
y mbol
Ġfla vor
k t
Me mory
ran k
Ġto ols
Ġcomple x
OUR CE
st mt
ĠS ite
Ġcol ors
99 99
asc ript
Exec ution
vari ance
Un able
fin ished
M ultiple
Ġc r
Ġget s
Ġlocal s
Ġcho ice
Ġpixel s
S end
author ized
r ng
d om
Contain s
Ġma c
Ġvalid ator
Al chemy
P erson
w rapped
Ġex amples
Ġpro mpt
Ġrun s
ĠEx ec
ĠS SL
Ġas ync
man ifest
UN K
ynchron ous
le v
Stat s
Ġs q
call able
Al low
M ake
sp am
parser s
Valid ator
yntax Error
ado op
al ing
opt im
utc now
4 8
Ġreg ard
C HE
st ar
Ġserver s
Reg istry
transl ate
Ġ5 00
Ġtarget s
case s
Ġkey words
g un
ĠIndex Error
CONT ENT
cre te
g ui
ĠPo int
Ġ jobs
> =
b est
av ascript
DAT AB
/ {}
as semb
Ġhe x
UN D
Ġar r
W E
rand n
Ġal ign
ang ing
ot ify
IT NESS
=" %
Com ment
Ġma g
Co effs
comple ted
co gn
pro g
Ġro bot
Ġhigh light
org anization
Ġc apt
Re actor
=_ ("
Ġtheme s
**************** ****************
Ġt b
ĠS kip
"] ["
Ġ'* '
de s
dest ination
c v
ct ypes
ace book
p in
F R
Ġp ip
M enu
let on
Ġne ver
decor ator
B inary
Ġco ver
MO DULE
oriz ont
Ġcompile r
at ched
Ġin Coeffs
ĠT oken
local s
ĠD A
En vironment
r df
Ex pected
Ġqu ote
D ummy
rag ma
Ġhand ling
pro mpt
Ġsql ite
Ġtri gger
sub lime
Ġany thing
201 0
Ġ"" ,
rand int
ap pro
ked irs
M apping
r atio
Ġre v
Ġvi rt
U sage
V AR
Ġ1 7
P open
Ex ample
ERCHANT ABILITY
T w
ens ity
a lect
c ar
Me mber
Ġrel ationship
ze ug
Ġglob als
Ġexp and
([ (
iter ator
Ġpla ces
UL AR
window s
sec ure
H ash
mk dir
Ġd ue
for med
LI ED
Ġside bar
} :
} {
Ġb undle
map s
in ct
start ed
k zeug
e k
se lector
ho od
ĠM ap
ĠN ow
b lue
char s
Ġnormal ize
_ {
key words
AS K
ĠĠĠĠĠĠĠĠĠĠĠĠĠĠĠĠ ĠĠĠĠĠĠĠĠĠĠĠĠĠĠĠĠĠĠĠĠĠĠĠĠĠĠĠĠĠĠ
CH AR
ph one
T S
V ert
fi l
# '
Ġ' :
compile r
Re quired
b lack
c us
con firm
By tes
Ġsupp lied
i co
r gb
widget s
N um
e mit
k ill
'] ]
G o
g i
ad ow
ect ion
Function s
cut s
Ġfoot er
. '''
Ġimport ed
) ")
Ġs napshot
g is
nd array
ript or
fa kes
Ġreplace ment
Ġl ang
in i
Ġle ss
Ġgr r
Ġprocess ing
9 5
P ack
Ġ{ %
t b
Ġs creen
AN Y
Auth entication
M B
Ġqu eries
th at
post gres
Ġ" (
ĠOther wise
h ara
st it
ĠM ERCHANTABILITY
O b
Ġconfig ured
d ent
s lots
Ġa ctor
ĠE nsure
ĠH andle
Ġper cent
ĠA ct
R est
Ġp s
/ .
_ '
ct l
ĠĠĠĠĠĠĠĠĠĠĠĠĠĠĠĠĠĠĠĠĠĠĠĠĠĠĠĠĠĠĠĠ ĠĠĠĠĠĠĠĠĠĠĠĠĠĠĠ
Ar g
Ġsign als
Ġm ult
Ġth ree
ĠO K
Ġr pc
n ative
or ation
get cwd
Re mote
ĠMe thod
Ġoc cur
do es
Test ing
end or
Ġu i
IM IT
av es
Result s
ĠP erson
cl us
avig ation
f r
Ġre ST
Ġre duce
Ġc t
ĠU sage
Ġco st
Ġpro duce
ĠDe leting
inst alled
ĠS ign
Ġver y
Value s
comm un
ĠTw isted
Ġdir name
Ġchunk s
an aly
ĠB oolean
stru ction
M issing
ir cle
Clo se
Ġsim ilar
b la
ak er
lic ies
Par ameters
k ing
6 7
int ain
PO SE
le ms
ver sed
S Y
Tra ck
auss ian
arg in
Ġs v
ma y
serv able
Con straint
Ġsu c
T er
ĠS m
Re move
Ġlog s
Ġpro perly
Ġ'/ '
" ].
di g
Ġcon tact
ee p
Owner Id
P oly
] }
Ġc u
ri pts
orizont al
Ġp r
s ur
Ġpack et
lin ux
m ut
Ġ ----------------------------------------
ge om
ma le
go od
ĠD on
Ġun i
assertIs Not
m time
t ions
velo pers
ex periment
Ġma kes
c mp
Data Frame
virt ual
A V
I R
] ],
jam as
co untry
Ġdire ction
S UB
og raph
http lib
mark er
Ġinsert ed
Ġs sh
Ġtrain ing
ĠM od
et ree
ĠP lease
wh ite
PRO JECT
t cp
Ġc red
ĠA bstract
At tr
add itional
Ġautog enerated
me s
get her
ff ff
ĠDe velopment
ĠC or
clus ive
g id
authentic ated
ĠM o
Ġconnect ed
Pick le
* (
Ġun pack
init ialize
ĠR el
os ite
8 7
el ls
format s
TH ON
a ma
j id
de epcopy
pi x
ch or
ta ched
/ ?
Ġmark er
c nt
Ġbu g
ĠCon tain
Ġp ower
ation Test
I tems
Ġup per
A v
Ġcon v
di o
Ġs ur
Ġcode cs
ĠAr ray
par k
Ġstri p
d p
m ot
re peat
Ġread y
ĠIn put
ĠAdd ress
C HO
Ġre ply
Ġ{} '.
is ode
> ,
sh are
mb ic
Ġformat ted
Ġcl one
Owner Account
` )
ĠP UR
AR D
Ġc c
Ġm is
ĠW or
M atrix
e fficient
mo ving
Ġ 64
co okies
ĠP lugin
Su ccess
= {}
M AC
volume s
copi a
Ġ" #
ID D
uff le
res ize
update s
ĠConfig uration
Ġb ig
Ġfunction ality
find all
m ust
ro s
Ġp anel
Ġin stanti
Ġma chine
DE X
ren ame
ĠSe lect
ĠO UT
pp ing
bot tom
4 7
P ipe
Ġ es
ĠL IMIT
pre ter
C UR
Ġgener al
F S
ap sed
Ġback ground
MA GE
flat ten
al iases
ac quire
ail ability
Ġinit ialized
1 0000
W ait
r mtree
ĠDec imal
E mpty
ĠA d
Up load
Ġt f
ĠIP v
WOR K
sp awn
Ġb eta
Ġu id
S tep
b and
d ic
ĠA rticle
19 2
og ram
e gg
l on
s cores
set attr
Ġab le
ĠImp roperlyConfigured
g ate
cont in
al a
Ġw rong
qu ences
client s
Oper ation
iv y
reg istration
p ip
B C
s id
split lines
P lan
ĠT ree
ĠB asic
unt il
A IN
C urrent
Ġp ol
to ur
Ġres pon
Ġser ve
Fix ture
ĠPUR POSE
udi o
Ġex periment
Ġr t
iter able
grad ient
ser ial
Ġsum mary
ex act
Ġwork book
Desc riptor
Iter ation
Ġp print
ma kedirs
url patterns
ST ATE
in ux
Ġle g
Ġf e
, -
Ġdimension s
ro ker
Ġex tend
vi le
tr l
re ceived
icro soft
Ġla zy
() ).
Ex p
O Auth
s ites
Ġtemp orary
Ġattemp t
need s
Ġf req
bo unds
Ġexec uted
boot strap
! !
ger print
Ġsc alar
TIC ULAR
ir cu
N ET
Ġe p
ĠSe arch
C ategory
Ġ4 0
() ])
ĠTh read
Ġedge s
ĠTe am
201 1
R enderer
} ),
Ġme mbers
ER Y
V M
] '
(" --
fig ure
6 9
fin ity
Ġt y
ro ken
J ANG
Ġi prot
co ords
Ġcon stant
Sh ow
Ġh our
ME DIA
Ġtra ce
ĠA ss
ĠSt ate
ater ial
re load
ĠF ITNESS
B E
ass oci
Ġadd ing
DataCache Dictionary
Ġr c
ĠPAR TICULAR
} "
[ (
Ġp ants
Ġf rappe
valid ators
cat alog
o res
ent s
ĠO P
CO UNT
a i
() '
Ġcom m
Ġt re
content types
me t
Ġfor wards
Ġt ar
Ġd ns
F in
Ġlog ged
l m
and box
Re play
Ġge vent
2 34
TI VE
T uple
act ivity
abstract method
Par ams
er ce
chunk s
S ee
Ġfor ward
Ġw arn
Ġor d
com bin
da e
e lif
, "
l n
Ġ' "
ĠB ook
Ġlib s
cu da
Ġfur ther
dec imal
Ġcalc ulate
uni form
: ')
Dep end
ĠDocument s
ect ors
R aise
back ground
rel ationship
ĠM AX
attach ment
app ings
ou ght
ax es
mbed ded
fin ish
rst rip
err no
Ġwho se
METHO D
Z ero
G TH
L ANG
g ateway
S kip
Lo gin
OF F
Ġinter faces
device s
ĠN e
B L
co d
ĠW rite
ĠU sed
S ample
Ġg reen
Ġauth ors
Ġclean up
ort ed
c lock
h y
MP LE
g u
ce e
Test Suite
Pro perties
b lueprint
patch er
ĠSt atic
JANG O
) ",
U se
co ordin
AT OR
Ġread ing
Ġ archive
Ġn one
con stant
ĠD ep
Ġmin imum
Ġpre pare
Ġc wd
Ġdoc string
A IL
[ \
ĠC L
ĠG NU
Ġcop ies
Ġ ~
Ġlanguage s
READ ME
e per
t f
ĠOpen Stack
ĠGroup ing
st or
Ġth row
Ġc enter
00 01
######## ###
Ġal tern
Ġrepresent s
ĠCh ar
Pos itive
MAG ES
ĠP ri
index es
pack et
ĠKey word
i ct
Ġsm art
Util s
od b
S cheduler
er kzeug
IT S
Ġconvert ed
Ġde tect
ed u
Ġ" '
Ġsub classes
Ġmark up
z on
C ell
iz ard
ĠB ack
im it
Ġcreate s
ul ates
E V
G rid
cy cle
Ġb ash
defin e
ser ializers
ad s
sc ene
ir t
Ġge o
Ġac cording
"] :
meta class
Ġsimple json
A rticle
j pg
q t
Ex tra
ron t
J son
h ot
Ġre pla
ĠD esc
DE F
Var Int
clu ded
Ġdefer red
k o
==== ===
aa aa
=_ ('
S O
y ou
Ġp ragma
al len
ĠS ource
l as
(' ''
Ġr and
A dapter
G ROUP
re a
AT CH
Ġcol s
P lease
Ġs li
co v
E M
L IN
Request Handler
Ġansw er
! ")
as array
can vas
pro ps
Ġopt parse
Trans action
) **
r is
V ector
Ġ{} ".
Ġpart ition
Ġ200 7
gg reg
FIL ES
P ub
Ġb ook
Node s
Ġbet ter
) +
_ [
art beat
Ġindex es
6 00
FIEL D
Ġro om
Ġspecific ation
ar es
Ġre ally
f h
Ġunder lying
AB C
st and
P rint
ĠEn vironment
y m
Ġth ing
Ġar rays
SC HE
c ategories
ierarch y
R UN
ĠSer ies
Ġdeploy ment
Gener ic
Ġ#------------------------------------------------------------------------ ---
P r
Ġs parse
ile s
Set up
ĠDefault s
dire ction
Ġc au
ĠC ache
mpl ing
ĠIMP LIED
LEN GTH
Ġ' +
Ġcount s
Ġappend ix
> ",
il li
ĠCON F
temp dir
yp ed
sens itive
Replay All
dae mon
V erify
b ench
arg types
) -
me ter
Ġb order
data sets
la in
ar ing
ĠT E
Ġevery thing
at ives
jo int
Ġdis abled
v ors
Ġqu otes
ad vance
ĠĠĠĠĠĠĠĠĠĠĠĠĠĠĠĠĠĠĠĠĠĠĠĠĠĠĠĠĠĠĠĠ ĠĠĠĠĠĠĠĠĠĠĠĠĠĠĠĠ
Ġnamed tuple
b ulk
l r
ar b
Ġsm all
Ġfig ure
B ind
Ġcheck ing
Ġ8 0
Ġappend ed
require ments
gr ant
extend ed
Ġsig ma
ĠComp ute
` :
Ġth reshold
Ġpy jamas
ST ART
place holder
ĠClo ud
Ġapp lied
sub scription
dis connect
ĠP os
Ġmeta var
Ġsepar ate
B Y
O ffset
Ġdo uble
distribut ion
di alog
Ġwe ak
} ',
G S
> .
b us
E P
Ġo prot
4 3
Ġd en
len ium
Ġref resh
n dim
Ġt imer
Ġ2 3
load ing
Ġout file
Ġhandle s
Ġlat est
Ġlet ter
Rout er
st andard
Ġg u
Ġsc ripts
C opy
ĠU N
cre ator
ar ation
Ġcon firm
Ġr ather
ĠG iven
act er
rest ype
ra b
append ices
Ġact ivity
Ġ'. '
rozen set
Ġdescrib ed
ĠPro xy
gorith ms
la unch
kw ds
cor der
Ġsub net
Ġ"" )
Ġr ng
loc ations
Ge ometry
n c
Ġc rypt
Ġmanual s
Ġp ad
Ġshould n
R ender
ĠE VENT
Ġversion added
LO B
A ctor
Ġv ol
hex digest
X Y
tt l
v tk
" })
S w
Ġ200 8
Ġet ree
Ġlook ing
Ac cept
le mbic
li hood
Ġd ays
di ag
Ġent ire
in crement
is m
Ġbase s
ST ATIC
hone Number
7 0
B ody
H ook
l b
op le
10 24
Ġa ff
PR ESS
L IC
Ġdi alect
Con stant
Process or
re pos
bal ance
Ġpre vent
cee ded
dis abled
ĠAUTH ORS
F unc
h ass
Ġh yper
curr ency
Ġc p
Defin ition
e ys
Ġlib cloud
sm all
a de
n ick
Ġp lease
Ġpro cesses
open id
Ġser ializers
v l
Ġin line
Ġax es
A x
en coder
me sh
He aders
Ġmon itor
__ ',
ĠP oly
tw itter
scope s
r idden
Ġstep s
Ġhel pers
etri eve
Ġstd in
(' ')
([ ],
ĠR O
AS H
Ġpub lished
ĠDi ct
d jang
e ved
build ing
alc ulate
={ "
B o
M ain
Ġe poch
ĠF ind
oc us
att rib
P U
file no
Ġ" )
ĠB UT
De bug
= ',
gener ated
Ġt a
Ġpre pend
Ġpre tty
ĠSt orage
sv n
R F
Ġf ab
qu eries
Com mon
Ġdepend ency
Ġc er
istribut ion
Ġreturn ing
i kip
fi d
Trans l
d en
set Level
su do
E VENT
t i
Ġf s
Ġlog ic
Ġsh ift
pub lished
Ġg ive
Ġ2 2
Ġassign ed
S ITE
Ġde tail
ron tend
ri gin
Ġinclude s
iv ing
ph p
ĠSQL Alchemy
SER T
assertIsNot None
Ġexplicit ly
pi e
add on
MODE L
s izes
EN G
Ġfix tures
CRE ATE
CHO ICES
Ġm ultip
ĠM on
tri p
Ġutil ity
Ġper m
Ġb al
50 9
expi res
u do
Ex ists
Ġexec utable
N et
al ice
ex info
F etch
ĠL ink
Ġformat s
Ġf un
date s
ĠN ULL
ma jor
Ġlon ger
de scriptor
ĠL ab
Ġfi re
ĠH ost
T C
Ġg c
Ġnd array
" )),
G lobal
Ġw on
ap on
out er
ĠC ho
ĠV ector
work sheet
OP EN
ke h
Ġag ree
let ion
ikip edia
Ġre ct
Ġs yn
ĠA uto
Ġload ing
Ġser ial
Ġformat ter
IL D
5 4
Ġ ut
Ġse lector
ys ical
unc ate
Ġiter ation
Ġfix ture
T AG
Ġen um
F ont
ro py
Reg ion
" },
ra se
sh utdown
R aw
C luster
CON N
.... ....
ĠM ax
adapt er
B ER
Ex pression
Ġab ort
F lask
TR ACT
or dered
ch a
Ġvis ible
ur lopen
=[ ],
={ },
Ġline ar
Par am
Argument Parser
con structor
Ġe as
qui et
SH A
[' _
ud it
PO INT
c as
ans wer
m utable
Error s
ĠV ariable
V er
Ġ' {}
li very
Dis play
exist ent
tick et
Ġtermin al
DATAB ASE
Ġ arch
an ded
ag ination
su ally
dig its
f riend
t m
ry ption
UT F
OL D
h yper
ĉ ĠĠĠ
Ġim mediate
q name
/ (
sc r
VI DED
C lick
Ġdi alog
KE T
Ġsuccess fully
ENG INE
Ġh idden
xy z
(_ ('
N eg
Ġp ull
th ought
log ged
Ġevent let
az y
Ġcy cle
ra ck
T ri
p ow
s yn
on d
ĠGener ate
c al
d h
LI MIT
p w
as is
Ġm uch
wrap s
Ġdefin es
ge ometry
Ġal iases
Ġprob ably
ĠZ Z
ĠA pi
Pre fix
short cuts
lo ur
ĠF oreignKey
ĠM ay
Http Request
t rib
Con f
Ġchar set
Ġchannel s
bit rary
Ġcontribut or
" ')
t ip
Ġde scriptor
ĠS ec
etri c
Ġregard ing
I I
Ġc ent
D one
c raft
Ġm u
N on
S m
Ġle x
ver bosity
Di ff
b idden
n l
he el
Ġf av
ĠS u
c ross
Ġst ub
ĠSt ream
i lo
I X
co verage
Ġ1 0000
Ġe asy
b old
Ġ' ':
Ġsy mbols
Ġ12 34
! "
s aved
ap ed
Ġpro cessed
ĠV M
D iv
M erge
spec ial
ĠF rame
ĠF irst
Ġdefin itions
ĠRes ult
""" )
Ġne gative
ĠCOPY ING
Clean up
b i
t c
Ġp ending
ĠCreate s
(? :
rec ipient
h df
an cy
ĠEn gine
Ġrec ipient
I E
T itle
Ġc aller
as m
V al
o v
in ds
at ural
ĠLIMIT ED
Ġc ard
ĠA P
Ġr ename
Co okie
fs m
ret ty
^ ^
": "
precation Warning
U ES
al ive
Ġowner ship
da o
Ġli ght
ĠJ ob
Ġmanage ment
ĠS alt
Ġare a
se udo
ro tt
Ġfile path
Name d
Ġport s
ran ches
d m
Ġnode list
pl ural
b p
vi m
E G
termin al
m igration
ke eper
ex er
with in
b enchmark
ex change
ac ity
To Many
EC TION
Ġn args
Wor ker
Ġstri ct
failUnless Equal
s ince
Ġw sgi
Ġre maining
ĠFI X
Ġauto Generate
Ġsimp ly
is ing
sql alchemy
ĠAs sertionError
assertNot In
T T
a ign
lo or
ĠCol or
ĠArgument s
Ġc StringIO
Ġpy copia
Ġz er
FL AGS
//// ////
Ġd ynamic
top ics
th umbnail
ĠDA MAGES
Ġadd s
AL I
Ġvalid ators
Ġmin imal
Ġhapp en
5 7
W I
_ ('
Ġ licenses
ach ing
ĠIP ython
h uman
an a
bar s
Callback s
spe ed
ss ue
Ġun less
ĠĠĠĠĠĠĠĠĠĠĠĠĠĠĠĠĠĠĠĠĠĠĠĠĠĠĠĠĠĠĠĠ ĠĠĠĠĠĠĠĠĠĠĠĠĠĠĠĠĠ
(_ ("
Ġpri or
Ġwindow s
' m
I t
M Q
ram id
P H
me mo
ĠE mpty
l st
Key Error
Dec imal
Y Y
s f
Ġw ar
ĠIN ST
issue s
C F
Ġdirect ives
Ġsuccess ful
lo re
cat en
] ["
Sec urity
g d
Ġ' ?
Ġ{ {
ne gative
ĠPro duct
S cale
ĠS ER
ĠNot es
Ġbu ff
Ġrun time
Ġcode s
! ')
Ġ qual
Ġtra its
comple tion
leg ate
5678 9
m r
"" ,
Ġfloat ing
Ġrece ive
C alled
UT E
not es
av g
ĠPy gments
HEAD ER
Ġgrad ient
lev ant
d ynamic
Ġme asure
Window s
Ġ2 1
book s
G it
Ġcheck ed
rit ical
Ġrel ation
callback s
An y
di ction
op ro
pro viders
cel ls
per form
pon ent
W idth
Ġ' ..
Ġse ver
m ul
th en
ap s
Ġsort ing
Ġprefix es
un used
=' '):
lif y
at ype
ĠAl low
d ocker
ĠI mplement
ĠP ackage
Ġ ^
Ġm iddleware
C md
Ġ question
ent ities
al ter
ct ree
Ġf h
key stone
Ġclient s
reg istered
check s
She et
F ind
sig ma
str ategy
ĠB lock
defer red
foot note
h int
p d
ag ers
table name
top o
DataCache Functions
ĠContent Type
Ġ' $
: /
i ence
Ġp adding
Ġmon key
co ord
Ġser ialized
A WS
ĠL abel
WAR NING
Temp orary
U UID
ĠSchema Migration
([ ^
Model Form
T ools
in ject
work ers
se en
st age
ĠA ccess
Ġser ved
con struct
AC CESS
h orizon
AS ES
F inder
Ġstart s
ESS AGE
asset te
ip pet
Ġpre dict
product s
Ġhand led
ag greg
oper ations
un e
Ġh ist
ĠF ree
Ġclass ifiers
ES SION
Ġmock ed
ĠIN CLUDING
Sp lit
Schema Migration
Cur sor
l se
State ment
Ġmo unt
Ġloc ations
MET A
Ġro ut
domain s
some thing
N e
a jax
ach ine
b ian
fo cus
ĠR ule
Ġpass ing
let es
D el
ĠD IS
pre t
collection s
SS H
ĠMy SQL
ĠHel p
B R
F irst
ĠEx tension
Ġequ ivalent
ĠS end
Data set
pix el
tra it
author ization
CLI ENT
Ġf amily
ca len
distribut ed
m dao
ĠA LL
log out
the ta
Set s
Ġad just
Ġor dered
Ġl st
M Y
S yntaxError
limit s
Ġcert ificate
> ]
f u
v ol
ĠM in
sc enario
s olver
Ġs ol
ĠR PC
ĠQt Core
1 01
p du
Ġ ----------------
per ms
let s
Ġj inja
ĠAp pro
Ar ch
Ġtitle s
Ġvar s
d y
Ġ\ \
cre ation
Ġdf p
W ID
ĠP art
Ġfunction List
gener al
TER N
ĠR ange
: ],
at temp
er ry
Ġan aly
Ġag gregate
Ġprocess or
Ġspe ed
b order
Ġre peat
ĠPRO VIDED
Author ization
4 6
d temp
or ient
Ġun used
([ ])
ĠCOPY RIGHT
C ert
Ġs ystems
Ġen ough
D ist
D JANGO
N ormal
ay es
Id entifier
B SD
EN CE
Iter ator
x html
Ġplace holder
ĠDe ferred
Ġin DataCacheDictionary
Be gin
quest ions
ron ic
Ġsu do
x path
Ġc lf
Ġag greg
ĠD O
urn al
j inja
ĠRe port
Un icode
sen ce
C or
ĠE mail
9 6
f y
Ġpos itive
Ġr hs
n or
Ġc atch
Ġin herit
ĠI ter
ĠH as
Ġsc enario
Ġwrap s
- +
Ġ= >
er ature
ro bot
ĠS tack
Ch art
Ġ" [
bind ings
ĠCre ature
Ġf ragment
Re lease
ĠJ ava
vo ice
re moved
Ġin correct
pro j
Ġ""" \
po inter
real path
mp p
ta ke
At tributes
Ġpri ce
contain ers
M is
mo use
crypt o
! '
encode d
b f
m f
post s
b g
h at
tri al
ĠEn thought
stub s
F UN
Ġdi gest
pre tty
cli p
annot ation
rad ius
cla use
ĠGe o
calen dar
ĠD OM
make One
NO WN
Ġm ut
(" .
OR M
m igrate
Co unter
Ġ* =
ĠForm at
k y
r as
ĠP h
Ġ################################ ################
Ġcompat ible
Ġsu ggest
ĠDAT A
ĠC H
we et
order ing
__ :
how to
B ook
on al
view er
ĠCon nect
ĠHttpResponse Redirect
ĠBy tes
th rift
In stall
Ġwidget s
Ġm ar
ĠC alled
du ctor
99 9
Ġ################################################################ ###############
super user
i vers
Ġb enchmark
Ġw erkzeug
ĠT exinfo
ch at
M IS
ĠW hether
vid ing
/ ",
= """
x ies
ic les
Ġlo ss
wh ile
ircu it
m id
ou ch
UL TI
level s
ser ialization
') ):
con tribut
16 8
Ġauthor ization
ighb ors
Ġh ard
N ull
w rong
ne g
('/ ',
Ġge ometry
USER NAME
Ġprec ision
IDD LE
Ġsc ene
ĠL ay
P N
Ġde al
M sg
OP TIONS
S ave
k b
un link
Set ting
authentic ate
Ġr ank
lin alg
inf ra
let te
ele ry
v lan
a lert
(' {
ĠProtocol Buffer
F older
l arge
Ġc ast
Ġm ix
ĠI d
code c
Ġtra iling
Ġxml ns
ĠDate Time
Ġc Pickle
ĠS SH
al ph
Ġb ra
Ġent er
ĠPar ameter
A sync
ĠF a
sub plot
Ġfl ush
D im
an it
Create s
F E
n y
po ses
sp ider
PRO TO
letter paper
ĠR andom
Ġre d
Ġa verage
py pi
Ġval s
Ġfail ures
Child ren
Ġexact ly
h ide
C D
] ',
ĠWIT H
Ġder ived
CLASS ES
ail gun
present ation
Fla vor
y y
y ield
ĠT op
Ġg data
ĠĠĠĠĠĠĠĠĠĠĠĠĠĠĠĠĠĠĠĠĠĠĠĠĠĠĠĠĠĠĠĠ ĠĠĠĠĠĠĠĠĠĠĠĠĠĠĠĠĠĠĠ
P ACK
pt ime
fa v
Ġh ig
Ġcer tain
Ġsent inel
Ġc mp
Ġin tern
Ġla unch
allen ge
g c
ĠS im
ash board
Run ning
Ġdig its
Ġf ew
ĠRe cord
mark down
driver s
Ġdire ctor
Ġp t
RES P
t abs
() }
ĠA CTION
ĠC ase
T imer
Ġw s
Ġpy gments
reg ions
umer ic
min ute
ĠWARRAN TY
ĠT ABLE
Ġg uess
ns upported
Ġagree ments
de ps
me asure
ur lencode
Ġf ace
co pg
Ġget ting
OT E
Attribute Error
LE V
Ġwe bsite
En ter
Al most
ĠLab orator
m orph
er ator
ro utes
'] }
not ation
WR ITE
Ġb lueprint
Ġ( .
check ed
DIR S
ĠFIX ME
h ub
Ġ layers
Ġc pu
Ġde limiter
'] (
Ġsub scription
Oper ator
, \
B B
Ġtmp dir
Ġwho le
Ġsq rt
Ġc are
ĠU til
Ġsh ard
Sp ace
( .
n umbers
Ġlat ex
inc ip
Ġd aemon
ĠA sync
cur acy
RES ULT
Ġpro ps
Ġsh are
Not ification
udi ence
Ġin ject
Con d
hour s
Ġvirt ual
/ *
al tern
up er
ĠE num
([ ('
tod o
Ġ( ('
Ġpy g
Ġsub mit
side red
i j
Ġdir s
Ġcallback s
v pn
fi r
test er
ag tail
C ard
z A
se g
ĠT Y
up y
Ġe c
Name space
L imit
g anization
ort h
Ġro les
roll back
quot a
Ġ ve
Ġt ail
Ġin crement
Ġ3 00
dia lect
b an
un ion
el low
Ed ge
Struct ure
IN DEX
Ġ################################################################ ###########
Ġcoordin ates
irt ual
b ut
e qu
it ation
om in
f eat
z a
Ġc lock
ĠM icrosoft
Ġrepresent ed
non ce
ĠSm art
Ġart ifact
ĠB Y
Ch unk
Ġcustom ize
From String
7 2
Ġp ie
and ra
Ġfil tered
5 8
Ġh orizon
E Y
Ġc ancel
IS ING
Ġman ifest
Ġmag ic
Almost Equal
P h
ar ative
de precated
ag ger
im ing
dict s
LANG U
L ost
Ġp m
mon g
sk top
Ġrequire ments
t ics
ide o
Sum mary
bu ff
ph i
:// %
opro ject
di git
ĠĠĠĠĠĠĠĠĠĠĠĠĠĠĠĠĠĠĠĠĠĠĠĠĠĠĠĠĠĠĠĠ ĠĠĠĠĠĠĠĠĠĠĠĠĠĠĠĠĠĠ
Ġstate ments
ĠLoc ation
retri es
\ "
al gorithm
ul ly
Ġ[ {
ca de
Line ar
Ġflat ten
S P
m icro
ep ub
mag ic
0 33
R et
#### ##
th ree
Ġac ross
Ġfin ish
Query Set
cert ificate
separ ator
Ġopen mdao
Man age
m gr
o ct
ĠW ith
lib s
Ġproduct s
ĠSH ALL
s lave
new s
art ifact
Test Base
Class ifier
Sh ape
w as
ct ime
ass andra
ĠSet up
report s
Ġ2 56
Ġauthentic ate
Ġta ken
s r
Ġs olution
ĠN on
Ġsend ing
profile r
Ġiss ub
Ġ------------------------------------------------------------------------ -----
Ġcu da
x c
ĠC urrent
IC T
Ġup grade
ug ment
CC ESS
pe ated
Regex p
: ")
r ant
') ).
EN ABLE
Ġsen try
A ML
Ġde p
Ġnot ify
pro cesses
T LS
Ġn n
mit ive
ĠSet tings
Ġproject s
Ġf ore
Ġe cho
do ctype
Ġge om
Change d
ĠC ategory
vi e
report er
termin e
Ġbo unds
ĠW HE
ac ing
velo per
a use
Ġ' (
ĠO b
ĠAR ISING
Ġe ps
py gments
Ġcom ing
for a
ĠPro perty
Ġbuild ing
AC TION
Ġrepla cing
Ġp aper
Ġin tegr
Ġact s
Ġmin utes
load ers
Ġf u
Dec orator
A rea
Ġres olver
ator y
Ġexpi res
B lob
D est
J S
Ġn b
Ġcon sidered
Ġdo ing
Ġinstall ation
eval uate
DES CRI
D D
ĠR FC
? )
v est
is co
(' __
Ġh it
LOC AL
S ide
ĠS w
Object s
uest ion
Ġp oll
Ġres pect
fin ite
has attr
Hel p
Ġb and
col l
Ġ( [
Ġpar agraph
ĠLI ABLE
Ġannot ation
> /
ar s
Ġr enderer
Ġur lencode
O O
b lem
il la
ma ker
HO ME
9 8
A p
Ġre load
un ded
Ġh aving
str s
py c
Id entity
Ġlo st
Ġover ridden
ĠWHE THER
C redentials
] \
protocol s
R GB
k g
M AN
Ġrad ius
o ffer
assert Dict
mis c
Z ip
Ġn ative
te ardown
read lines
Ġmat ched
)) ))
Ġso ft
AG ES
Ġp rom
Ġf o
un nel
ĠV AL
De coder
Ġcustom er
tz info
v in
sub set
re store
ĠS tore
riter ia
Reg ister
ĠSh ow
il on
ab out
=" /
Ġresult ing
ob ot
Rel ated
dire ctories
Ġout side
ĠPro file
Inter rupt
T ABLE
] (
b c
Ġ3 1
ĠGet s
char set
Ġ12 3
mp ath
qu it
i log
), (
MS G
Ġaccept s
SIG N
B atch
Ġ -----
Re pository
QU E
199 7
="" ,
S ingle
X ml
ĠU I
} /{
he alth
ur able
Ġen c
Ġcomp iled
Ġfiles ystem
Ġver bosity
Ġ' \\
Bad Request
c n
range s
im ate
Ġbase name
Ġle arning
Ġinte gers
I p
L exer
m ixin
Ġf requency
Ġb el
split ext
ĠCON TRACT
Ġd p
we apon
b io
il low
ĠG E
ĉĉ ĉĉĉ
Ġreg istration
io us
DO WN
Ġdepend s
S upported
he ses
Event s
f tp
ĠU SER
dir ty
L C
di ctionary
Rout e
Ġal t
ĠStop Iteration
Ġissub class
se qu
us ic
ĠRed is
Ġc ipher
Ġre pos
ĠS olution
par ed
-------------------------------- --------------------------------
ĠCon trol
djang oproject
N ext
e mbed
m g
Ġdate s
Ġcomple ted
Ġindic ates
Con sole
Ġmulti processing
art ist
Ġf lex
Ġ( _
node list
Res olver
UP PORT
as ource
ul se
ig uous
AD MIN
ot ion
)) ]
yn omial
Ġgrant ed
c raw
g amma
log ical
WID TH
t v
Ġ esc
Ġd x
M ail
inter cept
Ġeval u
ĠContain er
Ġre cursive
Ġcon ven
ĠF in
UR N
d ating
p ur
Ġc alendar
() ['
Ali as
m ant
u alen
enc rypt
Ġ lf
Ġ| =
ine ss
am ing
Ġcomp arison
Ġmodule author
sw ift
Stat ic
Ġinv oked
+ "
P K
() ``
Ġg s
fav icon
Ġr s
author ize
IDDLE WARE
Ġk ill
Ġj s
5 2
Ġc id
Ġn or
ra py
ĠS ince
Ġg zip
clu sters
ĠK EY
commun icate
Ġn avigation
pe er
not ifications
Ġpo inter
atri ces
ĠDo main
schem atic
K eys
R ST
v endor
iz ations
Ġme t
su c
Ġindic ating
. '),
H ub
Ġpro per
ĠW idget
De code
AD D
Ġprepend ed
x lsx
al one
Ġf riend
Ġperform ance
v otes
de coder
Ġg tk
Ġbe come
Ġlist ed
AT TR
ĠCON TRIBUT
Ġinit ialization
block ing
tuple s
R pc
ri an
Temporary File
M I
P RI
ĠOver ride
Ġs in
Ġ2 8
Ġme mo
cre ase
View Set
ĠAt tributes
rf c
vari ant
5 3
R A
ro uting
Ġo l
(" <
Ġvis ual
5 12
H istory
it able
queue s
Ġnormal ized
ĠValid ationTest
M ULTI
fa ctories
ĠEx p
ĠConfig Parser
' ve
d og
ram mar
h its
Ġ ri
Ġissue s
de ad
ĠM ongo
obj s
go ing
rece iver
G P
annot ations
irc ular
Re vision
py plot
liter al
Ġlook s
prob lem
Ġfl ash
h ar
re start
an onymous
writ ten
m x
ĠM ain
min utes
Ġmime type
ĠCONTRIBUT ORS
D NS
num eric
sens or
R ect
} ')
face book
ane ous
as ket
ĠP rint
ffi c
Ġrelease d
st o
al bum
loc ate
bs ocket
He ight
Ġa ffect
Ġst and
Ġst age
oo keeper
ĠCON N
Ġtrans ition
sy mbols
ĠD oc
out ine
ld ap
9 7
] {
f m
in et
ĠN AME
Ġprob lems
Ġthrough out
WS GI
b et
l and
Ġdistribut e
ĠT ri
'] ):
sh ake
Ġco s
Ġob server
Ġaut os
C trl
Z Z
an other
Ġa ge
iv ative
Ġf allback
(" {
Ġse ll
high light
C V
q os
ve red
MP TY
ĠEX PRESS
ins pect
Mon itor
log ic
Query set
assign ment
ser ialized
Ch ain
' <
P ublic
ch r
Ġcon version
ĠU UID
ĠTY PE
Ġar bitrary
Ġdiffer ence
Ġshort er
h d
z k
(' #
Ex port
ep s
Ġsp aces
re et
Ġp g
Ġa dapter
Ġse p
TO DO
Ġhighlight ing
x form
al ways
Ġro utes
Ġcontext lib
Ġcla use
fir med
ter ms
ff t
ĠT CP
mod index
ĠCommand Error
Ġbind ing
in voke
Ġi de
py eq
ĠBase Command
thread ing
lock ed
wh at
au dio
Check er
Map per
AR CH
Ġz ope
Ġab c
Ġframe s
l asses
de serialize
Ġsub set
Ġdisplay ed
' ")
ĠCol lection
track er
ĠOption Parser
Ass ign
] "
Ġ lu
Ġ vec
Ġde mo
Ġ" $
Tag s
I RED
u ght
Ġv tk
Ġ200 6
Ġtx t
li ver
Ġh ack
Ġse quences
Run timeError
andid ates
h adoop
ro ls
Ġf sm
pre amble
ĠIn tangible
ĠOr der
ĠTrans l
Ax is
as sets
ĠS ave
ĠGener ator
ualen v
st aff
Ġre store
IN SERT
av atar
be havi
Ġfa ctories
N ote
v t
y P
Ġc ategories
ce le
Ġe ar
En abled
Ġret val
ĠHow ever
B AD
I MAGE
a h
Ġwe bob
Ġcan vas
ĠBytes IO
P op
d ry
Ġm ouse
Ġload s
ĠURL s
4 03
f b
ph ase
cred s
} ]
', ),
ĠD ist
po licies
Ġch r
capt ure
oc ab
Ġsign ed
200 9
mk dtemp
ĠDis play
g uid
Ġex change
ĠR aise
RE AM
part y
Ġtop level
real m
differ ence
" ',
ic ip
th rough
Ġread s
Init ialize
postgres ql
LEV EL
e ach
y cle
work ing
Ġnew line
Ġexec file
Qt Gui
Sign al
ToMany Field
j it
st ock
end points
un ix
add Cleanup
Ġco untry
Ġco okies
pos al
ĠJ son
N ULL
() ;
el astic
Ġsa hara
: ,
} ):
RE GI
Ġnum eric
Valid ate
Le ft
E nt
T OP
i red
g uest
Ġpro g
ĠRE AD
) ['
res olution
S ection
int ext
Ġl xml
ĠThe me
Ġapplic ations
Ġexpression s
inline Callbacks
te arDown
M AR
Ġth ird
ĠR EST
XX XX
Neg ative
Ġst mt
clu sion
Form s
A b
P AGE
P UB
re es
Ġsh all
Ġli ve
scrib er
F ACT
p ayment
Ġh uman
Ġdi ction
( .*
Ġo cc
Ġimmediate ly
A rt
L ines
S ESSION
a verage
end s
comp iled
Ġte ardown
do ctest
INE T
Ġ= =======
Ġc ut
Ġa dapt
Ġ( ?
Ġat trib
Ġman ually
CO OK
fore ign
Ġdevice s
ĠTime out
5 1
chan ism
N N
r n
s ms
ĠM ac
Ġan alysis
web app
.* ')
ĠWor ld
Ġ" {}
iz ing
.. ."
def s
Ġmerge d
ĠE OF
In tended
Ġsepar ator
Ġb lue
ve y
Ġma intain
Ġcomment ed
Work flow
I LED
ro me
Ġs izes
trans fer
Ġdecor ated
dimension s
P A
Ġd uplicate
Ġlib raries
Ġnetwork s
âĶĢâĶĢ âĶĢâĶĢ
Dis k
A ggreg
S im
c rop
ĠC luster
ĠB ar
ill ar
User s
ĠMan ager
Ġcoordin ate
Ġa lert
func s
af ka
contin ue
g iven
p ay
Ġd y
Ġm ixin
ĠA udience
v c
de gree
Ġc al
Ġm igration
ĠE lse
OR IZ
Ġtrans fer
INST ALLED
Ġre versed
Ġd ashes
to o
ise d
Con v
ĠLI ABILITY
NAMES PACE
Ġ est
put VarInt
Ġl s
Ġtri p
T RAN
Ġc ss
ĠE T
Ġtry ing
Ġtra j
Ġ12 8
ĠName Error
? ?
w ikipedia
ig ma
ĠP AT
.. .")
Ġclean ed
Ġassign ment
Ġzer os
E rr
re cursive
li o
import s
Ġma king
Ġinter active
Ġgre ater
E val
o bs
Ġde velopment
Ġto do
SE D
Add itional
expand user
z ure
Ġc f
mp loy
ub y
01 234
Stub Out
ate ver
== '
RE F
Ġph one
Ġspecify ing
Ġp b
ĠE ntity
{} '.
Ġtt l
S ING
et ag
ist ant
Com mit
lsx Writer
g yp
ill ing
Ġshe ets
} ))
Ġw alk
") ]
comp any
Option al
Ġth ough
ĠF rom
last ic
ĠCor p
Ġto gether
int o
we ak
ĠX lsxWriter
ICA TION
ĠQ Q
Ġaut odoc
Ġpyg let
ad just
qu ant
ĠPro vider
ĠComp onent
SC RI
Red is
Ġ er
Ġs ing
Ġb s
ĠF ail
loc ator
static files
assertDict Equal
ĠP ub
ĠM ust
ir th
ĠPar ser
script ors
ĠEn try
gg le
Ġart icle
ĠF acebook
Ġpos itional
Ġaccept ed
Ġen crypt
xx xx
ĠLaborator ies
W ord
c ity
Ġ' &
ic ates
Ġlevel s
Tra its
spe ction
G en
n i
ph oto
Ġtext wrap
filename s
Ġdebug ging
retri eve
Ġpred icate
$ ')
Ġdata sets
read only
Ġfe el
Ġsever al
aut odoc
Ġco verage
unt jac
ĠR ES
Ġgo ing
mod ify
Ġq is
SER VICE
6 8
style s
RESP ON
+ =
re aded
form set
min al
calc ulate
Ġcapt ure
Pipe line
un ce
() `
di an
ĠE nd
IN PUT
Base TestCase
V S
", "")
skip If
Ġorg anization
WI SE
D es
b ias
Ġg f
Act ive
; ;
ĠB o
spec ified
riter ion
With Mock
Ġhook s
ss ib
